<unk>	0
<s>	0
</s>	0
▁1	-0
▁2	-1
▁이	-2
▁(	-3
▁20	-4
으로	-5
에서	-6
▁있	-7
▁!	-8
▁사	-9
▁대	-10
▁그	-11
▁-	-12
▁19	-13
▁:	-14
▁수	-15
▁아	-16
▁기	-17
▁시	-18
▁제	-19
▁201	-20
an	-21
▁지	-22
▁가	-23
이다	-24
▁전	-25
▁하	-26
었다	-27
▁3	-28
00	-29
▁한	-30
▁정	-31
▁다	-32
▁일	-33
er	-34
▁주	-35
▁중	-36
▁것	-37
▁200	-38
▁있다	-39
▁역	-40
▁공	-41
▁자	-42
▁경	-43
▁위	-44
했다	-45
▁《	-46
th	-47
="	-48
하였	-49
▁인	-50
or	-51
le	-52
하는	-53
▁유	-54
▁보	-55
▁*	-56
▁부	-57
on	-58
st	-59
in	-60
▁마	-61
▁미	-62
▁조	-63
▁오	-64
▁4	-65
▁선	-66
▁나	-67
co	-68
하고	-69
▁등	-70
▁연	-71
▁모	-72
▁스	-73
en	-74
되었다	-75
▁동	-76
▁소	-77
▁의	-78
sp	-79
▁고	-80
▁개	-81
▁국	-82
al	-83
▁영	-84
▁5	-85
하여	-86
20	-87
하였다	-88
▁도	-89
▁비	-90
▁신	-91
▁S	-92
▁서	-93
span	-94
▁발	-95
▁상	-96
▁구	-97
▁여	-98
니다	-99
▁세	-100
▁#	-101
▁문	-102
▁해	-103
ar	-104
한다	-105
▁관	-106
19	-107
id	-108
▁후	-109
▁성	-110
▁6	-111
에는	-112
▁프	-113
학교	-114
ro	-115
으며	-116
▁M	-117
▁때	-118
at	-119
col	-120
▁방	-121
▁대한	-122
▁7	-123
▁않	-124
▁김	-125
▁C	-126
▁10	-127
▁8	-128
▁무	-129
▁교	-130
▁장	-131
▁'	-132
▁"	-133
▁A	-134
▁우	-135
▁바	-136
▁있는	-137
▁내	-138
▁9	-139
▁~	-140
yle	-141
▁199	-142
▁T	-143
▁최	-144
style	-145
지만	-146
▁남	-147
▁만	-148
▁어	-149
▁출	-150
▁생	-151
에게	-152
부터	-153
▁통	-154
▁노	-155
▁사용	-156
▁12	-157
▁없	-158
▁포	-159
▁|	-160
▁진	-161
▁현	-162
▁결	-163
▁작	-164
▁같	-165
▁또	-166
▁원	-167
wid	-168
▁강	-169
width	-170
..	-171
되어	-172
),	-173
▁계	-174
▁리	-175
▁거	-176
▁파	-177
이라	-178
▁11	-179
▁요	-180
까지	-181
▁차	-182
▁안	-183
▁불	-184
▁반	-185
re	-186
▁분	-187
ac	-188
▁P	-189
적인	-190
▁당	-191
▁알	-192
적으로	-193
ic	-194
국의	-195
▁B	-196
▁style	-197
▁배	-198
▁말	-199
된다	-200
"|	-201
ST	-202
201	-203
it	-204
▁실	-205
200	-206
▁!!	-207
▁명	-208
▁F	-209
BS	-210
▁에	-211
ig	-212
▁18	-213
▁따	-214
▁예	-215
▁단	-216
▁타	-217
▁카	-218
▁K	-219
--	-220
▁재	-221
토론	-222
es	-223
▁D	-224
▁설	-225
un	-226
▁로	-227
KST	-228
▁특	-229
▁일본	-230
▁두	-231
들이	-232
▁라	-233
▁받	-234
color	-235
▁함	-236
▁되	-237
스트	-238
에서는	-239
면서	-240
▁L	-241
하게	-242
▁I	-243
▁198	-244
하기	-245
▁R	-246
am	-247
▁데	-248
▁코	-249
▁추	-250
▁한다	-251
레이	-252
ion	-253
들은	-254
▁감	-255
▁박	-256
is	-257
▁더	-258
▁이후	-259
▁및	-260
▁초	-261
▁종	-262
▁o	-263
▁참	-264
!!	-265
▁0	-266
리아	-267
▁독	-268
▁군	-269
▁행	-270
▁입	-271
▁G	-272
▁운	-273
습니다	-274
▁적	-275
▁승	-276
▁(19	-277
▁대한민	-278
▁양	-279
▁15	-280
▁매	-281
▁H	-282
</	-283
▁편	-284
▁변	-285
▁저	-286
▁프로	-287
▁많	-288
▁본	-289
▁N	-290
으나	-291
▁건	-292
▁피	-293
ed	-294
▁호	-295
▁E	-296
았다	-297
▁태	-298
el	-299
▁한국	-300
▁올	-301
▁임	-302
▁of	-303
▁베	-304
▁<	-305
▁형	-306
10	-307
는데	-308
▁표	-309
였다	-310
▁크	-311
▁회	-312
▁다른	-313
ol	-314
▁음	-315
▁과	-316
▁평	-317
▁/	-318
▁활	-319
il	-320
▁;	-321
▁외	-322
▁16	-323
▁p	-324
et	-325
▁같은	-326
▁경우	-327
▁th	-328
▁경기	-329
년에	-330
▁총	-331
▁목	-332
▁다음	-333
▁번	-334
ing	-335
▁그리	-336
▁열	-337
▁드	-338
.0	-339
▁화	-340
▁s	-341
▁그는	-342
▁산	-343
들어	-344
▁되었다	-345
들의	-346
주의	-347
▁위해	-348
▁사람	-349
▁왕	-350
▁W	-351
▁때문	-352
되었	-353
ent	-354
▁\	-355
and	-356
▁달	-357
as	-358
▁민	-359
하지	-360
()	-361
들을	-362
▁197	-363
▁선수	-364
▁17	-365
▁각	-366
▁학	-367
us	-368
▁게	-369
▁메	-370
▁따라	-371
▁미국	-372
▁북	-373
▁지역	-374
he	-375
▁직	-376
라는	-377
▁처	-378
▁확	-379
">	-380
▁이름	-381
▁합	-382
라고	-383
▁그러	-384
ht	-385
이며	-386
▁시작	-387
▁야	-388
row	-389
▁자신	-390
▁간	-391
ack	-392
이나	-393
ma	-394
▁--	-395
하다	-396
▁함께	-397
▁t	-398
▁물	-399
▁레	-400
▁14	-401
▁토	-402
ur	-403
시아	-404
▁)	-405
▁f	-406
▁새	-407
하며	-408
▁(201	-409
▁투	-410
▁또한	-411
▁필	-412
▁J	-413
▁사이	-414
▁집	-415
▁기록	-416
등학교	-417
▁the	-418
▁청	-419
▁13	-420
▁O	-421
ch	-422
▁존	-423
▁속	-424
12	-425
▁2010	-426
▁항	-427
:#	-428
BC	-429
▁브	-430
▁체	-431
▁영화	-432
▁점	-433
▁문서	-434
▁U	-435
에도	-436
▁것이	-437
▁b	-438
▁약	-439
▁광	-440
...	-441
▁196	-442
▁디	-443
▁(200	-444
▁현재	-445
▁천	-446
▁법	-447
▁못	-448
▁서울	-449
▁히	-450
▁것을	-451
und	-452
이지	-453
▁2011	-454
▁때문에	-455
▁백	-456
▁복	-457
▁d	-458
▁2008	-459
▁판	-460
▁2014	-461
▁세계	-462
▁2009	-463
▁축	-464
▁2012	-465
▁2013	-466
11	-467
해서	-468
▁삼	-469
▁버	-470
▁심	-471
되는	-472
▁증	-473
om	-474
▁할	-475
▁하나	-476
▁금	-477
▁된다	-478
▁국가	-479
▁조선	-480
ad	-481
위원	-482
▁당시	-483
▁순	-484
▁2015	-485
▁언	-486
▁뒤	-487
기도	-488
라이	-489
▁그러나	-490
em	-491
▁권	-492
▁철	-493
이라고	-494
18	-495
15	-496
▁트	-497
▁창	-498
▁페	-499
▁충	-500
▁그의	-501
▁치	-502
▁첫	-503
기에	-504
30	-505
리는	-506
기를	-507
스의	-508
ot	-509
▁황	-510
▁애	-511
▁가장	-512
pe	-513
▁했다	-514
▁또는	-515
▁‘	-516
▁V	-517
▁네	-518
▁194	-519
▁살	-520
▁그리고	-521
▁하는	-522
▁것으로	-523
▁근	-524
▁플	-525
▁국제	-526
▁아니	-527
▁위치	-528
대로	-529
▁아이	-530
▁시즌	-531
▁취	-532
▁있었다	-533
▁c	-534
▁쓰	-535
▁2016	-536
''	-537
지는	-538
▁패	-539
▁30	-540
▁활동	-541
colspan	-542
▁대한민국	-543
▁루	-544
op	-545
▁돌	-546
um	-547
▁완	-548
▁클	-549
랜드	-550
▁들어	-551
▁준	-552
▁프랑	-553
gro	-554
ex	-555
▁팀	-556
▁2007	-557
16	-558
25	-559
는다	-560
ign	-561
▁다시	-562
ri	-563
rowspan	-564
▁〈	-565
▁=	-566
▁사용자	-567
라마	-568
▁병	-569
리를	-570
FF	-571
▁m	-572
▁허	-573
▁195	-574
ground	-575
▁의해	-576
▁방송	-577
ation	-578
▁용	-579
ackground	-580
▁있으며	-581
▁친	-582
▁and	-583
▁월	-584
▁in	-585
졌다	-586
이트	-587
iv	-588
리스	-589
일에	-590
ra	-591
▁2017	-592
이라는	-593
▁손	-594
14	-595
▁문제	-596
17	-597
▁채	-598
▁25	-599
이스	-600
▁이상	-601
▁통해	-602
▁많은	-603
▁위키	-604
▁22	-605
회의	-606
▁테	-607
▁있었	-608
▁뉴	-609
▁죽	-610
▁높	-611
000	-612
▁포함	-613
ut	-614
▁23	-615
했고	-616
▁2018	-617
▁홍	-618
되고	-619
▁→	-620
▁모두	-621
ia	-622
▁가지	-623
ul	-624
▁21	-625
im	-626
▁것이다	-627
▁생각	-628
▁2006	-629
align	-630
▁연구	-631
▁배우	-632
▁대한민국의	-633
▁모든	-634
하면서	-635
대학교	-636
▁이용	-637
▁검	-638
로서	-639
▁여러	-640
사를	-641
보다	-642
백과	-643
="2	-644
(19	-645
▁글	-646
▁좋	-647
▁윤	-648
▁키	-649
▁규	-650
background	-651
ont	-652
).	-653
▁은	-654
▁캐	-655
▁width	-656
13	-657
ge	-658
;"|	-659
40	-660
ight	-661
▁사회	-662
▁감독	-663
▁독일	-664
▁것은	-665
자가	-666
▁축구	-667
거나	-668
ct	-669
▁가능	-670
▁리그	-671
이었다	-672
▁논	-673
▁홈	-674
하였고	-675
all	-676
km	-677
이고	-678
도로	-679
▁위한	-680
리그	-681
▁24	-682
▁우승	-683
통령	-684
▁잘	-685
스는	-686
▁일부	-687
스터	-688
▁중국	-689
성을	-690
▁큰	-691
▁정치	-692
▁있어	-693
▁맞	-694
▁식	-695
▁대표	-696
▁a	-697
▁KBS	-698
개의	-699
▁정부	-700
▁주장	-701
니아	-702
▁온	-703
▁n	-704
▁환	-705
▁...	-706
▁날	-707
▁끝	-708
지를	-709
▁::	-710
합니다	-711
디오	-712
▁도시	-713
▁걸	-714
다고	-715
ers	-716
▁존재	-717
▁러	-718
▁하였다	-719
입니다	-720
▁자신의	-721
▁즉	-722
상을	-723
▁앞	-724
▁2005	-725
▁대해	-726
▁송	-727
lo	-728
이는	-729
▁별	-730
▁28	-731
▁해당	-732
▁처음	-733
▁협	-734
ew	-735
위를	-736
졸업	-737
나라	-738
▁길	-739
하면	-740
▁2019	-741
도의	-742
▁26	-743
▁다음과	-744
▁전쟁	-745
.2	-746
▁블	-747
cope	-748
▁뜻	-749
▁공식	-750
이었	-751
▁제작	-752
력을	-753
math	-754
▁내용	-755
▁일반	-756
▁w	-757
▁관련	-758
▁필요	-759
▁관리	-760
▁등의	-761
ir	-762
▁27	-763
▁The	-764
▁사건	-765
자의	-766
▁---	-767
이자	-768
od	-769
▁이루	-770
장을	-771
다는	-772
ext	-773
대의	-774
번째	-775
리에	-776
50	-777
▁대학	-778
▁게임	-779
▁결과	-780
cc	-781
▁----	-782
도록	-783
ay	-784
방송	-785
▁하고	-786
▁대통령	-787
▁하지만	-788
▁미국의	-789
▁와	-790
▁위키백과	-791
▁“	-792
▁나타	-793
▁농	-794
▁작품	-795
▁볼	-796
▁2004	-797
▁육	-798
위원회	-799
리즈	-800
▁극	-801
;"	-802
▁알려	-803
px	-804
시에	-805
▁시간	-806
▁프랑스	-807
99	-808
▁2020	-809
▁구성	-810
▁새로	-811
▁접	-812
▁문화	-813
▁폭	-814
▁발매	-815
》(	-816
▁이어	-817
▁되어	-818
▁역사	-819
▁공격	-820
리가	-821
▁담	-822
ist	-823
▁영국	-824
art	-825
▁졸업	-826
os	-827
시키	-828
▁누	-829
로부터	-830
기가	-831
▁섬	-832
▁29	-833
▁앨	-834
정을	-835
▁밀	-836
▁귀	-837
기의	-838
▁폐	-839
▁부분	-840
▁MBC	-841
부분	-842
▁기준	-843
▁음악	-844
기는	-845
▁요청	-846
▁이러	-847
▁향	-848
인의	-849
리카	-850
▁밝	-851
▁니	-852
스타	-853
▁발표	-854
▁막	-855
▁Y	-856
▁진행	-857
▁v	-858
ce	-859
▁교육	-860
▁슈	-861
-0	-862
와의	-863
▁colspan	-864
66	-865
▁선거	-866
▁이러한	-867
므로	-868
▁갖	-869
▁이는	-870
▁엔	-871
▁수상	-872
▁&	-873
▁참여	-874
▁193	-875
▁관계	-876
KBS	-877
버지	-878
▁곳	-879
▁정보	-880
▁맡	-881
▁헤	-882
▁설립	-883
▁라이	-884
▁등이	-885
들과	-886
▁줄	-887
▁–	-888
▁사실	-889
▁등을	-890
▁이를	-891
성이	-892
▁,	-893
▁중심	-894
▁변경	-895
▁동안	-896
▁케	-897
▁2000	-898
그램	-899
2)	-900
▁이전	-901
ab	-902
▁쿠	-903
에서도	-904
대학	-905
▁골	-906
▁개발	-907
ov	-908
▁2003	-909
▁토론	-910
▁석	-911
▁지방	-912
▁St	-913
▁설치	-914
ph	-915
▁대회	-916
▁면	-917
▁[	-918
▁이유	-919
▁효	-920
▁없는	-921
ft	-922
▁스타	-923
▁발생	-924
▁책	-925
▁타이	-926
▁전투	-927
했으며	-928
▁자유	-929
▁커	-930
▁질	-931
년부터	-932
▁이에	-933
▁절	-934
문화	-935
들에게	-936
▁의미	-937
ow	-938
(,	-939
▁소속	-940
이션	-941
군의	-942
▁봉	-943
▁2002	-944
80	-945
자는	-946
가지	-947
초등학교	-948
▁편집	-949
란드	-950
▁||	-951
자를	-952
도를	-953
ff	-954
▁번째	-955
ub	-956
ame	-957
리의	-958
▁얻	-959
명의	-960
▁(199	-961
▁기술	-962
▁scope	-963
▁계속	-964
했던	-965
▁지원	-966
▁같이	-967
남도	-968
났다	-969
▁사망	-970
▁탈	-971
▁범	-972
▁등장	-973
22	-974
▁찾	-975
▁최초	-976
▁된	-977
년대	-978
로는	-979
▁·	-980
▁중앙	-981
▁넘	-982
년에는	-983
사가	-984
=2	-985
▁머	-986
▁발견	-987
▁영향	-988
▁사랑	-989
▁결정	-990
▁경제	-991
학과	-992
▁추가	-993
▁TV	-994
명을	-995
▁독립	-996
▁갈	-997
프트	-998
.)	-999
공항	-1000
▁운영	-1001
사의	-1002
▁대부분	-1003
우스	-1004
ap	-1005
1)	-1006
▁l	-1007
▁일어	-1008
▁드라마	-1009
▁침	-1010
▁차단	-1011
▁곡	-1012
▁되었	-1013
어진	-1014
▁없다	-1015
br	-1016
페이지	-1017
com	-1018
경기	-1019
▁후보	-1020
FA	-1021
ev	-1022
월에	-1023
▁난	-1024
▁악	-1025
▁혼	-1026
머니	-1027
▁수도	-1028
▁암	-1029
특별	-1030
▁인구	-1031
▁만들어	-1032
▁마이	-1033
▁Ch	-1034
▁상태	-1035
인이	-1036
;">	-1037
▁최고	-1038
자로	-1039
▁출연	-1040
▁In	-1041
enter	-1042
▁측	-1043
24	-1044
▁행정	-1045
ter	-1046
▁아들	-1047
처럼	-1048
▁들	-1049
▁데이	-1050
▁아니라	-1051
▁출신	-1052
▁새로운	-1053
스를	-1054
▁탄	-1055
▁받아	-1056
23	-1057
▁업	-1058
▁싱	-1059
▁인해	-1060
▁잡	-1061
▁같다	-1062
연구	-1063
센터	-1064
대를	-1065
대한	-1066
▁특히	-1067
oc	-1068
▁일본의	-1069
▁rowspan	-1070
화국	-1071
되었고	-1072
og	-1073
:0	-1074
림픽	-1075
:3	-1076
▁태어	-1077
▁여자	-1078
과의	-1079
▁벌	-1080
▁프로그램	-1081
▁러시아	-1082
▁터	-1083
세기	-1084
▁2001	-1085
▁참가	-1086
ue	-1087
▁그녀	-1088
학자	-1089
▁레이	-1090
▁이탈	-1091
되지	-1092
▁이것	-1093
르는	-1094
▁re	-1095
거리	-1096
▁SBS	-1097
▁확인	-1098
다가	-1099
버스	-1100
▁유럽	-1101
으로서	-1102
▁지정	-1103
▁100	-1104
eg	-1105
비아	-1106
▁31	-1107
▁X	-1108
▁쇼	-1109
에서의	-1110
▁있습니다	-1111
하였으며	-1112
TV	-1113
민주	-1114
▁득	-1115
):	-1116
60	-1117
▁고려	-1118
▁돌아	-1119
▁형태	-1120
》,	-1121
▁않고	-1122
▁급	-1123
ww	-1124
▁만들	-1125
▁힘	-1126
▁스페	-1127
ss	-1128
▁앨범	-1129
렸다	-1130
명이	-1131
▁이미	-1132
ag	-1133
해야	-1134
text	-1135
ik	-1136
21	-1137
식을	-1138
ine	-1139
if	-1140
▁아버지	-1141
호선	-1142
:4	-1143
▁인터	-1144
▁이야	-1145
▁조직	-1146
▁있고	-1147
▁좌	-1148
▁중요	-1149
▁월드	-1150
//	-1151
▁가지고	-1152
▁있던	-1153
av	-1154
▁폴	-1155
이드	-1156
▁성공	-1157
도가	-1158
부의	-1159
▁않았다	-1160
▁몇	-1161
▁로마	-1162
iz	-1163
야마	-1164
▁국민	-1165
▁다양	-1166
.5	-1167
27	-1168
▁to	-1169
수의	-1170
▁매우	-1171
▁콘	-1172
기로	-1173
▁「	-1174
ou	-1175
르크	-1176
▁여성	-1177
년까지	-1178
고등학교	-1179
ec	-1180
스크	-1181
운드	-1182
ill	-1183
tp	-1184
▁방법	-1185
▁노래	-1186
북도	-1187
으로는	-1188
_{	-1189
="2"|	-1190
카이	-1191
ity	-1192
▁엘	-1193
▁이탈리아	-1194
전을	-1195
장이	-1196
스가	-1197
▁+	-1198
,000	-1199
:5	-1200
▁결국	-1201
http	-1202
ang	-1203
▁부산	-1204
://	-1205
▁올림픽	-1206
스템	-1207
운동	-1208
▁운동	-1209
▁국제공항	-1210
원의	-1211
▁잠	-1212
."	-1213
▁빠	-1214
간의	-1215
ard	-1216
▁시리즈	-1217
▁h	-1218
하자	-1219
▁않는다	-1220
▁공동	-1221
▁1999	-1222
▁관한	-1223
▁이동	-1224
▁울	-1225
▁눈	-1226
right	-1227
-1	-1228
나는	-1229
했지만	-1230
▁많이	-1231
▁구조	-1232
ong	-1233
시마	-1234
▁얼	-1235
ber	-1236
28	-1237
▁떠	-1238
음을	-1239
29	-1240
||	-1241
26	-1242
ian	-1243
up	-1244
▁프리	-1245
▁받았다	-1246
자인	-1247
수를	-1248
▁헌	-1249
지막	-1250
리고	-1251
▁1998	-1252
▁몰	-1253
▁팔	-1254
▁인물	-1255
▁위치한	-1256
▁대전	-1257
▁기여	-1258
▁특별	-1259
▁g	-1260
▁딸	-1261
어로	-1262
교육	-1263
▁둘	-1264
sm	-1265
대표	-1266
▁주로	-1267
▁역할	-1268
▁노선	-1269
드는	-1270
▁능	-1271
권을	-1272
한국	-1273
▁경상	-1274
▁계획	-1275
역시	-1276
▁생산	-1277
▁않은	-1278
하려	-1279
▁민주	-1280
▁칼	-1281
▁학교	-1282
▁아래	-1283
▁의견	-1284
orn	-1285
왔다	-1286
▁보고	-1287
▁모습	-1288
ort	-1289
ite	-1290
▁엄	-1291
▁데뷔	-1292
하기도	-1293
.3	-1294
서는	-1295
▁붙	-1296
ip	-1297
▁전체	-1298
레스	-1299
▁상황	-1300
▁시대	-1301
▁주요	-1302
ak	-1303
▁아닌	-1304
▁한편	-1305
원을	-1306
되었으며	-1307
▁야구	-1308
▁1996	-1309
수가	-1310
▁제공	-1311
▁틀	-1312
▁삭	-1313
▁떨	-1314
90	-1315
ep	-1316
▁마지막	-1317
▁빌	-1318
도는	-1319
시간	-1320
▁하여	-1321
▁항공	-1322
▁진출	-1323
으면	-1324
광역시	-1325
드라마	-1326
▁컴	-1327
▁직접	-1328
font	-1329
▁않는	-1330
▁1997	-1331
점을	-1332
▁홈페이지	-1333
력이	-1334
▁퍼	-1335
▁워	-1336
▁{	-1337
▁되는	-1338
▁유지	-1339
화를	-1340
▁다이	-1341
▁기능	-1342
",	-1343
▁표현	-1344
▁190	-1345
▁지금	-1346
▁대해서	-1347
피언	-1348
전에	-1349
▁차지	-1350
▁대상	-1351
▁브라	-1352
▁위원	-1353
가와	-1354
▁정책	-1355
▁따르	-1356
▁음반	-1357
▁인정	-1358
ie	-1359
으로써	-1360
가는	-1361
주시	-1362
▁기타	-1363
▁열린	-1364
▁격	-1365
제로	-1366
사는	-1367
70	-1368
텔레	-1369
small	-1370
▁작곡	-1371
사로	-1372
르트	-1373
▁도쿄	-1374
동차	-1375
모토	-1376
MBC	-1377
일보	-1378
군은	-1379
▁분류	-1380
▁반대	-1381
▁공개	-1382
rac	-1383
운데	-1384
▁구간	-1385
▁현대	-1386
일본	-1387
인민	-1388
our	-1389
▁연결	-1390
ud	-1391
중학교	-1392
▁개최	-1393
▁바이	-1394
스로	-1395
▁대신	-1396
▁비고	-1397
으로부터	-1398
▁철도	-1399
▁1995	-1400
▁과정	-1401
ith	-1402
▁따라서	-1403
▁챔	-1404
▁개인	-1405
▁티	-1406
진다	-1407
▁나오	-1408
▁상대	-1409
end	-1410
프로	-1411
▁않았	-1412
▁어떤	-1413
▁50	-1414
▁너	-1415
▁남자	-1416
▁운행	-1417
48	-1418
▁각각	-1419
▁거의	-1420
▁응	-1421
est	-1422
디어	-1423
했으나	-1424
▁플레이	-1425
하던	-1426
ass	-1427
냈다	-1428
▁가수	-1429
부에	-1430
="2"	-1431
포츠	-1432
mathb	-1433
▁혹	-1434
▁사업	-1435
▁대학교	-1436
ory	-1437
▁녹	-1438
▁기간	-1439
제를	-1440
▁휴	-1441
33	-1442
상의	-1443
▁출전	-1444
성의	-1445
▁모델	-1446
사관	-1447
원이	-1448
▁연속	-1449
▁몸	-1450
▁학생	-1451
▁시스템	-1452
▁맥	-1453
▁있을	-1454
▁풍	-1455
The	-1456
비전	-1457
▁선정	-1458
됐다	-1459
▁희	-1460
▁이루어	-1461
▁챔피언	-1462
▁기본	-1463
▁압	-1464
▁나라	-1465
▁역시	-1466
▁될	-1467
erat	-1468
2,	-1469
리지	-1470
이가	-1471
▁가운데	-1472
▁뿐	-1473
일부터	-1474
였던	-1475
장으로	-1476
▁for	-1477
▁아르	-1478
▁묘	-1479
장은	-1480
::	-1481
▁연합	-1482
▁콜	-1483
리오	-1484
▁웨	-1485
▁그것	-1486
▁1990	-1487
▁지구	-1488
ae	-1489
인다	-1490
▁겸	-1491
ell	-1492
▁싱글	-1493
▁애니	-1494
▁어머니	-1495
▁느	-1496
ord	-1497
ran	-1498
left	-1499
▁정의	-1500
▁평가	-1501
▁다양한	-1502
0000	-1503
><	-1504
▁샤	-1505
▁임명	-1506
.--	-1507
ok	-1508
▁보여	-1509
▁남아	-1510
▁목록	-1511
▁정당	-1512
자와	-1513
▁경찰	-1514
▁요구	-1515
3)	-1516
지고	-1517
▁설명	-1518
88	-1519
젝트	-1520
정보	-1521
▁뮤	-1522
▁그룹	-1523
▁유명	-1524
▁높은	-1525
지에	-1526
▁정도	-1527
제가	-1528
.1	-1529
어를	-1530
4)	-1531
▁자연	-1532
▁제외	-1533
스와	-1534
▁긴	-1535
▁기업	-1536
ial	-1537
▁생활	-1538
▁서로	-1539
▁명칭	-1540
시켰	-1541
▁이름을	-1542
▁제국	-1543
이의	-1544
▁결혼	-1545
영화	-1546
▁뛰	-1547
▁후에	-1548
▁있는데	-1549
지의	-1550
▁색	-1551
center	-1552
(200	-1553
▁공항	-1554
▁인도	-1555
ive	-1556
사에	-1557
▁FC	-1558
▁싸	-1559
▁방식	-1560
치는	-1561
▁경기도	-1562
▁푸	-1563
▁전라	-1564
전에서	-1565
▁슬	-1566
이어	-1567
▁1994	-1568
지가	-1569
▁1,	-1570
비스	-1571
었고	-1572
▁An	-1573
정부	-1574
임을	-1575
기관	-1576
차로	-1577
▁영향을	-1578
ate	-1579
▁웹	-1580
▁친구	-1581
나다	-1582
▁먹	-1583
▁대구	-1584
▁동시에	-1585
인을	-1586
▁그리스	-1587
▁오스트	-1588
▁40	-1589
▁계약	-1590
▁따르면	-1591
▁on	-1592
▁삭제	-1593
▁작은	-1594
▁전국	-1595
들에	-1596
군이	-1597
갔다	-1598
▁히로	-1599
▁비판	-1600
▁완전	-1601
▁그가	-1602
▁성우	-1603
위에	-1604
▁지하	-1605
▁기원	-1606
치를	-1607
▁핵	-1608
문을	-1609
bl	-1610
▁그래	-1611
장의	-1612
▁텔레	-1613
트로	-1614
하라	-1615
메이션	-1616
있는	-1617
카와	-1618
▁여기	-1619
',	-1620
▁인천	-1621
▁있다고	-1622
▁만든	-1623
세요	-1624
▁실시	-1625
}}	-1626
▁이런	-1627
의를	-1628
▁기존	-1629
▁옮	-1630
▁놓	-1631
ant	-1632
2.	-1633
1,	-1634
45	-1635
▁발전	-1636
▁앤	-1637
▁보호	-1638
qu	-1639
조선	-1640
▁경기에서	-1641
rom	-1642
부를	-1643
시의	-1644
▁빈	-1645
▁건설	-1646
수는	-1647
학급	-1648
▁망	-1649
▁낮	-1650
▁견	-1651
선거	-1652
▁의한	-1653
있다	-1654
▁지도	-1655
▁작성	-1656
▁시절	-1657
▁전문	-1658
▁찾아	-1659
요일	-1660
▁일으	-1661
▁Un	-1662
▁가리	-1663
35	-1664
▁없이	-1665
계를	-1666
인은	-1667
▁활약	-1668
ary	-1669
▁가진	-1670
▁노동	-1671
▁크게	-1672
▁Z	-1673
▁하였	-1674
공화국	-1675
관리	-1676
85	-1677
스코	-1678
▁통합	-1679
수로	-1680
▁.	-1681
▁인간	-1682
▁차량	-1683
to	-1684
지로	-1685
▁퇴	-1686
▁승리	-1687
operat	-1688
CC	-1689
▁어린	-1690
▁군사	-1691
렇게	-1692
▁제목	-1693
▁공연	-1694
▁벨	-1695
ast	-1696
96	-1697
▁행동	-1698
orname	-1699
operatorname	-1700
▁궁	-1701
=2|	-1702
쪽으로	-1703
▁바로	-1704
▁도입	-1705
▁k	-1706
라도	-1707
95	-1708
▁적용	-1709
▁파일	-1710
세의	-1711
마다	-1712
하지만	-1713
▁과학	-1714
▁이해	-1715
네요	-1716
로스	-1717
▁공간	-1718
▁위하여	-1719
▁1993	-1720
린다	-1721
▁건물	-1722
▁영어	-1723
▁윌	-1724
SBS	-1725
멤버	-1726
▁잉	-1727
년도	-1728
ver	-1729
▁좋은	-1730
▁풀	-1731
대에	-1732
사와	-1733
사회	-1734
▁탐	-1735
▁과거	-1736
주는	-1737
1.	-1738
▁언어	-1739
▁선발	-1740
장에	-1741
제의	-1742
ry	-1743
원은	-1744
%"	-1745
▁훈	-1746
77	-1747
▁혹은	-1748
▁옥	-1749
▁비롯	-1750
ure	-1751
지방	-1752
▁중요한	-1753
프리카	-1754
34	-1755
▁사진	-1756
▁착	-1757
사카	-1758
▁원래	-1759
▁취임	-1760
▁말한다	-1761
ne	-1762
▁요시	-1763
▁찬	-1764
▁이적	-1765
▁밴	-1766
▁이론	-1767
ess	-1768
36	-1769
▁먼	-1770
▁그런	-1771
▁판매	-1772
대회	-1773
▁투표	-1774
중에	-1775
▁대하여	-1776
94	-1777
▁왜	-1778
철도	-1779
▁갑	-1780
체의	-1781
사업	-1782
75	-1783
정한	-1784
하였으나	-1785
▁탑	-1786
▁싶	-1787
io	-1788
▁FI	-1789
소를	-1790
하는데	-1791
▁되고	-1792
▁월드컵	-1793
▁크리스	-1794
▁우리	-1795
원으로	-1796
과학	-1797
▁1992	-1798
ize	-1799
▁나가	-1800
pt	-1801
드리	-1802
▁사무	-1803
이를	-1804
르게	-1805
단의	-1806
대가	-1807
98	-1808
▁de	-1809
▁중화	-1810
▁오브	-1811
▁『	-1812
▁혁	-1813
▁이야기	-1814
격을	-1815
▁사상	-1816
독교	-1817
스탄	-1818
▁하지	-1819
(201	-1820
▁충청	-1821
▁어느	-1822
시는	-1823
선의	-1824
3.	-1825
▁이때	-1826
ore	-1827
군을	-1828
▁최종	-1829
▁담당	-1830
▁민족	-1831
▁스포츠	-1832
▁형성	-1833
orm	-1834
▁동일	-1835
른다	-1836
▁마음	-1837
▁애니메이션	-1838
▁기관	-1839
▁넣	-1840
▁국내	-1841
러스	-1842
▁Th	-1843
▁텔레비전	-1844
▁출시	-1845
▁피해	-1846
▁종교	-1847
정이	-1848
les	-1849
age	-1850
▁숙	-1851
frac	-1852
▁멤버	-1853
했는데	-1854
▁수행	-1855
▁달리	-1856
이었던	-1857
성은	-1858
대는	-1859
▁솔	-1860
▁사이에	-1861
▁순위	-1862
se	-1863
▁지나	-1864
지역	-1865
ER	-1866
▁소련	-1867
▁비슷	-1868
▁처음으로	-1869
▁자료	-1870
▁알려져	-1871
하거나	-1872
▁수록	-1873
장에서	-1874
▁프로젝트	-1875
나이	-1876
▁x	-1877
되면서	-1878
체를	-1879
ng	-1880
▁가족	-1881
▁환경	-1882
동안	-1883
▁선택	-1884
7)	-1885
▁보통	-1886
기술	-1887
ust	-1888
트리	-1889
▁메이	-1890
▁기자	-1891
▁산업	-1892
▁건축	-1893
▁거쳐	-1894
▁있다는	-1895
▁국회의	-1896
eb	-1897
과는	-1898
혔다	-1899
▁1991	-1900
▁1980	-1901
차전	-1902
드로	-1903
▁자기	-1904
ish	-1905
부는	-1906
ich	-1907
89	-1908
무라	-1909
{\	-1910
ain	-1911
▁염	-1912
정에	-1913
체가	-1914
▁역할을	-1915
퓨터	-1916
특별시	-1917
▁마을	-1918
회를	-1919
▁소설	-1920
▁하며	-1921
물을	-1922
적을	-1923
▁보내	-1924
▁팬	-1925
선을	-1926
ies	-1927
뉴스	-1928
▁데이터	-1929
▁기념	-1930
서를	-1931
▁1989	-1932
▁1988	-1933
▁낙	-1934
▁자신이	-1935
▁작업	-1936
''''	-1937
스키	-1938
)·	-1939
▁불가	-1940
킨다	-1941
▁이와	-1942
86	-1943
일까지	-1944
▁밖	-1945
이치	-1946
▁기반	-1947
▁밤	-1948
▁클럽	-1949
▁덕	-1950
▁사고	-1951
▁상당	-1952
드를	-1953
▁베이	-1954
▁시작했다	-1955
바이	-1956
▁라디오	-1957
▁부문	-1958
지원	-1959
화가	-1960
▁유일	-1961
▁육군	-1962
▁늘	-1963
개월	-1964
▁1987	-1965
▁Al	-1966
▁센	-1967
▁e	-1968
▁않아	-1969
size	-1970
▁편성	-1971
ical	-1972
구의	-1973
드의	-1974
▁생성	-1975
르고	-1976
▁받은	-1977
되며	-1978
서관	-1979
▁최초의	-1980
▁color	-1981
▁전기	-1982
▁그를	-1983
▁평균	-1984
▁열차	-1985
▁초기	-1986
▁명의	-1987
▁교통	-1988
▁실패	-1989
스티	-1990
라인	-1991
▁교황	-1992
스카	-1993
겠습니다	-1994
오카	-1995
▁지지	-1996
▁최대	-1997
▁우주	-1998
▁전통	-1999
▁삼성	-2000
▁도움	-2001
▁하루	-2002
▁폐지	-2003
▁그림	-2004
트를	-2005
cal	-2006
▁야마	-2007
리와	-2008
우승	-2009
▁있지만	-2010
▁부족	-2011
▁디지	-2012
▁이끌	-2013
▁있어서	-2014
위로	-2015
▁예정	-2016
▁올라	-2017
▁방향	-2018
ly	-2019
▁광주	-2020
.(	-2021
46	-2022
▁개의	-2023
릭터	-2024
▁도로	-2025
▁특징	-2026
▁뉴욕	-2027
▁슈퍼	-2028
ee	-2029
호를	-2030
년의	-2031
▁이사	-2032
78	-2033
정의	-2034
단을	-2035
▁형식	-2036
크로	-2037
mm	-2038
신문	-2039
경제	-2040
▁마사	-2041
이지만	-2042
명은	-2043
▁아키	-2044
▁조사	-2045
▁아시아	-2046
100	-2047
조의	-2048
▁연도	-2049
----	-2050
▁컨	-2051
▁떨어	-2052
▁태양	-2053
이기도	-2054
hite	-2055
▁II	-2056
▁연방	-2057
%"|	-2058
구역	-2059
▁오늘	-2060
▁지휘	-2061
무를	-2062
▁비교	-2063
여자	-2064
▁↔	-2065
▁곧	-2066
▁'''''	-2067
▁조건	-2068
▁익	-2069
▁대체	-2070
서울	-2071
▁잔	-2072
▁''''''	-2073
▁방영	-2074
▁기독교	-2075
▁FIFA	-2076
.,	-2077
▁맨	-2078
▁좋아	-2079
어는	-2080
ON	-2081
▁받고	-2082
▁by	-2083
계의	-2084
▁개통	-2085
▁뉴스	-2086
▁지배	-2087
▁?	-2088
학생	-2089
▁아직	-2090
▁합니다	-2091
▁아무	-2092
▁컴퓨터	-2093
▁획	-2094
먼트	-2095
▁윈	-2096
old	-2097
▁한국어	-2098
▁류	-2099
키는	-2100
55	-2101
▁승강	-2102
▁국가대표	-2103
▁조지	-2104
인데	-2105
www	-2106
▁01	-2107
▁국립	-2108
▁흑	-2109
-2	-2110
=25	-2111
76	-2112
▁지속	-2113
시켜	-2114
▁시민	-2115
▁Q	-2116
▁주인	-2117
협회	-2118
▁돈	-2119
▁번역	-2120
시켰다	-2121
토리	-2122
▁북한	-2123
▁홀	-2124
▁저작	-2125
▁언급	-2126
시대	-2127
으므로	-2128
소년	-2129
▁이것은	-2130
=20	-2131
ction	-2132
▁링	-2133
했을	-2134
▁증가	-2135
▁기원전	-2136
어가	-2137
▁후지	-2138
글랜드	-2139
▁align	-2140
인지	-2141
▁하이	-2142
▁씨	-2143
▁분야	-2144
하이	-2145
**	-2146
▁캐나다	-2147
▁주변	-2148
이터	-2149
▁흥	-2150
mathbb	-2151
▁가까	-2152
}\	-2153
종의	-2154
나무	-2155
▁징	-2156
▁중심으로	-2157
▁득표	-2158
적은	-2159
▁오른	-2160
심을	-2161
FFFF	-2162
ef	-2163
▁Ar	-2164
NA	-2165
▁괴	-2166
▁칸	-2167
상이	-2168
ress	-2169
▁이유로	-2170
ld	-2171
나가	-2172
ide	-2173
▁기준으로	-2174
▁흔	-2175
라스	-2176
국민	-2177
▁캐릭터	-2178
▁작가	-2179
▁제한	-2180
▁표준	-2181
▁제시	-2182
어서	-2183
우리	-2184
이버	-2185
트남	-2186
▁어려	-2187
▁결승	-2188
스턴	-2189
▁모양	-2190
▁이상의	-2191
37	-2192
▁특수	-2193
사랑	-2194
▁땅	-2195
▁처리	-2196
쳤다	-2197
▁km	-2198
▁등에	-2199
▁받았	-2200
ire	-2201
▁런	-2202
▁최근	-2203
▁표시	-2204
니까	-2205
▁이르	-2206
ark	-2207
▁연기	-2208
했다고	-2209
▁교수	-2210
▁덴	-2211
▁잃	-2212
도에	-2213
▁헬	-2214
ews	-2215
▁1986	-2216
ond	-2217
▁st	-2218
64	-2219
▁믿	-2220
▁알고	-2221
84	-2222
▁없었다	-2223
한다는	-2224
군에	-2225
▁1970	-2226
▁선언	-2227
▁지역의	-2228
▁국도	-2229
▁서울특별시	-2230
치가	-2231
▁불구	-2232
제는	-2233
▁분리	-2234
97	-2235
적이	-2236
▁마르	-2237
65	-2238
▁문서를	-2239
▁i	-2240
▁일반적으로	-2241
▁넓	-2242
▁때문이다	-2243
라운드	-2244
원에	-2245
메리카	-2246
ug	-2247
▁언론	-2248
당의	-2249
▁뛰어	-2250
▁근거	-2251
▁전에	-2252
▁다카	-2253
ivers	-2254
만을	-2255
▁초대	-2256
ment	-2257
민국	-2258
▁개시	-2259
▁스페인	-2260
▁개념	-2261
▁경영	-2262
▁계정	-2263
▁y	-2264
▁60	-2265
트의	-2266
지지	-2267
▁스테	-2268
▁쌍	-2269
▁나이	-2270
사단	-2271
▁달성	-2272
sh	-2273
▁몽	-2274
▁더욱	-2275
-19	-2276
▁판단	-2277
▁활동을	-2278
▁선출	-2279
▁정규	-2280
▁내려	-2281
8)	-2282
▁단체	-2283
인민공화국	-2284
일에는	-2285
교회	-2286
▁디지털	-2287
▁전자	-2288
▁제안	-2289
▁출판	-2290
사키	-2291
EFA	-2292
하도록	-2293
시키는	-2294
▁규모	-2295
▁후반	-2296
▁소유	-2297
▁휘	-2298
ind	-2299
▁--<	-2300
uc	-2301
▁효과	-2302
▁Pro	-2303
▁물리	-2304
▁Com	-2305
ens	-2306
▁사람이	-2307
oh	-2308
▁종류	-2309
▁표기	-2310
▁교차로	-2311
성과	-2312
▁정신	-2313
인가	-2314
연합	-2315
▁잉글랜드	-2316
▁읽	-2317
▁두고	-2318
만이	-2319
▁예술	-2320
▁버전	-2321
▁출처	-2322
▁명령	-2323
▁동물	-2324
부가	-2325
▁법률	-2326
cccc	-2327
▁()	-2328
▁헌법	-2329
리로	-2330
▁문제가	-2331
▁태어났다	-2332
32	-2333
▁해결	-2334
▁고등학교	-2335
스테	-2336
훼손	-2337
></	-2338
스케	-2339
▁추정	-2340
▁:\	-2341
In	-2342
▁교회	-2343
▁통일	-2344
▁이승	-2345
레일	-2346
▁공산	-2347
▁시설	-2348
세는	-2349
▁1985	-2350
ace	-2351
세가	-2352
AN	-2353
▁움	-2354
ile	-2355
됩니다	-2356
호는	-2357
AR	-2358
4.	-2359
▁에너	-2360
▁옛	-2361
쪽에	-2362
ily	-2363
39	-2364
▁증거	-2365
▁예를	-2366
▁빛	-2367
웨이	-2368
성에	-2369
^2	-2370
87	-2371
시즌	-2372
▁획득	-2373
bo	-2374
▁나온	-2375
▁있었던	-2376
부로	-2377
▁본선	-2378
루스	-2379
▁강화	-2380
▁흐	-2381
구를	-2382
▁멀	-2383
▁변화	-2384
▁것에	-2385
사이	-2386
▁참고	-2387
▁포르	-2388
org	-2389
lass	-2390
man	-2391
배우	-2392
▁특정	-2393
베르	-2394
int	-2395
▁외국	-2396
▁사라	-2397
▁역임	-2398
▁있게	-2399
하시	-2400
▁의원	-2401
이란	-2402
=40	-2403
인으로	-2404
디아	-2405
▁되었고	-2406
ho	-2407
▁모습을	-2408
▁주의	-2409
세를	-2410
▁불구하고	-2411
덜란드	-2412
기와	-2413
없이	-2414
민주주의	-2415
호로	-2416
▁등으로	-2417
▁미술	-2418
EC	-2419
▁작사	-2420
▁UEFA	-2421
▁from	-2422
▁그대로	-2423
▁유니	-2424
사이트	-2425
▁사용하는	-2426
▁구분	-2427
고속	-2428
olog	-2429
겼다	-2430
▁인터넷	-2431
▁겨	-2432
로드	-2433
ey	-2434
St	-2435
ern	-2436
▁맺	-2437
내는	-2438
▁빅	-2439
▁최초로	-2440
▁을	-2441
▁공화국	-2442
▁밝혔다	-2443
어의	-2444
▁구단	-2445
로의	-2446
44	-2447
ence	-2448
▁주민	-2449
학년	-2450
▁알렉	-2451
▁정확	-2452
▁대부분의	-2453
▁몬	-2454
난다	-2455
비를	-2456
사무	-2457
▁:*	-2458
▁칭	-2459
니스	-2460
▁그렇	-2461
▁목표	-2462
▁소개	-2463
▁것이라고	-2464
able	-2465
(\	-2466
▁실제	-2467
▁당선	-2468
6)	-2469
▁강원	-2470
자리	-2471
cm	-2472
31	-2473
▁반응	-2474
인트	-2475
촬영	-2476
▁at	-2477
ational	-2478
면에	-2479
일랜드	-2480
▁어떻	-2481
▁후쿠	-2482
▁유사	-2483
이기	-2484
산업	-2485
▁나카	-2486
▁하다	-2487
▁시청	-2488
5.	-2489
문학	-2490
▁1984	-2491
▁좀	-2492
▁국회	-2493
▁여객	-2494
▁아마	-2495
일의	-2496
▁인구는	-2497
ear	-2498
let	-2499
ork	-2500
▁배우이다	-2501
.01	-2502
▁쓴	-2503
라의	-2504
>)	-2505
ath	-2506
▁말했다	-2507
▁먼저	-2508
도시	-2509
명으로	-2510
81	-2511
▁종료	-2512
▁품	-2513
▁방문	-2514
▁자주	-2515
2019	-2516
▁보인다	-2517
소가	-2518
▁00	-2519
▁액	-2520
▁추진	-2521
ect	-2522
회사	-2523
비고	-2524
9.	-2525
▁자동차	-2526
▁종합	-2527
▁관리자	-2528
▁소재	-2529
▁제주	-2530
▁꽃	-2531
지도	-2532
we	-2533
▁걸쳐	-2534
▁뜻은	-2535
▁수는	-2536
▁아시	-2537
아이	-2538
▁득점	-2539
▁칠	-2540
▁아사	-2541
년간	-2542
ung	-2543
▁임시	-2544
▁끌	-2545
▁부여	-2546
▁실험	-2547
모리	-2548
▁홈런	-2549
▁연주	-2550
물관	-2551
▁만나	-2552
reen	-2553
▁기획	-2554
▁드러	-2555
▁아카	-2556
▁입학	-2557
교통	-2558
▁스트	-2559
일을	-2560
▁통과	-2561
▁깨	-2562
학적	-2563
정은	-2564
세이	-2565
▁너무	-2566
▁비밀	-2567
▁경험	-2568
▁깊	-2569
dot	-2570
▁신문	-2571
▁점령	-2572
사전	-2573
▁주연	-2574
47	-2575
▁채널	-2576
▁벤	-2577
▁회사	-2578
▁대해서는	-2579
▁스스로	-2580
함으로써	-2581
▁캠	-2582
들도	-2583
버트	-2584
▁다만	-2585
▁차트	-2586
^{	-2587
▁베트남	-2588
▁어떻게	-2589
▁이름은	-2590
▁권한	-2591
대상	-2592
▁소프트	-2593
5)	-2594
은행	-2595
시코	-2596
찬가지	-2597
▁등록	-2598
▁프레	-2599
금을	-2600
▁하나의	-2601
▁네덜란드	-2602
Ch	-2603
기간	-2604
▁성격	-2605
▁그녀는	-2606
="3	-2607
▁자리	-2608
대전	-2609
mer	-2610
▁마찬가지	-2611
▁국회의원	-2612
▁페르	-2613
불어	-2614
▁비행	-2615
자들은	-2616
▁1983	-2617
▁분석	-2618
▁움직	-2619
님의	-2620
치고	-2621
▁영국의	-2622
▁시행	-2623
시오	-2624
워드	-2625
마이	-2626
문화재	-2627
▁준우승	-2628
▁승격	-2629
▁예선	-2630
▁놀	-2631
38	-2632
▁케이	-2633
▁쉽	-2634
전자	-2635
▁관할	-2636
▁1.	-2637
ult	-2638
:00	-2639
성우	-2640
▁수준	-2641
▁것도	-2642
▁살아	-2643
▁동아	-2644
법을	-2645
▁70	-2646
▁정도로	-2647
선수	-2648
▁동생	-2649
▁소비	-2650
)(	-2651
네일	-2652
▁엔진	-2653
상에	-2654
ice	-2655
동을	-2656
롯데	-2657
역을	-2658
AT	-2659
▁뮤직	-2660
임스	-2661
사용	-2662
톨릭	-2663
▁미니	-2664
▁확장	-2665
▁여름	-2666
▁통산	-2667
워크	-2668
예술	-2669
▁내용을	-2670
공사	-2671
de	-2672
▁이렇게	-2673
원에서	-2674
▁숨	-2675
▁강력	-2676
점이	-2677
▁입단	-2678
eat	-2679
▁브라질	-2680
정책	-2681
부르크	-2682
▁부르	-2683
▁핀	-2684
골을	-2685
▁논란	-2686
▁폴란드	-2687
렀다	-2688
79	-2689
▁대중	-2690
▁있도록	-2691
가의	-2692
white	-2693
▁조약	-2694
널리	-2695
▁여행	-2696
▁위에	-2697
스토	-2698
한다고	-2699
▁제가	-2700
구에	-2701
스에	-2702
▁그들의	-2703
▁문학	-2704
피아	-2705
ob	-2706
ib	-2707
▁거두	-2708
자들이	-2709
▁경우가	-2710
하의	-2711
다면	-2712
▁바꾸	-2713
와는	-2714
IN	-2715
▁2,	-2716
▁장관	-2717
위의	-2718
▁중에	-2719
식이	-2720
▁패배	-2721
물의	-2722
▁제품	-2723
8.	-2724
▁교장	-2725
미널	-2726
▁윌리	-2727
▁영화이다	-2728
쿠라	-2729
▁가져	-2730
▁제조	-2731
▁부정	-2732
orld	-2733
▁거부	-2734
▁수정	-2735
세계	-2736
출연	-2737
▁꿈	-2738
▁훼손	-2739
메달	-2740
▁1982	-2741
시리즈	-2742
위키	-2743
SS	-2744
소의	-2745
▁1960	-2746
인이다	-2747
▁이들은	-2748
▁대응	-2749
기업	-2750
▁김영	-2751
▁1981	-2752
▁에이	-2753
▁단순	-2754
▁신청	-2755
6.	-2756
unt	-2757
▁밝혀	-2758
▁is	-2759
위가	-2760
▁바뀌	-2761
82	-2762
7.	-2763
▁이름으로	-2764
그룹	-2765
▁서비스	-2766
▁의하여	-2767
amily	-2768
▁완전히	-2769
49	-2770
지션	-2771
월에는	-2772
83	-2773
)》	-2774
▁필요한	-2775
▁세포	-2776
▁앙	-2777
▁술	-2778
해의	-2779
▁등과	-2780
▁계열	-2781
▁잘못	-2782
=25|	-2783
하다고	-2784
▁기사	-2785
트는	-2786
▁디자인	-2787
▁촬영	-2788
나의	-2789
▁발행	-2790
▁타이틀	-2791
▁지적	-2792
▁거주	-2793
▁더불어	-2794
▁자동	-2795
▁가르	-2796
▁35	-2797
)'	-2798
71	-2799
▁복귀	-2800
▁죄	-2801
▁런던	-2802
▁경상북도	-2803
체는	-2804
▁갖고	-2805
▁지난	-2806
edia	-2807
되기	-2808
▁Co	-2809
감을	-2810
eta	-2811
상으로	-2812
▁엘리	-2813
▁1945	-2814
나미	-2815
▁스위	-2816
▁성립	-2817
▁해석	-2818
are	-2819
▁의견을	-2820
▁나머	-2821
▁포함한	-2822
만의	-2823
부문	-2824
▁Sh	-2825
메이	-2826
=\	-2827
▁가문	-2828
▁세이	-2829
인과	-2830
▁미래	-2831
FC	-2832
▁바람	-2833
의회	-2834
형을	-2835
려고	-2836
92	-2837
▁—	-2838
▁프로듀	-2839
▁위의	-2840
▁펼	-2841
▁답	-2842
▁아내	-2843
▁프랑스의	-2844
▁독일의	-2845
웠다	-2846
▁배치	-2847
고를	-2848
▁반복	-2849
▁(2010	-2850
▁pp	-2851
▁않을	-2852
▁의사	-2853
▁규정	-2854
▁사이의	-2855
▁경우에는	-2856
다이	-2857
▁(2009	-2858
티아	-2859
-3	-2860
▁빨	-2861
신을	-2862
▁파괴	-2863
=30	-2864
베이	-2865
▁들어가	-2866
직을	-2867
리기	-2868
▁정식	-2869
▁적이	-2870
▁고속	-2871
▁충분	-2872
었던	-2873
▁with	-2874
동에	-2875
단에	-2876
ta	-2877
93	-2878
기여	-2879
▁고대	-2880
▁신설	-2881
72	-2882
▁명예	-2883
▁지하철	-2884
▁그린	-2885
시로	-2886
▁개봉	-2887
▁80	-2888
명이다	-2889
▁시험	-2890
))	-2891
라노	-2892
▁은퇴	-2893
▁비해	-2894
▁font	-2895
▁오후	-2896
▁아프리카	-2897
력은	-2898
▁집합	-2899
통신	-2900
개발	-2901
iversity	-2902
▁지상	-2903
▁크로	-2904
했다는	-2905
ys	-2906
경찰	-2907
드가	-2908
▁만약	-2909
▁기초	-2910
▁사이트	-2911
▁경상남도	-2912
▁위험	-2913
▁혈	-2914
▁일을	-2915
▁사람들이	-2916
상은	-2917
▁관련된	-2918
▁상대로	-2919
▁아나	-2920
▁오사카	-2921
▁설계	-2922
AC	-2923
▁국가대표팀	-2924
▁촉	-2925
▁사용할	-2926
래프트	-2927
▁때는	-2928
었으며	-2929
▁수용	-2930
▁습	-2931
웨어	-2932
리어	-2933
▁접근	-2934
pl	-2935
▁차례	-2936
들로	-2937
▁중단	-2938
▁울산	-2939
▁이로	-2940
.03	-2941
▁따른	-2942
▁IP	-2943
연도	-2944
▁제기	-2945
▁과정에서	-2946
▁1979	-2947
요시	-2948
▁연극	-2949
▁현재는	-2950
▁출생	-2951
▁십	-2952
▁현재의	-2953
▁보면	-2954
항공	-2955
기획	-2956
중앙	-2957
▁r	-2958
산을	-2959
월부터	-2960
▁32	-2961
랐다	-2962
▁성장	-2963
▁위해서	-2964
scope	-2965
OR	-2966
신의	-2967
국가	-2968
▁LG	-2969
▁경쟁	-2970
68	-2971
per	-2972
▁가입	-2973
▁물질	-2974
당은	-2975
▁금지	-2976
▁이외	-2977
▁바탕	-2978
▁연장	-2979
▁속하는	-2980
웨덴	-2981
▁준비	-2982
▁(2	-2983
민족	-2984
▁투수	-2985
사령	-2986
▁여기서	-2987
우수	-2988
aw	-2989
▁때까지	-2990
▁비디오	-2991
레일리아	-2992
74	-2993
▁영업	-2994
▁보도	-2995
ric	-2996
▁말을	-2997
▁가능하다	-2998
▁켄	-2999
▁센터	-3000
▁던	-3001
▁결합	-3002
▁물론	-3003
▁역대	-3004
▁불교	-3005
아가	-3006
▁일어나	-3007
오는	-3008
음악	-3009
69	-3010
학을	-3011
자치	-3012
▁lo	-3013
▁오래	-3014
멕시코	-3015
경을	-3016
▁필리	-3017
▁멸	-3018
▁없어	-3019
▁듯	-3020
▁그들은	-3021
CD	-3022
▁시각	-3023
단체	-3024
▁듣	-3025
ove	-3026
▁개혁	-3027
▁1950	-3028
▁치료	-3029
▁극장	-3030
▁황제	-3031
▁잇	-3032
하나	-3033
▁있지	-3034
단은	-3035
arg	-3036
다운	-3037
로를	-3038
소리	-3039
▁부인	-3040
국제	-3041
▁발달	-3042
▁작용	-3043
▁달러	-3044
▁지역에	-3045
▁http	-3046
부장	-3047
▁조선민주주의	-3048
▁주인공	-3049
순위	-3050
왕의	-3051
▁짧	-3052
▁무기	-3053
▁존재한다	-3054
미야	-3055
▁롯데	-3056
▁이듬	-3057
▁출장	-3058
iss	-3059
▁윌리엄	-3060
▁외교	-3061
하마	-3062
▁블랙	-3063
식의	-3064
레이션	-3065
▁왕국	-3066
▁미사	-3067
지게	-3068
▁비슷한	-3069
▁일이	-3070
▁못했다	-3071
▁전라남도	-3072
▁다르	-3073
▁것과	-3074
ach	-3075
▁방어	-3076
우는	-3077
▁록	-3078
▁시도	-3079
ale	-3080
▁New	-3081
▁도착	-3082
▁훈련	-3083
계에	-3084
▁중간	-3085
▁곤	-3086
▁회장	-3087
43	-3088
▁많다	-3089
▁부탁	-3090
법원	-3091
▁오스트리아	-3092
▁유형	-3093
▁장소	-3094
family	-3095
▁체결	-3096
주를	-3097
73	-3098
▁꾸	-3099
63	-3100
▁바다	-3101
데이	-3102
▁비롯한	-3103
▁이곳	-3104
IC	-3105
▁만에	-3106
위는	-3107
▁가능한	-3108
▁1973	-3109
ah	-3110
="6	-3111
러운	-3112
▁한국의	-3113
)"	-3114
▁가톨릭	-3115
▁기록했다	-3116
/201	-3117
}{	-3118
▁자치	-3119
가를	-3120
▁안전	-3121
▁불리	-3122
▁알려진	-3123
▁마찬가지로	-3124
▁파견	-3125
▁해외	-3126
안을	-3127
act	-3128
▁09	-3129
▁하나이다	-3130
▁SK	-3131
▁text	-3132
▁상호	-3133
관은	-3134
▁얼마	-3135
▁최소	-3136
▁있으나	-3137
관을	-3138
규모	-3139
로그	-3140
ix	-3141
▁못한	-3142
▁이듬해	-3143
son	-3144
▁편입	-3145
black	-3146
▁보이	-3147
▁스웨덴	-3148
▁아침	-3149
▁제도	-3150
▁인민	-3151
▁형사	-3152
트워크	-3153
ann	-3154
jp	-3155
/0	-3156
mathcal	-3157
자에	-3158
ier	-3159
▁선생	-3160
▁or	-3161
로벌	-3162
▁궤	-3163
▁평화	-3164
구는	-3165
마크	-3166
식은	-3167
크라	-3168
▁목적으로	-3169
▁제거	-3170
▁전해	-3171
구가	-3172
▁재판	-3173
▁춘	-3174
선이	-3175
▁카를	-3176
량이	-3177
▁르	-3178
▁뇌	-3179
▁영토	-3180
▁여겨	-3181
▁우수	-3182
▁남부	-3183
AM	-3184
주로	-3185
▁허용	-3186
전의	-3187
▁다중	-3188
오프	-3189
▁공작	-3190
▁분쟁	-3191
▁웹사이트	-3192
▁사용자가	-3193
후의	-3194
▁사항	-3195
▁Sp	-3196
되었으나	-3197
▁전반	-3198
감독	-3199
▁맡았다	-3200
▁##	-3201
일러	-3202
▁Ph	-3203
▁세워	-3204
▁참조	-3205
면을	-3206
▁가정	-3207
자료	-3208
▁항상	-3209
nd	-3210
▁왼	-3211
간다	-3212
▁Bo	-3213
▁미디어	-3214
ics	-3215
▁년	-3216
}(	-3217
▁활용	-3218
지에서	-3219
단이	-3220
일자	-3221
▁스튜	-3222
▁일제	-3223
▁파이	-3224
▁유래	-3225
42	-3226
연대	-3227
▁나무	-3228
▁흡	-3229
문서	-3230
▁회의	-3231
유키	-3232
생활	-3233
▁문제를	-3234
▁보다	-3235
▁겪	-3236
▁개편	-3237
▁값	-3238
▁오늘날	-3239
▁이들	-3240
▁개칭	-3241
함을	-3242
▁시기	-3243
one	-3244
평양	-3245
▁있기	-3246
▁이번	-3247
▁다니	-3248
낸다	-3249
▁CD	-3250
ink	-3251
67	-3252
▁것이었다	-3253
같은	-3254
▁무효	-3255
▁대수	-3256
자유	-3257
▁납	-3258
역이다	-3259
imes	-3260
▁사용한다	-3261
▁베르	-3262
번호	-3263
▁삶	-3264
▁}	-3265
II	-3266
ci	-3267
▁안정	-3268
▁타카	-3269
게임	-3270
=40|	-3271
ons	-3272
▁발언	-3273
하기로	-3274
▁빼	-3275
ition	-3276
▁하나로	-3277
르의	-3278
▁전환	-3279
▁University	-3280
님이	-3281
▁블루	-3282
어나	-3283
▁고시	-3284
▁남편	-3285
▁닛	-3286
▁마리	-3287
민주당	-3288
▁center	-3289
sub	-3290
▁널리	-3291
인물	-3292
▁감사	-3293
▁전달	-3294
▁우승을	-3295
나카	-3296
니어	-3297
▁식민	-3298
▁박사	-3299
▁오스트레일리아	-3300
▁선수권	-3301
장과	-3302
군요	-3303
▁남쪽	-3304
▁초등학교	-3305
프리	-3306
ubl	-3307
하다가	-3308
▁Re	-3309
▁의회	-3310
▁개교	-3311
군과	-3312
▁못하고	-3313
▁멜	-3314
▁2.	-3315
▁유리	-3316
iew	-3317
시설	-3318
▁노르	-3319
▁파리	-3320
▁억	-3321
테인	-3322
41	-3323
주에	-3324
▁(2011	-3325
▁다루	-3326
▁(2013	-3327
동생	-3328
호사	-3329
▁ma	-3330
히로	-3331
▁인한	-3332
cl	-3333
▁의하면	-3334
EN	-3335
▁츠	-3336
▁객	-3337
▁폰	-3338
▁내각	-3339
소는	-3340
91	-3341
립니다	-3342
▁1974	-3343
▁즐	-3344
▁1978	-3345
ata	-3346
▁개정	-3347
▁기억	-3348
▁조성	-3349
▁천황	-3350
▁맹	-3351
▁경향	-3352
▁밴드	-3353
▁스코	-3354
▁교체	-3355
▁펜	-3356
▁젊	-3357
▁끝에	-3358
▁선수이다	-3359
▁※	-3360
▁만화	-3361
urn	-3362
▁바르	-3363
▁꼬	-3364
▁1972	-3365
지와	-3366
▁의미한다	-3367
▁(2014	-3368
▁45	-3369
ost	-3370
▁(2012	-3371
▁근처	-3372
▁내부	-3373
▁않다	-3374
▁라이브	-3375
▁노력	-3376
▁잭	-3377
▁그녀의	-3378
▁포르투	-3379
▁보수	-3380
▁홍보	-3381
사건	-3382
▁떠나	-3383
▁고양	-3384
▁죽음	-3385
▁체포	-3386
▁팀의	-3387
문에	-3388
▁링크	-3389
학의	-3390
▁북쪽	-3391
많은	-3392
▁스티	-3393
니버스	-3394
.10	-3395
▁지정되었다	-3396
▁혐	-3397
IA	-3398
마스	-3399
.12	-3400
▁없습니다	-3401
:#00	-3402
▁주도	-3403
현재	-3404
▁엑	-3405
▁정리	-3406
▁지명	-3407
받았다	-3408
▁벽	-3409
▁나타나	-3410
jpg	-3411
▁중재	-3412
관이	-3413
무원	-3414
▁조정	-3415
▁제국의	-3416
▁헨	-3417
62	-3418
▁혜	-3419
▁결성	-3420
▁아일랜드	-3421
▁불리는	-3422
점으로	-3423
▁원작	-3424
▁붕	-3425
▁관광	-3426
▁(2015	-3427
화국의	-3428
▁국방	-3429
▁이시	-3430
▁버스	-3431
▁반란	-3432
▁유로	-3433
▁(1	-3434
,\	-3435
land	-3436
롭게	-3437
▁벗	-3438
▁강한	-3439
▁요코	-3440
만에	-3441
주교	-3442
▁90	-3443
권의	-3444
▁가는	-3445
▁멕시코	-3446
▁수가	-3447
▁동료	-3448
▁사실을	-3449
트가	-3450
시를	-3451
▁혁명	-3452
▁인사	-3453
▁홍콩	-3454
레인	-3455
▁소녀	-3456
▁박정	-3457
하였는데	-3458
▁보유	-3459
▁아니다	-3460
.07	-3461
졌고	-3462
▁캘	-3463
▁봄	-3464
▁정보를	-3465
행정	-3466
라우	-3467
으면서	-3468
그래	-3469
▁유명한	-3470
▁듀	-3471
로운	-3472
▁이주	-3473
▁전혀	-3474
▁해군	-3475
▁완성	-3476
▁베이스	-3477
▁윈도	-3478
로나	-3479
▁포지션	-3480
(18	-3481
▁요리	-3482
▁조금	-3483
치의	-3484
량을	-3485
체육	-3486
▁마법	-3487
▁클래	-3488
▁제임스	-3489
▁충돌	-3490
▁살해	-3491
전쟁	-3492
▁편곡	-3493
조는	-3494
OS	-3495
az	-3496
▁우선	-3497
54	-3498
력의	-3499
▁전용	-3500
▁(3	-3501
▁동맹	-3502
▁1969	-3503
61	-3504
▁500	-3505
▁그래서	-3506
▁인식	-3507
▁:::	-3508
▁나머지	-3509
▁pro	-3510
▁베스트	-3511
▁이름이	-3512
▁형태로	-3513
▁기계	-3514
분에	-3515
작용	-3516
news	-3517
▁뒤에	-3518
▁1976	-3519
▁가리킨다	-3520
▁하기	-3521
mathbf	-3522
▁목적	-3523
타이	-3524
▁되지	-3525
▁합계	-3526
▁같습니다	-3527
▁넘어	-3528
▁(2008	-3529
-10	-3530
▁정상	-3531
▁1971	-3532
▁신라	-3533
net	-3534
▁직후	-3535
▁설정	-3536
▁네이버	-3537
했습니다	-3538
▁1975	-3539
▁이루어진	-3540
보다는	-3541
▁남북	-3542
자키	-3543
▁각종	-3544
▁몇몇	-3545
시티	-3546
▁중에서	-3547
▁페이지	-3548
과에	-3549
ism	-3550
▁수비	-3551
▁북부	-3552
권이	-3553
아버지	-3554
▁동쪽	-3555
▁지진	-3556
▁합병	-3557
ll	-3558
ood	-3559
▁작전	-3560
ck	-3561
▁알아	-3562
화된	-3563
▁다음을	-3564
되기도	-3565
▁책임	-3566
▁협력	-3567
▁Pl	-3568
타로	-3569
▁관측	-3570
주년	-3571
▁보존	-3572
▁셀	-3573
평가	-3574
더라도	-3575
즈키	-3576
▁Ro	-3577
미디어	-3578
에게는	-3579
▁안에	-3580
▁컬	-3581
▁로스	-3582
▁*《	-3583
▁al	-3584
▁출발	-3585
해를	-3586
▁둔	-3587
▁게이	-3588
▁굴	-3589
▁적극	-3590
시키고	-3591
리포	-3592
56	-3593
▁알렉산	-3594
▁발사	-3595
▁되돌	-3596
use	-3597
▁냉	-3598
조를	-3599
▁만드는	-3600
▁수많은	-3601
▁자체	-3602
▁부임	-3603
▁귀족	-3604
▁주는	-3605
▁강원도	-3606
▁세종	-3607
당한	-3608
되자	-3609
분을	-3610
▁실행	-3611
▁주말	-3612
%|	-3613
역으로	-3614
스에서	-3615
▁즉위	-3616
▁상징	-3617
▁이스	-3618
ED	-3619
형의	-3620
▁미야	-3621
시킨	-3622
▁생물	-3623
=3	-3624
59	-3625
준다	-3626
터테인	-3627
화의	-3628
▁확대	-3629
▁있었고	-3630
vN	-3631
공업	-3632
▁오른쪽	-3633
ohn	-3634
▁최고의	-3635
)\	-3636
▁김정	-3637
ID	-3638
▁간의	-3639
▁1968	-3640
▁린	-3641
트라	-3642
▁j	-3643
▁Mar	-3644
이사	-3645
lack	-3646
▁최다	-3647
시장	-3648
전히	-3649
▁오리	-3650
>,	-3651
▁옮겨	-3652
▁얼굴	-3653
▁욕	-3654
▁인수	-3655
▁나누	-3656
▁하늘	-3657
SA	-3658
▁Press	-3659
istory	-3660
자들의	-3661
▁1977	-3662
▁찰	-3663
▁마리아	-3664
▁부모	-3665
▁마쓰	-3666
신이	-3667
▁충청남도	-3668
.11	-3669
바라	-3670
ere	-3671
구치	-3672
였고	-3673
▁동부	-3674
▁실제로	-3675
미터	-3676
57	-3677
▁밑	-3678
▁한다고	-3679
로로	-3680
밖에	-3681
관으로	-3682
본부	-3683
▁검사	-3684
▁스피	-3685
▁시티	-3686
▁전차	-3687
마을	-3688
▁경기를	-3689
▁(2007	-3690
▁모리	-3691
▁샌	-3692
▁전략	-3693
▁신인	-3694
te	-3695
▁기호	-3696
▁(2016	-3697
▁(18	-3698
다른	-3699
▁범죄	-3700
▁마련	-3701
해주	-3702
ru	-3703
삼거리	-3704
▁(<	-3705
축구	-3706
▁원칙	-3707
▁수원	-3708
류의	-3709
3,	-3710
인들이	-3711
▁유일한	-3712
▁행사	-3713
이로	-3714
▁조각	-3715
▁주어	-3716
▁쉬	-3717
▁Me	-3718
▁피아	-3719
▁제외한	-3720
▁델	-3721
▁그해	-3722
의로	-3723
▁본래	-3724
치로	-3725
▁::::	-3726
51	-3727
계가	-3728
▁사람은	-3729
▁!2	-3730
기고	-3731
▁개선	-3732
▁글을	-3733
▁프로듀서	-3734
▁02	-3735
▁서쪽	-3736
▁전설	-3737
="1	-3738
연구소	-3739
▁챔피언스	-3740
아의	-3741
나라의	-3742
시스	-3743
rit	-3744
▁장애	-3745
▁써	-3746
▁문서의	-3747
점에서	-3748
▁최우수	-3749
ology	-3750
의의	-3751
▁스페셜	-3752
▁에드	-3753
았고	-3754
헝가	-3755
움을	-3756
▁이용하여	-3757
▁class	-3758
ase	-3759
▁#:	-3760
~19	-3761
국이	-3762
htm	-3763
▁히데	-3764
▁시작하였다	-3765
케이	-3766
가요	-3767
AD	-3768
▁소년	-3769
코드	-3770
▁집중	-3771
▁선고	-3772
▁**	-3773
▁탑재	-3774
티나	-3775
▁킹	-3776
▁종목	-3777
▁한번	-3778
▁관계를	-3779
리스트	-3780
▁나중에	-3781
▁정부는	-3782
▁강조	-3783
▁통치	-3784
서트	-3785
▁기능을	-3786
▁계산	-3787
▁무엇	-3788
아시아	-3789
전문	-3790
▁오르	-3791
▁불러	-3792
터테인먼트	-3793
구려	-3794
▁낳	-3795
자이	-3796
▁이집	-3797
▁하계	-3798
▁불가능	-3799
▁김성	-3800
▁남성	-3801
▁밖에	-3802
ica	-3803
(1	-3804
ations	-3805
▁기존의	-3806
도와	-3807
즈의	-3808
내고	-3809
▁쌓	-3810
▁모르	-3811
▁쪽	-3812
조사	-3813
지마	-3814
▁에피	-3815
천시	-3816
▁코드	-3817
대와	-3818
▁1963	-3819
▁선수로	-3820
▁떨어진	-3821
▁전사	-3822
적으로는	-3823
적이고	-3824
▁인용	-3825
▁배경	-3826
노동	-3827
-4	-3828
:10	-3829
▁중국의	-3830
▁받아들	-3831
.《	-3832
연속	-3833
colon	-3834
▁트리	-3835
▁끼	-3836
▁부른다	-3837
▁한다는	-3838
▁옆	-3839
▁아름	-3840
▁회원	-3841
▁태풍	-3842
▁신뢰	-3843
▁대륙	-3844
자이다	-3845
파이	-3846
▁이슬	-3847
58	-3848
▁감독의	-3849
으니	-3850
=1	-3851
▁(2006	-3852
ance	-3853
▁World	-3854
▁니시	-3855
브리	-3856
▁계승	-3857
론을	-3858
▁숫	-3859
▁베네	-3860
▁젊은	-3861
▁해안	-3862
당이	-3863
▁포르투갈	-3864
▁함수	-3865
선은	-3866
포르	-3867
▁기록을	-3868
▁중계	-3869
▁출신의	-3870
▁전시	-3871
▁준공	-3872
▁구축	-3873
로서의	-3874
▁거리	-3875
전이	-3876
▁대표적인	-3877
▁에스	-3878
▁없다고	-3879
▁유키	-3880
▁You	-3881
▁확정	-3882
▁1967	-3883
▁정치적	-3884
▁네트워크	-3885
▁하면	-3886
▁지역에서	-3887
보드	-3888
▁근무	-3889
ther	-3890
하에	-3891
▁합류	-3892
산시	-3893
▁현실	-3894
대사	-3895
▁쉽게	-3896
대학원	-3897
▁곳에	-3898
▁300	-3899
▁제정	-3900
res	-3901
조가	-3902
대한민국	-3903
▁위반	-3904
▁통하여	-3905
▁촌	-3906
물이	-3907
파트	-3908
▁공립	-3909
성으로	-3910
▁자신을	-3911
53	-3912
마트	-3913
기지	-3914
▁확보	-3915
레이드	-3916
▁중학교	-3917
애니	-3918
ert	-3919
▁낮은	-3920
▁생각합니다	-3921
▁마이클	-3922
당을	-3923
▁친일	-3924
VD	-3925
ree	-3926
▁사령	-3927
▁하자	-3928
▁영역	-3929
투니버스	-3930
▁문화재	-3931
▁사람을	-3932
히려	-3933
▁en	-3934
▁사유	-3935
▁척	-3936
▁*201	-3937
▁업무	-3938
▁참석	-3939
▁겨울	-3940
au	-3941
▁힘을	-3942
해졌다	-3943
▁자이	-3944
출판	-3945
▁둘러	-3946
소에	-3947
▁집단	-3948
어도	-3949
라크	-3950
두고	-3951
극장	-3952
▁뒷	-3953
기사	-3954
▁공공	-3955
▁구체	-3956
▁이래	-3957
의가	-3958
력으로	-3959
▁해서	-3960
▁사용된다	-3961
▁문서에	-3962
Xã	-3963
▁중의	-3964
▁있었지만	-3965
01	-3966
▁사례	-3967
구로	-3968
하려는	-3969
▁탄생	-3970
타를	-3971
52	-3972
▁ch	-3973
▁높이	-3974
▁졸업식	-3975
▁건강	-3976
▁셰	-3977
결과	-3978
고시	-3979
부인	-3980
▁지식	-3981
▁터키	-3982
▁유대	-3983
량의	-3984
▁등판	-3985
▁카메	-3986
▁구역	-3987
▁자격	-3988
▁가까운	-3989
▁없고	-3990
행을	-3991
▁일단	-3992
▁썼	-3993
▁서부	-3994
▁끊	-3995
하겠	-3996
▁an	-3997
▁구성되어	-3998
▁광고	-3999
없는	-4000
ick	-4001
amp	-4002
'(	-4003
해도	-4004
▁신경	-4005
▁사회주의	-4006
지사	-4007
성군	-4008
▁공격을	-4009
▁FA	-4010
▁No	-4011
▁그런데	-4012
▁마이크로	-4013
▁일어난	-4014
▁녹음	-4015
▁바탕으로	-4016
가로	-4017
들목	-4018
▁때에는	-4019
▁음력	-4020
▁주목	-4021
▁En	-4022
▁08	-4023
비가	-4024
까지는	-4025
weight	-4026
▁통신	-4027
▁보여주	-4028
상과	-4029
▁지역을	-4030
플레이	-4031
▁솔로	-4032
▁겐	-4033
▁판결	-4034
까지의	-4035
ital	-4036
.05	-4037
▁승리를	-4038
교의	-4039
▁국왕	-4040
yst	-4041
BO	-4042
실록	-4043
▁인근	-4044
▁감소	-4045
tern	-4046
LE	-4047
▁왔	-4048
▁IS	-4049
▁이제	-4050
까요	-4051
진을	-4052
▁전주	-4053
질을	-4054
▁저항	-4055
타카	-4056
데스	-4057
▁각본	-4058
▁사람의	-4059
리트	-4060
▁보는	-4061
학회	-4062
▁수립	-4063
▁만족	-4064
▁올리	-4065
국은	-4066
▁나들목	-4067
▁공급	-4068
IS	-4069
▁에어	-4070
▁족	-4071
아서	-4072
산의	-4073
▁하게	-4074
▁어렵	-4075
".	-4076
▁주었다	-4077
했기	-4078
▁1948	-4079
석을	-4080
▁여전히	-4081
▁말씀	-4082
▁협회	-4083
에르	-4084
.06	-4085
개를	-4086
-12	-4087
화에	-4088
공원	-4089
▁background	-4090
▁인디	-4091
▁묘사	-4092
_1	-4093
wik	-4094
▁제이	-4095
VE	-4096
▁아우	-4097
▁만들었다	-4098
면의	-4099
▁be	-4100
▁상업	-4101
▁미국에서	-4102
셔널	-4103
▁옹	-4104
▁!1	-4105
▁지냈다	-4106
▁위협	-4107
붉은	-4108
파의	-4109
▁관찰	-4110
▁1964	-4111
▁오히려	-4112
▁정부의	-4113
심이	-4114
▁건너	-4115
▁인터뷰	-4116
▁통한	-4117
였으며	-4118
rist	-4119
▁경우도	-4120
Hz	-4121
▁보컬	-4122
일은	-4123
ott	-4124
▁고구려	-4125
▁1946	-4126
_0	-4127
▁만들어진	-4128
동의	-4129
시가	-4130
▁강력한	-4131
▁등은	-4132
▁반면	-4133
▁세르	-4134
▁오스	-4135
일이	-4136
보호	-4137
인들은	-4138
이닝	-4139
되었던	-4140
▁뿐만	-4141
▁해야	-4142
▁승강장	-4143
▁/>	-4144
Ar	-4145
병원	-4146
▁오픈	-4147
분의	-4148
데미	-4149
▁것입니다	-4150
ime	-4151
ution	-4152
▁3,	-4153
문이	-4154
▁길이	-4155
▁시장	-4156
로가	-4157
▁나오는	-4158
▁갤	-4159
▁장기	-4160
ina	-4161
세포	-4162
▁(2005	-4163
차를	-4164
▁Vol	-4165
▁갖추	-4166
력과	-4167
▁삽	-4168
싱턴	-4169
▁비난	-4170
▁03	-4171
▁무렵	-4172
▁Se	-4173
ray	-4174
green	-4175
▁1962	-4176
▁내용이	-4177
▁귀국	-4178
▁Te	-4179
▁레드	-4180
가가	-4181
▁나는	-4182
하고자	-4183
▁Sch	-4184
▁(2017	-4185
▁1966	-4186
▁한정	-4187
▁(2)	-4188
500	-4189
▁묻	-4190
▁시내	-4191
▁동의	-4192
▁오프	-4193
▁사장	-4194
▁Con	-4195
dots	-4196
kg	-4197
▁평양	-4198
에만	-4199
▁사용하여	-4200
스럽	-4201
▁온라인	-4202
▁수학	-4203
▁경계	-4204
▁아주	-4205
▁컵	-4206
▁사이에서	-4207
▁대사	-4208
정당	-4209
▁저장	-4210
량은	-4211
▁취급	-4212
▁Part	-4213
▁서식	-4214
ai	-4215
▁이후에	-4216
비드	-4217
약을	-4218
제목	-4219
부와	-4220
4,	-4221
▁서비	-4222
▁댄	-4223
세에	-4224
정치	-4225
▁면적은	-4226
이즈	-4227
제국	-4228
고속도로	-4229
지컬	-4230
▁콩	-4231
▁주식	-4232
▁1965	-4233
HE	-4234
ict	-4235
▁분포	-4236
sk	-4237
카이도	-4238
▁무장	-4239
▁ed	-4240
▁co	-4241
▁유도	-4242
alk	-4243
▁민간	-4244
었는데	-4245
▁3.	-4246
상에서	-4247
▁단계	-4248
일리	-4249
AL	-4250
▁조선민주주의인민공화국	-4251
▁않습니다	-4252
▁1949	-4253
려는	-4254
세대	-4255
네시아	-4256
천군	-4257
▁나와	-4258
▁com	-4259
주가	-4260
▁낭	-4261
9966	-4262
자기	-4263
도르	-4264
▁Col	-4265
▁필리핀	-4266
▁청년	-4267
종이	-4268
▁해방	-4269
▁연출	-4270
라비아	-4271
▁문자	-4272
▁회복	-4273
▁원자	-4274
▁폭발	-4275
▁36	-4276
르타	-4277
▁붕괴	-4278
set	-4279
법인	-4280
.02	-4281
150	-4282
▁텍	-4283
▁농업	-4284
▁암살	-4285
리나	-4286
력에	-4287
승을	-4288
pha	-4289
우주	-4290
▁확실	-4291
▁1000	-4292
▁도움을	-4293
▁교토	-4294
▁He	-4295
프가	-4296
키아	-4297
종합	-4298
▁아시안	-4299
받은	-4300
▁시대의	-4301
기록	-4302
▁잠시	-4303
제에	-4304
▁메이저	-4305
리학	-4306
▁그에	-4307
hy	-4308
▁사토	-4309
ese	-4310
▁오전	-4311
▁보이는	-4312
▁사는	-4313
호가	-4314
▁받는	-4315
이름	-4316
▁저작권	-4317
▁탈락	-4318
IT	-4319
▁하면서	-4320
▁일반적인	-4321
▁주장했다	-4322
▁고정	-4323
과를	-4324
▁무역	-4325
ton	-4326
▁유전	-4327
유럽	-4328
▁은행	-4329
▁짓	-4330
라이언	-4331
▁연맹	-4332
▁하는데	-4333
▁덴마크	-4334
▁전철	-4335
▁나서	-4336
▁스미	-4337
▁이재	-4338
iet	-4339
서로	-4340
▁Ed	-4341
▁관심을	-4342
▁로버트	-4343
자에게	-4344
▁이루어져	-4345
▁이전에	-4346
드시	-4347
▁화학	-4348
▁사용한	-4349
▁의해서	-4350
하려고	-4351
법에	-4352
절한	-4353
지기	-4354
▁계약을	-4355
▁*19	-4356
▁김종	-4357
▁에피소	-4358
로도	-4359
--------	-4360
▁이슬람	-4361
▁검색	-4362
▁오토	-4363
len	-4364
usic	-4365
▁안내	-4366
호의	-4367
OC	-4368
▁만큼	-4369
하다는	-4370
="6%"|	-4371
ome	-4372
(2	-4373
이와	-4374
끄는	-4375
▁해체	-4376
▁채택	-4377
▁Ex	-4378
mat	-4379
▁자세	-4380
득점	-4381
▁정착	-4382
▁1940	-4383
▁방식으로	-4384
▁부활	-4385
▁노부	-4386
▁총선	-4387
티드	-4388
▁검은	-4389
▁일종	-4390
ax	-4391
가이다	-4392
▁득표율	-4393
소속	-4394
틀랜드	-4395
▁생명	-4396
▁인하여	-4397
명한	-4398
실을	-4399
▁저는	-4400
버그	-4401
▁1961	-4402
▁료	-4403
AP	-4404
kr	-4405
▁전개	-4406
2020	-4407
▁숲	-4408
▁섬네일	-4409
▁시간이	-4410
나와	-4411
▁프리미	-4412
수록	-4413
▁사실상	-4414
미디	-4415
▁헝가	-4416
▁제대로	-4417
▁Love	-4418
▁자리를	-4419
▁스크	-4420
:1	-4421
TC	-4422
▁{{	-4423
▁부근	-4424
▁아르헨	-4425
▁되었으며	-4426
▁불린다	-4427
▁날짜	-4428
▁수입	-4429
.'	-4430
》()	-4431
안전	-4432
▁짐	-4433
해진	-4434
▁재정	-4435
▁누구	-4436
▁스튜디오	-4437
▁왔다	-4438
raph	-4439
▁Le	-4440
▁죽은	-4441
=20|	-4442
▁청소년	-4443
▁쓰는	-4444
▁어디	-4445
▁De	-4446
▁150	-4447
▁이유는	-4448
드립니다	-4449
▁제작된	-4450
▁균	-4451
월까지	-4452
▁쇠	-4453
ium	-4454
라엘	-4455
OM	-4456
▁사용자는	-4457
▁뽑	-4458
마의	-4459
업을	-4460
ors	-4461
.”	-4462
▁운전	-4463
"(	-4464
▁33	-4465
도서관	-4466
▁절대	-4467
▁측정	-4468
▁흰	-4469
▁수사	-4470
HK	-4471
분이	-4472
▁운용	-4473
over	-4474
작곡	-4475
▁독자	-4476
;"|↔	-4477
▁전투에서	-4478
▁외에도	-4479
▁불과	-4480
단으로	-4481
▁힐	-4482
▁마크	-4483
▁를	-4484
▁다섯	-4485
관의	-4486
▁꼭	-4487
치원	-4488
▁호텔	-4489
ve	-4490
▁전라북도	-4491
리포니아	-4492
소로	-4493
▁자본	-4494
▁내에서	-4495
▁플로	-4496
▁장면	-4497
동이	-4498
str	-4499
▁사용되는	-4500
▁모스크	-4501
만큼	-4502
▁약속	-4503
▁리더	-4504
form	-4505
자동차	-4506
TBC	-4507
▁초반	-4508
과정	-4509
▁했지만	-4510
계획	-4511
하였습니다	-4512
ans	-4513
▁에너지	-4514
Al	-4515
부에서	-4516
▁180	-4517
▁챔피언스리그	-4518
▁완료	-4519
FFFFFF	-4520
▁의료	-4521
cccccc	-4522
▁정도의	-4523
음에도	-4524
▁적은	-4525
-11	-4526
ock	-4527
이에	-4528
FM	-4529
=30|	-4530
▁대립	-4531
▁그렇게	-4532
랍니다	-4533
관계	-4534
▁기후	-4535
▁Be	-4536
니는	-4537
own	-4538
▁사람들은	-4539
SC	-4540
문의	-4541
▁그려	-4542
▁So	-4543
사용자	-4544
▁가능성이	-4545
▁비용	-4546
▁찬성	-4547
▁동일한	-4548
▁도서관	-4549
▁증명	-4550
▁이란	-4551
▁드래	-4552
오리	-4553
▁박물관	-4554
이던	-4555
ET	-4556
▁렌	-4557
터리	-4558
보고	-4559
복지	-4560
▁영상	-4561
▁첨	-4562
▁프란	-4563
미의	-4564
시킬	-4565
닥터	-4566
▁공유	-4567
▁이성	-4568
대대	-4569
▁영화배우	-4570
환경	-4571
yn	-4572
▁흘	-4573
형이	-4574
▁투입	-4575
:30	-4576
사람	-4577
▁그레이	-4578
▁선의	-4579
차례	-4580
▁타고	-4581
되었는데	-4582
▁원정	-4583
졌으며	-4584
▁tvN	-4585
인에	-4586
▁핀란드	-4587
▁인간의	-4588
학부	-4589
▁재직	-4590
▁태평양	-4591
▁ret	-4592
▁1920	-4593
▁고향	-4594
▁이것이	-4595
▁발표했다	-4596
크래프트	-4597
▁국무	-4598
▁래	-4599
씨는	-4600
▁무시	-4601
었지만	-4602
idae	-4603
▁소프트웨어	-4604
2009	-4605
att	-4606
〉,	-4607
▁이정	-4608
조합	-4609
연맹	-4610
▁사망하였다	-4611
저우	-4612
▁붙여	-4613
중국	-4614
▁율	-4615
▁니콜	-4616
-18	-4617
▁점을	-4618
자들	-4619
프는	-4620
bert	-4621
류를	-4622
▁앞서	-4623
▁추천	-4624
비의	-4625
red	-4626
cy	-4627
▁경우는	-4628
▁끝나	-4629
▁체계	-4630
실점	-4631
▁롤	-4632
▁성적	-4633
바르	-4634
uk	-4635
▁어떠	-4636
▁속에서	-4637
▁등장하는	-4638
▁사회적	-4639
앨범	-4640
▁심각	-4641
ram	-4642
▁나폴	-4643
테르	-4644
▁랭	-4645
티브	-4646
라면	-4647
▁규칙	-4648
▁금융	-4649
ember	-4650
▁38	-4651
▁!3	-4652
▁택	-4653
▁영입	-4654
프레	-4655
일로	-4656
▁•	-4657
▁소수	-4658
▁펠	-4659
arch	-4660
▁as	-4661
크라이나	-4662
제작	-4663
▁침공	-4664
▁위원회	-4665
▁대형	-4666
▁발매일	-4667
▁골든	-4668
브라	-4669
Th	-4670
▁김대	-4671
▁1930	-4672
▁창립	-4673
port	-4674
에이	-4675
▁장착	-4676
▁부터	-4677
동으로	-4678
▁뛰어난	-4679
▁공포	-4680
이므로	-4681
▁마드리	-4682
▁민주당	-4683
스러운	-4684
받아	-4685
▁보아	-4686
▁형제	-4687
으로도	-4688
▁등에서	-4689
▁워싱턴	-4690
▁복잡	-4691
▁사후	-4692
▁엔터테인먼트	-4693
▁상당히	-4694
▁합의	-4695
▁대상으로	-4696
▁가격	-4697
▁유엔	-4698
▁헤이	-4699
▁셋	-4700
▁식물	-4701
▁언제	-4702
▁유나이	-4703
라가	-4704
기념	-4705
▁올랐다	-4706
uss	-4707
▁베이징	-4708
▁벌어	-4709
▁***	-4710
VP	-4711
메리	-4712
비는	-4713
▁이끄는	-4714
▁까	-4715
▁점차	-4716
▁제출	-4717
▁당시의	-4718
라고도	-4719
▁생활을	-4720
시와	-4721
카드	-4722
="4	-4723
▁한글	-4724
▁서울대학교	-4725
▁때에	-4726
▁>	-4727
ins	-4728
ames	-4729
족의	-4730
▁카드	-4731
rm	-4732
정원	-4733
▁되면	-4734
▁특집	-4735
▁입력	-4736
▁찍	-4737
ual	-4738
수와	-4739
▁챔피언십	-4740
자들을	-4741
마루	-4742
▁1941	-4743
RE	-4744
▁종종	-4745
▁쓸	-4746
.09	-4747
▁팀은	-4748
▁건국	-4749
▁직원	-4750
▁했으나	-4751
▁아랍	-4752
▁간주	-4753
었으나	-4754
▁반드시	-4755
▁이스라엘	-4756
소프트	-4757
▁강제	-4758
▁고등	-4759
▁맛	-4760
안의	-4761
▁거절	-4762
ash	-4763
▁속에	-4764
네스	-4765
▁김일	-4766
복을	-4767
▁자이언	-4768
▁계급	-4769
▁왼쪽	-4770
▁시청률	-4771
▁홋	-4772
나요	-4773
BN	-4774
대에서	-4775
▁톰	-4776
▁대회에서	-4777
슈타	-4778
▁지켜	-4779
▁엄마	-4780
▁러브	-4781
권에	-4782
사인	-4783
▁1944	-4784
리케	-4785
▁행위	-4786
년대에	-4787
경의	-4788
▁시기에	-4789
▁돔	-4790
▁엠	-4791
전은	-4792
▁윈도우	-4793
▁아오	-4794
▁플레이오프	-4795
▁희망	-4796
▁부산광역시	-4797
대장	-4798
▁그곳	-4799
▁#*	-4800
▁다운	-4801
▁FM	-4802
▁올해의	-4803
우고	-4804
▁예상	-4805
▁브랜드	-4806
amb	-4807
sil	-4808
▁몽골	-4809
▁내용은	-4810
이상	-4811
서에	-4812
la	-4813
▁머리	-4814
권은	-4815
대신	-4816
▁애플	-4817
▁창설	-4818
▁외에	-4819
스페	-4820
이라고도	-4821
▁바랍니다	-4822
▁PC	-4823
▁고전	-4824
▁캘리포니아	-4825
건설	-4826
점은	-4827
▁라인	-4828
되면	-4829
▁소장	-4830
산군	-4831
▁캄	-4832
rak	-4833
▁뿌	-4834
식으로	-4835
pro	-4836
(16	-4837
2008	-4838
되었지만	-4839
국을	-4840
me	-4841
▁My	-4842
que	-4843
iel	-4844
승점	-4845
크의	-4846
▁결과를	-4847
▁파워	-4848
line	-4849
▁(4	-4850
ise	-4851
▁정치인	-4852
▁보조	-4853
▁킬	-4854
▁감염	-4855
▁진보	-4856
:19	-4857
▁수출	-4858
▁붉은	-4859
프랑	-4860
OL	-4861
년과	-4862
위원장	-4863
▁위키백과의	-4864
▁저지	-4865
사에서	-4866
사거리	-4867
low	-4868
▁Or	-4869
▁본격	-4870
▁장난	-4871
order	-4872
▁참여하였다	-4873
▁비율	-4874
▁도요	-4875
어야	-4876
▁숭	-4877
품을	-4878
▁이용해	-4879
▁총리	-4880
▁인가	-4881
rans	-4882
▁옷	-4883
연히	-4884
▁매년	-4885
ingle	-4886
등을	-4887
함에	-4888
▁분할	-4889
▁출입	-4890
▁짧은	-4891
ode	-4892
▁야스	-4893
▁개설	-4894
서의	-4895
화는	-4896
년을	-4897
ren	-4898
안에	-4899
▁시작되었다	-4900
코의	-4901
대사관	-4902
를린	-4903
▁간단	-4904
BA	-4905
(15	-4906
▁있었으나	-4907
▁타이거	-4908
▁그에게	-4909
▁(2004	-4910
▁MC	-4911
▁개막	-4912
미니	-4913
▁루이	-4914
가타	-4915
html	-4916
▁대규모	-4917
▁물러	-4918
▁글로벌	-4919
▁Man	-4920
▁우크라이나	-4921
보는	-4922
▁살인	-4923
아키	-4924
》(19	-4925
텐츠	-4926
▁도중	-4927
▁측면	-4928
▁아이돌	-4929
▁이중	-4930
▁장군	-4931
US	-4932
▁sp	-4933
▁전역	-4934
▁가리키는	-4935
▁(2000	-4936
▁34	-4937
.08	-4938
▁필요가	-4939
▁됐다	-4940
▁그러한	-4941
▁지어	-4942
ife	-4943
▁됩니다	-4944
·<	-4945
공화국의	-4946
▁대학원	-4947
▁1955	-4948
▁구조를	-4949
월호	-4950
="5	-4951
.04	-4952
형은	-4953
▁학사	-4954
-5	-4955
▁Is	-4956
▁모스크바	-4957
▁아카데미	-4958
점에	-4959
▁섭	-4960
▁그것을	-4961
ery	-4962
▁1956	-4963
인들의	-4964
▁핵심	-4965
▁세운	-4966
▁1958	-4967
▁샘	-4968
▁보안	-4969
음이	-4970
▁경성	-4971
▁노예	-4972
▁단일	-4973
았던	-4974
▁융	-4975
▁트랙	-4976
▁했고	-4977
피스	-4978
프의	-4979
▁아메리카	-4980
히는	-4981
기압	-4982
▁이민	-4983
SP	-4984
▁이하	-4985
머스	-4986
▁지키	-4987
▁포기	-4988
▁내에	-4989
베이스	-4990
▁집행	-4991
▁떨어져	-4992
디션	-4993
비치	-4994
▁대항	-4995
▁태어난	-4996
▁역으로	-4997
▁덧	-4998
▁항목	-4999
▁수여	-5000
체에	-5001
▁아닙	-5002
-17	-5003
조에	-5004
▁코치	-5005
An	-5006
▁있었는데	-5007
reat	-5008
▁곽	-5009
▁37	-5010
▁War	-5011
▁1947	-5012
da	-5013
종은	-5014
▁과정을	-5015
▁스토	-5016
지면서	-5017
▁1954	-5018
▁되면서	-5019
▁Ret	-5020
선에	-5021
▁위치해	-5022
▁형태의	-5023
수에	-5024
조직	-5025
▁올려	-5026
▁육상	-5027
▁나뉘	-5028
▁넘겨	-5029
▁연예	-5030
▁조작	-5031
추어	-5032
▁메인	-5033
분류	-5034
▁매일	-5035
연속극	-5036
.4	-5037
▁근대	-5038
시험	-5039
간에	-5040
▁튀	-5041
▁동원	-5042
았으며	-5043
▁신성	-5044
▁시간을	-5045
▁출마	-5046
▁통해서	-5047
ateg	-5048
▁07	-5049
▁관료	-5050
▁뒤를	-5051
▁공군	-5052
▁이익	-5053
▁보급	-5054
ool	-5055
▁했	-5056
▁어떠한	-5057
▁논쟁	-5058
▁ex	-5059
▁합격	-5060
▁일정	-5061
▁부하	-5062
영의	-5063
▁이탈리아의	-5064
▁조합	-5065
▁400	-5066
▁(2018	-5067
add	-5068
▁보였다	-5069
DA	-5070
술을	-5071
oon	-5072
▁오랜	-5073
▁는	-5074
▁논의	-5075
▁1959	-5076
퍼스	-5077
원군	-5078
▁탁	-5079
가시	-5080
▁04	-5081
국민학교	-5082
룬다	-5083
당에	-5084
릭스	-5085
되어야	-5086
법의	-5087
▁le	-5088
▁훨	-5089
blue	-5090
▁중화인민공화국	-5091
▁취소	-5092
▁카운	-5093
이었고	-5094
▁있었으며	-5095
▁부상	-5096
▁살고	-5097
타마	-5098
▁기대	-5099
신은	-5100
rib	-5101
원과	-5102
▁주고	-5103
▁알게	-5104
▁생겨	-5105
이었으나	-5106
▁달라	-5107
▁주교	-5108
▁중반	-5109
▁전공	-5110
체로	-5111
_{\	-5112
▁약간	-5113
▁소방	-5114
che	-5115
▁공주	-5116
재판	-5117
총독	-5118
▁둥	-5119
▁요한	-5120
▁콘서트	-5121
▁해당하는	-5122
고등	-5123
▁z	-5124
▁충청북도	-5125
▁열대	-5126
▁공부	-5127
▁사태	-5128
츠키	-5129
야구	-5130
▁인기	-5131
▁반발	-5132
▁시즌을	-5133
▁후손	-5134
▁특별한	-5135
alpha	-5136
▁히로시마	-5137
우드	-5138
뮤니	-5139
▁것처럼	-5140
▁빠른	-5141
▁사람들	-5142
▁라틴	-5143
▁위치하고	-5144
시대의	-5145
▁공산주의	-5146
차원	-5147
▁띄	-5148
▁중립	-5149
▁검찰	-5150
▁방면	-5151
▁상하이	-5152
▁보건	-5153
회에	-5154
="3"|	-5155
▁훨씬	-5156
▁직업	-5157
▁It	-5158
▁위해서는	-5159
산으로	-5160
▁원주	-5161
물로	-5162
보병	-5163
▁가로	-5164
-16	-5165
▁이집트	-5166
SL	-5167
미국	-5168
더스	-5169
부산	-5170
▁일일	-5171
▁가을	-5172
모델	-5173
▁한나라	-5174
유의	-5175
▁대비	-5176
기에는	-5177
▁(2019	-5178
▁굳	-5179
고야	-5180
인도	-5181
▁헨리	-5182
고로	-5183
▁개국	-5184
▁구성된	-5185
역사	-5186
▁병사	-5187
리게	-5188
▁스탠	-5189
="30	-5190
서가	-5191
▁정부가	-5192
리노	-5193
▁it	-5194
▁화물	-5195
▁차이가	-5196
▁Comp	-5197
▁늦	-5198
▁주간	-5199
▁법칙	-5200
ings	-5201
ild	-5202
▁타이완	-5203
▁엄청	-5204
▁개업	-5205
▁포항	-5206
▁방법을	-5207
회가	-5208
▁추측	-5209
▁플라	-5210
▁슬로	-5211
▁덮	-5212
▁지침	-5213
▁극장판	-5214
▁올스타	-5215
만은	-5216
기원	-5217
화로	-5218
▁마츠	-5219
▁비교적	-5220
OP	-5221
▁플래	-5222
▁이야기를	-5223
로마	-5224
ley	-5225
▁게스트	-5226
2010	-5227
경기에	-5228
▁(2003	-5229
경에	-5230
▁뜻을	-5231
>·<	-5232
▁1952	-5233
▁말이	-5234
▁투자	-5235
ron	-5236
▁승인	-5237
▁대기	-5238
▁은하	-5239
▁반영	-5240
▁역사상	-5241
▁아라	-5242
▁단독	-5243
▁혼란	-5244
▁능력을	-5245
▁우려	-5246
씨의	-5247
▁이용한	-5248
▁마침	-5249
nh	-5250
▁인공	-5251
UN	-5252
▁사용하고	-5253
령을	-5254
▁방출	-5255
▁팀이	-5256
사기	-5257
는지	-5258
시킨다	-5259
▁코리아	-5260
▁계획을	-5261
erv	-5262
▁닛폰	-5263
ject	-5264
▁임명되었다	-5265
學校	-5266
ym	-5267
▁프린	-5268
▁스코틀랜드	-5269
▁벡	-5270
▁여기에	-5271
▁해설	-5272
▁테마	-5273
우라	-5274
=0	-5275
크는	-5276
▁생긴	-5277
▁경주	-5278
▁피아노	-5279
-15	-5280
▁역을	-5281
▁한때	-5282
▁보장	-5283
소설	-5284
▁미치	-5285
▁부분이	-5286
▁발생한	-5287
▁Tr	-5288
▁도와	-5289
▁아버	-5290
▁재위	-5291
▁빠져	-5292
개혁	-5293
▁그레	-5294
박물관	-5295
▁석사	-5296
▁예비	-5297
part	-5298
▁DVD	-5299
행위	-5300
▁구속	-5301
▁앞에	-5302
▁트로	-5303
▁해양	-5304
▁없다는	-5305
ake	-5306
적이다	-5307
▁천안	-5308
▁전부	-5309
경영	-5310
▁도망	-5311
이라면	-5312
▁문서가	-5313
▁다케	-5314
▁자살	-5315
▁창원	-5316
▁사용자의	-5317
▁불법	-5318
▁탈출	-5319
▁여객철도	-5320
▁!|	-5321
▁아나운	-5322
▁경기장	-5323
▁독립운동	-5324
▁파라	-5325
우치	-5326
▁체육	-5327
▁둘째	-5328
▁end	-5329
▁검토	-5330
메달을	-5331
▁하드	-5332
▁방송국	-5333
▁토론을	-5334
▁받지	-5335
에게서	-5336
구와	-5337
하루	-5338
▁Cl	-5339
▁멸망	-5340
▁인기를	-5341
초에	-5342
▁동계	-5343
▁양성	-5344
▁로드	-5345
▁동작	-5346
▁완공	-5347
비디오	-5348
▁접속	-5349
어와	-5350
▁층	-5351
sup	-5352
oy	-5353
당했다	-5354
....	-5355
법은	-5356
▁흡수	-5357
편집	-5358
▁김동	-5359
▁뮤지컬	-5360
ii	-5361
▁오카	-5362
▁법정	-5363
▁해도	-5364
▁어린이	-5365
▁신앙	-5366
▁벨기에	-5367
▁주관	-5368
▁OST	-5369
▁vs	-5370
▁정차	-5371
티스트	-5372
^\	-5373
세기에	-5374
af	-5375
min	-5376
▁쫓	-5377
우의	-5378
ole	-5379
진의	-5380
전으로	-5381
▁김태	-5382
▁세인트	-5383
000000	-5384
운행	-5385
회장	-5386
▁장치	-5387
▁공사	-5388
▁만주	-5389
▁오오	-5390
▁점에서	-5391
테네	-5392
독립	-5393
▁1953	-5394
(3	-5395
▁논란이	-5396
ystem	-5397
수도	-5398
▁피터	-5399
▁의혹	-5400
▁등급	-5401
시스템	-5402
홈런	-5403
▁릴	-5404
▁때의	-5405
드라	-5406
▁그것은	-5407
무부	-5408
받고	-5409
▁On	-5410
▁미니시리즈	-5411
▁지닌	-5412
>(	-5413
▁의심	-5414
▁털	-5415
▁서버	-5416
▁한반	-5417
에서만	-5418
▁Ad	-5419
▁정지	-5420
▁레오	-5421
어들	-5422
▁활발	-5423
교수	-5424
스포	-5425
재를	-5426
ank	-5427
▁4,	-5428
▁아미	-5429
▁단백	-5430
니의	-5431
OT	-5432
▁아야	-5433
▁웨스트	-5434
▁임의의	-5435
마르	-5436
▁와이	-5437
미술	-5438
정으로	-5439
의원	-5440
▁시상	-5441
▁사건을	-5442
▁구별	-5443
▁안타	-5444
▁중화민국	-5445
▁군인	-5446
모를	-5447
▁이끌고	-5448
께서	-5449
어스	-5450
▁기다	-5451
▁의무	-5452
▁거대한	-5453
artic	-5454
▁1943	-5455
igital	-5456
▁외부	-5457
▁분명	-5458
판을	-5459
▁고용	-5460
류가	-5461
▁한자	-5462
▁러시아의	-5463
▁바라	-5464
▁명확	-5465
관광	-5466
▁서양	-5467
▁박정희	-5468
여서	-5469
▁선거구	-5470
ype	-5471
.6	-5472
2000	-5473
퍼드	-5474
지자	-5475
▁없을	-5476
▁변호사	-5477
너스	-5478
동아	-5479
▁북아	-5480
디움	-5481
_2	-5482
▁갖춘	-5483
ement	-5484
▁말레이	-5485
▁에서	-5486
▁취득	-5487
ps	-5488
번의	-5489
났으며	-5490
▁(1999	-5491
하신	-5492
▁이종	-5493
차가	-5494
▁아닙니다	-5495
라디오	-5496
▁데이비드	-5497
▁브리	-5498
▁전후	-5499
pi	-5500
pr	-5501
lect	-5502
▁득표수	-5503
▁느끼	-5504
ces	-5505
▁제일	-5506
▁사단	-5507
다시	-5508
▁행정구역	-5509
▁1957	-5510
▁마치	-5511
▁경기에	-5512
▁맡고	-5513
▁For	-5514
▁History	-5515
▁사건이	-5516
▁*:	-5517
▁얻어	-5518
전공	-5519
▁백작	-5520
▁자이언츠	-5521
▁띠	-5522
▁통제	-5523
▁흔히	-5524
▁테러	-5525
▁쓰인다	-5526
▁장악	-5527
▁John	-5528
▁이것을	-5529
▁하였고	-5530
▁황금	-5531
▁설치되어	-5532
년이	-5533
▁도달	-5534
▁지급	-5535
▁철학	-5536
상태	-5537
▁거짓	-5538
방의	-5539
▁Bl	-5540
▁가와	-5541
▁인생	-5542
KB	-5543
작사	-5544
▁따로	-5545
리우스	-5546
rix	-5547
였으나	-5548
riev	-5549
▁채용	-5550
frak	-5551
▁사운드	-5552
ican	-5553
▁메시	-5554
▁생존	-5555
▁대공	-5556
▁이후에는	-5557
mathfrak	-5558
▁시대에	-5559
세트	-5560
uro	-5561
▁리처	-5562
▁이기	-5563
▁1951	-5564
▁앞두고	-5565
▁큐	-5566
방을	-5567
▁선교	-5568
미를	-5569
▁번호	-5570
바일	-5571
▁창조	-5572
▁이른	-5573
▁했던	-5574
▁예산	-5575
바로	-5576
군으로	-5577
▁비록	-5578
▁지원을	-5579
▁return	-5580
타르	-5581
ormal	-5582
지구	-5583
▁루이스	-5584
▁카이	-5585
OW	-5586
ument	-5587
▁변환	-5588
▁뜻한다	-5589
▁(2002	-5590
EBS	-5591
▁국가의	-5592
▁영웅	-5593
▁인도네시아	-5594
▁받을	-5595
▁경우에	-5596
스포츠	-5597
:#66	-5598
▁사용되었다	-5599
크스	-5600
▁후쿠오카	-5601
▁1919	-5602
리즘	-5603
▁do	-5604
▁MVP	-5605
랫폼	-5606
출장	-5607
클럽	-5608
안타	-5609
노스	-5610
▁요코하마	-5611
무리	-5612
mathrm	-5613
▁동성	-5614
오스	-5615
용으로	-5616
▁닌	-5617
▁코미디	-5618
▁지금의	-5619
▁베를린	-5620
.7	-5621
▁진입	-5622
▁파악	-5623
▁뜨	-5624
▁보병	-5625
료를	-5626
:15	-5627
라드	-5628
주기	-5629
▁통계	-5630
리히	-5631
▁희생	-5632
▁제어	-5633
▁얻었다	-5634
')	-5635
▁삼각	-5636
▁진화	-5637
view	-5638
-20	-5639
▁프로세	-5640
IM	-5641
▁일치	-5642
▁NHK	-5643
▁존재하는	-5644
보통	-5645
▁기반으로	-5646
보이	-5647
▁이영	-5648
ail	-5649
선으로	-5650
미가	-5651
▁서술	-5652
▁늘어	-5653
리안	-5654
▁웃	-5655
uns	-5656
▁이명	-5657
인민공화국의	-5658
▁삽입	-5659
▁쓰고	-5660
▁때부터	-5661
02	-5662
▁시작한	-5663
▁수영	-5664
▁연대	-5665
렸고	-5666
리아의	-5667
▁등장한다	-5668
해가	-5669
6,	-5670
no	-5671
rieved	-5672
▁향상	-5673
▁Amer	-5674
iam	-5675
▁1938	-5676
AS	-5677
▁캔	-5678
▁전쟁을	-5679
▁원년	-5680
▁월화	-5681
결승	-5682
▁청나라	-5683
▁48	-5684
▁방향으로	-5685
▁에피소드	-5686
▁기록하였다	-5687
PS	-5688
우에	-5689
리다	-5690
▁1939	-5691
조건	-5692
▁상륙	-5693
5,	-5694
훗날	-5695
▁시에	-5696
▁정비	-5697
▁JTBC	-5698
▁요새	-5699
angle	-5700
▁교환	-5701
▁머물	-5702
▁세웠다	-5703
03	-5704
▁라이온	-5705
▁et	-5706
문제	-5707
▁정책을	-5708
고의	-5709
=10	-5710
▁빼앗	-5711
▁120	-5712
베스	-5713
▁거래	-5714
▁정기	-5715
봅니다	-5716
itt	-5717
▁파트	-5718
도에서	-5719
거운	-5720
삼국	-5721
▁아스	-5722
▁후에는	-5723
▁라고	-5724
▁아사히	-5725
▁사법	-5726
▁피해를	-5727
니치	-5728
주군	-5729
▁지낸	-5730
▁지니	-5731
▁1942	-5732
▁요미	-5733
▁산맥	-5734
▁상황에서	-5735
시청	-5736
▁배출	-5737
▁남은	-5738
▁미군	-5739
개가	-5740
토니	-5741
▁공통	-5742
야시	-5743
▁모아	-5744
▁랜	-5745
식에	-5746
▁대장	-5747
▁않았고	-5748
AG	-5749
▁수집	-5750
▁닥터	-5751
umb	-5752
ute	-5753
▁가나	-5754
▁트랜	-5755
▁충분히	-5756
▁노벨	-5757
ternational	-5758
회차	-5759
▁가서	-5760
▁강의	-5761
▁현재까지	-5762
드레	-5763
소녀	-5764
▁ST	-5765
▁도쿠	-5766
▁대리	-5767
▁테이	-5768
▁말이다	-5769
▁행동을	-5770
▁사전	-5771
켰다	-5772
ius	-5773
▁지역은	-5774
▁스타크래프트	-5775
amma	-5776
▁문서는	-5777
틀러	-5778
▁했으며	-5779
▁임기	-5780
▁교사	-5781
▁팀을	-5782
아르	-5783
hat	-5784
슨은	-5785
▁브루	-5786
▁해산	-5787
▁도시로	-5788
가에	-5789
▁Gu	-5790
▁보낸	-5791
표를	-5792
지며	-5793
▁타임	-5794
현의	-5795
▁성남	-5796
페라	-5797
▁주둔	-5798
▁동아일보	-5799
국에	-5800
화와	-5801
="20	-5802
패를	-5803
겠다	-5804
▁핑	-5805
락을	-5806
▁05	-5807
▁출범	-5808
▁행성	-5809
리코	-5810
단계	-5811
▁York	-5812
▁전쟁이	-5813
▁39	-5814
ograph	-5815
▁켈	-5816
▁효율	-5817
고가	-5818
▁부분을	-5819
2007	-5820
증을	-5821
▁그때	-5822
▁천문	-5823
▁학술	-5824
▁똑	-5825
▁(2001	-5826
▁행복	-5827
▁요소	-5828
="9	-5829
▁조별	-5830
▁수송	-5831
투스	-5832
석이	-5833
ega	-5834
▁금속	-5835
▁정복	-5836
▁처음에는	-5837
체국	-5838
▁일시	-5839
▁!4	-5840
▁black	-5841
통합	-5842
▁잡아	-5843
▁EBS	-5844
2013	-5845
연구원	-5846
▁기록한	-5847
생물	-5848
설을	-5849
▁란	-5850
▁이뤄	-5851
▁일본에서	-5852
▁출간	-5853
발매	-5854
토의	-5855
▁방사	-5856
▁듣고	-5857
페르	-5858
▁조종	-5859
체스터	-5860
IR	-5861
켓몬	-5862
▁맞이	-5863
▁받게	-5864
▁(10	-5865
▁대성	-5866
)’	-5867
▁군주	-5868
▁없음	-5869
후보	-5870
▁명이	-5871
등의	-5872
▁공을	-5873
▁드라이	-5874
고기	-5875
▁않으며	-5876
질이	-5877
▁장남	-5878
▁조선의	-5879
▁선수가	-5880
▁돌아가	-5881
▁일원	-5882
▁포트	-5883
%,	-5884
▁횡	-5885
산은	-5886
적의	-5887
.8	-5888
▁드래곤	-5889
조판	-5890
▁소리	-5891
▁시카	-5892
▁Op	-5893
▁저녁	-5894
운영	-5895
▁스위스	-5896
▁연재	-5897
arrow	-5898
(17	-5899
명에	-5900
tt	-5901
에트	-5902
▁없으며	-5903
방향	-5904
▁작성한	-5905
▁건립	-5906
▁됨	-5907
▁!5	-5908
▁안동	-5909
ple	-5910
▁성능	-5911
▁제외하고	-5912
▁지리	-5913
ions	-5914
▁이지	-5915
대구	-5916
7,	-5917
▁조카	-5918
에선	-5919
▁것이며	-5920
▁미사일	-5921
대교	-5922
키스탄	-5923
▁능력	-5924
▁카르	-5925
▁진주	-5926
▁높아	-5927
▁처벌	-5928
▁브라운	-5929
▁블로그	-5930
▁크기	-5931
법이	-5932
▁그와	-5933
▁이전의	-5934
.9	-5935
뿐만	-5936
▁포함되어	-5937
문은	-5938
▁프랭	-5939
▁계기로	-5940
어져	-5941
▁넓은	-5942
▁스프	-5943
▁싫	-5944
ave	-5945
▁요청을	-5946
▁차별	-5947
▁유한	-5948
▁상승	-5949
개로	-5950
▁끝난	-5951
"]	-5952
▁if	-5953
▁미드	-5954
},	-5955
▁학습	-5956
▁배역	-5957
하였지만	-5958
▁커뮤니	-5959
사무소	-5960
▁퀸	-5961
활동	-5962
▁대표팀	-5963
▁세력	-5964
ated	-5965
##	-5966
병을	-5967
하세요	-5968
▁발표하였다	-5969
▁기권	-5970
IG	-5971
미는	-5972
히코	-5973
▁예수	-5974
젤레스	-5975
▁강점	-5976
▁곳에서	-5977
▁프리미어	-5978
진이	-5979
▁세계에서	-5980
성화	-5981
레오	-5982
:12	-5983
분교	-5984
▁닫	-5985
▁Car	-5986
▁경기는	-5987
▁식민지	-5988
▁06	-5989
▁부대	-5990
▁흉	-5991
등이	-5992
▁박영	-5993
▁깊은	-5994
▁각각의	-5995
로우	-5996
치아	-5997
▁시의	-5998
학원	-5999
▁인원	-6000
igh	-6001
▁못하는	-6002
▁콤	-6003
득표	-6004
▁편집을	-6005
▁합성	-6006
▁US	-6007
형으로	-6008
ream	-6009
▁성인	-6010
.</	-6011
▁구장	-6012
▁문제로	-6013
▁윤치	-6014
▁55	-6015
▁내의	-6016
▁분위	-6017
▁이수	-6018
▁마케	-6019
타운	-6020
▁묶	-6021
통을	-6022
▁作	-6023
▁웅	-6024
▁회전	-6025
과대학	-6026
▁팝	-6027
▁다큐	-6028
▁보냈다	-6029
▁유사한	-6030
▁태어나	-6031
이었으며	-6032
어버	-6033
▁유효	-6034
▁스카	-6035
▁항복	-6036
▁기술을	-6037
▁쳐	-6038
왕후	-6039
▁유나이티드	-6040
▁마지막으로	-6041
▁위키백과에	-6042
▁국경	-6043
▁비상	-6044
레나	-6045
마니아	-6046
cri	-6047
)-	-6048
▁그냥	-6049
▁꺾	-6050
색을	-6051
러리	-6052
="3"	-6053
▁말하는	-6054
_\	-6055
▁KT	-6056
▁실질	-6057
▁발매되었다	-6058
▁않게	-6059
▁세르비아	-6060
계약	-6061
▁단지	-6062
시다	-6063
▁빙	-6064
트와	-6065
▁사퇴	-6066
▁not	-6067
▁되자	-6068
시기	-6069
:2	-6070
times	-6071
관에	-6072
▁총독	-6073
베르크	-6074
시타	-6075
▁위성	-6076
수이다	-6077
":	-6078
▁공화	-6079
▁받는다	-6080
세와	-6081
튜브	-6082
igma	-6083
타나	-6084
▁잎	-6085
신교	-6086
가족	-6087
▁경남	-6088
2011	-6089
▁손자	-6090
▁기상	-6091
의정	-6092
▁차지했다	-6093
:20	-6094
▁타율	-6095
▁말았다	-6096
ral	-6097
▁진압	-6098
▁승객	-6099
▁Go	-6100
▁농민	-6101
트랙	-6102
ates	-6103
▁나온다	-6104
질랜드	-6105
▁입장	-6106
▁개조	-6107
▁스마트	-6108
▁원소	-6109
▁스타디움	-6110
▁지속적으로	-6111
▁신호	-6112
▁적합	-6113
▁포위	-6114
▁가게	-6115
▁(3)	-6116
▁하위	-6117
▁연습	-6118
MS	-6119
▁이즈	-6120
▁자는	-6121
▁에도	-6122
메리칸	-6123
포로	-6124
▁북서	-6125
▁that	-6126
금의	-6127
ward	-6128
▁외국인	-6129
느냐	-6130
phi	-6131
▁AFC	-6132
▁로봇	-6133
▁재개	-6134
▁세계의	-6135
프를	-6136
▁농구	-6137
▁잉글랜드의	-6138
PG	-6139
▁미쓰	-6140
▁다르다	-6141
▁보기	-6142
▁응용	-6143
▁다수	-6144
필드	-6145
▁이르는	-6146
yl	-6147
▁부르는	-6148
▁차이	-6149
▁잡지	-6150
▁고문	-6151
▁해제	-6152
▁춤	-6153
노선	-6154
었다고	-6155
▁김현	-6156
▁전파	-6157
▁대통령이	-6158
▁불안	-6159
▁인권	-6160
▁내가	-6161
특별출연	-6162
▁플랫폼	-6163
가미	-6164
▁개관	-6165
▁상품	-6166
이면	-6167
▁벼	-6168
▁정확한	-6169
▁설립된	-6170
▁이벤	-6171
▁청주	-6172
▁동남	-6173
▁공식적으로	-6174
진흥	-6175
▁스토리	-6176
ipedia	-6177
으로서의	-6178
론의	-6179
▁전동차	-6180
="25	-6181
▁남동	-6182
소에서	-6183
▁샤를	-6184
Le	-6185
만원	-6186
Sh	-6187
한의	-6188
▁반대로	-6189
▁시나	-6190
▁입장을	-6191
▁1914	-6192
▁쥐	-6193
▁답변	-6194
ublic	-6195
▁선보	-6196
▁뭐	-6197
▁레인	-6198
보를	-6199
▁조절	-6200
▁오래된	-6201
▁핫	-6202
누스	-6203
▁나타내는	-6204
ana	-6205
역대	-6206
▁삼국	-6207
▁레코드	-6208
월드	-6209
▁변경되었다	-6210
▁도전	-6211
겨레	-6212
▁추정된다	-6213
페이	-6214
ose	-6215
▁로스앤	-6216
▁발표한	-6217
▁라이트	-6218
▁아나운서	-6219
▁향해	-6220
enn	-6221
▁히어로	-6222
▁개입	-6223
9)	-6224
▁갈라	-6225
▁하였으나	-6226
Un	-6227
▁넘는	-6228
대문	-6229
부사	-6230
즈는	-6231
▁투어	-6232
수한	-6233
부터는	-6234
스트라	-6235
ourn	-6236
▁홋카이도	-6237
▁있음을	-6238
▁다수의	-6239
▁병원	-6240
inal	-6241
▁sh	-6242
▁Ind	-6243
▁일본어	-6244
▁Single	-6245
고려	-6246
▁골드	-6247
ific	-6248
▁동해	-6249
라며	-6250
▁많아	-6251
▁목표로	-6252
▁42	-6253
▁임진	-6254
▁이들의	-6255
▁분노	-6256
▁무게	-6257
▁위원장	-6258
▁토모	-6259
회에서	-6260
▁속도	-6261
▁골을	-6262
평균	-6263
▁Ver	-6264
05	-6265
▁음식	-6266
▁종류의	-6267
▁임대	-6268
▁봐	-6269
▁미나	-6270
-13	-6271
▁되며	-6272
▁예측	-6273
▁가치	-6274
▁쾌	-6275
당과	-6276
부대	-6277
irst	-6278
▁앞에서	-6279
왕이	-6280
▁Retrieved	-6281
▁앵	-6282
▁김용	-6283
="50	-6284
▁운동을	-6285
▁빠르게	-6286
▁pl	-6287
호쿠	-6288
8,	-6289
공립	-6290
세로	-6291
▁대략	-6292
▁코너	-6293
▁Eng	-6294
▁스티븐	-6295
partial	-6296
▁시위	-6297
▁페이스	-6298
▁벡터	-6299
ited	-6300
▁아름다운	-6301
책을	-6302
▁리버	-6303
보기	-6304
▁가졌다	-6305
▁고속도로	-6306
당시	-6307
sv	-6308
%)	-6309
07	-6310
▁훌	-6311
▁더블	-6312
▁이후로	-6313
ottom	-6314
▁모임	-6315
▁공업	-6316
▁상관	-6317
sum	-6318
▁창단	-6319
▁돼	-6320
▁알파	-6321
료로	-6322
혁명	-6323
▁넥	-6324
▁헤르	-6325
ound	-6326
건을	-6327
듯이	-6328
▁픽	-6329
회말	-6330
▁심사	-6331
머리	-6332
역이	-6333
▁의존	-6334
남자	-6335
만한	-6336
산이	-6337
연상	-6338
▁시드	-6339
▁찰스	-6340
내기	-6341
2006	-6342
▁백과	-6343
뱅크	-6344
▁아들이	-6345
등급	-6346
야의	-6347
▁다다	-6348
▁나의	-6349
▁도모	-6350
▁있다면	-6351
산면	-6352
▁녹색	-6353
당선	-6354
▁김지	-6355
app	-6356
▁모토	-6357
▁무사	-6358
▁지도자	-6359
▁보스	-6360
편성	-6361
arge	-6362
섰다	-6363
▁문헌	-6364
▁자녀	-6365
▁루트	-6366
쿠스	-6367
▁돕	-6368
▁어려운	-6369
:18	-6370
2012	-6371
기에서	-6372
종을	-6373
▁소송	-6374
▁묵	-6375
▁강남	-6376
▁이혼	-6377
▁주장하였다	-6378
▁(1)	-6379
▁관계가	-6380
▁터미널	-6381
▁덧붙	-6382
▁않으면	-6383
▁리처드	-6384
▁놓고	-6385
▁프라	-6386
합계	-6387
영상	-6388
▁앞으로	-6389
▁Min	-6390
오의	-6391
▁건축물	-6392
▁수목	-6393
▁Ge	-6394
▁문제는	-6395
▁작곡가	-6396
▁좁	-6397
▁심리	-6398
선거구	-6399
▁하나는	-6400
공학	-6401
▁우에	-6402
▁주제	-6403
▁본관은	-6404
▁텐	-6405
ategory	-6406
▁경유	-6407
▁밥	-6408
언을	-6409
▁소멸	-6410
중의	-6411
9966">	-6412
클리	-6413
▁Rev	-6414
▁Soc	-6415
▁나치	-6416
▁["	-6417
▁당초	-6418
▁탈퇴	-6419
▁포도	-6420
▁투표율	-6421
▁훗날	-6422
:13	-6423
▁상위	-6424
%;"	-6425
가능	-6426
▁양자	-6427
▁Kore	-6428
▁Comm	-6429
▁성향	-6430
▁방법으로	-6431
비트	-6432
▁발음	-6433
rin	-6434
씨가	-6435
인터	-6436
▁주최	-6437
Pa	-6438
ox	-6439
fty	-6440
고는	-6441
▁인천광역시	-6442
루타	-6443
▁공원	-6444
IP	-6445
▁통상	-6446
아티아	-6447
ason	-6448
▁들고	-6449
▁순간	-6450
▁후속	-6451
ays	-6452
▁콘스탄	-6453
▁유명하다	-6454
▁한신	-6455
▁마드리드	-6456
▁아르헨티나	-6457
ater	-6458
단과	-6459
▁속의	-6460
▁천연	-6461
전국	-6462
시면	-6463
-14	-6464
▁미나미	-6465
▁김재	-6466
▁강릉	-6467
▁공정	-6468
▁중인	-6469
▁학문	-6470
▁승진	-6471
년에서	-6472
동물	-6473
산에	-6474
사상	-6475
▁현상	-6476
▁복합	-6477
▁것이라	-6478
▁북동	-6479
파일	-6480
▁부장	-6481
▁체코	-6482
하지는	-6483
▁부분은	-6484
하므로	-6485
ull	-6486
▁주장을	-6487
▁시작으로	-6488
편곡	-6489
도쿄	-6490
▁64	-6491
▁장비	-6492
실의	-6493
▁스파	-6494
위키백과	-6495
박스	-6496
▁지시	-6497
트릭	-6498
▁시리아	-6499
양의	-6500
▁전면	-6501
▁설득	-6502
▁주석	-6503
▁무대	-6504
▁두었다	-6505
였지만	-6506
▁사실이	-6507
▁무한	-6508
ner	-6509
▁김진	-6510
맥스	-6511
▁Sci	-6512
OU	-6513
▁5,	-6514
▁밝히	-6515
친구	-6516
con	-6517
▁방해	-6518
▁일찍	-6519
▁미리	-6520
하겠습니다	-6521
▁</	-6522
▁받아들여	-6523
▁건조	-6524
the	-6525
(6	-6526
ade	-6527
특별자치	-6528
▁가스	-6529
▁con	-6530
▁김민	-6531
▁Christ	-6532
04	-6533
▁표면	-6534
=200	-6535
▁라는	-6536
▁모여	-6537
▁혼자	-6538
▁시즌에	-6539
▁점점	-6540
▁권한을	-6541
검찰	-6542
하여야	-6543
▁다르게	-6544
▁지금까지	-6545
rt	-6546
▁나이트	-6547
▁패션	-6548
▁(17	-6549
▁동일본	-6550
▁스키	-6551
▁시게	-6552
▁모바일	-6553
▁것이라는	-6554
▁시인	-6555
강의	-6556
▁화이트	-6557
지요	-6558
▁달려	-6559
▁Fran	-6560
가루	-6561
EE	-6562
▁부상을	-6563
즈카	-6564
사령부	-6565
(14	-6566
▁반도	-6567
▁!10	-6568
▁개봉한	-6569
eter	-6570
공식	-6571
▁김해	-6572
mu	-6573
한다면	-6574
▁IC	-6575
▁Par	-6576
월의	-6577
▁나고야	-6578
▁나왔다	-6579
발전	-6580
var	-6581
▁장교	-6582
▁싸움	-6583
▁실현	-6584
▁기록이	-6585
▁무너	-6586
▁스케	-6587
▁번째로	-6588
▁로켓	-6589
▁멀티	-6590
PU	-6591
네이	-6592
영은	-6593
oph	-6594
▁사우	-6595
▁한성	-6596
론이	-6597
회는	-6598
▁여동생	-6599
▁단위	-6600
▁장식	-6601
수산	-6602
▁들어서	-6603
▁근본	-6604
해보	-6605
cript	-6606
▁프로그램을	-6607
라이더	-6608
▁트레이	-6609
사스	-6610
▁군대를	-6611
포스	-6612
egin	-6613
▁봅니다	-6614
▁출력	-6615
▁병합	-6616
▁비트	-6617
▁des	-6618
▁스트리	-6619
▁멘	-6620
▁뉴질랜드	-6621
사우	-6622
▁(5	-6623
▁Ho	-6624
infty	-6625
▁의식	-6626
▁성적을	-6627
시고	-6628
테이	-6629
공주	-6630
▁맡아	-6631
치게	-6632
라를	-6633
▁장수	-6634
▁일종이다	-6635
▁보이지	-6636
▁갖는	-6637
▁부담	-6638
▁사냥	-6639
질의	-6640
▁뜻이	-6641
▁Fl	-6642
밀리	-6643
터널	-6644
▁1936	-6645
토미	-6646
▁김수	-6647
스럽게	-6648
▁호소	-6649
섬네일	-6650
mage	-6651
▁오다	-6652
▁앤드	-6653
▁local	-6654
ij	-6655
▁그들이	-6656
안군	-6657
▁(16	-6658
-8	-6659
irl	-6660
▁이은	-6661
▁화재	-6662
▁닉	-6663
▁만한	-6664
▁트위	-6665
▁마스터	-6666
▁1910	-6667
타니	-6668
▁길을	-6669
라에	-6670
▁처형	-6671
▁경고	-6672
▁존재하지	-6673
matrix	-6674
\}	-6675
별로	-6676
만으로	-6677
▁상태로	-6678
국으로	-6679
대원	-6680
채널	-6681
그림	-6682
▁쓰이는	-6683
bold	-6684
="34	-6685
▁스테이지	-6686
▁코파	-6687
▁엄청난	-6688
안이	-6689
주의를	-6690
▁사망했다	-6691
:25	-6692
▁이룬다	-6693
총리	-6694
▁프랑크	-6695
▁단어	-6696
▁대화	-6697
▁이후의	-6698
조정	-6699
▁말에	-6700
번째로	-6701
▁사랑을	-6702
어요	-6703
▁new	-6704
조로	-6705
elta	-6706
▁가이	-6707
2014	-6708
ortable	-6709
▁Art	-6710
이었지만	-6711
▁남서	-6712
▁사용되고	-6713
);	-6714
pec	-6715
(4	-6716
훈련	-6717
▁이토	-6718
▁상당한	-6719
▁홈런을	-6720
▁화성	-6721
▁갑자기	-6722
▁크로아티아	-6723
▁겹	-6724
단지	-6725
▁전력	-6726
베리	-6727
▁주어진	-6728
▁부탁드립니다	-6729
헤이	-6730
▁연관	-6731
▁유일하게	-6732
▁징역	-6733
▁합쳐	-6734
▁수석	-6735
비에	-6736
▁분열	-6737
▁안에서	-6738
계열	-6739
▁단편	-6740
▁크라	-6741
포트	-6742
페이스	-6743
▁마음을	-6744
▁정말	-6745
▁고종	-6746
▁(1996	-6747
?)	-6748
여객	-6749
▁의정부	-6750
▁헝가리	-6751
08	-6752
▁가면	-6753
ION	-6754
▁오키	-6755
▁자신들의	-6756
▁이치	-6757
▁해에	-6758
▁후기	-6759
인생	-6760
코스	-6761
지어	-6762
▁카즈	-6763
시키기	-6764
Red	-6765
▁SS	-6766
▁고유	-6767
▁기울	-6768
▁아리	-6769
▁기회를	-6770
겠다고	-6771
▁다음은	-6772
▁지금은	-6773
상자	-6774
now	-6775
대통령	-6776
지정	-6777
▁JR	-6778
▁상속	-6779
▁중부	-6780
▁평가를	-6781
▁소비에트	-6782
공간	-6783
양군	-6784
▁로스앤젤레스	-6785
▁bar	-6786
out	-6787
rop	-6788
근혜	-6789
log	-6790
▁느낌	-6791
▁만들고	-6792
▁이름의	-6793
▁며	-6794
명과	-6795
▁요청합니다	-6796
▁거듭	-6797
▁두산	-6798
▁2》	-6799
▁침략	-6800
▁#00	-6801
카미	-6802
▁빅토	-6803
▁갔다	-6804
▁시사	-6805
▁갔	-6806
▁순서	-6807
▁싱가	-6808
▁일본에	-6809
▁작업을	-6810
▁참전	-6811
산화	-6812
해져	-6813
주인	-6814
함이	-6815
▁정원	-6816
조차	-6817
시민	-6818
에른	-6819
▁상태에서	-6820
der	-6821
▁모험	-6822
name	-6823
▁준다	-6824
▁1937	-6825
:16	-6826
TS	-6827
되었을	-6828
되었다고	-6829
되었습니다	-6830
지인	-6831
▁관심	-6832
▁오랫	-6833
="9%"	-6834
▁왕국의	-6835
임이	-6836
기원전	-6837
▁노출	-6838
격한	-6839
방송일	-6840
▁팽	-6841
▁Music	-6842
▁속한	-6843
▁후보로	-6844
박쥐	-6845
제도	-6846
▁일으키	-6847
선생	-6848
▁구현	-6849
▁인지	-6850
▁메모리	-6851
기능	-6852
:01	-6853
▁일부를	-6854
하였다고	-6855
ky	-6856
="30"|	-6857
sq	-6858
▁한일	-6859
▁있으므로	-6860
티스	-6861
▁용인	-6862
▁짜	-6863
▁김기	-6864
{1	-6865
르기	-6866
▁매니	-6867
▁분기	-6868
▁조선총독	-6869
▁확률	-6870
▁프로그래	-6871
해군	-6872
▁la	-6873
MC	-6874
eral	-6875
▁라운드	-6876
▁사립	-6877
▁전화	-6878
스티벌	-6879
▁마침내	-6880
펙트	-6881
었을	-6882
▁National	-6883
mp	-6884
▁다리	-6885
장애	-6886
▁크루	-6887
투표	-6888
▁보관	-6889
자로서	-6890
▁HD	-6891
▁틀을	-6892
▁대결	-6893
▁왕조	-6894
▁위치한다	-6895
▁대선	-6896
뮤직	-6897
▁명명	-6898
="34%"	-6899
▁타격	-6900
▁발견된다	-6901
▁점이	-6902
’,	-6903
▁연산	-6904
티노	-6905
du	-6906
▁지은	-6907
▁레이블	-6908
▁월화드라마	-6909
같이	-6910
소와	-6911
▁김상	-6912
▁Res	-6913
▁코스	-6914
▁의미를	-6915
▁몰아	-6916
▁알려졌다	-6917
▁열렸다	-6918
▁공장	-6919
▁이미지	-6920
▁나타난다	-6921
▁긍	-6922
▁잇는	-6923
https	-6924
▁선임	-6925
▁해리	-6926
▁화장	-6927
▁첼	-6928
누리	-6929
▁기구	-6930
지면	-6931
▁사람들의	-6932
노미야	-6933
Ph	-6934
▁논문	-6935
▁전직	-6936
BR	-6937
아나	-6938
내에	-6939
▁후원	-6940
▁Pol	-6941
▁있어야	-6942
ES	-6943
▁4.	-6944
▁작품을	-6945
2005	-6946
▁형태를	-6947
▁가요	-6948
▁앉	-6949
▁국토	-6950
▁부속	-6951
▁41	-6952
▁시작한다	-6953
름을	-6954
▁오랫동안	-6955
▁포함한다	-6956
슬러	-6957
▁논리	-6958
공산	-6959
▁그것이	-6960
▁아티스트	-6961
▁마이크로소프트	-6962
▁있음	-6963
▁서비스를	-6964
▁즉시	-6965
▁했는데	-6966
났고	-6967
▁두려	-6968
바시	-6969
▁선거에서	-6970
인에게	-6971
▁THE	-6972
ML	-6973
▁철수	-6974
Re	-6975
경이	-6976
▁접촉	-6977
▁시작하여	-6978
계에서	-6979
▁심각한	-6980
▁짝	-6981
▁국민의	-6982
▁브레이	-6983
▁행위를	-6984
▁평안	-6985
▁!19	-6986
역에서	-6987
ournal	-6988
▁돈을	-6989
▁체제	-6990
▁구원	-6991
▁다음날	-6992
WE	-6993
orth	-6994
▁주연으로	-6995
▁개별	-6996
미르	-6997
석의	-6998
oid	-6999
▁1/	-7000
주의의	-7001
▁유기	-7002
▁그렇다면	-7003
▁스페인의	-7004
▁부진	-7005
▁프라이	-7006
▁게다가	-7007
▁선전	-7008
기구	-7009
님은	-7010
args	-7011
06	-7012
▁속한다	-7013
▁필요하다	-7014
▁얻은	-7015
ring	-7016
색의	-7017
▁백제	-7018
▁재단	-7019
공동	-7020
소송	-7021
▁파크	-7022
선과	-7023
▁김경	-7024
▁있으면	-7025
▁left	-7026
▁Li	-7027
▁명을	-7028
▁이다	-7029
들이다	-7030
화되어	-7031
▁till	-7032
국장	-7033
▁일은	-7034
▁주전	-7035
▁신학	-7036
bs	-7037
outh	-7038
교를	-7039
▁등재	-7040
▁책임을	-7041
Bl	-7042
계는	-7043
fer	-7044
-6	-7045
▁1935	-7046
▁당시에는	-7047
▁교류	-7048
아웃	-7049
▁:#	-7050
▁맞아	-7051
▁하였으며	-7052
▁급제	-7053
▁가지는	-7054
판이	-7055
▁정수	-7056
▁섞	-7057
라와	-7058
물은	-7059
▁다소	-7060
▁바깥	-7061
ke	-7062
ara	-7063
▁서명을	-7064
일반	-7065
▁75	-7066
▁나왔	-7067
▁mm	-7068
▁돌려	-7069
▁아니고	-7070
▁지내	-7071
디스	-7072
▁1918	-7073
air	-7074
청년	-7075
(0	-7076
▁교구	-7077
거래	-7078
▁Count	-7079
▁https	-7080
▁일부는	-7081
top	-7082
▁부적	-7083
리언	-7084
석은	-7085
▁보니	-7086
▁마틴	-7087
▁주택	-7088
▁대통령의	-7089
▁보았다	-7090
▁활약을	-7091
▁얻을	-7092
▁멀리	-7093
▁혐의로	-7094
:50	-7095
▁폐쇄	-7096
▁43	-7097
▁망명	-7098
▁수리	-7099
ous	-7100
산리	-7101
▁새롭게	-7102
▁인쇄	-7103
▁의견이	-7104
▁KBO	-7105
:14	-7106
▁특정한	-7107
리티	-7108
▁하우스	-7109
▁알리	-7110
령이	-7111
▁DNA	-7112
▁목소	-7113
▁풍부	-7114
MA	-7115
ris	-7116
▁사과	-7117
▁클라	-7118
▁개신교	-7119
일과	-7120
▁사임	-7121
▁인종	-7122
▁감독이	-7123
▁가담	-7124
노리	-7125
▁44	-7126
▁수상했다	-7127
ook	-7128
법률	-7129
차는	-7130
▁클래식	-7131
커스	-7132
전사	-7133
▁방지	-7134
▁태국	-7135
▁허위	-7136
하였던	-7137
▁중이다	-7138
구조	-7139
▁변형	-7140
▁무덤	-7141
▁함락	-7142
▁퀴	-7143
▁중세	-7144
▁소속으로	-7145
▁질병	-7146
폴리	-7147
용의	-7148
+\	-7149
▁혼합	-7150
AA	-7151
공의	-7152
▁이세	-7153
▁좋지	-7154
▁재생	-7155
▁할아버지	-7156
센트	-7157
구간	-7158
led	-7159
▁페이	-7160
▁당사	-7161
▁마무리	-7162
▁요미우리	-7163
CN	-7164
둥이	-7165
▁And	-7166
▁해상	-7167
▁연구를	-7168
타의	-7169
▁성을	-7170
▁활동하였다	-7171
로써	-7172
EB	-7173
▁are	-7174
각을	-7175
우가	-7176
irc	-7177
▁길이는	-7178
▁나아가	-7179
▁롱	-7180
르가	-7181
▁의학	-7182
▁1933	-7183
탐정	-7184
▁La	-7185
▁지방의	-7186
▁사람들을	-7187
타는	-7188
▁다스	-7189
▁배포	-7190
▁유행	-7191
▁개최된	-7192
unsortable	-7193
▁썼다	-7194
들로부터	-7195
svg	-7196
:40	-7197
Digital	-7198
▁받았고	-7199
▁역사를	-7200
슬링	-7201
▁동방	-7202
▁방정	-7203
▁목소리	-7204
베르트	-7205
▁발견된	-7206
▁상황을	-7207
보도	-7208
▁BBC	-7209
2004	-7210
▁시카고	-7211
담당	-7212
▁이순	-7213
특수	-7214
▁(1998	-7215
2015	-7216
Pro	-7217
▁고딕	-7218
구리	-7219
함과	-7220
09	-7221
삼진	-7222
=50	-7223
힙합	-7224
▁자체가	-7225
▁수호	-7226
▁깃	-7227
고리	-7228
받는	-7229
▁특이	-7230
▁구입	-7231
▁본질	-7232
현대	-7233
즈니	-7234
테쓰	-7235
었습니다	-7236
작가	-7237
▁DJ	-7238
▁me	-7239
▁번의	-7240
▁여왕	-7241
▁완벽	-7242
▁용어	-7243
▁name	-7244
▁불렀다	-7245
레옹	-7246
기까지	-7247
▁하나인	-7248
▁왕자	-7249
une	-7250
▁us	-7251
주와	-7252
▁(12	-7253
▁맡은	-7254
로와	-7255
▁둘러싸	-7256
▁서구	-7257
▁이라크	-7258
동은	-7259
▁확립	-7260
▁루마니아	-7261
▁감정	-7262
▁남겨	-7263
▁보물	-7264
▁안양	-7265
▁뜻하는	-7266
▁출신으로	-7267
ange	-7268
▁그래픽	-7269
▁이후에도	-7270
▁타케	-7271
article	-7272
▁빚	-7273
▁뚜	-7274
▁아들로	-7275
▁않지만	-7276
oll	-7277
▁에르	-7278
▁뮌	-7279
▁연애	-7280
바다	-7281
맑은	-7282
자연	-7283
▁궤도	-7284
=3|	-7285
대부	-7286
협력	-7287
역의	-7288
▁저서	-7289
주의자	-7290
▁포지션은	-7291
▁오페라	-7292
▁1932	-7293
▁공중	-7294
▁침입	-7295
▁눈에	-7296
▁카페	-7297
▁테스트	-7298
▁말레이시아	-7299
▁해주	-7300
▁겁	-7301
▁SM	-7302
방에	-7303
▁신화	-7304
LS	-7305
▁갤럭	-7306
▁문제에	-7307
▁오직	-7308
파를	-7309
▁서명	-7310
아니아	-7311
▁구글	-7312
▁부친	-7313
▁대우	-7314
irect	-7315
="20"|	-7316
▁멈	-7317
니시	-7318
▁PD	-7319
▁he	-7320
▁임금	-7321
▁?)	-7322
미나	-7323
▁지붕	-7324
▁내셔널	-7325
황후	-7326
▁클로	-7327
▁승차	-7328
▁Per	-7329
▁세상을	-7330
마리	-7331
▁발굴	-7332
시스코	-7333
면이	-7334
ico	-7335
▁그만	-7336
개국	-7337
▁편찬	-7338
▁독특	-7339
-09	-7340
▁크레	-7341
▁부동	-7342
▁위에서	-7343
▁1924	-7344
크를	-7345
▁예정이다	-7346
와이	-7347
▁5.	-7348
▁이들을	-7349
▁전북	-7350
▁디스	-7351
▁자극	-7352
als	-7353
▁그로	-7354
치에	-7355
공연	-7356
안은	-7357
워즈	-7358
점의	-7359
해양	-7360
▁도움이	-7361
▁클레	-7362
▁di	-7363
▁탄핵	-7364
▁핸	-7365
ford	-7366
▁넷	-7367
겠지만	-7368
리지널	-7369
▁올렸다	-7370
▁ad	-7371
▁단순히	-7372
▁광복	-7373
▁대원	-7374
▁식품	-7375
검사	-7376
▁Wik	-7377
('	-7378
마쓰	-7379
▁대구광역시	-7380
영어	-7381
▁추구	-7382
stit	-7383
▁추가로	-7384
이야	-7385
▁가슴	-7386
▁이루어졌다	-7387
왜란	-7388
▁역사적	-7389
▁포켓몬	-7390
비행	-7391
EA	-7392
론은	-7393
▁교향	-7394
▁프로리그	-7395
Feat	-7396
▁간행	-7397
▁올랐	-7398
▁중에는	-7399
토스	-7400
▁군의	-7401
▁죽었다	-7402
▁뷰	-7403
▁겸임	-7404
▁신체	-7405
▁캐나다의	-7406
▁목포	-7407
▁대개	-7408
ca	-7409
▁고교	-7410
▁행렬	-7411
▁대상이	-7412
▁좋아하는	-7413
MB	-7414
감이	-7415
▁세부	-7416
▁03.	-7417
▁대부분은	-7418
세스	-7419
▁거두었다	-7420
(5	-7421
▁이원	-7422
▁To	-7423
="7	-7424
양을	-7425
▁포함하여	-7426
▁미상	-7427
▁후계	-7428
▁끌어	-7429
="40	-7430
▁가진다	-7431
▁서울시	-7432
▁코르	-7433
▁아빠	-7434
▁우리는	-7435
▁영원	-7436
:11	-7437
▁쓰러	-7438
▁전문가	-7439
-\	-7440
루가	-7441
▁가문의	-7442
▁(1997	-7443
)/	-7444
보험	-7445
▁이경	-7446
chn	-7447
▁특급	-7448
가락	-7449
▁유닛	-7450
▁발발	-7451
▁자전	-7452
▁정권	-7453
▁46	-7454
▁투쟁	-7455
▁계통	-7456
▁포스트	-7457
글로벌	-7458
▁일어났다	-7459
▁변호	-7460
▁마르크	-7461
작품	-7462
▁신사	-7463
동맹	-7464
▁중지	-7465
격으로	-7466
라디	-7467
진은	-7468
▁노스	-7469
되었다가	-7470
▁페르시아	-7471
OV	-7472
▁경제적	-7473
▁사쿠라	-7474
▁해당한다	-7475
ower	-7476
▁펼쳐	-7477
angu	-7478
▁SP	-7479
▁Br	-7480
▁47	-7481
▁공개된	-7482
▁나타낸다	-7483
(:	-7484
(),	-7485
▁승부	-7486
▁지냈	-7487
▁Rep	-7488
실은	-7489
인천	-7490
드와	-7491
곡을	-7492
▁발간	-7493
▁오버	-7494
되는데	-7495
▁조지아	-7496
▁주식회사	-7497
▁전남	-7498
든지	-7499
▁노래를	-7500
▁노르웨이	-7501
▁신도	-7502
▁개발한	-7503
▁엘리자	-7504
▁아버지는	-7505
▁폭탄	-7506
cdot	-7507
▁시작된	-7508
▁아테네	-7509
▁이승만	-7510
▁오스만	-7511
▁흘러	-7512
조실록	-7513
▁주니어	-7514
▁작동	-7515
beta	-7516
▁사마	-7517
러브	-7518
▁wh	-7519
erman	-7520
업체	-7521
▁선박	-7522
▁교육을	-7523
수사	-7524
▁신규	-7525
또는	-7526
▁새벽	-7527
▁전신	-7528
주일	-7529
▁신고	-7530
리며	-7531
▁무슨	-7532
▁바이에른	-7533
▁집에	-7534
olution	-7535
ever	-7536
백만	-7537
들에서	-7538
▁천주교	-7539
na	-7540
▁TBS	-7541
▁없게	-7542
▁일요일	-7543
▁1928	-7544
,0	-7545
街道	-7546
이센	-7547
▁그럼	-7548
▁영혼	-7549
▁손을	-7550
▁(15	-7551
ublish	-7552
▁낸	-7553
▁이노	-7554
OK	-7555
국어	-7556
▁잘못된	-7557
▁1921	-7558
▁여러가지	-7559
친다	-7560
파는	-7561
▁절반	-7562
▁바뀌었다	-7563
▁순환	-7564
by	-7565
하우스	-7566
▁계속해서	-7567
카의	-7568
ane	-7569
▁긍정	-7570
▁1934	-7571
▁경북	-7572
망을	-7573
년경	-7574
화학	-7575
▁카운티	-7576
-7	-7577
BM	-7578
▁내렸다	-7579
생의	-7580
타임	-7581
▁긴급	-7582
▁동양	-7583
▁지바	-7584
▁꼽	-7585
▁쓰여	-7586
▁벗어나	-7587
▁시모	-7588
▁하에	-7589
▁1931	-7590
박사	-7591
▁디스크	-7592
▁제작에	-7593
스팅	-7594
▁아웃	-7595
▁대통령은	-7596
▁프리드리	-7597
.<	-7598
Category	-7599
▁포맷	-7600
ffff	-7601
▁49	-7602
례를	-7603
▁신축	-7604
▁!12	-7605
▁일어나는	-7606
화한	-7607
데이트	-7608
▁노무	-7609
▁환승	-7610
프라	-7611
▁자원	-7612
▁돌아온	-7613
▁레벨	-7614
olid	-7615
▁연합뉴스	-7616
▁카나	-7617
▁조선일보	-7618
so	-7619
any	-7620
▁에드워드	-7621
」(	-7622
겠다는	-7623
레이터	-7624
▁1925	-7625
최고	-7626
▁나폴레옹	-7627
TN	-7628
▁어깨	-7629
▁치러	-7630
정도	-7631
unction	-7632
중인	-7633
▁나누어	-7634
민의	-7635
전투	-7636
차의	-7637
막글	-7638
상대	-7639
▁즈	-7640
▁가끔	-7641
▁파르	-7642
▁(4)	-7643
로지	-7644
했다가	-7645
인간	-7646
▁아무런	-7647
▁맨체스터	-7648
▁늑	-7649
경은	-7650
▁높이는	-7651
▁글로	-7652
▁인접	-7653
▁조명	-7654
▁되는데	-7655
▁매주	-7656
▁크리	-7657
▁만다	-7658
▁웨일	-7659
▁레전	-7660
ett	-7661
공신	-7662
-01	-7663
▁집권	-7664
▁게시	-7665
처를	-7666
▁선정되었다	-7667
타스	-7668
▁발매된	-7669
OD	-7670
장군	-7671
▁데이터베이스	-7672
▁사다	-7673
▁잠수	-7674
스트로	-7675
▁제공한다	-7676
▁건담	-7677
▁계절	-7678
▁사용된	-7679
TA	-7680
▁1929	-7681
▁Qu	-7682
▁표지	-7683
▁명시	-7684
▁알바	-7685
▁이르러	-7686
▁프리미어리그	-7687
나마	-7688
▁1923	-7689
▁나뉜	-7690
▁유학	-7691
▁감독으로	-7692
▁아메리칸	-7693
▁상대적으로	-7694
▁명백	-7695
▁ac	-7696
소수	-7697
▁메달	-7698
▁기본적으로	-7699
▁모양의	-7700
▁초청	-7701
▁Di	-7702
▁리드	-7703
__	-7704
초등학교는	-7705
자들에게	-7706
▁입고	-7707
▁수의	-7708
uz	-7709
2016	-7710
ск	-7711
▁브레	-7712
▁초등학교이다	-7713
전기	-7714
▁기도	-7715
▁연고	-7716
▁세력을	-7717
-03	-7718
wo	-7719
주에서	-7720
었기	-7721
라이트	-7722
")	-7723
▁영광	-7724
▁작품이다	-7725
’(	-7726
ret	-7727
▁사카	-7728
▁드래프트	-7729
idge	-7730
apan	-7731
▁!6	-7732
▁좌우	-7733
▁랩	-7734
▁크로스	-7735
▁옵	-7736
▁필립	-7737
장관	-7738
판의	-7739
▁Ag	-7740
▁잭슨	-7741
▁프로그램이다	-7742
▁공헌	-7743
위와	-7744
▁내세	-7745
니가	-7746
미사	-7747
토시	-7748
▁you	-7749
▁변화를	-7750
▁아니면	-7751
▁발탁	-7752
식과	-7753
▁급행	-7754
▁서일본	-7755
▁김대중	-7756
EL	-7757
강철	-7758
▁청구	-7759
▁넣어	-7760
파이어	-7761
▁이로써	-7762
▁役	-7763
▁하느	-7764
div	-7765
▁\\	-7766
▁풋	-7767
▁한화	-7768
anc	-7769
avid	-7770
▁관련이	-7771
분으로	-7772
판에	-7773
▁권리	-7774
▁임무	-7775
▁자리에	-7776
양이	-7777
▁카라	-7778
전과	-7779
▁나타나는	-7780
▁나라의	-7781
▁효과를	-7782
믹스	-7783
▁전통적인	-7784
▁파티	-7785
협의회	-7786
중한	-7787
▁아동	-7788
성현	-7789
▁비서	-7790
ms	-7791
보살	-7792
▁0.	-7793
do	-7794
▁왕의	-7795
심의	-7796
oth	-7797
▁조건을	-7798
▁편의	-7799
프로젝트	-7800
▁항성	-7801
▁오는	-7802
▁미스터	-7803
▁Ap	-7804
▁쏘	-7805
▁새겨	-7806
▁We	-7807
ster	-7808
bar	-7809
▁이웃	-7810
▁있었기	-7811
▁왕이	-7812
▁화가	-7813
화되었다	-7814
sqrt	-7815
▁탓	-7816
▁히틀러	-7817
▁cont	-7818
▁Stud	-7819
기자	-7820
aver	-7821
보통학교	-7822
eng	-7823
로서는	-7824
▁규모의	-7825
▁곱	-7826
항을	-7827
▁제공하는	-7828
▁관여	-7829
▁가고	-7830
▁인증	-7831
터미널	-7832
체와	-7833
▁이사장	-7834
▁레알	-7835
2018	-7836
▁받아들이	-7837
자책	-7838
300	-7839
▁수도권	-7840
▁타입	-7841
▁OS	-7842
검찰청	-7843
▁만든다	-7844
:17	-7845
ondon	-7846
▁무기한	-7847
▁있었다고	-7848
▁빨간	-7849
프란	-7850
ha	-7851
▁명령을	-7852
uch	-7853
▁International	-7854
▁이진	-7855
atch	-7856
린이	-7857
▁발생하는	-7858
▁자매	-7859
스피	-7860
▁쥬	-7861
▁신의	-7862
▁음악을	-7863
▁자랑	-7864
▁모음	-7865
▁잊	-7866
유가	-7867
토모	-7868
▁인디언	-7869
▁이글	-7870
▁방영된	-7871
▁유튜브	-7872
▁로렌	-7873
▁사형	-7874
▁중추	-7875
▁권력	-7876
▁주장하는	-7877
subset	-7878
▁히트	-7879
▁일정한	-7880
▁1926	-7881
아는	-7882
▁연간	-7883
▁임진왜란	-7884
파가	-7885
▁영구	-7886
치기	-7887
▁1922	-7888
▁철도역이다	-7889
▁선포	-7890
▁1900	-7891
▁갱	-7892
▁꺼	-7893
티오	-7894
▁기소	-7895
▁기록하며	-7896
▁1927	-7897
경상	-7898
▁se	-7899
▁단백질	-7900
▁직전	-7901
▁얘	-7902
▁뮌헨	-7903
▁학살	-7904
▁딱	-7905
자원	-7906
}^	-7907
슬로	-7908
my	-7909
▁박근혜	-7910
여성	-7911
▁Do	-7912
▁대량	-7913
▁질문	-7914
▁개명	-7915
▁바닥	-7916
▁축제	-7917
▁*#	-7918
▁메리	-7919
▁소식을	-7920
▁활동하고	-7921
노래	-7922
▁AC	-7923
▁동북	-7924
▁갤럭시	-7925
금융	-7926
주의적	-7927
oot	-7928
▁힘들	-7929
▁주세요	-7930
▁꾸준	-7931
▁별로	-7932
▁소련의	-7933
▁데에	-7934
▁보유하고	-7935
실이	-7936
▁스탈	-7937
아리	-7938
▁싶은	-7939
▁포인트	-7940
▁나이로	-7941
마에	-7942
▁에릭	-7943
▁패턴	-7944
▁만들어졌다	-7945
▁터널	-7946
▁항의	-7947
▁확산	-7948
▁스프링	-7949
오로	-7950
▁지지를	-7951
▁들면	-7952
▁트윈	-7953
▁변신	-7954
▁갖는다	-7955
▁저술	-7956
▁할머니	-7957
▁un	-7958
▁크고	-7959
–19	-7960
▁현지	-7961
▁등장인물	-7962
▁6.	-7963
▁Bi	-7964
▁법무	-7965
▁코로나	-7966
="5"|	-7967
▁재배	-7968
▁착용	-7969
(10	-7970
▁대변	-7971
ars	-7972
▁캡	-7973
▁양의	-7974
동과	-7975
▁탱	-7976
마치	-7977
="50"|	-7978
련의	-7979
▁안녕	-7980
▁출시되었다	-7981
마가	-7982
공고	-7983
▁주기	-7984
▁재건	-7985
▁센트	-7986
▁보입니다	-7987
린은	-7988
▁AP	-7989
▁65	-7990
▁하여금	-7991
▁월간	-7992
▁못하였다	-7993
▁Har	-7994
▁연인	-7995
▁메이지	-7996
등록	-7997
▁안드로	-7998
erson	-7999
달러	-8000
▁0.1	-8001
식품	-8002
begin	-8003
ino	-8004
ield	-8005
be	-8006
실한	-8007
▁승려	-8008
▁가치가	-8009
▁특별히	-8010
비시	-8011
▁전형	-8012
▁창작	-8013
="1"	-8014
▁도덕	-8015
▁돌아와	-8016
▁then	-8017
LA	-8018
▁뱀	-8019
▁고객	-8020
▁강등	-8021
크가	-8022
▁위치를	-8023
+1	-8024
▁All	-8025
▁제작한	-8026
▁전원	-8027
▁(11	-8028
▁und	-8029
▁칠레	-8030
▁방법은	-8031
▁기재	-8032
▁만난	-8033
▁600	-8034
려면	-8035
▁살펴	-8036
▁굿	-8037
스톤	-8038
색으로	-8039
▁수요	-8040
▁곡을	-8041
cess	-8042
▁싫어	-8043
▁ro	-8044
▁51	-8045
▁EP	-8046
▁전까지	-8047
▁공용	-8048
▁미키	-8049
▁로빈	-8050
▁뜻으로	-8051
▁활동했다	-8052
서양	-8053
▁복원	-8054
▁한국에서	-8055
Dae	-8056
▁영화는	-8057
▁원인	-8058
▁large	-8059
▁입사	-8060
▁덩	-8061
▁편이다	-8062
▁레지	-8063
▁위로	-8064
▁대부분이	-8065
ien	-8066
▁기록은	-8067
▁토지	-8068
▁혈액	-8069
▁몸을	-8070
▁아버지의	-8071
▁만들기	-8072
cap	-8073
▁생각을	-8074
메일	-8075
바나	-8076
▁모터	-8077
공학과	-8078
▁사건으로	-8079
하기를	-8080
특집	-8081
▁과학자	-8082
▁사건의	-8083
▁상임	-8084
▁개인의	-8085
IV	-8086
▁허가	-8087
습니까	-8088
▁NC	-8089
▁비례	-8090
▁주지	-8091
선에서	-8092
▁오프닝	-8093
▁이행	-8094
폴리스	-8095
유지	-8096
〉(	-8097
▁(1995	-8098
▁52	-8099
▁라이프	-8100
ullet	-8101
▁다음의	-8102
▁딜	-8103
▁정체	-8104
▁마산	-8105
▁UN	-8106
ike	-8107
▁구로	-8108
▁강요	-8109
▁싱가포르	-8110
▁유형문화재	-8111
층의	-8112
▁의상	-8113
▁아베	-8114
▁이외의	-8115
리브	-8116
▁프리드리히	-8117
▁역이	-8118
▁공연을	-8119
rain	-8120
▁완전한	-8121
▁전송	-8122
▁명칭은	-8123
▁Gen	-8124
▁이유가	-8125
▁론	-8126
물에	-8127
aj	-8128
▁야쿠	-8129
▁부분에	-8130
린의	-8131
데르	-8132
▁이현	-8133
▁!11	-8134
면으로	-8135
제와	-8136
▁모드	-8137
▁사망한	-8138
▁철거	-8139
▁되기	-8140
아라	-8141
▁지위를	-8142
▁형식으로	-8143
▁뮤직비디오	-8144
이시	-8145
▁Ne	-8146
▁단순한	-8147
▁시스템을	-8148
코토	-8149
400	-8150
▁어워드	-8151
우정	-8152
▁사업을	-8153
타지	-8154
발을	-8155
▁알렉산드	-8156
▁유희	-8157
~)	-8158
▁대법	-8159
▁명단	-8160
▁익스	-8161
▁스타리그	-8162
▁하인	-8163
▁구매	-8164
▁별도의	-8165
▁텍사스	-8166
▁힌	-8167
여단	-8168
its	-8169
▁이상이	-8170
▁작품은	-8171
oul	-8172
▁보험	-8173
▁토너	-8174
카스	-8175
▁복음	-8176
재단	-8177
▁감시	-8178
독일	-8179
▁힙합	-8180
▁포함하고	-8181
주고	-8182
챌린	-8183
왕은	-8184
▁문신	-8185
▁엑스	-8186
▁前	-8187
나르	-8188
▁개원	-8189
▁추기	-8190
청장	-8191
프랑스	-8192
▁역임했다	-8193
▁밀려	-8194
되게	-8195
▁콜롬	-8196
▁허락	-8197
ko	-8198
▁가상	-8199
alt	-8200
▁종로	-8201
)!!	-8202
▁현역	-8203
▁승점	-8204
ler	-8205
▁재산	-8206
▁합동	-8207
포를	-8208
▁종사	-8209
read	-8210
▁(1990	-8211
브로	-8212
▁특성	-8213
▁횟	-8214
령의	-8215
구미	-8216
▁Am	-8217
)>	-8218
▁양산	-8219
itle	-8220
▁요금	-8221
▁명나라	-8222
▁기동	-8223
▁미스	-8224
▁오리지널	-8225
끼리	-8226
▁총재	-8227
루의	-8228
▁첫째	-8229
ongDae	-8230
▁재능	-8231
▁구미	-8232
▁이복	-8233
▁대사관	-8234
하시는	-8235
▁As	-8236
▁Life	-8237
▁토론토	-8238
▁굵	-8239
▁젠	-8240
▁이름이다	-8241
▁서브	-8242
▁와카	-8243
isc	-8244
▁간다	-8245
버스터	-8246
▁AM	-8247
illiam	-8248
루미	-8249
▁250	-8250
▁복구	-8251
▁Mon	-8252
▁입학식	-8253
▁침해	-8254
▁덜	-8255
▁(6	-8256
전에서는	-8257
▁Gro	-8258
▁곳으로	-8259
▁일부가	-8260
▁열차가	-8261
▁액션	-8262
훈장	-8263
▁증언	-8264
하기에	-8265
리타	-8266
▁tr	-8267
▁게임을	-8268
▁실천	-8269
▁이른바	-8270
가수	-8271
urg	-8272
▁회피	-8273
▁무관	-8274
▁사우스	-8275
AF	-8276
비로	-8277
파크	-8278
▁아이디	-8279
법으로	-8280
베리아	-8281
》-	-8282
▁체험	-8283
▁적절한	-8284
2017	-8285
▁명칭을	-8286
▁유고	-8287
▁스카이	-8288
▁(,	-8289
▁하시	-8290
▁관직	-8291
▁남양	-8292
▁비중	-8293
강에	-8294
후에	-8295
▁감독을	-8296
▁인기가	-8297
▁지니고	-8298
병대	-8299
Mar	-8300
▁right	-8301
▁아래와	-8302
어리	-8303
이라며	-8304
▁업데이트	-8305
▁!14	-8306
▁레전드	-8307
실로	-8308
▁이광	-8309
▁남기지	-8310
▁다운로드	-8311
2003	-8312
▁방식을	-8313
▁윗	-8314
▁남겼다	-8315
▁물을	-8316
▁에디	-8317
▁Ass	-8318
집합	-8319
▁엔딩	-8320
▁벌어진	-8321
▁것이고	-8322
▁개방	-8323
▁경력	-8324
▁유통	-8325
▁역은	-8326
실에서	-8327
▁사건에	-8328
로디	-8329
정과	-8330
유치원	-8331
▁퀘	-8332
군사	-8333
▁바르셀	-8334
▁미국과	-8335
▁일본인	-8336
▁고위	-8337
세한	-8338
▁결의	-8339
▁배틀	-8340
0|	-8341
▁우리가	-8342
해서는	-8343
MI	-8344
▁원하는	-8345
▁여섯	-8346
▁연결하는	-8347
:05	-8348
▁세계대전	-8349
▁미즈	-8350
▁클리	-8351
▁트위터	-8352
제이	-8353
▁수익	-8354
▁예외	-8355
▁전쟁의	-8356
군단	-8357
▁주장한다	-8358
오늘	-8359
시픽	-8360
▁미카	-8361
▁반란을	-8362
▁저명	-8363
▁추방	-8364
▁노선을	-8365
▁파트너	-8366
▁1907	-8367
보건	-8368
키퍼	-8369
▁폴리	-8370
▁필수	-8371
▁토요일	-8372
▁1917	-8373
▁실수	-8374
▁대동	-8375
▁유럽의	-8376
▁폭력	-8377
▁선출되었다	-8378
▁라이벌	-8379
▁유배	-8380
▁내놓	-8381
▁싸우	-8382
▁민중	-8383
▁규슈	-8384
▁1912	-8385
ision	-8386
두환	-8387
lex	-8388
▁신한	-8389
:35	-8390
▁알레	-8391
=60	-8392
▁문재	-8393
파로	-8394
▁남아프리카	-8395
퀘어	-8396
▁서서	-8397
▁생애	-8398
▁대표하는	-8399
▁연료	-8400
주간	-8401
▁웨이	-8402
bum	-8403
하늘	-8404
▁독특한	-8405
for	-8406
이라도	-8407
▁!13	-8408
▁콘텐츠	-8409
▁95	-8410
프로그램	-8411
▁상을	-8412
▁중구	-8413
이스케	-8414
▁프로이센	-8415
▁댄스	-8416
▁사촌	-8417
▁공무원	-8418
)〉	-8419
▁기둥	-8420
▁가즈	-8421
▁분해	-8422
%;"|	-8423
라이터	-8424
CH	-8425
▁스즈키	-8426
▁하기도	-8427
▁동안에	-8428
▁없지만	-8429
ally	-8430
닉스	-8431
▁이벤트	-8432
▁동시	-8433
▁(14	-8434
무늬	-8435
영을	-8436
인사	-8437
연을	-8438
미래	-8439
통일	-8440
way	-8441
바야시	-8442
판은	-8443
lin	-8444
▁시리즈의	-8445
▁AT	-8446
▁1)	-8447
▁사랑의	-8448
활동을	-8449
▁닮	-8450
칸센	-8451
▁탐사	-8452
▁파이터	-8453
▁학원	-8454
▁Cont	-8455
▁높다	-8456
=200|	-8457
)」	-8458
ero	-8459
▁역에서	-8460
아들	-8461
트롤	-8462
)</	-8463
▁사람들에게	-8464
기타	-8465
▁구성원	-8466
▁권력을	-8467
런스	-8468
Co	-8469
▁목숨	-8470
2002	-8471
▁시마	-8472
▁쿠데	-8473
▁맞서	-8474
umber	-8475
▁기여를	-8476
▁결방	-8477
▁코난	-8478
론가	-8479
Ad	-8480
▁Rec	-8481
▁격파	-8482
▁동경	-8483
▁섹	-8484
카가	-8485
▁가야	-8486
되거나	-8487
조참	-8488
▁죽음을	-8489
일기	-8490
▁직무	-8491
생을	-8492
▁일으켜	-8493
▁암호	-8494
▁갖추고	-8495
ages	-8496
▁한국인	-8497
▁날개	-8498
▁대체로	-8499
▁음성	-8500
▁후임	-8501
▁드림	-8502
▁말로	-8503
▁무리	-8504
▁여수	-8505
▁내용의	-8506
▁(1994	-8507
▁주소	-8508
▁발견되었다	-8509
▁떠났다	-8510
EO	-8511
▁걷	-8512
:22	-8513
필더	-8514
▁이들이	-8515
▁가마	-8516
▁적극적으로	-8517
▁불가리아	-8518
슬라	-8519
▁56	-8520
▁Journal	-8521
플로	-8522
다란	-8523
▁싱어	-8524
▁보한다	-8525
▁겉	-8526
기인	-8527
▁성직	-8528
▁사도	-8529
iety	-8530
평화	-8531
서비스	-8532
▁고급	-8533
비히	-8534
연의	-8535
▁Of	-8536
▁조용	-8537
능력	-8538
▁참여한	-8539
몬드	-8540
▁적도	-8541
경찰서	-8542
▁사진을	-8543
시노	-8544
리온	-8545
▁해적	-8546
▁설치된	-8547
▁대해서도	-8548
▁커버	-8549
▁현장	-8550
quad	-8551
▁대하	-8552
범위	-8553
▁관할한다	-8554
열차	-8555
▁관리자가	-8556
하니	-8557
▁영문	-8558
담을	-8559
▁원인이	-8560
▁정확히	-8561
▁스파이	-8562
:55	-8563
▁알찬	-8564
▁800	-8565
DP	-8566
다니	-8567
arl	-8568
▁개량	-8569
리자	-8570
:45	-8571
인조	-8572
▁입법	-8573
],	-8574
유를	-8575
▁재학	-8576
▁화려	-8577
▁유치	-8578
▁장르	-8579
▁지향	-8580
▁선생님	-8581
▁양쪽	-8582
행성	-8583
▁곡은	-8584
▁인상	-8585
-23	-8586
▁대학교에서	-8587
lection	-8588
▁한양	-8589
▁들어갔다	-8590
그레	-8591
▁그랜드	-8592
▁맞는	-8593
았으나	-8594
주세요	-8595
.03.01	-8596
▁블록	-8597
▁한나라당	-8598
▁도호쿠	-8599
▁복무	-8600
▁아래에	-8601
멘터리	-8602
-9	-8603
키의	-8604
▁챌린	-8605
버드	-8606
▁재임	-8607
▁돌파	-8608
▁드럼	-8609
니아의	-8610
종으로	-8611
▁위대한	-8612
일드	-8613
▁퓨	-8614
Com	-8615
▁대대	-8616
ular	-8617
▁책을	-8618
▁푸른	-8619
교육청	-8620
코프	-8621
▁오이	-8622
▁유성	-8623
▁이윤	-8624
시스트	-8625
▁경기가	-8626
oug	-8627
▁자가	-8628
▁자금	-8629
류는	-8630
세종	-8631
▁브라이언	-8632
▁복수	-8633
MHz	-8634
▁진학	-8635
▁토마스	-8636
▁셔	-8637
내의	-8638
공을	-8639
▁수술	-8640
De	-8641
pm	-8642
▁로즈	-8643
▁첩	-8644
시에서	-8645
▁미국은	-8646
▁관객	-8647
uary	-8648
▁1~	-8649
작전	-8650
주었다	-8651
하라는	-8652
▁말해	-8653
▁준결승	-8654
▁도시의	-8655
▁상황에	-8656
▁관계로	-8657
▁방송을	-8658
▁아트	-8659
에게도	-8660
▁세우	-8661
▁그들을	-8662
▁알고리즘	-8663
Ex	-8664
▁오세	-8665
▁든	-8666
▁무라	-8667
열을	-8668
▁언덕	-8669
ony	-8670
▁이온	-8671
제르	-8672
▁이용할	-8673
▁대한민국에서	-8674
▁압도	-8675
▁유전자	-8676
▁백과사전	-8677
브레	-8678
▁6,	-8679
800	-8680
erg	-8681
▁사용하지	-8682
▁식으로	-8683
번째기사	-8684
쟁이	-8685
▁소화	-8686
공격	-8687
▁나뉜다	-8688
역에	-8689
십시오	-8690
▁$	-8691
▁대한민국에서는	-8692
▁운영하는	-8693
▁ChongDae	-8694
▁진행되었다	-8695
출판사	-8696
▁가까이	-8697
면에서	-8698
▁Off	-8699
▁페스티벌	-8700
▁읍	-8701
rag	-8702
MP	-8703
기준	-8704
▁이나	-8705
▁탄압	-8706
▁Inter	-8707
▁틈	-8708
왕을	-8709
용을	-8710
▁김병	-8711
▁바꿔	-8712
▁미드필더	-8713
eop	-8714
▁문을	-8715
회관	-8716
(13	-8717
▁다이묘	-8718
▁American	-8719
▁십자	-8720
▁웰	-8721
▁리스트	-8722
▁세리에	-8723
▁사직	-8724
▁보여준다	-8725
예를	-8726
평을	-8727
▁남녀	-8728
희의	-8729
2001	-8730
▁초기의	-8731
그러	-8732
▁누군	-8733
▁시가	-8734
조부	-8735
.19	-8736
▁관하여	-8737
▁가깝	-8738
▁붙어	-8739
CS	-8740
▁동성애	-8741
바람	-8742
▁예전	-8743
세대학교	-8744
▁받았으며	-8745
▁유저	-8746
렬한	-8747
▁그리하여	-8748
▁성공을	-8749
▁이인	-8750
ude	-8751
론에	-8752
역은	-8753
▁막기	-8754
▁쿨	-8755
▁나타났다	-8756
▁발레	-8757
인들을	-8758
요청	-8759
▁MS	-8760
▁일행	-8761
▁복잡한	-8762
▁그러므로	-8763
르바	-8764
▁빨리	-8765
▁오빠	-8766
▁의도	-8767
대수	-8768
▁소요	-8769
▁시상식	-8770
▁지역으로	-8771
iro	-8772
▁마감	-8773
니스탄	-8774
▁(13	-8775
▁히가시	-8776
ersion	-8777
lish	-8778
▁연락	-8779
▁비판을	-8780
▁바둑	-8781
슈퍼	-8782
였는데	-8783
▁이루고	-8784
-02	-8785
보다도	-8786
▁신부	-8787
계로	-8788
▁나타내	-8789
▁이르렀다	-8790
earch	-8791
마를	-8792
aur	-8793
▁그녀가	-8794
▁신칸센	-8795
▁vol	-8796
▁청와	-8797
▁가라	-8798
:24	-8799
▁태어났으며	-8800
씨를	-8801
▁기능이	-8802
속의	-8803
▁어드	-8804
▁연구에	-8805
▁CJ	-8806
▁밝혀졌다	-8807
▁프로그래밍	-8808
▁권리를	-8809
과학기술	-8810
호와	-8811
▁가쓰	-8812
▁커뮤니티	-8813
▁성균	-8814
▁백성	-8815
:31	-8816
▁성질	-8817
올린	-8818
ref	-8819
▁다중계	-8820
족이	-8821
▁됐	-8822
▁발휘	-8823
▁소집	-8824
천만	-8825
아파트	-8826
▁골키퍼	-8827
▁고베	-8828
▁자리잡	-8829
범죄	-8830
▁54	-8831
▁III	-8832
▁아이템	-8833
▁page	-8834
▁쿄	-8835
▁단행	-8836
NN	-8837
▁축소	-8838
▁!16	-8839
되지만	-8840
▁업무를	-8841
게이	-8842
시절	-8843
지이다	-8844
▁보스턴	-8845
▁1905	-8846
▁도쿠가와	-8847
미즈	-8848
▁나타난	-8849
▁이명박	-8850
Con	-8851
▁위상	-8852
▁선두	-8853
▁좋다	-8854
▁훌륭	-8855
정상	-8856
카오	-8857
▁와서	-8858
:27	-8859
ative	-8860
가스	-8861
:21	-8862
▁않기	-8863
▁쿠바	-8864
▁가속	-8865
▁소환	-8866
▁태그	-8867
▁val	-8868
▁상황이	-8869
님을	-8870
민당	-8871
▁철저	-8872
▁주제가	-8873
lay	-8874
▁이병	-8875
▁일컫	-8876
▁졸업하고	-8877
▁입은	-8878
▁습격	-8879
yp	-8880
▁반대하는	-8881
eq	-8882
▁혼인	-8883
▁강하게	-8884
처리	-8885
els	-8886
카타	-8887
▁안토니	-8888
름이	-8889
산동	-8890
자이너	-8891
▁이끌었다	-8892
▁당해	-8893
▁수십	-8894
▁바이러스	-8895
ari	-8896
▁모습이	-8897
▁아들인	-8898
디자인	-8899
/2	-8900
▁앨런	-8901
▁아래의	-8902
차에	-8903
▁년도	-8904
▁브래	-8905
▁스틸	-8906
▁전쟁에	-8907
PD	-8908
▁연구소	-8909
▁스트라이	-8910
▁적을	-8911
계와	-8912
▁남아있	-8913
도사	-8914
타케	-8915
▁창당	-8916
▁플레이어	-8917
다의	-8918
▁경향이	-8919
▁Can	-8920
▁County	-8921
마저	-8922
▁7,	-8923
▁제네	-8924
▁창간	-8925
▁올린	-8926
▁초등	-8927
▁김포	-8928
▁방법이	-8929
-07	-8930
▁납치	-8931
▁함경	-8932
팩트	-8933
았는데	-8934
▁한겨레	-8935
▁사양	-8936
▁집안	-8937
경기에서	-8938
▁점수	-8939
▁팔레	-8940
모가	-8941
신청	-8942
:23	-8943
:26	-8944
리시	-8945
성도	-8946
▁무인	-8947
▁유용	-8948
▁탑승	-8949
▁운영하고	-8950
▁영화제	-8951
중심	-8952
▁호주	-8953
▁민법	-8954
니스트	-8955
트콤	-8956
▁메탈	-8957
널드	-8958
요한	-8959
aid	-8960
말을	-8961
-06	-8962
▁람	-8963
▁이준	-8964
-08	-8965
▁정치인이다	-8966
치오	-8967
▁공화국의	-8968
▁표창	-8969
▁이루는	-8970
▁참여했다	-8971
9,	-8972
▁Sup	-8973
▁Ev	-8974
▁추적	-8975
▁하야	-8976
▁지구의	-8977
▁이전에는	-8978
▁지불	-8979
▁공산당	-8980
▁일상	-8981
▁Bar	-8982
▁카자	-8983
▁다루는	-8984
▁톱	-8985
▁유아	-8986
▁파란	-8987
다리	-8988
▁혁신	-8989
▁빌보드	-8990
나게	-8991
무스	-8992
인생략	-8993
무기	-8994
총장	-8995
▁스미스	-8996
편의	-8997
저스	-8998
관계를	-8999
운동을	-9000
EP	-9001
일간	-9002
▁본인	-9003
한국당	-9004
▁못한다	-9005
▁스크린	-9006
▁출전하여	-9007
음의	-9008
▁크다	-9009
▁성경	-9010
▁전투를	-9011
▁수소	-9012
▁공기	-9013
▁시조	-9014
▁학위를	-9015
▁경향신문	-9016
▁호남	-9017
▁토너먼트	-9018
▁방언	-9019
▁관심이	-9020
마는	-9021
▁신장	-9022
유산	-9023
하를	-9024
바키아	-9025
▁졸업생	-9026
▁진짜	-9027
▁선호	-9028
.02.	-9029
▁시범	-9030
▁이상을	-9031
▁로그	-9032
▁당시에	-9033
▁조선시대	-9034
▁착공	-9035
▁럭	-9036
▁반달	-9037
우스의	-9038
▁달아	-9039
▁저도	-9040
교도	-9041
플러	-9042
▁역이다	-9043
:28	-9044
▁버튼	-9045
▁사건은	-9046
소방	-9047
전대	-9048
▁카메라	-9049
▁걱	-9050
▁SC	-9051
치지	-9052
우체국	-9053
수원	-9054
카르	-9055
ene	-9056
▁생태	-9057
ball	-9058
▁this	-9059
▁조선민주주의인민공화국의	-9060
IVE	-9061
▁상태를	-9062
▁졸	-9063
▁동화	-9064
▁그라	-9065
▁아이스	-9066
▁기록되어	-9067
타가	-9068
ept	-9069
▁의미가	-9070
▁알렉산더	-9071
국토	-9072
:02	-9073
}{\	-9074
▁플레	-9075
▁대회에	-9076
▁ser	-9077
▁용산	-9078
▁근처에	-9079
▁하나가	-9080
베트	-9081
▁김씨	-9082
▁노동자	-9083
▁쌀	-9084
▁바람에	-9085
비와	-9086
▁이끌어	-9087
▁베이스볼	-9088
:29	-9089
="0	-9090
▁농촌	-9091
▁방위	-9092
▁표제	-9093
마사	-9094
▁대로	-9095
▁향토	-9096
▁질량	-9097
?"	-9098
▁(1989	-9099
니와	-9100
사장	-9101
율을	-9102
▁진격	-9103
▁로마의	-9104
uv	-9105
▁밝은	-9106
우스는	-9107
▁인터페이스	-9108
클린	-9109
하셨	-9110
▁Mc	-9111
oman	-9112
▁적어도	-9113
▁Fe	-9114
▁말은	-9115
▁박지	-9116
▁상실	-9117
▁―	-9118
▁교회의	-9119
0!!	-9120
▁고려대학교	-9121
▁언제나	-9122
silver	-9123
▁갈등	-9124
ural	-9125
▁곰	-9126
그리	-9127
생명	-9128
▁성과	-9129
▁2)	-9130
▁동반	-9131
▁노무현	-9132
▁오디션	-9133
▁Book	-9134
야스	-9135
▁대다	-9136
▁포함하는	-9137
:36	-9138
▁외무	-9139
▁화합	-9140
▁등도	-9141
▁아즈	-9142
▁파울	-9143
▁제도를	-9144
미아	-9145
▁1908	-9146
루를	-9147
ume	-9148
▁주파	-9149
▁사용했다	-9150
즈를	-9151
▁김영삼	-9152
elf	-9153
▁AR	-9154
▁세상	-9155
▁하던	-9156
▁비롯하여	-9157
:03	-9158
▁피고	-9159
rad	-9160
에서부터	-9161
="40"|	-9162
yd	-9163
▁센트럴	-9164
▁53	-9165
▁임무를	-9166
데이터	-9167
▁후에도	-9168
▁더불어민주당	-9169
▁랑	-9170
▁법적	-9171
▁유우	-9172
▁에이스	-9173
▁본다	-9174
▁주재	-9175
oint	-9176
▁normal	-9177
NS	-9178
까지도	-9179
;\	-9180
:09	-9181
나기	-9182
▁개념을	-9183
변경	-9184
▁영향으로	-9185
수상	-9186
▁괜	-9187
즈가	-9188
▁독립을	-9189
:90	-9190
ambda	-9191
:54	-9192
▁도서	-9193
▁수목드라마	-9194
CCFF	-9195
▁멋	-9196
▁1500	-9197
▁일종의	-9198
%;	-9199
도리	-9200
▁섬의	-9201
▁출연하였다	-9202
▁속해	-9203
면은	-9204
▁모노	-9205
▁스승	-9206
▁크리스토	-9207
▁충족	-9208
▁맞춰	-9209
▁근거로	-9210
▁자신은	-9211
▁충분한	-9212
▁손에	-9213
▁옳	-9214
기기	-9215
▁부천	-9216
▁수를	-9217
▁추락	-9218
iale	-9219
▁본명	-9220
▁One	-9221
▁성격을	-9222
▁대단	-9223
▁이관	-9224
▁조치	-9225
▁System	-9226
▁국정	-9227
▁특징이다	-9228
----------------	-9229
ury	-9230
▁개그	-9231
▁몬스터	-9232
naver	-9233
▁사용하였다	-9234
:33	-9235
▁한반도	-9236
▁Arch	-9237
▁광역	-9238
▁선조	-9239
▁집을	-9240
▁돌아왔다	-9241
▁자료를	-9242
▁리듬	-9243
년만에	-9244
▁포스터	-9245
EX	-9246
▁Korea	-9247
집을	-9248
lor	-9249
▁발렌	-9250
▁홀로	-9251
▁WWE	-9252
다이라	-9253
theta	-9254
라기	-9255
▁김승	-9256
▁아는	-9257
▁(2020	-9258
▁소속의	-9259
▁역전	-9260
▁일본국	-9261
방이	-9262
▁아버지가	-9263
erm	-9264
▁주력	-9265
bout	-9266
▁굉	-9267
▁여신	-9268
▁출연하였고	-9269
▁아파트	-9270
▁프로토	-9271
▁고민	-9272
▁상주	-9273
:06	-9274
온은	-9275
회초에	-9276
▁확인할	-9277
:59	-9278
터를	-9279
플라	-9280
▁전쟁에서	-9281
aa	-9282
여행	-9283
▁봤	-9284
▁초에	-9285
조판서	-9286
오와	-9287
▁목사	-9288
▁그랑	-9289
▁조치를	-9290
kh	-9291
▁1906	-9292
▁추가하였습니다	-9293
▁락	-9294
▁심판	-9295
▁살아남	-9296
▁상태가	-9297
sy	-9298
운트	-9299
밀한	-9300
▁기부	-9301
▁복사	-9302
▁의장	-9303
▁여성의	-9304
무네	-9305
▁자세한	-9306
보면	-9307
파와	-9308
▁흑인	-9309
▁이념	-9310
ents	-9311
ald	-9312
▁마주	-9313
▁합리	-9314
itor	-9315
ael	-9316
▁마라	-9317
터는	-9318
ini	-9319
lim	-9320
▁과도	-9321
▁모로	-9322
속에	-9323
▁이어서	-9324
런트	-9325
▁감독은	-9326
▁줄어들	-9327
rand	-9328
▁얼마나	-9329
아야	-9330
▁IT	-9331
▁대지	-9332
▁라이선	-9333
▁정식으로	-9334
zy	-9335
})	-9336
분당선	-9337
어트	-9338
▁동구	-9339
formation	-9340
▁샬	-9341
책임	-9342
▁반응을	-9343
분은	-9344
▁근육	-9345
▁원본	-9346
-05	-9347
더니	-9348
ser	-9349
▁보편	-9350
▁이화	-9351
환으로	-9352
▁초기에	-9353
▁*●	-9354
▁김규	-9355
▁수준의	-9356
adding	-9357
▁부상으로	-9358
목적	-9359
▁독재	-9360
▁세웠	-9361
="100	-9362
▁본격적으로	-9363
▁말라	-9364
XX	-9365
▁아케	-9366
▁이어지는	-9367
클레	-9368
ble	-9369
▁패러	-9370
(12	-9371
sch	-9372
▁May	-9373
▁메가	-9374
▁때마다	-9375
진행	-9376
icial	-9377
▁군대	-9378
atus	-9379
▁부르고	-9380
▁인구가	-9381
▁전두환	-9382
▁..	-9383
bal	-9384
▁누가	-9385
나타	-9386
에너	-9387
▁개체	-9388
IL	-9389
슨의	-9390
▁닐	-9391
▁여겨진다	-9392
Wik	-9393
▁Int	-9394
▁업로드	-9395
연한	-9396
▁순천	-9397
환을	-9398
▁나나	-9399
▁삶을	-9400
▁아가	-9401
▁콜롬비아	-9402
▁최저	-9403
▁미네	-9404
▁의미하는	-9405
▁이자	-9406
No	-9407
돌프	-9408
▁정무	-9409
▁유적	-9410
▁감옥	-9411
▁이날	-9412
▁님	-9413
berg	-9414
▁아울	-9415
▁집필	-9416
▁화산	-9417
았지만	-9418
했었다	-9419
▁또다른	-9420
▁휴대	-9421
▁신용	-9422
ensis	-9423
▁어머니는	-9424
RA	-9425
▁갖게	-9426
▁무비	-9427
▁사막	-9428
애나	-9429
▁스톤	-9430
▁모르는	-9431
년부터는	-9432
▁수록곡	-9433
▁차남	-9434
▁110	-9435
▁연결되어	-9436
아트	-9437
▁재료	-9438
여자고등학교	-9439
블로	-9440
당하고	-9441
▁대표로	-9442
▁못하게	-9443
노부	-9444
목을	-9445
리에서	-9446
▁Time	-9447
▁Sm	-9448
▁디젤	-9449
▁가설	-9450
ий	-9451
배를	-9452
▁최대의	-9453
▁Da	-9454
▁보이고	-9455
▁차지하고	-9456
정신	-9457
:37	-9458
▁심지어	-9459
:48	-9460
부작	-9461
모의	-9462
:04	-9463
▁무산	-9464
:39	-9465
▁범위	-9466
▁(1988	-9467
대왕	-9468
회말에	-9469
▁가난	-9470
▁무릎	-9471
▁Air	-9472
고자	-9473
지방법원	-9474
▁1,000	-9475
▁School	-9476
긴다	-9477
테스	-9478
:07	-9479
▁매각	-9480
▁하트	-9481
규칙	-9482
▁오케	-9483
▁이른다	-9484
힌다	-9485
:43	-9486
▁벼슬	-9487
▁Sec	-9488
:58	-9489
▁포함된	-9490
▁자동으로	-9491
이게	-9492
▁유력	-9493
vert	-9494
▁밀라노	-9495
▁예방	-9496
공개	-9497
▁압축	-9498
▁일본은	-9499
uman	-9500
▁상무	-9501
타나베	-9502
재위	-9503
▁교과	-9504
▁수밖에	-9505
▁인물로	-9506
▁전작	-9507
졸업생	-9508
대책	-9509
▁Sc	-9510
기서	-9511
구에서	-9512
:34	-9513
로니	-9514
보안	-9515
영이	-9516
▁교명	-9517
▁1911	-9518
차량	-9519
▁존스	-9520
년월	-9521
▁왕조의	-9522
aut	-9523
GB	-9524
▁사찰	-9525
▁!15	-9526
▁태양의	-9527
▁극복	-9528
▁참모	-9529
▁참고로	-9530
dd	-9531
▁//	-9532
.--<	-9533
go	-9534
▁다이아	-9535
▁도쿄도	-9536
:41	-9537
日本	-9538
▁개찰	-9539
▁끝내	-9540
▁마키	-9541
된다고	-9542
▁Med	-9543
▁El	-9544
▁데려	-9545
▁정류	-9546
▁무효율	-9547
▁일곱	-9548
형에	-9549
▁결승전	-9550
▁도시이다	-9551
:08	-9552
▁회사의	-9553
▁후인	-9554
ING	-9555
▁병설	-9556
란다	-9557
▁(5)	-9558
실장	-9559
▁동기	-9560
ze	-9561
:52	-9562
ella	-9563
▁전당	-9564
▁테일러	-9565
차트	-9566
:47	-9567
New	-9568
▁후퇴	-9569
▁리틀	-9570
ideo	-9571
▁수상하였다	-9572
of	-9573
유미	-9574
▁정통	-9575
▁엘리자베스	-9576
▁보충	-9577
▁다니엘	-9578
제한	-9579
▁회수	-9580
▁견해	-9581
▁연세대학교	-9582
▁김준	-9583
▁산화	-9584
▁토머스	-9585
mid	-9586
렸으며	-9587
)=	-9588
with	-9589
▁놀라	-9590
교사	-9591
5|	-9592
루는	-9593
uck	-9594
▁57	-9595
공단	-9596
▁reg	-9597
▁정부에	-9598
고에	-9599
』(	-9600
:32	-9601
▁원래는	-9602
▁박상	-9603
▁비잔	-9604
▁칼리	-9605
▁하더라도	-9606
▁개척	-9607
▁금강	-9608
▁여의	-9609
oly	-9610
▁입증	-9611
adow	-9612
▁주요한	-9613
:46	-9614
식물	-9615
▁김창	-9616
▁아틀	-9617
▁일자	-9618
▁일으켰다	-9619
▁im	-9620
▁우익	-9621
▁걸친	-9622
▁보여주는	-9623
▁가미	-9624
▁돌아오	-9625
효과	-9626
▁!17	-9627
말로	-9628
▁있는지	-9629
▁Cent	-9630
▁Live	-9631
고도	-9632
▁펄	-9633
▁아직도	-9634
분석	-9635
▁대답	-9636
▁활성화	-9637
▁반박	-9638
:57	-9639
▁우라	-9640
▁불렸다	-9641
pos	-9642
▁사회의	-9643
:56	-9644
권과	-9645
모니	-9646
:49	-9647
학에서	-9648
▁없었던	-9649
수아	-9650
원제	-9651
▁테크	-9652
백과사전	-9653
하면서도	-9654
▁북아메리카	-9655
▁기병	-9656
▁엉	-9657
▁장갑	-9658
He	-9659
ody	-9660
!!2	-9661
▁실제로는	-9662
+)	-9663
FB	-9664
위원회가	-9665
▁맞추	-9666
▁개장	-9667
ator	-9668
악의	-9669
▁도구	-9670
▁않았지만	-9671
▁이외에도	-9672
실에	-9673
▁경전	-9674
:51	-9675
▁미국인	-9676
점과	-9677
▁방송사	-9678
▁London	-9679
▁산하	-9680
▁빅토리아	-9681
▁기본적인	-9682
이후	-9683
▁물려	-9684
▁관련하여	-9685
▁사격	-9686
▁코어	-9687
된다는	-9688
디에	-9689
aul	-9690
▁빌리	-9691
디지	-9692
치와	-9693
▁캠프	-9694
카리	-9695
▁기용	-9696
▁보좌	-9697
▁오노	-9698
프란시스코	-9699
eople	-9700
▁봇	-9701
분야	-9702
sigma	-9703
▁셋째	-9704
▁수반	-9705
키가	-9706
▁관중	-9707
▁작품으로	-9708
소한	-9709
▁적절	-9710
현재의	-9711
▁툴	-9712
▁1896	-9713
AK	-9714
관과	-9715
▁본부	-9716
▁잡고	-9717
▁금메달을	-9718
▁분자	-9719
▁마음작용	-9720
마츠	-9721
▁까지	-9722
▁종결	-9723
▁그녀를	-9724
로에	-9725
▁능력이	-9726
40"	-9727
▁전의	-9728
▁그곳에서	-9729
▁Up	-9730
▁구멍	-9731
▁과거에	-9732
▁선배	-9733
군에게	-9734
▁이적하였다	-9735
발의	-9736
음이의	-9737
▁참가한	-9738
▁Phil	-9739
main	-9740
:53	-9741
▁보냈	-9742
▁주문	-9743
fl	-9744
▁세계를	-9745
▁차단을	-9746
▁도메	-9747
▁굉장	-9748
▁덕분에	-9749
▁끈	-9750
John	-9751
▁간에	-9752
▁오타	-9753
8000	-9754
▁빵	-9755
▁최상	-9756
▁들어간	-9757
:44	-9758
▁!7	-9759
▁85	-9760
우주연상	-9761
나를	-9762
억원	-9763
evel	-9764
▁레닌	-9765
▁디자이너	-9766
▁분야에서	-9767
:38	-9768
▁CH	-9769
생산	-9770
▁88	-9771
ied	-9772
▁청춘	-9773
▁설립되었다	-9774
▁꽤	-9775
▁ev	-9776
▁광범위	-9777
▁인도의	-9778
▁드물	-9779
▁작품의	-9780
ux	-9781
▁램	-9782
래의	-9783
▁모듈	-9784
▁곳이다	-9785
▁미국에	-9786
▁매장	-9787
▁태조	-9788
▁소재지	-9789
▁수료	-9790
▁image	-9791
▁언더	-9792
▁게임의	-9793
▁고양이	-9794
▁58	-9795
▁대한제국	-9796
터의	-9797
!》	-9798
▁많았다	-9799
iant	-9800
▁음악가	-9801
ography	-9802
▁발명	-9803
▁없애	-9804
▁처음에	-9805
▁않도록	-9806
층에	-9807
="4"	-9808
▁영주	-9809
▁커다란	-9810
강을	-9811
건의	-9812
▁박성	-9813
▁싶어	-9814
▁객관	-9815
▁민주주의	-9816
}_	-9817
▁이케	-9818
▁등장한	-9819
히토	-9820
▁개성	-9821
▁역사가	-9822
▁석유	-9823
▁off	-9824
▁위치에	-9825
▁이하의	-9826
▁초상	-9827
국제공항	-9828
▁자라	-9829
피를	-9830
케이션	-9831
▁발전을	-9832
오가	-9833
▁장례	-9834
:42	-9835
중대	-9836
▁한국방송	-9837
▁배정	-9838
▁int	-9839
▁관계는	-9840
▁올라가	-9841
▁근로	-9842
▁어두	-9843
▁Mo	-9844
▁내는	-9845
▁ab	-9846
▁데이터를	-9847
즈니스	-9848
▁모니	-9849
▁일로	-9850
▁달하는	-9851
▁일일연속극	-9852
PC	-9853
▁거느	-9854
▁수직	-9855
졌다고	-9856
불교	-9857
▁페이스북	-9858
사진	-9859
▁열리는	-9860
=4	-9861
국에서	-9862
▁빗	-9863
▁Mag	-9864
▁대전광역시	-9865
▁te	-9866
▁대칭	-9867
DS	-9868
▁이건	-9869
하라고	-9870
▁거행	-9871
▁우루	-9872
▁필라	-9873
▁그동안	-9874
▁다큐멘터리	-9875
▁kg	-9876
cdots	-9877
제품	-9878
▁마에	-9879
▁건의	-9880
▁브로	-9881
-04	-9882
])	-9883
▁ver	-9884
▁일대	-9885
▁소리를	-9886
▁시로	-9887
▁탐험	-9888
나눔	-9889
▁펑	-9890
▁싱어송	-9891
▁크리스티	-9892
▁조항	-9893
▁지연	-9894
▁브라질의	-9895
▁보르	-9896
▁계정을	-9897
▁리그에서	-9898
▁63	-9899
▁되찾	-9900
▁적응	-9901
적이며	-9902
▁별도로	-9903
▁출현	-9904
▁성공했다	-9905
▁가사	-9906
▁요약	-9907
iction	-9908
리라	-9909
urt	-9910
▁들여	-9911
▁메트로	-9912
▁영화의	-9913
▁생각이	-9914
▁춘천	-9915
▁border	-9916
▁눈을	-9917
보로	-9918
less	-9919
와라	-9920
터스	-9921
신으로	-9922
▁;19	-9923
▁생각해	-9924
▁프로필	-9925
▁쿼	-9926
▁법학	-9927
▁원주민	-9928
▁파이어	-9929
라미	-9930
▁트럼	-9931
▁가득	-9932
▁프레임	-9933
▁으로	-9934
▁끝으로	-9935
▁임시정부	-9936
됨에	-9937
▁밸	-9938
▁대학의	-9939
cos	-9940
▁실내	-9941
urope	-9942
▁1895	-9943
subseteq	-9944
▁Mod	-9945
▁뚜렷	-9946
▁입단하였다	-9947
web	-9948
인수	-9949
▁수수	-9950
▁지중	-9951
▁김명	-9952
▁일으킨	-9953
site	-9954
▁남쪽으로	-9955
▁der	-9956
▁도중에	-9957
▁출연했다	-9958
▁열매	-9959
▁데뷔하였다	-9960
▁구사	-9961
▁3000	-9962
▁예능	-9963
▁생각하고	-9964
▁극단	-9965
▁의거	-9966
화점	-9967
.31	-9968
oci	-9969
▁세계적으로	-9970
▁없기	-9971
▁일련의	-9972
▁(1993	-9973
우를	-9974
▁Ac	-9975
▁추대	-9976
▁/><	-9977
▁저자	-9978
반의	-9979
▁점은	-9980
sin	-9981
▁북미	-9982
▁비평가	-9983
▁꾸준히	-9984
▁스타일	-9985
기계	-9986
되었다는	-9987
.[	-9988
▁로맨	-9989
▁전술	-9990
▁남한	-9991
▁소스	-9992
=60|	-9993
istor	-9994
▁대하드라마	-9995
▁나쁜	-9996
▁발생하였다	-9997
700	-9998
▁중동	-9999
▁이용될	-10000
▁삿	-10001
웨이트	-10002
▁과학기술	-10003
▁랭킹	-10004
▁심장	-10005
▁결과가	-10006
▁우리의	-10007
법과	-10008
▁72	-10009
▁원자력	-10010
▁싱어송라이터	-10011
!!3	-10012
▁배급	-10013
▁유인	-10014
▁소형	-10015
침을	-10016
코는	-10017
▁EX	-10018
▁소득	-10019
▁News	-10020
▁스콧	-10021
▁!18	-10022
▁사이클	-10023
otiale	-10024
▁원시	-10025
▁타워	-10026
▁당한	-10027
서와	-10028
▁마스	-10029
oung	-10030
▁고리	-10031
▁르네	-10032
▁운항	-10033
▁미국으로	-10034
▁생각하는	-10035
▁소위	-10036
▁황태	-10037
전한	-10038
▁1904	-10039
mag	-10040
▁이태	-10041
▁PS	-10042
▁사가	-10043
▁제후	-10044
▁전체를	-10045
숭이	-10046
▁담고	-10047
▁된다는	-10048
big	-10049
▁말한	-10050
▁수업	-10051
령으로	-10052
▁크리스마스	-10053
▁맺었다	-10054
▁광주광역시	-10055
곡리	-10056
▁지점	-10057
올림픽	-10058
▁범주	-10059
▁타쿠	-10060
팀이	-10061
▁말하고	-10062
▁토벌	-10063
▁배구	-10064
▁공동체	-10065
▁가수이다	-10066
종교	-10067
▁여론	-10068
▁조기	-10069
▁정책에	-10070
것이	-10071
투자	-10072
▁지칭	-10073
▁위키백과에서	-10074
tr	-10075
▁강수	-10076
▁응답	-10077
clop	-10078
▁주장이	-10079
="10	-10080
▁u	-10081
▁클라우	-10082
학자이다	-10083
▁설립인가	-10084
▁미츠	-10085
▁밀도는	-10086
살이	-10087
장인	-10088
▁(0	-10089
▁고고	-10090
▁유발	-10091
창군	-10092
▁히로시	-10093
참모	-10094
oss	-10095
토를	-10096
▁정이	-10097
연출	-10098
▁항해	-10099
▁이용하는	-10100
ka	-10101
▁중성	-10102
▁발표되었다	-10103
▁시라	-10104
▁주된	-10105
위원회의	-10106
▁Girl	-10107
▁남극	-10108
▁내지	-10109
▁네이	-10110
▁중복	-10111
▁디아	-10112
미네	-10113
▁고지	-10114
▁블라디	-10115
하겠다고	-10116
▁뻗	-10117
▁옛날	-10118
▁토니	-10119
▁id	-10120
▁노트	-10121
▁맺고	-10122
▁빌딩	-10123
▁시달	-10124
▁울산광역시	-10125
▁el	-10126
▁걸려	-10127
향을	-10128
▁발족	-10129
▁사로	-10130
▁토론이	-10131
▁좌익	-10132
▁되기도	-10133
▁사이버	-10134
Sp	-10135
▁되었는데	-10136
▁못해	-10137
▁101	-10138
사항	-10139
ule	-10140
▁쓴다	-10141
▁예로	-10142
▁Cam	-10143
▁버지	-10144
▁거대	-10145
▁경비	-10146
▁실종	-10147
▁사령관	-10148
작은	-10149
란을	-10150
OVE	-10151
▁맞지	-10152
▁구체적으로	-10153
▁있는가	-10154
▁갓	-10155
천리	-10156
▁스피드	-10157
▁가시	-10158
▁운송	-10159
orts	-10160
▁샌프란시스코	-10161
▁성의	-10162
ards	-10163
철의	-10164
▁없었고	-10165
▁사람으로	-10166
▁말할	-10167
▁외계	-10168
▁AKB	-10169
▁결심	-10170
CE	-10171
황제	-10172
노의	-10173
▁고백	-10174
▁괜찮	-10175
▁700	-10176
▁배열	-10177
▁모습으로	-10178
사이드	-10179
한테	-10180
▁칩	-10181
di	-10182
졌을	-10183
▁Day	-10184
▁전임	-10185
버스터미널	-10186
▁곧바로	-10187
▁관계에	-10188
▁군사를	-10189
000000;	-10190
▁평생	-10191
▁깔	-10192
청의	-10193
▁잠재	-10194
bullet	-10195
▁맞게	-10196
▁그리스도	-10197
olic	-10198
▁간접	-10199
▁천체	-10200
▁특허	-10201
EM	-10202
▁문장	-10203
도니아	-10204
ious	-10205
▁지속적인	-10206
▁×	-10207
▁시내버스	-10208
해피	-10209
▁레코	-10210
▁새끼	-10211
▁원내	-10212
▁새누리	-10213
▁소프트웨	-10214
▁스웨덴의	-10215
벌레	-10216
통산	-10217
슬라비아	-10218
년월일	-10219
▁세력이	-10220
▁매니저	-10221
▁(1992	-10222
▁심한	-10223
▁이규	-10224
사령관	-10225
▁모집	-10226
▁선제	-10227
ello	-10228
금은	-10229
▁SH	-10230
회전	-10231
▁전망	-10232
▁석방	-10233
면서도	-10234
카라	-10235
▁두려워	-10236
호에	-10237
▁인터뷰에서	-10238
▁선물	-10239
▁존중	-10240
」,	-10241
후쿠	-10242
▁억제	-10243
하르트	-10244
▁위키미디어	-10245
벤처	-10246
▁된다고	-10247
▁북쪽으로	-10248
문과	-10249
▁BS	-10250
▁바르셀로나	-10251
.28	-10252
!!!!	-10253
▁마이크	-10254
▁상호작용	-10255
▁추가되었다	-10256
▁아예	-10257
▁아니라고	-10258
나리	-10259
랑이	-10260
주식	-10261
▁벨라	-10262
▁좋을	-10263
데스리가	-10264
위원회는	-10265
▁李	-10266
마자	-10267
▁벗어	-10268
정리	-10269
▁보이며	-10270
그로	-10271
돌이	-10272
▁무료	-10273
▁최후의	-10274
갔고	-10275
▁안산	-10276
▁않았던	-10277
평군	-10278
▁올림	-10279
▁활동이	-10280
▁힘이	-10281
▁참가했다	-10282
▁지상역이다	-10283
되던	-10284
회로	-10285
▁공학	-10286
▁모순	-10287
▁(8	-10288
▁약탈	-10289
▁송신	-10290
▁약칭	-10291
▁키스	-10292
▁양도	-10293
▁호는	-10294
▁브라우	-10295
▁MP	-10296
▁공룡	-10297
▁상의	-10298
▁all	-10299
bottom	-10300
▁(7	-10301
▁여운	-10302
▁주한	-10303
영화제	-10304
Ed	-10305
▁조선총독부	-10306
본을	-10307
▁인류	-10308
▁우편	-10309
▁플루	-10310
▁자전거	-10311
▁유치원	-10312
▁입었다	-10313
▁불편	-10314
▁이유를	-10315
▁김윤	-10316
▁내장	-10317
▁성균관	-10318
▁요구하는	-10319
▁트라	-10320
코리아	-10321
▁Cor	-10322
▁Park	-10323
▁나카무라	-10324
▁ph	-10325
▁감각	-10326
▁사기	-10327
▁평택	-10328
▁수백	-10329
▁충격	-10330
▁뼈	-10331
▁뒤로	-10332
▁중시	-10333
기독교	-10334
후지	-10335
남도의	-10336
▁촉진	-10337
야수	-10338
▁그들	-10339
▁정재	-10340
▁전한	-10341
▁부드	-10342
▁색깔	-10343
형태	-10344
▁ar	-10345
▁고통	-10346
▁구간이	-10347
▁호흡	-10348
▁영토를	-10349
▁면적	-10350
하에서	-10351
▁세트	-10352
▁상태에	-10353
▁자유를	-10354
▁연안	-10355
▁클래스	-10356
▁Spec	-10357
▁시간에	-10358
▁집에서	-10359
(2010	-10360
▁항공기	-10361
▁function	-10362
문관	-10363
▁나뉘어	-10364
▁당나라	-10365
▁인텔	-10366
SK	-10367
스컵	-10368
▁달성했다	-10369
인인	-10370
▁서재	-10371
▁지원하는	-10372
▁간단한	-10373
▁이사회	-10374
▁강경	-10375
투아니아	-10376
구성	-10377
▁구마	-10378
▁특징을	-10379
▁1913	-10380
메르	-10381
▁시즈	-10382
천의	-10383
mon	-10384
▁레이다	-10385
▁배경으로	-10386
▁인신	-10387
▁주에	-10388
▁팩	-10389
화에서	-10390
▁중계소	-10391
게는	-10392
▁번주	-10393
▁베어	-10394
▁인조	-10395
▁김광	-10396
▁문서로	-10397
율이	-10398
▁김희	-10399
▁학자	-10400
▁또다시	-10401
^{\	-10402
▁!8	-10403
▁시작했고	-10404
등에	-10405
▁99	-10406
▁무용	-10407
▁시드니	-10408
▁97	-10409
▁읽어	-10410
▁거리를	-10411
▁최근에는	-10412
령은	-10413
하러	-10414
ste	-10415
▁두번째	-10416
-21	-10417
▁굳이	-10418
▁서기	-10419
이강철	-10420
프가니스탄	-10421
사고	-10422
▁에너지를	-10423
▁구체적인	-10424
ye	-10425
▁중국어	-10426
inn	-10427
▁맥스	-10428
▁사제	-10429
▁1909	-10430
국인	-10431
▁아울러	-10432
▁판타지	-10433
▁하노	-10434
▁막아	-10435
메라	-10436
▁연계	-10437
li	-10438
▁번뇌	-10439
▁최신	-10440
▁겨우	-10441
▁위안	-10442
ures	-10443
cyclop	-10444
▁동치	-10445
▁찾을	-10446
하가	-10447
▁66	-10448
▁미션	-10449
▁시립	-10450
렌지	-10451
Rev	-10452
▁담은	-10453
ison	-10454
▁소규모	-10455
▁필요로	-10456
아프리카	-10457
덕션	-10458
▁노란	-10459
▁호환	-10460
▁대만	-10461
ract	-10462
렉스	-10463
▁역의	-10464
lambda	-10465
▁암컷	-10466
우옌	-10467
▁바른	-10468
▁Cal	-10469
▁중에서도	-10470
의에	-10471
▁이론을	-10472
▁컬러	-10473
▁비자유	-10474
box	-10475
어머니	-10476
▁사이토	-10477
탄을	-10478
▁59	-10479
▁군이다	-10480
▁!|–	-10481
▁튜	-10482
란의	-10483
▁귀환	-10484
▁마그	-10485
주쿠	-10486
-1)	-10487
▁번호는	-10488
-)	-10489
▁수감	-10490
▁받으며	-10491
▁어릴	-10492
츠의	-10493
▁연호	-10494
▁발언을	-10495
▁그리스의	-10496
▁게재	-10497
▁Nov	-10498
▁곳이	-10499
득실	-10500
▁아닐	-10501
▁Reg	-10502
▁Science	-10503
GM	-10504
놓고	-10505
wiki	-10506
▁영향력을	-10507
▁동서	-10508
바타	-10509
▁119	-10510
▁리가	-10511
▁막을	-10512
▁찾는	-10513
▁곁	-10514
유한	-10515
▁찾기	-10516
▁하사	-10517
절을	-10518
형과	-10519
▁top	-10520
▁목록이다	-10521
▁신입	-10522
▁열어	-10523
▁프랭크	-10524
▁대부분을	-10525
▁동아시아	-10526
▁실업	-10527
▁결정을	-10528
▁했다고	-10529
▁간섭	-10530
▁깊이	-10531
▁아니며	-10532
▁홍보대사	-10533
였다고	-10534
아역	-10535
▁승계	-10536
▁주변의	-10537
▁cm	-10538
회담	-10539
▁순수	-10540
▁험	-10541
미스	-10542
EST	-10543
▁기지	-10544
strument	-10545
▁모모	-10546
▁플로리다	-10547
Blue	-10548
▁Dream	-10549
루수	-10550
▁가해	-10551
▁해협	-10552
견을	-10553
들과의	-10554
▁●	-10555
▁여객철	-10556
silon	-10557
▁킨	-10558
삼성	-10559
오루	-10560
▁복지	-10561
▁황제의	-10562
▁구성하는	-10563
▁초기에는	-10564
-30	-10565
▁때도	-10566
▁본인이	-10567
▁공간을	-10568
미와	-10569
우지	-10570
▁간부	-10571
▁고가	-10572
▁존슨	-10573
reak	-10574
!"	-10575
▁지목	-10576
러시아	-10577
동아일보	-10578
▁토크	-10579
ille	-10580
▁사이타마	-10581
▁기각	-10582
▁제니	-10583
▁트라이	-10584
▁코트	-10585
시안	-10586
바이트	-10587
▁발표된	-10588
강원	-10589
▁rel	-10590
▁매개	-10591
▁현존	-10592
lock	-10593
▁per	-10594
▁거친	-10595
▁땅을	-10596
급의	-10597
▁타운	-10598
▁was	-10599
▁효과가	-10600
▁자율	-10601
▁평소	-10602
▁선거에	-10603
스틴	-10604
베이터	-10605
ichael	-10606
anguage	-10607
중이다	-10608
▁파키스탄	-10609
▁굵은	-10610
▁역임하였다	-10611
/3	-10612
▁다크	-10613
icro	-10614
▁::::::	-10615
pp	-10616
rd	-10617
▁남긴	-10618
학교를	-10619
티움	-10620
-1}	-10621
nt	-10622
ura	-10623
▁숫자	-10624
▁목숨을	-10625
▁소닉	-10626
▁테오	-10627
▁■	-10628
▁(6)	-10629
져서	-10630
▁사실은	-10631
\\	-10632
▁q	-10633
▁CC	-10634
리스토	-10635
▁민영화	-10636
링크	-10637
간이	-10638
▁경부	-10639
▁디즈니	-10640
루션	-10641
▁어울	-10642
▁밖으로	-10643
모어	-10644
ker	-10645
▁김형	-10646
▁마루	-10647
관련	-10648
네마	-10649
▁따서	-10650
▁붙잡	-10651
As	-10652
▁불명	-10653
▁종이	-10654
▁데리고	-10655
》.	-10656
내가	-10657
▁자유롭게	-10658
ja	-10659
ya	-10660
▁변화가	-10661
▁지나지	-10662
▁valign	-10663
가인	-10664
▁죽고	-10665
▁초래	-10666
▁캠페	-10667
▁세이부	-10668
▁사쿠	-10669
▁성과를	-10670
▁칙	-10671
색이	-10672
▁잃고	-10673
:#7	-10674
▁나선	-10675
▁낱	-10676
▁망원	-10677
재로	-10678
ush	-10679
▁실용	-10680
광주	-10681
수리	-10682
▁들어오	-10683
My	-10684
Se	-10685
영국	-10686
인들	-10687
때문에	-10688
프로듀	-10689
▁can	-10690
▁곳은	-10691
▁정교	-10692
역과	-10693
쳤고	-10694
▁:)	-10695
▁김원	-10696
▁메르	-10697
▁아파	-10698
▁영국에서	-10699
▁정해	-10700
work	-10701
재의	-10702
▁마찰	-10703
▁아르메	-10704
epsilon	-10705
▁쏟	-10706
프스	-10707
▁영양	-10708
▁오류	-10709
▁거둔	-10710
▁리스	-10711
▁모래	-10712
▁편지	-10713
▁그렇지	-10714
목으로	-10715
▁에스파	-10716
▁활동에	-10717
▁하라	-10718
▁가치를	-10719
▁::*	-10720
당에서	-10721
▁의뢰	-10722
받지	-10723
▁ISBN	-10724
리크	-10725
"},	-10726
▁업체	-10727
▁있다가	-10728
▁하다가	-10729
▁현상을	-10730
▁서쪽으로	-10731
등한	-10732
▁케이블	-10733
▁명칭이	-10734
FCC	-10735
▁오가	-10736
▁토론에	-10737
▁쟁	-10738
Ne	-10739
▁메디	-10740
▁얻게	-10741
▁통행	-10742
▁열었다	-10743
▁기하	-10744
▁먹는	-10745
영사관	-10746
졌으나	-10747
▁머리를	-10748
600	-10749
▁1915	-10750
▁야구장	-10751
▁국어	-10752
▁후의	-10753
▁Ref	-10754
▁마치고	-10755
스테이션	-10756
▁베네치아	-10757
결정	-10758
▁독점	-10759
▁화폐	-10760
▁학부	-10761
▁사이드	-10762
▁침몰	-10763
▁라이언	-10764
▁모델로	-10765
▁않음	-10766
주연	-10767
▁협박	-10768
▁마린	-10769
▁SF	-10770
▁유격	-10771
▁마천	-10772
▁사용이	-10773
직원	-10774
졌지만	-10775
▁web	-10776
▁(1991	-10777
클라	-10778
▁총무	-10779
▁미치는	-10780
▁지원한다	-10781
졌던	-10782
▁뚫	-10783
▁진술	-10784
▁노선이	-10785
실과	-10786
으로의	-10787
▁무선	-10788
▁국가가	-10789
▁영화를	-10790
▁하와이	-10791
ocese	-10792
▁촉구	-10793
▁황후	-10794
▁들었다	-10795
▁아니지만	-10796
▁달성하였다	-10797
보니	-10798
▁자문	-10799
▁약간의	-10800
았을	-10801
터가	-10802
▁유고슬라비아	-10803
▁앱	-10804
▁김선	-10805
▁오지	-10806
▁명으로	-10807
▁solid	-10808
▁파이널	-10809
▁(1986	-10810
Inst	-10811
▁CPU	-10812
리케이션	-10813
▁떼	-10814
네디	-10815
도어	-10816
era	-10817
▁옹호	-10818
▁하마	-10819
▁허브	-10820
▁필름	-10821
렸을	-10822
열의	-10823
▁Des	-10824
▁자바	-10825
약품	-10826
▁못할	-10827
▁코믹	-10828
▁본인의	-10829
▁부족한	-10830
위대	-10831
(11	-10832
rav	-10833
IE	-10834
▁당했다	-10835
▁이야기가	-10836
▁설치되었다	-10837
▁VS	-10838
▁빛의	-10839
화하는	-10840
▁사람에게	-10841
~3	-10842
▁이씨	-10843
함은	-10844
▁약한	-10845
ugust	-10846
받침	-10847
▁대니	-10848
▁야기	-10849
▁카와	-10850
▁메모	-10851
▁Dec	-10852
▁사용해	-10853
▁쪽으로	-10854
▁동지	-10855
▁Best	-10856
▁King	-10857
NE	-10858
▁노리	-10859
rem	-10860
스테르	-10861
▁ISO	-10862
▁열차는	-10863
여자대학교	-10864
▁선형	-10865
▁풋볼	-10866
▁의미로	-10867
.24	-10868
▁협상	-10869
AB	-10870
▁신흥	-10871
▁취재	-10872
▁대법원	-10873
▁동쪽으로	-10874
위안	-10875
탈리아	-10876
▁12.	-10877
▁Bro	-10878
▁나이에	-10879
▁연설	-10880
▁Red	-10881
▁Society	-10882
NC	-10883
승차	-10884
학에	-10885
족은	-10886
_1,	-10887
▁가능성을	-10888
신과	-10889
.26	-10890
▁비틀	-10891
메이크	-10892
▁오키나와	-10893
rightarrow	-10894
▁검증	-10895
▁게르	-10896
마일	-10897
▁곳을	-10898
▁교섭	-10899
▁않는다는	-10900
/>	-10901
습을	-10902
ird	-10903
▁많고	-10904
▁유입	-10905
▁10.	-10906
▁스티브	-10907
▁유물	-10908
예프	-10909
--<	-10910
▁부착	-10911
▁올스타전	-10912
▁리얼	-10913
ов	-10914
국과	-10915
좋은	-10916
▁8,	-10917
▁기요	-10918
▁서경	-10919
수수	-10920
포구	-10921
rat	-10922
▁오염	-10923
림을	-10924
▁언니	-10925
▁재즈	-10926
▁측은	-10927
족을	-10928
{{	-10929
롤라	-10930
▁쉐	-10931
나고	-10932
▁트레이드	-10933
▁진영	-10934
,"	-10935
선언	-10936
권으로	-10937
▁햄	-10938
십자	-10939
▁강을	-10940
▁103	-10941
이었는데	-10942
▁교향곡	-10943
▁들어와	-10944
▁문재인	-10945
▁방향을	-10946
▁중도	-10947
~18	-10948
▁영동	-10949
오르	-10950
시피	-10951
▁기아	-10952
▁제자	-10953
▁마케팅	-10954
▁생기	-10955
▁의지	-10956
▁시간은	-10957
▁삼았다	-10958
ible	-10959
▁반환	-10960
▁이마	-10961
이치로	-10962
것을	-10963
령에	-10964
▁싶습니다	-10965
겠네요	-10966
해지고	-10967
==	-10968
▁케빈	-10969
▁no	-10970
▁법원	-10971
산성	-10972
▁KIA	-10973
내용	-10974
히고	-10975
▁발생했다	-10976
ization	-10977
샐러	-10978
png	-10979
▁환상	-10980
▁풀어	-10981
ney	-10982
▁죽자	-10983
▁재무	-10984
슬리	-10985
엘라	-10986
▁걸어	-10987
학사	-10988
▁양식	-10989
RO	-10990
▁법인	-10991
▁압박	-10992
▁콜로	-10993
▁포함된다	-10994
▁미분	-10995
▁커피	-10996
러스트	-10997
해주세요	-10998
▁계기가	-10999
ets	-11000
ugh	-11001
▁교차	-11002
▁화면	-11003
▁크기가	-11004
그라	-11005
▁고성	-11006
▁대외	-11007
▁가공	-11008
onom	-11009
주곡	-11010
▁구름	-11011
▁루트비히	-11012
토가	-11013
▁하차	-11014
번에	-11015
omen	-11016
선조	-11017
당으로	-11018
차전에서	-11019
고쿠	-11020
▁옆에	-11021
▁톤	-11022
▁가질	-11023
▁김유	-11024
세기의	-11025
▁결과로	-11026
▁병력을	-11027
▁정부를	-11028
라서	-11029
▁comp	-11030
▁남아메리카	-11031
=150	-11032
▁아이디어	-11033
너의	-11034
과도	-11035
서구	-11036
▁불렀	-11037
각형	-11038
프레스	-11039
▁금메달	-11040
▁버리고	-11041
▁존재를	-11042
▁가도	-11043
▁목격	-11044
▁있으	-11045
버리	-11046
amm	-11047
고종	-11048
gram	-11049
트에	-11050
▁결과는	-11051
▁해발	-11052
▁첫번째	-11053
▁보잉	-11054
병으로	-11055
Sotiale	-11056
▁신분	-11057
▁아프가니스탄	-11058
과이	-11059
▁룩	-11060
▁값을	-11061
▁바뀐	-11062
▁62	-11063
▁大	-11064
▁배제	-11065
▁따르는	-11066
▁훔	-11067
번대	-11068
▁상영	-11069
▁송시	-11070
▁위기	-11071
관에서	-11072
생활을	-11073
아사	-11074
▁흔들	-11075
▁up	-11076
▁적대	-11077
link	-11078
▁놓여	-11079
123	-11080
▁수단	-11081
▁영남	-11082
▁유니버	-11083
▁구성된다	-11084
치며	-11085
omas	-11086
▁딴	-11087
너는	-11088
한서	-11089
권도	-11090
ship	-11091
거진	-11092
념파	-11093
php	-11094
▁부처	-11095
▁파생	-11096
강전	-11097
고한	-11098
렉션	-11099
ocal	-11100
지휘	-11101
▁아서	-11102
▁융합	-11103
▁갈색	-11104
경향	-11105
▁버지니아	-11106
구장	-11107
권자	-11108
CDC	-11109
▁일관	-11110
▁일본이	-11111
▁때문이었다	-11112
▁헐	-11113
ids	-11114
하려면	-11115
▁!↔	-11116
▁이소	-11117
념파닭	-11118
레비	-11119
▁꼬리	-11120
▁한국영화	-11121
니즘	-11122
▁이익을	-11123
음력	-11124
▁한강	-11125
▁위험한	-11126
="7%"	-11127
▁와타나베	-11128
▁휠	-11129
국대학교	-11130
요코	-11131
▁북극	-11132
1/	-11133
▁전형적인	-11134
▁공개되었다	-11135
▁보인	-11136
▁타이틀을	-11137
▁나가사키	-11138
▁trans	-11139
▁꿈을	-11140
▁과장	-11141
▁떠난	-11142
▁해운	-11143
▁thumb	-11144
▁달의	-11145
omega	-11146
▁5000	-11147
지리	-11148
("	-11149
▁공략	-11150
▁본선에	-11151
▁주목을	-11152
니에	-11153
▁당연히	-11154
▁정권을	-11155
지대	-11156
▁탕	-11157
려서	-11158
▁기생	-11159
▁이의	-11160
orge	-11161
▁자리에서	-11162
▁BC	-11163
▁1916	-11164
하였을	-11165
▁최연	-11166
▁운동에	-11167
으로서는	-11168
▁그럼에도	-11169
▁계곡	-11170
▁동굴	-11171
▁닌텐	-11172
▁쇼트	-11173
▁흙	-11174
것은	-11175
▁대조	-11176
▁안성	-11177
▁지었다	-11178
bridge	-11179
보의	-11180
▁급속	-11181
▁일본군	-11182
▁찾아가	-11183
▁Song	-11184
nhn	-11185
▁대처	-11186
▁Night	-11187
학은	-11188
과장	-11189
▁폼	-11190
프와	-11191
▁Brit	-11192
▁끝까지	-11193
▁조직의	-11194
번을	-11195
ano	-11196
▁한명	-11197
▁윙	-11198
▁서북	-11199
특별위원회	-11200
형사	-11201
▁입대	-11202
인치	-11203
110	-11204
▁이리	-11205
iver	-11206
▁않았으며	-11207
▁지형	-11208
▁태종	-11209
졌는데	-11210
▁되었다고	-11211
▁At	-11212
▁130	-11213
▁≪	-11214
▁삼아	-11215
슈타인	-11216
SU	-11217
▁멸종	-11218
▁무승	-11219
▁박종	-11220
▁소설가	-11221
▁지방도	-11222
관인생략	-11223
▁폭격	-11224
럼비아	-11225
선수권	-11226
▁이상한	-11227
년까지는	-11228
디언	-11229
ues	-11230
▁나루	-11231
attle	-11232
▁옐	-11233
수정	-11234
이니	-11235
▁제약	-11236
▁비롯해	-11237
▁수컷	-11238
▁차지하였다	-11239
▁대책	-11240
▁안의	-11241
▁피난	-11242
막극	-11243
산과	-11244
현이	-11245
ely	-11246
▁주말연속극	-11247
fo	-11248
코가	-11249
호텔	-11250
▁반지	-11251
민국의	-11252
▁보상	-11253
▁섬에	-11254
문으로	-11255
▁마리오	-11256
▁철학자	-11257
년생	-11258
인권	-11259
정동	-11260
히메	-11261
▁정교회	-11262
▁캐스팅	-11263
▁후보가	-11264
현을	-11265
▁일에	-11266
미에	-11267
▁Che	-11268
▁나라를	-11269
▁안나	-11270
▁이어졌다	-11271
여자중학교	-11272
삭제	-11273
초의	-11274
연예	-11275
▁qu	-11276
▁급격	-11277
▁숨겨	-11278
▁왕립	-11279
isco	-11280
urch	-11281
▁중소	-11282
▁스마트폰	-11283
보가	-11284
)=\	-11285
▁대학교의	-11286
▁이슈	-11287
▁주니치	-11288
▁뤼	-11289
197	-11290
▁선진	-11291
▁할리	-11292
ords	-11293
(7	-11294
▁젤	-11295
efef	-11296
▁북한의	-11297
▁김혜	-11298
▁밀양	-11299
(8	-11300
▁98	-11301
▁리치	-11302
▁유이	-11303
태평양	-11304
▁올림픽에	-11305
우와	-11306
▁고안	-11307
▁변수	-11308
▁본명은	-11309
아와	-11310
▁충주	-11311
Gamma	-11312
전설	-11313
▁주거	-11314
aint	-11315
za	-11316
▁뜻이다	-11317
순환	-11318
▁코코	-11319
바이러스	-11320
금이	-11321
드에	-11322
uth	-11323
▁케네디	-11324
▁Award	-11325
▁미노	-11326
▁Ser	-11327
날짜	-11328
▁나열	-11329
대륙	-11330
▁지표	-11331
ines	-11332
ский	-11333
▁2.0	-11334
크와	-11335
현은	-11336
▁임신	-11337
▁문서에서	-11338
▁오스트레일리아의	-11339
보병사단	-11340
년은	-11341
▁불참	-11342
▁왕비	-11343
▁영화배우이다	-11344
▁무죄	-11345
▁전진	-11346
▁생년월일	-11347
▁닿	-11348
츠는	-11349
gen	-11350
▁결승전에서	-11351
▁시흥	-11352
▁수록되어	-11353
▁Japan	-11354
바의	-11355
emp	-11356
건이	-11357
▁발생한다	-11358
지부	-11359
패로	-11360
▁커플	-11361
▁하나를	-11362
액을	-11363
▁과거의	-11364
▁이스트	-11365
투쟁	-11366
▁경험을	-11367
▁뿐이다	-11368
▁AS	-11369
초등학교로	-11370
▁사이가	-11371
argin	-11372
▁96	-11373
▁분이	-11374
▁호출	-11375
온다	-11376
.27	-11377
▁거기에	-11378
aceae	-11379
전략	-11380
▁다가	-11381
▁한미	-11382
▁월요일	-11383
▁유대인	-11384
▁의사를	-11385
▁자식	-11386
▁좁은	-11387
▁Mac	-11388
!!4	-11389
▁단축	-11390
▁전속	-11391
▁유니폼	-11392
▁스쿨	-11393
rown	-11394
DD	-11395
감사	-11396
Car	-11397
▁분산	-11398
▁}}	-11399
▁규제	-11400
▁부통령	-11401
▁시절에	-11402
▁감사합니다	-11403
시나	-11404
▁포털	-11405
▁프랜	-11406
즈와	-11407
지나	-11408
▁사위	-11409
▁에버	-11410
▁총괄	-11411
▁일도	-11412
brary	-11413
치료	-11414
군에서	-11415
조약	-11416
▁메타	-11417
▁무조건	-11418
▁측근	-11419
▁경우를	-11420
:#6666	-11421
.23	-11422
asp	-11423
▁곤충	-11424
▁굉장히	-11425
▁말하며	-11426
▁미국이	-11427
▁생방송	-11428
▁피에르	-11429
▁하거나	-11430
TR	-11431
ams	-11432
▁9,	-11433
▁군수	-11434
▁클린	-11435
▁위키백과는	-11436
▁최근에	-11437
▁왓	-11438
▁그림을	-11439
▁강동	-11440
남부	-11441
PM	-11442
▁살았다	-11443
▁컨트롤	-11444
▁아니었다	-11445
공화	-11446
▁노비	-11447
고려사	-11448
▁인물이다	-11449
▁Su	-11450
▁권유	-11451
▁원더	-11452
▁해피	-11453
번지	-11454
종목	-11455
cont	-11456
▁주제로	-11457
200">	-11458
▁베타	-11459
지기도	-11460
▁기반을	-11461
▁오리콘	-11462
▁위기에	-11463
DCD	-11464
rid	-11465
공무원	-11466
="4"|	-11467
EG	-11468
▁골프	-11469
동기	-11470
▁장성	-11471
나라는	-11472
구요	-11473
▁전성	-11474
▁고쳐	-11475
▁크림	-11476
▁세계에	-11477
▁것인지	-11478
아메리카	-11479
ote	-11480
.01.	-11481
▁`	-11482
모로	-11483
자나	-11484
해방	-11485
▁특별기획	-11486
▁서방	-11487
▁지대	-11488
맨더	-11489
▁장미	-11490
키스	-11491
▁유신	-11492
▁대신에	-11493
▁사고로	-11494
글라	-11495
Art	-11496
sid	-11497
▁전승	-11498
very	-11499
▁일본국유	-11500
전선	-11501
▁반사	-11502
▁비스	-11503
▁악의	-11504
▁차관	-11505
▁정치가	-11506
▁시나리오	-11507
▁고무	-11508
▁북구	-11509
▁해임	-11510
▁차지하는	-11511
.;	-11512
Ge	-11513
개인	-11514
▁시점	-11515
▁패널	-11516
▁일기	-11517
▁착수	-11518
▁히사	-11519
발매일	-11520
▁최대한	-11521
▁자격을	-11522
Mos	-11523
▁농림	-11524
▁주변에	-11525
▁공식적인	-11526
▁대표이사	-11527
지방검찰청	-11528
심히	-11529
▁소니	-11530
▁지나치게	-11531
erry	-11532
▁Sw	-11533
▁강희	-11534
▁것인가	-11535
▁교도	-11536
▁대의	-11537
▁서해	-11538
▁신동	-11539
▁응원	-11540
결을	-11541
▁이창	-11542
브를	-11543
파에	-11544
▁남원	-11545
▁의석	-11546
▁인간이	-11547
▁윤리	-11548
차별	-11549
차장	-11550
▁국방부	-11551
▁Good	-11552
La	-11553
공장	-11554
헬름	-11555
ological	-11556
▁템	-11557
아스	-11558
▁라스	-11559
▁모닝	-11560
▁Instit	-11561
▁항구	-11562
ases	-11563
루살	-11564
▁누르	-11565
▁요괴	-11566
중에서	-11567
결혼	-11568
언어	-11569
▁세우고	-11570
▁수상자	-11571
▁게임이다	-11572
▁상상	-11573
▁68	-11574
▁기준을	-11575
▁마코토	-11576
▁못했고	-11577
▁Black	-11578
놓은	-11579
▁부르기도	-11580
▁전반기	-11581
▁죠	-11582
▁ID	-11583
▁좌석	-11584
▁환영	-11585
▁목적을	-11586
▁안드로이드	-11587
unc	-11588
▁두드	-11589
문학과	-11590
▁명단에	-11591
▁앨리스	-11592
모음	-11593
카는	-11594
▁통칭	-11595
▁폐지되었다	-11596
연료	-11597
▁프랑스는	-11598
▁수렴	-11599
▁사용을	-11600
시게	-11601
주의와	-11602
▁불만을	-11603
론과	-11604
서원	-11605
ior	-11606
▁후일	-11607
년으로	-11608
▁par	-11609
▁낫	-11610
▁폐기	-11611
朝鮮	-11612
킨스	-11613
▁계층	-11614
▁적의	-11615
▁구간을	-11616
Or	-11617
.22	-11618
▁사원	-11619
ists	-11620
▁아르헨티	-11621
대군	-11622
▁궁금	-11623
▁밤에	-11624
▁지역이	-11625
▁다룬	-11626
▁리버풀	-11627
▁원수	-11628
으려	-11629
▁예언	-11630
▁앨범을	-11631
lobal	-11632
▁Rad	-11633
▁부부	-11634
▁지질	-11635
▁보완	-11636
▁오쿠	-11637
▁읽는	-11638
▁트럭	-11639
▁Jul	-11640
▁최종적으로	-11641
▁자신에게	-11642
▁그랜	-11643
▁서독	-11644
▁리그의	-11645
▁특수한	-11646
측의	-11647
루살렘	-11648
주의는	-11649
▁굽	-11650
▁톨	-11651
악기	-11652
▁막내	-11653
▁전향	-11654
▁페리	-11655
▁헤어	-11656
▁(1987	-11657
▁펀	-11658
▁옮김	-11659
▁제휴	-11660
sc	-11661
년제	-11662
▁윤보	-11663
▁역명	-11664
olit	-11665
▁오늘날의	-11666
운수	-11667
▁꼴	-11668
오고	-11669
▁수신	-11670
것도	-11671
▁없어서	-11672
DCDCDC	-11673
큐어	-11674
▁위탁	-11675
▁명칭으로	-11676
모는	-11677
바스	-11678
축제	-11679
ives	-11680
▁구간은	-11681
▁CF	-11682
▁미시	-11683
▁직접적인	-11684
▁올림픽에서	-11685
Ro	-11686
면과	-11687
▁공직	-11688
▁호수	-11689
▁문화재자료	-11690
▁만남	-11691
▁산타	-11692
▁분명히	-11693
▁결과적으로	-11694
)』	-11695
심한	-11696
직한	-11697
▁쇠퇴	-11698
vent	-11699
진영	-11700
▁작전을	-11701
푸르트	-11702
도군	-11703
▁미하	-11704
gcolor	-11705
▁포함되었다	-11706
각의	-11707
▁바티	-11708
▁넓이는	-11709
▁벌였다	-11710
▁중국에서	-11711
▁61	-11712
노스케	-11713
함으로	-11714
▁반면에	-11715
▁진정한	-11716
▁냈다	-11717
▁토착	-11718
▁다녀	-11719
▁후쿠시마	-11720
렸던	-11721
6;"	-11722
▁(9	-11723
분교장	-11724
민이	-11725
▁신비	-11726
▁기상청	-11727
LG	-11728
▁무력	-11729
qquad	-11730
▁David	-11731
▁제주특별자치	-11732
▁77	-11733
▁광산	-11734
네이버	-11735
▁실시된	-11736
바른	-11737
ada	-11738
uel	-11739
▁호칭	-11740
콘서트	-11741
포병	-11742
▁오디오	-11743
▁col	-11744
▁만화가	-11745
▁보내는	-11746
▁우수한	-11747
▁Nat	-11748
▁마음이	-11749
▁Gold	-11750
▁스트리트	-11751
▁봉사	-11752
▁정한	-11753
펙트럼	-11754
▁대폭	-11755
evelop	-11756
왔고	-11757
ional	-11758
▁지옥	-11759
▁마쓰다이라	-11760
▁병설유치원	-11761
▁발효	-11762
그마	-11763
물질	-11764
▁여인	-11765
▁흐름	-11766
=100	-11767
▁바이올린	-11768
▁좋겠습니다	-11769
▁외의	-11770
▁이루어진다	-11771
▁별칭	-11772
▁출처가	-11773
▁휩	-11774
천사	-11775
▁사범	-11776
리그의	-11777
▁다음에	-11778
▁물이	-11779
왕조실록	-11780
xford	-11781
▁포유	-11782
▁Your	-11783
반을	-11784
아마	-11785
▁구상	-11786
▁찌	-11787
▁걱정	-11788
양념파닭	-11789
▁에미	-11790
▁네이션	-11791
▁부동산	-11792
▁애플리케이션	-11793
기상	-11794
▁나츠	-11795
▁Jan	-11796
▁차단된	-11797
▁성립한다	-11798
▁부흥	-11799
라클	-11800
란트	-11801
편이	-11802
▁리메이크	-11803
▁사람이다	-11804
꼬리	-11805
▁GT	-11806
CB	-11807
▁펴	-11808
▁로고	-11809
▁잃은	-11810
병이	-11811
▁Ab	-11812
▁국장	-11813
▁온도	-11814
네의	-11815
서울특별시	-11816
▁고립	-11817
▁사사	-11818
라이어	-11819
▁노선은	-11820
▁토마	-11821
▁폭스	-11822
▁호르	-11823
▁의원은	-11824
▁This	-11825
잡이	-11826
▁관람	-11827
▁와이번	-11828
▁훌륭한	-11829
▁믹	-11830
마키	-11831
▁죽을	-11832
▁우연히	-11833
▁이외에	-11834
▁하루카	-11835
▁리눅	-11836
베트남	-11837
▁원장	-11838
▁단막극	-11839
▁불리며	-11840
▁위키백과를	-11841
ube	-11842
▁동래	-11843
▁타자	-11844
▁판사	-11845
기관으로	-11846
▁다음으로	-11847
▁멈추	-11848
TT	-11849
무역	-11850
한을	-11851
▁영국과	-11852
준의	-11853
▁되었으나	-11854
▁°	-11855
▁박재	-11856
▁시집	-11857
▁페루	-11858
”,	-11859
멘트	-11860
환의	-11861
▁단종	-11862
▁들은	-11863
shadow	-11864
스러	-11865
▁창업	-11866
논의	-11867
▁무신	-11868
▁아우구	-11869
▁사용자를	-11870
▁태도를	-11871
되었기	-11872
판매	-11873
▁유출	-11874
호선의	-11875
건은	-11876
물과	-11877
▁Je	-11878
▁왕위	-11879
로미터	-11880
▁게이트	-11881
디아라비아	-11882
▁모두가	-11883
목에	-11884
▁일방	-11885
▁박헌	-11886
▁Web	-11887
▁Project	-11888
조와	-11889
vin	-11890
empl	-11891
▁규정하고	-11892
▁Trans	-11893
아를	-11894
err	-11895
▁왜곡	-11896
▁흩	-11897
실험	-11898
▁전세계	-11899
ama	-11900
▁손님	-11901
투데이	-11902
▁金	-11903
iness	-11904
▁참가하였다	-11905
.29	-11906
reg	-11907
내에서	-11908
(2011	-11909
▁(\	-11910
교통부	-11911
▁마음에	-11912
▁일어난다	-11913
지하	-11914
ones	-11915
▁가지게	-11916
▁공동으로	-11917
▁장편	-11918
▁인구의	-11919
베르토	-11920
▁야마구치	-11921
▁일어났	-11922
▁어른	-11923
▁차기	-11924
▁캐시	-11925
▁보지	-11926
▁탄소	-11927
▁아들을	-11928
▁서서히	-11929
▁야쿠르트	-11930
oo	-11931
▁롬	-11932
▁머무	-11933
▁어둠	-11934
▁충남	-11935
▁필드	-11936
사토	-11937
프라이	-11938
▁실시간	-11939
▁정도가	-11940
▁종교적	-11941
▁친정	-11942
▁02.	-11943
▁축하	-11944
▁흐르는	-11945
▁SU	-11946
▁방송된	-11947
폐합	-11948
자본	-11949
141	-11950
~10	-11951
▁직결	-11952
▁피에	-11953
방에서	-11954
▁남동생	-11955
률이	-11956
▁김구	-11957
▁달린	-11958
▁며칠	-11959
▁찾아서	-11960
▁유진	-11961
숙한	-11962
융합	-11963
▁남구	-11964
▁다녔	-11965
▁빛을	-11966
증이	-11967
▁마녀	-11968
경기를	-11969
▁계획이	-11970
Te	-11971
▁콘스탄티노	-11972
▁딘	-11973
내셔널	-11974
▁선수단	-11975
쪽의	-11976
▁금성	-11977
▁비로	-11978
▁덧붙여	-11979
가고	-11980
▁시를	-11981
▁지금도	-11982
▁시작하는	-11983
▁타이틀곡	-11984
wikipedia	-11985
금지	-11986
▁7.	-11987
▁몰락	-11988
▁2014.	-11989
편에	-11990
▁구리	-11991
▁세대	-11992
▁친선	-11993
▁(1985	-11994
노트	-11995
ora	-11996
▁애국	-11997
▁친척	-11998
▁운행을	-11999
▁우즈	-12000
▁음향	-12001
▁140	-12002
▁차이를	-12003
▁선수이자	-12004
받을	-12005
▁손상	-12006
▁West	-12007
GC	-12008
▁쇼핑	-12009
▁웨일스	-12010
inter	-12011
이동	-12012
▁거울	-12013
▁김홍	-12014
▁내리	-12015
▁영등	-12016
▁지혜	-12017
▁아키라	-12018
▁편지를	-12019
》...	-12020
▁・	-12021
Cont	-12022
▁총선에서	-12023
희는	-12024
sych	-12025
▁숙종	-12026
▁대회를	-12027
▁네덜란드의	-12028
▁동맹을	-12029
번뇌	-12030
▁진실	-12031
문자	-12032
▁쓰지	-12033
▁일렉	-12034
aster	-12035
레드	-12036
투수	-12037
델피아	-12038
득표율	-12039
▁의원이	-12040
▁퍼시픽	-12041
는가	-12042
-25	-12043
▁10,	-12044
ger	-12045
▁관장	-12046
▁히라	-12047
!!5	-12048
rim	-12049
▁쉬운	-12050
▁Star	-12051
카를	-12052
▁데스	-12053
▁명성	-12054
▁신속	-12055
전문학교	-12056
▁South	-12057
에의	-12058
오를	-12059
레이크	-12060
▁우리나라	-12061
▁value	-12062
▁IN	-12063
▁포괄	-12064
▁전부터	-12065
▁텔	-12066
가람	-12067
▁은퇴한	-12068
▁분야의	-12069
▁기록하고	-12070
.06.	-12071
사지	-12072
▁어긋	-12073
▁베네수	-12074
프로듀서	-12075
들인	-12076
해주시	-12077
▁헤드	-12078
thing	-12079
▁평일	-12080
중에는	-12081
▁물어	-12082
▁테니스	-12083
▁그려져	-12084
▁결혼을	-12085
▁텍스트	-12086
부제	-12087
ears	-12088
▁별다른	-12089
▁밝혔	-12090
8080	-12091
▁발매한	-12092
▁활동한	-12093
포드	-12094
sec	-12095
▁듯한	-12096
▁전체의	-12097
▁제목으로	-12098
▁스페이스	-12099
타점	-12100
▁접한다	-12101
▁부른	-12102
▁손해	-12103
ient	-12104
▁105	-12105
▁나오지	-12106
▁에스토	-12107
&\	-12108
▁속으로	-12109
▁자신과	-12110
▁담당하는	-12111
▁발전에	-12112
▁옮겼다	-12113
라리	-12114
의사	-12115
▁이반	-12116
等學校	-12117
▁360	-12118
▁계획은	-12119
▁도시를	-12120
▁특성을	-12121
▁평균자책	-12122
)}	-12123
.15	-12124
▁트루	-12125
▁Don	-12126
▁쌍둥이	-12127
개정	-12128
▁나아	-12129
▁얻는	-12130
▁금요일	-12131
▁감정을	-12132
▁City	-12133
음에	-12134
쿠로	-12135
▁어렵다	-12136
하겠다는	-12137
AI	-12138
▁도루	-12139
▁적색	-12140
▁좌표	-12141
ility	-12142
▁마야	-12143
▁조문	-12144
▁!20	-12145
▁my	-12146
▁점프	-12147
해진다	-12148
▁긴테쓰	-12149
정수	-12150
경기도	-12151
▁비공식	-12152
▁스펙트럼	-12153
▁아르메니아	-12154
.21	-12155
▁카트	-12156
▁따뜻	-12157
▁운반	-12158
▁먹는다	-12159
▁잃어버	-12160
▁얀	-12161
▁거리에	-12162
임은	-12163
▁경제학	-12164
OH	-12165
러는	-12166
있고	-12167
169	-12168
▁본토	-12169
▁현상이	-12170
▁바가	-12171
▁시외	-12172
▁이장	-12173
▁중장	-12174
▁학교를	-12175
노프	-12176
미쓰	-12177
ani	-12178
▁비즈니스	-12179
▁William	-12180
▁조상	-12181
▁향한	-12182
▁희극	-12183
마뱀	-12184
투를	-12185
▁성명	-12186
셔서	-12187
off	-12188
▁67	-12189
▁대주교	-12190
석에	-12191
▁느껴	-12192
▁줄리	-12193
▁76	-12194
▁라트	-12195
▁크기는	-12196
idd	-12197
▁LA	-12198
▁수천	-12199
▁호세	-12200
▁도카이	-12201
▁정확하게	-12202
(<	-12203
▁밟	-12204
▁꺾고	-12205
▁원로	-12206
▁대학생	-12207
▁막대한	-12208
▁캠퍼스	-12209
▁있어서는	-12210
고지	-12211
map	-12212
▁자발	-12213
도우	-12214
▁1.5	-12215
delta	-12216
▁유지하고	-12217
출처	-12218
▁책봉	-12219
.05.	-12220
▁안드레	-12221
팀은	-12222
▁사이를	-12223
중계	-12224
▁득점을	-12225
▁크기의	-12226
gamma	-12227
▁꾀	-12228
구단	-12229
▁진단	-12230
▁쾌속	-12231
lement	-12232
용이	-12233
▁아츠	-12234
▁애덤	-12235
▁제공하고	-12236
기본	-12237
▁근접	-12238
▁현대의	-12239
혁신	-12240
▁물리학	-12241
▁독자적인	-12242
▁당의	-12243
▁추모	-12244
▁슌	-12245
분과	-12246
연이	-12247
▁Publish	-12248
▁곳곳	-12249
님께서	-12250
{1}{	-12251
▁칼리지	-12252
▁야마모토	-12253
▁삶의	-12254
▁폭풍	-12255
▁내부의	-12256
▁풍부한	-12257
▁음반이다	-12258
▁전체적으로	-12259
▁듀얼	-12260
▁생일	-12261
▁가면라이더	-12262
▁내용에	-12263
▁회계	-12264
어에	-12265
▁거론	-12266
▁대역	-12267
####	-12268
:"	-12269
je	-12270
되다	-12271
제주	-12272
천면	-12273
▁육성	-12274
▁중력	-12275
▁전해진다	-12276
fr	-12277
unn	-12278
▁김옥	-12279
▁심의	-12280
▁예루살렘	-12281
▁성공적으로	-12282
duction	-12283
▁가이드	-12284
▁아이를	-12285
란에	-12286
입구	-12287
(1)	-12288
▁카프	-12289
▁항일	-12290
▁차지한다	-12291
▁리투아니아	-12292
▁불필	-12293
▁생략	-12294
▁(7)	-12295
▁Rem	-12296
▁계열의	-12297
설립	-12298
저는	-12299
▁막부	-12300
▁부과	-12301
▁임상	-12302
▁총장	-12303
▁생각했다	-12304
저씨	-12305
▁요청에	-12306
▁%	-12307
농업	-12308
론적	-12309
베스트	-12310
.09.	-12311
~~	-12312
추진	-12313
▁병력	-12314
▁Sum	-12315
▁포함해	-12316
색은	-12317
▁연금	-12318
▁여부를	-12319
▁연속으로	-12320
집행	-12321
▁합창	-12322
▁비잔티움	-12323
▁프로덕션	-12324
▁사로잡	-12325
▁했다는	-12326
▁전선	-12327
스퀘어	-12328
사태	-12329
▁모양으로	-12330
다지	-12331
범한	-12332
있던	-12333
▁하얀	-12334
▁Open	-12335
rol	-12336
▁하나님의	-12337
="100"	-12338
▁!9	-12339
▁비극	-12340
▁맵	-12341
미코	-12342
청이	-12343
보에	-12344
블리	-12345
▁뛰고	-12346
대화	-12347
▁느낀	-12348
▁토요	-12349
제국의	-12350
▁밀접	-12351
▁초록	-12352
관찰	-12353
▁착륙	-12354
bc	-12355
夫人	-12356
▁기갑	-12357
▁연루	-12358
▁사랑하는	-12359
버린	-12360
▁지내고	-12361
▁비가	-12362
달라고	-12363
itch	-12364
▁과학적	-12365
▁사용자토론	-12366
키타	-12367
▁세븐	-12368
▁조사를	-12369
SCP	-12370
ops	-12371
구나	-12372
▁대교	-12373
▁적어	-12374
▁채로	-12375
▁들어가는	-12376
CA	-12377
▁고발	-12378
▁실버	-12379
그리스	-12380
인들에게	-12381
▁카스	-12382
▁훈장	-12383
Cl	-12384
밴드	-12385
▁선을	-12386
▁졸업한	-12387
▁출신이다	-12388
▁히어로즈	-12389
strumental	-12390
▁바꾼	-12391
석으로	-12392
종이다	-12393
▁써서	-12394
▁del	-12395
▁부정적인	-12396
▁문화를	-12397
▁철도의	-12398
▁퇴임	-12399
.:	-12400
사리	-12401
▁광장	-12402
▁이곳에	-12403
120	-12404
▁160	-12405
!)	-12406
▁아마추어	-12407
올로	-12408
▁합작	-12409
▁설립한	-12410
uy	-12411
크리	-12412
:#0000	-12413
▁눌	-12414
▁늘어나	-12415
르지	-12416
▁빠진	-12417
매일	-12418
▁일으켰	-12419
작업	-12420
전차	-12421
▁중추원	-12422
▁루시	-12423
▁보고서	-12424
▁티베트	-12425
▁루스	-12426
▁면역	-12427
sky	-12428
▁체크	-12429
주의에	-12430
▁Out	-12431
▁자손	-12432
▁드라마이다	-12433
▁Wh	-12434
▁개발을	-12435
▁그러자	-12436
ichard	-12437
브스	-12438
▁기체	-12439
▁점유	-12440
▁정벌	-12441
▁게이지	-12442
▁결정했다	-12443
▁문화의	-12444
▁화려한	-12445
|\	-12446
상업	-12447
▁빌헬름	-12448
▁지지하는	-12449
▁눈물	-12450
▁포수	-12451
▁가능하게	-12452
이하	-12453
▁누나	-12454
▁정의할	-12455
▁High	-12456
▁밖의	-12457
▁시키	-12458
▁투구	-12459
그라드	-12460
시켰고	-12461
▁필라델피아	-12462
rew	-12463
▁고수	-12464
▁상하	-12465
▁화살	-12466
▁sub	-12467
▁천문학	-12468
▁슐	-12469
!!6	-12470
▁설이	-12471
▁철회	-12472
▁페어	-12473
▁목록은	-12474
}(\	-12475
AFF	-12476
레인저	-12477
▁규모가	-12478
▁2013.	-12479
▁알라	-12480
▁map	-12481
▁건물은	-12482
▁공무	-12483
▁상대식	-12484
▁원래의	-12485
▁노태	-12486
▁원형	-12487
▁일환으로	-12488
ilm	-12489
▁경험이	-12490
▁자체를	-12491
소스	-12492
▁그대	-12493
▁노조	-12494
▁상처	-12495
book	-12496
▁세워진	-12497
▁독립운동가	-12498
모스	-12499
열이	-12500
▁산다	-12501
▁중순	-12502
▁젖	-12503
만화	-12504
전시	-12505
▁승리로	-12506
▁움직이는	-12507
ission	-12508
▁사자	-12509
▁끝났다	-12510
▁생기는	-12511
▁형성된	-12512
▁바그	-12513
▁개화	-12514
▁Bel	-12515
▁1898	-12516
▁Robert	-12517
.04.	-12518
▁마르크스	-12519
▁사우디아라비아	-12520
▁훈련을	-12521
▁지방자치	-12522
▁이르기까지	-12523
>(<	-12524
금으로	-12525
▁정도이다	-12526
률은	-12527
▁리오	-12528
▁야간	-12529
▁않는다고	-12530
▁아벨	-12531
▁당선인	-12532
▁지방에	-12533
▁제수	-12534
▁도미니	-12535
▁통화	-12536
▁will	-12537
▁진출하였다	-12538
nu	-12539
▁박탈	-12540
다카	-12541
▁du	-12542
아일랜드	-12543
▁Encyclop	-12544
gs	-12545
▁풀려	-12546
▁아무도	-12547
▁With	-12548
Br	-12549
▁탓에	-12550
III	-12551
▁그날	-12552
▁운행하는	-12553
▁프로그램의	-12554
▁고도	-12555
▁아기	-12556
류에	-12557
▁몸에	-12558
▁피트	-12559
▁후기의	-12560
▁괴롭	-12561
▁저택	-12562
cept	-12563
▁신뢰할	-12564
▁당선되었다	-12565
ribution	-12566
▁톈	-12567
▁김연	-12568
▁시공	-12569
▁가능하며	-12570
▁내보	-12571
▁회담	-12572
▁웬	-12573
백을	-12574
▁윌슨	-12575
로동	-12576
율은	-12577
ift	-12578
▁am	-12579
▁권고	-12580
▁사헌	-12581
▁이틀	-12582
캠퍼스	-12583
~4	-12584
저작	-12585
주민	-12586
▁관통	-12587
abel	-12588
▁모친	-12589
▁오해	-12590
▁크레이	-12591
▁선거를	-12592
▁앨범은	-12593
▁허리케	-12594
▁(198	-12595
▁열심히	-12596
]]	-12597
▁맡게	-12598
▁부품	-12599
▁수치	-12600
▁조반	-12601
공파	-12602
▁인문	-12603
▁MSL	-12604
▁기술이	-12605
useum	-12606
▁경우에도	-12607
▁내내	-12608
9;"|	-12609
ham	-12610
▁Sk	-12611
보리	-12612
▁눈이	-12613
그리고	-12614
▁청주시	-12615
▁총선거	-12616
▁보살	-12617
▁정동	-12618
▁프랑스어	-12619
▁방식의	-12620
기동	-12621
제프	-12622
▁옵션	-12623
(2008	-12624
ander	-12625
률을	-12626
설명	-12627
스런	-12628
▁노력을	-12629
학자들은	-12630
▁이미지를	-12631
▁주오	-12632
단에서	-12633
브리지	-12634
▁수록된	-12635
▁Techn	-12636
란이	-12637
성한	-12638
이었다고	-12639
HT	-12640
▁이오	-12641
도서	-12642
▁끊임	-12643
▁명성을	-12644
▁모으	-12645
▁점성	-12646
▁민주화	-12647
▁Group	-12648
대리	-12649
였기	-12650
▁산악	-12651
▁11.	-12652
▁저작물	-12653
▁Times	-12654
회와	-12655
재가	-12656
안으로	-12657
▁연기대상	-12658
단위	-12659
▁김인	-12660
▁천황의	-12661
%9	-12662
폭풍	-12663
▁책은	-12664
▁맘	-12665
▁뿌리	-12666
사이다	-12667
Be	-12668
열전	-12669
▁이어져	-12670
▁2007.	-12671
▁일어날	-12672
▁args	-12673
온의	-12674
증권	-12675
▁가짜	-12676
▁겁니다	-12677
▁조약을	-12678
arles	-12679
▁성씨	-12680
▁이닝	-12681
야는	-12682
▁69	-12683
▁마오	-12684
▁최성	-12685
99">	-12686
음으로	-12687
▁링크를	-12688
▁부설	-12689
▁알제	-12690
지능	-12691
▁퍼져	-12692
▁흰색	-12693
하자는	-12694
▁뭔	-12695
지점	-12696
▁거제	-12697
▁이곳에서	-12698
▁간호	-12699
▁이가	-12700
▁주립	-12701
▁후안	-12702
▁명탐정	-12703
▁발생할	-12704
▁연평균	-12705
▁불꽃	-12706
▁존경	-12707
ense	-12708
▁남해	-12709
▁스핀	-12710
▁다나카	-12711
▁수녀	-12712
▁환자	-12713
▁조선시대의	-12714
더슨	-12715
▁후보에	-12716
미노	-12717
▁먹고	-12718
▁끝나고	-12719
▁기록하여	-12720
20)	-12721
rab	-12722
▁73	-12723
▁카타	-12724
▁뒤에는	-12725
▁Europe	-12726
▁2:	-12727
Talk	-12728
▁같아	-12729
▁마이너	-12730
▁선수를	-12731
▁덴마크의	-12732
▁서머	-12733
▁지음	-12734
▁넬	-12735
다르	-12736
일체	-12737
▁악화	-12738
▁회차	-12739
청고시	-12740
(2006	-12741
▁뒤집	-12742
시대에	-12743
▁전투가	-12744
▁토대로	-12745
▁바이오	-12746
마와	-12747
▁이긴	-12748
▁Aust	-12749
-22	-12750
▁천사	-12751
▁표명	-12752
LU	-12753
▁~)	-12754
▁해명	-12755
VA	-12756
▁몰래	-12757
▁죄를	-12758
이거나	-12759
arth	-12760
▁데뷔전을	-12761
▁우정	-12762
▁추억	-12763
ness	-12764
만명	-12765
진보	-12766
▁면에서	-12767
▁엔진을	-12768
▁콩고	-12769
▁여우	-12770
▁오렌지	-12771
="1"|	-12772
▁Rock	-12773
피는	-12774
▁디스플레이	-12775
▁사용자들이	-12776
▁크리스토퍼	-12777
.16	-12778
▁회색	-12779
▁한동안	-12780
▁세계적인	-12781
▁김일성	-12782
▁장로	-12783
삼국지	-12784
때로	-12785
화물	-12786
▁충북	-12787
▁헤비	-12788
▁표현을	-12789
▁1899	-12790
▁파운드	-12791
▁국무총리	-12792
▁GN	-12793
▁군산	-12794
▁했을	-12795
▁Act	-12796
▁Great	-12797
글로	-12798
느리	-12799
▁날아	-12800
▁진동	-12801
▁삿포로	-12802
▁Light	-12803
나스	-12804
▁프레스	-12805
래스	-12806
코쿠	-12807
티에	-12808
uff	-12809
MosQ	-12810
▁시점에서	-12811
▁가톨릭교회	-12812
보컬	-12813
차이	-12814
적이지	-12815
alth	-12816
리사	-12817
플러스	-12818
(2009	-12819
ena	-12820
케이팅	-12821
럴드	-12822
▁유혹	-12823
받는다	-12824
됐고	-12825
수용	-12826
▁감지	-12827
▁상반	-12828
▁피렌	-12829
▁지역에서는	-12830
▁하천	-12831
~14	-12832
▁시켜	-12833
▁정렬	-12834
▁정보가	-12835
▁제외하고는	-12836
히사	-12837
데일리	-12838
.08.	-12839
▁조건으로	-12840
디는	-12841
▁잠수함	-12842
ource	-12843
▁샹	-12844
▁명문	-12845
▁취약	-12846
하자면	-12847
▁휴스턴	-12848
▁feat	-12849
▁#000000;	-12850
진과	-12851
▁인물이	-12852
▁군단	-12853
▁Af	-12854
▁페르난	-12855
관한	-12856
석기	-12857
▁베니	-12858
▁부호	-12859
▁스캔	-12860
▁라틴어	-12861
▁조선인	-12862
▁출연한	-12863
▁잦	-12864
테크	-12865
▁장학	-12866
▁정찰	-12867
▁줄어	-12868
▁결과에	-12869
티즌	-12870
▁AN	-12871
▁센다이	-12872
코르	-12873
▁남기	-12874
ross	-12875
▁무려	-12876
.03.	-12877
▁도움으로	-12878
▁소속되어	-12879
로이	-12880
현악	-12881
▁시노	-12882
래스카	-12883
민족행위	-12884
교가	-12885
▁근거가	-12886
▁탤	-12887
▁생겼	-12888
기갑	-12889
▁나올	-12890
▁피어	-12891
북도의	-12892
한국어	-12893
▁동영상	-12894
▁경기에서는	-12895
두산	-12896
통계	-12897
▁이선	-12898
▁운동의	-12899
▁중학교이다	-12900
cent	-12901
국립	-12902
▁갑작	-12903
▁후반기	-12904
▁신한은행	-12905
▁용어는	-12906
▁Mnet	-12907
여래	-12908
▁베리	-12909
▁야생	-12910
자였던	-12911
▁사료	-12912
마스터	-12913
스페셜	-12914
▁한국에	-12915
▁English	-12916
▁옴	-12917
감한	-12918
자문	-12919
▁경연	-12920
▁구출	-12921
보디아	-12922
트리올	-12923
사우루스	-12924
light	-12925
보라	-12926
▁로저	-12927
어진다	-12928
▁CON	-12929
▁생각한다	-12930
▁차트에서	-12931
누엘	-12932
▁추증	-12933
▁기사를	-12934
고래	-12935
상황	-12936
▁병역	-12937
▁관점에서	-12938
ilit	-12939
??	-12940
▁라파	-12941
해에	-12942
▁강도	-12943
▁신하	-12944
▁트레	-12945
준비	-12946
▁도시철도	-12947
음은	-12948
▁가벼	-12949
▁평행	-12950
▁컸	-12951
▁마친	-12952
▁요원	-12953
▁분데스리가	-12954
쿠니	-12955
▁내고	-12956
▁별의	-12957
사무관	-12958
스타인	-12959
▁자체는	-12960
작을	-12961
▁신지	-12962
▁글씨는	-12963
▁레이저	-12964
▁멤버로	-12965
▁실패했다	-12966
▁나를	-12967
▁편리	-12968
▁그래도	-12969
=12	-12970
▁부패	-12971
테나	-12972
▁기업의	-12973
▁사고가	-12974
방위	-12975
▁엔지	-12976
교회의	-12977
청은	-12978
▁경인	-12979
▁김주	-12980
▁사상을	-12981
▁연구가	-12982
애니맥스	-12983
RI	-12984
▁백인	-12985
▁시계	-12986
▁프렌	-12987
판으로	-12988
출력	-12989
푸르	-12990
▁주시	-12991
ences	-12992
장한	-12993
▁넥센	-12994
▁땅에	-12995
나라를	-12996
▁Mart	-12997
▁Season	-12998
▁동문	-12999
▁입문	-13000
▁좌파	-13001
olf	-13002
▁위와	-13003
▁다루고	-13004
▁형식의	-13005
체인	-13006
ats	-13007
▁상태이다	-13008
버러	-13009
서치	-13010
▁약화	-13011
▁종전	-13012
▁분기점	-13013
▁실험을	-13014
▁카자흐	-13015
▁편입되었다	-13016
슬림	-13017
▁동독	-13018
▁포로	-13019
라에몽	-13020
▁목적은	-13021
Om	-13022
▁개인적인	-13023
▁81	-13024
직에	-13025
apt	-13026
▁관해	-13027
▁급진	-13028
들리	-13029
▁채워	-13030
▁할당	-13031
▁향년	-13032
성에서	-13033
이어서	-13034
청소년	-13035
(2007	-13036
DB	-13037
▁재미	-13038
▁후궁	-13039
▁같은데	-13040
▁1894	-13041
병의	-13042
Id	-13043
^^	-13044
▁->	-13045
권에서	-13046
시부터	-13047
▁전에는	-13048
▁고토	-13049
▁아부	-13050
▁정인	-13051
▁중앙일보	-13052
▁2015.	-13053
바흐	-13054
조지	-13055
▁디비전	-13056
▁선교사	-13057
▁채무	-13058
▁형태가	-13059
경기장	-13060
▁Paul	-13061
▁승무원	-13062
말라	-13063
▁중화인민공화국의	-13064
!!7	-13065
▁속도가	-13066
▁진흥	-13067
▁비판했다	-13068
예정	-13069
코와	-13070
▁네오	-13071
에너지	-13072
~16	-13073
▁소총	-13074
▁타원	-13075
▁국가를	-13076
uring	-13077
▁지적했다	-13078
토르	-13079
▁어떨	-13080
▁ABC	-13081
▁프랑크푸르트	-13082
▁팜	-13083
신학	-13084
▁식량	-13085
▁이호	-13086
▁동물의	-13087
▁보일	-13088
▁독일은	-13089
▁출생지	-13090
모든	-13091
▁토막글	-13092
터와	-13093
▁로얄	-13094
▁만나게	-13095
▁없으나	-13096
▁전투에	-13097
!!8	-13098
▁옷을	-13099
▁심사위원	-13100
네스코	-13101
인터넷	-13102
▁그룹의	-13103
▁일으키는	-13104
▁셈	-13105
▁짙	-13106
소재	-13107
.14	-13108
▁제도의	-13109
Delta	-13110
』,	-13111
보수	-13112
▁되었지만	-13113
▁한국시리즈	-13114
LC	-13115
▁OCN	-13116
▁플라스	-13117
날레	-13118
▁정경	-13119
▁사천	-13120
▁판정	-13121
▁회고	-13122
▁파일을	-13123
▁말하였다	-13124
동성	-13125
▁매출	-13126
▁사용하기	-13127
관할	-13128
길이	-13129
▁우치	-13130
시내	-13131
▁속도를	-13132
족과	-13133
▁독일어	-13134
▁모양을	-13135
:#9966	-13136
리얼	-13137
▁세로	-13138
▁IM	-13139
라이브	-13140
정부의	-13141
▁집으로	-13142
▁드라이브	-13143
▁닭	-13144
▁지식을	-13145
▁강연	-13146
▁사관	-13147
아카	-13148
rey	-13149
="25"|	-13150
가게	-13151
방울	-13152
▁삼고	-13153
▁요르	-13154
▁청와대	-13155
솔린	-13156
▁단선	-13157
▁미얀	-13158
▁온천	-13159
님과	-13160
픽셀	-13161
▁쫓아	-13162
▁천재	-13163
ida	-13164
▁경희	-13165
head	-13166
▁도시는	-13167
▁뿔	-13168
▁문화방송	-13169
▁자유한국당	-13170
▁얇	-13171
▁몰려	-13172
▁조달	-13173
드리아	-13174
▁패밀리	-13175
▁팀에	-13176
▁에스파냐	-13177
폭력	-13178
▁미주	-13179
▁수학자	-13180
롤라이나	-13181
▁김은	-13182
▁다니는	-13183
▁신중	-13184
▁애틀	-13185
▁일본으로	-13186
▁공익	-13187
▁아비	-13188
▁mod	-13189
▁부르며	-13190
▁시즌의	-13191
▁아들이다	-13192
iginal	-13193
▁배를	-13194
운동장	-13195
자들과	-13196
▁유럽에서	-13197
▁법을	-13198
▁학력	-13199
▁확실히	-13200
▁왈	-13201
▁쟈	-13202
▁햇	-13203
▁받기도	-13204
▁보호를	-13205
▁속도로	-13206
▁최하	-13207
▁신라의	-13208
▁있으니	-13209
닷컴	-13210
▁92	-13211
▁마일	-13212
ootball	-13213
TH	-13214
방법	-13215
▁소통	-13216
▁장려	-13217
▁파스	-13218
▁들어온	-13219
여름	-13220
▁조병	-13221
▁기타리스트	-13222
▁얻기	-13223
▁활동하는	-13224
류로	-13225
유는	-13226
▁구제	-13227
▁박용	-13228
▁강제로	-13229
▁성질을	-13230
indow	-13231
류와	-13232
ks	-13233
itz	-13234
▁주장하고	-13235
](	-13236
▁몸무	-13237
자이자	-13238
▁언어를	-13239
="250	-13240
▁갱신	-13241
▁초과	-13242
▁광명	-13243
▁inter	-13244
▁아이들	-13245
▁응우옌	-13246
▁작품이	-13247
▁중간에	-13248
▁North	-13249
르노	-13250
▁쓰인	-13251
▁통영	-13252
▁추격	-13253
▁학생들이	-13254
▁프로그램은	-13255
▁낼	-13256
서스	-13257
▁이상으로	-13258
아지	-13259
▁국적	-13260
!(	-13261
교실	-13262
오사카	-13263
▁맞추어	-13264
▁데뷔했다	-13265
▁갇	-13266
▁이내	-13267
ased	-13268
▁역사는	-13269
(2002	-13270
광고	-13271
아비	-13272
형제	-13273
▁추기경	-13274
aff	-13275
▁업그	-13276
^*	-13277
▁썬	-13278
비평	-13279
세츠	-13280
▁부의	-13281
▁역에	-13282
▁!25	-13283
▁얻는다	-13284
왕과	-13285
▁제로	-13286
▁카츠	-13287
▁홍성	-13288
▁1901	-13289
0,	-13290
위치	-13291
▁<<	-13292
▁들이	-13293
▁야마다	-13294
▁이라는	-13295
▁NA	-13296
▁끌려	-13297
atic	-13298
▁야마토	-13299
포의	-13300
!!10	-13301
▁사용하며	-13302
▁쿠로	-13303
▁한쪽	-13304
▁Tour	-13305
망이	-13306
어졌다	-13307
▁성격이	-13308
ala	-13309
▁합법	-13310
▁1.2	-13311
▁조금씩	-13312
퍼니	-13313
▁노인	-13314
▁대령	-13315
▁브뤼	-13316
▁우드	-13317
!!12	-13318
진군	-13319
▁연봉	-13320
▁제인	-13321
▁낳았다	-13322
▁일찍이	-13323
▁:::::	-13324
▁규격	-13325
▁제프	-13326
▁핸드	-13327
사추	-13328
▁야당	-13329
▁one	-13330
rangle	-13331
도전	-13332
▁민영	-13333
▁관광객	-13334
ola	-13335
▁내륙	-13336
▁조직을	-13337
사관학교	-13338
▁3)	-13339
디의	-13340
▁무상	-13341
gn	-13342
▁ap	-13343
▁밑에	-13344
▁뒤인	-13345
▁신임	-13346
▁재활	-13347
동에서	-13348
▁Her	-13349
▁Class	-13350
비키	-13351
주얼	-13352
회원	-13353
▁방식은	-13354
▁국경을	-13355
▁기자회	-13356
▁중심의	-13357
▁해군의	-13358
▁댓	-13359
그는	-13360
uzz	-13361
▁명예의	-13362
▁충격을	-13363
▁공민	-13364
▁터보	-13365
계승	-13366
사자	-13367
타수	-13368
▁디렉	-13369
:#000000	-13370
LL	-13371
님께	-13372
언론	-13373
표준	-13374
▁진정	-13375
차단	-13376
▁사르	-13377
▁사적	-13378
우트	-13379
▁불을	-13380
▁역설	-13381
메이지	-13382
lege	-13383
▁통폐합	-13384
▁투표를	-13385
▁대행	-13386
ique	-13387
ulture	-13388
uit	-13389
idas	-13390
▁것인데	-13391
▁나가노	-13392
▁영어로	-13393
대통령령	-13394
▁엽	-13395
디가	-13396
space	-13397
한자	-13398
▁나눠	-13399
▁군대가	-13400
▁음반은	-13401
▁Đ	-13402
▁문화적	-13403
▁대학에서	-13404
▁협의	-13405
▁!23	-13406
▁주장은	-13407
▁체제를	-13408
▁기록하는	-13409
▁새누리당	-13410
》:	-13411
▁복선	-13412
▁하버드	-13413
▁(1):	-13414
DE	-13415
할때	-13416
기이다	-13417
▁진출에	-13418
(2012	-13419
0000;"|	-13420
RC	-13421
▁창의	-13422
▁중이던	-13423
경상남도	-13424
바닥	-13425
유리	-13426
▁되돌아	-13427
샐러맨더	-13428
▁Center	-13429
▁품질	-13430
미치	-13431
▁결론	-13432
▁때때로	-13433
▁어두운	-13434
▁운동이	-13435
▁산림	-13436
▁중심기압	-13437
pmatrix	-13438
영웅	-13439
▁도심	-13440
▁실점	-13441
▁이처럼	-13442
DI	-13443
▁수평	-13444
연합회	-13445
▁원자로	-13446
▁힘든	-13447
type	-13448
▁필요하다고	-13449
variant	-13450
움이	-13451
▁더빙	-13452
▁자의	-13453
▁거리가	-13454
!!9	-13455
▁의문	-13456
iev	-13457
▁마시	-13458
▁아담	-13459
▁안티	-13460
▁원제	-13461
▁2.5	-13462
▁United	-13463
▁차장	-13464
▁군대는	-13465
반응	-13466
▁무늬	-13467
▁십자가	-13468
건축	-13469
▁배신	-13470
▁다음이	-13471
▁일본에서는	-13472
▁German	-13473
?--	-13474
▁신이	-13475
▁용이	-13476
▁일시적으로	-13477
북한	-13478
▁포크	-13479
▁!22	-13480
울산	-13481
▁퇴각	-13482
▁교수로	-13483
▁86	-13484
▁역과	-13485
▁열고	-13486
▁우울	-13487
▁길이가	-13488
▁대서양	-13489
▁몬트리올	-13490
▁촌이	-13491
!!11	-13492
▁오케스트라	-13493
▁新	-13494
▁74	-13495
▁나이가	-13496
▁사무소	-13497
하였다는	-13498
▁있었다는	-13499
▁개최되었다	-13500
El	-13501
타인	-13502
▁옌	-13503
편을	-13504
▁세월	-13505
마르크	-13506
▁않았기	-13507
▁치렀다	-13508
▁넘겨주기	-13509
=18	-13510
▁경신	-13511
▁기숙	-13512
▁:;	-13513
있으며	-13514
▁무대에	-13515
▁유로파	-13516
글리	-13517
명칭	-13518
▁참가하여	-13519
▁믿고	-13520
▁나갔다	-13521
석과	-13522
인구	-13523
▁상수	-13524
ruct	-13525
▁Ann	-13526
▁사망하고	-13527
국적	-13528
▁CBS	-13529
▁언어로	-13530
▁올리는	-13531
업무	-13532
티오피아	-13533
ula	-13534
▁낙선	-13535
▁민사	-13536
편으로	-13537
매치	-13538
키지	-13539
▁맥도	-13540
▁위임	-13541
레이트	-13542
~15	-13543
▁안장	-13544
▁국가에서	-13545
FE	-13546
위성	-13547
인한	-13548
▁요정	-13549
▁내용으로	-13550
2(	-13551
수욕	-13552
caps	-13553
▁곡으로	-13554
▁멜로디	-13555
▁띤	-13556
▁모하	-13557
▁부서	-13558
▁78	-13559
▁석탄	-13560
▁사카이	-13561
▁재산을	-13562
▁서울에서	-13563
~5	-13564
민은	-13565
반도	-13566
셨으면	-13567
네트워크	-13568
▁Prin	-13569
비나	-13570
▁구동	-13571
텔레콤	-13572
▁요소를	-13573
▁참여하는	-13574
normal	-13575
adem	-13576
▁이었다	-13577
▁한성부	-13578
ality	-13579
▁출전했다	-13580
▁Cambridge	-13581
aby	-13582
▁결코	-13583
▁공모	-13584
▁활성	-13585
애니메이션	-13586
~6	-13587
변을	-13588
▁관련한	-13589
▁모델은	-13590
▁드라이버	-13591
▁극히	-13592
▁부를	-13593
▁향후	-13594
▁리비아	-13595
당하였다	-13596
▁당신	-13597
▁부수	-13598
▁쿠르	-13599
中學校	-13600
▁발견한	-13601
▁정보통신	-13602
(9	-13603
▁전압	-13604
종실록	-13605
▁(8)	-13606
▁둘러싼	-13607
▁승부차	-13608
▁후반에	-13609
▁하였는데	-13610
▁하인리히	-13611
▁Oxford	-13612
▁전인	-13613
제일	-13614
Par	-13615
pril	-13616
▁바꾸었다	-13617
지명	-13618
▁LP	-13619
▁상동	-13620
▁연구는	-13621
▁본격적인	-13622
.17	-13623
par	-13624
공산당	-13625
아름	-13626
▁펜실	-13627
▁획득하였다	-13628
,《	-13629
▁수동	-13630
▁술탄	-13631
▁직선	-13632
▁호위	-13633
▁무소속	-13634
ington	-13635
Col	-13636
▁교실	-13637
▁불이	-13638
방송사	-13639
▁교수는	-13640
▁생각할	-13641
▁유카	-13642
▁항공모	-13643
요리	-13644
▁!24	-13645
▁피부	-13646
슬란드	-13647
▁알려지지	-13648
설이	-13649
▁89	-13650
▁유해	-13651
▁각본가	-13652
▁되었을	-13653
비서	-13654
태후	-13655
erd	-13656
▁Inc	-13657
▁라트비아	-13658
▁시스템의	-13659
진에	-13660
▁리에	-13661
.07.	-13662
▁덤	-13663
번역	-13664
▁더글	-13665
▁어려움을	-13666
wa	-13667
토는	-13668
▁데이빗	-13669
▁시작해	-13670
▁시스템은	-13671
gy	-13672
참여	-13673
▁의병	-13674
▁택시	-13675
라이드	-13676
▁엘리베이터	-13677
▁오피스	-13678
▁모형	-13679
▁조부	-13680
▁환원	-13681
ival	-13682
▁1889	-13683
▁이노우에	-13684
▁†	-13685
▁룰	-13686
vi	-13687
ра	-13688
▁밀어	-13689
▁에우	-13690
▁분야에	-13691
▁우승에	-13692
TE	-13693
▁한민족	-13694
바리	-13695
▁사와	-13696
▁서남	-13697
▁얘기	-13698
rich	-13699
▁정사	-13700
판에서	-13701
Fran	-13702
타리	-13703
▁카를로스	-13704
시에는	-13705
▁Heart	-13706
무로	-13707
적이었다	-13708
▁캄보디아	-13709
철학	-13710
▁84	-13711
▁내린	-13712
▁높이기	-13713
▁3·	-13714
▁해밀	-13715
스카이	-13716
▁강점기	-13717
▁여행을	-13718
▁특유의	-13719
▁판결을	-13720
▁획득했다	-13721
짜리	-13722
306	-13723
▁각기	-13724
▁제갈	-13725
해지는	-13726
ering	-13727
스케이	-13728
▁기록에	-13729
▁아이치	-13730
심사	-13731
▁분배	-13732
▁살던	-13733
▁연령	-13734
▁절차	-13735
▁트리플	-13736
▁내외	-13737
▁아폴	-13738
▁부회장	-13739
▁달러를	-13740
▁August	-13741
ст	-13742
트맨	-13743
▁서정	-13744
175.	-13745
위에서	-13746
▁규정에	-13747
(-	-13748
▁Pe	-13749
▁유희열	-13750
▁종로구	-13751
▁지정되어	-13752
▁헌법재판	-13753
장치	-13754
104	-13755
러드	-13756
▁93	-13757
▁식별	-13758
▁좌절	-13759
▁청원	-13760
로더	-13761
▁연수	-13762
▁어려워	-13763
▁serif	-13764
히데	-13765
▁팽창	-13766
▁900	-13767
항은	-13768
확인	-13769
▁용의	-13770
자스	-13771
카트	-13772
▁마인	-13773
▁정유	-13774
부장관	-13775
행위를	-13776
▁사이에는	-13777
▁삼성전자	-13778
치면서	-13779
▁와일드	-13780
▁출처를	-13781
▁봉해졌다	-13782
개최	-13783
외교	-13784
즈에	-13785
101	-13786
▁말고	-13787
▁about	-13788
▁바실	-13789
▁조례	-13790
▁죽이고	-13791
:#669966">	-13792
:#996699">	-13793
DR	-13794
주택	-13795
▁평등	-13796
디지털	-13797
▁1902	-13798
체제	-13799
▁후배	-13800
았습니다	-13801
▁자신도	-13802
ua	-13803
▁스폰	-13804
Cour	-13805
▁프로토콜	-13806
산맥	-13807
▁칭찬	-13808
▁1890	-13809
부키	-13810
lev	-13811
▁공전	-13812
▁전염	-13813
▁스케이팅	-13814
릴라	-13815
med	-13816
▁목표를	-13817
▁마케도니아	-13818
민주연합	-13819
BE	-13820
간을	-13821
개는	-13822
직할	-13823
▁Mor	-13824
길을	-13825
▁바꾸어	-13826
ident	-13827
{|	-13828
두는	-13829
▁Oct	-13830
▁공간의	-13831
신인	-13832
씨와	-13833
▁이천	-13834
학년도	-13835
▁하겠습니다	-13836
지상	-13837
▁==	-13838
▁난징	-13839
▁미토	-13840
▁박경	-13841
▁비정	-13842
▁에이지	-13843
▁Associ	-13844
▁흥선	-13845
▁이적했다	-13846
▁일러스트	-13847
▁회의에서	-13848
▁정선	-13849
번으로	-13850
▁두드러	-13851
▁영의정	-13852
▁bottom	-13853
신라	-13854
▁Dr	-13855
▁난이	-13856
burg	-13857
▁폴란드의	-13858
▁82	-13859
▁제이슨	-13860
▁선언했다	-13861
▁]	-13862
서도	-13863
티는	-13864
▁지중해	-13865
우며	-13866
▁배달	-13867
▁이별	-13868
▁지각	-13869
▁직통	-13870
▁흥행	-13871
▁때로는	-13872
▁1903	-13873
▁물에	-13874
▁탐정	-13875
▁현의	-13876
▁OF	-13877
▁랜드	-13878
circ	-13879
▁등이다	-13880
▁학교에	-13881
▁이방	-13882
▁주행	-13883
▁통근	-13884
▁(1979	-13885
▁인격	-13886
▁돌아갔다	-13887
▁문화체육	-13888
▁주축	-13889
▁무지	-13890
▁게임은	-13891
▁시절부터	-13892
raw	-13893
▁권장	-13894
▁글이	-13895
▁광저우	-13896
▁드러나	-13897
▁바꾸는	-13898
2}	-13899
아래	-13900
▁국군	-13901
▁대승	-13902
▁요시다	-13903
▁사나이	-13904
속도	-13905
▁헬로	-13906
=50|	-13907
▁같네요	-13908
▁킴	-13909
조제	-13910
크리스	-13911
▁2-1	-13912
나시	-13913
▁거짓말	-13914
AX	-13915
▁깨닫	-13916
▁후한	-13917
▁주에서	-13918
곡이	-13919
▁조영	-13920
행선	-13921
▁전례	-13922
망의	-13923
▁넣고	-13924
▁전제	-13925
가면	-13926
▁증권	-13927
교로	-13928
▁콜린	-13929
▁힌두	-13930
▁시대를	-13931
▁정부와	-13932
▁인정하지	-13933
▁쇼군	-13934
▁퀴즈	-13935
▁더이상	-13936
▁키타	-13937
▁아인	-13938
매매	-13939
unic	-13940
▁오리온	-13941
▁물건	-13942
▁서원	-13943
▁않았다고	-13944
▁낮아	-13945
파리	-13946
▁민속	-13947
▁220	-13948
마이뉴스	-13949
ston	-13950
▁나타낼	-13951
▁했습니다	-13952
++	-13953
▁트래	-13954
▁한계	-13955
▁미만	-13956
▁원산	-13957
▁나섰다	-13958
▁최소한	-13959
▁군을	-13960
▁소지	-13961
▁지고	-13962
▁치열	-13963
음반	-13964
ipp	-13965
콜라	-13966
▁MTV	-13967
▁프리미엄	-13968
riv	-13969
▁접수	-13970
▁First	-13971
빌딩	-13972
▁("	-13973
▁경계를	-13974
-29	-13975
sto	-13976
▁공감	-13977
▁최후	-13978
▁보스니아	-13979
▁비슷하다	-13980
자도	-13981
▁문법	-13982
▁기록해	-13983
레아	-13984
▁양주	-13985
▁호조	-13986
▁대상을	-13987
▁중심이	-13988
border	-13989
펜하	-13990
▁선이	-13991
▁섬식	-13992
▁개념은	-13993
▁한국전쟁	-13994
알라	-13995
▁출시된	-13996
레는	-13997
▁서초	-13998
▁사람과	-13999
▁이론은	-14000
▁형식을	-14001
달아	-14002
ump	-14003
▁니혼	-14004
▁근처의	-14005
야가	-14006
▁기어	-14007
▁볼리	-14008
ales	-14009
▁화제가	-14010
CO	-14011
▁Rel	-14012
▁똑같은	-14013
▁초점을	-14014
희가	-14015
▁출가	-14016
》〈	-14017
▁두루	-14018
▁대회는	-14019
▁활동은	-14020
먼드	-14021
파르	-14022
▁적혀	-14023
▁기여했다	-14024
▁71	-14025
▁87	-14026
▁무궁	-14027
▁하남	-14028
작으로	-14029
▁과정에	-14030
▁제국은	-14031
▁비슷하게	-14032
주년을	-14033
▁data	-14034
참가	-14035
▁원리	-14036
▁히메	-14037
가에서	-14038
isch	-14039
▁God	-14040
▁Island	-14041
업에	-14042
▁협정	-14043
▁소수의	-14044
(2000	-14045
에스	-14046
▁문제의	-14047
▁시기의	-14048
▁지역과	-14049
조각	-14050
▁성주	-14051
▁전념	-14052
부르	-14053
신경	-14054
▁DC	-14055
▁SE	-14056
▁복제	-14057
▁본선의	-14058
▁우체국	-14059
bin	-14060
▁돌연	-14061
▁제트	-14062
학교로	-14063
▁가나가와	-14064
▁브라우저	-14065
네가	-14066
우기	-14067
음과	-14068
▁님이	-14069
▁성벽	-14070
▁창시	-14071
▁타츠	-14072
reet	-14073
▁Christian	-14074
자르	-14075
▁연쇄	-14076
▁이타	-14077
▁나이지	-14078
▁현대자동차	-14079
-24	-14080
▁협약	-14081
▁조건이	-14082
▁사용될	-14083
▁가고시마	-14084
히트	-14085
▁Ste	-14086
▁시즌이	-14087
하이오	-14088
▁왕으로	-14089
▁코스타	-14090
풍속	-14091
tvN	-14092
▁국유	-14093
▁삼척	-14094
▁차량은	-14095
▁임명되어	-14096
운다	-14097
▁Not	-14098
▁적합한	-14099
미로	-14100
▁8.	-14101
▁이범	-14102
▁건물을	-14103
스부르크	-14104
▁100%	-14105
inh	-14106
▁경호	-14107
까지만	-14108
HA	-14109
▁히카	-14110
사실	-14111
악한	-14112
/10	-14113
urs	-14114
▁:(	-14115
▁테이블	-14116
▁March	-14117
And	-14118
▁보여주었다	-14119
▁한국에서는	-14120
td	-14121
하실	-14122
▁유언	-14123
▁적고	-14124
렸으나	-14125
▁접하고	-14126
▁제안을	-14127
▁앓	-14128
▁받기	-14129
▁왜냐	-14130
▁pre	-14131
▁장애인	-14132
용은	-14133
▁무슬림	-14134
▁지어진	-14135
▁다이스케	-14136
eptember	-14137
사구	-14138
▁여덟	-14139
▁짱	-14140
大夫	-14141
▁대통령을	-14142
▁시대에는	-14143
▁中	-14144
올라	-14145
▁담긴	-14146
▁세라	-14147
▁사용자에게	-14148
▁칼라	-14149
▁치료를	-14150
▁않았으나	-14151
▁Research	-14152
▁상담	-14153
▁신념	-14154
▁아역	-14155
▁증축	-14156
헌법	-14157
put	-14158
해주는	-14159
니즈	-14160
이야기	-14161
직에서	-14162
ittle	-14163
리조	-14164
외선	-14165
▁꼬마	-14166
▁왕복	-14167
▁진급	-14168
시까지	-14169
▁LIVE	-14170
▁빌려	-14171
oe	-14172
▁성모	-14173
▁신정	-14174
▁군사적	-14175
▁Serv	-14176
▁처음부터	-14177
▁프로젝트를	-14178
df	-14179
임에도	-14180
▁블루스	-14181
~12	-14182
▁1897	-14183
▁참여하여	-14184
산초등학교	-14185
메다	-14186
▁유소년	-14187
bi	-14188
술사	-14189
파인	-14190
▁마약	-14191
▁투수가	-14192
▁고조	-14193
▁카를로	-14194
▁음원	-14195
▁트랜스	-14196
otimes	-14197
공이	-14198
국사	-14199
Gon	-14200
▁도주	-14201
▁제압	-14202
▁현황	-14203
▁일원으로	-14204
▁ag	-14205
▁여부	-14206
▁노르웨	-14207
▁승리한	-14208
녀의	-14209
.13	-14210
▁병행	-14211
▁소실	-14212
목소리	-14213
오나	-14214
▁스리	-14215
▁학과	-14216
Revi	-14217
▁우주의	-14218
▁Institute	-14219
전도	-14220
▁김제	-14221
▁아이슬란드	-14222
Di	-14223
на	-14224
▁Ke	-14225
▁오라	-14226
서기	-14227
▁끝이	-14228
▁gen	-14229
▁Video	-14230
▁왕족	-14231
▁초창	-14232
▁바이러	-14233
▁지명을	-14234
▁State	-14235
▁증기	-14236
경향신문	-14237
▁성당	-14238
▁피해자	-14239
▁일본국유철도	-14240
나눔스퀘어	-14241
▁프로그램이	-14242
▁이누	-14243
▁Ber	-14244
▁기능은	-14245
usiness	-14246
-27	-14247
DVD	-14248
▁마천루	-14249
▁외곽	-14250
▁생성된	-14251
▁제주도	-14252
erence	-14253
sf	-14254
▁성은	-14255
▁포드	-14256
클랜드	-14257
▁경찰서	-14258
197.3	-14259
국민학교로	-14260
25)	-14261
▁박쥐	-14262
▁앵커	-14263
▁꿈꾸	-14264
▁캐서	-14265
베니아	-14266
▁올리기	-14267
▁시뮬	-14268
UR	-14269
대우	-14270
작의	-14271
히라	-14272
▁놓은	-14273
북이	-14274
청을	-14275
AND	-14276
▁매직	-14277
ba	-14278
▁껍	-14279
석탑	-14280
야를	-14281
행동	-14282
▁세균	-14283
▁형법	-14284
ober	-14285
▁성공한	-14286
OG	-14287
rap	-14288
게이트	-14289
▁위키프로젝트	-14290
▁갈릴	-14291
▁실린	-14292
▁하워드	-14293
▁무서	-14294
▁액체	-14295
▁토르	-14296
지역의	-14297
▁서재필	-14298
night	-14299
▁연구하는	-14300
▁Album	-14301
^3	-14302
▁붓	-14303
▁치명	-14304
▁버려	-14305
▁실질적인	-14306
▁위장	-14307
진으로	-14308
▁영감을	-14309
▁윌리엄스	-14310
▁오스트리아의	-14311
츠와	-14312
생으로	-14313
▁직접적으로	-14314
▁카탈	-14315
▁떨어지는	-14316
▁아시안컵	-14317
▁CS	-14318
Don	-14319
▁불어	-14320
▁시호는	-14321
▁미루	-14322
▁이바	-14323
▁spec	-14324
▁Super	-14325
충청	-14326
▁지미	-14327
▁플레이스테이션	-14328
▁실력	-14329
▁엄격	-14330
▁긍정적인	-14331
▁스톡	-14332
▁넣었다	-14333
▁르네상	-14334
▁담당하고	-14335
▁선수들이	-14336
▁보라	-14337
▁지능	-14338
▁짓고	-14339
ister	-14340
모노	-14341
방식	-14342
▁달러의	-14343
▁왕위를	-14344
▁철도역	-14345
▁사육	-14346
▁IBM	-14347
▁(1980	-14348
BB	-14349
將軍	-14350
도라	-14351
무장	-14352
▁몬테	-14353
▁조현	-14354
▁여기에서	-14355
▁김미	-14356
▁탱크	-14357
▁관습	-14358
▁성종	-14359
▁유산	-14360
▁Pre	-14361
▁주파수	-14362
▁되지만	-14363
나눔스퀘어라운드	-14364
자금	-14365
▁전날	-14366
▁다리를	-14367
▁얼굴을	-14368
▁Ø	-14369
▁면허	-14370
▁How	-14371
▁간사이	-14372
▁개혁을	-14373
▁에티오피아	-14374
▁삼촌	-14375
▁최영	-14376
▁sup	-14377
▁그다지	-14378
▁작품에	-14379
▁차원에서	-14380
▁타이거스	-14381
Go	-14382
▁중대	-14383
▁그리스어	-14384
▁하니	-14385
▁미술관	-14386
지식	-14387
▁최악의	-14388
▁링컨	-14389
▁있었을	-14390
▁파일이	-14391
사추세츠	-14392
대손	-14393
Omega	-14394
▁이루었다	-14395
경유지	-14396
▁전투기	-14397
▁모델이다	-14398
▁조별리그	-14399
▁9.	-14400
▁문명	-14401
▁Fre	-14402
ady	-14403
▁유네스코	-14404
▁동남아시아	-14405
▁김도	-14406
fter	-14407
▁제국이	-14408
경비	-14409
위기	-14410
위해	-14411
자동	-14412
▁Mi	-14413
▁군은	-14414
특히	-14415
▁안보	-14416
▁Ang	-14417
175.197.3	-14418
림의	-14419
인명	-14420
▁뉴턴	-14421
▁둘은	-14422
▁싶다	-14423
▁몸이	-14424
▁앞의	-14425
시트콤	-14426
▁Pres	-14427
▁work	-14428
▁양키	-14429
▁res	-14430
▁빔	-14431
러가	-14432
mas	-14433
▁차가	-14434
불교의	-14435
▁전도	-14436
FL	-14437
▁피겨	-14438
▁차지한	-14439
3">	-14440
Sch	-14441
▁대피	-14442
▁아쿠	-14443
▁쫓겨	-14444
code	-14445
▁과정은	-14446
▁지배를	-14447
▁2010.	-14448
▁뉘	-14449
▁출전해	-14450
▁활발한	-14451
▁2008.	-14452
시카	-14453
▁리눅스	-14454
▁아니라는	-14455
레의	-14456
양은	-14457
▁곤란	-14458
▁붙은	-14459
ophy	-14460
▁Work	-14461
미트	-14462
통제	-14463
▁만나는	-14464
▁Russ	-14465
▁만일	-14466
▁계정이	-14467
▁대한항공	-14468
▁아버지와	-14469
엔터테인먼트	-14470
번은	-14471
AGB	-14472
▁레이디	-14473
수면	-14474
bit	-14475
▁정성	-14476
화하고	-14477
대회에서	-14478
press	-14479
▁줄기	-14480
득표수	-14481
토막글	-14482
▁간호사	-14483
▁소재로	-14484
▁점이다	-14485
▁식당	-14486
▁현저	-14487
FI	-14488
▁공사가	-14489
스기	-14490
현에	-14491
irt	-14492
▁예배	-14493
▁남아있다	-14494
▁Museum	-14495
▁드리	-14496
▁리사	-14497
▁마르코	-14498
▁아름다	-14499
▁중심지	-14500
▁챌린지	-14501
▁고분	-14502
▁휴식	-14503
▁End	-14504
▁넘어가	-14505
▁딕	-14506
▁기업인	-14507
▁TR	-14508
▁동형	-14509
▁외래	-14510
▁캠퍼	-14511
우리는	-14512
▁것보다	-14513
역할	-14514
▁부딪	-14515
▁일명	-14516
▁측면에서	-14517
▁활약하였다	-14518
ân	-14519
사쿠	-14520
▁리우	-14521
▁LOVE	-14522
▁보여주고	-14523
▁댐	-14524
도스	-14525
피의	-14526
▁79	-14527
미술관	-14528
복합	-14529
▁에스토니아	-14530
yc	-14531
소득	-14532
량으로	-14533
하였기	-14534
▁브로드	-14535
결합	-14536
▁뻔	-14537
온이	-14538
▁당원	-14539
▁던져	-14540
▁싸이	-14541
▁차량이	-14542
칼라	-14543
▁유죄	-14544
인가요	-14545
더군요	-14546
준은	-14547
▁탈환	-14548
▁협주곡	-14549
▁제외하면	-14550
ffffff	-14551
:9	-14552
▁입니다	-14553
▁중재위원	-14554
닐라	-14555
duc	-14556
eek	-14557
▁본관	-14558
▁미야자키	-14559
▁프랑수아	-14560
▁adidas	-14561
곡동	-14562
슨이	-14563
아니	-14564
▁종족	-14565
▁즉각	-14566
▁have	-14567
AY	-14568
bol	-14569
▁나인	-14570
▁다항	-14571
▁러셀	-14572
="5"	-14573
▁뜨거운	-14574
▁다이아몬드	-14575
▁요크	-14576
리면서	-14577
pen	-14578
▁동년	-14579
▁입원	-14580
ling	-14581
▁고려의	-14582
▁만났다	-14583
▁전쟁으로	-14584
til	-14585
▁모방	-14586
영업	-14587
▁(1978	-14588
본은	-14589
되지는	-14590
미스터	-14591
▁Sim	-14592
▁다중계정	-14593
▁불리기도	-14594
▁2009.	-14595
▁조언	-14596
▁키보드	-14597
▁남겼	-14598
▁레이싱	-14599
▁보이스	-14600
양성	-14601
▁염색	-14602
동이다	-14603
▁보다는	-14604
▁체계를	-14605
▁June	-14606
uto	-14607
사랑의	-14608
▁만의	-14609
▁해변	-14610
것으로	-14611
▁NBA	-14612
']	-14613
상도	-14614
▁94	-14615
▁섭취	-14616
▁아크	-14617
▁거주하는	-14618
▁분리되어	-14619
름은	-14620
▁사면	-14621
바이잔	-14622
wikit	-14623
▁스튜어트	-14624
▁평창	-14625
▁자세히	-14626
▁소울	-14627
▁신생	-14628
세에게	-14629
\{	-14630
▁kt	-14631
▁섬을	-14632
▁않으	-14633
file	-14634
▁매체	-14635
▁입체	-14636
▁영역을	-14637
▁일본을	-14638
널티	-14639
목의	-14640
atin	-14641
▁건너가	-14642
▁지휘관	-14643
▁창원시	-14644
▁게오	-14645
▁한인	-14646
강점	-14647
클로	-14648
▁국소	-14649
▁단기	-14650
▁영조	-14651
▁채권	-14652
이었기	-14653
0000">	-14654
yt	-14655
항의	-14656
opl	-14657
▁국가에	-14658
▁손가락	-14659
▁끓	-14660
수지	-14661
▁성공적인	-14662
▁구마모토	-14663
▁시작된다	-14664
▁이후부터	-14665
▁(1984	-14666
▁주장한	-14667
▁중앙에	-14668
▁왕실	-14669
▁워터	-14670
장이다	-14671
제르바이잔	-14672
메가	-14673
▁어뢰	-14674
테이션	-14675
▁제독	-14676
▁중종	-14677
▁명백한	-14678
▁2006)	-14679
▁캘리포니아주	-14680
교는	-14681
세자	-14682
천년	-14683
30)	-14684
▁타이거즈	-14685
▁권위	-14686
▁바위	-14687
▁실려	-14688
▁최강	-14689
▁터치	-14690
거리는	-14691
page	-14692
▁니가타	-14693
▁전투는	-14694
▁한스	-14695
▁외교관	-14696
(2013	-14697
내어	-14698
▁청소	-14699
▁힘입	-14700
▁카우	-14701
▁제주특별자치도	-14702
▁서울대	-14703
=20%|	-14704
▁현존하는	-14705
진우	-14706
▁83	-14707
▁PM	-14708
▁기적	-14709
▁당일	-14710
▁해소	-14711
▁차단이	-14712
년대부터	-14713
보스	-14714
▁광양	-14715
▁낱말	-14716
▁반경	-14717
▁대학에	-14718
▁집계	-14719
포인트	-14720
▁제네바	-14721
따라	-14722
추는	-14723
▁버펄	-14724
▁보강	-14725
이면서	-14726
▁졸업했다	-14727
▁신탁	-14728
▁공사를	-14729
▁아마도	-14730
▁황제가	-14731
속을	-14732
재산	-14733
▁깨달	-14734
▁정밀	-14735
▁학위	-14736
▁누구나	-14737
-50	-14738
▁격퇴	-14739
▁박스	-14740
▁니콜라	-14741
▁자유로운	-14742
▁website	-14743
집니다	-14744
▁인근에	-14745
▁친일반	-14746
▁받았으나	-14747
▁시즌에는	-14748
키와	-14749
▁비유	-14750
▁중독	-14751
▁초월	-14752
기관의	-14753
▁권한이	-14754
▁무기를	-14755
▁Mark	-14756
판과	-14757
▁재검	-14758
▁레슬링	-14759
한정	-14760
▁ne	-14761
▁라우	-14762
▁현행	-14763
시키며	-14764
▁0.5	-14765
▁키프로	-14766
관보	-14767
▁래퍼	-14768
▁바나	-14769
▁위기를	-14770
▁중기의	-14771
▁전통적으로	-14772
ME	-14773
버렸다	-14774
타리오	-14775
▁경력을	-14776
▁무거운	-14777
▁성공회	-14778
▁부분의	-14779
▁프로레	-14780
▁알바니아	-14781
주지	-14782
▁길게	-14783
▁손녀	-14784
▁닌텐도	-14785
▁스파르타	-14786
▁한국철도	-14787
▁아침드라마	-14788
▁무술	-14789
▁이모	-14790
위원회를	-14791
트르	-14792
▁박준	-14793
▁악마	-14794
리야	-14795
▁작센	-14796
▁지상파	-14797
▁진행된	-14798
▁태어남	-14799
ccess	-14800
▁자본주의	-14801
▁프랑스와	-14802
▁누적	-14803
▁법조	-14804
▁따른다	-14805
▁준비를	-14806
BI	-14807
▁def	-14808
▁var	-14809
▁개발된	-14810
▁기준이	-14811
지붕	-14812
▁전무	-14813
eration	-14814
리니	-14815
어족	-14816
▁칼럼	-14817
▁350	-14818
▁2,000	-14819
▁만세	-14820
▁이산	-14821
▁Mem	-14822
▁결정적인	-14823
▁부제	-14824
▁수습	-14825
▁알지	-14826
▁(9)	-14827
▁턱	-14828
노는	-14829
▁핑크	-14830
back	-14831
▁생겼다	-14832
▁재혼	-14833
▁추상	-14834
▁도둑	-14835
▁위협을	-14836
▁지키는	-14837
;"|19	-14838
Am	-14839
ti	-14840
도바	-14841
▁의견에	-14842
▁학교에서	-14843
께끼	-14844
냐는	-14845
질로	-14846
▁기습	-14847
▁입자	-14848
▁von	-14849
▁비난을	-14850
▁코치로	-14851
▁적극적인	-14852
ference	-14853
통의	-14854
▁갈아	-14855
▁넣은	-14856
▁방식이	-14857
루트	-14858
▁않아서	-14859
▁그리스도의	-14860
팀인	-14861
~17	-14862
▁때려	-14863
▁작고	-14864
메이트	-14865
▁단위로	-14866
▁Story	-14867
겨울	-14868
▁쓰기	-14869
▁구조는	-14870
▁불교의	-14871
수인	-14872
▁북쪽에	-14873
▁세상에	-14874
▁에디션	-14875
▁방법이다	-14876
▁전체가	-14877
▁대한민국은	-14878
찬성	-14879
▁가동	-14880
무스메	-14881
워서	-14882
▁조이	-14883
▁중에서는	-14884
대중	-14885
▁we	-14886
▁장녀	-14887
▁건물이	-14888
▁Volume	-14889
▁쇼와	-14890
관리청	-14891
욕을	-14892
하트	-14893
▁하동	-14894
▁Fri	-14895
▁난카이	-14896
▁남기고	-14897
▁추산으로	-14898
토크	-14899
포터	-14900
▁CR	-14901
▁후보를	-14902
▁사용하면	-14903
▁때가	-14904
▁깜	-14905
끄러운	-14906
양함	-14907
흥군	-14908
▁시바	-14909
▁싣	-14910
▁Em	-14911
▁간단히	-14912
▁절차를	-14913
▁플러스	-14914
사시	-14915
▁매치	-14916
▁상원	-14917
봉사	-14918
야만	-14919
▁91	-14920
▁CM	-14921
▁IV	-14922
▁배려	-14923
gray	-14924
▁마쳤다	-14925
▁모니터	-14926
▁영국은	-14927
▁주장에	-14928
▁차례로	-14929
하였다가	-14930
▁섬유	-14931
▁어찌	-14932
mode	-14933
▁연방의	-14934
▁이듬해인	-14935
▁DS	-14936
▁리그에	-14937
▁아래로	-14938
▁제시한	-14939
▁대신하여	-14940
▁Wil	-14941
진구	-14942
▁증손	-14943
렸는데	-14944
어지는	-14945
▁man	-14946
On	-14947
달의	-14948
▁주체	-14949
▁품고	-14950
▁여학생	-14951
▁셸	-14952
▁조리	-14953
▁공격에	-14954
▁수술을	-14955
Pl	-14956
천을	-14957
▁이브	-14958
▁제재	-14959
▁대회의	-14960
▁이루어지고	-14961
Courier	-14962
▁쌓아	-14963
▁대한민국에	-14964
강에서	-14965
▁기존에	-14966
▁모델을	-14967
▁움직임	-14968
(2005	-14969
▁존재하며	-14970
냈고	-14971
플래	-14972
▁바닷	-14973
▁얻고	-14974
▁선수는	-14975
그의	-14976
언스	-14977
화하여	-14978
▁일하는	-14979
▁블라디미르	-14980
윤성현	-14981
숙종	-14982
게이머	-14983
▁플라이	-14984
▁수행하는	-14985
archive	-14986
원장	-14987
▁모자	-14988
▁총대	-14989
▁사회에	-14990
▁뭉	-14991
▁Que	-14992
▁기간을	-14993
▁대위	-14994
▁바꿀	-14995
나가는	-14996
▁나가는	-14997
▁영화로	-14998
▁생각된다	-14999
역학	-15000
▁GS	-15001
▁성공하였다	-15002
▁유동	-15003
▁와중에	-15004
▁특징은	-15005
▁한다면	-15006
▁진행된다	-15007
링턴	-15008
레스트	-15009
▁그레고	-15010
▁조선인민	-15011
▁뱅	-15012
겠죠	-15013
골로	-15014
▁압둘	-15015
▁일조	-15016
▁계몽	-15017
▁레바	-15018
▁누르고	-15019
▁타점	-15020
▁해를	-15021
▁102	-15022
▁거슬러	-15023
▁계획에	-15024
▁발견했다	-15025
▁(1977	-15026
집단	-15027
▁가자	-15028
▁딸을	-15029
▁상용	-15030
세키	-15031
▁구할	-15032
▁기록했고	-15033
▁인정하고	-15034
,5	-15035
인기가	-15036
▁구조의	-15037
▁노부나가	-15038
박한	-15039
▁것인	-15040
▁앙리	-15041
▁억압	-15042
▁이대	-15043
▁체류	-15044
▁요구했다	-15045
▁하드웨어	-15046
▁정해진	-15047
▁왜냐하면	-15048
다드	-15049
▁스왈	-15050
▁오바	-15051
▁횟수	-15052
▁알렉스	-15053
ki	-15054
누마	-15055
운의	-15056
▁니코	-15057
▁장의	-15058
▁초반에	-15059
▁필요는	-15060
▁자격으로	-15061
▁프리큐어	-15062
개소	-15063
(?)	-15064
▁분쟁이	-15065
hPa	-15066
▁장인	-15067
증으로	-15068
▁들어갈	-15069
▁졸업하였다	-15070
▁늑대	-15071
▁상세	-15072
▁가솔린	-15073
▁신청을	-15074
▁정신적	-15075
▁특이한	-15076
class	-15077
▁멕시코의	-15078
▁체중	-15079
데라	-15080
▁이완	-15081
▁주류	-15082
▁USS	-15083
항에	-15084
베이니아	-15085
▁발매했다	-15086
람쥐	-15087
250	-15088
▁리나	-15089
▁쏟아	-15090
▁웹툰	-15091
▁해태	-15092
▁전자기	-15093
DC	-15094
액의	-15095
▁밝힌	-15096
▁라이선스	-15097
emplate	-15098
▁Pr	-15099
▁시칠	-15100
▁건물의	-15101
▁버전은	-15102
ellow	-15103
:6	-15104
▁대거	-15105
원숭이	-15106
▁고시엔	-15107
▁기간에	-15108
▁1-0	-15109
캐롤라이나	-15110
han	-15111
▁검정	-15112
▁수성	-15113
▁피츠	-15114
▁현급	-15115
▁단어를	-15116
▁마을의	-15117
▁2011.	-15118
▁James	-15119
방은	-15120
티의	-15121
▁발급	-15122
▁스킬	-15123
▁전한다	-15124
▁황해도	-15125
▁부평	-15126
▁가마쿠라	-15127
▁Lo	-15128
▁실망	-15129
▁어휘	-15130
▁공화당	-15131
창조	-15132
▁성서	-15133
▁재발	-15134
▁전격	-15135
▁전쟁은	-15136
▁민영화에	-15137
네는	-15138
의학	-15139
▁난민	-15140
▁워너	-15141
▁San	-15142
▁확인되었다	-15143
저지	-15144
key	-15145
▁부대를	-15146
▁판매량	-15147
(2014	-15148
나오	-15149
▁메카	-15150
▁진해	-15151
식에서	-15152
러의	-15153
허가	-15154
▁오로	-15155
▁순수한	-15156
▁죽음의	-15157
셈부르크	-15158
▁강점기의	-15159
▁신조	-15160
▁잡은	-15161
▁김정은	-15162
▁확실한	-15163
▁추정되는	-15164
sw	-15165
타입	-15166
▁재팬	-15167
▁하우	-15168
▁but	-15169
▁언급한	-15170
▁system	-15171
▁라이온즈	-15172
라쿠	-15173
▁담임	-15174
▁관리를	-15175
▁수상한	-15176
▁노동조합	-15177
los	-15178
관광부	-15179
▁일부로	-15180
▁장치를	-15181
▁패트릭	-15182
index	-15183
▁것으로서	-15184
ictionary	-15185
▁반해	-15186
▁진지	-15187
▁가난한	-15188
▁국내외	-15189
▁BO	-15190
▁이남	-15191
▁기념물	-15192
▁무실점	-15193
Sigma	-15194
ities	-15195
▁아이디얼	-15196
▁금호	-15197
▁급격히	-15198
▁트윈스	-15199
lease	-15200
▁2012.	-15201
WS	-15202
격이	-15203
변이	-15204
▁나미	-15205
▁모나	-15206
▁물리적	-15207
▁평범한	-15208
라트	-15209
도르프	-15210
란은	-15211
서야	-15212
제공	-15213
▁GP	-15214
▁UK	-15215
▁정조	-15216
▁애틀랜	-15217
▁헛	-15218
건강	-15219
카즈	-15220
학습	-15221
▁글자	-15222
▁넘버	-15223
관리자	-15224
▁등장했다	-15225
▁뜻의	-15226
▁독일에서	-15227
▁가네	-15228
▁대치	-15229
▁배상	-15230
문화사	-15231
▁111	-15232
▁승인을	-15233
▁콰	-15234
▁말기	-15235
▁오를	-15236
▁클럭	-15237
▁기회가	-15238
에미	-15239
▁성취	-15240
▁구조가	-15241
▁맏	-15242
모와	-15243
▁비오	-15244
▁충실	-15245
▁정하는	-15246
;;	-15247
▁투옥	-15248
▁Law	-15249
▁선발로	-15250
▁영상을	-15251
▁페널티	-15252
NG	-15253
대행	-15254
▁클라크	-15255
▁엔지니어	-15256
가쿠	-15257
.18	-15258
▁공채	-15259
년간의	-15260
년동안	-15261
▁뛰어나	-15262
▁사라진	-15263
▁쓰이고	-15264
▁진출했다	-15265
▁고령	-15266
원의원	-15267
▁차량의	-15268
▁상징하는	-15269
▁대백과사전	-15270
ification	-15271
계급	-15272
곡의	-15273
공급	-15274
▁분광	-15275
▁펌	-15276
▁첨가	-15277
▁최적	-15278
="15	-15279
▁Way	-15280
▁도라에몽	-15281
▁라이온스	-15282
▁불확	-15283
경찰청	-15284
▁사회를	-15285
▁크라이	-15286
(1,	-15287
omb	-15288
ria	-15289
컴퓨터	-15290
▁함으로써	-15291
▁거기서	-15292
conom	-15293
hi	-15294
·2	-15295
당해	-15296
유적	-15297
▁나눌	-15298
▁통용	-15299
로부터의	-15300
▁세워졌다	-15301
마당	-15302
홍보	-15303
▁국기	-15304
▁자제	-15305
ians	-15306
▁!27	-15307
▁구간의	-15308
▁닛폰햄	-15309
▁아버지를	-15310
목은	-15311
▁감안	-15312
▁1884	-15313
▁있으면서	-15314
▁(1983	-15315
호선과	-15316
ita	-15317
▁수색	-15318
▁응시	-15319
▁시절의	-15320
▁편집이	-15321
▁펼쳤다	-15322
/19	-15323
UTC	-15324
▁},	-15325
소송법	-15326
▁페르디	-15327
▁시작했으며	-15328
▁Ly	-15329
▁제노	-15330
▁측의	-15331
▁동대문	-15332
▁마음의	-15333
▁요구를	-15334
▁메시지를	-15335
▁대마	-15336
▁170	-15337
▁안되는	-15338
▁America	-15339
캐슬	-15340
-26	-15341
▁두는	-15342
▁이식	-15343
▁비판이	-15344
▁연결된	-15345
▁비례대표	-15346
▁States	-15347
만여	-15348
▁동점	-15349
▁호쿠	-15350
▁Ben	-15351
▁다를	-15352
▁서인	-15353
ather	-15354
함대	-15355
▁공인	-15356
▁헌터	-15357
▁밴드의	-15358
DL	-15359
내지	-15360
▁에밀	-15361
leg	-15362
▁매입	-15363
자였다	-15364
▁진출을	-15365
▁(10)	-15366
놀이	-15367
▁펜싱	-15368
▁호프	-15369
원곡	-15370
장로	-15371
▁프랑스에서	-15372
ota	-15373
방으로	-15374
▁엄격한	-15375
▁지역이다	-15376
▁활약하고	-15377
출을	-15378
푸스	-15379
▁상인	-15380
▁점에	-15381
▁발의	-15382
▁워크	-15383
▁미야기	-15384
▁시절에는	-15385
▁대관	-15386
▁커뮤니케이션	-15387
dom	-15388
▁반공	-15389
▁자릿	-15390
▁교수가	-15391
▁자금을	-15392
TO	-15393
과로	-15394
노르	-15395
▁분당	-15396
▁경주시	-15397
▁올바른	-15398
▁의식을	-15399
ongGon	-15400
생이	-15401
서부	-15402
▁정면	-15403
▁카롤	-15404
▁슬로바키아	-15405
▁토끼	-15406
▁자연스럽게	-15407
▁동행	-15408
▁폐위	-15409
▁리이다	-15410
▁소피아	-15411
▁스탈린	-15412
인기가요	-15413
▁사라졌다	-15414
▁멀티미디어	-15415
즈마	-15416
▁도미	-15417
▁피해가	-15418
판에서는	-15419
▁안토니오	-15420
▁지방에서	-15421
ocument	-15422
▁친일반민족행위	-15423
팀의	-15424
▁온갖	-15425
▁행성의	-15426
▁불가능한	-15427
▁입장에서	-15428
▁로열	-15429
▁아제르바이잔	-15430
▁대명	-15431
▁주를	-15432
▁이어진	-15433
Qu	-15434
풀이	-15435
%),	-15436
이탈리아	-15437
▁Company	-15438
레타	-15439
복음	-15440
▁5·	-15441
▁강행	-15442
▁기름	-15443
▁그래프	-15444
▁활약한	-15445
ating	-15446
rho	-15447
▁담겨	-15448
▁잃었다	-15449
년대에는	-15450
▁동명	-15451
▁포스	-15452
배차	-15453
▁않다고	-15454
ln	-15455
보르	-15456
▁교외	-15457
개월간	-15458
1015	-15459
경남	-15460
▁애칭	-15461
크리트	-15462
▁말하면	-15463
루아	-15464
티넘	-15465
학술	-15466
▁슈퍼컵	-15467
▁실패로	-15468
브르	-15469
▁김보	-15470
rict	-15471
▁사람도	-15472
▁참여하고	-15473
일부	-15474
▁Top	-15475
▁킥	-15476
검은	-15477
▁비용을	-15478
상으로는	-15479
▁부적절한	-15480
▁개인적으로	-15481
▁Church	-15482
GA	-15483
하로	-15484
▁틀은	-15485
궐선거	-15486
층석탑	-15487
▁곡이다	-15488
선택	-15489
플루	-15490
uld	-15491
▁리뷰	-15492
▁시부	-15493
스토리	-15494
▁시스템이	-15495
ング	-15496
▁사정	-15497
▁이이	-15498
▁혹시	-15499
테스트	-15500
▁진나라	-15501
운행구간	-15502
▁것이므로	-15503
▁필터	-15504
▁독립된	-15505
▁축구단	-15506
IX	-15507
톨레	-15508
▁스노	-15509
▁윤상	-15510
바는	-15511
지오	-15512
환이	-15513
▁치안	-15514
날로그	-15515
▁익스프레스	-15516
정희	-15517
▁Pat	-15518
▁어머니가	-15519
워스	-15520
oto	-15521
▁태극	-15522
▁효고	-15523
산에서	-15524
니코	-15525
공화당	-15526
▁음식을	-15527
▁남아있는	-15528
▁원작으로	-15529
▁which	-15530
▁괄	-15531
세다	-15532
층이	-15533
▁감행	-15534
▁고소	-15535
▁입주	-15536
▁조르	-15537
학과를	-15538
▁out	-15539
▁힘입어	-15540
마디	-15541
익을	-15542
▁내무	-15543
▁지폐	-15544
▁일본과	-15545
▁타이베이	-15546
arm	-15547
▁청룡	-15548
▁퍼포	-15549
▁회사는	-15550
▁Edition	-15551
란히	-15552
좌상	-15553
▁걸린	-15554
▁그릇	-15555
▁기종	-15556
▁소말	-15557
▁재현	-15558
루미늄	-15559
심으로	-15560
어에서	-15561
들에게는	-15562
(2004	-15563
▁자동차도	-15564
줬다	-15565
▁임용	-15566
과정을	-15567
▁Are	-15568
▁소유하고	-15569
경과	-15570
▁스기	-15571
값을	-15572
나우	-15573
포가	-15574
▁콜라	-15575
▁RNA	-15576
edors	-15577
▁역사적으로	-15578
▁제작되었다	-15579
▁곡의	-15580
▁견해를	-15581
▁아레나	-15582
보존	-15583
▁비치	-15584
▁현금	-15585
▁결론을	-15586
▁극동	-15587
▁슬라	-15588
▁방영되었다	-15589
▁카자흐스탄	-15590
렀고	-15591
▁바퀴	-15592
층은	-15593
▁존속	-15594
▁중퇴	-15595
▁처녀	-15596
▁어머니의	-15597
메드	-15598
됐으며	-15599
▁rev	-15600
▁인물을	-15601
▁둘러싸고	-15602
▁어드벤처	-15603
ない	-15604
드르	-15605
아오	-15606
▁수장	-15607
경으로	-15608
evelopment	-15609
▁섀	-15610
▁높고	-15611
▁되도록	-15612
▁오하이오	-15613
▁우승하였다	-15614
▁인형	-15615
오스트	-15616
▁아사달	-15617
~8	-15618
▁Ell	-15619
▁그쳤다	-15620
▁카이사	-15621
▁내역	-15622
▁맞은	-15623
▁열람	-15624
STER	-15625
약성	-15626
▁폭행	-15627
자리에	-15628
▁East	-15629
▁생몰	-15630
▁협동	-15631
▁근거를	-15632
▁영화에	-15633
▁인터내셔널	-15634
라니	-15635
▁산요	-15636
▁것에서	-15637
▁냄	-15638
▁주와	-15639
▁대통령에	-15640
▁발을	-15641
물이다	-15642
▁직전에	-15643
▁형태는	-15644
▁사야	-15645
▁선행	-15646
▁적지	-15647
당한다	-15648
▁선보였다	-15649
▁군에	-15650
브리엘	-15651
ault	-15652
▁나머지는	-15653
▁냉각	-15654
▁양국	-15655
▁Met	-15656
▁참가자	-15657
▁행정구역이다	-15658
▁bgcolor	-15659
▁얽	-15660
감과	-15661
▁혐의	-15662
▁에어로	-15663
▁전라도	-15664
▁지정된	-15665
▁차량을	-15666
모르	-15667
측은	-15668
▁다마	-15669
▁배드	-15670
▁수교	-15671
▁타당	-15672
Spec	-15673
식스	-15674
istry	-15675
▁좋아한다	-15676
▁파리에서	-15677
▁궁극	-15678
▁성사	-15679
etwork	-15680
구르	-15681
챔프	-15682
초를	-15683
▁난다	-15684
▁로이	-15685
번이	-15686
▁길고	-15687
▁문예	-15688
▁진도	-15689
▁바티칸	-15690
Me	-15691
.20	-15692
▁두어	-15693
▁안쪽	-15694
▁제곱	-15695
탈삼진	-15696
르며	-15697
lut	-15698
▁날에	-15699
▁구조로	-15700
▁인정받아	-15701
림이	-15702
▁나눈	-15703
▁드라	-15704
▁브랜	-15705
▁암흑	-15706
▁하락	-15707
▁부대는	-15708
94141	-15709
▁인재	-15710
하기는	-15711
▁되어야	-15712
▁구해	-15713
▁낭만	-15714
등으로	-15715
▁민족주의	-15716
▁other	-15717
▁들려	-15718
▁제너	-15719
▁탐지	-15720
▁남쪽에	-15721
▁사례가	-15722
▁올리고	-15723
▁요소가	-15724
other	-15725
▁거느리고	-15726
▁않아도	-15727
▁이해할	-15728
▁장면을	-15729
▁출판사	-15730
▁쿤	-15731
▁그저	-15732
▁김소	-15733
▁추출	-15734
▁국정원	-15735
▁룩셈부르크	-15736
포럼	-15737
arn	-15738
곡으로	-15739
=000	-15740
▁여기에는	-15741
94141">	-15742
▁자료가	-15743
▁광범위한	-15744
▁입단했다	-15745
▁설립하였다	-15746
세르	-15747
업이	-15748
토벤	-15749
▁예고	-15750
외국어	-15751
ands	-15752
▁시위를	-15753
주식회사	-15754
▁실패하였다	-15755
SH	-15756
속으로	-15757
▁남부의	-15758
▁도착한	-15759
▁레스토	-15760
함의	-15761
▁더비	-15762
▁Dist	-15763
▁설명하는	-15764
AE	-15765
▁대부	-15766
▁자책	-15767
▁처분	-15768
▁플랜	-15769
공작	-15770
▁Michael	-15771
·3	-15772
조치	-15773
▁없었	-15774
▁운행한다	-15775
cd	-15776
▁벌금	-15777
▁해상에서	-15778
▁House	-15779
▁깎	-15780
술의	-15781
천동	-15782
▁소모	-15783
▁아무리	-15784
▁체코슬로	-15785
레티	-15786
▁행위는	-15787
연방	-15788
포는	-15789
▁관념	-15790
▁어쩔	-15791
▁직장	-15792
하리	-15793
▁이한	-15794
▁초빙	-15795
▁루이지	-15796
▁회사가	-15797
▁모르겠습니다	-15798
We	-15799
▁마블	-15800
▁보드	-15801
▁본사	-15802
▁성별	-15803
연합뉴스	-15804
▁이루어지지	-15805
블랙	-15806
ART	-15807
▁마나	-15808
▁맞고	-15809
▁상응	-15810
▁유령	-15811
▁찾아볼	-15812
▁2005.	-15813
▁투르크	-15814
▁기록된	-15815
니티	-15816
하임	-15817
▁so	-15818
▁송도	-15819
▁시호	-15820
▁물고기	-15821
▁아이폰	-15822
ffect	-15823
▁전세	-15824
▁!28	-15825
▁내부에	-15826
▁일제강점	-15827
원자	-15828
▁에반	-15829
▁정작	-15830
▁없으면	-15831
RedMosQ	-15832
▁해병	-15833
▁베이비	-15834
▁최근의	-15835
ament	-15836
▁관리하는	-15837
▁데이비스	-15838
▁컬럼비아	-15839
▁간토	-15840
▁침투	-15841
▁라쿠	-15842
▁양이	-15843
▁찰리	-15844
▁Sun	-15845
▁일어나자	-15846
도비	-15847
무가	-15848
평론가	-15849
▁은퇴를	-15850
▁Free	-15851
▁그랑프리	-15852
묘한	-15853
상규	-15854
하키	-15855
▁오고	-15856
▁있거나	-15857
▁출전한	-15858
uf	-15859
▁릭	-15860
유도	-15861
타와	-15862
▁평면	-15863
▁완벽한	-15864
▁감독이다	-15865
▁그렇지만	-15866
mapsto	-15867
▁세종특별자치	-15868
▁경사	-15869
▁방콕	-15870
uild	-15871
▁이르고	-15872
:#736	-15873
▁:{|	-15874
▁기간이	-15875
▁사항을	-15876
▁상태였다	-15877
▁서울특별	-15878
▁추가적인	-15879
▁상장	-15880
캐스트	-15881
▁설명을	-15882
▁고쿠	-15883
백화점	-15884
▁11,	-15885
▁언어의	-15886
-28	-15887
gan	-15888
선수권대회	-15889
▁Histor	-15890
내며	-15891
안보	-15892
▁앉아	-15893
▁블랙홀	-15894
▁크리스티안	-15895
=|	-15896
체계	-15897
▁By	-15898
▁가오	-15899
▁우호	-15900
Love	-15901
Redirect	-15902
val	-15903
▁아홉	-15904
▁관현악	-15905
▁소속된	-15906
천여	-15907
.),	-15908
▁마카	-15909
▁추첨	-15910
▁파일럿	-15911
▁(1981	-15912
▁숀	-15913
스퍼	-15914
▁닌자	-15915
▁수련	-15916
▁되었다가	-15917
▁고등학교이다	-15918
▁림	-15919
청구	-15920
▁부합	-15921
▁프란체	-15922
▁주어진다	-15923
MM	-15924
ENT	-15925
▁루터	-15926
▁처럼	-15927
▁50%	-15928
KO	-15929
성장	-15930
▁사랑에	-15931
▁엮	-15932
집에	-15933
▁훼손을	-15934
회의에서	-15935
목록	-15936
▁GO	-15937
thod	-15938
▁마을을	-15939
▁예전에	-15940
▁프레드	-15941
▁룸	-15942
주어	-15943
탄의	-15944
▁메뉴	-15945
▁장거리	-15946
▁자택	-15947
시키지	-15948
psi	-15949
▁의결	-15950
▁개통과	-15951
▁아이콘	-15952
▁맡았으며	-15953
▁(2011)	-15954
▁디오	-15955
▁선원	-15956
▁존재할	-15957
▁초보	-15958
▁테츠	-15959
iana	-15960
▁서대문	-15961
▁학교의	-15962
▁April	-15963
운동에	-15964
감에	-15965
반대	-15966
쿠버	-15967
▁CEO	-15968
▁회사를	-15969
▁움직임을	-15970
동원	-15971
홀름	-15972
▁일요	-15973
:8	-15974
▁슬픔	-15975
▁지부	-15976
▁겪었다	-15977
▁무궁화	-15978
▁증거가	-15979
▁카드를	-15980
▁플래시	-15981
▁이후로는	-15982
소니	-15983
▁과연	-15984
▁박원	-15985
▁죄송	-15986
-200	-15987
▁중요하다	-15988
▁오비	-15989
▁옮기	-15990
▁여성이	-15991
▁자유주의	-15992
▁유벤	-15993
피안타	-15994
▁시기는	-15995
▁영향력	-15996
spect	-15997
▁부분에서	-15998
ен	-15999
츠크	-16000
파니	-16001
▁봉쇄	-16002
▁잔류	-16003
▁강철	-16004
▁느꼈	-16005
▁선도	-16006
▁음반을	-16007
재는	-16008
urr	-16009
교류	-16010
남면	-16011
지금	-16012
▁만드	-16013
▁펠리	-16014
▁들어갔	-16015
900	-16016
▁NE	-16017
▁그중	-16018
▁아세	-16019
▁이산화	-16020
▁글리	-16021
▁기기	-16022
▁호크	-16023
▁태어났	-16024
경북	-16025
▁경찰은	-16026
▁발견되는	-16027
광장	-16028
▁꼭짓	-16029
본이	-16030
시즘	-16031
▁강성	-16032
▁산소	-16033
▁타마	-16034
구무스메	-16035
▁part	-16036
▁Wikipedia	-16037
가르	-16038
수영	-16039
층을	-16040
▁매달	-16041
▁부지	-16042
▁실력을	-16043
▁Public	-16044
▁앨범의	-16045
▁결정되었다	-16046
레를	-16047
▁안타를	-16048
▁아르헨티나의	-16049
▁스릴	-16050
▁견제	-16051
ware	-16052
▁제품을	-16053
▁몫	-16054
엄마	-16055
iki	-16056
▁술을	-16057
▁일체	-16058
ovie	-16059
▁기반의	-16060
▁클라이	-16061
채를	-16062
▁오기	-16063
▁맡았고	-16064
▁준보호	-16065
드래	-16066
연은	-16067
조리	-16068
▁폭로	-16069
계약을	-16070
▁없으므로	-16071
WA	-16072
ón	-16073
거를	-16074
라라	-16075
로프	-16076
▁진군	-16077
▁토미	-16078
idea	-16079
▁교육부	-16080
스페인	-16081
통합당	-16082
▁마스크	-16083
▁쓰였다	-16084
▁철도가	-16085
overn	-16086
▁관리자의	-16087
▁붙인	-16088
▁약혼	-16089
▁프로세서	-16090
VER	-16091
▁시골	-16092
▁신선	-16093
▁이봉	-16094
▁최재	-16095
왔으며	-16096
▁(2016)	-16097
두리	-16098
애틀	-16099
▁애비	-16100
기록을	-16101
▁붐	-16102
고교	-16103
ias	-16104
▁버그	-16105
▁규정을	-16106
▁리더십	-16107
▁밑에서	-16108
츠카	-16109
▁각자	-16110
▁항소	-16111
▁College	-16112
나도	-16113
▁여진	-16114
▁베네딕	-16115
▁외국어	-16116
고문	-16117
샤바	-16118
표가	-16119
▁본인은	-16120
▁아시카가	-16121
En	-16122
보물	-16123
타워	-16124
▁ge	-16125
▁잡혀	-16126
▁!29	-16127
▁푸에르	-16128
▁비밀리에	-16129
▁(2006)	-16130
신성	-16131
엔진	-16132
ots	-16133
▁Po	-16134
▁위촉	-16135
▁나라에서	-16136
테르부르크	-16137
▁가환	-16138
▁떠올	-16139
▁박진	-16140
▁호의	-16141
되므로	-16142
▁10%	-16143
반에	-16144
▁단단	-16145
▁다목적	-16146
▁대회이다	-16147
국도	-16148
정지	-16149
▁데미	-16150
▁배수	-16151
▁1200	-16152
erc	-16153
▁미들	-16154
▁위키백과가	-16155
▁ᅳ	-16156
▁비단	-16157
▁세자	-16158
▁유코	-16159
▁이글스	-16160
▁중의원	-16161
페스트	-16162
▁개발에	-16163
▁행사를	-16164
高等學校	-16165
▁Back	-16166
▁매사추세츠	-16167
▁돋	-16168
터키	-16169
혹은	-16170
▁이희	-16171
▁조세	-16172
▁통틀	-16173
▁!26	-16174
▁사고를	-16175
▁Long	-16176
랑카	-16177
로봇	-16178
왔던	-16179
▁마법사	-16180
▁용어를	-16181
▁무시하고	-16182
JR	-16183
mS	-16184
▁내전	-16185
루이스	-16186
연수	-16187
틱스	-16188
▁교리	-16189
▁장덕	-16190
교차로	-16191
관할구역	-16192
down	-16193
▁Kids	-16194
▁고사	-16195
▁서민	-16196
▁세션	-16197
▁Encyclopedia	-16198
▁차원	-16199
▁유지하는	-16200
링을	-16201
▁Ep	-16202
는지는	-16203
▁정신을	-16204
▁아산	-16205
▁포병	-16206
퍼런스	-16207
▁탈삼진	-16208
▁팀으로	-16209
측에	-16210
get	-16211
나갔다	-16212
일에서	-16213
▁갈등을	-16214
▁저기압	-16215
Je	-16216
애를	-16217
▁재난	-16218
▁정승	-16219
마지막	-16220
▁Leg	-16221
의료	-16222
▁대안	-16223
▁라스트	-16224
▁곡이	-16225
▁선구	-16226
▁내리는	-16227
▁서적	-16228
▁플랑	-16229
▁불가능하다	-16230
정비	-16231
ful	-16232
▁경로	-16233
▁대학을	-16234
▁패배를	-16235
총영사관	-16236
부상	-16237
▁간이	-16238
▁등극	-16239
▁목요일	-16240
▁아일랜드의	-16241
타치	-16242
▁들을	-16243
▁음모	-16244
▁인명	-16245
▁해남	-16246
▁이야기는	-16247
HD	-16248
▁피신	-16249
▁들어간다	-16250
:#000000">	-16251
▁보게	-16252
▁콘서	-16253
▁소비자	-16254
▁선로	-16255
▁시오	-16256
▁대화를	-16257
▁모델이	-16258
▁제도가	-16259
▁유나이티	-16260
▁동네	-16261
▁혼다	-16262
▁개념이	-16263
▁강이	-16264
▁머니	-16265
해왔다	-16266
▁Lee	-16267
agement	-16268
목이	-16269
rel	-16270
▁조인	-16271
어이다	-16272
▁인물의	-16273
▁존재가	-16274
功臣	-16275
▁약물	-16276
▁매거진	-16277
▁장기간	-16278
▁수수께끼	-16279
▁2006.	-16280
산물	-16281
북면	-16282
코로	-16283
▁SN	-16284
▁역도	-16285
▁계속되었다	-16286
▁report	-16287
발이	-16288
och	-16289
▁연상	-16290
▁김옥균	-16291
▁수페르	-16292
공립보통학교	-16293
▁저격	-16294
▁테레	-16295
▁경찰에	-16296
▁캐스터	-16297
▁Library	-16298
톤의	-16299
▁상해	-16300
다음	-16301
포시	-16302
▁사거리	-16303
▁일컫는	-16304
▁동일인물	-16305
디나	-16306
사유	-16307
▁학교법인	-16308
ration	-16309
질은	-16310
▁뽑아	-16311
▁주부	-16312
▁밝히고	-16313
한이	-16314
▁동창	-16315
▁체인	-16316
ague	-16317
▁그림자	-16318
▁쓰시마	-16319
▁스스로를	-16320
있게	-16321
▁플러	-16322
▁MHz	-16323
▁노래는	-16324
▁며느리	-16325
▁개인정보	-16326
▁나주	-16327
▁사살	-16328
▁일이다	-16329
영과	-16330
▁관악	-16331
▁면제	-16332
▁크롬	-16333
▁인정하는	-16334
Sm	-16335
마케	-16336
어린이	-16337
▁선언하였다	-16338
▁엿	-16339
lam	-16340
▁출토	-16341
당하는	-16342
▁나폴리	-16343
▁시간대	-16344
▁나이지리아	-16345
가온	-16346
설계	-16347
우회	-16348
▁시정	-16349
▁직행	-16350
▁비로소	-16351
장사	-16352
코올	-16353
▁시몬	-16354
▁211	-16355
▁손으로	-16356
▁Jr	-16357
▁조연	-16358
▁변경하였다	-16359
SV	-16360
진출	-16361
집의	-16362
해온	-16363
▁동명의	-16364
▁남쪽으로는	-16365
▁서쪽으로는	-16366
▁솜	-16367
근의	-16368
편찬	-16369
▁이회	-16370
▁01.	-16371
▁Pal	-16372
▁대응하는	-16373
▁정보상자	-16374
쇼핑	-16375
회초	-16376
▁미터	-16377
▁상트	-16378
▁세미	-16379
▁유미	-16380
▁컨셉	-16381
▁팀인	-16382
▁도요토미	-16383
학위	-16384
▁sc	-16385
▁얼음	-16386
▁왕은	-16387
▁act	-16388
▁우라늄	-16389
▁행동에	-16390
THE	-16391
▁네팔	-16392
▁담배	-16393
▁벌인	-16394
▁자칭	-16395
▁역임한	-16396
타우	-16397
▁이차	-16398
face	-16399
▁소설을	-16400
▁의미의	-16401
▁맷	-16402
▁만났	-16403
▁가지며	-16404
▁버렸다	-16405
▁프로게이머	-16406
4%	-16407
리면	-16408
훈의	-16409
▁태평	-16410
▁한큐	-16411
▁친구들	-16412
▁퍼포먼	-16413
▁레스토랑	-16414
▁플레이어가	-16415
Leedors	-16416
순서	-16417
▁조광	-16418
▁피로	-16419
▁가벼운	-16420
▁논문을	-16421
66;">	-16422
▁포터	-16423
▁동참	-16424
▁보성	-16425
▁자치구	-16426
▁자회사	-16427
▁Power	-16428
▁펜실베이니아	-16429
▁신주쿠	-16430
▁Math	-16431
▁위치하며	-16432
▁포르투갈의	-16433
여우	-16434
lav	-16435
▁나노	-16436
▁소매	-16437
▁정상적인	-16438
▁Association	-16439
():	-16440
▁최진	-16441
▁3.0	-16442
▁군대의	-16443
▁병으로	-16444
▁신호를	-16445
▁제목의	-16446
▁Soul	-16447
자면	-16448
제약	-16449
조한	-16450
.25	-16451
▁양반	-16452
그러나	-16453
상이다	-16454
ices	-16455
▁비주얼	-16456
▁여름에	-16457
▁방송되었다	-16458
▁September	-16459
오오	-16460
철수	-16461
For	-16462
▁무의	-16463
▁물고	-16464
▁패전	-16465
▁필요할	-16466
▁협상을	-16467
mar	-16468
▁Bas	-16469
▁것임을	-16470
8%	-16471
무관	-16472
▁AD	-16473
▁재해	-16474
▁축출	-16475
예선	-16476
▁온다	-16477
▁비행기	-16478
▁July	-16479
(20	-16480
▁두개	-16481
▁부가	-16482
▁신기	-16483
한겨레	-16484
▁Dem	-16485
▁똑같이	-16486
▁틸	-16487
대성	-16488
먹은	-16489
▁대소	-16490
▁루카	-16491
▁모은	-16492
raft	-16493
▁프린세스	-16494
▁메일	-16495
▁USA	-16496
▁행위가	-16497
▁기록하면서	-16498
가장	-16499
▁3》	-16500
▁치고	-16501
▁담아	-16502
▁시작되어	-16503
▁베네수엘라	-16504
▁한양대학교	-16505
▁November	-16506
▁CP	-16507
▁내야	-16508
▁숭배	-16509
▁자를	-16510
▁주사	-16511
▁침묵	-16512
▁Dep	-16513
group	-16514
▁참가하는	-16515
.】	-16516
황금	-16517
eck	-16518
▁하비	-16519
▁기술의	-16520
▁모리스	-16521
▁알렸다	-16522
▁의회는	-16523
위원회에	-16524
부리	-16525
수학	-16526
▁황해	-16527
지방국토	-16528
▁싱글이다	-16529
▁(2017)	-16530
▁나름	-16531
▁별자리	-16532
▁장면이	-16533
▁크라운	-16534
장소	-16535
▁AV	-16536
▁누계	-16537
행복	-16538
180	-16539
▁세조	-16540
▁터뜨	-16541
▁뒷받침	-16542
!!0!!	-16543
▁결정한다	-16544
명인	-16545
▁까닭	-16546
▁세금	-16547
▁요즘	-16548
으려고	-16549
="6"|	-16550
▁끊임없이	-16551
유니	-16552
OUR	-16553
▁고든	-16554
▁돌입	-16555
▁읽고	-16556
▁세상의	-16557
공정	-16558
독한	-16559
였을	-16560
코어	-16561
▁것일	-16562
▁게리	-16563
▁예술가	-16564
UM	-16565
▁기회	-16566
▁창건	-16567
▁케냐	-16568
▁국가는	-16569
clude	-16570
▁분류된다	-16571
▁고치	-16572
▁우회	-16573
▁이끈	-16574
▁게임이	-16575
▁나오고	-16576
▁대영	-16577
▁사칭	-16578
▁쓰레	-16579
들과는	-16580
▁동쪽으로는	-16581
▁(2008)	-16582
거는	-16583
보우	-16584
▁증후	-16585
▁카네	-16586
▁1885	-16587
▁베어스	-16588
langle	-16589
더는	-16590
▁공휴	-16591
▁출산	-16592
▁사전에	-16593
네트	-16594
▁말의	-16595
▁틀이	-16596
▁125	-16597
▁신인상	-16598
▁않으나	-16599
▁(1976	-16600
▁Psych	-16601
▁프로젝트의	-16602
점이다	-16603
▁중대한	-16604
▁결정하는	-16605
▁동음이의	-16606
▁투수로서	-16607
▁(2012)	-16608
▁자격이	-16609
▁Books	-16610
이전	-16611
,19	-16612
▁가려	-16613
▁간선	-16614
▁사키	-16615
▁분쟁을	-16616
▁질문에	-16617
서면	-16618
▁순회	-16619
▁올드	-16620
▁데뷔를	-16621
▁존재하고	-16622
▁미국에서는	-16623
차도	-16624
형식	-16625
▁AB	-16626
▁시종	-16627
▁카사	-16628
▁때에도	-16629
tm	-16630
투어	-16631
판사	-16632
▁순교	-16633
▁일컬	-16634
▁지녔	-16635
수욕장	-16636
▁장안	-16637
▁치즈	-16638
▁타격을	-16639
▁강풍	-16640
▁양호	-16641
루에서	-16642
서기관	-16643
▁Sco	-16644
▁최연소	-16645
▁태권도	-16646
▁체포되어	-16647
수호	-16648
▁공고	-16649
▁명에	-16650
▁그레이트	-16651
▁방식이다	-16652
/4	-16653
UT	-16654
▁대덕	-16655
▁목조	-16656
▁3.1	-16657
▁구스타	-16658
▁시설을	-16659
▁1880	-16660
Wh	-16661
▁여지가	-16662
▁이동을	-16663
▁피하기	-16664
쿠르	-16665
사업을	-16666
ogle	-16667
▁소리가	-16668
▁줄리아	-16669
▁집안의	-16670
▁else	-16671
소비	-16672
와도	-16673
▁심야	-16674
▁유교	-16675
▁잠실	-16676
▁회화	-16677
▁배웠다	-16678
아요	-16679
▁문경	-16680
▁집착	-16681
▁공간이	-16682
▁people	-16683
}^{	-16684
▁가맹	-16685
▁다테	-16686
액은	-16687
조작	-16688
스트리	-16689
▁공로로	-16690
▁이루어지는	-16691
발로	-16692
에어	-16693
▁마가	-16694
▁클릭	-16695
▁도널드	-16696
▁닦	-16697
무대	-16698
▁교양	-16699
▁사모	-16700
▁수면	-16701
▁위헌	-16702
▁변화에	-16703
▁만족시키는	-16704
민정	-16705
원정	-16706
day	-16707
▁공신	-16708
▁마하	-16709
▁테일	-16710
▁MBN	-16711
▁물건을	-16712
▁(2007)	-16713
▁Official	-16714
▁목을	-16715
▁비평	-16716
▁죽이	-16717
▁최정	-16718
▁doi	-16719
▁실질적으로	-16720
전용	-16721
현과	-16722
All	-16723
▁조조	-16724
▁논의가	-16725
▁향하는	-16726
▁공격하는	-16727
거의	-16728
곡면	-16729
피가	-16730
▁둥근	-16731
ough	-16732
▁Afric	-16733
▁비판하였다	-16734
장수	-16735
▁닫힌	-16736
▁콤팩트	-16737
▁여기는	-16738
문고	-16739
▁마지	-16740
▁설도	-16741
▁함대	-16742
▁메시지	-16743
▁우즈베	-16744
▁줄여서	-16745
▁From	-16746
▁중소기업	-16747
HO	-16748
▁팰	-16749
행이	-16750
/12	-16751
▁유타	-16752
▁춘추	-16753
▁베드로	-16754
▁故	-16755
▁가산	-16756
▁완봉	-16757
▁거리는	-16758
▁해밀턴	-16759
▁알루미늄	-16760
▁시리즈에서	-16761
={	-16762
루와	-16763
▁장군의	-16764
▁투수로	-16765
암동	-16766
▁적다	-16767
atab	-16768
ender	-16769
▁캉	-16770
일으	-16771
교육을	-16772
▁아닌가	-16773
▁진행되고	-16774
)”	-16775
조례	-16776
화문	-16777
▁가다	-16778
▁투명	-16779
▁고통을	-16780
▁무엇이	-16781
▁역까지	-16782
▁전체에	-16783
▁Conc	-16784
▁프로레슬링	-16785
▁완화	-16786
▁집어	-16787
렸지만	-16788
▁점수를	-16789
▁기점으로	-16790
그린	-16791
▁광둥	-16792
▁도카이도	-16793
▁감사하겠습니다	-16794
석사	-16795
집이	-16796
▁포장	-16797
▁포획	-16798
거리를	-16799
▁모르고	-16800
▁차이는	-16801
▁칭호를	-16802
▁인천국제공항	-16803
▁깨끗	-16804
▁없던	-16805
▁명확한	-16806
▁송신소	-16807
사라	-16808
▁이룬	-16809
▁주자	-16810
▁평론가	-16811
▁1800	-16812
_3	-16813
수송	-16814
예수	-16815
출전	-16816
▁Mr	-16817
▁나비	-16818
▁자크	-16819
▁티켓	-16820
ania	-16821
▁역사의	-16822
▁환경을	-16823
▁(2010)	-16824
▁확신	-16825
▁모른다	-16826
중을	-16827
▁그루	-16828
▁성동	-16829
▁에콰	-16830
▁도로이다	-16831
▁BongGon	-16832
.--175.197.3	-16833
량에	-16834
▁하셨	-16835
▁계절편	-16836
▁시작하였고	-16837
▁공로	-16838
▁무척	-16839
▁즐겨	-16840
▁Div	-16841
▁회의를	-16842
배상	-16843
약한	-16844
▁관직을	-16845
▁다케다	-16846
▁없다면	-16847
▁코드를	-16848
▁발생하여	-16849
▁신설되었다	-16850
해요	-16851
▁대가	-16852
▁별이	-16853
With	-16854
uvie	-16855
▁최상위	-16856
▁3,000	-16857
▁김세	-16858
▁다름	-16859
▁물의	-16860
▁이문	-16861
▁교황의	-16862
▁용도로	-16863
▁디자	-16864
▁않을까요	-16865
▁이시카와	-16866
면적	-16867
주자	-16868
푸른	-16869
협정	-16870
▁띄어	-16871
▁왼손	-16872
▁청송	-16873
▁초연	-16874
▁캡틴	-16875
년이다	-16876
▁시합	-16877
▁카디	-16878
▁해병대	-16879
▁first	-16880
▁차단합니다	-16881
▁얻지	-16882
방송국	-16883
▁아스카	-16884
▁음악의	-16885
단장	-16886
▁일간	-16887
대법원	-16888
하시면	-16889
▁버전의	-16890
▁후지와	-16891
▁Radio	-16892
▁스트라이크	-16893
▁놀이	-16894
)!!1	-16895
지방국토관리청	-16896
oz	-16897
암리	-16898
ira	-16899
▁국립공원	-16900
▁Sound	-16901
▁Special	-16902
임시	-16903
▁별명을	-16904
▁요시노	-16905
▁북쪽으로는	-16906
달라	-16907
유기	-16908
▁빛이	-16909
조연상	-16910
▁바오로	-16911
▁왕위에	-16912
▁조정에	-16913
▁월드컵에서	-16914
TM	-16915
분간	-16916
훈은	-16917
▁SD	-16918
▁말도	-16919
▁미셸	-16920
▁어항	-16921
▁화석	-16922
부리그	-16923
▁!30	-16924
▁심리학	-16925
▁운동은	-16926
▁실전	-16927
▁의혹을	-16928
▁Summer	-16929
창의	-16930
▁방치	-16931
▁사이먼	-16932
스코리아	-16933
ин	-16934
▁교원	-16935
▁북위	-16936
▁스태	-16937
▁패한	-16938
부원군	-16939
피디아	-16940
만과	-16941
빈의	-16942
"><	-16943
▁유의	-16944
타이틀	-16945
▁으	-16946
순이	-16947
▁무어	-16948
▁슈팅	-16949
▁충성	-16950
▁의회의	-16951
▁니콜라이	-16952
py	-16953
공은	-16954
두근	-16955
바퀴	-16956
▁고인	-16957
▁균형	-16958
▁미소	-16959
▁켈리	-16960
▁태백	-16961
;"><	-16962
▁더욱이	-16963
▁특징이	-16964
병에	-16965
▁CG	-16966
arly	-16967
▁Hol	-16968
ucation	-16969
▁(2013)	-16970
월간	-16971
쿠치	-16972
▁토시	-16973
▁현종	-16974
▁방문한	-16975
padding	-16976
호대	-16977
혹한	-16978
▁경과	-16979
▁전수	-16980
▁캐리	-16981
가지의	-16982
학교에	-16983
▁다음해	-16984
▁모티브	-16985
쪽으로는	-16986
▁나쁘	-16987
▁지주	-16988
▁범위를	-16989
▁이론의	-16990
▁결혼했다	-16991
▁컴백	-16992
관계가	-16993
▁민족의	-16994
▁호크스	-16995
어린	-16996
▁대북	-16997
▁커널	-16998
▁기준에	-16999
▁수도원	-17000
▁일으킬	-17001
▁리만	-17002
▁Spe	-17003
▁미래의	-17004
▁상관없이	-17005
▁준우승을	-17006
▁낚	-17007
캠프	-17008
▁배후	-17009
▁사슬	-17010
▁악기	-17011
▁호리	-17012
체에서	-17013
▁128	-17014
▁그러던	-17015
▁부분적으로	-17016
청춘	-17017
▁브룩	-17018
▁상급	-17019
경기수	-17020
uble	-17021
▁Kim	-17022
▁허리케인	-17023
블루	-17024
▁KO	-17025
▁서지	-17026
▁가까워	-17027
▁기온은	-17028
▁싸움을	-17029
▁5,000	-17030
▁복귀하였다	-17031
바위	-17032
80"	-17033
▁아랫	-17034
▁허정	-17035
▁후루	-17036
지금의	-17037
▁정도였다	-17038
▁지냈으며	-17039
준이	-17040
="#	-17041
▁권총	-17042
입니까	-17043
▁마우스	-17044
search	-17045
곡은	-17046
▁지우	-17047
▁데니스	-17048
▁서바이	-17049
▁친일파	-17050
▁캐서린	-17051
▁고려하여	-17052
▁발각	-17053
▁서산	-17054
▁제의	-17055
▁조경	-17056
차이나	-17057
▁새겨져	-17058
▁업적을	-17059
▁정책과	-17060
▁플래티넘	-17061
렐라	-17062
사법	-17063
소타	-17064
아과	-17065
영민	-17066
ANG	-17067
▁설탕	-17068
▁테라	-17069
색과	-17070
신당	-17071
▁시초	-17072
wood	-17073
▁삼각형	-17074
▁미친	-17075
plic	-17076
▁글러브	-17077
▁다카하시	-17078
="240"	-17079
▁(2015)	-17080
▁쇄	-17081
레븐	-17082
ago	-17083
▁하치	-17084
▁Pop	-17085
▁시각적	-17086
▁신입생	-17087
▁설명했다	-17088
▁거인	-17089
▁밀접한	-17090
▁아스널	-17091
▁지키고	-17092
서리	-17093
테이너	-17094
▁기술은	-17095
▁법무부	-17096
▁여러분	-17097
▁표현이	-17098
▁합병해	-17099
▁해결하기	-17100
카페	-17101
▁값이	-17102
▁음료	-17103
▁검사를	-17104
▁획득한	-17105
▁어렸을	-17106
▁(2009)	-17107
>>	-17108
궁의	-17109
요미	-17110
^2}	-17111
운동의	-17112
▁넘겨주	-17113
▁조선에	-17114
▁(1982	-17115
트루	-17116
ski	-17117
▁색을	-17118
▁토트	-17119
책으로	-17120
illa	-17121
▁느낌을	-17122
▁항공사	-17123
▁총대주교	-17124
▁중단되었다	-17125
유형	-17126
커니즘	-17127
▁동일하게	-17128
▁Review	-17129
▁방패	-17130
▁비타	-17131
▁프론	-17132
▁리그를	-17133
▁이곳은	-17134
애니박스	-17135
▁1860	-17136
View	-17137
▁강남구	-17138
▁행복한	-17139
▁아날로그	-17140
PR	-17141
최종	-17142
▁계수	-17143
▁창녕	-17144
▁유학생	-17145
▁Road	-17146
▁Elect	-17147
커는	-17148
▁부시	-17149
▁입구	-17150
▁하타	-17151
▁국가로	-17152
▁사랑과	-17153
▁고구려의	-17154
Instrumental	-17155
▁정읍	-17156
▁추이	-17157
▁폐교	-17158
비서관	-17159
▁12,	-17160
▁의미에서	-17161
▁필요합니다	-17162
▁꿀	-17163
차드	-17164
티어	-17165
▁전지	-17166
▁본래의	-17167
▁CONC	-17168
▁시즈오카	-17169
▁Studies	-17170
Ta	-17171
▁퍼스트	-17172
▁나중에는	-17173
으로부터의	-17174
ato	-17175
▁미얀마	-17176
▁불리고	-17177
▁작위를	-17178
▁라이브러리	-17179
▁로버	-17180
니까요	-17181
▁대한민국과	-17182
풍을	-17183
▁격투	-17184
▁레온	-17185
▁샘플	-17186
▁중위	-17187
▁지수	-17188
군이다	-17189
▁사헌부	-17190
▁재능을	-17191
▁PR	-17192
▁프란츠	-17193
▁가의	-17194
▁라그	-17195
▁보전	-17196
▁정서	-17197
▁쿠퍼	-17198
▁포토	-17199
ERS	-17200
▁천도	-17201
▁혜택	-17202
▁loc	-17203
▁질문을	-17204
quest	-17205
▁스왈로스	-17206
지다	-17207
파라	-17208
▁글씨	-17209
▁불량	-17210
▁연고로	-17211
▁뉴욕에서	-17212
ji	-17213
두에	-17214
/11	-17215
▁EU	-17216
▁키워	-17217
▁아키타	-17218
oseph	-17219
▁comm	-17220
▁목소리를	-17221
ATA	-17222
oko	-17223
▁이북	-17224
▁진구	-17225
▁3.5	-17226
▁let	-17227
▁사용자에	-17228
▁중기	-17229
▁기여가	-17230
▁1871	-17231
▁주장하며	-17232
통이	-17233
할수	-17234
9;"	-17235
▁감리	-17236
있었다	-17237
마법	-17238
차와	-17239
▁공표	-17240
▁용병	-17241
▁파인	-17242
▁것들이	-17243
▁외에는	-17244
체육대회	-17245
▁불러일으	-17246
▁선동	-17247
even	-17248
▁건물로	-17249
▁흠	-17250
법칙	-17251
▁먹을	-17252
▁원인을	-17253
(2015	-17254
▁야마가타	-17255
forall	-17256
oration	-17257
▁솟	-17258
계종	-17259
다오	-17260
▁종의	-17261
enry	-17262
▁유학을	-17263
▁이즈미	-17264
▁내레이션	-17265
통상	-17266
24)	-17267
Ste	-17268
▁취항	-17269
▁카지	-17270
년대의	-17271
alys	-17272
▁2-0	-17273
▁브뤼셀	-17274
▁크기를	-17275
비밀	-17276
참고	-17277
cel	-17278
▁발동	-17279
▁임원	-17280
▁퇴역	-17281
▁시네마	-17282
▁여배우	-17283
▁일리노	-17284
▁크리에	-17285
▁힘으로	-17286
▁list	-17287
창원	-17288
척의	-17289
▁대왕	-17290
▁문고	-17291
▁입각	-17292
▁정몽	-17293
▁아나키	-17294
▁over	-17295
▁포켓몬스터	-17296
이한	-17297
▁드문	-17298
▁한층	-17299
▁효소	-17300
심에서	-17301
ants	-17302
▁업그레이드	-17303
▁화순	-17304
▁당하고	-17305
▁선수의	-17306
▁아미노	-17307
="200	-17308
▁근처에서	-17309
KT	-17310
촛불	-17311
텔라	-17312
▁106	-17313
▁(11)	-17314
yo	-17315
ор	-17316
풍의	-17317
▁노선의	-17318
▁지방을	-17319
▁소행성	-17320
▁성격으로	-17321
구분	-17322
대기	-17323
▁다쓰	-17324
▁박찬	-17325
▁산성	-17326
▁이강	-17327
▁카리브	-17328
▁분포한다	-17329
▁와타	-17330
▁중국에	-17331
▁학생들의	-17332
변속	-17333
살의	-17334
▁드는	-17335
▁함유	-17336
▁Mal	-17337
▁표기는	-17338
▁단원	-17339
▁발현	-17340
▁정진	-17341
하겠다	-17342
▁바꾸고	-17343
▁본질적	-17344
▁앤더슨	-17345
cient	-17346
제조	-17347
▁급식	-17348
▁사내	-17349
▁수필	-17350
▁충전	-17351
았다고	-17352
▁뚜렷한	-17353
▁지구를	-17354
위원으로	-17355
indows	-17356
▁슛	-17357
행사	-17358
▁당대	-17359
▁돌격	-17360
▁상사	-17361
▁여는	-17362
▁체조	-17363
▁표를	-17364
▁시설이	-17365
▁싸우는	-17366
cription	-17367
리쿠	-17368
인칭	-17369
▁제왕	-17370
▁행선	-17371
gold	-17372
▁받아야	-17373
▁저명한	-17374
▁오카야마	-17375
▁진행하는	-17376
시한	-17377
싱글	-17378
▁기증	-17379
title	-17380
▁녀	-17381
법상	-17382
지스	-17383
콜릿	-17384
토트	-17385
▁유연	-17386
▁안으로	-17387
▁프톨레	-17388
▁abbr	-17389
시드	-17390
안녕	-17391
▁나은	-17392
▁유정	-17393
▁요청이	-17394
▁우승한	-17395
▁행동이	-17396
▁설치하고	-17397
▁오산	-17398
▁워드	-17399
▁이석	-17400
▁지선	-17401
▁현립	-17402
삼국사기	-17403
▁슬로베니아	-17404
▁내정	-17405
▁바이트	-17406
▁이집트의	-17407
열은	-17408
▁벵	-17409
▁차이로	-17410
▁(196	-17411
▁Port	-17412
▁cell	-17413
동면	-17414
▁총의	-17415
▁협조	-17416
▁당선자	-17417
▁자신들이	-17418
▁안녕하세요	-17419
It	-17420
인승	-17421
▁감수	-17422
정책을	-17423
▁프로그램에	-17424
마로	-17425
▁기저	-17426
▁세컨	-17427
▁빛나는	-17428
splay	-17429
▁October	-17430
ni	-17431
물리	-17432
태현	-17433
ECT	-17434
▁면이	-17435
▁시그	-17436
일요일	-17437
▁역사에	-17438
▁전설의	-17439
▁Club	-17440
함수	-17441
▁강사	-17442
▁견인	-17443
▁날카	-17444
_1,\	-17445
▁분들이	-17446
▁프리스	-17447
▁대회에서는	-17448
▁출전하였다	-17449
)<	-17450
나로	-17451
츠를	-17452
(2)	-17453
▁Tw	-17454
▁맞춤	-17455
▁무안	-17456
ider	-17457
▁결정된다	-17458
▁△	-17459
다만	-17460
▁석조	-17461
▁용량	-17462
▁종속	-17463
▁행진	-17464
▁갈수록	-17465
▁지역구	-17466
▁환경에	-17467
▁리베	-17468
▁사간	-17469
▁엔젤	-17470
▁하도록	-17471
▁물리학자	-17472
코치	-17473
▁리바	-17474
▁선우	-17475
▁취업	-17476
▁희귀	-17477
▁그러면	-17478
▁아오이	-17479
▁도입되었다	-17480
▁비전	-17481
▁입을	-17482
하기가	-17483
▁his	-17484
▁연기를	-17485
▁벌어졌다	-17486
▁대합	-17487
▁케이트	-17488
▁친일인명	-17489
wikitable	-17490
요원	-17491
작이	-17492
츠가	-17493
▁:〈	-17494
▁(2005)	-17495
슬레	-17496
▁NH	-17497
▁방침	-17498
▁축적	-17499
▁한해	-17500
▁Mad	-17501
▁Tri	-17502
▁브루스	-17503
▁주의를	-17504
▁평가했다	-17505
철은	-17506
▁외손	-17507
▁현악	-17508
렸다고	-17509
▁경기의	-17510
ories	-17511
▁가브리엘	-17512
▁대통령과	-17513
▁Korean	-17514
?》	-17515
▁승강장은	-17516
파울	-17517
▁스포	-17518
▁교육의	-17519
▁친구가	-17520
스테르담	-17521
▁불필요한	-17522
▁온타리오	-17523
변의	-17524
상담	-17525
unk	-17526
▁주먹	-17527
iano	-17528
▁어워즈	-17529
▁주제에	-17530
▁Austral	-17531
▁캠페인	-17532
점수	-17533
▁낭독	-17534
변호사	-17535
ayer	-17536
▁108	-17537
▁뒤에도	-17538
▁중국과	-17539
아침	-17540
▁책의	-17541
▁104	-17542
▁분위기를	-17543
▁white	-17544
Tr	-17545
▁씌	-17546
▁박은	-17547
트에서	-17548
▁가리키	-17549
inger	-17550
.).	-17551
▁지위	-17552
▁해고	-17553
▁마에다	-17554
샤오	-17555
▁알리는	-17556
▁주제를	-17557
▁탈당	-17558
일본어	-17559
▁시애틀	-17560
▁우려가	-17561
▁클라우드	-17562
정권	-17563
▁소금	-17564
▁탐색	-17565
▁하반	-17566
▁113	-17567
현실	-17568
=17	-17569
▁fr	-17570
교육과	-17571
feat	-17572
▁떨어뜨	-17573
▁상태의	-17574
▁서울중앙	-17575
▁최대풍속	-17576
고등보통학교	-17577
소장	-17578
▁그럴	-17579
▁예시	-17580
▁진공	-17581
▁Show	-17582
브의	-17583
▁교역	-17584
▁징병	-17585
감으로	-17586
▁Green	-17587
동네	-17588
LSD	-17589
nam	-17590
▁카토	-17591
▁있기도	-17592
▁아래에서	-17593
열에	-17594
)》,	-17595
133	-17596
▁끝날	-17597
▁독일과	-17598
orange	-17599
견이	-17600
마드	-17601
▁머신	-17602
▁관계없이	-17603
▁딸인	-17604
talk	-17605
▁경상도	-17606
uvieK	-17607
▁Party	-17608
▁있었습니다	-17609
9%	-17610
▁성분	-17611
▁숙청	-17612
▁베토벤	-17613
외과	-17614
▁잠깐	-17615
▁있나요	-17616
동화	-17617
커의	-17618
크레	-17619
▁고아	-17620
▁독서	-17621
▁바빌	-17622
▁정종	-17623
▁즐거	-17624
드래곤	-17625
시간이	-17626
▁어려서	-17627
▁예수의	-17628
▁원인은	-17629
azine	-17630
조선왕조실록	-17631
코타	-17632
▁메릴	-17633
▁보석	-17634
▁할리우드	-17635
▁Found	-17636
▁주어졌다고	-17637
각이	-17638
컨대	-17639
▁Ma	-17640
▁퇴장	-17641
▁박영효	-17642
기관이다	-17643
omys	-17644
▁달리는	-17645
▁센고쿠	-17646
▁실패한	-17647
▁의혹이	-17648
▁함부르크	-17649
간격	-17650
로워	-17651
이미	-17652
▁AL	-17653
▁가축	-17654
▁에리	-17655
▁유재	-17656
▁태도	-17657
▁데스크	-17658
페테르부르크	-17659
개와	-17660
성사	-17661
토쿠	-17662
▁검출	-17663
▁1,2	-17664
▁소송을	-17665
▁자릿수	-17666
pa	-17667
볼넷	-17668
신도	-17669
▁키가	-17670
▁공격수	-17671
▁후지와라노	-17672
쉽게	-17673
-35	-17674
Mod	-17675
▁높게	-17676
▁입성	-17677
▁has	-17678
▁없었기	-17679
▁때문입니다	-17680
리버	-17681
CBS	-17682
▁숨어	-17683
되도록	-17684
스카르	-17685
▁불리게	-17686
▁인상을	-17687
논문	-17688
=15	-17689
▁방화	-17690
▁조수	-17691
▁다이어	-17692
▁정권의	-17693
▁필리프	-17694
▁거부하고	-17695
ан	-17696
▁누이	-17697
IO	-17698
들여	-17699
먼은	-17700
ona	-17701
▁pr	-17702
▁백색	-17703
▁호평을	-17704
▁아리스토	-17705
▁선사	-17706
▁주차	-17707
▁물질의	-17708
▁속도는	-17709
▁일했다	-17710
▁생각됩니다	-17711
▁HT	-17712
▁물러나	-17713
▁별개의	-17714
▁스릴러	-17715
lutzy	-17716
\,	-17717
시경	-17718
▁가량	-17719
▁부재	-17720
▁이도	-17721
▁고양시	-17722
▁무엇을	-17723
▁전주시	-17724
▁남우주연상	-17725
▁Sports	-17726
▁三	-17727
포항	-17728
JPG	-17729
▁넣는	-17730
▁북방	-17731
시즌을	-17732
학위를	-17733
Kore	-17734
▁Human	-17735
사르	-17736
▁독일이	-17737
▁물질을	-17738
GO	-17739
Is	-17740
▁수비수	-17741
▁지점에	-17742
GT	-17743
월과	-17744
▁앤디	-17745
▁참여할	-17746
방지	-17747
키를	-17748
rian	-17749
▁미국을	-17750
▁미유키	-17751
▁독립적인	-17752
▁매매	-17753
▁압력을	-17754
▁제국을	-17755
쓰기	-17756
인용	-17757
▁주가	-17758
▁새정치	-17759
▁공격으로	-17760
0%	-17761
중주	-17762
▁코우	-17763
▁엔진은	-17764
▁와이번스	-17765
▁(2014)	-17766
▁느끼고	-17767
▁메구미	-17768
▁이래로	-17769
▁Blue	-17770
▁(1973	-17771
▁Chung	-17772
.‘	-17773
푸아	-17774
해당	-17775
▁고체	-17776
▁가족의	-17777
▁목록을	-17778
▁부문에	-17779
청사	-17780
▁등용	-17781
▁소식	-17782
▁신형	-17783
▁공부를	-17784
▁환경에서	-17785
하와	-17786
23)	-17787
▁소생	-17788
▁미시간	-17789
▁시간의	-17790
▁알코올	-17791
▁작성된	-17792
▁결정하였다	-17793
원사	-17794
▁이효	-17795
미사일	-17796
▁통합하여	-17797
リー	-17798
미한	-17799
아버	-17800
▁뷰티	-17801
▁중산	-17802
▁기초로	-17803
▁성능을	-17804
▁이순신	-17805
▁전력을	-17806
▁1870	-17807
중추	-17808
▁사에	-17809
▁240	-17810
▁대가로	-17811
▁배치되어	-17812
▁얹	-17813
최대	-17814
▁가죽	-17815
지는데	-17816
▁Pap	-17817
▁되었던	-17818
board	-17819
▁국가대표팀의	-17820
녀를	-17821
왕조	-17822
▁분화	-17823
▁세력의	-17824
field	-17825
▁시칠리아	-17826
▁편성으로	-17827
▁중앙대학교	-17828
▁무작	-17829
▁상경	-17830
▁자기가	-17831
▁쳐들어	-17832
▁퐁	-17833
등장	-17834
유예	-17835
팀을	-17836
▁사인	-17837
▁원조	-17838
콘텐츠	-17839
▁LED	-17840
World	-17841
▁스테이션	-17842
노동당	-17843
▁타인의	-17844
트로이트	-17845
▁김석	-17846
▁전했다	-17847
▁총리가	-17848
학이	-17849
▁동위	-17850
▁보령	-17851
▁개인이	-17852
▁과정이	-17853
▁참여를	-17854
도루	-17855
야와	-17856
chi	-17857
▁감금	-17858
▁단장	-17859
▁박태	-17860
▁세네	-17861
▁건축가	-17862
▁이내에	-17863
ール	-17864
sim	-17865
▁서스	-17866
▁옮겼	-17867
▁history	-17868
전체	-17869
타고	-17870
▁해당되는	-17871
▁안경	-17872
십니까	-17873
Live	-17874
▁public	-17875
레미	-17876
적에	-17877
▁열차의	-17878
▁제목을	-17879
▁주도는	-17880
▁페르디난	-17881
유사	-17882
▁교전	-17883
▁상행	-17884
▁정도를	-17885
▁China	-17886
▁콘스탄티노폴리스	-17887
▁썸	-17888
위반	-17889
▁Er	-17890
▁모인	-17891
▁이쿠	-17892
▁생산하는	-17893
▁이용한다	-17894
▁주민들이	-17895
모닝	-17896
▁상공	-17897
▁작곡한	-17898
▁혼란을	-17899
실점으로	-17900
▁그들에게	-17901
▁edition	-17902
▁보증	-17903
count	-17904
▁이전부터	-17905
▁(1965	-17906
▁닥	-17907
des	-17908
▁EC	-17909
▁만료	-17910
▁오아	-17911
▁이철	-17912
▁중일	-17913
▁코카	-17914
여명의	-17915
▁갤러리	-17916
데시	-17917
토와	-17918
=80	-17919
▁상기	-17920
▁탤런트	-17921
▁What	-17922
▁진행되는	-17923
발사	-17924
▁카테	-17925
▁답변을	-17926
▁마이애	-17927
▁무료로	-17928
▁설립했다	-17929
▁시뮬레이션	-17930
▁December	-17931
리치	-17932
트륨	-17933
▁세속	-17934
▁출석	-17935
▁학자들은	-17936
▁CO	-17937
▁상처를	-17938
군수	-17939
▁직면	-17940
▁관련해	-17941
▁모습은	-17942
▁진출한	-17943
ATION	-17944
▁공동제작	-17945
公派	-17946
▁봉건	-17947
▁부사	-17948
▁해의	-17949
왕후의	-17950
▁많으며	-17951
▁성남시	-17952
▁프로야구	-17953
▁조로	-17954
론에서	-17955
list	-17956
▁OVA	-17957
▁전하는	-17958
▁케이스	-17959
▁참가하고	-17960
bruary	-17961
평리	-17962
▁종착	-17963
▁중량	-17964
▁Cons	-17965
▁아버지인	-17966
테면	-17967
피에	-17968
▁규탄	-17969
나라에	-17970
▁Mat	-17971
▁영원히	-17972
oplus	-17973
▁히데요시	-17974
="8	-17975
▁바보	-17976
▁피핀	-17977
운동가	-17978
▁인간을	-17979
▁취하고	-17980
방영	-17981
lag	-17982
▁가구	-17983
▁감마	-17984
▁경복	-17985
▁동메달을	-17986
동부	-17987
▁님의	-17988
▁프톨레마이	-17989
▁고래	-17990
▁발트	-17991
oice	-17992
▁서식한다	-17993
중재	-17994
▁무성	-17995
▁씨의	-17996
▁키드	-17997
카운트	-17998
▁아리아	-17999
▁수준으로	-18000
위원회에서	-18001
네시	-18002
▁발칸	-18003
▁신상	-18004
▁무대를	-18005
▁사태가	-18006
▁서쪽에	-18007
▁시기를	-18008
▁시장에	-18009
▁정보는	-18010
▁프레이	-18011
▁저작권자	-18012
kt	-18013
▁낙동	-18014
▁낸다	-18015
▁댓글	-18016
▁받침	-18017
▁타석	-18018
▁로맨스	-18019
살인	-18020
심은	-18021
▁밀러	-18022
▁쪽이	-18023
▁인공지능	-18024
▁되었습니다	-18025
품이	-18026
▁이양	-18027
▁설명할	-18028
▁통틀어	-18029
▁디자인을	-18030
▁베트남의	-18031
수비	-18032
품의	-18033
▁거뒀	-18034
▁라오	-18035
▁스즈	-18036
▁하부	-18037
▁화를	-18038
이즈미	-18039
▁의과대학	-18040
▁지휘하는	-18041
내면	-18042
▁김호	-18043
▁함수의	-18044
렸습니다	-18045
▁이때부터	-18046
강화	-18047
▁털이	-18048
▁아름답	-18049
▁살아있는	-18050
▁Global	-18051
▁쾰	-18052
기니	-18053
한지	-18054
▁당주	-18055
▁몸길	-18056
▁아소	-18057
▁암시	-18058
▁기독교의	-18059
▁가볍	-18060
▁그게	-18061
▁도박	-18062
▁동영	-18063
▁20%	-18064
▁Champ	-18065
▁padding	-18066
펭귄	-18067
▁__	-18068
▁가신	-18069
▁낳은	-18070
자이며	-18071
▁Def	-18072
▁Tom	-18073
▁지어졌다	-18074
FS	-18075
▁Val	-18076
하더라도	-18077
999	-18078
▁원천	-18079
▁놓았다	-18080
▁문자를	-18081
▁아케이드	-18082
▁이어진다	-18083
▁제기되었다	-18084
▁Information	-18085
▁사사키	-18086
▁종류가	-18087
▁클레멘	-18088
▁Team	-18089
▁프로듀싱	-18090
yr	-18091
▁렉	-18092
▁용서	-18093
▁이데	-18094
▁활약했다	-18095
▁국사	-18096
▁김두	-18097
연장	-18098
▁김우	-18099
▁소나타	-18100
▁차체	-18101
▁Pri	-18102
▁구단의	-18103
▁상대를	-18104
▁유래한	-18105
▁의미는	-18106
▁정책은	-18107
▁한국은	-18108
▁관리하고	-18109
▁동일하다	-18110
=5	-18111
▁문단	-18112
▁안재	-18113
▁기관총	-18114
▁보유한	-18115
▁수요일	-18116
▁Over	-18117
▁되돌리기	-18118
▁Version	-18119
▁떡	-18120
▁쉴	-18121
민을	-18122
사도	-18123
한신	-18124
▁배가	-18125
▁옹립	-18126
▁탐구	-18127
▁폭넓	-18128
분부터	-18129
▁감독과	-18130
▁말기의	-18131
▁끌고	-18132
▁전통을	-18133
▁your	-18134
▁물러났다	-18135
▁Thomas	-18136
▁두께	-18137
▁원을	-18138
▁1600	-18139
▁이승만은	-18140
라르	-18141
▁KB	-18142
▁과반	-18143
▁유년	-18144
▁춤을	-18145
기병	-18146
다테	-18147
▁헌정	-18148
emat	-18149
▁게이오	-18150
▁오릭스	-18151
▁팡	-18152
위인	-18153
폭탄	-18154
112	-18155
▁본거	-18156
▁보도했다	-18157
▁놈	-18158
▁삐	-18159
쾌한	-18160
효소	-18161
=16	-18162
▁통보	-18163
rick	-18164
▁115	-18165
▁이라고	-18166
▁민족문제	-18167
▁포기하고	-18168
▁챙	-18169
다스	-18170
숙의	-18171
urv	-18172
▁쓰촨	-18173
▁조국	-18174
▁규모로	-18175
▁다음영화	-18176
▁시베리아	-18177
▁Social	-18178
히지	-18179
▁점검	-18180
▁제퍼	-18181
▁디지몬	-18182
▁설치한	-18183
(2001	-18184
▁받았지만	-18185
▁시리즈를	-18186
봉을	-18187
회계	-18188
문에서	-18189
▁다룬다	-18190
▁분류를	-18191
ample	-18192
="040"	-18193
나비	-18194
던트	-18195
영리	-18196
▁곳의	-18197
▁선종	-18198
▁지쿠	-18199
였다는	-18200
쳤으며	-18201
▁인접한	-18202
▁급제하여	-18203
▁선수들을	-18204
쇼와	-18205
승지	-18206
▁살려	-18207
▁수양	-18208
▁이형	-18209
▁선택할	-18210
▁양식을	-18211
▁안드	-18212
▁안젤	-18213
▁목표는	-18214
▁새로이	-18215
▁제치고	-18216
나드	-18217
▁대두	-18218
▁미쿠	-18219
▁횡단	-18220
▁기억을	-18221
▁데일리	-18222
▁용인시	-18223
▁컬렉션	-18224
▁볼리비아	-18225
▁명사	-18226
▁등번호	-18227
ledge	-18228
▁여우주연상	-18229
보장	-18230
진화	-18231
190	-18232
▁각색	-18233
▁동인	-18234
▁자국	-18235
▁서울의	-18236
=10%|	-18237
▁이용해서	-18238
▁BL	-18239
▁선과	-18240
▁자오	-18241
▁준수	-18242
▁다양체	-18243
▁시코쿠	-18244
▁인테르	-18245
▁조지프	-18246
▁첨단	-18247
되어서	-18248
▁규칙을	-18249
▁부문에서	-18250
▁핀란드의	-18251
▁딸로	-18252
▁송파	-18253
▁시와	-18254
▁왕을	-18255
드림	-18256
센스	-18257
야전	-18258
▁고로	-18259
▁이혜	-18260
▁소속사	-18261
▁이해가	-18262
▁1888	-18263
▁데드	-18264
▁조셉	-18265
▁나이는	-18266
▁이스탄	-18267
▁more	-18268
eld	-18269
▁소셜	-18270
USIC	-18271
▁구하기	-18272
▁네티즌	-18273
▁은메달을	-18274
▁정부에서	-18275
성인	-18276
▁간신	-18277
▁신천	-18278
▁Hot	-18279
▁Hall	-18280
▁관해서는	-18281
▁오마이뉴스	-18282
벨라	-18283
▁피의	-18284
'.	-18285
막을	-18286
설에	-18287
수소	-18288
시킴	-18289
여운	-18290
▁부당	-18291
▁엔터	-18292
▁부분으로	-18293
▁하느님의	-18294
▁네이버영화	-18295
세력	-18296
▁결선	-18297
▁사절	-18298
▁임관	-18299
애니원	-18300
▁이름인	-18301
/2016	-18302
▁살인사건	-18303
종류	-18304
체험	-18305
ten	-18306
▁영향이	-18307
▁레논	-18308
원이다	-18309
appa	-18310
▁title	-18311
▁디트로이트	-18312
고개	-18313
▁군이	-18314
▁궁전	-18315
cong	-18316
▁화요일	-18317
동음이의	-18318
▁이스탄불	-18319
투로	-18320
▁동조	-18321
▁팔라	-18322
▁후미	-18323
▁라쿠텐	-18324
▁뮤지션	-18325
▁실시한	-18326
▁후보는	-18327
▁기수	-18328
▁연희	-18329
▁섬에서	-18330
▁클레이	-18331
▁열대폭풍	-18332
더의	-18333
▁av	-18334
adal	-18335
▁아이언	-18336
▁표현하는	-18337
▁(2018)	-18338
▁앰	-18339
말려	-18340
인증	-18341
파티	-18342
▁추석	-18343
프스키	-18344
▁Down	-18345
▁시외버스	-18346
▁진행하고	-18347
춘추	-18348
▁자카	-18349
▁주위	-18350
▁표방	-18351
지라도	-18352
▁논란을	-18353
▁아무것도	-18354
닌다	-18355
마귀	-18356
ava	-18357
▁질환	-18358
ック	-18359
끄러	-18360
지아	-18361
▁맞붙	-18362
▁앞장	-18363
리스는	-18364
mann	-18365
▁대도시	-18366
▁캔자스	-18367
▁발렌시아	-18368
친왕	-18369
icle	-18370
▁모두를	-18371
▁지구에서	-18372
▁방찬	-18373
▁올릴	-18374
기념물	-18375
▁경고를	-18376
(1999	-18377
▁일어나고	-18378
ür	-18379
노에	-18380
▁개헌	-18381
▁볼로	-18382
▁죽인	-18383
밀하게	-18384
▁대표는	-18385
▁자기의	-18386
▁터키의	-18387
alysis	-18388
▁(1969	-18389
받게	-18390
시외	-18391
}_{	-18392
▁조형	-18393
▁포럼	-18394
▁수행할	-18395
▁공의	-18396
▁호응	-18397
선생님	-18398
▁Sal	-18399
▁순으로	-18400
▁잡았다	-18401
▁정당한	-18402
▁체육관	-18403
▁존재했던	-18404
atabase	-18405
성공	-18406
지않	-18407
▁go	-18408
▁어리	-18409
▁장사	-18410
▁13,	-18411
▁아저씨	-18412
▁실패하고	-18413
▁랄	-18414
나서	-18415
▁문정	-18416
▁정립	-18417
▁찬양	-18418
load	-18419
▁대신해	-18420
▁북부의	-18421
▁드러났다	-18422
▁전체적인	-18423
▁@	-18424
전력	-18425
▁타협	-18426
▁필살	-18427
▁210	-18428
▁장군이	-18429
▁상트페테르부르크	-18430
ief	-18431
▁AG	-18432
▁말미	-18433
▁믿을	-18434
▁우르	-18435
▁정주	-18436
▁피를	-18437
▁112	-18438
▁콘크리트	-18439
asy	-18440
▁Ca	-18441
▁수확	-18442
▁실무	-18443
▁연말	-18444
▁예하	-18445
▁척추	-18446
▁ind	-18447
▁게르만	-18448
▁암스테르담	-18449
ACK	-18450
▁공백	-18451
▁이덕	-18452
▁직할	-18453
▁동쪽에	-18454
▁서울에	-18455
||0	-18456
▁신학자	-18457
▁허가를	-18458
표는	-18459
▁베른	-18460
=1}^	-18461
▁평화를	-18462
▁되어있다	-18463
▁미스터리	-18464
▁설명하고	-18465
▁평안남도	-18466
▁믿는	-18467
▁수령	-18468
▁아쉬	-18469
▁조화	-18470
방향으로	-18471
▁넘게	-18472
▁사하	-18473
▁입양	-18474
▁헬리	-18475
▁제사를	-18476
태양	-18477
One	-18478
cup	-18479
eri	-18480
▁들어올	-18481
▁때문이라고	-18482
▁발매하였다	-18483
두의	-18484
▁사서	-18485
▁열전	-18486
▁읽기	-18487
▁시장을	-18488
▁올리버	-18489
▁자체의	-18490
▁치러진	-18491
▁스위스의	-18492
高麗	-18493
현도	-18494
▁단말	-18495
▁유영	-18496
▁후예	-18497
거리가	-18498
▁않았습니다	-18499
줌마	-18500
acy	-18501
▁밀리	-18502
▁신원	-18503
▁경찰의	-18504
▁고스트	-18505
▁국민당	-18506
▁남자의	-18507
▁연예인	-18508
▁리카	-18509
▁Str	-18510
▁결정에	-18511
▁코무네	-18512
urity	-18513
▁1883	-18514
람회	-18515
oli	-18516
▁줄여	-18517
이케	-18518
▁전산	-18519
▁초회	-18520
▁개인적	-18521
▁의원을	-18522
▁(1970	-18523
자고	-18524
터로	-18525
▁서태	-18526
▁이에야	-18527
▁출신인	-18528
ny	-18529
▁날이	-18530
▁청량	-18531
▁판례	-18532
ency	-18533
▁일리노이	-18534
▁Smith	-18535
▁대통령으로	-18536
ui	-18537
▁대웅	-18538
▁수에	-18539
▁안치	-18540
▁its	-18541
▁문과에	-18542
▁Code	-18543
▁정부로부터	-18544
▁헥	-18545
▁도키	-18546
▁상황은	-18547
▁언론인	-18548
▁이론에	-18549
▁작업이	-18550
▁****	-18551
▁Dictionary	-18552
▁튀니	-18553
(1998	-18554
▁Univers	-18555
▁늙	-18556
▁봉인	-18557
▁승자	-18558
▁형상	-18559
▁정치적인	-18560
RL	-18561
황을	-18562
▁규범	-18563
▁돼지	-18564
▁로비	-18565
▁일산	-18566
▁치는	-18567
▁필사	-18568
능력을	-18569
fess	-18570
uzzlet	-18571
노가	-18572
140	-18573
rpm	-18574
▁도는	-18575
▁번식	-18576
자들에	-18577
▁(2004)	-18578
무의	-18579
▁공수	-18580
▁향을	-18581
▁경찰이	-18582
▁교육과	-18583
▁비율이	-18584
▁설치하여	-18585
날의	-18586
청에	-18587
▁MB	-18588
▁공과	-18589
▁싸워	-18590
▁안창	-18591
▁한상	-18592
▁북부에	-18593
▁왕국을	-18594
두를	-18595
벽을	-18596
flo	-18597
▁min	-18598
▁먹이를	-18599
▁목록에	-18600
▁용어로	-18601
=150|	-18602
▁드립니다	-18603
exp	-18604
▁파동	-18605
ides	-18606
▁솔루션	-18607
▁사용자들의	-18608
▁article	-18609
▁나섰	-18610
▁도야마	-18611
▁백제의	-18612
▁Richard	-18613
토록	-18614
▁서귀	-18615
▁첼시	-18616
업로더	-18617
▁아이가	-18618
▁인근의	-18619
▁쿠웨이트	-18620
▁허드	-18621
▁오로지	-18622
IK	-18623
RU	-18624
▁첸	-18625
승률	-18626
현종	-18627
▁단역	-18628
▁수락	-18629
웨스트	-18630
dark	-18631
▁Dan	-18632
▁되돌려	-18633
▁밴드는	-18634
▁언론에	-18635
▁제니퍼	-18636
▁파나마	-18637
▁January	-18638
지방국토관리청공고	-18639
특급	-18640
▁전함	-18641
▁기하여	-18642
▁드디어	-18643
▁않았다는	-18644
▁한국독립	-18645
▁Econom	-18646
Ab	-18647
▁멍	-18648
로쿠	-18649
비안	-18650
▁김천	-18651
▁단절	-18652
루시아	-18653
프레드	-18654
▁모양이	-18655
▁사건과	-18656
▁지키기	-18657
▁브레이크	-18658
▁Dance	-18659
▁개발되었다	-18660
▁적용되었다	-18661
~7	-18662
▁듣지	-18663
▁남부에	-18664
▁실시하고	-18665
▁간사	-18666
▁노면	-18667
▁죽어	-18668
▁중요성을	-18669
▁천문학자	-18670
▁이렇	-18671
▁한중	-18672
▁해인	-18673
▁성장을	-18674
▁조직이	-18675
▁타카하시	-18676
1&	-18677
능한	-18678
▁모호	-18679
▁단어는	-18680
->	-18681
처분	-18682
카시	-18683
▁회상	-18684
적으로도	-18685
▁등지에서	-18686
▁어떨까요	-18687
▁2007)	-18688
▁여객철도의	-18689
▁_	-18690
다큐	-18691
▁일화	-18692
플라이	-18693
▁도시가	-18694
▁아돌프	-18695
카쿠	-18696
^2+	-18697
▁사당	-18698
▁베이커	-18699
▁보내고	-18700
▁트로이	-18701
RT	-18702
▁달고	-18703
▁막는	-18704
▁캐롤	-18705
▁쿠데타	-18706
▁떨어졌다	-18707
▁쿡	-18708
▁국악	-18709
▁장원	-18710
어지고	-18711
▁사회에서	-18712
▁주민들은	-18713
xx	-18714
ova	-18715
▁김덕	-18716
▁달이	-18717
▁모욕	-18718
▁별세	-18719
▁불평	-18720
▁아유	-18721
배치	-18722
▁강민	-18723
▁단식	-18724
▁동학	-18725
가능한	-18726
data	-18727
북스	-18728
▁넷째	-18729
▁무함	-18730
▁선비	-18731
수도권	-18732
▁시험을	-18733
▁없는데	-18734
(2017	-18735
▁{\	-18736
▁빈번	-18737
▁색상	-18738
apter	-18739
▁Peter	-18740
가정	-18741
뉴얼	-18742
:#6	-18743
▁산출	-18744
tilde	-18745
▁형태이다	-18746
▁스코틀랜드의	-18747
▁개가	-18748
▁경선	-18749
▁문과	-18750
▁Sol	-18751
▁레바논	-18752
▁북쪽의	-18753
▁지도를	-18754
▁북아일랜드	-18755
가야	-18756
재해	-18757
철이	-18758
▁수산	-18759
▁회로	-18760
스퍼드	-18761
콩가루	-18762
▁이해도를	-18763
▁잃어버린	-18764
▁샐	-18765
구라	-18766
웠고	-18767
▁생모	-18768
▁신영	-18769
▁자선	-18770
조참판	-18771
▁작업에	-18772
acter	-18773
▁르네상스	-18774
▁플라스틱	-18775
▁댈	-18776
두로	-18777
▁상류	-18778
▁야외	-18779
▁명확히	-18780
▁복소수	-18781
▁주도로	-18782
▁황제로	-18783
(2016	-18784
▁바르샤바	-18785
▁2005,	-18786
북구	-18787
업자	-18788
재정	-18789
▁박해	-18790
▁밖에도	-18791
▁부작용	-18792
▁이승만의	-18793
세손	-18794
▁가쿠	-18795
▁조립	-18796
appy	-18797
▁의무를	-18798
▁일하고	-18799
(2003	-18800
▁가져왔다	-18801
▁추측된다	-18802
▁콜로라도	-18803
▁Stand	-18804
체고	-18805
▁OP	-18806
▁SA	-18807
▁세키	-18808
▁않자	-18809
소방서	-18810
▁머리에	-18811
▁신이치	-18812
Green	-18813
range	-18814
▁(12)	-18815
▁정의한다	-18816
플레	-18817
JTBC	-18818
▁나타낸	-18819
▁마카오	-18820
▁엘리트	-18821
▁과거에는	-18822
▁2007,	-18823
artment	-18824
▁SL	-18825
▁늦게	-18826
▁윤종	-18827
로이드	-18828
▁섬으로	-18829
▁숫자는	-18830
▁벨라루스	-18831
▁오프라인	-18832
▁필요성을	-18833
▁Records	-18834
복의	-18835
운을	-18836
yal	-18837
▁노보	-18838
▁소문이	-18839
▁White	-18840
▁노르웨이의	-18841
천교	-18842
▁울프	-18843
[...]
