<pad>	0
<unk>	0
<s>	0
</s>	0
▁the	-3.25996
.	-3.35076
,	-3.37789
s	-3.69125
▁to	-3.86934
▁of	-4.00828
▁a	-4.04736
▁and	-4.05787
▁in	-4.2854
▁that	-4.78406
-	-4.86807
▁is	-4.8948
’	-4.89862
▁for	-4.92534
▁on	-5.03165
'	-5.04036
▁The	-5.2519
▁with	-5.27377
▁it	-5.29324
▁was	-5.39168
▁be	-5.49968
t	-5.52225
▁I	-5.57363
▁“	-5.59979
▁as	-5.61688
▁at	-5.63711
▁said	-5.66189
▁are	-5.67376
▁have	-5.67508
▁"	-5.69062
▁from	-5.71221
▁by	-5.71293
:	-5.73039
▁has	-5.78181
▁he	-5.78515
▁this	-5.82172
▁you	-5.8537
▁an	-5.90779
▁will	-5.90811
▁not	-5.9256
▁his	-5.96224
▁(	-5.97762
ing	-6.07476
)	-6.12233
▁they	-6.16732
▁or	-6.18387
▁but	-6.18517
▁we	-6.20384
ed	-6.22488
▁their	-6.25649
▁who	-6.26308
▁can	-6.31011
▁more	-6.31609
▁been	-6.34216
▁about	-6.36338
d	-6.38589
▁one	-6.41072
▁out	-6.42897
▁which	-6.43198
▁were	-6.44964
▁had	-6.46665
▁up	-6.48927
▁all	-6.49266
▁would	-6.50784
▁A	-6.55739
▁also	-6.56185
▁	-6.59457
m	-6.63022
re	-6.63714
▁It	-6.71874
▁people	-6.71949
▁new	-6.74686
▁In	-6.74831
▁when	-6.76005
.”	-6.76013
▁its	-6.76964
▁time	-6.77223
,”	-6.77258
▁so	-6.7759
▁after	-6.78311
▁like	-6.78542
▁than	-6.79586
”	-6.81842
▁over	-6.82054
▁your	-6.83465
?	-6.83649
▁what	-6.83749
▁her	-6.84334
,"	-6.85405
▁just	-6.85416
."	-6.85992
▁our	-6.86032
▁other	-6.86685
▁there	-6.86968
"	-6.87143
▁into	-6.87576
/	-6.89546
S	-6.89761
▁if	-6.90288
▁some	-6.9038
I	-6.90609
er	-6.90705
▁first	-6.91918
ly	-6.92738
▁two	-6.93791
▁He	-6.94112
▁do	-6.94192
▁year	-6.97095
▁no	-7.00013
▁them	-7.01493
y	-7.02752
▁she	-7.04974
▁—	-7.05091
a	-7.05977
e	-7.06625
▁could	-7.07291
▁get	-7.09138
▁my	-7.09841
▁last	-7.11658
▁now	-7.11861
▁only	-7.12724
▁-	-7.14241
▁him	-7.16185
▁But	-7.16491
▁years	-7.18182
▁–	-7.18562
▁This	-7.21458
!	-7.22045
▁make	-7.23803
▁how	-7.25477
▁any	-7.25724
▁back	-7.27474
▁We	-7.28202
ve	-7.29592
▁because	-7.29668
▁being	-7.30027
▁most	-7.30861
▁me	-7.32834
▁Trump	-7.38583
▁where	-7.39919
▁U	-7.39984
▁before	-7.4011
▁even	-7.41124
▁way	-7.42383
▁made	-7.4279
▁told	-7.42911
▁against	-7.44684
ll	-7.45075
▁see	-7.45196
The	-7.45322
▁well	-7.46095
▁these	-7.46325
▁many	-7.46708
▁those	-7.47011
▁game	-7.47887
▁know	-7.48821
▁very	-7.49388
n	-7.49835
▁while	-7.50261
▁work	-7.50389
▁don	-7.51591
in	-7.51726
▁then	-7.52385
▁going	-7.52392
▁should	-7.52418
▁says	-7.52715
▁And	-7.52787
▁down	-7.52833
▁government	-7.53527
r	-7.54459
▁team	-7.54697
▁much	-7.54867
▁through	-7.55314
▁think	-7.55504
th	-7.56242
▁us	-7.56361
▁take	-7.56368
;	-7.56444
▁New	-7.56674
▁may	-7.57027
▁off	-7.57081
▁three	-7.57151
▁use	-7.57661
▁want	-7.59257
▁still	-7.60279
al	-7.60352
i	-7.60437
o	-7.60602
▁say	-7.61873
▁right	-7.62092
▁world	-7.64185
▁police	-7.64599
▁during	-7.64785
▁around	-7.64865
com	-7.6569
▁go	-7.65861
es	-7.66667
▁here	-7.66769
We	-7.66915
▁did	-7.66971
▁such	-7.66997
▁week	-7.6736
▁state	-7.67635
▁good	-7.68414
▁since	-7.68927
▁part	-7.71433
▁between	-7.71517
▁If	-7.71541
▁day	-7.71858
▁need	-7.72429
▁million	-7.72862
▁1	-7.74722
▁S	-7.75823
▁2	-7.75923
▁next	-7.763
▁same	-7.76598
▁under	-7.76736
▁found	-7.79038
▁used	-7.79115
▁[	-7.79117
▁You	-7.79596
▁season	-7.80175
▁'	-7.80571
▁home	-7.81686
]	-7.8309
▁long	-7.83746
▁They	-7.83928
A	-7.83938
▁including	-7.84066
▁own	-7.84747
▁That	-7.85102
▁company	-7.85114
▁really	-7.85472
▁help	-7.85512
▁both	-7.85846
▁10	-7.86062
▁3	-7.86398
▁man	-7.87037
▁As	-7.87313
▁percent	-7.87957
▁public	-7.89581
D	-7.89728
▁come	-7.89783
▁country	-7.9059
▁end	-7.91042
▁support	-7.9152
▁according	-7.91808
▁So	-7.91827
or	-7.91849
year	-7.92173
▁another	-7.92201
ers	-7.93695
▁show	-7.93938
▁group	-7.94519
It	-7.95412
▁Mr	-7.95536
▁‘	-7.95958
C	-7.96135
▁For	-7.96141
man	-7.97893
▁set	-7.98167
▁high	-7.98523
▁re	-7.99546
▁few	-7.99561
▁report	-7.99824
▁number	-7.99829
▁place	-8.00972
▁video	-8.01387
▁best	-8.01434
▁called	-8.01976
▁There	-8.02298
g	-8.03743
▁4	-8.03967
▁per	-8.04005
),	-8.04281
▁look	-8.04355
▁too	-8.04674
▁got	-8.04722
▁lot	-8.04887
▁something	-8.05078
▁second	-8.05277
▁President	-8.05453
▁life	-8.05464
k	-8.05522
▁play	-8.05974
on	-8.06018
▁every	-8.06114
▁case	-8.06358
▁city	-8.06464
▁system	-8.07393
▁four	-8.07596
▁--	-8.07751
).	-8.07851
old	-8.07958
...	-8.08079
▁E	-8.08262
▁top	-8.09058
to	-8.09668
▁D	-8.1001
▁US	-8.10095
▁each	-8.1043
▁put	-8.10515
▁might	-8.1111
▁B	-8.11428
c	-8.11687
▁United	-8.11701
▁already	-8.11887
▁news	-8.11972
▁information	-8.12072
▁law	-8.12201
▁without	-8.12764
▁find	-8.1279
▁5	-8.13418
▁never	-8.14302
▁things	-8.14616
▁does	-8.15058
▁great	-8.15156
—	-8.15592
2	-8.15627
▁left	-8.15969
b	-8.16329
▁former	-8.16353
▁better	-8.17012
▁today	-8.1703
▁campaign	-8.17322
▁T	-8.17539
▁She	-8.17834
▁American	-8.18048
▁On	-8.18162
▁using	-8.18342
en	-8.18794
▁little	-8.1928
▁family	-8.20013
an	-8.20092
▁month	-8.20103
▁women	-8.20405
▁change	-8.20731
▁different	-8.20753
▁able	-8.20763
▁didn	-8.21034
▁days	-8.2141
▁far	-8.21666
▁To	-8.22148
▁O	-8.2216
▁free	-8.22388
▁added	-8.2262
▁later	-8.23432
▁money	-8.23581
▁past	-8.23712
▁media	-8.23956
▁data	-8.24134
▁big	-8.24471
▁president	-8.24595
p	-8.25054
the	-8.25255
▁took	-8.25272
▁point	-8.25496
▁Obama	-8.25703
h	-8.2583
▁full	-8.25902
▁night	-8.25923
▁making	-8.25967
l	-8.26258
▁came	-8.26261
▁One	-8.26495
▁No	-8.27425
▁House	-8.27452
▁When	-8.28059
▁again	-8.28182
▁five	-8.28213
▁until	-8.28354
▁away	-8.28535
▁un	-8.28566
▁won	-8.28601
▁de	-8.28924
▁State	-8.29075
T	-8.29113
3	-8.29559
▁C	-8.29571
▁least	-8.29631
and	-8.29676
▁working	-8.29819
▁reported	-8.29847
▁statement	-8.2997
▁games	-8.30363
▁York	-8.3129
▁story	-8.31302
▁why	-8.31882
▁P	-8.32129
▁car	-8.32223
▁power	-8.32274
▁start	-8.33621
▁run	-8.34294
▁open	-8.34722
▁available	-8.34787
▁Twitter	-8.34884
▁months	-8.35359
▁doesn	-8.35511
▁seen	-8.35676
▁several	-8.35751
▁Monday	-8.35913
▁local	-8.35956
▁G	-8.36253
able	-8.363
x	-8.36318
▁give	-8.36513
▁R	-8.36599
▁thing	-8.36636
▁Tuesday	-8.36806
▁Friday	-8.36814
▁keep	-8.36841
▁players	-8.36879
▁asked	-8.36965
▁less	-8.36971
B	-8.37019
K	-8.37027
▁school	-8.37442
1	-8.37817
F	-8.38264
▁head	-8.38802
G	-8.39038
▁20	-8.39246
▁court	-8.39652
▁water	-8.39841
▁children	-8.40177
▁What	-8.40243
▁though	-8.40317
▁deal	-8.40553
▁saying	-8.40904
▁K	-8.41047
▁likely	-8.41561
▁future	-8.41619
▁always	-8.4191
▁City	-8.41969
▁Facebook	-8.42039
▁released	-8.42048
▁whether	-8.42109
▁recent	-8.42235
▁University	-8.42315
▁members	-8.42427
▁enough	-8.42607
▁across	-8.42616
▁At	-8.43005
▁went	-8.43025
R	-8.43034
▁p	-8.43058
▁must	-8.43336
▁fact	-8.43571
N	-8.43637
▁Wednesday	-8.43688
▁community	-8.43721
▁order	-8.43742
▁business	-8.4401
▁move	-8.44019
▁yet	-8.44161
▁Thursday	-8.44287
▁post	-8.44386
▁After	-8.44457
▁News	-8.44657
4	-8.44867
▁early	-8.4487
▁name	-8.44894
▁become	-8.45035
▁6	-8.45057
▁release	-8.45137
▁series	-8.45363
▁All	-8.45544
▁May	-8.45671
▁ago	-8.46099
▁F	-8.46183
▁pay	-8.46345
▁ever	-8.46433
▁men	-8.46464
▁having	-8.46492
▁area	-8.4727
▁announced	-8.47348
▁issue	-8.47362
▁Clinton	-8.47607
▁real	-8.47867
▁&	-8.48052
co	-8.48333
▁sure	-8.48343
▁believe	-8.48427
▁security	-8.4869
▁taken	-8.48758
▁following	-8.48877
▁decision	-8.49009
▁officials	-8.4915
▁party	-8.49744
▁project	-8.49798
▁side	-8.49908
▁health	-8.50004
▁known	-8.50115
▁important	-8.50122
P	-8.50178
▁8	-8.50741
▁line	-8.50935
▁market	-8.50962
f	-8.51074
▁call	-8.51124
▁actually	-8.51176
▁However	-8.51332
▁small	-8.51412
▁N	-8.51519
z	-8.51527
▁While	-8.51581
▁service	-8.5162
▁hard	-8.51891
▁North	-8.51923
▁getting	-8.51941
▁looking	-8.51979
M	-8.52205
▁National	-8.52698
▁M	-8.52725
▁2016	-8.52874
5	-8.53743
▁course	-8.53784
▁John	-8.54005
▁plan	-8.54124
▁According	-8.54242
▁7	-8.54708
▁six	-8.54713
▁With	-8.5487
▁comes	-8.54929
▁Google	-8.54933
▁States	-8.55011
▁done	-8.55024
▁doing	-8.55129
▁Police	-8.55157
▁political	-8.55358
▁person	-8.55498
up	-8.5612
▁possible	-8.56328
▁Sunday	-8.56631
▁live	-8.57239
▁process	-8.57446
▁America	-8.57446
▁among	-8.57456
_	-8.57564
▁times	-8.57799
▁12	-8.5821
▁along	-8.58519
▁win	-8.58837
ic	-8.59054
▁event	-8.5927
W	-8.59461
▁started	-8.59578
▁coming	-8.59879
▁given	-8.60063
▁feel	-8.60068
▁federal	-8.60474
▁trying	-8.606
▁face	-8.60615
ar	-8.60848
▁An	-8.61049
▁national	-8.61114
▁love	-8.61152
u	-8.61162
▁woman	-8.61318
▁am	-8.61381
▁major	-8.61701
▁behind	-8.62189
▁once	-8.62214
▁below	-8.62259
▁reports	-8.62405
▁15	-8.62625
▁job	-8.6267
▁program	-8.62682
E	-8.62891
▁taking	-8.62985
▁study	-8.63139
▁bill	-8.63535
▁hit	-8.63888
▁thought	-8.63979
▁large	-8.64034
▁Washington	-8.64047
▁South	-8.64129
▁continue	-8.64248
▁China	-8.64255
▁@	-8.64353
▁old	-8.64399
▁official	-8.64457
▁within	-8.64479
▁office	-8.64487
▁based	-8.64664
▁Department	-8.64798
▁list	-8.64913
▁social	-8.64923
▁together	-8.64925
▁close	-8.6495
▁March	-8.64968
▁World	-8.65386
w	-8.65625
▁clear	-8.65698
it	-8.6573
is	-8.65796
▁...	-8.65841
▁site	-8.66021
▁near	-8.6603
▁current	-8.66062
▁tax	-8.66108
▁attack	-8.66401
us	-8.66457
▁online	-8.67096
▁half	-8.67185
▁recently	-8.67209
▁2017	-8.6725
▁bit	-8.67287
▁Saturday	-8.67386
▁expected	-8.67406
▁third	-8.67629
▁due	-8.67679
le	-8.6805
▁vote	-8.68106
▁isn	-8.68227
▁students	-8.68338
▁let	-8.68345
▁try	-8.6869
▁18	-8.6879
▁film	-8.68983
▁White	-8.69021
▁Republican	-8.69034
://	-8.69132
▁kind	-8.6915
▁level	-8.69159
▁June	-8.69162
▁means	-8.69193
V	-8.69263
ation	-8.69338
▁military	-8.69996
▁July	-8.70044
▁experience	-8.70166
▁young	-8.70212
▁Now	-8.70525
▁care	-8.70686
▁forward	-8.70909
▁final	-8.70943
▁(@	-8.71004
▁companies	-8.71012
This	-8.71104
v	-8.71246
▁control	-8.71313
▁player	-8.71339
▁L	-8.71504
▁often	-8.71513
▁hours	-8.71756
J	-8.71803
▁St	-8.71821
▁co	-8.72229
▁problem	-8.72287
▁earlier	-8.72308
▁billion	-8.72479
▁wrote	-8.72487
el	-8.72583
▁history	-8.72766
▁idea	-8.72899
▁include	-8.72968
▁rights	-8.73049
▁war	-8.73063
▁human	-8.73145
▁version	-8.73353
▁further	-8.73399
▁11	-8.73467
▁death	-8.7393
▁9	-8.73937
▁election	-8.74142
▁record	-8.74211
ist	-8.74213
▁action	-8.74596
▁research	-8.74838
▁food	-8.74868
▁30	-8.74885
▁W	-8.74896
▁San	-8.75557
▁space	-8.75816
▁provide	-8.76077
ton	-8.76195
▁H	-8.76386
▁April	-8.76407
▁2015	-8.76407
▁fans	-8.76487
▁lead	-8.76545
▁users	-8.76575
▁almost	-8.76632
▁director	-8.76732
▁website	-8.76859
▁policy	-8.76885
▁building	-8.7716
▁points	-8.77245
▁J	-8.77349
▁stop	-8.77467
▁De	-8.7748
▁makes	-8.77772
▁Re	-8.77897
▁#	-8.7792
▁e	-8.77981
▁outside	-8.77985
▁latest	-8.78052
de	-8.78265
▁weeks	-8.78377
▁wanted	-8.78399
▁hand	-8.78427
▁access	-8.78796
▁anything	-8.78909
▁question	-8.79241
▁s	-8.7927
ity	-8.7928
▁countries	-8.79394
▁shows	-8.79621
▁currently	-8.79741
▁West	-8.79807
▁non	-8.79879
▁single	-8.79973
▁someone	-8.80193
▁cost	-8.80444
▁special	-8.80461
▁running	-8.80587
▁plans	-8.80772
▁morning	-8.81114
▁development	-8.8117
▁front	-8.81181
▁issues	-8.81744
▁held	-8.8176
▁County	-8.81763
▁read	-8.81939
▁19	-8.82692
▁book	-8.82842
▁received	-8.82903
ion	-8.83145
▁create	-8.83211
▁Donald	-8.83227
▁others	-8.83335
▁body	-8.83341
▁phone	-8.83461
▁return	-8.83498
Y	-8.83593
▁short	-8.8392
L	-8.84035
▁shot	-8.84264
▁late	-8.84441
▁low	-8.8445
no	-8.84511
8	-8.84578
▁black	-8.84619
▁killed	-8.84713
▁via	-8.84716
▁played	-8.84813
▁however	-8.84816
▁fight	-8.85113
H	-8.85117
ro	-8.85333
▁Al	-8.85438
▁role	-8.85439
▁minutes	-8.85549
▁matter	-8.85584
▁bring	-8.85727
na	-8.8574
▁club	-8.85818
ne	-8.86062
▁Apple	-8.86268
▁light	-8.86464
▁interview	-8.86547
▁email	-8.86607
ia	-8.86683
He	-8.86708
▁TV	-8.86762
▁Here	-8.87206
▁fire	-8.87233
son	-8.87269
7	-8.87322
▁probably	-8.87372
▁playing	-8.87387
▁result	-8.87415
▁similar	-8.87475
▁states	-8.87552
▁anti	-8.87646
▁soon	-8.8767
▁January	-8.87788
▁share	-8.87793
un	-8.87798
▁By	-8.87931
▁technology	-8.87948
▁meeting	-8.88014
▁investigation	-8.88034
▁air	-8.88094
▁hope	-8.88126
6	-8.88217
▁November	-8.88222
time	-8.88246
▁services	-8.88372
▁pre	-8.88529
▁industry	-8.88936
▁price	-8.89141
O	-8.89593
▁September	-8.8973
ry	-8.89764
▁everyone	-8.89864
▁2014	-8.89959
▁saw	-8.90534
am	-8.90591
▁legal	-8.90714
▁total	-8.90725
▁staff	-8.90752
▁example	-8.90833
▁tell	-8.91139
▁nothing	-8.91253
te	-8.91404
▁seems	-8.91413
▁His	-8.9152
▁Court	-8.91714
▁Co	-8.91744
X	-8.91817
▁began	-8.91836
▁More	-8.91925
▁white	-8.92079
▁October	-8.92148
ment	-8.92405
▁Russia	-8.92712
▁Dr	-8.92903
▁build	-8.92973
▁Street	-8.93263
▁/	-8.93472
▁allow	-8.93581
▁Some	-8.93627
▁lost	-8.93846
▁house	-8.94013
▁energy	-8.94043
▁pretty	-8.94079
▁general	-8.94204
▁source	-8.9433
▁himself	-8.94873
▁Paul	-8.94875
▁X	-8.95007
▁August	-8.95138
▁position	-8.95184
▁key	-8.95286
▁reason	-8.95645
▁leave	-8.95758
9	-8.95967
il	-8.95977
▁page	-8.96087
▁rather	-8.96191
▁either	-8.96196
▁member	-8.96328
less	-8.96386
▁whole	-8.96421
▁bad	-8.96459
▁increase	-8.96582
▁India	-8.96696
▁press	-8.96711
▁international	-8.96726
▁cut	-8.9677
▁sent	-8.96844
▁everything	-8.96893
▁V	-8.96921
▁Minister	-8.96964
▁potential	-8.96989
▁involved	-8.97037
▁turn	-8.97138
▁evidence	-8.97336
▁David	-8.97373
0	-8.97475
▁inside	-8.97728
▁nearly	-8.97792
ley	-8.97834
ian	-8.9786
▁led	-8.97941
In	-8.97975
▁Senate	-8.98018
▁above	-8.9802
▁December	-8.98124
▁Do	-8.98244
▁decided	-8.98356
ie	-8.98491
based	-8.98744
▁form	-8.98761
▁published	-8.98804
▁app	-8.98955
▁incident	-8.99
▁UK	-8.9919
▁wasn	-8.99235
▁child	-8.99269
ling	-8.99286
▁California	-8.99337
▁comments	-8.99568
▁test	-8.99757
▁My	-8.99938
▁anyone	-9.0003
▁offer	-9.00533
▁original	-9.00561
▁comment	-9.01021
▁sign	-9.01032
▁officers	-9.01049
age	-9.01211
▁16	-9.01453
▁League	-9.01488
j	-9.01621
▁La	-9.0164
▁groups	-9.01659
▁couple	-9.02032
▁needs	-9.02124
ness	-9.02158
▁music	-9.02238
▁Center	-9.02262
▁Canada	-9.0229
▁goal	-9.02369
me	-9.02491
▁strong	-9.02518
▁field	-9.02531
▁These	-9.02574
▁race	-9.02579
▁Park	-9.02803
▁content	-9.02916
▁longer	-9.02922
▁board	-9.02992
▁oil	-9.03056
▁career	-9.03091
▁main	-9.03178
▁officer	-9.03222
▁quite	-9.03244
▁Image	-9.03338
U	-9.03439
▁European	-9.03625
▁account	-9.03718
▁Russian	-9.0374
ra	-9.03831
▁Congress	-9.03856
▁instead	-9.03869
▁friends	-9.03885
▁leader	-9.03942
at	-9.03986
▁gun	-9.04074
▁talk	-9.04089
▁i	-9.044
▁response	-9.04569
as	-9.04751
▁room	-9.05023
▁created	-9.05312
ary	-9.05335
▁Times	-9.05339
▁mean	-9.05385
ta	-9.05472
▁interest	-9.05682
▁14	-9.05722
▁changes	-9.05832
▁rate	-9.0586
▁chance	-9.0602
▁private	-9.06221
▁needed	-9.06409
la	-9.06417
▁100	-9.06513
▁How	-9.06518
▁chief	-9.06598
▁average	-9.06628
▁administration	-9.07079
▁summer	-9.07701
rs	-9.07778
▁themselves	-9.07786
(	-9.07813
▁amount	-9.07816
▁especially	-9.08074
▁design	-9.0814
▁rest	-9.08235
▁13	-9.08246
▁article	-9.08351
▁situation	-9.08366
▁ground	-9.08372
▁results	-9.08495
▁arrested	-9.0887
be	-9.08995
ch	-9.09081
▁code	-9.0922
▁cent	-9.09269
▁details	-9.09276
▁risk	-9.09688
▁happened	-9.09707
▁network	-9.09728
▁higher	-9.10303
▁view	-9.1036
▁seven	-9.10367
▁Last	-9.10487
▁add	-9.10791
▁features	-9.10815
▁age	-9.10852
▁coach	-9.10865
▁Man	-9.1094
▁popular	-9.10966
▁financial	-9.11047
▁step	-9.11141
▁50	-9.11162
▁questions	-9.11186
ism	-9.11274
▁heard	-9.11394
▁personal	-9.11588
▁itself	-9.11686
▁February	-9.11782
▁simply	-9.11791
▁First	-9.12143
▁force	-9.12194
ty	-9.12201
▁economic	-9.1235
▁pro	-9.1257
▁Americans	-9.12674
▁posted	-9.12703
▁2013	-9.12872
▁London	-9.12942
▁medical	-9.12945
▁Texas	-9.13033
▁Michael	-9.13111
▁became	-9.13351
▁trade	-9.13456
▁wrong	-9.1383
▁addition	-9.13851
There	-9.14044
▁check	-9.1411
▁confirmed	-9.1413
▁agency	-9.14187
▁true	-9.14295
If	-9.14354
▁included	-9.14396
▁weekend	-9.14628
▁Not	-9.14777
out	-9.1522
▁Post	-9.15296
▁wants	-9.15404
▁follow	-9.15435
▁biggest	-9.15612
▁conference	-9.15627
▁|	-9.15637
▁stay	-9.15707
▁global	-9.15772
ad	-9.15782
▁image	-9.16047
▁period	-9.16106
▁workers	-9.16225
▁watch	-9.16229
▁performance	-9.16393
▁Red	-9.16426
▁gave	-9.16506
do	-9.16691
▁claims	-9.16752
▁entire	-9.16766
▁Israel	-9.16819
▁previous	-9.16989
▁Le	-9.17073
▁living	-9.17132
▁worked	-9.17144
ter	-9.17148
▁else	-9.17431
▁hold	-9.17558
▁25	-9.17597
▁tried	-9.17778
▁easy	-9.17817
▁device	-9.17944
▁drug	-9.17957
▁message	-9.18017
▁eight	-9.18085
▁star	-9.18097
▁address	-9.18332
▁Democratic	-9.18339
▁spent	-9.18544
▁allowed	-9.18708
▁understand	-9.18748
▁17	-9.18768
▁contract	-9.18938
▁presidential	-9.18985
est	-9.19173
▁Europe	-9.19309
▁areas	-9.19337
ca	-9.19507
▁mind	-9.19606
▁customers	-9.19749
▁letter	-9.19784
▁buy	-9.19925
▁movie	-9.19997
▁James	-9.20021
▁Of	-9.20226
▁Party	-9.20273
▁ahead	-9.20376
▁happen	-9.20494
▁store	-9.20526
▁sense	-9.20583
▁charges	-9.2067
▁turned	-9.20708
▁goes	-9.21002
ur	-9.21061
▁production	-9.21118
▁Republicans	-9.21127
▁visit	-9.21147
▁student	-9.21191
▁problems	-9.21272
▁training	-9.21303
▁Go	-9.21509
▁Star	-9.21532
▁Or	-9.21555
▁died	-9.21616
▁executive	-9.21662
▁mother	-9.21676
▁model	-9.21696
▁impact	-9.21754
▁cases	-9.21897
▁huge	-9.21934
of	-9.21972
▁events	-9.2207
▁Read	-9.221
▁2012	-9.22158
▁opportunity	-9.22198
▁lives	-9.22237
▁ready	-9.22464
▁teams	-9.22536
▁Day	-9.22544
You	-9.22608
▁showed	-9.22618
▁foreign	-9.22624
▁Be	-9.22711
▁land	-9.22722
▁moment	-9.22737
▁economy	-9.22747
▁looks	-9.22777
▁brought	-9.22834
▁War	-9.22887
by	-9.22924
id	-9.23091
▁manager	-9.2328
ting	-9.23318
▁worth	-9.23332
▁difficult	-9.23378
▁British	-9.23379
▁fun	-9.23459
ine	-9.23466
ul	-9.23471
▁date	-9.23513
▁whose	-9.23533
▁son	-9.2355
▁cannot	-9.2368
▁attacks	-9.23717
▁cause	-9.23792
▁Bill	-9.23794
▁growth	-9.23892
▁words	-9.24064
▁nation	-9.24085
ir	-9.24406
▁photo	-9.24438
▁scene	-9.2445
@	-9.24534
▁quickly	-9.246
▁self	-9.24901
▁built	-9.25018
▁effort	-9.25118
one	-9.25126
ner	-9.25127
▁products	-9.25389
▁signed	-9.25676
land	-9.25677
▁stand	-9.25715
▁class	-9.25724
▁safety	-9.25775
▁candidate	-9.258
▁voters	-9.25991
im	-9.26269
▁launch	-9.26356
ce	-9.26361
▁father	-9.26389
▁character	-9.26551
▁certain	-9.26572
▁receive	-9.26574
▁$1	-9.26673
▁pick	-9.26702
▁rules	-9.26814
▁senior	-9.26816
▁feature	-9.26984
▁town	-9.2705
▁despite	-9.27107
▁expect	-9.27158
▁includes	-9.2719
▁search	-9.27208
▁paid	-9.27309
▁range	-9.27386
▁leaders	-9.27432
▁revealed	-9.27465
▁authorities	-9.27498
ma	-9.27658
▁shooting	-9.27885
▁East	-9.27963
▁football	-9.28018
▁*	-9.28368
▁sales	-9.2838
▁heart	-9.28396
▁spokesman	-9.28398
▁21	-9.28439
▁region	-9.28584
▁value	-9.28594
▁named	-9.2862
▁fall	-9.2862
▁24	-9.28649
▁Black	-9.28747
▁ability	-9.2881
▁road	-9.28847
▁Act	-9.28863
▁Australia	-9.2895
▁serious	-9.29072
".	-9.29094
▁leading	-9.29112
▁league	-9.2921
▁significant	-9.29242
▁meet	-9.29393
▁forces	-9.29423
▁jobs	-9.29428
▁break	-9.29438
▁takes	-9.2955
▁Democrats	-9.29824
▁focus	-9.29827
They	-9.29853
▁attention	-9.29932
ted	-9.29957
▁Chinese	-9.29983
▁Mo	-9.30069
▁Advertisement	-9.30102
▁learn	-9.30124
▁Pro	-9.30229
▁researchers	-9.30372
▁starting	-9.30385
▁previously	-9.30436
▁terms	-9.30569
▁stories	-9.30652
▁immediately	-9.30693
off	-9.30783
▁works	-9.30927
▁friend	-9.3096
▁complete	-9.31
▁speech	-9.31007
▁From	-9.31031
▁debate	-9.31118
▁parents	-9.31154
▁numbers	-9.31249
se	-9.31263
▁Hillary	-9.31293
Z	-9.31405
▁continued	-9.31583
▁budget	-9.31606
▁Mark	-9.3162
▁ask	-9.31659
li	-9.31662
▁remain	-9.31702
▁lower	-9.31729
ate	-9.31806
▁type	-9.31913
▁word	-9.31952
▁match	-9.32074
▁simple	-9.32185
▁violence	-9.32498
ized	-9.32567
▁remains	-9.32677
▁effect	-9.32689
▁paper	-9.32691
▁con	-9.32762
▁sexual	-9.32801
▁charge	-9.32943
▁Even	-9.33089
led	-9.3321
ful	-9.33254
▁product	-9.3335
▁accused	-9.33363
▁40	-9.33367
day	-9.33455
▁giving	-9.33545
ies	-9.33572
▁Don	-9.33603
▁Microsoft	-9.33718
▁Fox	-9.3377
▁dead	-9.33786
▁gas	-9.33936
▁claim	-9.33956
▁efforts	-9.34062
▁protect	-9.34114
▁cover	-9.34177
▁al	-9.3418
▁Photo	-9.34334
▁charged	-9.34387
▁happy	-9.34417
▁track	-9.3451
ke	-9.34715
▁claimed	-9.34753
▁additional	-9.34812
▁minister	-9.34893
▁round	-9.35291
▁adding	-9.35314
▁common	-9.35328
▁Florida	-9.35447
▁contact	-9.35551
▁largest	-9.35759
▁Just	-9.35842
▁EU	-9.3589
▁hospital	-9.359
▁various	-9.3595
▁user	-9.36065
▁title	-9.36166
ge	-9.36259
▁School	-9.36337
▁organization	-9.36407
go	-9.36493
▁sex	-9.36553
▁appears	-9.36634
▁ban	-9.36802
▁red	-9.3688
▁review	-9.3689
▁pass	-9.36946
▁Council	-9.3696
▁wife	-9.36965
▁hear	-9.36983
▁growing	-9.37081
▁International	-9.37105
▁talking	-9.37337
pe	-9.37652
et	-9.37938
da	-9.38008
▁card	-9.38063
ive	-9.38088
▁Z	-9.38097
▁passed	-9.38263
▁seem	-9.38296
▁hands	-9.38296
▁appeared	-9.38441
▁Cup	-9.38556
▁base	-9.38678
ka	-9.38687
▁thousands	-9.38965
▁Green	-9.39044
▁size	-9.394
▁Sen	-9.39549
▁climate	-9.39551
▁majority	-9.39629
▁kids	-9.39677
▁Syria	-9.39684
▁multiple	-9.39745
▁provided	-9.39764
▁described	-9.39775
▁marijuana	-9.39862
▁0	-9.39869
▁designed	-9.39887
▁center	-9.39915
▁defense	-9.39933
▁calls	-9.3994
▁crime	-9.40214
ated	-9.40251
▁General	-9.40451
▁software	-9.40479
▁costs	-9.40489
line	-9.40631
▁vehicle	-9.40633
▁present	-9.40749
&	-9.40752
▁loss	-9.40836
▁employees	-9.4093
▁practice	-9.41078
▁driver	-9.41099
ak	-9.41113
▁considered	-9.41142
▁art	-9.41175
▁guy	-9.41305
▁Japan	-9.41429
▁criminal	-9.41443
▁quality	-9.41672
▁http	-9.4168
▁interesting	-9.417
▁Since	-9.4174
▁Windows	-9.41754
▁finally	-9.41803
▁devices	-9.41816
▁Office	-9.41935
▁safe	-9.42048
▁levels	-9.42189
▁ensure	-9.42446
▁pressure	-9.42483
▁calling	-9.42558
ant	-9.42591
per	-9.42596
▁felt	-9.4277
men	-9.42854
▁prison	-9.42913
▁term	-9.42924
▁spending	-9.43069
▁population	-9.431
▁appear	-9.4315
▁travel	-9.43238
▁El	-9.43268
▁Union	-9.4333
▁NFL	-9.43348
▁God	-9.43381
▁station	-9.43453
▁act	-9.43497
▁Sanders	-9.43641
▁launched	-9.43829
▁stage	-9.43881
ri	-9.43885
▁host	-9.43968
▁ways	-9.44042
▁Mar	-9.44051
▁Korea	-9.44075
▁completely	-9.44111
▁Press	-9.44169
▁met	-9.44396
▁Smith	-9.44399
▁required	-9.44412
▁property	-9.44461
▁Internet	-9.4448
▁capital	-9.44778
▁committee	-9.44864
▁reached	-9.44884
▁sold	-9.44928
▁save	-9.45
▁failed	-9.45011
▁specific	-9.45146
▁mobile	-9.45235
▁throughout	-9.45235
▁Chicago	-9.45278
▁agreement	-9.45284
▁]	-9.4539
▁drive	-9.45393
▁Android	-9.45421
▁reach	-9.45701
▁Chris	-9.45815
▁exactly	-9.45822
▁French	-9.45828
▁continues	-9.45846
▁Mike	-9.45911
▁certainly	-9.46049
▁extra	-9.46095
▁sources	-9.46173
▁piece	-9.46246
▁gone	-9.46263
▁Two	-9.46352
con	-9.46428
ally	-9.46474
▁Germany	-9.46489
▁fan	-9.46683
▁poll	-9.46795
▁families	-9.46894
▁update	-9.46899
▁answer	-9.46933
▁bank	-9.46983
▁success	-9.47006
▁edit	-9.47257
%	-9.47265
▁issued	-9.47279
▁knew	-9.47312
▁lack	-9.47348
▁laws	-9.47579
▁Justice	-9.47668
▁residents	-9.47797
▁forced	-9.47915
ating	-9.47934
▁aren	-9.47949
▁wait	-9.48062
▁German	-9.48087
▁compared	-9.48166
▁moving	-9.48472
▁individual	-9.48475
▁$	-9.48489
▁See	-9.48501
▁helped	-9.48532
▁begin	-9.48534
▁wouldn	-9.48621
▁increased	-9.48623
▁girl	-9.48669
▁join	-9.48699
▁written	-9.48752
▁female	-9.48969
▁CEO	-9.49014
▁Ben	-9.49097
▁consider	-9.49104
▁Brown	-9.49114
sh	-9.49406
▁computer	-9.49411
▁Please	-9.49429
▁although	-9.49515
▁guys	-9.49544
▁file	-9.49551
▁screen	-9.49645
▁France	-9.49647
▁bar	-9.49653
▁send	-9.49656
▁Follow	-9.49663
▁Our	-9.49664
▁Car	-9.49742
▁sound	-9.4976
▁education	-9.49843
▁threat	-9.49855
▁platform	-9.49941
▁fast	-9.4997
▁firm	-9.49977
+	-9.50033
ol	-9.50186
▁victim	-9.50201
▁block	-9.50398
for	-9.5042
▁cars	-9.50426
▁England	-9.50465
di	-9.5048
nd	-9.50537
▁Committee	-9.50687
▁gay	-9.50687
▁particularly	-9.50713
▁22	-9.50741
▁treatment	-9.50783
▁particular	-9.5083
▁Also	-9.50842
▁marriage	-9.50884
▁blog	-9.50887
▁border	-9.50889
lo	-9.50891
▁illegal	-9.50956
ni	-9.51035
▁department	-9.51103
▁Johnson	-9.51132
▁Los	-9.51168
▁prevent	-9.51193
▁prices	-9.51242
▁damage	-9.51253
▁caused	-9.51291
▁Iran	-9.51363
den	-9.51473
▁eye	-9.51476
▁choice	-9.51476
ish	-9.51571
▁speed	-9.51686
▁nuclear	-9.51698
▁judge	-9.51771
▁ball	-9.51794
▁Then	-9.51929
▁option	-9.51997
▁•	-9.52076
▁regular	-9.52089
▁Super	-9.52091
▁changed	-9.52116
way	-9.52136
▁college	-9.52147
▁goals	-9.52212
▁figure	-9.52256
▁attempt	-9.52317
▁rise	-9.52434
▁George	-9.52678
▁Get	-9.52688
▁en	-9.52762
▁filed	-9.53069
▁quarter	-9.53102
▁Me	-9.53109
mo	-9.53125
ex	-9.53204
▁Earth	-9.53237
▁2011	-9.53304
▁hour	-9.53313
▁favorite	-9.53346
▁digital	-9.5338
▁movement	-9.53402
▁directly	-9.5345
▁credit	-9.53505
um	-9.53531
▁hearing	-9.53545
▁sort	-9.53566
▁relationship	-9.53604
▁noted	-9.53635
▁concerns	-9.53636
os	-9.53647
▁approach	-9.53675
▁injury	-9.53721
▁legislation	-9.54085
?”	-9.54088
▁raised	-9.54228
▁Most	-9.54233
▁parts	-9.54287
▁material	-9.54336
▁reportedly	-9.54352
▁box	-9.54472
▁towards	-9.54493
▁Air	-9.54534
▁request	-9.54676
▁agreed	-9.54778
▁moved	-9.54786
▁fine	-9.54846
▁offered	-9.54947
▁v	-9.55136
▁looked	-9.55154
▁c	-9.5518
▁Security	-9.55235
▁Prime	-9.55243
▁Bay	-9.55306
▁During	-9.55331
▁weapons	-9.55472
▁language	-9.55549
▁target	-9.55559
▁Con	-9.55575
▁science	-9.55599
▁camera	-9.55627
▁images	-9.55671
▁nine	-9.55821
▁overall	-9.55871
▁couldn	-9.55923
▁followed	-9.56165
▁spend	-9.56168
▁related	-9.56348
ha	-9.56365
ger	-9.56421
▁limited	-9.56446
▁asking	-9.56457
But	-9.56469
▁challenge	-9.56503
▁unique	-9.56546
▁la	-9.5656
▁murder	-9.5664
▁reading	-9.56653
▁Ko	-9.56674
▁funding	-9.56676
▁opening	-9.5677
▁middle	-9.56789
10	-9.56791
▁please	-9.5712
▁band	-9.57145
ler	-9.57172
▁Let	-9.57186
▁trial	-9.57304
▁owner	-9.57318
▁battle	-9.57348
–	-9.57401
ous	-9.5742
▁King	-9.57467
▁spot	-9.57523
▁traffic	-9.57589
▁Health	-9.57632
▁Ar	-9.57642
▁improve	-9.57721
▁natural	-9.5776
▁Like	-9.57793
▁believed	-9.57861
▁Game	-9.57874
▁Her	-9.57879
▁systems	-9.58167
▁Many	-9.5822
▁brain	-9.58227
▁competition	-9.58305
▁beginning	-9.58434
▁Canadian	-9.58519
▁60	-9.58537
▁Lo	-9.5861
▁conditions	-9.58631
▁toward	-9.58648
▁showing	-9.58694
▁leaving	-9.58734
▁fully	-9.58776
▁religious	-9.58906
▁assault	-9.58934
▁demand	-9.58969
▁wide	-9.59011
▁Share	-9.59054
▁picture	-9.59188
▁daily	-9.59229
▁Jones	-9.59311
▁reality	-9.59331
▁gets	-9.59385
▁Bank	-9.59488
▁People	-9.59496
▁beyond	-9.59547
we	-9.59656
▁income	-9.59721
▁alone	-9.59892
▁Can	-9.59978
▁dis	-9.60017
▁Media	-9.60021
ti	-9.60077
▁2010	-9.60078
▁cities	-9.6011
▁upon	-9.60155
▁driving	-9.60182
▁announcement	-9.60269
▁blood	-9.60342
▁photos	-9.60349
▁allows	-9.60439
▁standard	-9.6057
back	-9.60591
▁sell	-9.60617
▁Ryan	-9.60644
▁stuff	-9.60645
▁Today	-9.60713
▁Islamic	-9.60726
▁culture	-9.608
▁author	-9.6092
▁environment	-9.60988
▁note	-9.61104
▁fighting	-9.612
▁positive	-9.61208
▁High	-9.61278
▁ex	-9.61286
Q	-9.61347
▁Watch	-9.61377
▁Bo	-9.61445
▁annual	-9.61452
▁Why	-9.61499
▁internet	-9.61504
▁alleged	-9.61641
▁door	-9.61745
▁super	-9.61749
▁iPhone	-9.61751
▁23	-9.61772
▁web	-9.61946
▁Tom	-9.61963
▁Although	-9.62014
▁explained	-9.62113
▁feet	-9.62125
▁ended	-9.62155
end	-9.62159
▁shown	-9.62253
▁maybe	-9.6229
▁Israeli	-9.62331
▁GOP	-9.62394
he	-9.62472
▁street	-9.62642
▁schools	-9.62678
20	-9.62686
▁proposed	-9.62934
▁projects	-9.62954
▁Amazon	-9.63013
▁text	-9.63075
▁supporters	-9.63115
▁television	-9.63199
30	-9.63371
▁cash	-9.63448
▁sub	-9.63554
▁dog	-9.6358
▁remember	-9.63623
▁Iraq	-9.63742
▁haven	-9.63755
▁=	-9.63756
▁options	-9.6397
▁avoid	-9.63991
der	-9.64133
▁victims	-9.64175
▁Scott	-9.64189
▁perfect	-9.64204
ber	-9.6421
▁Over	-9.64223
▁Angeles	-9.64265
▁District	-9.64365
▁location	-9.64427
▁enjoy	-9.64573
▁opened	-9.64592
▁primary	-9.64593
▁discovered	-9.6471
▁benefits	-9.64811
bo	-9.64827
▁crisis	-9.64836
▁massive	-9.64853
▁d	-9.64878
That	-9.64909
▁Bitcoin	-9.64954
▁Your	-9.65007
▁central	-9.65115
▁caption	-9.65125
▁:	-9.65168
ize	-9.65277
▁respect	-9.65317
▁writing	-9.65337
lin	-9.65345
▁highest	-9.65351
ster	-9.65391
▁modern	-9.65393
▁miles	-9.65447
twitter	-9.65546
▁developed	-9.65647
▁FBI	-9.65762
▁Association	-9.6579
em	-9.65843
▁Australian	-9.65847
▁subject	-9.65902
▁https	-9.65934
▁sea	-9.66026
term	-9.66064
ey	-9.66092
▁Mac	-9.66208
▁documents	-9.6622
▁nice	-9.66285
▁PC	-9.66296
▁eventually	-9.6648
ga	-9.66508
po	-9.66509
▁g	-9.66542
▁brand	-9.66558
▁closed	-9.66569
▁drop	-9.66605
”.	-9.66643
▁daughter	-9.66649
▁arrest	-9.66794
▁English	-9.66894
▁link	-9.67013
▁push	-9.67017
▁1,	-9.67038
▁Group	-9.67194
▁Q	-9.67215
▁reduce	-9.67258
▁sale	-9.67305
mer	-9.67492
▁Indian	-9.67579
▁lose	-9.67606
▁seeing	-9.67667
▁citizens	-9.67681
▁intelligence	-9.67716
like	-9.67784
▁abuse	-9.67859
▁afternoon	-9.67941
▁rule	-9.67951
▁write	-9.67951
▁Big	-9.68001
▁fear	-9.68029
▁suspect	-9.68035
▁successful	-9.68086
▁rates	-9.68145
▁floor	-9.68285
▁speak	-9.68304
▁+	-9.68364
▁Government	-9.68381
▁Di	-9.68393
▁voice	-9.68412
▁boy	-9.68423
▁spoke	-9.68602
▁actions	-9.68689
▁debt	-9.68716
▁notice	-9.68759
ci	-9.68819
▁Daily	-9.68823
▁highly	-9.6887
va	-9.6891
▁shared	-9.68979
▁mission	-9.68998
▁civil	-9.69026
▁deep	-9.69117
▁Well	-9.693
▁businesses	-9.69436
▁Bar	-9.69516
▁district	-9.69544
▁draft	-9.69582
▁Muslim	-9.69591
▁characters	-9.69604
▁poor	-9.69807
▁planned	-9.69841
▁hot	-9.6998
And	-9.70065
▁mid	-9.70079
▁carry	-9.70158
field	-9.7017
▁powerful	-9.70191
▁activity	-9.70217
ah	-9.70237
▁Other	-9.70257
▁thinking	-9.70329
▁interested	-9.70347
▁winning	-9.70402
▁choose	-9.70467
▁victory	-9.70638
▁serve	-9.70655
▁CNN	-9.70661
▁cast	-9.70688
▁Y	-9.70825
▁responsible	-9.70874
▁Martin	-9.7095
▁reasons	-9.70972
▁raise	-9.70978
▁Bush	-9.71
▁trip	-9.71052
ard	-9.71112
▁Toronto	-9.71138
▁Show	-9.71171
▁Another	-9.71279
rd	-9.71311
▁investment	-9.71396
▁planning	-9.71437
▁opposition	-9.71444
▁believes	-9.71484
▁kept	-9.71499
▁benefit	-9.7155
▁Rep	-9.71571
▁Under	-9.71611
▁operations	-9.71693
▁BBC	-9.71696
▁album	-9.71819
▁color	-9.71827
▁walk	-9.71897
▁Team	-9.71934
▁perhaps	-9.71944
ite	-9.7199
▁f	-9.72011
▁sometimes	-9.72069
▁Commission	-9.72086
▁enforcement	-9.72126
▁Ho	-9.72134
▁decades	-9.72141
▁Institute	-9.7225
▁allegedly	-9.72391
▁policies	-9.7254
▁double	-9.72546
▁caught	-9.72595
▁scientists	-9.72605
▁condition	-9.72611
▁dollars	-9.72664
▁Peter	-9.72736
▁records	-9.7285
▁injured	-9.72857
▁green	-9.72869
▁identified	-9.73057
▁ruling	-9.73091
▁joined	-9.73158
▁Jan	-9.73167
▁necessary	-9.73204
▁usually	-9.73281
▁28	-9.73347
=	-9.73372
▁grow	-9.73437
▁yesterday	-9.73477
▁Robert	-9.73488
▁pic	-9.73526
▁difference	-9.73547
▁putting	-9.73721
▁parties	-9.73729
▁b	-9.73793
▁larger	-9.73868
▁cancer	-9.73908
▁ran	-9.73935
▁creating	-9.73954
▁items	-9.73976
▁episode	-9.73982
▁scheduled	-9.73983
wa	-9.74011
▁holding	-9.74026
▁Syrian	-9.74063
▁suggested	-9.74091
▁26	-9.7413
▁talks	-9.74177
▁Wall	-9.74265
▁kill	-9.74463
▁hundreds	-9.74496
▁vehicles	-9.7474
▁ice	-9.74741
▁independent	-9.74754
▁Both	-9.74769
▁clearly	-9.74791
ship	-9.74804
▁status	-9.74954
▁Na	-9.7503
▁missing	-9.75096
▁crowd	-9.75117
▁Director	-9.75145
▁display	-9.75194
▁Secretary	-9.75235
org	-9.75271
pm	-9.7528
▁easily	-9.75281
▁straight	-9.75393
▁individuals	-9.75411
▁Un	-9.7547
▁Supreme	-9.75479
▁Joe	-9.75491
▁progress	-9.75582
▁fourth	-9.75695
▁survey	-9.75717
▁song	-9.75741
▁society	-9.75771
▁direct	-9.75805
▁yourself	-9.75894
▁beat	-9.75933
▁removed	-9.7594
▁clean	-9.75971
ization	-9.7599
▁Service	-9.76005
▁cool	-9.76017
▁offers	-9.76126
▁27	-9.76162
▁hasn	-9.76225
▁$2	-9.76266
▁coverage	-9.76286
▁gives	-9.76413
all	-9.76465
▁Ka	-9.76535
▁apparently	-9.76544
▁camp	-9.76663
▁protest	-9.76726
▁Ms	-9.76768
ja	-9.76798
▁physical	-9.76824
▁construction	-9.76864
▁Images	-9.76875
▁Britain	-9.76913
▁served	-9.77093
ent	-9.77098
▁Free	-9.77101
▁copyright	-9.7718
ko	-9.77186
▁Time	-9.77188
▁train	-9.772
▁fit	-9.77218
▁Mexico	-9.77355
▁traditional	-9.77397
▁require	-9.77454
What	-9.77506
ut	-9.77516
▁council	-9.77559
ek	-9.77561
▁returned	-9.77571
▁fair	-9.77572
▁myself	-9.77576
▁fired	-9.77602
When	-9.77613
▁patients	-9.77618
▁radio	-9.77622
▁application	-9.77636
▁THE	-9.77716
▁Will	-9.77732
▁amazing	-9.77735
▁candidates	-9.77779
▁books	-9.77871
▁partner	-9.77904
▁Sa	-9.78052
▁park	-9.78085
▁attorney	-9.78159
▁analysis	-9.78197
▁plant	-9.78206
not	-9.78214
▁Road	-9.7824
▁Sun	-9.7825
▁normal	-9.78286
▁dangerous	-9.78309
▁upcoming	-9.78437
▁watching	-9.78541
▁stated	-9.78649
▁Chief	-9.78658
www	-9.78694
ise	-9.78793
▁male	-9.78796
▁table	-9.78839
side	-9.78846
50	-9.7885
ya	-9.78884
▁style	-9.78898
▁lawsuit	-9.78917
▁arrived	-9.78965
▁Those	-9.79022
▁quick	-9.79071
au	-9.79097
▁freedom	-9.79147
ier	-9.79219
▁professional	-9.79224
▁politics	-9.79234
▁reporters	-9.79266
▁advantage	-9.79272
▁develop	-9.79351
▁exchange	-9.79351
Re	-9.79493
▁concerned	-9.795
▁excited	-9.79619
▁weight	-9.79706
ac	-9.79759
▁Hill	-9.79761
ham	-9.79782
▁figures	-9.79783
▁sports	-9.79784
▁$3	-9.79807
▁sites	-9.79821
tion	-9.79846
▁definitely	-9.79881
▁Because	-9.79941
▁Christian	-9.79952
min	-9.79973
▁purchase	-9.79995
ping	-9.80045
▁programs	-9.80096
▁Li	-9.80115
▁vs	-9.80183
▁names	-9.80233
▁Despite	-9.80297
ba	-9.80321
▁injuries	-9.80328
▁owners	-9.80373
▁stock	-9.80397
▁committed	-9.80398
▁resources	-9.80413
As	-9.80476
▁mass	-9.80573
▁commercial	-9.80616
▁produced	-9.80646
▁agree	-9.80649
▁effects	-9.8069
▁animals	-9.80767
les	-9.80777
ance	-9.80799
▁fell	-9.80844
▁dark	-9.80869
▁happens	-9.8098
▁Lu	-9.81034
▁produce	-9.81268
▁m	-9.81275
▁Carolina	-9.813
▁blue	-9.81328
▁Steve	-9.81374
▁critical	-9.81384
▁existing	-9.81448
▁enter	-9.81471
▁management	-9.81495
▁Who	-9.81556
▁pair	-9.81598
▁Sports	-9.81639
▁Sign	-9.81648
▁husband	-9.81663
▁measure	-9.81715
▁solution	-9.81772
q	-9.81847
▁learned	-9.8188
▁Up	-9.81958
▁offering	-9.82031
▁College	-9.82074
▁allowing	-9.82102
▁solar	-9.8212
ee	-9.82237
▁separate	-9.82245
▁Dan	-9.82263
▁conservative	-9.82283
▁Francisco	-9.82288
▁seeking	-9.82398
▁privacy	-9.82401
▁notes	-9.82426
▁justice	-9.82428
▁evening	-9.8246
▁worse	-9.82621
▁Ma	-9.82751
▁Hall	-9.8281
▁Matt	-9.82823
▁providing	-9.8288
▁t	-9.82936
▁secret	-9.82963
▁onto	-9.83057
io	-9.83188
ron	-9.83224
▁YouTube	-9.83233
▁collection	-9.83255
?"	-9.8331
▁proposal	-9.8337
▁killing	-9.83394
▁Lee	-9.83744
▁operation	-9.83754
▁runs	-9.83775
▁thanks	-9.8378
pa	-9.83817
▁meant	-9.84019
▁drugs	-9.84057
▁surprise	-9.84057
▁spread	-9.84062
▁opinion	-9.8413
▁Research	-9.84154
lan	-9.84183
▁fuel	-9.84293
▁born	-9.84349
bit	-9.84401
▁concern	-9.84413
▁stopped	-9.8451
▁eyes	-9.84529
▁Lake	-9.84544
So	-9.84611
▁Once	-9.84642
ho	-9.84659
▁leadership	-9.84662
tic	-9.84715
▁complex	-9.84732
▁giant	-9.84781
▁becoming	-9.84955
▁die	-9.84977
nt	-9.85046
▁offensive	-9.85125
*	-9.85134
▁Hu	-9.85348
▁doubt	-9.85369
ig	-9.85408
▁Williams	-9.85449
▁o	-9.85487
▁responded	-9.85494
For	-9.85495
▁download	-9.85522
▁beer	-9.8554
▁cross	-9.85552
▁2008	-9.85578
▁flight	-9.85581
▁church	-9.85605
▁nature	-9.85633
▁tough	-9.85673
▁placed	-9.85701
red	-9.85751
▁basic	-9.85823
right	-9.85844
▁Foundation	-9.85845
▁active	-9.85866
▁audience	-9.85871
▁net	-9.85935
if	-9.86033
▁Christmas	-9.86105
▁tour	-9.8611
▁testing	-9.86132
▁Home	-9.86157
▁extremely	-9.86194
▁finished	-9.86199
▁USA	-9.86258
▁bottom	-9.86284
▁places	-9.86301
▁About	-9.86308
No	-9.86309
▁Federal	-9.86339
ck	-9.86343
▁unit	-9.86429
ong	-9.86512
▁telling	-9.8659
▁Public	-9.86623
▁measures	-9.86668
▁section	-9.86686
▁Email	-9.86718
▁fresh	-9.8675
▁waiting	-9.8675
▁helping	-9.86915
▁disease	-9.86921
▁path	-9.87057
▁Richard	-9.87103
ran	-9.87199
▁heavy	-9.87267
ze	-9.87279
▁Japanese	-9.87353
>	-9.87363
▁funds	-9.87371
▁admitted	-9.87382
▁greater	-9.87386
▁Click	-9.87407
▁window	-9.87414
▁newspaper	-9.87461
▁voted	-9.87523
▁1.	-9.87553
▁Ha	-9.87563
▁surface	-9.87704
▁finding	-9.87719
▁introduced	-9.87736
▁decade	-9.87778
▁Sam	-9.87884
▁pain	-9.87916
▁animal	-9.88068
▁transfer	-9.88157
ence	-9.88162
▁Central	-9.882
op	-9.88229
▁)	-9.88339
▁activities	-9.88343
▁ship	-9.8835
▁denied	-9.88401
▁Mc	-9.88421
▁Western	-9.8847
▁species	-9.88551
▁provides	-9.88584
ists	-9.88626
▁En	-9.88626
▁Po	-9.88628
▁wind	-9.88638
za	-9.88656
▁Journal	-9.88662
80	-9.88742
ab	-9.88767
▁African	-9.88781
▁influence	-9.88826
▁dropped	-9.88927
▁insurance	-9.88946
ft	-9.88955
▁uses	-9.88985
ial	-9.88994
▁jail	-9.89072
▁aware	-9.89105
▁immigration	-9.89143
▁worst	-9.89149
▁map	-9.89204
▁lines	-9.89219
▁operating	-9.89228
▁Per	-9.89331
▁located	-9.89343
▁behavior	-9.89441
wood	-9.89443
▁Thomas	-9.89453
dy	-9.89519
▁baby	-9.896
▁Africa	-9.89714
▁draw	-9.89727
▁allegations	-9.89753
▁31	-9.89775
▁UN	-9.89801
▁respond	-9.89816
▁views	-9.89987
▁emergency	-9.90018
net	-9.90059
well	-9.90093
▁Ne	-9.90133
▁hair	-9.90152
gen	-9.90175
▁seat	-9.90235
▁approved	-9.90237
hi	-9.90272
▁north	-9.90272
ru	-9.90298
▁remove	-9.90316
▁basis	-9.90368
▁strike	-9.90436
▁facing	-9.9053
▁machine	-9.90577
▁mostly	-9.9066
▁feeling	-9.90672
▁wall	-9.90684
fi	-9.90702
▁Paris	-9.90803
▁votes	-9.90887
▁scale	-9.91004
▁prime	-9.91027
▁actual	-9.91066
▁Instead	-9.91095
▁trust	-9.91139
▁panel	-9.91183
▁fellow	-9.91215
▁regarding	-9.91231
▁girls	-9.91296
▁communities	-9.91342
▁Boston	-9.91379
▁Ohio	-9.91413
▁strategy	-9.91468
­	-9.91498
▁fund	-9.91573
▁supported	-9.91582
▁Sea	-9.916
▁suggest	-9.91643
▁Back	-9.91668
▁2009	-9.91676
▁taxes	-9.91792
▁Da	-9.91798
▁hate	-9.91808
▁initial	-9.91836
▁Andrew	-9.91953
izing	-9.92016
▁seemed	-9.92021
▁wearing	-9.92048
▁suffered	-9.92057
▁gold	-9.92066
▁29	-9.92073
▁ten	-9.92075
▁accept	-9.92201
▁Seattle	-9.92217
▁easier	-9.9224
▁refused	-9.9229
▁hopes	-9.92312
▁millions	-9.92361
▁professor	-9.92529
▁bringing	-9.92614
▁counter	-9.9267
▁x	-9.92698
▁background	-9.92739
ver	-9.92768
AP	-9.92804
▁ideas	-9.92869
▁Barack	-9.92941
▁housing	-9.92958
lu	-9.93133
▁drivers	-9.93177
ring	-9.93178
▁reform	-9.93193
▁carried	-9.93373
▁knowledge	-9.93385
▁restaurant	-9.93421
▁supply	-9.93436
▁heat	-9.93515
tro	-9.93525
To	-9.93663
▁Fire	-9.93696
▁multi	-9.93766
▁standing	-9.93905
▁bus	-9.93949
▁whatever	-9.93955
over	-9.9402
▁developers	-9.94096
▁peace	-9.94109
ana	-9.94118
▁score	-9.94159
▁selling	-9.94229
▁consumers	-9.94269
▁hurt	-9.94446
▁broke	-9.9448
▁keeping	-9.94501
▁conflict	-9.94527
▁Virginia	-9.94604
▁protection	-9.9463
▁Pre	-9.94651
▁signing	-9.94703
▁Law	-9.94708
▁agencies	-9.94797
mm	-9.94858
▁speaking	-9.94942
▁managed	-9.94984
▁appearance	-9.95043
▁university	-9.95092
▁Thank	-9.95113
sen	-9.95147
▁accounts	-9.95165
▁debut	-9.95172
▁Romney	-9.95206
▁Dec	-9.95259
▁warned	-9.95337
▁decide	-9.9537
▁apps	-9.95377
▁governor	-9.95386
▁discuss	-9.95394
▁connection	-9.95497
▁effective	-9.95623
▁Saudi	-9.95655
▁cuts	-9.95664
▁NBC	-9.95673
▁Tim	-9.95735
▁Video	-9.9576
▁cards	-9.95766
kin	-9.95797
▁cell	-9.95898
▁conducted	-9.9594
▁union	-9.96098
▁eat	-9.96125
▁Ad	-9.96144
▁prior	-9.96147
▁wish	-9.96165
-1	-9.96242
▁considering	-9.96271
▁domestic	-9.96295
▁guilty	-9.96313
▁200	-9.9638
40	-9.96394
▁knows	-9.96416
ten	-9.96448
head	-9.96462
▁declined	-9.9656
▁se	-9.96624
▁affected	-9.96629
▁Pakistan	-9.96678
mp	-9.96716
▁estimated	-9.96841
▁tool	-9.9687
▁n	-9.96917
▁revenue	-9.96951
▁tech	-9.96969
▁originally	-9.97141
▁birth	-9.97154
▁core	-9.97172
▁PM	-9.97185
▁Meanwhile	-9.97209
▁$5	-9.97231
▁Power	-9.97431
▁Jo	-9.97441
▁Open	-9.97449
▁90	-9.97477
▁Turkey	-9.97477
▁older	-9.97517
▁conversation	-9.9764
▁conduct	-9.97657
▁rock	-9.9766
bi	-9.97728
▁twice	-9.97732
▁learning	-9.97742
▁brother	-9.97754
ina	-9.97793
▁foot	-9.97836
hu	-9.97938
my	-9.97965
▁bid	-9.97985
▁ordered	-9.97997
▁pulled	-9.98001
▁Story	-9.98009
ow	-9.98131
▁squad	-9.9817
▁whom	-9.98201
▁smaller	-9.98276
▁Human	-9.98281
▁ongoing	-9.98341
▁Michigan	-9.98355
▁Korean	-9.98437
▁generation	-9.98457
▁click	-9.98466
uk	-9.98468
our	-9.98617
▁spring	-9.98655
gi	-9.98687
▁updates	-9.98705
han	-9.98738
▁lawyer	-9.9877
▁truth	-9.98774
▁gender	-9.98795
▁centre	-9.98838
▁steps	-9.98866
▁Ta	-9.9888
dis	-9.98986
▁paying	-9.99104
▁Ra	-9.99124
▁limit	-9.9914
▁explain	-9.99181
▁Army	-9.99229
▁aid	-9.9924
▁defensive	-9.99461
▁magazine	-9.99536
▁rally	-9.99554
▁concept	-9.99716
▁experts	-9.9972
▁Check	-9.99744
▁Reuters	-9.99798
▁2.	-9.99852
▁Their	-9.99869
▁pictures	-9.9992
▁sit	-9.99921
▁sector	-9.99948
▁Good	-9.99987
▁occurred	-10
▁mark	-10.0002
▁bike	-10.0002
▁Labour	-10.0003
▁mis	-10.0004
ray	-10.0005
é	-10.0005
▁determine	-10.0006
▁focused	-10.0011
▁pull	-10.0015
▁Attorney	-10.0017
▁Force	-10.0023
▁secure	-10.0025
▁package	-10.0038
▁homes	-10.0039
game	-10.0043
▁videos	-10.0044
ning	-10.0048
▁weather	-10.0049
▁south	-10.0059
▁setting	-10.006
▁Ireland	-10.0065
▁Mi	-10.0067
▁banks	-10.007
▁appeal	-10.0077
▁discussion	-10.0077
▁studies	-10.0091
▁bigger	-10.0097
▁touch	-10.01
free	-10.0102
▁century	-10.0119
▁engine	-10.012
bar	-10.0134
▁expressed	-10.0136
▁tells	-10.0139
▁voting	-10.0141
▁presence	-10.0142
▁Van	-10.0143
60	-10.015
▁suit	-10.0154
▁Cruz	-10.0163
ino	-10.0167
tor	-10.017
▁Nov	-10.0171
ani	-10.0178
▁meaning	-10.0188
▁terrorist	-10.0189
▁Oct	-10.0194
ney	-10.0198
▁yards	-10.0199
▁River	-10.0199
▁guard	-10.0201
▁developing	-10.0201
ji	-10.0206
▁beautiful	-10.0208
ised	-10.0209
▁direction	-10.0211
house	-10.0212
▁70	-10.0222
▁equipment	-10.0223
▁chairman	-10.0224
▁finish	-10.023
▁happening	-10.0236
▁secretary	-10.0236
!”	-10.024
▁Club	-10.0247
▁delivered	-10.0254
▁Yes	-10.0256
▁failure	-10.0256
▁bitcoin	-10.0256
▁broadcast	-10.0263
▁healthy	-10.0264
▁Su	-10.0264
▁k	-10.0267
▁Project	-10.0268
ker	-10.0281
▁Kim	-10.0284
▁shop	-10.0285
▁supposed	-10.0288
▁agent	-10.029
▁replace	-10.0295
▁streets	-10.0297
▁suggests	-10.0311
▁franchise	-10.0312
que	-10.0314
om	-10.0316
▁applications	-10.0333
ung	-10.0342
▁resolution	-10.0344
▁80	-10.0354
board	-10.0357
▁Games	-10.0358
▁trouble	-10.0363
▁Jim	-10.0365
▁Premier	-10.0372
▁Pa	-10.0373
so	-10.0375
▁troops	-10.0376
▁scored	-10.0379
▁Du	-10.0379
▁closer	-10.0383
▁Middle	-10.0393
vi	-10.04
▁Se	-10.0402
▁Board	-10.0407
▁memory	-10.0415
▁structure	-10.0416
▁Great	-10.0416
▁Church	-10.0417
▁purpose	-10.0419
▁tools	-10.0424
ang	-10.0428
tra	-10.043
▁truly	-10.0436
▁slow	-10.0444
▁AP	-10.0455
▁cells	-10.0456
▁possibly	-10.0459
king	-10.0463
▁Blue	-10.0465
car	-10.0479
▁aircraft	-10.0482
▁completed	-10.0482
ov	-10.0498
▁Though	-10.0498
▁di	-10.0503
▁negative	-10.051
▁willing	-10.0515
▁Island	-10.0516
▁potentially	-10.0517
▁NASA	-10.0535
▁favor	-10.0535
▁wear	-10.0539
▁associated	-10.0542
▁Live	-10.0549
▁possibility	-10.0556
ED	-10.0559
My	-10.0562
▁pointed	-10.0563
▁warning	-10.0565
▁Play	-10.0568
ki	-10.057
▁cold	-10.0573
▁Stephen	-10.0573
▁Pi	-10.0582
▁Related	-10.0583
▁ride	-10.0585
▁recorded	-10.0587
▁500	-10.0591
▁35	-10.0593
▁Jeff	-10.0599
▁skin	-10.0604
▁Ke	-10.0608
▁nominee	-10.0613
▁losing	-10.0614
▁Xbox	-10.0616
▁campus	-10.0628
▁FC	-10.0638
▁handle	-10.0639
▁reporting	-10.0642
▁complaint	-10.0645
▁minute	-10.0648
▁quarterback	-10.0655
port	-10.0656
▁Colorado	-10.066
▁ISIS	-10.0661
$	-10.0666
ward	-10.0666
▁covered	-10.0675
▁variety	-10.0681
▁signs	-10.0683
▁tournament	-10.0687
▁bought	-10.0688
▁elections	-10.0688
▁rare	-10.0691
▁plus	-10.0702
45	-10.0703
▁Judge	-10.0709
▁Houston	-10.071
▁Earlier	-10.0715
mar	-10.0722
▁2015,	-10.0723
▁soldiers	-10.0729
▁updated	-10.073
▁function	-10.0742
▁markets	-10.0752
▁32	-10.0756
▁increasing	-10.0758
▁famous	-10.0762
▁Year	-10.0773
▁elected	-10.0775
▁guess	-10.0783
▁Space	-10.0783
ay	-10.0786
▁stars	-10.0786
▁Jack	-10.0786
▁models	-10.0787
▁gain	-10.0789
▁environmental	-10.0792
▁linked	-10.0793
▁entirely	-10.0795
▁Top	-10.0796
▁hoping	-10.08
▁absolutely	-10.0803
▁miss	-10.0808
▁criticism	-10.0808
vo	-10.0814
▁cap	-10.0833
▁Manchester	-10.0836
▁$4	-10.084
▁MORE	-10.084
▁schedule	-10.0845
▁Source	-10.0853
▁Alex	-10.0858
▁sitting	-10.0861
▁controversial	-10.0862
▁Life	-10.0872
▁Am	-10.0876
▁2015.	-10.0882
▁document	-10.0885
▁prepared	-10.0891
▁arm	-10.0895
▁crew	-10.0897
▁infrastructure	-10.09
▁Out	-10.0901
▁seek	-10.0905
light	-10.0909
mail	-10.0911
▁shut	-10.0911
▁sides	-10.0913
▁facility	-10.0914
▁plane	-10.0915
berg	-10.0925
Our	-10.0927
ING	-10.0928
▁religion	-10.0935
▁remaining	-10.0936
▁apply	-10.0944
▁expensive	-10.0947
▁45	-10.0948
▁Bi	-10.0948
▁vice	-10.0953
ative	-10.0953
▁artist	-10.0953
▁stores	-10.0966
▁capacity	-10.0981
▁Kevin	-10.0983
▁Samsung	-10.0988
▁tweet	-10.0989
▁responsibility	-10.099
▁catch	-10.0992
▁session	-10.0999
ud	-10.1013
▁mix	-10.1014
▁violent	-10.1015
▁etc	-10.1017
▁familiar	-10.102
▁2014,	-10.1026
▁Avenue	-10.1029
▁requires	-10.1029
her	-10.1029
▁missed	-10.1033
▁broken	-10.1037
▁carbon	-10.1039
▁battery	-10.1039
▁Thanks	-10.1041
▁Eric	-10.1041
▁UFC	-10.1045
▁faces	-10.1047
▁nearby	-10.105
▁CBS	-10.105
down	-10.1054
▁plenty	-10.1057
▁Sha	-10.1061
▁mentioned	-10.1067
▁dream	-10.1077
▁combat	-10.1077
▁Jewish	-10.1081
▁II	-10.1081
▁writer	-10.1082
▁skills	-10.1084
▁percentage	-10.1094
▁files	-10.1095
▁planet	-10.1097
▁intended	-10.1098
▁listed	-10.11
▁truck	-10.11
but	-10.1103
ville	-10.1105
row	-10.1107
ities	-10.1109
▁Network	-10.1111
▁seriously	-10.1115
▁Grand	-10.1117
▁Rock	-10.1127
▁Ro	-10.1127
▁jump	-10.1136
▁Inc	-10.1139
▁prove	-10.1147
▁officially	-10.1148
▁MP	-10.1149
▁welcome	-10.1155
long	-10.1163
▁province	-10.117
▁Daniel	-10.117
▁Ba	-10.1174
▁perform	-10.1186
ding	-10.1198
▁Jackson	-10.12
mi	-10.1216
▁honor	-10.1217
▁PS	-10.122
▁approval	-10.1221
▁smart	-10.1229
▁identity	-10.123
▁units	-10.1234
▁2014.	-10.124
which	-10.1249
▁opportunities	-10.1252
▁Best	-10.1253
▁fish	-10.1255
▁specifically	-10.1257
▁deliver	-10.1261
▁Mayor	-10.1264
▁solid	-10.1264
▁slightly	-10.1269
▁youth	-10.1271
▁largely	-10.1271
tz	-10.1272
▁understanding	-10.1275
▁parking	-10.1283
▁treated	-10.1284
▁determined	-10.1286
▁minimum	-10.1295
▁findings	-10.1303
▁changing	-10.1305
▁customer	-10.1309
▁strength	-10.1313
▁crash	-10.1315
▁Science	-10.1316
▁Gi	-10.132
▁proud	-10.1325
▁Art	-10.1327
12	-10.1328
▁2018	-10.1329
▁alcohol	-10.1333
▁division	-10.1335
ford	-10.1335
▁Still	-10.1335
low	-10.1337
▁types	-10.1338
▁army	-10.135
▁starts	-10.1356
▁alternative	-10.1359
▁argued	-10.1363
▁Har	-10.1367
▁Real	-10.1367
▁Ni	-10.137
▁Gov	-10.1387
▁flag	-10.139
▁Men	-10.1391
che	-10.1395
▁armed	-10.1396
▁balance	-10.1403
▁count	-10.1406
▁picked	-10.1408
▁founder	-10.1411
▁View	-10.1421
▁Arizona	-10.1421
▁sounds	-10.1425
ik	-10.1426
▁organizations	-10.1427
▁Agency	-10.1433
▁tweeted	-10.1433
▁ticket	-10.1434
▁Davis	-10.1445
▁receiving	-10.1449
▁supporting	-10.1451
▁standards	-10.1464
▁faith	-10.1464
amp	-10.1465
▁spokesperson	-10.1473
point	-10.148
wing	-10.1483
▁mode	-10.1484
can	-10.1485
▁internal	-10.1496
▁seasons	-10.1496
▁Vi	-10.1497
▁nor	-10.1497
▁Afghanistan	-10.1503
▁struck	-10.1505
▁Detroit	-10.1509
▁2016.	-10.1511
▁Miami	-10.1515
70	-10.1515
▁Ukraine	-10.1517
▁Senator	-10.152
▁fly	-10.1521
▁talent	-10.1521
▁weapon	-10.153
ven	-10.1535
▁Ex	-10.1537
▁winner	-10.1537
air	-10.154
▁<	-10.155
tter	-10.1551
▁award	-10.1555
11	-10.1567
▁walking	-10.1589
▁expand	-10.1595
24	-10.1602
▁snow	-10.1602
ny	-10.1606
ick	-10.1607
▁classic	-10.1609
▁faster	-10.161
foot	-10.1614
▁tests	-10.1619
▁Long	-10.1623
▁Jersey	-10.1626
ap	-10.1631
▁decisions	-10.164
ot	-10.1641
▁carrying	-10.1649
▁investors	-10.1671
▁ruled	-10.1671
▁presented	-10.1673
▁Brian	-10.1673
mon	-10.1676
▁breaking	-10.1678
▁fill	-10.1678
90	-10.1679
▁NBA	-10.1679
▁false	-10.1686
▁rich	-10.1689
▁protests	-10.1694
▁Web	-10.17
▁ABC	-10.1707
▁identify	-10.171
▁ESPN	-10.1712
▁initially	-10.1714
▁bomb	-10.1723
▁unable	-10.1728
▁obviously	-10.1733
▁copy	-10.1734
▁ultimately	-10.1734
▁protesters	-10.174
▁serving	-10.174
She	-10.174
▁Update	-10.174
▁sun	-10.1744
▁alongside	-10.1754
▁generally	-10.1768
▁attend	-10.1775
TV	-10.1776
don	-10.1778
▁contest	-10.1782
ns	-10.1785
▁Take	-10.1787
▁pop	-10.1788
▁corporate	-10.1791
▁consumer	-10.1794
▁method	-10.1796
▁Georgia	-10.1801
▁offense	-10.1809
▁Bob	-10.1811
▁Only	-10.1811
▁mayor	-10.1813
▁hotel	-10.1817
▁Moore	-10.1818
▁corner	-10.1818
▁2,	-10.1819
▁listen	-10.1822
▁footage	-10.1824
▁declared	-10.1824
▁crimes	-10.183
▁3.	-10.1835
▁Are	-10.1846
▁metal	-10.1849
▁plays	-10.185
▁Defense	-10.1856
▁Dallas	-10.1866
▁Bowl	-10.1869
▁server	-10.1871
▁messages	-10.1874
ball	-10.1878
▁emails	-10.1878
▁publicly	-10.1886
▁Each	-10.1891
▁pieces	-10.1891
▁surrounding	-10.1897
▁Wa	-10.1898
▁Wi	-10.19
▁lawmakers	-10.1901
▁Championship	-10.1903
▁Hollywood	-10.1907
▁sport	-10.1909
cing	-10.1914
▁Before	-10.1921
▁equal	-10.1932
▁Nick	-10.1936
▁imagine	-10.1937
▁native	-10.194
▁Santa	-10.1945
▁Energy	-10.1945
ped	-10.1951
▁taste	-10.1951
▁registered	-10.1953
▁profile	-10.1959
▁Former	-10.1963
▁Business	-10.1963
▁square	-10.1964
▁promote	-10.1967
▁shape	-10.1974
▁employee	-10.1975
▁values	-10.1979
▁drink	-10.198
▁currency	-10.1982
▁vision	-10.1984
▁argument	-10.199
▁regime	-10.199
▁announce	-10.1991
▁Three	-10.1999
▁command	-10.2
Photo	-10.2
▁flat	-10.2003
oc	-10.2003
▁DC	-10.2018
▁turns	-10.2018
ou	-10.2021
ions	-10.2025
▁featured	-10.2026
▁mental	-10.2026
▁mention	-10.2031
▁guns	-10.2032
▁Disney	-10.2035
▁attacked	-10.2037
ev	-10.2061
▁surveillance	-10.2063
▁otherwise	-10.2066
▁Valley	-10.2066
▁arms	-10.2066
▁exciting	-10.2069
▁Cha	-10.2073
fa	-10.2075
000	-10.2075
▁joint	-10.2086
▁petition	-10.2086
25	-10.2088
▁na	-10.2094
▁targeted	-10.2096
▁Music	-10.2102
▁unless	-10.2105
▁editor	-10.2106
▁Miller	-10.2107
▁storage	-10.2108
▁claiming	-10.2113
▁neighborhood	-10.2118
▁sleep	-10.2122
▁feels	-10.2125
ach	-10.2126
▁thank	-10.2126
▁App	-10.2127
▁established	-10.2129
▁developer	-10.2135
▁increasingly	-10.2135
▁Gar	-10.2139
▁license	-10.2145
▁politicians	-10.2152
▁relatively	-10.2153
▁rape	-10.2154
▁Second	-10.2157
▁Ford	-10.2158
gu	-10.2162
run	-10.2164
▁Ver	-10.2168
▁custom	-10.217
▁Kelly	-10.2174
▁Gu	-10.2176
▁route	-10.2177
▁expansion	-10.2177
▁plants	-10.2181
▁suicide	-10.2186
AR	-10.219
▁actor	-10.2192
ual	-10.2192
▁champion	-10.2195
▁studio	-10.2199
▁boost	-10.22
▁challenges	-10.2208
▁exclusive	-10.2217
▁Scotland	-10.2217
▁channel	-10.2225
▁sentence	-10.2225
▁remained	-10.2225
▁fix	-10.2232
pro	-10.2235
▁talked	-10.2235
▁Palestinian	-10.2238
▁roster	-10.2238
▁attempted	-10.2244
▁threats	-10.2247
▁turning	-10.2252
16	-10.2254
▁Sony	-10.2257
called	-10.2259
▁transition	-10.2259
▁activists	-10.227
use	-10.2281
ned	-10.2285
related	-10.2288
▁harm	-10.2311
▁investigating	-10.2312
▁Next	-10.2313
▁feed	-10.2315
▁affect	-10.2319
▁Pat	-10.2324
tin	-10.2325
ER	-10.2328
ably	-10.233
ified	-10.233
-2	-10.2331
▁33	-10.2344
▁assistant	-10.2354
▁represent	-10.2354
▁5.	-10.2354
▁authority	-10.2366
▁lived	-10.2371
▁2000	-10.2372
▁Sky	-10.2373
▁creation	-10.2373
▁island	-10.2374
▁Radio	-10.2379
▁2013,	-10.2383
law	-10.2386
▁links	-10.24
▁movies	-10.24
tle	-10.2409
▁Every	-10.2429
ology	-10.2441
▁Love	-10.2441
▁faced	-10.2445
▁Te	-10.2446
▁guide	-10.2452
more	-10.2456
▁Associated	-10.2457
▁none	-10.2458
▁Putin	-10.2459
Reuters	-10.2463
▁Galaxy	-10.2466
▁print	-10.2476
▁Frank	-10.248
▁electric	-10.2482
▁Jordan	-10.2485
▁degree	-10.2487
GB	-10.2494
▁entered	-10.2494
▁Minnesota	-10.2495
▁throw	-10.2501
▁winter	-10.2505
▁decline	-10.2507
▁commitment	-10.2512
▁rising	-10.2515
▁Democrat	-10.2516
▁combined	-10.2517
▁retail	-10.2517
▁Jr	-10.2519
▁doctors	-10.2521
▁Rights	-10.2522
▁instance	-10.2523
▁confidence	-10.2523
▁passing	-10.2523
▁spokeswoman	-10.2524
▁Young	-10.2526
▁tickets	-10.2528
▁waste	-10.2534
▁Water	-10.2537
▁trend	-10.2537
▁task	-10.2542
▁select	-10.2542
▁loan	-10.2543
▁earned	-10.2544
▁Social	-10.2545
▁connected	-10.255
19	-10.255
▁regulations	-10.2551
▁Adam	-10.2557
▁2012,	-10.256
▁becomes	-10.2563
▁Louis	-10.2564
▁leg	-10.2579
15	-10.2582
▁wonder	-10.2584
▁Italy	-10.2585
▁programme	-10.2589
▁Night	-10.2597
▁commission	-10.2599
▁da	-10.26
▁Centre	-10.2603
▁colleagues	-10.2604
▁sharing	-10.2605
▁appropriate	-10.2614
▁veteran	-10.2622
▁widely	-10.2626
▁reporter	-10.2627
ery	-10.2632
▁hardware	-10.2634
▁era	-10.2634
▁Muslims	-10.2637
▁opposed	-10.2638
▁shouldn	-10.2642
▁install	-10.2643
▁Asia	-10.2647
▁experienced	-10.2649
▁terror	-10.2653
▁Zealand	-10.2658
▁doctor	-10.266
fe	-10.2664
▁mine	-10.2666
▁Women	-10.267
▁Gold	-10.2673
▁motion	-10.2677
▁Week	-10.2679
▁maintain	-10.2686
▁repeatedly	-10.2699
ez	-10.2702
▁r	-10.2702
▁ad	-10.2709
▁matches	-10.2711
▁2016,	-10.2711
▁roughly	-10.2714
▁Jason	-10.2717
▁cat	-10.2717
▁minor	-10.2719
▁Sch	-10.2721
▁entry	-10.2724
▁surprised	-10.2724
▁exercise	-10.2725
▁Note	-10.2725
ell	-10.2729
▁treat	-10.2729
▁error	-10.273
fer	-10.2733
▁gift	-10.2735
▁obvious	-10.2742
▁numerous	-10.2747
▁button	-10.2748
▁suspended	-10.2752
▁Sp	-10.2755
▁zone	-10.2755
▁Va	-10.2755
▁surgery	-10.2756
▁creative	-10.2759
▁technical	-10.276
▁locations	-10.2768
▁thus	-10.277
▁causing	-10.2771
▁wage	-10.2772
▁buying	-10.2774
▁Fa	-10.2774
▁sought	-10.2775
war	-10.2778
star	-10.2779
▁pushed	-10.2783
chi	-10.2788
▁materials	-10.2793
▁Jay	-10.2794
▁fifth	-10.2799
▁partnership	-10.28
▁weren	-10.28
▁chain	-10.2802
▁partners	-10.2804
▁distance	-10.281
▁agents	-10.2817
▁49	-10.2819
▁adults	-10.2819
▁wild	-10.2821
▁pool	-10.2824
▁Wars	-10.2829
▁involving	-10.283
▁films	-10.2831
▁advice	-10.2832
har	-10.2834
▁bag	-10.2841
▁script	-10.2841
▁stands	-10.2843
▁significantly	-10.285
▁wake	-10.2853
▁VR	-10.2853
▁correct	-10.2855
▁fake	-10.2855
▁promised	-10.2858
▁useful	-10.2859
▁northern	-10.2863
▁Coast	-10.2865
▁abortion	-10.287
▁browser	-10.2879
ible	-10.2881
▁Land	-10.2882
▁trading	-10.2884
▁{	-10.2888
▁possession	-10.2892
▁van	-10.2899
▁interests	-10.2919
sex	-10.292
▁gap	-10.2923
▁meat	-10.2924
▁Sept	-10.2925
▁4.	-10.2927
▁grand	-10.2932
▁Iowa	-10.2937
▁reveal	-10.2937
▁shoot	-10.2947
5,000	-10.295
ble	-10.2962
17	-10.2974
▁sending	-10.2977
▁2007	-10.2987
▁Taylor	-10.299
▁improved	-10.2992
▁w	-10.2996
▁inspired	-10.2997
▁Ti	-10.2997
▁bodies	-10.2998
▁Italian	-10.2998
▁awesome	-10.3004
▁Foreign	-10.3008
▁holiday	-10.3017
▁scheme	-10.302
▁humans	-10.3027
▁Catholic	-10.3027
▁Ja	-10.3028
▁reaction	-10.3028
ff	-10.3029
▁Oregon	-10.3029
▁journey	-10.303
▁east	-10.3038
▁Royal	-10.3045
▁shift	-10.3054
Con	-10.3059
▁Hi	-10.3059
▁permission	-10.3071
▁deaths	-10.3072
ice	-10.3073
▁34	-10.3074
▁warm	-10.3075
▁refugees	-10.308
▁airport	-10.3081
▁patient	-10.3083
▁worldwide	-10.3084
▁Services	-10.3087
gate	-10.3087
▁explains	-10.309
ade	-10.3092
US	-10.3093
▁Tony	-10.3094
▁defend	-10.3101
si	-10.3102
▁TO	-10.3104
▁iOS	-10.3105
▁virtual	-10.3106
des	-10.3107
▁apartment	-10.3108
▁glass	-10.311
▁tree	-10.3113
▁penalty	-10.312
▁Following	-10.3122
▁loved	-10.3123
!"	-10.3124
▁edition	-10.3132
▁cup	-10.3143
▁unlikely	-10.3146
▁sweet	-10.3147
▁banned	-10.3147
▁Irish	-10.3154
▁threatened	-10.3157
▁yes	-10.3166
▁worry	-10.3167
▁edge	-10.3167
26	-10.3168
▁Ga	-10.3171
▁Yet	-10.3173
▁Atlanta	-10.3175
▁adds	-10.3179
▁2013.	-10.3179
):	-10.3183
qui	-10.3185
▁boss	-10.3186
▁Nintendo	-10.3186
▁coffee	-10.319
▁writes	-10.3196
▁Old	-10.3202
▁exist	-10.3204
▁Far	-10.3204
▁cycle	-10.3205
▁seconds	-10.3206
▁follows	-10.3208
▁Hospital	-10.3208
▁boys	-10.3209
▁payment	-10.3214
pre	-10.3218
▁rain	-10.322
cha	-10.3221
▁inter	-10.3221
▁Stadium	-10.3224
▁confirm	-10.3226
play	-10.3226
nes	-10.3232
▁Ten	-10.3233
▁pilot	-10.3237
▁300	-10.3245
▁everybody	-10.3248
▁polls	-10.3248
▁positions	-10.3254
▁>	-10.3254
ara	-10.3257
▁factor	-10.3266
▁married	-10.3267
▁h	-10.3269
▁Credit	-10.3271
▁achieve	-10.3272
▁capable	-10.3272
▁marketing	-10.3285
▁impressive	-10.3294
28	-10.3297
▁Instagram	-10.3302
▁McCain	-10.3309
▁shots	-10.3315
▁Alabama	-10.3315
▁Ministry	-10.3316
▁warrant	-10.3318
▁accident	-10.3318
▁ads	-10.3325
▁cable	-10.3327
27	-10.3327
▁dedicated	-10.3332
▁rejected	-10.3335
▁enable	-10.3344
▁convicted	-10.3345
▁row	-10.3347
▁shortly	-10.3349
▁OS	-10.335
▁greatest	-10.3352
ett	-10.3353
▁wave	-10.3354
▁port	-10.3355
▁regional	-10.3356
▁ha	-10.3369
▁pushing	-10.3371
▁Have	-10.3377
▁remarks	-10.338
▁deputy	-10.3384
▁protected	-10.339
▁prefer	-10.339
▁selection	-10.3392
▁dogs	-10.3394
▁Right	-10.3397
▁promise	-10.3407
▁reduced	-10.3408
All	-10.3408
14	-10.3411
▁payments	-10.3412
▁advance	-10.3414
▁owned	-10.3418
▁continuing	-10.3423
▁extension	-10.3424
▁forget	-10.3426
▁Special	-10.3432
▁36	-10.3436
▁Parliament	-10.3439
▁folks	-10.3441
▁terrorism	-10.3442
▁ring	-10.3443
▁herself	-10.3445
▁Make	-10.3447
▁Reddit	-10.3452
▁represents	-10.3456
▁Part	-10.3456
ub	-10.346
▁Four	-10.3464
▁captured	-10.3466
▁teacher	-10.3466
▁grew	-10.3467
▁Chi	-10.3469
style	-10.347
▁Wilson	-10.3472
▁Cor	-10.3475
▁fees	-10.3483
▁Rob	-10.3483
▁basically	-10.3487
▁filled	-10.3489
▁phones	-10.3493
▁Among	-10.3497
▁William	-10.3503
▁Beach	-10.3509
▁Ri	-10.3509
▁adult	-10.3511
▁village	-10.3517
▁object	-10.352
▁knee	-10.3522
▁detailed	-10.3524
▁readers	-10.3524
▁southern	-10.3525
▁NHL	-10.3528
LE	-10.353
jo	-10.3531
▁reference	-10.3535
▁earn	-10.3537
00	-10.354
▁Liverpool	-10.354
▁micro	-10.3542
▁encourage	-10.3542
je	-10.3544
▁Bra	-10.3547
work	-10.3552
▁storm	-10.3556
▁electricity	-10.3558
▁downtown	-10.3562
ons	-10.3562
▁blame	-10.3564
ip	-10.3564
▁elements	-10.3568
▁discussed	-10.3568
▁split	-10.357
▁celebrate	-10.3576
-3	-10.3585
▁festival	-10.3585
▁Netflix	-10.3587
▁cloud	-10.3599
▁plastic	-10.36
▁gaming	-10.3602
▁smartphone	-10.3606
▁roll	-10.3607
▁Jon	-10.3607
▁aimed	-10.3608
▁theory	-10.3612
ku	-10.3614
▁relations	-10.3622
▁Philadelphia	-10.3623
▁confident	-10.3629
▁kick	-10.363
▁Wood	-10.3631
▁Maybe	-10.3633
▁Republic	-10.3635
ure	-10.3635
▁attempts	-10.3641
▁Subscribe	-10.3642
▁immediate	-10.3645
gar	-10.3645
▁tend	-10.3647
▁labor	-10.365
▁impossible	-10.3653
▁Spain	-10.3654
▁lo	-10.3654
▁extreme	-10.3654
pi	-10.3655
▁Series	-10.3657
▁west	-10.3657
▁AT	-10.3661
▁buildings	-10.3665
▁totally	-10.3665
▁returning	-10.3667
▁pan	-10.3667
▁fee	-10.3669
▁Speaking	-10.3684
▁pot	-10.3693
▁Pe	-10.3694
▁compete	-10.3699
ium	-10.3699
uch	-10.3704
▁communications	-10.3707
ile	-10.3708
▁Season	-10.3709
▁ties	-10.371
▁suffering	-10.3711
IC	-10.3711
▁brief	-10.3715
▁Nations	-10.3719
▁audio	-10.372
▁facilities	-10.3727
▁agenda	-10.3727
▁blow	-10.3737
▁Aug	-10.3742
▁noticed	-10.3747
▁length	-10.3753
▁trans	-10.3755
▁anywhere	-10.3759
▁Global	-10.3759
▁recommend	-10.376
▁Ru	-10.3768
▁Ge	-10.377
▁Bernie	-10.377
▁therefore	-10.3773
▁Tu	-10.3774
▁coalition	-10.3774
▁unclear	-10.3777
▁Feb	-10.3781
▁Sheriff	-10.3801
23	-10.3801
▁stress	-10.3802
Mo	-10.3804
▁tested	-10.3809
ST	-10.381
▁Add	-10.3825
▁fashion	-10.3828
18	-10.3828
▁disaster	-10.3829
oo	-10.383
▁combination	-10.3832
▁expert	-10.3833
Do	-10.3833
▁immigrants	-10.3838
▁auto	-10.3842
▁comic	-10.3843
▁Turkish	-10.3843
▁Diego	-10.3849
let	-10.3852
▁transgender	-10.3853
▁Charles	-10.3855
▁Head	-10.3856
▁Store	-10.3862
▁2005	-10.3862
▁selected	-10.3865
▁installed	-10.3865
▁48	-10.3867
round	-10.3868
▁contributed	-10.3873
);	-10.3873
▁Call	-10.3881
▁closely	-10.3884
▁Che	-10.3886
▁defeat	-10.3886
▁Arab	-10.3892
▁brings	-10.3897
▁suspected	-10.3897
av	-10.39
▁fighters	-10.3902
▁leads	-10.3904
PA	-10.3906
▁networks	-10.3913
▁bo	-10.3919
mb	-10.392
At	-10.392
▁featuring	-10.3927
▁desire	-10.3933
▁artists	-10.3939
▁capture	-10.3946
ita	-10.3946
▁indeed	-10.3948
▁Asian	-10.395
ging	-10.3952
▁distribution	-10.3957
▁heavily	-10.3959
▁approximately	-10.3966
▁Development	-10.3969
era	-10.3971
ok	-10.3972
▁www	-10.3973
13	-10.3973
▁detail	-10.3973
▁Ron	-10.3974
▁songs	-10.3974
▁cr	-10.3974
▁7.	-10.3977
▁connect	-10.3977
▁scientific	-10.3978
▁defence	-10.3981
▁Getty	-10.3982
▁championship	-10.3982
▁scandal	-10.3983
▁client	-10.3985
▁joining	-10.3987
▁county	-10.399
▁$6	-10.399
▁phase	-10.3991
01	-10.3995
▁Vancouver	-10.3996
▁tiny	-10.3996
▁accepted	-10.3997
vin	-10.4
▁Linux	-10.4004
▁Football	-10.4005
▁vi	-10.4008
▁dealing	-10.4015
▁1,000	-10.4015
▁recovery	-10.4016
▁younger	-10.4017
▁bed	-10.402
▁advanced	-10.4022
ura	-10.4023
▁severe	-10.4027
▁switch	-10.4027
▁posts	-10.403
▁informed	-10.4037
▁pages	-10.4039
▁Below	-10.4046
▁Wisconsin	-10.4047
▁portion	-10.4048
▁Brazil	-10.4054
▁competitive	-10.4056
ability	-10.4062
▁rating	-10.4063
AL	-10.4064
:00	-10.4069
ide	-10.4077
▁master	-10.4079
▁typically	-10.4082
▁versions	-10.4086
▁walked	-10.4087
▁thoughts	-10.4091
▁pounds	-10.4099
▁gear	-10.4101
▁sky	-10.4104
list	-10.4107
▁passengers	-10.411
ries	-10.4116
▁fraud	-10.4116
▁coast	-10.4119
▁vast	-10.4119
▁seats	-10.4119
▁transport	-10.4123
ious	-10.413
▁requests	-10.4131
▁novel	-10.4131
▁chair	-10.4134
▁cutting	-10.4136
▁Report	-10.4139
▁sanctions	-10.414
▁incredible	-10.414
▁realize	-10.4143
gan	-10.4144
▁PA	-10.415
▁liberal	-10.4156
▁Anthony	-10.4159
▁LGBT	-10.416
▁Port	-10.4163
van	-10.4165
iz	-10.4166
▁producer	-10.4169
ette	-10.4172
▁begins	-10.4181
▁grown	-10.4181
▁negotiations	-10.4187
▁2017.	-10.4193
▁38	-10.4199
▁ministry	-10.4202
▁targets	-10.4203
with	-10.4204
▁contains	-10.4206
▁parent	-10.4209
Star	-10.4211
▁Uber	-10.4214
ations	-10.4216
▁eating	-10.4216
zi	-10.4219
▁nomination	-10.422
▁Pan	-10.4223
▁Rick	-10.4228
▁recognize	-10.4231
▁2012.	-10.4235
▁cameras	-10.4236
▁perspective	-10.4236
▁cultural	-10.4238
▁obtained	-10.4241
CA	-10.4245
▁crazy	-10.4245
▁Gen	-10.4253
▁contain	-10.4254
ai	-10.4256
town	-10.4258
▁stick	-10.4261
▁format	-10.4264
▁sa	-10.4268
▁explore	-10.427
▁LA	-10.4274
▁extended	-10.4277
ini	-10.4279
MA	-10.4285
▁Ed	-10.4286
▁factors	-10.4291
▁acting	-10.4294
21	-10.4297
▁coal	-10.4302
▁flying	-10.4303
22	-10.4305
▁Las	-10.4305
▁Yu	-10.4306
set	-10.4307
▁prepare	-10.4309
▁worried	-10.4314
▁Ku	-10.432
▁investigators	-10.4321
▁context	-10.4322
▁Medical	-10.4323
▁sister	-10.4324
▁trail	-10.4325
▁participate	-10.4328
tal	-10.433
04	-10.4332
▁finance	-10.4333
▁Pen	-10.4351
▁y	-10.4352
gue	-10.4352
▁Stone	-10.4358
▁ocean	-10.4359
▁mistake	-10.436
▁stood	-10.4362
ight	-10.4363
ris	-10.4365
▁2003	-10.4367
▁leaves	-10.4368
▁Pacific	-10.4368
▁raising	-10.4374
▁2019	-10.4374
32	-10.4376
▁Conference	-10.4382
form	-10.4382
▁Chelsea	-10.4385
▁apart	-10.4387
▁resident	-10.4389
▁Tri	-10.4389
▁tackle	-10.4392
▁tip	-10.4392
▁directed	-10.4397
sha	-10.4401
▁stadium	-10.4402
▁Amendment	-10.4409
▁stolen	-10.4411
▁Community	-10.4412
act	-10.4416
▁investigate	-10.4417
NA	-10.4419
▁Delhi	-10.4424
bu	-10.4427
▁tomorrow	-10.443
▁Company	-10.443
De	-10.443
hour	-10.4432
ren	-10.4436
▁unknown	-10.4443
▁usual	-10.4444
▁Lord	-10.4445
▁Southern	-10.4447
▁dollar	-10.4449
▁Austin	-10.4453
▁signal	-10.4454
post	-10.446
ala	-10.4461
ever	-10.4462
▁Tech	-10.4464
▁Jose	-10.4466
▁viewers	-10.4467
▁attended	-10.4474
▁estate	-10.4476
▁Cook	-10.4481
ification	-10.4483
▁except	-10.4483
OS	-10.4483
▁drinking	-10.4485
▁Northern	-10.4486
uck	-10.4488
lon	-10.4491
▁mo	-10.4498
▁fat	-10.4499
ec	-10.4506
ada	-10.4507
▁Square	-10.4507
ator	-10.4509
▁helps	-10.4511
▁emissions	-10.4513
IN	-10.4513
▁Education	-10.452
▁assets	-10.452
▁sat	-10.4521
▁Moscow	-10.4525
▁ma	-10.4526
ming	-10.4527
▁fewer	-10.4532
▁Spanish	-10.4536
▁statements	-10.4537
▁drawing	-10.455
▁visitors	-10.4556
▁custody	-10.4557
state	-10.4574
▁nations	-10.4574
▁Marvel	-10.4575
▁effectively	-10.4575
▁sick	-10.4576
▁Light	-10.4579
▁Copyright	-10.4581
bb	-10.4584
▁dry	-10.4585
ag	-10.4591
▁manage	-10.4593
▁37	-10.4595
▁temperature	-10.4595
▁sugar	-10.4596
▁Society	-10.4597
▁Ken	-10.4602
▁performed	-10.4604
▁replaced	-10.4604
▁6.	-10.4604
▁cited	-10.4608
class	-10.4611
book	-10.4617
ps	-10.4629
▁cannabis	-10.4631
level	-10.4634
ano	-10.4635
▁busy	-10.4638
▁Islam	-10.4639
▁Patrick	-10.4641
▁Par	-10.4656
ella	-10.4657
‘	-10.4657
SA	-10.4661
▁advertising	-10.4664
▁Han	-10.4665
▁practices	-10.4667
▁newly	-10.4668
▁Ham	-10.4669
▁initiative	-10.4671
▁stream	-10.4672
▁Administration	-10.4679
▁library	-10.468
▁Mu	-10.4681
▁urged	-10.4684
Be	-10.4685
▁2001	-10.4686
▁Bell	-10.4686
▁wood	-10.4687
▁$10	-10.4693
▁watched	-10.4696
Fi	-10.4698
water	-10.47
▁tag	-10.4701
▁suspects	-10.4707
▁streaming	-10.4721
▁rival	-10.4728
▁Leader	-10.4729
▁delivery	-10.4732
▁soft	-10.4732
▁farm	-10.474
▁dozen	-10.4746
rie	-10.4755
eg	-10.4755
▁ending	-10.4756
American	-10.4757
▁Mor	-10.4758
that	-10.476
▁Kansas	-10.4761
▁participants	-10.4762
▁pace	-10.4762
▁shares	-10.4763
▁$7	-10.4775
▁lots	-10.4799
▁tied	-10.4803
hand	-10.4805
These	-10.4805
cher	-10.4807
▁rescue	-10.4808
▁radical	-10.4817
val	-10.4819
▁l	-10.482
▁kid	-10.482
▁CA	-10.482
box	-10.4821
▁exit	-10.4824
▁feedback	-10.4828
pp	-10.484
▁holds	-10.4842
▁rose	-10.4845
▁journalists	-10.485
▁bear	-10.4852
AN	-10.4861
via	-10.4862
▁proper	-10.4864
▁comfortable	-10.4866
Me	-10.4869
▁zero	-10.487
▁convention	-10.4873
29	-10.4875
month	-10.4882
▁tonight	-10.4883
▁concluded	-10.4888
▁Rs	-10.489
#	-10.4892
IS	-10.4898
▁pitch	-10.49
▁applied	-10.4901
▁tight	-10.4901
▁mouth	-10.4902
cent	-10.4905
▁recording	-10.4905
▁comparison	-10.4914
-4	-10.4914
▁maximum	-10.4914
▁database	-10.4915
life	-10.4918
▁assistance	-10.492
▁IS	-10.4922
▁acts	-10.4924
▁Ray	-10.4925
▁chose	-10.4925
!)	-10.4925
▁Navy	-10.4932
cy	-10.4943
art	-10.4945
▁complaints	-10.4949
▁drama	-10.4951
▁tape	-10.4952
IT	-10.4954
33	-10.4956
▁falling	-10.4956
▁titles	-10.4958
Getty	-10.4961
▁Keep	-10.4961
▁bowl	-10.4962
▁personnel	-10.4964
75	-10.4965
▁generate	-10.4966
cc	-10.4968
▁Iranian	-10.4968
▁Mary	-10.4971
▁2011,	-10.4972
▁Tesla	-10.4973
vis	-10.4975
▁sad	-10.4976
▁Ca	-10.4977
▁Information	-10.4978
▁electronic	-10.4982
▁mini	-10.4982
▁Oh	-10.4984
rick	-10.4987
▁bridge	-10.4991
▁craft	-10.4995
▁smoke	-10.4996
▁Mad	-10.4997
▁Sydney	-10.4998
▁chemical	-10.4998
▁Article	-10.4999
ged	-10.5001
▁territory	-10.5004
▁Guardian	-10.5012
▁©	-10.5012
▁teachers	-10.5016
▁Josh	-10.5016
▁Rose	-10.5018
99	-10.502
▁historic	-10.5029
▁1990	-10.5032
▁bills	-10.5032
len	-10.5034
▁Justin	-10.5035
▁circumstances	-10.5043
▁Any	-10.5056
▁afford	-10.5056
▁requirements	-10.5057
▁granted	-10.5058
▁paint	-10.5062
▁plot	-10.5066
uff	-10.5067
[	-10.507
od	-10.507
▁Professor	-10.5075
▁express	-10.5077
▁ca	-10.508
▁menu	-10.5081
du	-10.5084
▁default	-10.5089
▁excellent	-10.5095
▁trailer	-10.5097
▁Dar	-10.5099
▁Academy	-10.5104
▁behalf	-10.5107
▁sight	-10.5107
▁salt	-10.5113
▁visual	-10.5113
ane	-10.5116
▁wonderful	-10.5133
▁visited	-10.5136
▁IT	-10.5138
▁clubs	-10.514
▁Vegas	-10.514
▁argue	-10.5145
▁stations	-10.5145
▁strange	-10.5149
▁collected	-10.515
▁Plus	-10.5152
▁Fla	-10.5152
▁flow	-10.5153
RA	-10.5154
▁returns	-10.5155
▁institutions	-10.5161
▁PlayStation	-10.5165
▁exact	-10.5165
▁Ya	-10.5165
▁Metro	-10.5168
▁collect	-10.5171
▁alive	-10.5174
▁parliament	-10.5177
▁duty	-10.5178
▁Walker	-10.5185
▁Governor	-10.5189
▁consequences	-10.5191
ving	-10.5195
ju	-10.5195
31	-10.5195
▁essentially	-10.52
▁Test	-10.5201
▁fairly	-10.5205
▁Line	-10.5205
▁profit	-10.5212
▁42	-10.5212
▁Cameron	-10.5214
▁rent	-10.5216
▁AM	-10.522
▁£1	-10.5222
▁referred	-10.5242
tan	-10.5244
key	-10.5249
▁rail	-10.5249
▁manufacturing	-10.5251
▁jury	-10.5254
▁Bre	-10.5254
▁Unfortunately	-10.5258
ue	-10.5263
▁matters	-10.5263
▁importance	-10.5265
▁experiment	-10.5265
▁peak	-10.5271
▁amid	-10.5275
PS	-10.5279
▁entering	-10.528
wan	-10.528
07	-10.5282
▁Civil	-10.5284
▁purchased	-10.5284
▁End	-10.5286
▁volume	-10.5296
▁foundation	-10.5299
▁Bridge	-10.53
▁clip	-10.5308
▁journal	-10.531
▁moves	-10.5312
▁priority	-10.5314
season	-10.5316
▁2020	-10.5319
▁delay	-10.5321
▁item	-10.5322
fully	-10.5328
▁Arsenal	-10.5329
▁struggle	-10.5332
▁Key	-10.5335
▁Price	-10.5339
▁Mon	-10.5341
▁gotten	-10.5345
cal	-10.5347
Le	-10.5348
▁handed	-10.535
sta	-10.5352
ken	-10.5353
▁contrast	-10.5357
▁(19	-10.536
▁wins	-10.5361
▁bug	-10.5366
▁explanation	-10.5367
▁permanent	-10.5368
▁unusual	-10.5368
ski	-10.5368
room	-10.5371
▁controversy	-10.5377
▁Pennsylvania	-10.538
▁properties	-10.538
▁2006	-10.5381
▁lawyers	-10.5384
▁Food	-10.5387
▁universe	-10.539
38	-10.5398
▁Field	-10.5398
▁industrial	-10.5401
▁frame	-10.5403
▁representative	-10.5405
▁Vice	-10.5405
▁Ontario	-10.5406
ph	-10.5406
▁opponents	-10.5408
▁subscribe	-10.5415
▁tracks	-10.5415
cra	-10.5415
▁strip	-10.5417
▁deficit	-10.5419
▁scoring	-10.5421
▁somebody	-10.5428
▁heads	-10.5428
▁racist	-10.5432
▁recipe	-10.5432
▁Local	-10.5435
▁captain	-10.5441
▁regularly	-10.5443
istic	-10.5449
▁strongly	-10.5449
ical	-10.5449
▁fiscal	-10.5449
▁personally	-10.545
▁senator	-10.5451
ath	-10.5454
lor	-10.5458
34	-10.5464
▁atmosphere	-10.5467
55	-10.5469
ose	-10.547
▁probe	-10.547
▁operate	-10.5471
▁sentenced	-10.5475
▁dozens	-10.5476
▁Tour	-10.5477
▁Several	-10.5478
ther	-10.5479
▁backed	-10.548
▁Museum	-10.5483
▁missile	-10.5486
▁recall	-10.5488
100	-10.5488
▁logo	-10.5491
▁ET	-10.5492
▁danger	-10.5493
▁chosen	-10.5504
▁terrorists	-10.5507
cat	-10.5511
▁quoted	-10.5514
▁manner	-10.5515
▁prominent	-10.5517
▁Cat	-10.5519
▁Use	-10.5519
▁Bur	-10.5521
▁discrimination	-10.5521
▁milk	-10.5524
▁employment	-10.5526
▁Mel	-10.5533
▁bond	-10.5536
One	-10.5538
▁ID	-10.5539
▁communication	-10.5539
▁aside	-10.5542
35	-10.5547
▁estimates	-10.5549
▁Film	-10.555
ky	-10.5555
▁Sean	-10.5557
▁Where	-10.556
▁bunch	-10.556
log	-10.556
▁moments	-10.5561
▁journalist	-10.5561
47	-10.5568
▁Dark	-10.5569
▁reflect	-10.5574
iv	-10.5578
▁deals	-10.5585
▁Dead	-10.5585
▁NSA	-10.5591
mal	-10.5595
▁suffer	-10.5596
▁emerged	-10.5596
▁introduce	-10.5602
▁Mexican	-10.5604
▁Family	-10.5607
ola	-10.5607
▁du	-10.5609
ea	-10.5613
▁proof	-10.5614
▁settlement	-10.5617
▁witness	-10.5619
▁bright	-10.562
08	-10.5621
▁fixed	-10.5621
▁Utah	-10.5626
▁degrees	-10.5629
▁Ali	-10.5633
▁depth	-10.5634
▁causes	-10.5636
tar	-10.5642
▁Cleveland	-10.5643
▁headed	-10.5646
cer	-10.5652
▁ourselves	-10.5654
▁Dave	-10.5658
▁orders	-10.5658
37	-10.5658
▁angry	-10.5658
you	-10.5662
ments	-10.5665
▁Vo	-10.5667
CH	-10.567
▁expression	-10.5671
▁Allen	-10.5672
▁heading	-10.5679
OR	-10.5697
▁Gra	-10.5698
▁prosecutors	-10.5699
Ha	-10.57
▁destroyed	-10.5703
▁2004	-10.5704
▁knowing	-10.5706
are	-10.5709
▁AFP	-10.5709
▁Phil	-10.5713
▁struggling	-10.5718
▁association	-10.5719
▁contribute	-10.5721
▁forecast	-10.5722
▁Portland	-10.5722
▁Si	-10.5725
▁bi	-10.5727
▁basketball	-10.573
▁string	-10.5731
▁Perhaps	-10.5736
▁hat	-10.5736
▁Dis	-10.5742
▁forms	-10.5743
▁Fe	-10.5745
tu	-10.5745
▁concert	-10.5745
▁shock	-10.5746
SE	-10.5748
▁load	-10.5748
▁wine	-10.5749
▁description	-10.5751
▁technologies	-10.5755
▁Iraqi	-10.5758
▁Olympic	-10.576
▁Joseph	-10.5762
▁Egypt	-10.5763
▁Arabia	-10.5766
▁aim	-10.5766
▁appearances	-10.5767
TA	-10.577
▁reduction	-10.577
▁solve	-10.5773
▁Yo	-10.5773
▁deadline	-10.5776
36	-10.5777
dic	-10.5783
▁contacted	-10.5783
▁incidents	-10.5784
▁rear	-10.5784
▁Greg	-10.5788
▁urban	-10.5793
AT	-10.5794
▁Marine	-10.5797
▁posting	-10.5799
▁incredibly	-10.5804
▁topic	-10.5806
▁2002	-10.5806
rate	-10.5807
▁reserved	-10.5808
▁400	-10.5809
▁consistent	-10.5811
▁properly	-10.5814
Co	-10.5814
▁academic	-10.5814
▁trees	-10.5815
▁ballot	-10.5818
af	-10.5823
▁ends	-10.5824
▁3,	-10.5828
▁MLS	-10.5829
▁tips	-10.5837
▁hitting	-10.5839
▁hall	-10.584
▁replacement	-10.5841
ari	-10.5845
ins	-10.5845
▁margin	-10.5846
▁Anderson	-10.5848
▁indicated	-10.5864
▁earth	-10.5865
▁driven	-10.5867
▁System	-10.587
lic	-10.587
▁chicken	-10.5873
▁Labor	-10.5876
▁increases	-10.588
uring	-10.5882
▁Harris	-10.5882
▁Little	-10.5887
ob	-10.5887
▁exposed	-10.5888
With	-10.5891
▁Denver	-10.5895
▁methods	-10.5896
rk	-10.5897
▁2010,	-10.5897
▁opposite	-10.5904
▁corruption	-10.5905
▁pattern	-10.5906
▁harder	-10.5906
ising	-10.5912
▁powers	-10.5912
▁ceremony	-10.5919
▁anyway	-10.5921
06	-10.5921
▁upgrade	-10.5936
▁entertainment	-10.5936
aw	-10.5936
stone	-10.5938
▁meetings	-10.5939
▁Six	-10.5942
▁critics	-10.5943
▁stronger	-10.5945
,500	-10.5951
▁relevant	-10.5951
▁Plan	-10.5955
▁Harry	-10.5959
▁dinner	-10.5959
▁somewhat	-10.596
some	-10.5965
▁plate	-10.5966
▁survive	-10.5967
ration	-10.5967
▁mixed	-10.5967
▁fantastic	-10.5971
▁referring	-10.5971
wi	-10.5973
news	-10.5978
▁neither	-10.5978
▁automatically	-10.5988
▁bio	-10.5988
ME	-10.599
▁}	-10.5996
▁formed	-10.5997
▁upset	-10.5999
sp	-10.6
▁chart	-10.6001
▁lies	-10.6003
▁repeal	-10.6005
▁Auto	-10.6008
kar	-10.6008
▁Inter	-10.6009
▁Fund	-10.601
▁opponent	-10.6013
▁Illinois	-10.6018
▁drawn	-10.6018
▁sample	-10.6023
▁enjoyed	-10.6023
▁highlights	-10.6023
▁console	-10.6027
▁objects	-10.6029
▁commit	-10.6031
▁Cross	-10.6031
▁height	-10.6031
▁iPad	-10.6031
hy	-10.6034
bn	-10.6036
▁ancient	-10.6041
▁Tor	-10.6042
top	-10.6043
inch	-10.6047
▁failing	-10.6047
▁deeply	-10.6049
▁Conservative	-10.605
▁surprising	-10.6051
Man	-10.6053
▁ideal	-10.6068
RC	-10.6069
▁st	-10.607
▁necessarily	-10.6073
▁hits	-10.6075
09	-10.6075
▁baseball	-10.6076
bra	-10.6077
▁Silver	-10.6078
▁Cal	-10.6081
▁Which	-10.6088
▁western	-10.6089
▁chances	-10.6091
▁facts	-10.6092
▁drone	-10.6092
▁allies	-10.6096
▁Col	-10.6097
▁Bu	-10.6097
▁successfully	-10.6098
▁assume	-10.6106
▁Full	-10.6113
▁restrictions	-10.612
News	-10.6121
\	-10.6122
▁activist	-10.6124
▁boat	-10.6125
▁Intel	-10.6125
▁mom	-10.6126
▁anniversary	-10.6126
▁engineering	-10.6128
▁pack	-10.6128
▁Officer	-10.6129
▁Ted	-10.613
▁referendum	-10.6132
tain	-10.6134
On	-10.6134
nu	-10.6135
▁aggressive	-10.6136
▁shopping	-10.6137
made	-10.6139
▁McC	-10.6145
▁eastern	-10.6148
▁literally	-10.6155
▁stuck	-10.6155
▁Sweden	-10.6156
▁Columbia	-10.6164
▁crucial	-10.6165
▁Did	-10.6167
▁constitutional	-10.6173
▁counts	-10.6175
▁newsletter	-10.618
▁Beijing	-10.6185
▁suggesting	-10.6186
▁Festival	-10.6191
▁gathered	-10.6191
▁filing	-10.6192
ens	-10.6192
yard	-10.6194
▁discovery	-10.6195
▁Executive	-10.6199
▁Market	-10.6199
▁Indiana	-10.6199
▁cheap	-10.62
▁Constitution	-10.6201
▁ADVERTISEMENT	-10.6208
▁Massachusetts	-10.6208
▁ho	-10.6208
▁articles	-10.6209
sch	-10.6211
ants	-10.6211
▁Steven	-10.6215
▁Ki	-10.6215
▁Freedom	-10.6216
yn	-10.6216
mit	-10.6221
EA	-10.6227
get	-10.6227
▁DNA	-10.6229
▁encounter	-10.623
▁pen	-10.623
▁ill	-10.6232
▁lay	-10.6232
▁im	-10.6233
▁Fair	-10.6236
▁flash	-10.6236
MP	-10.6238
AM	-10.624
DS	-10.6244
▁honest	-10.6245
▁closing	-10.6246
▁Mars	-10.6247
▁essential	-10.6247
▁44	-10.6252
▁random	-10.6258
▁41	-10.6261
▁salary	-10.6264
▁Mal	-10.6265
▁escape	-10.6266
▁Modi	-10.627
tri	-10.6273
win	-10.6276
▁Gaza	-10.6279
▁4,	-10.6286
▁emotional	-10.6287
▁Could	-10.6291
ena	-10.6291
▁gang	-10.6295
▁sharp	-10.6297
▁ranked	-10.6301
▁hole	-10.6302
▁tweets	-10.6307
▁Simon	-10.6309
▁sp	-10.6309
▁friendly	-10.6312
▁experiences	-10.6312
▁innovation	-10.6316
cker	-10.6316
▁Ste	-10.6317
del	-10.6317
▁wealth	-10.6318
▁describe	-10.6319
▁Golden	-10.6322
▁militants	-10.6325
▁risks	-10.6325
▁Way	-10.6327
Ro	-10.6328
▁moon	-10.6328
▁Warren	-10.6328
-5	-10.633
▁enemy	-10.6331
▁Ball	-10.6332
gg	-10.6334
mark	-10.6339
▁Eastern	-10.6346
▁CO	-10.6352
▁Sarah	-10.6354
▁requested	-10.6359
▁Baltimore	-10.636
▁150	-10.6362
▁criticized	-10.6366
▁Graham	-10.6368
▁controlled	-10.6372
▁frequently	-10.6373
▁eligible	-10.6374
▁Has	-10.6375
sky	-10.6378
▁tap	-10.6378
▁losses	-10.638
▁invited	-10.6383
▁HD	-10.6384
▁el	-10.6387
ib	-10.6387
▁cheese	-10.6388
▁resulted	-10.6389
▁Wales	-10.6389
▁CIA	-10.6392
▁consumption	-10.6395
▁virus	-10.64
▁funny	-10.6402
▁Jesus	-10.6407
▁75	-10.6408
IA	-10.6408
▁Comey	-10.6414
▁doors	-10.6416
▁Lewis	-10.6421
ep	-10.6422
▁stable	-10.6423
95	-10.6427
Ma	-10.643
▁Del	-10.6433
elect	-10.6434
▁bench	-10.6434
▁Division	-10.6438
▁websites	-10.6438
▁solutions	-10.644
▁providers	-10.644
LA	-10.6442
▁39	-10.6444
▁blast	-10.6448
med	-10.6448
▁Ross	-10.6456
▁marks	-10.6456
▁retired	-10.6459
▁extend	-10.6459
▁Mass	-10.6459
▁Steam	-10.6462
▁Miss	-10.6463
▁rookie	-10.6464
▁anymore	-10.6466
▁Technology	-10.6467
▁Bureau	-10.6468
rich	-10.6475
▁passes	-10.6477
▁patch	-10.6481
▁citing	-10.6488
ama	-10.6489
▁1980	-10.6492
pt	-10.6493
▁grab	-10.6494
▁relief	-10.6497
ä	-10.65
see	-10.6501
▁fa	-10.6504
▁pleased	-10.6506
▁Orlando	-10.651
tel	-10.6512
▁register	-10.6515
▁vulnerable	-10.6517
▁accurate	-10.652
▁Za	-10.652
▁prospect	-10.6521
▁somewhere	-10.6521
lock	-10.6523
="	-10.6533
▁ra	-10.6534
▁2011.	-10.6535
▁segment	-10.6537
▁Channel	-10.6537
▁motor	-10.654
ng	-10.6546
ID	-10.6548
-10	-10.6549
48	-10.6553
▁Action	-10.6554
lar	-10.6555
02	-10.6558
▁differences	-10.656
lee	-10.6561
▁behaviour	-10.6562
ks	-10.6563
▁robot	-10.6565
49	-10.657
▁worker	-10.6574
▁output	-10.6584
▁Review	-10.6586
▁Online	-10.6588
▁mu	-10.659
▁blocked	-10.6591
▁outcome	-10.6592
▁prize	-10.6595
▁55	-10.6595
▁le	-10.6596
▁explosion	-10.66
▁thinks	-10.66
▁reputation	-10.6601
new	-10.661
▁empty	-10.6612
▁teaching	-10.6613
▁category	-10.6614
▁8.	-10.662
▁cyber	-10.6621
▁platforms	-10.6626
▁chat	-10.6626
▁crack	-10.6626
▁hang	-10.6628
▁visiting	-10.663
oon	-10.663
▁SA	-10.6633
▁engage	-10.6635
bin	-10.6635
▁que	-10.6636
▁belief	-10.6638
▁classes	-10.6638
▁remote	-10.6639
▁stretch	-10.6639
▁(2	-10.6644
▁Capital	-10.6644
▁guest	-10.6646
▁Download	-10.665
put	-10.665
▁OK	-10.6659
mann	-10.6661
▁Kong	-10.6662
▁analyst	-10.6663
million	-10.6668
▁par	-10.6668
hal	-10.6668
RE	-10.6672
high	-10.6672
hold	-10.669
▁attempting	-10.6691
▁Max	-10.6691
gra	-10.6691
▁deadly	-10.6691
▁programming	-10.6703
▁diet	-10.6704
▁mainstream	-10.6704
▁machines	-10.6705
▁improvements	-10.6705
RO	-10.6707
▁Howard	-10.6709
▁migrants	-10.6712
▁weird	-10.6714
▁Entertainment	-10.6715
▁IN	-10.6716
born	-10.6718
▁theme	-10.6724
▁hosted	-10.6724
▁10-	-10.6731
EN	-10.6733
▁MA	-10.6734
▁Look	-10.6737
bal	-10.6738
gy	-10.6738
▁involvement	-10.6738
▁receiver	-10.6739
▁semi	-10.6739
▁hidden	-10.6739
▁Maryland	-10.674
▁Final	-10.6742
▁elsewhere	-10.6742
▁Trans	-10.6743
▁Oklahoma	-10.6743
ties	-10.6743
▁firms	-10.6745
▁hired	-10.6745
▁spirit	-10.6746
▁fought	-10.6746
▁Liberal	-10.6746
▁violation	-10.6747
▁sorry	-10.675
who	-10.6751
▁Moon	-10.6752
world	-10.6756
▁unemployment	-10.6758
▁realized	-10.676
rated	-10.6761
▁poverty	-10.6762
▁citizen	-10.6762
▁moral	-10.6766
▁op	-10.6768
ami	-10.6769
▁grade	-10.6774
isation	-10.6778
▁Obamacare	-10.6779
ack	-10.678
▁predict	-10.678
▁hell	-10.6781
▁tank	-10.6783
▁demo	-10.6786
▁u	-10.6787
▁represented	-10.6788
▁transportation	-10.6791
▁dismissed	-10.6792
▁65	-10.6792
▁valuable	-10.6793
lam	-10.6795
▁Scottish	-10.6795
▁river	-10.6799
▁democracy	-10.68
▁Greek	-10.68
▁questioned	-10.6804
▁lineup	-10.6806
▁strikes	-10.6813
▁begun	-10.6814
▁broad	-10.6816
▁charity	-10.6816
▁monitor	-10.6816
▁temporary	-10.6819
▁marked	-10.6819
▁Khan	-10.6822
▁gained	-10.6829
▁Station	-10.6831
▁limits	-10.6832
CC	-10.6833
▁authors	-10.6834
▁lock	-10.6836
á	-10.6839
yl	-10.6839
▁warming	-10.684
▁spotted	-10.6844
ened	-10.6846
ix	-10.6851
▁computers	-10.6854
minute	-10.6861
▁challenging	-10.6869
▁upper	-10.687
▁progressive	-10.6873
▁clients	-10.6873
▁Hamilton	-10.6875
▁suspension	-10.6876
▁Editor	-10.6881
▁medium	-10.6882
▁Jonathan	-10.6884
▁engaged	-10.6884
eh	-10.6889
▁rocket	-10.6891
▁submitted	-10.6908
▁Sound	-10.6914
▁shell	-10.6914
▁43	-10.6921
▁Cro	-10.6922
hr	-10.6924
▁comedy	-10.6929
▁headquarters	-10.6942
03	-10.6942
▁Care	-10.6944
▁contracts	-10.6944
▁input	-10.6946
▁log	-10.6946
▁Sal	-10.6946
▁Bad	-10.6956
▁terrible	-10.6957
▁Ze	-10.6957
▁minority	-10.6968
▁typical	-10.6972
ign	-10.6972
▁clock	-10.6975
▁organized	-10.6976
▁$8	-10.6978
▁interface	-10.698
▁passenger	-10.6982
▁purposes	-10.6983
▁stake	-10.6983
44	-10.6987
▁Policy	-10.6987
▁targeting	-10.6987
nce	-10.6995
▁Tennessee	-10.6997
▁dance	-10.7
▁lie	-10.7001
▁expectations	-10.7001
▁episodes	-10.7004
pic	-10.7004
▁weak	-10.7004
ware	-10.7008
▁Design	-10.7018
ich	-10.7022
▁proved	-10.7026
▁hide	-10.7028
▁temperatures	-10.7032
lay	-10.7033
▁mod	-10.7036
▁Data	-10.7037
▁Gary	-10.7042
▁reaching	-10.7042
▁arrive	-10.7045
▁restaurants	-10.7046
▁insisted	-10.705
▁bottle	-10.7054
ele	-10.7057
▁amounts	-10.7057
▁Queen	-10.7059
very	-10.7068
▁pipeline	-10.7069
64	-10.707
▁understood	-10.707
▁tie	-10.707
▁appreciate	-10.7075
▁drew	-10.7085
▁Antonio	-10.7087
▁shelter	-10.7089
Pro	-10.709
▁satellite	-10.709
▁lights	-10.7093
illa	-10.7093
▁voter	-10.7097
▁info	-10.71
zz	-10.7108
ado	-10.711
▁Authority	-10.7113
▁Singh	-10.7115
az	-10.7116
▁Using	-10.7118
din	-10.7118
▁orbit	-10.7119
▁Control	-10.7124
xi	-10.7124
▁tall	-10.7125
▁farmers	-10.7127
▁houses	-10.713
▁letters	-10.713
▁tea	-10.7135
ians	-10.7135
▁occur	-10.714
▁extent	-10.714
▁Economic	-10.7152
▁regardless	-10.7153
▁Major	-10.7154
su	-10.7159
nic	-10.7168
▁monthly	-10.7173
▁museum	-10.7173
▁Whether	-10.7174
▁skill	-10.7181
▁proven	-10.7182
▁wedding	-10.7183
▁threatening	-10.7186
known	-10.7186
▁saved	-10.7187
zer	-10.7193
ug	-10.7196
scale	-10.7199
▁Mer	-10.72
▁Mountain	-10.7204
▁discussions	-10.7206
▁preparing	-10.7213
bed	-10.7215
▁apparent	-10.7215
▁brown	-10.7216
▁noise	-10.7216
▁bail	-10.7221
▁Drive	-10.7222
▁Kar	-10.7223
▁coaches	-10.7224
▁nobody	-10.7224
gle	-10.7225
▁Boy	-10.7226
▁producing	-10.7227
▁medicine	-10.723
▁Anti	-10.7233
ct	-10.7235
▁governments	-10.7235
▁acknowledged	-10.7236
▁perfectly	-10.7237
▁patent	-10.724
▁donations	-10.7242
▁luck	-10.7243
making	-10.7248
▁fail	-10.7248
▁laid	-10.7251
cap	-10.7253
▁pet	-10.7254
▁addressed	-10.7257
▁Hong	-10.7257
nn	-10.726
▁Morgan	-10.7264
ash	-10.7265
▁publication	-10.7271
▁spell	-10.7271
▁Gun	-10.7277
▁Ocean	-10.7279
▁Ram	-10.7279
▁(1	-10.728
▁roads	-10.7283
▁label	-10.7287
▁intense	-10.7287
▁thrown	-10.7292
▁leaked	-10.7293
▁regions	-10.7297
▁wing	-10.7299
▁joke	-10.7299
▁reasonable	-10.7301
▁tracking	-10.7302
▁dynamic	-10.7307
mes	-10.7308
▁Program	-10.731
▁oppose	-10.7311
▁founded	-10.7316
▁Ser	-10.7317
▁fallen	-10.7317
▁seized	-10.7318
▁drove	-10.732
app	-10.7323
▁assessment	-10.7325
▁mainly	-10.7326
ei	-10.7328
▁civilians	-10.733
▁Fort	-10.733
▁Prince	-10.7331
▁cream	-10.7339
▁REUTERS	-10.734
▁Dragon	-10.7344
▁Support	-10.7346
▁historical	-10.7347
IP	-10.7348
▁mail	-10.7349
▁dad	-10.735
▁Greece	-10.7351
▁dispute	-10.7351
▁generated	-10.7351
▁destroy	-10.7358
▁slowly	-10.736
▁formal	-10.7361
▁Wild	-10.7361
▁sets	-10.7362
▁Sir	-10.7367
▁Place	-10.7373
▁establishment	-10.7375
▁Award	-10.7378
▁ST	-10.7379
▁visible	-10.738
▁chocolate	-10.7382
▁Shi	-10.7386
▁establish	-10.7388
cast	-10.7394
▁transit	-10.7394
▁Jews	-10.7395
▁9.	-10.74
part	-10.7402
▁Carter	-10.7403
▁Code	-10.7403
▁$100	-10.7404
▁Finally	-10.7407
▁dates	-10.741
ison	-10.7414
▁gonna	-10.7416
05	-10.7417
▁Oakland	-10.7418
▁GM	-10.7419
▁Roman	-10.7421
▁scenes	-10.7422
▁wounded	-10.7423
ata	-10.7424
▁hundred	-10.7424
▁Kingdom	-10.7427
▁soccer	-10.7441
▁monitoring	-10.7446
▁sensitive	-10.7459
ira	-10.7459
▁Assembly	-10.7467
▁arrival	-10.7467
view	-10.7467
▁hero	-10.7471
▁smooth	-10.7471
▁branch	-10.7472
▁chapter	-10.7473
fall	-10.7473
▁Pu	-10.7473
▁Intelligence	-10.7478
▁indicate	-10.7483
~	-10.7484
eb	-10.7486
-0	-10.7496
▁€	-10.7496
▁READ	-10.7497
▁Dutch	-10.7499
ump	-10.75
▁thin	-10.7501
▁shipping	-10.7502
▁consideration	-10.7505
▁Tra	-10.7507
▁Change	-10.7507
▁conclusion	-10.7508
▁garden	-10.7509
▁Warner	-10.7514
▁approached	-10.7516
▁everywhere	-10.7517
▁Page	-10.7523
▁imp	-10.7529
▁Affairs	-10.753
▁hopefully	-10.7532
La	-10.7534
mmer	-10.7539
Image	-10.7541
▁chip	-10.7542
▁Charlie	-10.7544
▁midfielder	-10.7544
▁threw	-10.7547
▁awareness	-10.755
▁Book	-10.755
▁em	-10.7553
▁Nation	-10.7555
▁suddenly	-10.7556
▁implement	-10.7558
▁covering	-10.7559
▁contained	-10.7559
▁reads	-10.7568
▁vital	-10.7569
▁lab	-10.7573
▁Henry	-10.7573
par	-10.7573
▁spoken	-10.7575
▁Trade	-10.7578
▁adopted	-10.758
vert	-10.7582
▁evil	-10.7582
rin	-10.7587
▁overseas	-10.7588
▁lowest	-10.7591
▁somehow	-10.7591
NC	-10.7594
▁afraid	-10.7599
▁newsletters	-10.76
▁supports	-10.7601
▁lunch	-10.7602
▁Brexit	-10.7602
core	-10.7607
▁singer	-10.7608
sion	-10.7608
▁recommended	-10.7609
▁46	-10.7613
▁answers	-10.7613
▁elite	-10.7615
▁widespread	-10.7615
▁SP	-10.7615
▁birthday	-10.7616
▁exposure	-10.7619
▁demands	-10.7623
▁firing	-10.7624
77	-10.7628
▁Ve	-10.7631
▁neck	-10.7636
▁Town	-10.7649
Ra	-10.7651
▁summit	-10.7652
▁silver	-10.7653
▁Updated	-10.7654
action	-10.7654
▁Spring	-10.766
ste	-10.7662
▁Jerusalem	-10.7664
▁conspiracy	-10.7666
▁prompted	-10.7673
People	-10.7674
▁mountain	-10.7674
▁Montreal	-10.7677
▁Francis	-10.7677
▁anybody	-10.768
▁SC	-10.7682
▁assist	-10.7684
▁equivalent	-10.7691
▁veterans	-10.7708
▁latter	-10.7711
▁throwing	-10.7712
ound	-10.7714
ston	-10.7714
ati	-10.7715
▁Alexander	-10.772
▁gathering	-10.7724
▁trillion	-10.7726
▁fighter	-10.7729
▁bars	-10.7731
▁renewable	-10.7733
▁column	-10.7735
▁grant	-10.7738
▁representatives	-10.7741
▁horror	-10.7742
▁ratings	-10.7743
▁Independent	-10.7743
65	-10.7745
pan	-10.7745
▁reducing	-10.7747
▁Airport	-10.7753
▁commander	-10.7754
▁History	-10.7758
rc	-10.7758
▁resulting	-10.776
▁fruit	-10.7761
▁factory	-10.7762
▁recognition	-10.7762
▁acquired	-10.7765
▁Wil	-10.7767
▁Find	-10.7768
▁quiet	-10.7769
▁22,	-10.7769
pl	-10.7773
▁depending	-10.7784
▁Kentucky	-10.7789
▁congressional	-10.7789
▁speculation	-10.7791
▁repair	-10.7793
▁handling	-10.7794
▁64	-10.7794
▁amendment	-10.7795
▁containing	-10.7795
ld	-10.7798
▁covers	-10.7801
▁fundamental	-10.7802
Al	-10.7805
lit	-10.7806
▁Win	-10.7806
▁sc	-10.7811
▁hoped	-10.7813
▁demanding	-10.7814
▁FA	-10.7814
pin	-10.7815
▁OF	-10.7817
▁slot	-10.7819
een	-10.7821
▁po	-10.7822
▁domain	-10.7826
▁harassment	-10.783
▁blocks	-10.7833
▁52	-10.7834
▁bl	-10.7836
▁alert	-10.7836
▁locked	-10.7838
▁representing	-10.7838
▁Mail	-10.7839
▁va	-10.7844
▁striker	-10.7846
▁21,	-10.785
▁Join	-10.7851
▁Nor	-10.7851
▁improving	-10.7854
▁NATO	-10.7856
▁pin	-10.7858
▁Bloomberg	-10.786
▁Champions	-10.786
cho	-10.7863
▁tradition	-10.7863
▁del	-10.7864
lt	-10.787
▁Yahoo	-10.7873
▁attached	-10.7874
▁encouraged	-10.7878
▁Fed	-10.7878
▁Five	-10.7879
86	-10.788
▁sum	-10.7882
▁racial	-10.7884
media	-10.7885
▁thread	-10.7887
▁Secret	-10.7889
▁26,	-10.789
▁28,	-10.7896
Pa	-10.7899
▁collaboration	-10.79
▁Children	-10.7901
▁extensive	-10.7901
shi	-10.7901
▁normally	-10.7905
▁Age	-10.7907
▁lift	-10.791
DA	-10.7911
▁Euro	-10.7912
▁favour	-10.7913
▁awarded	-10.7915
ye	-10.7916
▁pit	-10.7917
pped	-10.7919
▁replied	-10.7919
sk	-10.7921
hard	-10.7921
▁lucky	-10.7922
▁constantly	-10.7923
▁riding	-10.7927
-6	-10.7928
▁Digital	-10.7928
▁relationships	-10.793
▁NY	-10.7931
▁27,	-10.7931
▁intent	-10.7935
▁47	-10.7938
▁7,	-10.794
▁guests	-10.794
TH	-10.7945
lla	-10.7948
▁Edition	-10.795
lie	-10.7952
▁fears	-10.7959
▁blind	-10.7962
▁damaged	-10.7963
▁McDonald	-10.7964
▁presentation	-10.7965
▁beach	-10.7965
▁implementation	-10.7968
▁Kennedy	-10.7968
▁disappointed	-10.7969
▁Min	-10.7981
▁membership	-10.7987
ET	-10.7989
▁existence	-10.799
▁23,	-10.7992
ore	-10.7993
▁Ottawa	-10.7996
▁weekly	-10.7996
br	-10.7998
▁attacking	-10.7999
▁affordable	-10.7999
▁rush	-10.7999
▁defender	-10.8003
▁promises	-10.8003
▁51	-10.8003
▁legitimate	-10.8003
▁(3	-10.8007
▁supplies	-10.8007
▁odd	-10.8009
▁sand	-10.8011
▁Em	-10.8012
aries	-10.8019
vy	-10.8019
▁UPDATE	-10.8022
▁Wal	-10.8024
py	-10.8027
▁Perry	-10.8032
▁BJP	-10.8032
▁Matthew	-10.8033
▁hire	-10.8035
▁Melbourne	-10.8036
▁healthcare	-10.8044
will	-10.8044
nch	-10.8045
▁efficient	-10.8045
ria	-10.8047
▁classified	-10.8053
▁aged	-10.8054
▁25,	-10.8059
▁courts	-10.806
▁retirement	-10.806
▁racing	-10.8061
▁magic	-10.8064
▁definition	-10.8065
▁respectively	-10.807
▁describes	-10.8075
▁mess	-10.8075
▁liquid	-10.8079
39	-10.8081
▁handful	-10.8083
▁documentary	-10.8085
▁Madrid	-10.8086
▁Christ	-10.8087
▁Buy	-10.8088
▁Management	-10.8089
▁expanded	-10.8096
▁affairs	-10.8098
ax	-10.8102
cut	-10.8109
▁regulation	-10.811
▁Election	-10.8111
▁Alan	-10.8112
▁roof	-10.8113
▁courtesy	-10.8115
▁vocal	-10.8116
ali	-10.8118
pping	-10.8119
▁relative	-10.8119
▁discover	-10.8122
▁shoulder	-10.8124
▁estimate	-10.8125
▁sixth	-10.8125
▁Battle	-10.8126
▁Tea	-10.8127
▁Corp	-10.8129
▁Cap	-10.813
▁Stewart	-10.813
▁detained	-10.8131
▁invest	-10.8134
▁Cooper	-10.8135
▁Brad	-10.8136
▁homeless	-10.8139
▁11,	-10.814
▁ranks	-10.8141
▁protecting	-10.8143
▁releasing	-10.8145
tric	-10.8146
▁wheel	-10.8147
▁components	-10.8147
▁primarily	-10.8149
▁Er	-10.8152
▁layer	-10.8153
▁Pay	-10.8162
▁Chairman	-10.8169
▁inches	-10.8169
ral	-10.817
▁guarantee	-10.8177
▁controls	-10.8178
▁index	-10.8179
▁statistics	-10.8182
read	-10.8182
▁wire	-10.8183
SP	-10.8185
▁Wolf	-10.8187
▁destination	-10.8189
▁lying	-10.8203
FC	-10.8204
▁Brooklyn	-10.8205
TM	-10.8211
ric	-10.8211
▁spin	-10.8212
8%	-10.8214
▁recognized	-10.8216
▁Ab	-10.8221
▁Atlantic	-10.8221
IM	-10.8223
▁deck	-10.8223
ef	-10.8224
▁shadow	-10.8224
▁phrase	-10.8227
ero	-10.8229
7%	-10.823
OL	-10.8236
▁Pass	-10.824
yer	-10.8242
▁trigger	-10.8245
▁Player	-10.8245
▁auction	-10.8248
▁coaching	-10.8249
▁choices	-10.8251
▁aims	-10.8254
▁#1	-10.8256
▁flu	-10.8256
▁ta	-10.826
▁Dream	-10.8266
▁ownership	-10.8266
▁Without	-10.8267
▁colors	-10.8267
pen	-10.8268
85	-10.8268
▁Jeremy	-10.827
-20	-10.827
Bo	-10.8272
▁j	-10.8273
6%	-10.8273
word	-10.8275
tch	-10.828
nny	-10.8281
▁Work	-10.8281
▁NEW	-10.8281
▁2017,	-10.8283
▁permit	-10.8284
mate	-10.8287
▁titled	-10.8287
59	-10.8291
▁technique	-10.8295
▁Aaron	-10.8298
Now	-10.8299
▁Asked	-10.8303
▁CD	-10.8303
5%	-10.8304
hl	-10.8307
▁lu	-10.8307
▁stepped	-10.8309
▁forum	-10.8312
▁keyboard	-10.833
Mar	-10.8331
uri	-10.8333
▁welfare	-10.8335
▁Nevada	-10.8337
▁expects	-10.8339
▁outlets	-10.8341
66	-10.8343
▁rural	-10.8344
▁shooter	-10.8347
▁installation	-10.8349
▁puts	-10.8349
Lo	-10.8351
▁podcast	-10.8354
card	-10.8355
▁regret	-10.8355
▁Manager	-10.8356
▁Protection	-10.8356
▁servers	-10.8357
▁lit	-10.8361
▁birds	-10.8362
pu	-10.8362
int	-10.8363
▁adviser	-10.8368
▁24,	-10.8368
rry	-10.8372
▁yellow	-10.8375
▁stone	-10.8375
▁Commissioner	-10.8375
▁Comp	-10.8377
▁Clark	-10.8377
▁Beck	-10.8378
▁beta	-10.8381
▁presidency	-10.8384
▁venture	-10.8384
▁reviews	-10.8386
▁Rangers	-10.8387
▁2009,	-10.8389
▁rid	-10.8391
-8	-10.8396
▁kitchen	-10.8397
▁landing	-10.8403
▁anger	-10.8404
▁asylum	-10.8405
▁Jean	-10.8407
week	-10.841
▁beating	-10.8413
3%	-10.8414
▁dress	-10.8415
▁ships	-10.8415
▁Bruce	-10.8419
▁musical	-10.842
▁Express	-10.8421
▁Set	-10.8422
While	-10.8422
▁shirt	-10.8422
fire	-10.8423
▁implemented	-10.8424
▁appointment	-10.8424
▁Thompson	-10.8424
▁registration	-10.8424
▁contributions	-10.8427
▁producers	-10.8427
▁Murray	-10.8428
▁smile	-10.843
▁29,	-10.843
ert	-10.8432
ify	-10.8432
▁advocates	-10.8438
▁stance	-10.8441
▁ease	-10.8442
▁pursue	-10.8442
▁jumped	-10.8443
place	-10.8443
42	-10.8453
▁adventure	-10.8454
care	-10.8455
▁Singapore	-10.8456
▁Ash	-10.8456
▁ear	-10.8457
▁observed	-10.8458
AC	-10.8459
▁Tokyo	-10.8461
GA	-10.8463
▁proposals	-10.847
▁API	-10.8471
page	-10.8475
▁examples	-10.8476
▁Arena	-10.8476
▁Pittsburgh	-10.8478
▁Den	-10.8478
▁tablet	-10.8482
TS	-10.8484
▁improvement	-10.8485
▁viewed	-10.8485
▁ingredients	-10.8486
▁Grant	-10.8487
How	-10.8489
▁funded	-10.8495
▁1970	-10.85
▁fossil	-10.8503
▁8,	-10.8507
▁Area	-10.8508
ple	-10.8513
▁prosecutor	-10.8514
▁thick	-10.8516
▁fled	-10.8517
▁iconic	-10.852
Trump	-10.8524
▁interviews	-10.8524
▁transactions	-10.8524
▁forever	-10.8527
▁bombing	-10.8528
▁Salt	-10.8528
▁performing	-10.8529
table	-10.8531
▁blockchain	-10.8532
▁km	-10.8533
51	-10.8534
range	-10.8535
▁RE	-10.8537
tte	-10.8538
pri	-10.8538
▁Victoria	-10.8539
▁symbol	-10.854
hn	-10.8544
▁narrow	-10.8544
▁counsel	-10.8544
▁6,	-10.8544
▁1:	-10.8546
ima	-10.8547
▁Ren	-10.8549
▁Fi	-10.855
▁IP	-10.8553
▁rely	-10.8554
▁finds	-10.8559
▁promoting	-10.8559
▁Main	-10.8565
▁charging	-10.8566
rant	-10.8567
order	-10.8568
ES	-10.8572
▁2010.	-10.8574
▁judges	-10.8579
▁min	-10.8579
▁Pope	-10.858
▁smoking	-10.8586
Go	-10.8586
}	-10.8588
▁flood	-10.8588
▁DO	-10.859
▁Christopher	-10.8593
▁calm	-10.8593
▁Rich	-10.8593
DC	-10.8594
▁favourite	-10.8594
▁compare	-10.8595
▁USB	-10.86
▁grounds	-10.8603
▁equality	-10.8604
▁17,	-10.8605
▁listening	-10.8607
▁repeated	-10.8607
▁steel	-10.8609
▁trained	-10.8611
▁kinds	-10.8611
▁AND	-10.8611
▁Capitol	-10.8612
uc	-10.8613
▁Andy	-10.8614
▁cooperation	-10.8619
▁Cur	-10.8623
▁Christians	-10.8624
▁bonus	-10.8626
▁clothing	-10.8629
▁resistance	-10.8631
▁Ty	-10.8632
▁hip	-10.8632
▁breach	-10.8633
▁Think	-10.8634
▁deserve	-10.8634
▁promotion	-10.8636
test	-10.8647
▁Phoenix	-10.8649
▁innocent	-10.8649
▁achieved	-10.8651
▁principal	-10.8651
▁pe	-10.8652
▁dramatic	-10.8653
▁landscape	-10.8653
▁Gulf	-10.8654
▁appointed	-10.8654
mat	-10.8654
▁10,000	-10.8655
▁searching	-10.8657
▁Lions	-10.8658
iya	-10.8664
pur	-10.8666
▁legally	-10.8669
▁Sub	-10.8669
▁constant	-10.8674
ets	-10.8675
▁struggled	-10.8676
▁leak	-10.8676
▁clothes	-10.8678
▁Missouri	-10.8679
▁Ban	-10.8679
▁aspects	-10.868
▁element	-10.8682
▁legislative	-10.8682
▁pepper	-10.8686
▁organisation	-10.8688
▁Verizon	-10.8691
ction	-10.8691
▁Alaska	-10.8693
▁sauce	-10.8697
▁sexually	-10.8698
▁wireless	-10.87
▁loans	-10.87
▁MS	-10.8706
An	-10.8707
▁smell	-10.8708
▁pollution	-10.8708
▁Trust	-10.8709
▁Hand	-10.8715
▁popularity	-10.8715
▁Want	-10.8716
▁Ch	-10.8727
fo	-10.8728
▁Garden	-10.8728
▁guidelines	-10.873
▁Model	-10.8731
▁Summer	-10.8731
▁teach	-10.8736
▁inquiry	-10.8737
▁Guard	-10.8738
46	-10.8738
▁Des	-10.8739
▁genetic	-10.8741
▁inflation	-10.8742
▁admit	-10.8748
▁knife	-10.875
cus	-10.875
▁legs	-10.8752
▁kit	-10.8752
▁intention	-10.8754
▁pending	-10.8755
oy	-10.8761
▁intervention	-10.8763
▁18,	-10.8766
▁predicted	-10.8766
▁obtain	-10.8768
▁complicated	-10.8768
qua	-10.8773
▁Berlin	-10.8775
▁launching	-10.8779
party	-10.878
▁Access	-10.878
▁promising	-10.878
▁Camp	-10.8781
▁abroad	-10.8785
▁collapse	-10.8786
▁Reid	-10.8791
night	-10.8797
▁Given	-10.8798
PM	-10.8802
CO	-10.8803
▁Pentagon	-10.8803
▁submit	-10.8809
88	-10.8809
▁Edward	-10.881
▁striking	-10.8815
▁independence	-10.8818
▁30,	-10.8818
▁flights	-10.8818
▁thousand	-10.882
▁cabinet	-10.8826
▁attract	-10.8827
▁AI	-10.8827
▁Afghan	-10.8829
▁20-	-10.883
bel	-10.8831
founder	-10.8833
▁arguing	-10.8838
▁III	-10.8841
mor	-10.8844
teen	-10.8846
▁Batman	-10.8847
▁nationwide	-10.8849
▁desktop	-10.885
▁staying	-10.8851
▁keeps	-10.8852
▁letting	-10.8855
▁enemies	-10.8855
dale	-10.8856
owned	-10.8856
ddle	-10.886
non	-10.8862
▁6-	-10.8864
tru	-10.8868
▁shit	-10.8868
▁offices	-10.8869
▁Ber	-10.887
▁360	-10.8871
▁burden	-10.8873
▁Mobile	-10.8875
▁mining	-10.8875
ically	-10.8877
FA	-10.8878
ute	-10.8879
▁5,	-10.8884
▁copies	-10.8884
▁punishment	-10.8899
▁Officials	-10.89
▁Poll	-10.8901
Some	-10.8903
IL	-10.8904
▁serves	-10.8905
▁Hard	-10.8907
▁fi	-10.8907
▁scenario	-10.8907
▁graphics	-10.8912
▁unveiled	-10.8912
▁Coach	-10.8915
▁Such	-10.8918
▁hockey	-10.8919
▁pa	-10.8919
▁theft	-10.8925
▁dating	-10.8925
▁inspiration	-10.8926
▁bathroom	-10.8926
▁shall	-10.8931
▁Down	-10.8933
▁bin	-10.8933
▁Having	-10.8935
▁Gordon	-10.8937
▁unlike	-10.894
▁ignore	-10.8944
BA	-10.8948
▁root	-10.8948
ear	-10.8949
▁mirror	-10.8952
ult	-10.8953
▁capabilities	-10.8954
▁3-	-10.8956
▁19,	-10.8958
▁Philippines	-10.8959
▁killer	-10.896
▁addresses	-10.8963
▁belt	-10.8964
eng	-10.8965
▁soil	-10.8966
tech	-10.8967
▁bound	-10.8975
▁blamed	-10.8976
code	-10.8976
▁Heat	-10.8977
▁Death	-10.8984
name	-10.8989
▁rep	-10.8991
▁Bel	-10.8992
▁hack	-10.8993
▁Dog	-10.8994
▁wa	-10.8998
▁2008,	-10.9
even	-10.9001
▁Step	-10.9007
▁bread	-10.9007
▁compensation	-10.9012
most	-10.9013
▁Speaker	-10.9017
▁Elizabeth	-10.9018
▁pledge	-10.9026
▁grid	-10.9027
▁airline	-10.9028
▁advertisement	-10.903
▁rolling	-10.9031
▁Mitt	-10.9031
▁Snowden	-10.9031
▁Staff	-10.9034
▁CH	-10.9035
▁ridiculous	-10.9037
▁Stein	-10.9037
▁framework	-10.9042
▁1999	-10.9043
▁Was	-10.9043
-12	-10.9043
▁rapidly	-10.9047
▁laugh	-10.9053
▁moderate	-10.9053
▁distributed	-10.9058
itz	-10.9062
▁volunteer	-10.9065
▁soul	-10.9065
▁Giants	-10.9066
▁shocked	-10.9066
▁Net	-10.9067
▁Libya	-10.9068
▁Deputy	-10.9069
▁savings	-10.9071
▁actress	-10.9071
▁preview	-10.9072
ture	-10.9073
▁CS	-10.9074
▁reveals	-10.9074
▁import	-10.9081
▁Rio	-10.9082
▁corporations	-10.9082
▁passion	-10.9084
▁Sy	-10.9086
▁rebels	-10.9086
PL	-10.909
▁speaks	-10.9092
▁interior	-10.9095
▁Magic	-10.9096
ington	-10.9099
NS	-10.91
▁merely	-10.9102
▁signature	-10.9103
▁MPs	-10.9105
take	-10.9106
▁2:	-10.9107
▁strategic	-10.9107
▁succeed	-10.9107
dom	-10.9113
▁16,	-10.9116
“	-10.9119
▁teen	-10.9128
▁forest	-10.913
▁backing	-10.9131
▁beauty	-10.9134
▁techniques	-10.9137
▁demanded	-10.9139
lip	-10.9142
AD	-10.915
▁stupid	-10.9151
▁hunt	-10.9159
▁managing	-10.916
any	-10.9162
▁Heart	-10.9163
▁urge	-10.9163
56	-10.9164
ient	-10.9165
▁girlfriend	-10.9167
▁detect	-10.9167
-19	-10.917
▁Cu	-10.917
▁spots	-10.917
▁analysts	-10.9172
▁cake	-10.9173
▁ambassador	-10.9174
▁Tower	-10.9174
band	-10.9174
▁testimony	-10.9175
election	-10.9177
▁defended	-10.9179
▁100%	-10.918
▁recover	-10.9184
▁playoff	-10.9184
▁departure	-10.9185
▁commissioner	-10.9185
▁Advertisements	-10.9186
▁conversations	-10.9188
▁hosting	-10.9189
▁trick	-10.919
▁assists	-10.9191
▁Com	-10.9197
▁enormous	-10.9197
▁Carl	-10.9202
▁pleaded	-10.9202
▁prototype	-10.9204
▁bullet	-10.9205
▁indication	-10.9206
▁Mas	-10.9207
▁53	-10.9208
▁violations	-10.9209
▁Cam	-10.9209
▁swing	-10.9211
ON	-10.9211
/2	-10.9213
▁abandoned	-10.9218
▁stem	-10.922
▁channels	-10.9229
zy	-10.9229
▁cu	-10.923
▁volunteers	-10.9231
▁outfit	-10.9232
▁comprehensive	-10.9237
▁Close	-10.9239
ula	-10.9245
▁resort	-10.9245
▁15,	-10.9247
▁Mario	-10.9248
▁profits	-10.9249
▁household	-10.9253
▁Doctor	-10.9253
▁beliefs	-10.9254
▁Tax	-10.9255
▁Phone	-10.9257
▁wages	-10.9258
og	-10.9259
AS	-10.9259
▁usage	-10.9259
▁Ju	-10.926
▁Winter	-10.9263
▁walls	-10.9264
▁silence	-10.9264
▁Round	-10.9271
▁absence	-10.9272
▁noting	-10.9272
▁premiere	-10.9277
▁excuse	-10.928
▁anonymous	-10.928
▁Dick	-10.9282
ux	-10.9284
▁recovered	-10.9285
▁rounds	-10.9287
screen	-10.9289
▁Run	-10.9289
▁Barcelona	-10.929
worth	-10.9291
▁hadn	-10.9292
▁glad	-10.9294
▁finger	-10.9296
▁athletes	-10.9299
yan	-10.9309
▁narrative	-10.931
▁statue	-10.931
MS	-10.9311
▁attending	-10.9311
▁diversity	-10.9311
▁witnesses	-10.9312
SU	-10.9312
▁brothers	-10.9313
▁Class	-10.9315
▁diplomatic	-10.9316
▁venue	-10.9318
gger	-10.9318
dar	-10.9319
▁combine	-10.9319
▁cook	-10.932
▁Marc	-10.9324
▁chest	-10.9325
mus	-10.9328
▁procedure	-10.9329
▁Bit	-10.9329
▁headline	-10.9332
▁expanding	-10.9332
▁stayed	-10.9332
SC	-10.9334
ans	-10.9336
▁Reserve	-10.9343
nan	-10.9344
▁exception	-10.9344
▁keen	-10.9346
ica	-10.9348
▁kicked	-10.9348
▁photographer	-10.9349
▁couples	-10.935
bound	-10.935
▁functions	-10.9353
bble	-10.9354
this	-10.9354
96	-10.9355
▁encouraging	-10.9358
▁convinced	-10.9359
pper	-10.9362
▁graduate	-10.9363
Ho	-10.9366
▁processing	-10.9367
▁Hampshire	-10.9371
▁egg	-10.9374
▁butter	-10.9375
▁Future	-10.9376
▁opt	-10.9378
▁offseason	-10.938
▁Seven	-10.9383
▁Contact	-10.9384
▁ch	-10.9388
▁14,	-10.9392
sey	-10.9395
▁settings	-10.9395
fu	-10.9397
▁9,	-10.9406
▁Hot	-10.9407
4%	-10.9407
▁god	-10.9409
▁Ever	-10.9412
▁seemingly	-10.9413
▁30-	-10.9416
▁20,	-10.9417
1%	-10.9418
▁flavor	-10.9418
▁saving	-10.9419
▁researcher	-10.9419
ological	-10.9424
zo	-10.9425
▁Orange	-10.9429
▁hike	-10.943
▁Visit	-10.9432
▁carefully	-10.9434
▁Total	-10.9435
▁Print	-10.9436
▁samples	-10.9436
▁premium	-10.9437
ition	-10.9438
▁ultimate	-10.9439
▁Ukrainian	-10.9441
▁eggs	-10.9441
▁Alberta	-10.9443
▁Roy	-10.9443
▁involves	-10.9444
!!	-10.9445
▁Flash	-10.9446
▁situations	-10.9449
cur	-10.9455
▁Edit	-10.9455
fin	-10.9456
41	-10.9457
mont	-10.9461
chan	-10.9462
▁speaker	-10.9463
▁pm	-10.9464
▁communicate	-10.9465
▁alarm	-10.9466
▁Ann	-10.9469
▁taught	-10.9469
▁execution	-10.9469
▁export	-10.9471
▁Sar	-10.9476
▁dust	-10.9477
▁arguments	-10.9479
▁Russell	-10.9482
▁exhibit	-10.9484
▁bird	-10.9485
▁comfort	-10.9487
▁PR	-10.9487
▁Card	-10.9492
ough	-10.9495
▁Todd	-10.9498
▁DE	-10.9499
▁ni	-10.9499
▁jet	-10.95
▁executives	-10.9502
▁Oscar	-10.9503
▁Master	-10.9503
▁symptoms	-10.9504
▁investigations	-10.9505
▁12-	-10.9507
▁Additionally	-10.951
▁ski	-10.9512
aki	-10.9513
gh	-10.9513
▁SE	-10.9513
▁valid	-10.9516
▁grave	-10.9517
▁origin	-10.9517
▁Forest	-10.9523
▁com	-10.9525
▁sn	-10.9527
ius	-10.9529
▁accessible	-10.9532
only	-10.9532
▁regard	-10.9536
press	-10.9536
▁manufacturers	-10.9536
winning	-10.9536
▁opinions	-10.9541
▁UC	-10.9541
dan	-10.9542
▁raw	-10.9544
▁steal	-10.9544
▁landed	-10.9547
▁sequel	-10.9549
ew	-10.9551
▁universities	-10.9553
▁Wayne	-10.9554
▁adopt	-10.9556
▁fault	-10.9558
▁windows	-10.9559
hill	-10.956
▁Band	-10.9562
▁tail	-10.9567
▁blend	-10.9567
▁Craig	-10.9569
▁complained	-10.9573
now	-10.9574
▁banking	-10.9575
▁sheet	-10.9579
▁joy	-10.9579
▁discussing	-10.9581
▁Convention	-10.9581
▁maps	-10.9583
▁investigated	-10.9585
▁mar	-10.9585
▁legacy	-10.9587
away	-10.9595
▁reward	-10.9596
▁announcing	-10.9598
▁WASHINGTON	-10.9604
▁legend	-10.9604
▁evolution	-10.9608
▁eliminate	-10.9613
▁Senior	-10.9617
▁fields	-10.9619
▁races	-10.9619
▁Villa	-10.9619
▁31,	-10.9621
▁actors	-10.9622
cul	-10.9622
▁defending	-10.9625
▁1.5	-10.963
▁defined	-10.9631
▁Point	-10.9633
▁Eagles	-10.9633
▁highway	-10.9633
▁decent	-10.9634
▁Pra	-10.9634
▁roles	-10.9635
▁checks	-10.9636
▁breast	-10.9638
▁Manhattan	-10.9643
▁Louisiana	-10.9643
68	-10.9644
▁followers	-10.9646
▁tries	-10.9647
▁Sh	-10.9648
watch	-10.9656
▁entitled	-10.9657
▁burning	-10.9659
▁wider	-10.9659
ory	-10.9665
▁exists	-10.9669
▁substantial	-10.9675
aka	-10.9675
▁refugee	-10.9677
▁loose	-10.9682
yo	-10.9683
▁destruction	-10.9685
▁babies	-10.9687
▁loud	-10.9687
▁FCC	-10.9688
.“	-10.9689
▁Ac	-10.9698
▁plea	-10.9699
▁pension	-10.9701
▁NOT	-10.9702
▁consent	-10.9708
▁golf	-10.9709
ö	-10.971
▁Fu	-10.9712
▁focusing	-10.9713
▁pregnant	-10.9714
▁substance	-10.9715
▁traveling	-10.9715
member	-10.9716
▁Posted	-10.9716
Po	-10.9717
▁illegally	-10.9718
▁competing	-10.9719
▁introduction	-10.9719
▁residence	-10.972
57	-10.972
▁Blu	-10.9732
2)	-10.9733
▁th	-10.9736
▁Harvard	-10.9737
ban	-10.9737
▁impression	-10.9738
▁designer	-10.9741
under	-10.9746
▁forcing	-10.9748
▁MI	-10.9749
▁artificial	-10.975
▁recruit	-10.975
▁Financial	-10.9752
▁Fo	-10.9758
▁si	-10.9761
▁processes	-10.9762
▁gross	-10.9762
▁tremendous	-10.9764
▁highlight	-10.9766
▁Captain	-10.9767
▁Standard	-10.9767
▁12,	-10.9768
oid	-10.9769
vers	-10.9769
▁acknowledge	-10.977
EL	-10.9772
▁carrier	-10.9776
▁ratio	-10.9778
▁rumors	-10.978
▁Egyptian	-10.9781
▁horse	-10.9781
▁Yemen	-10.9785
▁repeat	-10.9786
RT	-10.9787
▁Nelson	-10.979
▁participation	-10.9792
los	-10.9793
▁closure	-10.9794
▁designs	-10.9796
▁Rubio	-10.9796
has	-10.9799
dal	-10.9801
▁Baker	-10.9801
▁writers	-10.9803
▁junior	-10.9804
▁civilian	-10.9805
▁Dun	-10.9809
▁Taliban	-10.9809
▁burn	-10.9811
mel	-10.9817
New	-10.9819
▁Hart	-10.9821
▁uniform	-10.9821
▁equally	-10.9823
ock	-10.9824
After	-10.9825
▁prosecution	-10.9829
▁deployed	-10.983
▁Unlike	-10.9831
sign	-10.9833
▁Nu	-10.9836
▁acquisition	-10.984
▁deny	-10.9841
▁patterns	-10.9845
▁plain	-10.9847
▁revolution	-10.9847
▁Sta	-10.9848
▁Anyone	-10.9848
▁removal	-10.985
▁13,	-10.9852
▁Researchers	-10.9852
ups	-10.9853
▁participating	-10.9854
▁patrol	-10.9855
-7	-10.9855
▁Mount	-10.9856
▁nose	-10.9857
▁consecutive	-10.9858
iti	-10.9861
▁scientist	-10.9862
▁Trek	-10.9865
▁rough	-10.9866
Not	-10.9866
▁Crime	-10.9867
▁define	-10.9869
▁Continue	-10.987
43	-10.987
▁Later	-10.9871
wide	-10.9872
wal	-10.9873
gin	-10.9875
▁Ye	-10.9876
wall	-10.988
▁Robinson	-10.9882
▁Wright	-10.9888
▁march	-10.9889
▁Should	-10.9892
▁listing	-10.9896
▁mandate	-10.9896
▁asks	-10.9898
▁Swedish	-10.9898
▁Abu	-10.9899
▁sheriff	-10.99
ole	-10.99
▁Treasury	-10.9902
ulation	-10.9904
▁Je	-10.9906
▁Sessions	-10.9906
▁connections	-10.9906
67	-10.9907
nar	-10.991
▁Morning	-10.9911
MO	-10.9913
▁Mid	-10.9913
cle	-10.9918
▁Orleans	-10.992
▁barely	-10.9923
sson	-10.9925
▁crossing	-10.9927
▁memo	-10.9927
▁chamber	-10.993
▁careful	-10.993
▁1998	-10.9933
▁angle	-10.9933
98	-10.9939
87	-10.9939
▁Collins	-10.994
▁Box	-10.9944
▁mask	-10.9945
onic	-10.9947
▁gather	-10.9948
burn	-10.995
/1	-10.9952
▁Bull	-10.9954
▁external	-10.9955
76	-10.9955
▁Olympics	-10.9956
▁transaction	-10.9956
▁stages	-10.996
í	-10.9962
▁playoffs	-10.9965
eo	-10.9965
▁outdoor	-10.9965
▁arrests	-10.9966
▁Tribune	-10.9968
▁gains	-10.9968
▁crore	-10.9969
▁scores	-10.997
▁feelings	-10.9972
gent	-10.9972
▁discount	-10.9974
pers	-10.9974
▁EPA	-10.9977
▁Bal	-10.9983
▁”	-10.9984
▁Hunter	-10.9985
▁preparation	-10.9986
▁rarely	-10.9988
author	-10.9996
▁shoes	-10.9997
▁judgment	-11
▁Tan	-11
was	-11
Un	-11.0002
▁HBO	-11.0008
▁1/2	-11.001
▁odds	-11.0013
▁Val	-11.0014
▁routine	-11.0018
▁picking	-11.0018
▁z	-11.0019
▁contribution	-11.002
▁Jerry	-11.002
▁Come	-11.0021
▁Christie	-11.0022
▁explaining	-11.0025
zar	-11.0027
▁archive	-11.0028
▁Harper	-11.0028
▁Pence	-11.0033
▁Soviet	-11.0034
▁para	-11.0034
ook	-11.0037
▁Lin	-11.0037
▁Sometimes	-11.0039
▁Ci	-11.0039
vel	-11.004
▁taxpayers	-11.0042
power	-11.0044
oh	-11.0044
▁Off	-11.0045
▁wallet	-11.0046
Ba	-11.0048
▁$20	-11.0049
▁Mill	-11.0051
▁approve	-11.0052
▁cops	-11.0052
▁Hy	-11.0055
ense	-11.0056
aj	-11.0057
▁Carr	-11.0057
▁proportion	-11.0057
▁Arm	-11.0063
▁Palestinians	-11.0064
▁carries	-11.0066
▁harsh	-11.0068
▁aspect	-11.0071
▁coordinator	-11.0077
▁maintained	-11.0078
▁Again	-11.0082
▁fl	-11.0083
▁Things	-11.0085
▁Marco	-11.0089
▁alien	-11.009
▁illness	-11.0093
PP	-11.0094
▁Until	-11.0095
▁Fan	-11.0095
▁cleared	-11.0098
▁wound	-11.0099
nder	-11.01
tur	-11.01
och	-11.01
▁Ky	-11.0101
▁depression	-11.0101
▁snap	-11.0102
▁Safety	-11.0105
bot	-11.0108
▁Poland	-11.0109
▁concrete	-11.0113
▁talented	-11.0113
▁Early	-11.0119
▁unprecedented	-11.0122
hol	-11.0122
▁racism	-11.0122
▁hiring	-11.0123
▁GT	-11.0128
HA	-11.0129
▁react	-11.013
▁pointing	-11.0134
ister	-11.0134
▁Organization	-11.0136
▁tear	-11.0137
ida	-11.0139
▁earnings	-11.0139
▁Tro	-11.0141
person	-11.0144
▁der	-11.0144
▁Breitbart	-11.0145
▁inbox	-11.0146
Ar	-11.0147
▁efficiency	-11.0147
verse	-11.0149
▁GMT	-11.015
.00	-11.0151
link	-11.0153
▁telephone	-11.0154
▁tune	-11.0155
▁vaccine	-11.0158
▁54	-11.0159
▁rhetoric	-11.016
dia	-11.0161
▁pure	-11.0165
▁Islamist	-11.0165
▁consistently	-11.0165
▁Currently	-11.0167
ean	-11.0168
▁Murphy	-11.0168
▁pizza	-11.0176
▁stability	-11.0183
she	-11.0193
▁publisher	-11.0195
▁Pick	-11.0195
▁Draft	-11.0196
▁passage	-11.0197
load	-11.0199
▁regulatory	-11.0204
▁Vladimir	-11.0204
there	-11.0208
▁liked	-11.0208
▁Bro	-11.0209
lands	-11.021
▁span	-11.0211
including	-11.0212
▁polling	-11.022
▁Netherlands	-11.022
▁praised	-11.0221
▁resource	-11.0221
▁maintenance	-11.0222
▁AR	-11.0223
▁firearms	-11.0225
▁actively	-11.0228
▁Start	-11.0228
body	-11.0229
▁Hell	-11.023
▁filter	-11.0232
▁Link	-11.0236
▁Bri	-11.0237
▁exploit	-11.0238
▁senators	-11.0239
▁cheaper	-11.0239
▁Abbott	-11.024
▁creator	-11.0243
▁centers	-11.0244
▁earthquake	-11.0244
▁scan	-11.0246
bury	-11.0249
bert	-11.025
▁Tampa	-11.0253
▁neighbors	-11.0254
▁Chrome	-11.0257
▁Tar	-11.0258
▁diverse	-11.0259
▁Does	-11.026
rest	-11.0261
▁breaks	-11.0262
▁Ag	-11.0264
▁Authorities	-11.0267
aire	-11.0268
▁colour	-11.0269
▁Sure	-11.0271
▁boot	-11.0271
hood	-11.0272
▁Library	-11.0274
▁Gear	-11.0275
▁Kyle	-11.0276
lum	-11.0277
friendly	-11.0278
km	-11.0282
▁Evans	-11.0283
▁invite	-11.0283
▁List	-11.0284
OP	-11.0285
from	-11.0292
▁Flynn	-11.0297
coming	-11.0297
▁reliable	-11.0299
▁Char	-11.0301
▁quit	-11.0302
dor	-11.0304
▁photograph	-11.0304
pat	-11.0306
▁subscribing	-11.0307
▁toxic	-11.0307
▁Campbell	-11.0309
▁imposed	-11.0309
▁resolve	-11.031
▁detention	-11.0312
just	-11.0312
▁stating	-11.0315
eau	-11.0315
▁Name	-11.0315
▁instructions	-11.0322
▁ages	-11.0322
▁et	-11.0323
▁privilege	-11.0324
▁ministers	-11.0324
cl	-11.0327
▁collective	-11.0329
▁$15	-11.0329
▁animation	-11.0329
RI	-11.0332
▁dialogue	-11.0335
54	-11.0335
▁Fer	-11.0336
▁coin	-11.0337
nk	-11.0337
▁meal	-11.0337
▁confirmation	-11.0337
▁Patriots	-11.0338
▁associate	-11.034
▁celebration	-11.034
▁NO	-11.0341
▁2,000	-11.0343
▁Hurricane	-11.0343
▁affiliate	-11.0345
fish	-11.0349
▁Sim	-11.0355
▁climb	-11.0356
▁provider	-11.0356
ched	-11.0357
▁sparked	-11.0357
▁teammates	-11.0362
▁overnight	-11.0362
▁ro	-11.0366
▁pride	-11.0369
▁pulling	-11.0369
▁headlines	-11.0369
nal	-11.0369
bat	-11.0371
▁Gal	-11.0371
▁250	-11.0377
lf	-11.0377
▁Luke	-11.038
ending	-11.0382
▁Gri	-11.0382
▁array	-11.0382
53	-11.0382
ain	-11.0385
▁graphic	-11.0386
ale	-11.0387
▁raid	-11.0397
▁Calgary	-11.0398
Sa	-11.04
▁24-	-11.0401
▁violated	-11.0402
▁Drug	-11.0403
SO	-11.0404
▁strain	-11.0406
▁dropping	-11.0407
▁boxes	-11.041
▁Gre	-11.0413
▁Ubuntu	-11.0415
▁fence	-11.0415
▁reverse	-11.0416
▁tens	-11.0416
▁mystery	-11.0417
▁2.0	-11.0418
▁Ferguson	-11.0419
▁$9	-11.0423
▁helpful	-11.0424
▁subscription	-11.0427
▁accusations	-11.0429
TO	-11.043
front	-11.043
ches	-11.0433
▁innovative	-11.0435
▁Hamas	-11.0437
▁tower	-11.0437
▁Side	-11.0437
▁entrance	-11.0439
▁stamp	-11.0439
▁timing	-11.0439
▁911	-11.044
▁Duke	-11.0442
▁su	-11.0443
▁principle	-11.0445
▁principles	-11.0446
▁settle	-11.0447
▁mortgage	-11.0447
▁engineer	-11.0452
▁rec	-11.0453
▁fate	-11.0457
▁ba	-11.0457
▁Invalid	-11.0458
▁interviewed	-11.046
cu	-11.0462
▁Ian	-11.0463
▁RT	-11.0467
▁sustainable	-11.0467
lia	-11.0471
▁tons	-11.0474
▁Watson	-11.0474
▁residential	-11.0475
1)	-11.0478
▁winners	-11.0482
▁den	-11.0482
▁backup	-11.0484
▁demonstrate	-11.0484
▁attractive	-11.0486
▁conservatives	-11.0486
▁practical	-11.0487
84	-11.049
▁Highway	-11.0494
▁expecting	-11.0499
▁educational	-11.0501
Why	-11.0505
▁100,000	-11.0505
▁Everyone	-11.0505
▁pocket	-11.0505
craft	-11.0506
▁Indeed	-11.0507
▁convert	-11.0513
▁powder	-11.0514
▁blocking	-11.0515
ening	-11.0516
▁openly	-11.052
ram	-11.0521
▁vegan	-11.0522
▁fantasy	-11.0526
shire	-11.0526
wer	-11.0526
▁Adams	-11.0533
▁1996	-11.0533
▁versus	-11.0534
▁2009.	-11.054
▁publish	-11.054
▁tone	-11.0541
▁viral	-11.0543
▁protocol	-11.0544
▁hackers	-11.0547
▁Penn	-11.0549
▁breath	-11.0552
ctor	-11.0553
▁Ros	-11.0553
▁engineers	-11.0554
▁Brand	-11.0554
▁frequent	-11.0555
▁MO	-11.0556
ony	-11.056
▁lake	-11.0562
▁shame	-11.0563
▁prisoners	-11.0564
▁attitude	-11.0569
▁Animal	-11.0569
▁requiring	-11.0569
▁soldier	-11.057
▁Jimmy	-11.057
▁Dean	-11.0576
▁twin	-11.0585
ene	-11.0587
▁displayed	-11.0587
degree	-11.0588
▁Turn	-11.0589
rit	-11.0593
▁screening	-11.0596
▁Bible	-11.0597
78	-11.0599
iness	-11.0599
▁brands	-11.06
▁56	-11.0604
▁suspicion	-11.0605
▁tab	-11.0605
▁awards	-11.0606
Qu	-11.0607
rat	-11.0608
▁donation	-11.0609
▁Assad	-11.061
▁drones	-11.0611
CE	-11.0613
profile	-11.0614
▁exclusively	-11.0617
▁Hotel	-11.0617
▁virtually	-11.0617
▁smartphones	-11.0622
▁component	-11.0622
▁specialist	-11.0626
▁papers	-11.0626
Ex	-11.0632
▁mysterious	-11.0634
▁Sport	-11.0637
▁Had	-11.0638
▁Alliance	-11.0638
▁structures	-11.0642
ching	-11.0642
▁Gallery	-11.0647
-9	-11.0648
▁lane	-11.065
▁recommendations	-11.065
▁emerging	-11.0651
▁waves	-11.0652
▁Au	-11.0652
▁brilliant	-11.0655
▁Remember	-11.0656
▁releases	-11.066
▁FOR	-11.0662
▁employers	-11.0662
▁reader	-11.0664
▁sentiment	-11.0665
▁circuit	-11.0666
▁formation	-11.0669
{	-11.067
▁Hawaii	-11.0676
▁slide	-11.0676
vid	-11.0677
▁McConnell	-11.0678
▁rapid	-11.068
▁Cho	-11.068
▁Raj	-11.0685
▁Brandon	-11.0691
▁Mag	-11.0693
▁prop	-11.0695
oz	-11.0695
▁outstanding	-11.0698
▁comply	-11.0702
▁protein	-11.0702
▁quote	-11.0704
▁ranking	-11.0705
▁requirement	-11.0707
▁shocking	-11.0711
CNN	-11.0715
▁Shin	-11.0716
▁Environmental	-11.0716
▁BA	-11.0717
rian	-11.0717
▁Mother	-11.0718
esh	-11.072
face	-11.0723
CS	-11.0724
▁Doug	-11.0727
▁Based	-11.0731
52	-11.0732
▁Circuit	-11.0737
▁billionaire	-11.0738
▁Buck	-11.0739
▁ne	-11.0743
▁ON	-11.0743
89	-11.0748
▁Rice	-11.0749
▁ME	-11.0752
▁anime	-11.0755
▁genre	-11.0755
EC	-11.0756
▁settled	-11.0756
rock	-11.0756
▁Building	-11.0756
▁delayed	-11.0758
▁donors	-11.0759
▁Jam	-11.0763
Well	-11.0764
▁physically	-11.0764
▁Left	-11.077
team	-11.077
▁lists	-11.077
▁Solar	-11.0771
bank	-11.0773
▁removing	-11.0774
▁SO	-11.0775
▁Ice	-11.0776
▁appearing	-11.0776
▁deeper	-11.0779
▁Merkel	-11.0781
open	-11.0782
▁acid	-11.0783
▁restore	-11.0784
▁Mrs	-11.0784
▁buyers	-11.0786
Just	-11.0787
▁investments	-11.0787
vic	-11.0792
▁iTunes	-11.0796
▁spill	-11.0796
ass	-11.0797
▁mega	-11.0808
kes	-11.0812
▁Mun	-11.0812
jan	-11.0812
▁icon	-11.0815
▁printed	-11.0816
▁Date	-11.0817
▁lets	-11.0819
ori	-11.082
▁demonstrated	-11.0824
▁wanting	-11.0827
real	-11.0829
▁epic	-11.0829
rt	-11.083
▁(4	-11.083
▁assembly	-11.0834
▁everyday	-11.0835
ese	-11.0837
▁honour	-11.0839
▁provision	-11.0841
▁Bor	-11.0841
TE	-11.0843
▁fatal	-11.0853
str	-11.0855
▁compromise	-11.0856
▁unions	-11.0871
▁scratch	-11.0873
▁tired	-11.0874
▁borders	-11.0874
▁answered	-11.0875
▁Guy	-11.0878
▁involve	-11.0882
▁rivals	-11.0882
▁photographs	-11.0884
▁bull	-11.0885
ora	-11.0885
stream	-11.0886
▁supporter	-11.0886
▁cats	-11.0887
▁hunting	-11.0887
▁Pet	-11.0888
▁hanging	-11.0888
▁twist	-11.0892
▁divided	-11.0892
▁globe	-11.0892
▁Mode	-11.0893
▁Communications	-11.0895
lly	-11.0898
▁Commons	-11.0898
▁Columbus	-11.0899
▁personality	-11.09
roid	-11.0901
▁Order	-11.0901
▁tale	-11.0901
▁teenager	-11.0903
▁hardly	-11.0904
sized	-11.0904
58	-11.0906
where	-11.0908
▁preferred	-11.0909
PO	-11.091
▁reforms	-11.0911
▁enterprise	-11.0914
▁120	-11.0914
▁packages	-11.0917
▁mistakes	-11.0918
▁underground	-11.0928
▁meters	-11.0928
▁ignored	-11.093
▁600	-11.0934
▁guitar	-11.0936
▁Manning	-11.0937
▁DNC	-11.0937
▁Theatre	-11.0938
▁notion	-11.0946
▁5-	-11.0946
▁DJ	-11.0947
▁politician	-11.0947
▁hopeful	-11.0949
▁18-	-11.0951
▁advocate	-11.0952
▁fleet	-11.0952
▁packed	-11.0955
▁Iron	-11.0955
tes	-11.0959
▁1997	-11.096
chen	-11.0961
▁HIV	-11.0964
▁felony	-11.0966
▁BE	-11.0966
▁shake	-11.0969
▁credits	-11.0969
▁Shu	-11.0972
▁Kickstarter	-11.0974
▁stored	-11.0977
▁stressed	-11.0977
▁grip	-11.0979
▁~	-11.098
▁maker	-11.0983
ika	-11.0984
▁bacteria	-11.0984
▁Sco	-11.0986
DE	-11.0987
▁editorial	-11.0988
▁Jun	-11.1001
▁pledged	-11.1001
▁creates	-11.1002
▁speeds	-11.1004
▁certificate	-11.1004
▁Friends	-11.1004
▁rushed	-11.1005
▁Corporation	-11.1006
▁fed	-11.1007
▁retain	-11.1007
▁hook	-11.1008
▁dual	-11.1008
mile	-11.1008
burg	-11.1009
▁Core	-11.101
▁Front	-11.1011
▁remarkable	-11.1012
▁Looking	-11.1013
▁disclosure	-11.1014
ox	-11.1015
▁lifestyle	-11.1015
▁scrap	-11.1017
▁topics	-11.1017
▁powered	-11.1019
▁RELATED	-11.1021
▁architecture	-11.1022
▁chips	-11.1025
▁silent	-11.1026
▁Kings	-11.1026
▁orange	-11.1028
sol	-11.103
trans	-11.103
script	-11.1033
▁Rand	-11.1033
▁longtime	-11.1034
ern	-11.1035
ato	-11.1041
▁beef	-11.1042
▁publishing	-11.1043
▁Kan	-11.1044
▁Ward	-11.1046
▁politically	-11.1047
▁Unit	-11.1047
▁naturally	-11.1047
▁badly	-11.105
▁peaceful	-11.105
▁Stanley	-11.1051
▁expenses	-11.1051
▁Larry	-11.1052
▁def	-11.1053
▁wondering	-11.1053
UR	-11.1054
pot	-11.1056
▁strict	-11.1059
▁nail	-11.1063
▁Maria	-11.1063
▁ethnic	-11.1064
▁Swiss	-11.1065
By	-11.1067
▁pricing	-11.1068
SL	-11.1069
▁king	-11.1071
▁Studios	-11.1072
▁employed	-11.1075
▁Bears	-11.1079
▁Cy	-11.1079
▁AS	-11.1079
▁respondents	-11.1081
▁Palin	-11.1086
▁15-	-11.1086
shot	-11.1086
▁conviction	-11.1088
97	-11.1088
▁calendar	-11.1089
▁chronic	-11.1092
▁wealthy	-11.1093
eu	-11.1095
▁Federation	-11.1096
LY	-11.1096
▁gameplay	-11.1099
NE	-11.1101
▁licensing	-11.1102
▁hacking	-11.1104
▁Save	-11.1105
▁£2	-11.1105
▁DVD	-11.1107
▁Mont	-11.1107
mir	-11.1107
▁57	-11.1108
▁inappropriate	-11.1109
▁disabled	-11.111
▁disagree	-11.1111
▁MMA	-11.1113
nge	-11.1114
▁SEC	-11.1117
▁Pin	-11.1118
▁cop	-11.1119
▁briefing	-11.1119
▁luxury	-11.112
▁organic	-11.1121
▁momentum	-11.1122
▁sequence	-11.1124
▁studied	-11.1124
▁torture	-11.1125
▁Hunt	-11.1128
PD	-11.113
gel	-11.1131
gun	-11.1131
▁sees	-11.1131
▁hub	-11.1132
▁donated	-11.1138
speed	-11.114
▁Nazi	-11.1142
▁seed	-11.1143
ters	-11.1143
base	-11.1143
▁linebacker	-11.1144
▁spectrum	-11.1146
▁poster	-11.1148
▁Knight	-11.115
▁Transportation	-11.115
▁broader	-11.1151
▁bags	-11.1153
▁Latin	-11.1153
▁circle	-11.1155
▁damn	-11.1156
▁Vietnam	-11.1157
MB	-11.1158
▁Dublin	-11.1158
▁plug	-11.1159
▁Sand	-11.116
▁fishing	-11.1164
▁Cra	-11.1165
ography	-11.1165
▁Angel	-11.1165
gram	-11.1168
▁Coalition	-11.1168
▁bulk	-11.1168
hor	-11.1169
▁mosque	-11.1173
▁startup	-11.1175
▁welcomed	-11.1181
▁apology	-11.1182
EE	-11.1183
▁2008.	-11.1188
▁WWE	-11.1188
▁toilet	-11.119
▁taxi	-11.119
far	-11.1194
▁dig	-11.1195
▁AMD	-11.1196
▁Chuck	-11.1199
orn	-11.12
▁manufacturer	-11.1203
61	-11.1204
▁hospitals	-11.1205
▁Rome	-11.1206
▁Rogers	-11.1207
▁Neil	-11.121
▁subsequent	-11.1212
▁procedures	-11.1216
▁58	-11.1217
▁bubble	-11.1221
▁beaten	-11.1222
▁Mitchell	-11.1222
▁industries	-11.1226
▁examine	-11.1226
▁Kurdish	-11.1228
▁meanwhile	-11.1231
cht	-11.1233
▁$50	-11.1234
Oh	-11.1234
▁Cohen	-11.1236
▁gra	-11.1236
▁pose	-11.1236
▁Ave	-11.1236
▁Never	-11.1238
▁Border	-11.1239
ü	-11.1243
▁Arts	-11.1243
story	-11.1243
%)	-11.1244
▁yield	-11.1244
oma	-11.1245
▁checked	-11.1246
▁lanes	-11.1246
▁viewing	-11.1246
▁ecosystem	-11.1248
▁sustained	-11.1249
▁retailers	-11.1251
ó	-11.1252
500	-11.1253
▁lifetime	-11.1254
▁Pinterest	-11.1254
▁Try	-11.1254
▁deemed	-11.1256
▁Jets	-11.1257
▁indicates	-11.1259
▁Campaign	-11.1261
▁performances	-11.1264
▁studying	-11.1268
▁urging	-11.1268
▁adoption	-11.1269
▁Congressional	-11.1269
▁Mississippi	-11.127
▁reserve	-11.1272
▁suggestions	-11.1277
▁Son	-11.1278
▁rolled	-11.1279
▁Cloud	-11.1281
▁Would	-11.1282
▁reject	-11.1283
69	-11.1285
▁Vol	-11.1286
pound	-11.1287
▁memories	-11.1295
▁lady	-11.1297
▁medal	-11.1298
▁impressed	-11.1298
die	-11.13
▁Reading	-11.13
half	-11.1301
ill	-11.1302
▁conventional	-11.1303
▁Smart	-11.1303
rum	-11.1303
host	-11.1304
▁Sin	-11.1309
▁Andre	-11.1309
▁advised	-11.131
▁unlock	-11.1311
▁AL	-11.1311
▁tourists	-11.1312
▁Sk	-11.1315
Don	-11.1316
▁painting	-11.1319
▁Quebec	-11.1319
▁stunning	-11.132
▁NCAA	-11.132
▁desk	-11.1324
▁suck	-11.1325
▁recalled	-11.1329
▁resigned	-11.1333
▁attracted	-11.1336
▁attorneys	-11.1337
▁(6	-11.1338
▁Pack	-11.1338
▁athletic	-11.1339
▁dying	-11.1342
-11	-11.1344
▁bias	-11.1344
▁Susan	-11.1347
6,000	-11.1347
▁Pop	-11.1347
master	-11.1347
▁Pri	-11.1348
▁Bat	-11.1349
▁utility	-11.1349
▁convince	-11.135
▁Philip	-11.1351
▁availability	-11.1351
▁processor	-11.1353
▁survival	-11.1358
▁goods	-11.136
▁universal	-11.1362
▁theater	-11.1362
profit	-11.1367
▁fiction	-11.1369
▁72	-11.137
▁neighbor	-11.1371
KE	-11.1372
▁humanity	-11.1374
UN	-11.1378
Car	-11.1379
ame	-11.1379
▁Via	-11.138
▁YOU	-11.1381
▁decrease	-11.1381
▁tissue	-11.1383
Sha	-11.1389
▁Buffalo	-11.1389
▁twitter	-11.1391
▁bra	-11.1392
▁Mil	-11.1393
▁Bulls	-11.1397
▁democratic	-11.14
▁integrity	-11.14
▁refuse	-11.1402
▁1960	-11.1402
maker	-11.1404
▁Much	-11.1405
▁depend	-11.1406
pack	-11.1408
▁operated	-11.1408
kan	-11.1411
Com	-11.1413
▁Stanford	-11.1419
elle	-11.1421
▁Keith	-11.1425
▁highlighted	-11.1426
gov	-11.1429
▁responding	-11.143
▁households	-11.1431
OT	-11.1432
▁rebel	-11.1433
▁withdraw	-11.1433
vent	-11.1434
▁survived	-11.1438
▁BC	-11.1439
▁mate	-11.144
▁Whit	-11.1441
▁premier	-11.1442
▁recession	-11.1442
▁rooms	-11.1445
▁finishing	-11.1445
▁robots	-11.1447
▁banner	-11.1447
▁seventh	-11.1447
▁Kill	-11.1447
▁absolute	-11.145
▁trains	-11.1453
vor	-11.1454
▁iron	-11.1454
▁Danny	-11.1455
▁ultra	-11.1455
▁MSNBC	-11.1455
els	-11.1458
space	-11.1459
▁minds	-11.1462
▁scope	-11.1462
matic	-11.1464
▁sponsor	-11.1466
▁Finance	-11.1469
▁Ly	-11.147
▁Through	-11.147
▁Fri	-11.1472
▁transparency	-11.1473
▁Players	-11.1473
▁sessions	-11.1476
▁condemned	-11.1477
▁ge	-11.1478
00,000	-11.1479
▁delivering	-11.1479
▁helicopter	-11.1483
▁bat	-11.1485
active	-11.1485
▁(5	-11.1486
▁campaigns	-11.1487
▁Michelle	-11.149
▁falls	-11.1492
▁800	-11.1493
itch	-11.1495
▁donate	-11.1496
▁shortage	-11.1497
▁robbery	-11.1499
▁integration	-11.1499
than	-11.1499
▁Lincoln	-11.1502
▁Kerry	-11.1503
OC	-11.1503
▁tri	-11.1505
▁Storm	-11.1506
zu	-11.1507
▁Ltd	-11.1509
▁Awards	-11.151
boy	-11.1511
▁Kam	-11.1513
▁ordinary	-11.1516
▁EA	-11.1517
▁operators	-11.1518
▁bold	-11.1518
mas	-11.1518
▁provincial	-11.1518
lot	-11.1519
▁math	-11.1521
▁FOX	-11.1522
outs	-11.1523
ome	-11.1524
▁corn	-11.1524
▁hosts	-11.1524
bor	-11.1524
▁puzzle	-11.1525
▁Lynch	-11.1526
▁dish	-11.1528
▁Lane	-11.1529
▁crashed	-11.1532
AA	-11.1532
▁tasks	-11.1533
▁Climate	-11.1533
▁commonly	-11.1536
▁Brit	-11.1539
▁reminder	-11.1542
▁extraordinary	-11.1545
▁Musk	-11.1548
▁quest	-11.1548
hon	-11.1549
▁laptop	-11.1551
▁accepting	-11.1553
▁setup	-11.1554
MC	-11.1557
▁Hol	-11.1563
NY	-11.1564
▁tactics	-11.1565
▁admission	-11.1565
Let	-11.1566
▁shops	-11.1566
▁praise	-11.1567
▁anticipated	-11.1568
▁2018.	-11.1569
▁okay	-11.1569
▁Terry	-11.1573
79	-11.1575
▁Brazilian	-11.1575
▁sued	-11.1578
▁whenever	-11.1579
Vi	-11.1579
▁surely	-11.1582
▁Arkansas	-11.1583
▁Canadians	-11.1583
▁priest	-11.1583
▁Roger	-11.1586
stein	-11.1587
kh	-11.1588
▁parade	-11.1588
▁GDP	-11.1589
▁missiles	-11.159
▁signals	-11.1592
tom	-11.1593
▁tragedy	-11.1594
▁surge	-11.1596
о	-11.1599
ates	-11.1602
▁Gay	-11.1602
▁desert	-11.1604
▁stopping	-11.1605
equ	-11.1605
▁Help	-11.1609
▁Release	-11.161
they	-11.1611
▁transform	-11.1613
EST	-11.1615
source	-11.1617
▁gut	-11.1621
▁pad	-11.1623
▁Ph	-11.1624
▁Talk	-11.1625
▁je	-11.1626
▁challenged	-11.1628
▁missions	-11.1628
▁implications	-11.1628
▁brush	-11.1629
▁Around	-11.163
lea	-11.1635
▁intellectual	-11.1636
▁ob	-11.1638
poli	-11.1638
eller	-11.1642
rating	-11.1643
▁sh	-11.1643
white	-11.1644
▁riders	-11.1645
var	-11.1645
▁Planned	-11.1648
▁defeated	-11.1648
▁;	-11.1654
▁Harvey	-11.1657
▁Content	-11.1663
▁modified	-11.1664
▁GO	-11.1664
hole	-11.1665
bre	-11.1666
▁penalties	-11.1666
▁solo	-11.1668
▁transferred	-11.1668
▁10,	-11.1671
▁operator	-11.1671
▁formula	-11.1673
▁Stay	-11.1674
nie	-11.1682
sive	-11.1683
▁bone	-11.1683
▁Further	-11.1683
▁1995	-11.1684
struct	-11.1685
▁drag	-11.1687
▁enhance	-11.1687
▁sudden	-11.1688
91	-11.169
▁tuned	-11.1695
▁Charlotte	-11.1696
▁Scientists	-11.1698
▁importantly	-11.1699
▁Netanyahu	-11.1701
try	-11.1701
▁showcase	-11.1701
▁laser	-11.1703
▁Nature	-11.1703
▁Stra	-11.1704
▁mechanism	-11.1705
▁NC	-11.1709
▁demonstration	-11.1709
▁overcome	-11.171
▁buried	-11.171
ifying	-11.1711
72	-11.1711
▁prospects	-11.1713
▁drives	-11.1713
mission	-11.1716
▁categories	-11.1717
▁Parker	-11.1724
▁WikiLeaks	-11.1726
▁preliminary	-11.1726
▁traded	-11.1726
▁outrage	-11.1727
▁resume	-11.1735
▁rank	-11.1737
▁Classic	-11.1738
▁outbreak	-11.1742
rn	-11.1744
arch	-11.1745
▁frustration	-11.1745
▁Continued	-11.1746
▁Tre	-11.1746
▁62	-11.1749
▁Berkeley	-11.1749
▁Dakota	-11.1749
▁Parenthood	-11.175
▁loaded	-11.175
▁radar	-11.175
71	-11.1751
▁HTC	-11.1753
▁Memorial	-11.1754
▁phenomenon	-11.1754
▁11.	-11.1754
▁holes	-11.1755
3)	-11.1756
vit	-11.1756
ila	-11.1761
▁propaganda	-11.1761
▁questioning	-11.1762
▁wrap	-11.1764
what	-11.1765
▁cancel	-11.1769
▁bizarre	-11.1771
▁Officers	-11.1774
cket	-11.1775
▁halt	-11.1775
▁Forum	-11.1777
▁Anna	-11.1777
▁Deep	-11.1778
▁sits	-11.1778
▁concerning	-11.178
▁childhood	-11.1781
▁Mission	-11.1782
▁filming	-11.1784
▁fer	-11.1784
▁Cowboys	-11.1785
▁Vita	-11.1785
▁dramatically	-11.1786
▁1994	-11.1788
▁cooking	-11.179
▁medication	-11.1793
▁asset	-11.1795
▁fastest	-11.1795
▁euro	-11.1796
▁impose	-11.1797
▁resignation	-11.1797
▁sacrifice	-11.1801
▁suspicious	-11.1804
▁checking	-11.1804
▁picks	-11.181
▁apologize	-11.181
▁WA	-11.1813
▁streak	-11.1813
62	-11.1814
▁Maine	-11.1814
ERS	-11.1815
.99	-11.1818
▁integrated	-11.1819
▁scared	-11.1819
▁makers	-11.1824
PC	-11.1824
▁safely	-11.183
▁Being	-11.1833
force	-11.1834
dding	-11.1834
▁occasion	-11.1838
▁Marshall	-11.184
▁Consumer	-11.184
▁criminals	-11.184
▁Lady	-11.1841
▁Hal	-11.1841
▁boom	-11.1842
TC	-11.1843
Mobile	-11.1846
▁institution	-11.1846
▁Comic	-11.1848
▁describing	-11.1848
▁Bros	-11.185
▁Newcastle	-11.185
▁loyal	-11.1852
▁drunk	-11.1852
▁sneak	-11.1853
▁2.5	-11.1853
▁guaranteed	-11.1853
▁Broncos	-11.1855
92	-11.1856
▁gallery	-11.1858
▁lease	-11.1858
▁Fred	-11.1858
▁languages	-11.186
show	-11.1862
▁secondary	-11.1865
▁adapt	-11.1866
▁seeks	-11.1871
▁resign	-11.1878
▁gr	-11.1878
▁crude	-11.188
▁Sc	-11.1882
▁Palm	-11.1886
▁coup	-11.1887
▁terminal	-11.1889
▁Morris	-11.189
▁bump	-11.189
▁Hockey	-11.1891
▁85	-11.1896
▁panels	-11.1896
▁Fall	-11.1897
ination	-11.1897
▁inform	-11.1897
▁Magazine	-11.1898
▁Tell	-11.1899
▁Carson	-11.1899
▁(1)	-11.1902
▁Hat	-11.1903
▁Venezuela	-11.1906
imp	-11.1908
▁Queensland	-11.1911
▁alliance	-11.1912
▁curious	-11.1915
▁therapy	-11.1915
▁grateful	-11.1917
GE	-11.1919
▁newest	-11.1923
▁Gas	-11.1925
▁Overall	-11.1927
FF	-11.1928
▁earning	-11.1929
▁notable	-11.193
▁legislature	-11.1936
▁Luc	-11.1937
about	-11.1939
▁conducting	-11.1939
▁waters	-11.1941
▁Type	-11.1945
▁greatly	-11.1945
▁shore	-11.1945
ake	-11.1946
▁nu	-11.1946
iest	-11.1948
73	-11.195
▁Blood	-11.1951
▁collecting	-11.1952
qu	-11.1953
94	-11.1953
awa	-11.1954
▁secured	-11.1958
▁2007,	-11.1958
▁bicycle	-11.196
▁9/11	-11.1961
▁unexpected	-11.1965
▁crop	-11.1966
ao	-11.1966
▁Pakistani	-11.1967
▁speakers	-11.1971
site	-11.1974
powered	-11.1975
▁Rather	-11.1978
▁reviewed	-11.1979
▁ally	-11.1981
▁duties	-11.1984
▁perception	-11.1986
▁interact	-11.199
▁guidance	-11.1993
▁Trudeau	-11.1998
▁diseases	-11.2001
ddy	-11.2002
ben	-11.2006
▁Planet	-11.2006
▁Ebola	-11.201
▁mouse	-11.201
type	-11.201
meter	-11.2011
▁spaces	-11.2014
▁engaging	-11.2015
▁preseason	-11.2015
▁Jake	-11.2016
▁drinks	-11.2016
▁Mall	-11.2016
▁qualified	-11.2017
▁dressed	-11.2024
▁Belgium	-11.2024
▁mile	-11.2025
▁disorder	-11.2026
▁Firefox	-11.2029
▁teeth	-11.2029
▁shield	-11.2032
▁objective	-11.2033
eri	-11.2033
cia	-11.2035
▁Medicare	-11.2036
▁choosing	-11.2036
▁Ak	-11.2038
▁CBC	-11.2041
▁Lawrence	-11.2041
▁desperate	-11.2043
gon	-11.2044
▁engagement	-11.2045
▁Gil	-11.2046
▁embrace	-11.2046
▁Calif	-11.2047
▁Connecticut	-11.2048
▁exhibition	-11.205
▁handled	-11.2051
▁nonprofit	-11.2052
▁Fast	-11.2053
IG	-11.2055
▁grass	-11.2056
▁ranging	-11.2057
▁Mumbai	-11.2058
tail	-11.2059
▁refer	-11.2059
ked	-11.2065
▁mall	-11.2066
▁Taiwan	-11.2068
▁sin	-11.2068
▁Peace	-11.2068
▁oldest	-11.2069
lle	-11.2071
▁Bon	-11.2071
▁Crown	-11.2072
▁vacation	-11.2075
▁assigned	-11.2075
▁delegates	-11.2076
▁Cre	-11.2076
▁curb	-11.2077
▁invasion	-11.2077
▁attendance	-11.2079
LO	-11.2082
ush	-11.2083
▁chi	-11.2084
▁Wii	-11.2084
▁Know	-11.2086
▁infection	-11.2087
▁meantime	-11.2087
▁till	-11.2088
▁trademark	-11.2089
▁Switzerland	-11.2089
▁disc	-11.209
▁mat	-11.2091
▁Studio	-11.2091
▁Song	-11.2096
▁starter	-11.2096
▁lap	-11.2096
▁Members	-11.2097
▁drain	-11.21
Time	-11.2101
▁strengthen	-11.2102
income	-11.2104
▁Gray	-11.2104
▁generations	-11.2104
▁59	-11.2107
▁surrounded	-11.2107
▁Hey	-11.2108
▁underway	-11.211
▁functionality	-11.211
▁trash	-11.2116
▁brutal	-11.2117
▁measured	-11.212
▁IRS	-11.2121
▁representation	-11.2121
▁Barr	-11.2122
ND	-11.2124
nne	-11.2125
▁Common	-11.2132
▁gamers	-11.2136
▁preserve	-11.2137
aged	-11.2137
▁Sw	-11.214
▁Cole	-11.214
▁equipped	-11.2143
second	-11.2144
self	-11.2145
▁inner	-11.2146
()	-11.2146
▁printing	-11.2147
▁Records	-11.2151
▁firearm	-11.2152
▁Brussels	-11.2157
▁delicious	-11.216
▁Biden	-11.2165
▁lesson	-11.2167
▁creatures	-11.2168
OW	-11.2169
▁Rod	-11.2172
inter	-11.2174
▁bottles	-11.2175
▁differently	-11.2177
▁Photos	-11.2178
▁tunnel	-11.2179
▁abilities	-11.2179
▁opposing	-11.2182
▁Hope	-11.2182
▁explosive	-11.2184
▁Java	-11.2186
kins	-11.2187
▁Empire	-11.2189
▁burst	-11.2193
▁25-	-11.2194
ald	-11.2195
▁bitter	-11.2195
▁Saints	-11.2196
▁Vermont	-11.2199
phy	-11.22
▁parks	-11.2206
▁Gor	-11.2208
▁elect	-11.2208
▁realistic	-11.2209
▁spy	-11.2209
ava	-11.221
▁voices	-11.2211
▁professionals	-11.2211
▁Oliver	-11.2211
▁enforce	-11.2216
▁funeral	-11.2216
▁Episode	-11.2218
roll	-11.2219
▁displays	-11.2219
▁mood	-11.2219
▁Mur	-11.2219
▁Raiders	-11.2222
▁arena	-11.2222
▁None	-11.2222
▁trucks	-11.2223
▁tragic	-11.2223
▁muscle	-11.2224
hit	-11.2227
▁Prize	-11.2227
.[1]	-11.223
left	-11.2234
▁grabbed	-11.2236
▁enjoying	-11.2238
▁drought	-11.2238
2,000	-11.2239
▁Others	-11.2243
▁spray	-11.2244
▁Gro	-11.2244
▁unfortunately	-11.2254
▁routes	-11.2255
▁deputies	-11.2258
▁hybrid	-11.2258
▁replacing	-11.2258
▁Small	-11.226
▁Beer	-11.2261
▁Len	-11.2262
▁Medicaid	-11.2263
▁password	-11.2268
▁preventing	-11.2269
▁refusing	-11.227
93	-11.2273
▁Kit	-11.2273
ily	-11.2274
▁administrative	-11.2275
▁jersey	-11.2275
iel	-11.2275
▁keys	-11.2276
▁Pictures	-11.2277
▁Warriors	-11.2278
▁witnessed	-11.2279
▁projected	-11.2279
▁mandatory	-11.228
▁Tigers	-11.2282
▁aired	-11.2286
mbo	-11.2287
▁Record	-11.2289
▁Movie	-11.229
▁automatic	-11.2291
ender	-11.2293
▁brick	-11.2294
200	-11.2295
oni	-11.2296
")	-11.2297
tting	-11.2298
▁Glass	-11.2301
ssa	-11.2303
▁67	-11.2303
▁lesbian	-11.2304
track	-11.2307
▁Corbyn	-11.2307
▁unfair	-11.2309
▁gesture	-11.2309
▁lighting	-11.2309
▁Nine	-11.2311
▁hill	-11.2311
wise	-11.2315
▁competitors	-11.2317
used	-11.2319
▁Bird	-11.2321
▁ka	-11.2322
gal	-11.2324
▁Insider	-11.2325
▁50%	-11.2326
▁Ce	-11.2326
▁Cincinnati	-11.2327
▁pregnancy	-11.2327
▁knocked	-11.2331
▁counties	-11.2332
▁concentration	-11.2337
▁66	-11.2339
▁Wonder	-11.2344
ona	-11.2346
▁electoral	-11.2347
′′	-11.2349
▁Tweet	-11.2349
▁celebrated	-11.235
▁fundraising	-11.2352
▁revealing	-11.2353
▁occasions	-11.2354
▁devastating	-11.2354
▁curve	-11.2358
▁collision	-11.2359
ologist	-11.236
▁garage	-11.236
-15	-11.236
63	-11.2363
▁Blues	-11.2366
▁depends	-11.2368
▁Defence	-11.2369
lib	-11.2372
▁Assistant	-11.2376
Fa	-11.2378
mu	-11.2379
▁Jennifer	-11.2386
▁classroom	-11.2388
▁Def	-11.2389
ular	-11.239
▁engines	-11.239
▁Lou	-11.239
▁annually	-11.2391
▁burned	-11.2392
▁broadband	-11.2394
▁verdict	-11.2404
74	-11.2404
▁overwhelming	-11.2405
?)	-11.2406
ache	-11.2408
las	-11.2408
▁16-	-11.2409
▁insult	-11.2411
RP	-11.2412
▁insight	-11.2414
▁Students	-11.2416
▁Girl	-11.2417
▁trends	-11.2418
▁scrutiny	-11.2419
▁deployment	-11.2421
▁cricket	-11.2421
▁Soccer	-11.2424
▁File	-11.2426
HO	-11.2426
▁Milan	-11.2429
▁Stock	-11.2429
▁//	-11.2429
▁anxiety	-11.2431
ici	-11.2432
▁pile	-11.2432
eck	-11.2433
▁formally	-11.2433
vol	-11.2433
▁ensuring	-11.2434
▁subscribers	-11.2436
▁contender	-11.2437
▁Everything	-11.2439
▁closest	-11.244
▁Norway	-11.244
▁extract	-11.2441
▁infected	-11.2442
▁Sources	-11.2443
▁malware	-11.2444
▁stack	-11.2445
7,000	-11.2445
▁exploring	-11.2446
▁Roll	-11.2448
▁JavaScript	-11.2449
▁($	-11.2451
®	-11.2455
▁mad	-11.2456
▁Bla	-11.2457
▁Op	-11.2461
▁intend	-11.2463
▁audit	-11.2464
▁difficulty	-11.2467
▁guards	-11.2469
dict	-11.2469
▁briefly	-11.247
augh	-11.247
home	-11.2472
▁subsequently	-11.2472
▁rice	-11.2479
▁pound	-11.2479
ering	-11.248
rid	-11.248
▁arts	-11.248
▁taxpayer	-11.2481
▁bundle	-11.2481
▁motivation	-11.2481
▁Kra	-11.2482
▁argues	-11.2483
▁spacecraft	-11.2486
▁animated	-11.2492
▁helmet	-11.2493
▁migration	-11.2493
▁motivated	-11.2495
had	-11.2495
▁coat	-11.2498
erate	-11.25
▁Prior	-11.2509
▁Garcia	-11.251
▁juice	-11.251
▁Benjamin	-11.2512
▁Bond	-11.2513
MI	-11.2514
▁commented	-11.2514
▁commentary	-11.2518
ENT	-11.2518
▁celebrating	-11.2522
▁12.	-11.2523
▁3:	-11.2527
En	-11.2528
▁Toyota	-11.2529
▁Tyler	-11.2538
▁Mul	-11.2539
stop	-11.254
▁Liberty	-11.2542
uf	-11.2543
elli	-11.2544
▁teens	-11.2544
▁euros	-11.2547
Even	-11.2547
▁diagnosed	-11.2548
▁boyfriend	-11.2552
▁TODAY	-11.2552
▁legendary	-11.2554
▁steady	-11.2555
aya	-11.2556
graph	-11.2556
82	-11.2557
▁Cut	-11.2559
▁Mueller	-11.2563
acy	-11.2563
▁VA	-11.2566
▁Bas	-11.2567
▁tweak	-11.2572
ential	-11.2575
▁endorsement	-11.2575
4,000	-11.2576
nor	-11.2576
▁Roberts	-11.2578
▁sorts	-11.258
▁anchor	-11.2581
▁crossed	-11.2582
▁Jamie	-11.2587
▁Kirk	-11.2592
▁beloved	-11.2593
▁Snow	-11.2596
▁intersection	-11.2596
rri	-11.2597
iva	-11.2598
▁dubbed	-11.2598
▁tube	-11.2603
▁fitness	-11.2603
▁embassy	-11.2605
▁clinical	-11.2607
▁Sur	-11.2608
eth	-11.261
▁Chronicle	-11.2613
▁bite	-11.2615
▁tobacco	-11.2616
▁opens	-11.2616
▁Hindu	-11.2616
▁temporarily	-11.2618
▁tribute	-11.2625
▁rifle	-11.263
▁knock	-11.263
▁playback	-11.2632
▁painted	-11.2633
tern	-11.2634
▁visa	-11.2639
ider	-11.2641
▁safer	-11.2641
▁tensions	-11.2641
▁duo	-11.2644
▁qualify	-11.2646
▁pink	-11.2647
▁Representatives	-11.2649
▁dreams	-11.265
▁Homeland	-11.265
▁licensed	-11.2651
▁Picture	-11.2655
▁disturbing	-11.2657
city	-11.2659
dies	-11.266
mis	-11.266
▁marine	-11.2661
▁Jong	-11.2662
▁purchases	-11.2664
ges	-11.2665
▁LED	-11.2666
▁Mis	-11.2666
▁rap	-11.2667
▁bugs	-11.2668
▁managers	-11.2675
▁reception	-11.2677
▁porn	-11.2677
▁barrel	-11.2678
▁Indonesia	-11.2678
▁subjects	-11.2678
▁triple	-11.268
▁Regional	-11.2681
▁disappointing	-11.2681
▁Glenn	-11.2682
▁broadcaster	-11.2686
▁Bio	-11.2687
▁Electric	-11.2693
▁Ger	-11.2693
▁Tam	-11.2693
▁Brady	-11.2695
▁hiding	-11.2696
▁Command	-11.2698
▁Against	-11.2699
▁ramp	-11.27
▁declaration	-11.2703
▁spec	-11.2706
▁BR	-11.2706
▁provisions	-11.2707
lis	-11.2708
▁mice	-11.2709
Yes	-11.271
avi	-11.2713
▁passport	-11.2713
▁handgun	-11.2715
▁FIFA	-11.2718
▁trafficking	-11.2721
generation	-11.2722
▁Shah	-11.2725
▁61	-11.2729
▁loop	-11.273
▁filling	-11.273
▁Forces	-11.2731
▁eager	-11.2732
▁yard	-11.2732
ature	-11.2732
▁1992	-11.2733
▁assaulted	-11.2733
▁Turner	-11.2736
▁Bee	-11.2737
▁prayer	-11.2738
▁Saint	-11.2738
AFP	-11.2741
bri	-11.2741
market	-11.2742
stand	-11.2745
83	-11.2746
bus	-11.275
▁vowed	-11.2753
▁Universal	-11.2754
oli	-11.2755
▁63	-11.2756
vision	-11.2756
spec	-11.2757
▁WATCH	-11.2757
▁Beat	-11.2759
▁Nothing	-11.276
leg	-11.2762
▁Inside	-11.2763
▁appeals	-11.2764
▁electrical	-11.2769
50,000	-11.277
▁longest	-11.2771
▁Hit	-11.2772
ency	-11.2775
▁sufficient	-11.2777
▁Loading	-11.278
lies	-11.2781
▁controller	-11.2783
▁Nokia	-11.2785
▁Race	-11.2786
▁rental	-11.2788
▁slated	-11.2789
▁coins	-11.2791
▁transmission	-11.2791
▁addressing	-11.2791
oe	-11.2794
▁Bangladesh	-11.2796
▁Exchange	-11.2796
▁Natural	-11.2798
▁WE	-11.2798
▁Farm	-11.28
▁Duterte	-11.2801
▁Woman	-11.2801
”)	-11.2803
▁ambitious	-11.2803
▁LG	-11.2804
▁defect	-11.2806
▁districts	-11.2807
▁examined	-11.2815
▁clash	-11.2816
human	-11.2817
▁humanitarian	-11.282
▁Wind	-11.2821
▁relatives	-11.2827
▁Third	-11.2835
▁deserves	-11.2836
walk	-11.2838
▁Robin	-11.2838
▁Eight	-11.284
▁GPU	-11.284
▁lifted	-11.2841
▁Urban	-11.2843
▁artwork	-11.2844
▁painful	-11.2845
▁Qatar	-11.2845
▁Clo	-11.2848
▁compound	-11.2849
▁pitcher	-11.285
▁Argentina	-11.285
▁seal	-11.2851
▁spike	-11.2851
▁3,000	-11.2853
▁Bradley	-11.2855
▁cartoon	-11.2857
▁heritage	-11.2858
mber	-11.2859
▁maintaining	-11.2861
▁minimal	-11.2862
uma	-11.2862
▁cryptocurrency	-11.2869
▁Number	-11.2869
▁acted	-11.2872
▁upload	-11.2879
▁Milwaukee	-11.2882
▁Comcast	-11.2882
good	-11.2882
▁CR	-11.2883
▁Apparently	-11.2883
▁Jane	-11.2885
▁68	-11.2885
wind	-11.2885
▁steam	-11.2888
▁cur	-11.289
▁Audi	-11.2891
▁parliamentary	-11.2892
▁licence	-11.2892
▁wildlife	-11.2893
▁alter	-11.2893
▁Tru	-11.29
▁Child	-11.2901
▁buses	-11.2901
too	-11.2905
▁conservation	-11.2905
▁mixture	-11.2906
ros	-11.2907
▁Electronic	-11.2908
▁executed	-11.2909
backed	-11.291
▁nervous	-11.2913
▁naked	-11.2914
▁batteries	-11.2922
▁consultant	-11.2922
▁wrapped	-11.2923
sur	-11.2924
eur	-11.2926
agon	-11.2927
▁Direct	-11.2927
bla	-11.2929
▁Qui	-11.2929
government	-11.2933
▁suggestion	-11.2934
▁habit	-11.2934
▁innings	-11.2937
▁designated	-11.2939
▁pole	-11.294
▁heroes	-11.2943
▁ceiling	-11.2945
▁undermine	-11.2947
▁advocacy	-11.295
▁Matter	-11.295
▁?	-11.2952
▁Author	-11.2952
0)	-11.2962
tive	-11.2963
▁Track	-11.2967
▁expense	-11.2969
▁confused	-11.297
▁Search	-11.2973
shirt	-11.2974
▁citizenship	-11.2983
▁occupation	-11.2984
▁cancelled	-11.2985
▁HP	-11.2988
▁loves	-11.2988
▁figured	-11.299
▁elderly	-11.2995
▁acceptable	-11.2996
▁trace	-11.2997
▁Happy	-11.2999
▁Malaysia	-11.3004
▁HE	-11.3006
▁buck	-11.3009
▁Mini	-11.3009
!!!	-11.3014
▁spiritual	-11.3014
▁Say	-11.3015
▁Reagan	-11.3016
▁Bus	-11.3018
kel	-11.3019
▁sometime	-11.3025
▁mere	-11.3026
▁Fisher	-11.3027
Of	-11.3027
▁movements	-11.3029
▁bro	-11.3032
ators	-11.3033
▁(“	-11.3035
▁Kris	-11.3036
▁abandon	-11.3036
▁crown	-11.3039
▁emerge	-11.304
▁cor	-11.304
▁5,000	-11.3041
▁comics	-11.3041
https	-11.3042
▁emphasis	-11.3042
▁Oil	-11.3043
▁portfolio	-11.3045
▁Ry	-11.3045
2%	-11.3046
▁Product	-11.3047
▁fare	-11.3047
dr	-11.3047
quality	-11.305
▁Late	-11.305
▁confusion	-11.3051
ico	-11.3053
ova	-11.3054
▁triggered	-11.3056
bon	-11.3062
bie	-11.3063
ude	-11.3064
olo	-11.3064
met	-11.3064
▁declare	-11.3066
▁Chan	-11.3067
using	-11.3067
▁Father	-11.307
▁1993	-11.3074
▁cave	-11.3074
9%	-11.3076
▁Base	-11.3077
▁motorcycle	-11.3077
▁clicking	-11.3077
▁retire	-11.308
▁exchanges	-11.3081
▁dismiss	-11.3083
▁awful	-11.3083
▁OR	-11.3083
▁greenhouse	-11.3085
▁differ	-11.3086
▁labour	-11.3086
▁sleeping	-11.3087
▁Halloween	-11.3088
▁leap	-11.3089
▁Due	-11.3089
▁tin	-11.3089
pass	-11.3092
▁verify	-11.3092
▁Puerto	-11.3093
▁dec	-11.3094
▁restricted	-11.3098
▁mi	-11.3101
▁Arctic	-11.3102
DI	-11.3102
▁gifts	-11.3103
▁stops	-11.3104
▁surprisingly	-11.3105
▁meaningful	-11.3107
▁Nexus	-11.3112
▁robust	-11.3115
▁tu	-11.3115
▁Bin	-11.3115
▁seeds	-11.3116
fri	-11.3117
▁promoted	-11.3119
▁damages	-11.3119
http	-11.3119
▁invested	-11.312
▁ir	-11.3122
TER	-11.3124
▁arriving	-11.3125
▁Sri	-11.3126
▁planes	-11.313
▁cocaine	-11.3131
▁Temple	-11.3132
▁breakfast	-11.3134
▁biological	-11.3134
▁Ay	-11.3136
▁DA	-11.3137
▁Lisa	-11.3137
▁Sandy	-11.3138
▁visits	-11.3141
igh	-11.3142
▁disclosed	-11.3144
▁responses	-11.3145
▁Griffin	-11.3147
▁Cuba	-11.3147
▁Spider	-11.3148
start	-11.3149
▁Barry	-11.3153
▁Madison	-11.3158
rr	-11.3159
▁Stop	-11.316
▁Low	-11.3164
▁revenues	-11.3166
8,000	-11.3167
▁vessel	-11.3169
▁Tap	-11.3171
▁Honda	-11.3173
Wa	-11.3173
▁adaptation	-11.3176
▁occupied	-11.3177
ground	-11.3179
dent	-11.318
oke	-11.318
▁assess	-11.318
▁Very	-11.3181
▁touched	-11.3183
anti	-11.3184
▁attraction	-11.3186
suit	-11.3187
▁homicide	-11.3187
▁Bear	-11.3189
▁$12	-11.3191
▁deleted	-11.3193
▁excessive	-11.3196
▁tablets	-11.3196
erson	-11.3196
▁scam	-11.3197
▁passionate	-11.3199
81	-11.3199
eon	-11.32
▁agreements	-11.3203
▁completion	-11.3204
▁fo	-11.3204
▁Word	-11.3209
▁prevented	-11.321
▁teenage	-11.321
▁attacker	-11.321
▁drafted	-11.3211
tical	-11.3214
▁trials	-11.3215
▁investing	-11.3217
▁assumed	-11.3221
▁distinct	-11.3223
▁texture	-11.3227
looking	-11.3228
▁workplace	-11.3234
yne	-11.3234
▁Motor	-11.3235
▁slip	-11.3235
▁li	-11.3238
▁belonging	-11.3239
▁chemicals	-11.324
▁veto	-11.324
▁Eye	-11.3241
date	-11.3241
▁immune	-11.3241
▁dev	-11.3243
▁blogger	-11.3243
cr	-11.3243
▁gene	-11.3244
▁frozen	-11.3247
▁filmed	-11.3248
▁touchdown	-11.3251
▁roots	-11.3252
▁lessons	-11.3253
▁regulators	-11.3254
▁invitation	-11.3255
▁battles	-11.326
▁Learn	-11.3261
▁riot	-11.3261
▁Short	-11.3263
▁jurisdiction	-11.3263
▁Sox	-11.3265
▁Mitch	-11.3266
▁Along	-11.327
▁supplement	-11.3271
▁Reg	-11.3273
▁generous	-11.3274
▁Revolution	-11.3276
Ja	-11.3277
coin	-11.3279
▁configuration	-11.3279
▁bureau	-11.328
▁boycott	-11.328
5)	-11.328
ase	-11.3281
▁accompanied	-11.3285
▁17-	-11.3287
▁Bennett	-11.3291
▁casting	-11.3291
▁neuro	-11.3292
▁Lang	-11.3295
▁superior	-11.3296
ctu	-11.3297
▁correspondent	-11.3299
▁Caption	-11.33
▁Spurs	-11.3302
▁notified	-11.3305
▁Fish	-11.3305
▁billions	-11.3306
ckle	-11.3307
zing	-11.3307
cio	-11.3309
▁accusing	-11.331
Cha	-11.331
▁flew	-11.331
▁forth	-11.3312
late	-11.3312
▁interactive	-11.3312
bol	-11.3313
▁aide	-11.3315
▁NA	-11.3317
▁celebrity	-11.3318
▁transparent	-11.3318
▁Ter	-11.3322
▁dominated	-11.3324
▁chaos	-11.3327
▁isolated	-11.3327
▁Walmart	-11.3329
▁predecessor	-11.3329
▁sponsored	-11.3331
nia	-11.3331
▁cluster	-11.3337
▁partly	-11.3338
▁99	-11.3339
▁Deal	-11.334
cro	-11.334
ees	-11.3341
▁HERE	-11.3343
▁Zu	-11.3343
▁Zoo	-11.3345
▁dose	-11.3345
▁cha	-11.3346
▁thrilled	-11.3348
▁Herald	-11.3349
tta	-11.3349
▁bedroom	-11.335
▁champions	-11.335
▁trips	-11.3351
▁corrupt	-11.3352
▁Medicine	-11.3353
▁relation	-11.3358
▁critic	-11.3363
hop	-11.3363
▁headset	-11.3364
▁treasure	-11.3364
tas	-11.3368
▁murdered	-11.3369
▁cry	-11.3369
▁Jen	-11.3371
▁foul	-11.3371
▁orientation	-11.3373
▁travelling	-11.3373
▁modest	-11.3373
▁Cer	-11.3375
▁dive	-11.3379
▁Hispanic	-11.3379
▁Ob	-11.3379
east	-11.3379
▁heroin	-11.338
▁operates	-11.3381
ua	-11.3381
▁consensus	-11.3384
▁translate	-11.3384
▁Med	-11.3385
▁Lt	-11.3387
▁Richmond	-11.3389
duce	-11.339
plus	-11.339
▁Too	-11.3391
ique	-11.3392
▁unacceptable	-11.3394
▁enabled	-11.3394
▁lung	-11.3395
▁employer	-11.3396
▁Nearly	-11.3397
▁uncertainty	-11.3398
▁buzz	-11.3401
▁Kha	-11.3402
€	-11.3403
▁experiencing	-11.3403
til	-11.3403
HL	-11.3404
▁gym	-11.3408
▁Challenge	-11.3409
▁Edwards	-11.3409
two	-11.3415
▁ver	-11.3419
▁pleasure	-11.342
▁brew	-11.3424
▁Ok	-11.3424
▁Edmonton	-11.3428
▁shower	-11.3429
▁frustrated	-11.3429
▁Vikings	-11.3432
▁outlet	-11.3433
ites	-11.3433
▁76	-11.3433
▁protections	-11.3437
▁Lab	-11.3437
nel	-11.3439
▁parallel	-11.3441
▁neutral	-11.3444
▁wore	-11.3449
▁Walter	-11.345
clu	-11.3455
▁Room	-11.3457
ela	-11.3458
sure	-11.3459
▁Palace	-11.3459
▁Hitler	-11.3459
▁jam	-11.3459
▁trap	-11.346
▁BO	-11.3461
NO	-11.3464
▁midnight	-11.3465
Ta	-11.3467
▁Hor	-11.3476
ae	-11.3477
▁bombs	-11.3479
▁doubled	-11.3479
▁marry	-11.348
▁Topics	-11.3486
▁Oak	-11.3486
▁flip	-11.3486
▁fabric	-11.3487
HS	-11.3491
berry	-11.3492
phone	-11.3494
▁mutual	-11.3495
4)	-11.3496
▁landmark	-11.3496
▁Birmingham	-11.35
▁Need	-11.35
▁module	-11.3501
▁ga	-11.3502
▁hop	-11.3505
▁disappear	-11.3505
▁Quick	-11.3506
ito	-11.3507
▁Reed	-11.3508
▁drum	-11.3508
▁Century	-11.3511
▁screw	-11.3512
----------------	-11.3512
▁ju	-11.3513
dio	-11.3514
▁Ol	-11.3517
▁Rams	-11.3517
▁permits	-11.3518
▁experiments	-11.3518
▁BP	-11.3522
▁Original	-11.3522
▁gu	-11.3524
▁metres	-11.3525
pha	-11.3525
▁Dennis	-11.3525
▁Bru	-11.3528
▁Thus	-11.3528
Mr	-11.3529
▁unfortunate	-11.353
▁optimistic	-11.353
â	-11.3531
▁slight	-11.3532
▁tourism	-11.3533
▁Switch	-11.3533
▁Blog	-11.3534
▁Country	-11.3534
▁RAM	-11.3534
▁Telegraph	-11.3536
▁disclose	-11.3537
▁sporting	-11.3539
VR	-11.354
▁Fame	-11.3547
have	-11.3547
▁Section	-11.3548
▁True	-11.3549
how	-11.3549
▁Karl	-11.355
▁operational	-11.355
Reilly	-11.355
▁dump	-11.3552
▁exploration	-11.3553
▁substitute	-11.3553
▁wise	-11.3554
Sp	-11.3559
▁Military	-11.3561
▁condo	-11.3562
▁Racing	-11.3563
▁tears	-11.3564
▁correctly	-11.3565
NT	-11.3565
▁13.	-11.3571
▁ko	-11.3573
▁Village	-11.3574
sic	-11.3576
▁1000	-11.3577
▁CPU	-11.3577
char	-11.358
▁fights	-11.3581
▁horrible	-11.3584
▁psychological	-11.3587
hem	-11.3587
▁Budget	-11.3589
▁Prof	-11.359
▁EV	-11.3591
▁refund	-11.3591
▁camps	-11.3591
love	-11.3593
▁peer	-11.3594
▁GB	-11.3595
▁NPR	-11.3597
▁posed	-11.3602
▁locker	-11.3604
▁·	-11.3606
nick	-11.3606
def	-11.3607
▁reply	-11.3607
watt	-11.3609
▁Cast	-11.3609
▁Carlos	-11.361
ope	-11.361
▁Mat	-11.3614
▁NE	-11.3619
▁participated	-11.362
▁shade	-11.3621
▁Website	-11.3624
Mi	-11.3624
illo	-11.3625
stra	-11.3625
▁contributing	-11.3626
gie	-11.3626
▁constitute	-11.3629
▁spreading	-11.3629
▁dirty	-11.363
▁des	-11.363
▁bow	-11.3632
uz	-11.3632
lent	-11.3632
Today	-11.3633
▁jacket	-11.3633
▁functional	-11.3634
▁Tottenham	-11.3634
▁touchdowns	-11.3634
▁Juan	-11.3635
▁Micro	-11.3636
▁Amy	-11.3637
▁Jacob	-11.3638
▁raises	-11.3639
▁Mind	-11.364
▁Target	-11.3643
TT	-11.3644
▁monster	-11.3645
▁compliance	-11.3646
▁endorsed	-11.3647
wn	-11.3648
▁Lucas	-11.365
▁95	-11.365
▁te	-11.3653
▁Tel	-11.3654
▁Bryant	-11.3657
▁10%	-11.366
▁militant	-11.3664
▁instant	-11.3665
▁pump	-11.3667
▁crews	-11.3669
е	-11.3671
▁Guide	-11.3672
▁Mercedes	-11.3674
▁computing	-11.3677
▁cleaning	-11.3677
▁tro	-11.3678
▁AC	-11.3678
▁Eve	-11.3679
iga	-11.3679
▁Oculus	-11.368
▁Rat	-11.368
▁MLB	-11.368
▁Costa	-11.3681
cri	-11.3681
path	-11.3682
▁hyper	-11.3683
▁Money	-11.3683
LC	-11.3684
▁apple	-11.3688
▁cycling	-11.3689
▁shed	-11.3689
ă	-11.3691
▁fierce	-11.3691
▁ruin	-11.3693
▁Fight	-11.3693
html	-11.3694
▁und	-11.3694
▁divide	-11.3694
▁timeline	-11.3695
▁Franklin	-11.3696
▁AD	-11.3696
▁pants	-11.3699
▁Dev	-11.3699
weight	-11.3699
ific	-11.3699
▁lens	-11.37
▁Ven	-11.3701
▁interim	-11.3705
▁Dor	-11.3706
▁neighborhoods	-11.3706
▁folder	-11.3707
▁fur	-11.3707
▁recruiting	-11.3708
▁Harrison	-11.3708
▁faculty	-11.3708
▁Weekly	-11.3709
▁fiber	-11.3709
▁Monster	-11.371
▁rankings	-11.371
▁judicial	-11.3711
▁interaction	-11.3711
▁Investigators	-11.3713
▁oxygen	-11.3714
▁Denmark	-11.3714
▁Cold	-11.3716
▁$500	-11.3722
▁Put	-11.3722
▁temple	-11.3723
▁Kin	-11.3723
▁grain	-11.3723
▁chase	-11.3723
▁comp	-11.3724
being	-11.3725
▁Formula	-11.3725
pon	-11.3729
▁logic	-11.3731
▁harvest	-11.3731
▁Soon	-11.3732
ien	-11.3734
▁nano	-11.3736
▁Martinez	-11.3738
▁Simpson	-11.3739
EM	-11.374
nis	-11.374
▁lobby	-11.374
▁(10	-11.374
main	-11.3743
▁prescription	-11.3745
▁700	-11.3747
▁tattoo	-11.3748
▁strategies	-11.3751
▁placing	-11.3751
▁delays	-11.3754
▁worship	-11.3756
▁clinic	-11.3759
▁cheer	-11.376
▁sensor	-11.376
▁LLC	-11.3761
▁Boehner	-11.3762
и	-11.3765
▁Tur	-11.3766
▁shutdown	-11.3766
▁Zi	-11.3767
▁Die	-11.3767
handed	-11.3768
▁slice	-11.3769
▁Kate	-11.3774
▁Official	-11.3775
▁Cox	-11.3776
▁radiation	-11.3776
▁merit	-11.3777
organ	-11.378
national	-11.3781
▁drill	-11.3782
▁Bishop	-11.3782
ulate	-11.3783
▁colleague	-11.3784
▁affects	-11.3784
▁signatures	-11.3787
▁excitement	-11.3788
▁assured	-11.379
▁Select	-11.3791
rah	-11.3791
▁inspection	-11.3792
▁discipline	-11.3792
▁philosophy	-11.3794
▁Something	-11.3795
controlled	-11.3795
▁perceived	-11.3797
▁AFL	-11.3799
its	-11.3799
3,000	-11.38
ied	-11.38
▁NDP	-11.3801
▁Universe	-11.3805
tell	-11.3806
▁BMW	-11.3806
▁spark	-11.3808
▁overhaul	-11.3808
▁honey	-11.3811
▁Mah	-11.3812
▁tra	-11.3813
▁bands	-11.3813
▁snake	-11.3814
▁treating	-11.3814
▁Tory	-11.3815
▁Face	-11.3816
▁Seahawks	-11.3817
▁nowhere	-11.3817
▁misconduct	-11.3817
rup	-11.3817
▁belong	-11.3818
▁dominant	-11.3819
▁Block	-11.382
dle	-11.3821
▁reflects	-11.3822
▁populations	-11.3823
▁Evan	-11.3823
school	-11.3825
UL	-11.3826
▁justify	-11.3826
▁starring	-11.383
▁stocks	-11.3831
▁eighth	-11.3834
▁Colin	-11.3836
▁towns	-11.384
▁Eli	-11.3841
▁Anne	-11.3842
▁Oxford	-11.3843
▁purchasing	-11.3843
▁Creek	-11.3843
▁spare	-11.3844
▁sing	-11.3845
bro	-11.3845
fly	-11.3845
▁Angela	-11.3847
quir	-11.3848
▁swimming	-11.3849
▁organizers	-11.3849
▁bomber	-11.3853
udge	-11.3853
▁oversight	-11.3855
ille	-11.3856
▁detected	-11.3857
▁pray	-11.3861
▁capability	-11.3864
gay	-11.3864
emi	-11.3864
▁fines	-11.3865
▁Corps	-11.3866
▁Assange	-11.3866
▁PAC	-11.3867
▁20%	-11.3867
▁Rico	-11.3868
▁NYC	-11.3869
▁renewed	-11.3869
From	-11.3869
though	-11.387
lash	-11.387
▁polar	-11.3871
/10	-11.3871
▁Bryan	-11.3871
▁violating	-11.3871
▁damaging	-11.3871
▁harmful	-11.3872
▁deposit	-11.3872
woman	-11.3873
still	-11.3873
▁panic	-11.3873
▁Conservatives	-11.3874
▁zoo	-11.3874
▁sections	-11.3874
ello	-11.3874
▁Twin	-11.3876
▁inequality	-11.3877
▁acquire	-11.3878
▁fold	-11.3879
▁journalism	-11.388
▁raped	-11.3882
▁ammunition	-11.3883
aging	-11.3883
▁batch	-11.3883
▁assumption	-11.3886
▁introducing	-11.3886
▁excess	-11.3887
:15	-11.3889
▁balls	-11.3891
▁ke	-11.3892
▁Fantasy	-11.3897
▁filmmaker	-11.3901
▁Airlines	-11.3901
▁lip	-11.3902
▁forgotten	-11.3902
▁Detective	-11.3903
held	-11.3904
▁$25	-11.3904
▁Rachel	-11.3906
▁accidentally	-11.3913
▁3.5	-11.3913
▁genuine	-11.3917
▁Chamber	-11.3918
▁floating	-11.3918
**	-11.3918
▁stroke	-11.3919
▁dr	-11.3922
▁oven	-11.3922
▁Spi	-11.3924
▁scary	-11.3925
iling	-11.3927
▁Thailand	-11.3927
▁leaks	-11.3928
▁Mai	-11.3929
▁remind	-11.3932
ili	-11.3932
▁continent	-11.3934
VA	-11.3934
▁memorial	-11.3935
Ad	-11.3939
▁Sgt	-11.3939
▁Jefferson	-11.3941
▁Listen	-11.3944
▁Bannon	-11.3944
▁rewards	-11.3944
▁dealt	-11.3945
▁foster	-11.3951
Can	-11.3955
▁GP	-11.3956
lines	-11.3957
▁costume	-11.3958
▁Fat	-11.3958
▁lengthy	-11.396
▁facilitate	-11.3961
▁adjust	-11.3963
fect	-11.3963
guard	-11.3964
▁1950	-11.3966
▁Sacramento	-11.3967
▁translation	-11.3967
▁resolved	-11.3968
▁theories	-11.3969
▁proceedings	-11.3969
▁RO	-11.397
▁Commerce	-11.3971
▁insider	-11.3972
▁Packers	-11.3972
▁USD	-11.3972
▁Shadow	-11.3976
▁stats	-11.3978
▁cute	-11.3978
▁Spencer	-11.3979
▁zombie	-11.3985
▁1991	-11.3987
▁Hold	-11.3987
▁bears	-11.3987
lli	-11.3988
▁WhatsApp	-11.3991
▁infamous	-11.3991
▁nurse	-11.3992
▁creators	-11.3993
inger	-11.3994
▁decor	-11.3994
ssel	-11.3995
▁Owen	-11.3995
ij	-11.3996
▁satisfied	-11.3996
▁Hopefully	-11.3998
direct	-11.3999
case	-11.4008
▁exports	-11.401
NI	-11.4014
position	-11.4015
▁carriers	-11.4016
▁disappeared	-11.4017
bil	-11.4018
BS	-11.4019
▁consultation	-11.4022
▁Ana	-11.4022
▁Lock	-11.4023
▁contend	-11.4023
▁tenure	-11.4024
▁Dem	-11.4026
▁Enter	-11.4027
▁pie	-11.4029
▁beneath	-11.4035
▁Met	-11.4036
▁4-	-11.4039
▁comedian	-11.4041
▁singing	-11.4042
file	-11.4042
▁golden	-11.4044
▁Beyond	-11.4048
▁Almost	-11.4049
▁complain	-11.4049
▁criteria	-11.4049
▁Voice	-11.405
▁instances	-11.4051
▁Attack	-11.4052
▁grants	-11.4052
▁solely	-11.4053
▁frequency	-11.4054
hra	-11.4056
Bu	-11.4058
▁motive	-11.4058
step	-11.4059
▁tar	-11.4059
ALL	-11.4061
▁accommodate	-11.4061
▁rotation	-11.4063
tens	-11.4063
▁focuses	-11.4063
▁cease	-11.4065
▁foods	-11.4069
ace	-11.4069
▁punch	-11.4069
▁GPS	-11.4069
▁Fans	-11.407
	-11.407
inder	-11.4076
▁trapped	-11.4076
▁Fra	-11.4076
▁Nathan	-11.4077
bach	-11.4077
▁searches	-11.4079
▁Studies	-11.4079
▁gaining	-11.4079
pad	-11.4079
▁rein	-11.4081
▁crystal	-11.4082
▁69	-11.4083
▁mono	-11.4085
▁addiction	-11.4086
kov	-11.4089
▁fascinating	-11.4093
ifies	-11.4095
▁Douglas	-11.4097
PR	-11.4098
▁MB	-11.4098
▁Tumblr	-11.4099
▁conversion	-11.41
▁“[	-11.4101
▁divorce	-11.4103
▁Brook	-11.4105
▁McCarthy	-11.4105
cum	-11.4106
▁distress	-11.4111
lyn	-11.4113
▁construct	-11.4114
lim	-11.4118
▁Half	-11.412
▁demographic	-11.412
print	-11.4121
una	-11.4122
▁constitution	-11.4123
size	-11.4124
▁pla	-11.4125
▁Resources	-11.4126
▁(8	-11.413
▁Brooks	-11.4135
dra	-11.414
▁sensors	-11.4142
▁transcript	-11.4144
▁Ring	-11.4144
▁Fin	-11.4144
zel	-11.4145
▁casual	-11.4145
▁priorities	-11.4146
▁Pur	-11.4147
▁Vatican	-11.4153
▁Color	-11.4153
▁admits	-11.4155
▁inspector	-11.4155
▁elaborate	-11.4156
▁slogan	-11.4156
▁bankruptcy	-11.4156
▁(7	-11.4159
stage	-11.4162
▁pi	-11.4163
▁poly	-11.4163
▁demon	-11.4163
rio	-11.4166
▁initiatives	-11.4169
▁traveled	-11.417
▁permitted	-11.4171
▁Rap	-11.4171
etta	-11.4172
|	-11.4172
ATE	-11.4173
▁grocery	-11.4174
▁Survey	-11.4174
exp	-11.4174
▁considerable	-11.4175
▁mob	-11.4178
arm	-11.4179
▁Rev	-11.4179
▁cousin	-11.418
▁fingers	-11.418
mun	-11.418
cade	-11.4181
beat	-11.4181
▁Current	-11.4182
▁Reporter	-11.4184
▁winds	-11.4185
▁nominated	-11.4185
▁workshop	-11.4186
ridge	-11.4187
▁shipped	-11.4187
▁Nar	-11.4188
▁Between	-11.419
▁investor	-11.4192
piece	-11.4193
▁hashtag	-11.4193
▁Environment	-11.4194
▁approaches	-11.4194
▁offshore	-11.4195
mic	-11.4197
▁Rush	-11.4199
lk	-11.42
▁launches	-11.4201
▁Furthermore	-11.4201
TR	-11.4202
▁Hay	-11.4203
▁Holy	-11.4204
▁pal	-11.4204
▁militia	-11.4209
▁departments	-11.421
IR	-11.4212
FL	-11.4212
▁propose	-11.4215
▁EP	-11.4215
▁Transit	-11.4216
▁tanks	-11.4217
▁empower	-11.4218
izer	-11.4221
▁affair	-11.4222
nation	-11.4223
▁Nigeria	-11.4223
▁malicious	-11.4224
▁UI	-11.4227
▁gate	-11.4228
▁backlash	-11.4228
▁creature	-11.4229
▁Published	-11.423
▁Leave	-11.4231
▁wheels	-11.4233
▁tourist	-11.4234
▁attackers	-11.4235
▁centuries	-11.4236
▁documentation	-11.4237
▁criticised	-11.4237
frame	-11.424
▁infant	-11.424
▁booked	-11.4241
▁Yesterday	-11.4241
▁2006,	-11.4249
▁errors	-11.4252
▁Ahmed	-11.4252
▁Nas	-11.4255
▁stomach	-11.4257
▁Dawn	-11.4264
▁TD	-11.4264
▁brave	-11.4264
▁pastor	-11.4266
▁bikes	-11.4267
▁CM	-11.4268
▁pressed	-11.4269
USA	-11.4269
▁Pete	-11.427
▁flagship	-11.4271
7)	-11.4276
▁unnecessary	-11.4276
▁Pac	-11.4276
tus	-11.4276
▁screens	-11.4277
▁milestone	-11.4279
▁Moreover	-11.4281
mod	-11.4282
▁monument	-11.4282
VER	-11.4284
▁Cool	-11.4286
▁Title	-11.4286
▁Sho	-11.4287
▁influential	-11.429
last	-11.429
▁Brewing	-11.429
storm	-11.4291
▁partially	-11.4291
▁neo	-11.4292
▁Sprint	-11.4292
▁fluid	-11.4292
▁collapsed	-11.4292
▁Tehran	-11.4293
▁Kor	-11.4294
stock	-11.4294
SS	-11.4295
▁Bun	-11.4296
▁2007.	-11.4298
▁CC	-11.4299
▁Ferrari	-11.4299
▁indictment	-11.4302
▁Boeing	-11.4303
▁instantly	-11.4304
tics	-11.4304
▁Native	-11.4305
▁supposedly	-11.4306
RS	-11.431
▁Developer	-11.4312
▁Mason	-11.4312
▁Reports	-11.4313
▁pirate	-11.4314
MM	-11.4316
door	-11.4317
▁Thunder	-11.4318
und	-11.4319
▁arch	-11.432
agan	-11.4323
▁ambulance	-11.4324
▁possibilities	-11.4324
▁Mus	-11.4325
▁Jessica	-11.4327
▁Phillips	-11.4328
▁interpretation	-11.4329
BO	-11.433
▁77	-11.4331
fr	-11.4333
▁marketplace	-11.4333
▁Cav	-11.4334
300	-11.4336
▁Launch	-11.4336
▁autonomous	-11.4337
▁rack	-11.4338
▁Indianapolis	-11.4339
▁Mix	-11.4339
ail	-11.4341
▁HTML	-11.4342
▁pursuit	-11.4342
▁Touch	-11.4343
▁Panthers	-11.4344
▁Luis	-11.4345
▁wishes	-11.4345
▁Recently	-11.4345
▁Metal	-11.4345
▁converted	-11.4346
▁myth	-11.4346
mma	-11.4349
▁freshman	-11.4349
▁inmates	-11.435
▁LinkedIn	-11.4351
▁Breaking	-11.4352
▁Cop	-11.4353
▁container	-11.4355
uda	-11.4355
▁pursuing	-11.4357
▁expertise	-11.4359
▁licenses	-11.4359
▁Cas	-11.4359
▁Pal	-11.4361
▁gunshot	-11.4362
▁documented	-11.4363
▁manual	-11.4363
▁recount	-11.4363
lier	-11.4363
OK	-11.4364
▁Travel	-11.4365
▁rugby	-11.4366
▁jailed	-11.4367
▁Crew	-11.4367
▁exam	-11.4369
è	-11.4371
▁convenient	-11.4372
▁cord	-11.4376
▁goalkeeper	-11.4376
▁theaters	-11.4377
▁Sara	-11.4379
▁Johnny	-11.4379
.[2]	-11.4381
▁architect	-11.4384
▁Newsletter	-11.4384
▁Within	-11.4386
▁meets	-11.4388
▁delighted	-11.4388
▁Obviously	-11.4389
ML	-11.439
▁Details	-11.439
▁Lauren	-11.4392
hur	-11.4393
▁identification	-11.4393
▁ordinance	-11.4393
▁compelling	-11.4394
▁applies	-11.4395
▁rig	-11.4396
▁holders	-11.4397
▁strongest	-11.4399
▁Var	-11.4403
▁inspire	-11.4404
▁Ronald	-11.4404
▁Match	-11.4405
▁Besides	-11.4406
▁averaged	-11.4408
▁Kal	-11.4408
▁mph	-11.4413
▁%	-11.4415
▁clause	-11.4421
▁Nova	-11.4423
▁Goldman	-11.4424
▁multiplayer	-11.4424
▁Gill	-11.4424
▁banning	-11.4425
miss	-11.4425
▁Wade	-11.4425
AB	-11.4427
▁occasionally	-11.4428
▁Welcome	-11.4429
wick	-11.4429
▁consists	-11.443
DO	-11.443
▁productive	-11.4434
▁fits	-11.4434
▁accountable	-11.4434
▁Case	-11.4435
▁caps	-11.4435
ept	-11.4436
▁uncovered	-11.4438
▁spectacular	-11.4439
▁developments	-11.4443
▁Software	-11.4445
Because	-11.4447
▁deciding	-11.4448
▁Gabriel	-11.4448
▁Send	-11.4449
bad	-11.445
nut	-11.445
▁flexible	-11.4451
▁rated	-11.4454
▁Wikipedia	-11.4454
▁Laura	-11.4457
▁respective	-11.4459
▁Castle	-11.4459
▁caution	-11.4459
grade	-11.446
nell	-11.4462
▁compatible	-11.4462
▁slave	-11.4464
▁downloaded	-11.4464
rose	-11.4465
▁genes	-11.4467
▁troll	-11.4468
▁feminist	-11.4468
atory	-11.4469
▁Potter	-11.447
▁yeah	-11.447
▁Kat	-11.447
▁offence	-11.4471
BC	-11.4471
▁electronics	-11.4472
▁stealing	-11.4473
▁presents	-11.4474
9.99	-11.4475
▁Horn	-11.4476
▁CP	-11.4476
▁hammer	-11.4477
shaw	-11.4479
▁emotions	-11.4481
▁companion	-11.4482
▁produces	-11.4482
rg	-11.4483
▁Political	-11.4484
▁governing	-11.4485
unk	-11.4487
▁Bab	-11.4487
▁Latino	-11.4488
▁tick	-11.4489
▁interference	-11.4489
▁amongst	-11.449
▁Polish	-11.4491
serv	-11.4492
▁compiled	-11.4493
etic	-11.4494
count	-11.4494
▁clashes	-11.4494
▁islands	-11.4496
▁lawsuits	-11.4497
▁Nashville	-11.4498
▁firefighters	-11.4498
▁Sel	-11.4499
▁UP	-11.4501
▁Superman	-11.4502
lated	-11.4503
GO	-11.4503
sub	-11.4504
▁Cambridge	-11.4507
▁Baby	-11.4507
▁underlying	-11.4508
Every	-11.4511
Te	-11.4512
▁Paper	-11.4514
▁Swa	-11.4515
▁quotes	-11.4517
▁14.	-11.4519
▁graph	-11.4519
▁SB	-11.4521
OM	-11.4521
▁workforce	-11.4523
ras	-11.4525
▁walks	-11.4526
▁screaming	-11.4528
▁Chancellor	-11.4534
▁Tal	-11.4535
▁GA	-11.4536
▁struggles	-11.4536
▁expose	-11.4537
▁acres	-11.4538
▁habitat	-11.4539
▁Der	-11.4542
▁Sciences	-11.4542
▁crops	-11.4543
▁teenagers	-11.4545
paid	-11.4546
▁PO	-11.4549
▁pub	-11.4549
▁superhero	-11.455
▁surveyed	-11.4552
▁recreational	-11.4552
▁forums	-11.4553
▁confrontation	-11.4553
▁villain	-11.4553
▁Got	-11.4555
ICE	-11.4556
▁norm	-11.456
▁Originally	-11.4561
▁indicator	-11.4562
▁tension	-11.4563
▁Kumar	-11.4564
▁elephant	-11.4565
▁breakdown	-11.4566
ception	-11.4567
tis	-11.4569
IE	-11.457
rap	-11.4575
▁countless	-11.4576
fra	-11.4576
▁respected	-11.4579
▁authorized	-11.458
▁inclusion	-11.458
▁prohibited	-11.4582
▁recipes	-11.4586
▁Sol	-11.4586
▁20,000	-11.4586
▁Vote	-11.4587
▁Af	-11.4587
store	-11.4587
▁boo	-11.4588
▁quietly	-11.4588
▁Kent	-11.459
▁Rugby	-11.459
▁fe	-11.4591
mini	-11.4591
▁Row	-11.4591
▁Para	-11.4591
▁Rodriguez	-11.4593
mple	-11.4596
▁slammed	-11.4596
▁abused	-11.4597
▁pipe	-11.4597
funded	-11.4598
▁Gru	-11.4599
▁references	-11.4599
▁sophisticated	-11.4599
▁economist	-11.4601
▁Shell	-11.4602
note	-11.4604
▁identifying	-11.4604
FT	-11.4605
▁similarly	-11.4605
However	-11.4605
▁proceed	-11.4605
▁MC	-11.4606
▁sole	-11.4606
▁equity	-11.4606
▁Creative	-11.4606
▁Andrea	-11.4607
▁Cla	-11.4607
quarter	-11.4609
▁threaten	-11.4609
▁relate	-11.4612
NG	-11.4612
▁Thor	-11.4614
▁14-	-11.4614
▁applying	-11.4614
▁accuracy	-11.4615
▁contrary	-11.4616
▁sooner	-11.4617
lb	-11.4617
backs	-11.4618
Hu	-11.4623
▁identical	-11.4624
▁tier	-11.4627
pal	-11.4628
▁sword	-11.4628
▁Edge	-11.4628
fix	-11.4632
°	-11.4637
▁Julian	-11.4638
▁simultaneously	-11.4639
cess	-11.4639
▁Legal	-11.464
pop	-11.464
▁printer	-11.4641
▁owns	-11.4641
▁fuck	-11.4641
▁organisations	-11.4642
<	-11.4642
▁Butler	-11.4642
▁referee	-11.4643
▁$30	-11.4643
iff	-11.4644
▁revised	-11.4647
▁Machine	-11.4647
▁Lar	-11.4649
gre	-11.465
▁cents	-11.4652
▁financing	-11.4652
▁businessman	-11.4654
▁Cru	-11.4658
▁Scout	-11.4658
▁twenty	-11.4659
▁nerve	-11.4659
▁hacked	-11.4659
▁Zero	-11.466
▁immigrant	-11.4661
▁Dia	-11.4664
▁Enjoy	-11.4665
▁bones	-11.4666
▁insists	-11.4666
hel	-11.4666
▁spotlight	-11.4671
▁parked	-11.4671
▁Comments	-11.4672
▁sweat	-11.4673
▁viable	-11.4673
▁Xi	-11.4673
-18	-11.4675
▁01	-11.4675
▁cinema	-11.4676
att	-11.4682
▁subway	-11.4682
CU	-11.4684
▁negotiate	-11.4686
▁lion	-11.4688
awn	-11.4689
▁fu	-11.4694
▁wings	-11.4694
Mon	-11.4696
▁!	-11.4696
azi	-11.4697
1,000	-11.4707
▁Shop	-11.4708
▁evolved	-11.4709
▁chunk	-11.4709
▁regulate	-11.4711
▁mechanical	-11.4711
▁clarify	-11.4712
ii	-11.4713
zen	-11.4714
▁Rodgers	-11.4715
▁bipartisan	-11.4715
▁Computer	-11.4715
▁approaching	-11.4716
EP	-11.4718
▁Gall	-11.4719
plo	-11.4721
6)	-11.4721
▁Cuban	-11.4723
▁presumably	-11.4723
▁meals	-11.4723
▁intends	-11.4726
▁examination	-11.4726
▁71	-11.4726
▁uncomfortable	-11.4728
▁WR	-11.4728
Fe	-11.4729
check	-11.4729
▁Thi	-11.473
▁hint	-11.4736
▁disrupt	-11.4737
▁particles	-11.4737
UT	-11.4737
▁withdrawal	-11.4738
▁warnings	-11.474
▁Everton	-11.474
▁Rhode	-11.474
rad	-11.4742
▁Additional	-11.4742
▁Therefore	-11.4742
▁embedded	-11.4747
▁escaped	-11.4748
▁Globe	-11.4748
▁Enterprise	-11.4753
▁subsidies	-11.4753
▁prayers	-11.4757
▁alike	-11.4757
empt	-11.4758
▁alternate	-11.4759
▁Politico	-11.4762
▁absurd	-11.4762
▁22-	-11.4766
Or	-11.4767
kill	-11.4768
▁ce	-11.4769
▁flooding	-11.477
▁fortune	-11.4772
▁retailer	-11.4773
▁notably	-11.4773
anna	-11.4775
***	-11.4776
▁toys	-11.4777
▁Trail	-11.4779
▁Double	-11.478
▁accuse	-11.4781
▁Pokémon	-11.4785
▁punish	-11.4786
▁$200	-11.4786
unconstitutional	-11.4789
▁flags	-11.479
Ne	-11.4791
▁portrait	-11.4791
▁Wait	-11.4791
▁advisor	-11.4792
▁Albert	-11.4792
▁1989	-11.4793
▁persons	-11.4793
▁reviewing	-11.4795
▁achievement	-11.4795
▁Criminal	-11.4797
▁boil	-11.4798
▁Jesse	-11.4798
-16	-11.4803
DP	-11.4805
▁physics	-11.4807
pol	-11.4808
uv	-11.4812
▁Dubai	-11.4814
▁Palmer	-11.4814
▁hatred	-11.4814
▁Nancy	-11.4816
▁freeze	-11.4816
▁chef	-11.4817
▁tackles	-11.4817
▁Gates	-11.4818
▁alerts	-11.482
▁Investigation	-11.4823
▁Ji	-11.4823
▁holidays	-11.4825
▁intelligent	-11.4826
▁Weather	-11.4829
▁partisan	-11.4833
enberg	-11.4834
▁Astro	-11.4837
▁2-	-11.4839
▁Interior	-11.4842
▁finale	-11.4843
▁ankle	-11.4844
▁Lebanon	-11.4845
▁2)	-11.4847
▁reactor	-11.4847
▁''	-11.4849
call	-11.485
▁Relations	-11.485
▁Dear	-11.4852
IO	-11.4852
▁Starting	-11.4853
umble	-11.4857
▁74	-11.4859
▁endless	-11.486
▁rushing	-11.4861
▁bri	-11.487
</	-11.4873
ui	-11.4876
ink	-11.4876
▁Wo	-11.488
▁instrument	-11.4881
▁Stars	-11.4885
▁insane	-11.4886
▁Sep	-11.4887
▁qualifying	-11.4889
▁technological	-11.489
▁Mega	-11.4891
▁pressing	-11.4891
ibility	-11.4893
clo	-11.4893
▁Wallace	-11.4897
▁Non	-11.4897
▁whereas	-11.4897
▁contractor	-11.4899
▁Modern	-11.49
▁honestly	-11.49
▁Bobby	-11.49
▁Hen	-11.4902
▁worn	-11.4903
▁stole	-11.4904
▁Level	-11.4904
▁joins	-11.4905
LI	-11.4906
▁Huffington	-11.4909
pr	-11.491
▁boards	-11.491
▁Billy	-11.4913
▁Erik	-11.4914
▁alleges	-11.4914
fit	-11.4919
Da	-11.4922
fil	-11.4923
▁owe	-11.4924
▁1)	-11.4924
▁Uni	-11.4926
▁Thrones	-11.4928
hat	-11.4929
▁Julie	-11.4929
live	-11.4933
▁73	-11.4934
▁kilometers	-11.4934
rac	-11.4936
look	-11.4937
▁Ale	-11.4938
cost	-11.4938
ı	-11.4941
▁jumping	-11.4941
agh	-11.4943
▁Jar	-11.4943
▁constructed	-11.4943
block	-11.4943
▁bust	-11.4943
▁Fre	-11.4944
▁occasional	-11.4944
▁Agent	-11.4945
bur	-11.4946
▁78	-11.4947
▁FL	-11.4947
▁Immigration	-11.4947
igan	-11.4949
▁HA	-11.4949
▁appealing	-11.4951
une	-11.4953
bird	-11.4954
▁nest	-11.4955
▁magnetic	-11.4955
▁Islands	-11.4956
bridge	-11.4957
▁1.2	-11.4959
VI	-11.496
lation	-11.496
▁Better	-11.4963
▁crackdown	-11.4964
▁Sto	-11.4966
▁Rad	-11.4969
▁Dal	-11.4969
▁reminded	-11.4972
▁stunt	-11.4972
▁lakh	-11.4974
▁crying	-11.4977
▁pictured	-11.4977
▁cargo	-11.4977
▁lean	-11.4978
▁fires	-11.4979
▁agriculture	-11.498
kind	-11.498
cial	-11.498
▁manga	-11.4981
▁Tip	-11.4981
▁reflected	-11.4981
▁vegetables	-11.4981
vie	-11.4982
▁fails	-11.4982
▁tutorial	-11.4983
▁separated	-11.4985
gli	-11.4988
▁searched	-11.499
▁Hero	-11.4991
▁Pradesh	-11.4992
▁Neither	-11.4993
▁brewery	-11.4995
▁Shaw	-11.4997
His	-11.4998
▁oversee	-11.4998
hara	-11.5004
▁Advertising	-11.5005
bag	-11.5006
tier	-11.5006
▁Blake	-11.5007
▁scar	-11.5009
▁steep	-11.5009
cor	-11.501
otic	-11.5011
▁NHS	-11.5012
▁Ur	-11.5013
▁accomplish	-11.5014
▁institute	-11.5017
through	-11.5017
▁fixes	-11.502
▁Kas	-11.5022
▁Reform	-11.5023
▁robotic	-11.5024
▁SS	-11.5024
▁leverage	-11.5025
▁opener	-11.5026
rim	-11.5028
▁aftermath	-11.5028
▁hostage	-11.5028
▁Ravens	-11.503
▁Lan	-11.5031
▁risen	-11.5033
tors	-11.5037
PE	-11.5038
▁barrier	-11.504
tag	-11.5041
▁Rank	-11.5043
▁pistol	-11.5044
rel	-11.5044
▁ethics	-11.5045
▁Anonymous	-11.5045
▁feared	-11.5046
▁altogether	-11.5048
▁Broadway	-11.5048
treat	-11.5049
sti	-11.5053
wire	-11.5054
▁Tag	-11.5056
▁Spirit	-11.5058
▁contributor	-11.5058
▁denial	-11.5058
▁Comics	-11.506
▁resemble	-11.5061
Net	-11.5063
▁diabetes	-11.5064
▁Making	-11.5064
▁"[	-11.5068
kg	-11.5069
itt	-11.5071
▁SD	-11.5073
Men	-11.5073
ncy	-11.5074
thy	-11.5077
▁diesel	-11.5077
▁Wildlife	-11.5077
а	-11.508
▁summary	-11.508
▁transported	-11.5083
▁defendants	-11.5086
▁tender	-11.5089
▁Leon	-11.5094
owner	-11.5094
▁median	-11.5095
▁7-	-11.5095
▁libraries	-11.5096
▁Operation	-11.5101
mato	-11.5101
▁barrels	-11.5101
wed	-11.5103
gress	-11.5105
▁Transport	-11.5106
▁>>	-11.5107
El	-11.5107
arian	-11.5108
▁understands	-11.5109
▁evident	-11.511
▁minorities	-11.5114
▁Rh	-11.5114
▁magical	-11.5116
▁barriers	-11.5117
▁Stan	-11.5118
▁£3	-11.5119
▁bout	-11.5119
▁Chad	-11.5121
▁kicking	-11.5122
▁serial	-11.5123
▁Jobs	-11.5125
▁Tha	-11.5125
Any	-11.5128
▁Strip	-11.5129
▁lands	-11.5129
▁Sanchez	-11.5132
▁Mod	-11.5133
dri	-11.5133
▁evaluation	-11.5133
quest	-11.5133
▁Steel	-11.5137
▁cult	-11.5137
▁rocks	-11.5139
▁expire	-11.5139
▁Grey	-11.514
▁flexibility	-11.5146
▁drops	-11.5146
CP	-11.5146
▁23-	-11.5147
after	-11.5147
proof	-11.5149
▁jokes	-11.515
▁zones	-11.515
▁assert	-11.5152
▁shootings	-11.5153
▁loving	-11.5154
pel	-11.5155
▁Foster	-11.516
player	-11.5161
▁str	-11.5163
▁Fun	-11.5163
▁Spec	-11.5164
lift	-11.5164
▁currencies	-11.5169
▁NSW	-11.5169
ured	-11.517
▁PRO	-11.5172
fair	-11.5176
▁refers	-11.5177
▁marking	-11.5178
▁apologized	-11.5179
▁Bol	-11.518
▁literature	-11.5182
▁Majority	-11.5182
=”	-11.5184
cross	-11.5185
▁Coin	-11.5189
▁gig	-11.5189
▁sue	-11.519
▁uploaded	-11.5191
▁legalization	-11.5193
ILL	-11.5194
▁males	-11.5194
oop	-11.5199
▁Koch	-11.52
▁pioneer	-11.5202
▁Zo	-11.5202
▁wh	-11.5202
ule	-11.5203
▁Map	-11.5204
▁anonymity	-11.5205
▁Affordable	-11.5208
▁stepping	-11.5211
▁(200	-11.5211
▁Fighter	-11.5212
▁Kay	-11.5212
▁councillor	-11.5213
▁experimental	-11.5213
Who	-11.5215
▁Girls	-11.5215
▁railway	-11.5217
▁Springs	-11.5217
▁Presidential	-11.5218
aria	-11.5221
▁Cash	-11.5221
▁Cape	-11.5222
▁attributed	-11.5225
ional	-11.5228
▁rage	-11.5231
▁neutrality	-11.5233
▁Workers	-11.5236
▁unlimited	-11.5245
▁hearts	-11.5247
▁suitable	-11.5248
AF	-11.5249
LP	-11.525
▁indicating	-11.5251
rink	-11.5252
▁occurs	-11.5254
▁editing	-11.5256
▁13-	-11.5257
▁tent	-11.5258
hall	-11.5258
▁Cabinet	-11.5258
▁awkward	-11.5258
▁precisely	-11.526
▁cho	-11.5261
▁Schumer	-11.5262
▁vary	-11.5264
▁glasses	-11.5264
▁encryption	-11.5265
▁Marcus	-11.5268
▁Austria	-11.5268
▁subtle	-11.5268
rous	-11.5269
▁TE	-11.5269
▁violate	-11.5273
▁Jared	-11.5274
▁baking	-11.5275
▁wounds	-11.5275
▁McG	-11.5279
Ga	-11.528
▁uncertain	-11.5281
▁aboard	-11.5283
enter	-11.5283
ido	-11.5283
▁lobbying	-11.5284
▁cellphone	-11.5285
▁metric	-11.5289
▁ri	-11.529
▁workout	-11.5291
▁nightmare	-11.5291
▁impacts	-11.5292
▁SUV	-11.5292
▁Spicer	-11.5293
▁40-	-11.5294
▁Silicon	-11.5294
▁freak	-11.5301
▁Scroll	-11.5301
▁hydrogen	-11.5301
▁pu	-11.5303
▁21-	-11.5303
▁undergo	-11.5305
▁Python	-11.5306
▁Past	-11.5306
▁fined	-11.5311
▁connecting	-11.5312
▁enhanced	-11.5312
▁toggle	-11.5312
▁Speed	-11.5313
▁Tickets	-11.5313
▁Heritage	-11.5314
▁wrist	-11.5318
▁TA	-11.5318
▁Multi	-11.5319
Col	-11.532
▁traditionally	-11.5323
thing	-11.5324
▁Mom	-11.5324
▁shark	-11.5325
▁cab	-11.5327
▁vulnerability	-11.5331
▁unlawful	-11.5331
▁correction	-11.5333
▁Belgian	-11.5334
900	-11.534
▁Athletic	-11.5341
fla	-11.5342
▁counting	-11.5342
▁chill	-11.5343
▁Kir	-11.5344
▁Yankees	-11.5346
▁canceled	-11.5349
tha	-11.535
Ka	-11.5351
▁glimpse	-11.5355
▁negotiating	-11.5355
▁Yeah	-11.5355
▁Crystal	-11.5358
▁Hack	-11.5359
zzle	-11.536
▁churches	-11.5361
cell	-11.537
▁Television	-11.5371
▁freely	-11.5374
▁Dy	-11.5374
▁Montana	-11.5375
▁confront	-11.5377
▁mild	-11.5377
uro	-11.5377
▁fool	-11.5378
▁Clean	-11.5379
col	-11.538
risk	-11.5383
▁prompting	-11.5384
▁stabbed	-11.5385
ander	-11.5386
▁defendant	-11.5386
▁rescued	-11.5386
▁layers	-11.5386
▁Baseball	-11.5389
plic	-11.5389
fl	-11.539
cel	-11.5392
▁garbage	-11.5395
ference	-11.5398
▁resist	-11.5401
▁id	-11.5401
▁Mohammed	-11.5402
uke	-11.5402
▁devoted	-11.5402
▁ugly	-11.5408
▁Joel	-11.541
▁ste	-11.541
▁Czech	-11.5412
▁Sat	-11.5414
▁waited	-11.5414
▁bases	-11.5414
security	-11.5415
▁lately	-11.5415
▁Table	-11.5416
▁Gran	-11.5417
▁est	-11.5419
▁sake	-11.5421
▁denies	-11.5423
runner	-11.5424
▁Peterson	-11.5424
▁reserves	-11.5425
ologists	-11.5425
▁Less	-11.5425
▁audiences	-11.5427
▁Hills	-11.5427
gard	-11.5428
cru	-11.5429
▁feeding	-11.543
aid	-11.5432
▁bonds	-11.5434
▁rapper	-11.5435
▁Jail	-11.5435
▁Adventure	-11.5435
▁Imp	-11.5435
match	-11.5436
fan	-11.5436
zan	-11.5439
▁Armed	-11.5441
▁friendship	-11.5441
▁Erdogan	-11.5442
▁habits	-11.5445
▁Beast	-11.5446
sburg	-11.5449
▁FDA	-11.545
▁liberty	-11.5452
▁dioxide	-11.5452
▁organised	-11.5453
DR	-11.5453
▁Steelers	-11.5453
makers	-11.5454
▁GE	-11.5454
▁scare	-11.5457
▁pilots	-11.546
▁3.0	-11.5461
▁Pla	-11.5461
SM	-11.5461
▁Ny	-11.5462
sten	-11.5462
▁advise	-11.5463
keeper	-11.5465
▁confronted	-11.5465
▁clever	-11.5466
▁Index	-11.5466
▁ought	-11.5466
▁technically	-11.5467
▁difficulties	-11.5468
Min	-11.5468
▁sentences	-11.547
▁Pyongyang	-11.5473
▁teammate	-11.5476
▁deploy	-11.5476
▁fame	-11.5478
▁existed	-11.5478
▁LE	-11.5482
▁Pol	-11.5483
▁pause	-11.5485
▁rebounds	-11.5486
▁aiming	-11.549
rod	-11.549
▁Student	-11.549
▁warn	-11.5493
▁Portugal	-11.5493
▁Bomb	-11.5495
ugg	-11.5495
mbling	-11.5496
▁periods	-11.5496
four	-11.5498
Game	-11.55
▁threshold	-11.55
▁productivity	-11.55
▁Cle	-11.5501
wait	-11.5502
▁Lib	-11.5503
▁Liberals	-11.5504
▁cups	-11.5507
▁16.	-11.5509
▁Barbara	-11.551
▁haul	-11.5511
▁dock	-11.5515
▁MD	-11.5517
▁relating	-11.5518
▁reddit	-11.552
▁swap	-11.5521
▁Nebraska	-11.5524
▁testified	-11.5525
asse	-11.5525
GS	-11.5526
▁skull	-11.5527
▁poorly	-11.5528
▁180	-11.5529
▁reaches	-11.553
▁globally	-11.5532
WA	-11.5532
▁debris	-11.5534
service	-11.5534
Bar	-11.5537
▁supportive	-11.5537
▁fundraiser	-11.5541
cular	-11.5542
▁plugin	-11.5544
tie	-11.5546
▁pri	-11.5547
▁Lakers	-11.5548
▁cow	-11.555
▁silly	-11.5551
hin	-11.5551
▁balloon	-11.5553
▁consume	-11.5553
selling	-11.5554
Jo	-11.5557
▁sci	-11.5558
▁SF	-11.556
idi	-11.5561
▁galaxy	-11.5561
▁Travis	-11.5562
▁Spa	-11.5562
▁kilometres	-11.5565
▁severely	-11.5565
▁Lind	-11.5565
▁wi	-11.5566
▁Cardinals	-11.5567
stitu	-11.5568
▁rubber	-11.5569
Up	-11.557
▁exemption	-11.557
▁massacre	-11.5572
▁Kid	-11.5574
▁buttons	-11.5576
▁Finland	-11.5576
SD	-11.5577
▁Flight	-11.5577
ffer	-11.558
▁por	-11.558
eem	-11.5581
▁directions	-11.5581
▁acceptance	-11.5581
sexual	-11.5582
gur	-11.5583
▁(2)	-11.5584
▁forthcoming	-11.5585
▁$10,000	-11.5586
▁suspend	-11.5586
elo	-11.5588
▁leather	-11.5589
▁lovely	-11.5589
▁breathing	-11.5592
blog	-11.5595
add	-11.5597
▁vertical	-11.5599
▁comparing	-11.5602
▁Coll	-11.5603
▁IV	-11.5604
▁comeback	-11.5605
lig	-11.5606
▁bolster	-11.5606
ão	-11.5606
▁affecting	-11.5609
llo	-11.5609
▁reactions	-11.5611
▁Sex	-11.5612
MG	-11.5612
▁Ran	-11.5617
▁Return	-11.5617
gor	-11.5618
PI	-11.5619
▁humor	-11.5619
race	-11.562
▁ounce	-11.5623
▁82	-11.5624
▁unnamed	-11.5624
▁HO	-11.5625
▁Kasich	-11.5627
▁batter	-11.5627
▁Hai	-11.5627
ega	-11.5629
▁Pink	-11.5632
▁sidewalk	-11.5632
▁wondered	-11.5637
▁snack	-11.5637
▁->	-11.5639
▁anthem	-11.5639
▁Az	-11.5641
gus	-11.5641
▁kiss	-11.5644
▁CT	-11.5644
bee	-11.5645
▁Region	-11.5646
▁ALL	-11.5646
▁recovering	-11.5649
Th	-11.565
▁recommendation	-11.5654
▁Minneapolis	-11.5654
working	-11.5655
▁Event	-11.5656
lang	-11.5659
ith	-11.566
▁surfaced	-11.566
▁battling	-11.5664
▁counterparts	-11.5666
▁Feel	-11.5667
▁Users	-11.5667
▁conflicts	-11.5668
▁offenders	-11.5669
-13	-11.5669
rrell	-11.567
▁bot	-11.5672
tax	-11.5672
▁»	-11.5679
▁Silva	-11.568
rb	-11.5681
asi	-11.5681
▁completing	-11.5682
fold	-11.5683
Brien	-11.5683
bru	-11.5684
tract	-11.5685
`	-11.5685
▁Summit	-11.5685
CBS	-11.5686
Over	-11.5688
▁formerly	-11.5688
gam	-11.5689
John	-11.5689
CI	-11.569
▁boats	-11.569
▁19-	-11.5693
ente	-11.5694
sum	-11.5695
▁nationalist	-11.5696
▁jo	-11.5698
400	-11.5699
▁vessels	-11.5702
▁Meet	-11.5702
▁weigh	-11.5702
▁Russians	-11.5702
gri	-11.5703
hai	-11.5704
user	-11.5705
▁Enforcement	-11.5706
gas	-11.5709
standing	-11.571
IV	-11.5711
▁Hughes	-11.5712
mos	-11.5712
▁Zach	-11.5715
▁algorithm	-11.5716
▁deliberately	-11.5716
▁fixture	-11.5717
sharing	-11.5719
▁sal	-11.572
▁beverage	-11.572
cate	-11.572
▁precise	-11.572
8)	-11.5723
MD	-11.5726
driving	-11.5727
▁killings	-11.5728
▁Cyber	-11.5729
▁messaging	-11.573
▁balanced	-11.5731
▁Thai	-11.5733
▁restrict	-11.5734
▁monetary	-11.5734
▁assignment	-11.5737
▁Narendra	-11.5737
pet	-11.5738
▁benchmark	-11.5738
▁pronounced	-11.574
▁condemn	-11.5741
▁regarded	-11.5742
▁Rail	-11.5743
▁Thr	-11.5744
gna	-11.5751
▁dependent	-11.5753
▁Fixed	-11.5753
▁Emergency	-11.5755
wl	-11.5756
▁jets	-11.5757
UM	-11.5758
SB	-11.5759
▁exceed	-11.5761
iri	-11.5764
▁lyrics	-11.5766
▁burger	-11.5767
▁bang	-11.5768
▁implementing	-11.5768
▁Lau	-11.5768
ptic	-11.5771
▁sustain	-11.5771
change	-11.5771
▁Working	-11.5773
▁sho	-11.5777
▁Gene	-11.5779
▁entries	-11.5779
▁geo	-11.5779
lat	-11.5781
▁athlete	-11.5781
▁bother	-11.5782
Na	-11.5783
▁Imagine	-11.5785
▁restored	-11.5789
sec	-11.579
president	-11.579
▁fucking	-11.5791
▁cage	-11.5793
▁survivors	-11.5793
▁ES	-11.5794
▁privately	-11.5795
▁Mau	-11.5798
▁stranger	-11.5799
▁essay	-11.58
▁profound	-11.5801
▁Hin	-11.5802
▁Tree	-11.5803
hen	-11.5805
▁Texans	-11.5807
▁inevitable	-11.5807
▁handset	-11.5808
▁Norman	-11.5808
▁Kh	-11.5809
▁Pelosi	-11.5811
▁hum	-11.5811
▁bailout	-11.5815
▁mount	-11.5816
▁photography	-11.5819
▁Titan	-11.5822
ATION	-11.5823
▁Qaeda	-11.5824
▁Ethereum	-11.5825
▁pretend	-11.5827
best	-11.5828
hir	-11.5829
▁municipal	-11.583
▁successor	-11.583
▁Effect	-11.5831
▁Pokemon	-11.5832
▁Ultra	-11.5832
Har	-11.5833
▁Senators	-11.5833
ago	-11.5834
▁determination	-11.5835
▁misdemeanor	-11.5835
mur	-11.584
▁Sullivan	-11.5842
▁pickup	-11.5842
▁Whatever	-11.5845
first	-11.5846
▁peers	-11.5849
▁flour	-11.5849
▁11-	-11.585
▁£5	-11.5852
▁Indians	-11.5855
▁accomplished	-11.5857
▁blade	-11.586
▁Strike	-11.5861
▁Swift	-11.5868
▁ghost	-11.5868
▁duck	-11.587
▁retreat	-11.5871
final	-11.5871
▁distribute	-11.5872
▁worthy	-11.5874
▁submarine	-11.5874
▁Adrian	-11.5875
▁debates	-11.5876
▁vendors	-11.5877
rill	-11.588
▁quantum	-11.5881
▁BB	-11.5881
Li	-11.5882
▁newspapers	-11.5886
▁Eat	-11.5886
▁sink	-11.589
▁designers	-11.589
▁fin	-11.5891
▁probation	-11.5892
▁Representative	-11.5892
▁attendees	-11.5892
▁Woods	-11.5892
nam	-11.5893
▁drilling	-11.5895
feld	-11.5899
kie	-11.5899
cake	-11.5899
▁Million	-11.59
Ch	-11.5902
tine	-11.5904
å	-11.5906
▁Arthur	-11.5906
▁Cover	-11.5909
▁Industry	-11.5909
▁SAN	-11.591
▁flowers	-11.591
▁layout	-11.5911
▁commentator	-11.5911
▁locally	-11.5912
▁slim	-11.5913
▁valued	-11.5914
.[3]	-11.5916
▁Jeffrey	-11.5917
FO	-11.5918
▁Photograph	-11.5918
▁heels	-11.5919
▁dumb	-11.5921
▁Blair	-11.5921
▁upward	-11.5923
▁planets	-11.5923
ement	-11.5923
▁avoided	-11.593
▁secular	-11.5931
▁Broad	-11.5931
▁Rain	-11.5934
▁extremist	-11.5937
▁Large	-11.5937
▁Ah	-11.5939
▁Cell	-11.5941
▁cognitive	-11.5941
▁Duncan	-11.5942
▁bath	-11.5945
▁vague	-11.5949
▁overtime	-11.5949
▁economies	-11.5952
▁Glen	-11.5956
▁switched	-11.5956
▁shine	-11.5957
▁kicks	-11.5959
▁qui	-11.5962
thirds	-11.5962
.25	-11.5962
▁booth	-11.5965
mph	-11.5965
▁Gandhi	-11.5966
▁hostile	-11.5969
▁Eddie	-11.5971
▁precious	-11.5971
▁royal	-11.5972
▁gro	-11.5973
▁mature	-11.5973
imi	-11.5973
ndi	-11.5975
▁1984	-11.5976
▁coastal	-11.5976
▁Brisbane	-11.5977
▁limitations	-11.5978
▁wooden	-11.5979
▁$100,000	-11.5979
jun	-11.5981
▁controlling	-11.5981
say	-11.5982
▁colleges	-11.5982
▁laughing	-11.5983
Gu	-11.5983
▁salaries	-11.5984
▁arguably	-11.5988
wel	-11.5989
text	-11.5992
people	-11.5992
-17	-11.5993
tant	-11.5996
ann	-11.5998
▁Engineering	-11.5998
▁Break	-11.5999
▁badge	-11.6002
▁charter	-11.6003
▁Arch	-11.6003
▁EC	-11.6005
▁Ker	-11.6006
▁NJ	-11.6006
▁Systems	-11.6006
chin	-11.6006
▁rat	-11.6007
▁Patrol	-11.6009
▁hungry	-11.6012
▁destroying	-11.6013
▁VI	-11.6016
▁watchdog	-11.6017
▁Either	-11.6023
hab	-11.6025
▁Mir	-11.6028
turn	-11.6031
▁Raw	-11.6034
▁Starbucks	-11.6034
▁composition	-11.6034
▁misleading	-11.6035
▁tele	-11.6038
▁priced	-11.6039
roy	-11.6041
▁Drew	-11.6041
tten	-11.6042
▁hurricane	-11.6045
^	-11.6045
▁Collection	-11.6046
▁Upon	-11.6046
▁Ghost	-11.6047
▁Boulevard	-11.6048
▁Cubs	-11.6052
because	-11.6053
▁Previous	-11.6053
uous	-11.6054
▁Build	-11.6055
hoe	-11.6056
shing	-11.6058
▁farms	-11.6069
▁networking	-11.6069
▁Tab	-11.607
▁Py	-11.607
▁imagination	-11.607
▁anytime	-11.607
▁cooling	-11.607
▁supermarket	-11.6075
▁Bow	-11.6079
LT	-11.6079
▁Fal	-11.6079
▁magnitude	-11.6081
▁($1	-11.6082
▁Made	-11.6084
▁editors	-11.6085
▁opted	-11.6086
▁verbal	-11.6086
nom	-11.6087
▁Letter	-11.6088
▁Esp	-11.6089
lessly	-11.6091
▁whilst	-11.6092
ished	-11.6094
▁packaging	-11.6096
▁convey	-11.6096
▁contractors	-11.6097
▁scholarship	-11.6099
▁Joint	-11.6101
▁electro	-11.6102
▁Adelaide	-11.6102
▁navigate	-11.6102
▁retro	-11.6104
▁Gaming	-11.6104
▁Dolphins	-11.6104
▁testify	-11.6105
▁characteristics	-11.6106
▁accommodation	-11.6106
▁entity	-11.6106
▁NYPD	-11.6106
▁Youth	-11.6107
▁Sharp	-11.6108
▁broker	-11.6109
▁Screen	-11.6109
▁significance	-11.611
▁homosexual	-11.611
▁shorter	-11.6111
▁Richardson	-11.6111
▁obesity	-11.6113
▁mm	-11.6114
▁Forbes	-11.6114
▁Winnipeg	-11.6117
▁spider	-11.6117
▁aides	-11.6119
aro	-11.612
800	-11.6122
rain	-11.6122
hoo	-11.6123
▁Bou	-11.6123
▁wherever	-11.6123
▁Norwegian	-11.6128
▁ninth	-11.6128
▁edited	-11.6128
▁facial	-11.6128
▁mounted	-11.613
dler	-11.613
▁Shield	-11.6131
▁denying	-11.6134
pit	-11.6136
hart	-11.6136
2013	-11.6137
▁Chiefs	-11.6137
▁ideology	-11.6139
▁trio	-11.614
▁101	-11.6141
▁regards	-11.6142
isi	-11.6142
tty	-11.6145
▁breed	-11.6145
▁trauma	-11.6145
▁mentally	-11.6146
▁preference	-11.6149
▁distant	-11.615
▁migrant	-11.6151
▁shy	-11.6151
nate	-11.6151
▁digit	-11.6156
▁Register	-11.6157
▁dash	-11.6157
▁evaluate	-11.6158
▁Junior	-11.616
▁Belfast	-11.6161
▁pornography	-11.6161
▁thumb	-11.6163
ault	-11.6163
▁sketch	-11.6166
▁Ask	-11.6167
▁17.	-11.6168
▁lecture	-11.617
▁Lopez	-11.6171
▁Sn	-11.6171
▁demonstrations	-11.6172
▁ti	-11.6172
black	-11.6172
▁fleeing	-11.6172
▁musicians	-11.6173
cid	-11.6178
▁Flickr	-11.6179
aba	-11.6181
▁mothers	-11.6182
duc	-11.6185
?!	-11.6185
▁agricultural	-11.6186
▁Il	-11.6187
▁Soul	-11.6188
▁posters	-11.6188
ried	-11.6189
mond	-11.6194
▁sizes	-11.6194
▁disruption	-11.6195
▁epi	-11.6197
▁(9	-11.6198
▁URL	-11.6198
▁liquor	-11.62
▁swim	-11.6203
▁illustration	-11.6208
rog	-11.6208
▁horn	-11.621
▁Powell	-11.6211
War	-11.6211
▁solidarity	-11.6211
▁88	-11.6213
▁sentencing	-11.6215
cil	-11.6215
▁crowds	-11.6216
▁grey	-11.6217
pher	-11.622
▁extending	-11.6221
▁enables	-11.6221
▁celebrities	-11.6222
▁declining	-11.6222
yes	-11.6224
.[	-11.6224
▁Alpha	-11.6224
▁counted	-11.6225
▁conclude	-11.6225
▁grace	-11.6225
▁prohibit	-11.6226
▁lib	-11.6228
▁79	-11.6229
▁Greens	-11.6229
▁delegation	-11.623
▁embarrassing	-11.623
▁cal	-11.6233
▁Strong	-11.6234
▁Virgin	-11.6234
▁Getting	-11.6235
▁flee	-11.6236
▁lag	-11.6236
version	-11.6239
▁Holder	-11.624
Most	-11.624
▁neighbourhood	-11.6241
▁expressing	-11.6244
▁cure	-11.6244
▁behave	-11.6247
▁earliest	-11.6248
▁Hello	-11.6248
▁Chu	-11.6249
▁matchup	-11.6249
cious	-11.6251
▁jihadist	-11.6254
oodle	-11.6254
▁Give	-11.6254
▁labels	-11.6256
wash	-11.6258
▁shoe	-11.6258
▁Ashley	-11.6258
▁sail	-11.6258
▁entities	-11.6259
▁endorse	-11.6261
▁legislators	-11.6264
▁complaining	-11.6265
▁1988	-11.6266
mie	-11.6266
▁climbing	-11.6267
▁environments	-11.6268
▁notification	-11.6269
SH	-11.6269
▁Thanksgiving	-11.627
itis	-11.6271
astic	-11.6272
▁submission	-11.6274
IVE	-11.6276
▁instruments	-11.6279
▁charts	-11.628
▁Watt	-11.6281
ality	-11.6283
uni	-11.6285
▁TB	-11.6285
ect	-11.6286
£	-11.6286
▁supervisor	-11.6288
▁Mack	-11.6289
stead	-11.629
etti	-11.6295
▁Cable	-11.6295
▁lend	-11.6296
▁Dame	-11.6296
ennial	-11.6296
hot	-11.6297
▁dirt	-11.6299
▁remembered	-11.63
▁tongue	-11.63
▁jar	-11.63
▁lighter	-11.63
Qaeda	-11.63
▁noon	-11.6301
▁nationally	-11.6301
EX	-11.6302
▁Wenger	-11.6307
++	-11.6308
World	-11.6308
▁deter	-11.6308
▁incentive	-11.631
▁incumbent	-11.631
▁mentor	-11.6313
rey	-11.6313
▁Sierra	-11.6314
▁arrangement	-11.6315
Pre	-11.6316
▁blanket	-11.6316
▁cri	-11.6318
square	-11.6319
▁02	-11.6319
▁2-1	-11.632
▁ritual	-11.6322
mount	-11.6323
▁gradually	-11.6325
▁ACLU	-11.6326
▁transformation	-11.6326
▁Pad	-11.6328
▁indoor	-11.6328
▁beers	-11.633
▁cornerback	-11.6331
ema	-11.6331
CR	-11.6331
▁trusted	-11.6332
▁140	-11.6332
▁Delta	-11.6333
▁Stevens	-11.6335
▁Goal	-11.6338
▁2005,	-11.6341
▁offset	-11.6341
urge	-11.6343
▁confirms	-11.6344
▁bare	-11.6349
▁CB	-11.635
▁Victor	-11.6351
▁Statistics	-11.6351
▁committing	-11.6354
▁Jet	-11.6355
▁Samuel	-11.6359
▁Advanced	-11.636
rent	-11.6361
▁heated	-11.6362
▁vo	-11.6362
▁BlackBerry	-11.6362
▁Nat	-11.6362
▁Joshua	-11.6363
▁belongs	-11.6363
▁render	-11.6364
▁Kremlin	-11.6366
▁slaughter	-11.6366
NP	-11.6367
▁reflection	-11.6369
▁Lil	-11.637
▁compromised	-11.6373
▁CL	-11.6373
▁Chase	-11.6374
group	-11.6376
Hi	-11.6376
▁offences	-11.6376
▁Kids	-11.6376
▁insist	-11.6377
▁reckless	-11.6377
adi	-11.6378
▁daughters	-11.638
▁Auburn	-11.6381
▁integrate	-11.6383
▁scroll	-11.6385
▁monkey	-11.6385
breaking	-11.6389
▁treaty	-11.6389
ject	-11.6389
▁mock	-11.639
▁Browns	-11.6391
▁template	-11.6392
▁san	-11.6393
▁hacker	-11.6396
▁cruise	-11.6396
▁limb	-11.6397
ancy	-11.6398
▁oh	-11.6399
▁Beta	-11.6399
▁Chair	-11.6399
▁Mosul	-11.6403
dev	-11.6404
▁Stat	-11.6405
▁Driver	-11.6406
▁commissioned	-11.6407
▁Vincent	-11.6408
9)	-11.6409
big	-11.6412
▁dancing	-11.6415
▁advisory	-11.6417
train	-11.642
▁commands	-11.642
rist	-11.6422
lander	-11.6423
Mart	-11.6424
▁firmly	-11.6427
▁350	-11.6427
▁torn	-11.6428
▁Hernandez	-11.643
▁Chip	-11.643
▁topped	-11.6431
▁intentions	-11.6431
▁Valve	-11.6433
▁casino	-11.6433
▁persist	-11.6433
▁Syn	-11.6433
▁Pot	-11.6434
▁metro	-11.6437
▁Bernard	-11.6437
▁creativity	-11.6437
girl	-11.6437
▁corporation	-11.6438
seat	-11.6438
0.1	-11.644
▁candy	-11.6441
zed	-11.6446
▁Gingrich	-11.6448
▁Meyer	-11.645
billion	-11.6451
▁Conway	-11.6454
▁underneath	-11.6455
▁cooperate	-11.6455
▁incentives	-11.6456
▁Kil	-11.6457
▁sends	-11.6457
posed	-11.6457
▁revelations	-11.646
▁outlined	-11.6461
▁contemporary	-11.6463
▁interactions	-11.6463
ré	-11.6463
▁troubled	-11.6464
▁vest	-11.6465
More	-11.6466
▁Nevertheless	-11.6467
▁disappointment	-11.6467
▁matching	-11.6467
▁Pride	-11.6468
▁permanently	-11.647
▁calculated	-11.6471
▁Louisville	-11.6476
▁Baghdad	-11.6476
osa	-11.6477
▁convenience	-11.6478
▁rub	-11.648
▁cyclists	-11.6481
▁structural	-11.6482
Dr	-11.6482
▁sectors	-11.6482
▁Ground	-11.6483
▁shifted	-11.6485
shoot	-11.6486
Am	-11.6486
▁issuing	-11.649
▁Qu	-11.6492
▁armor	-11.6492
▁Glasgow	-11.6493
▁telescope	-11.6493
effective	-11.6493
▁Perez	-11.6495
▁feat	-11.6495
▁pixel	-11.6495
▁Karen	-11.6497
▁tracked	-11.6497
▁branches	-11.6497
FS	-11.6499
▁packs	-11.6499
▁midst	-11.6499
▁asteroid	-11.65
▁Bang	-11.6501
▁Together	-11.6506
▁Site	-11.6507
▁arise	-11.6507
▁ears	-11.6507
▁UCLA	-11.6509
▁consumed	-11.6511
pie	-11.6512
▁cigarettes	-11.6514
books	-11.6514
▁Politics	-11.6514
▁historically	-11.6516
gling	-11.6517
▁fancy	-11.6519
▁automated	-11.6519
temp	-11.6521
▁ERA	-11.6522
▁secrets	-11.6526
▁50-	-11.6527
▁reluctant	-11.6527
ugh	-11.6529
▁influenced	-11.653
▁dear	-11.6531
▁concealed	-11.6531
▁Abdul	-11.6532
▁Wing	-11.6532
▁gi	-11.6532
▁mum	-11.6532
▁credibility	-11.6534
▁Castro	-11.6535
▁reign	-11.6536
▁Mourinho	-11.6538
▁collector	-11.6538
▁mut	-11.6539
▁voiced	-11.6541
rov	-11.6541
Tra	-11.6541
▁ter	-11.6541
▁Robertson	-11.6541
▁reservation	-11.6542
▁hydro	-11.6543
▁sandwich	-11.6545
▁Lost	-11.6545
▁Hungary	-11.6546
▁beam	-11.6546
osis	-11.6546
▁Single	-11.655
▁publishers	-11.6551
owski	-11.6551
▁Shar	-11.6551
▁Bern	-11.6551
▁inventory	-11.6551
▁26-	-11.6553
▁airplane	-11.6554
▁Coming	-11.6555
▁Ala	-11.6556
anda	-11.6556
▁Weinstein	-11.6557
Pri	-11.6558
▁Count	-11.6558
▁GTX	-11.6561
▁hometown	-11.6563
▁Aleppo	-11.6564
▁honored	-11.6565
▁fraction	-11.6569
▁protective	-11.6569
▁Safe	-11.657
▁streams	-11.657
▁#2	-11.657
▁Text	-11.6571
▁catching	-11.6571
▁hug	-11.6572
▁Greater	-11.6573
▁mag	-11.6577
bas	-11.6578
▁Legislature	-11.658
▁aggravated	-11.658
ivity	-11.6581
▁Anyway	-11.6582
▁Clarke	-11.6582
▁detectives	-11.6583
▁breakthrough	-11.6584
▁deportation	-11.6585
▁receives	-11.6587
▁ports	-11.6589
▁Artist	-11.659
SON	-11.659
iser	-11.6593
duct	-11.6597
▁refusal	-11.6599
▁disk	-11.6601
▁circles	-11.6603
▁absorb	-11.6603
▁declaring	-11.6606
▁precedent	-11.6606
▁Redskins	-11.6606
nik	-11.6606
▁Derek	-11.6607
▁86	-11.6612
▁sponsors	-11.6612
CL	-11.6612
▁costly	-11.6612
▁Clear	-11.6613
js	-11.6613
ART	-11.6614
▁Mich	-11.662
▁Interest	-11.6625
▁Welsh	-11.6625
▁statute	-11.6625
lev	-11.6625
▁interfere	-11.6629
AY	-11.663
ION	-11.6631
cm	-11.6631
▁SpaceX	-11.6632
RN	-11.6632
▁hilarious	-11.6637
▁incoming	-11.6638
▁infringement	-11.664
five	-11.6641
▁alternatives	-11.6644
▁romantic	-11.6644
Israel	-11.6646
ech	-11.6646
▁Added	-11.6647
flow	-11.6651
▁donor	-11.6651
▁Metropolitan	-11.6652
bul	-11.6652
nov	-11.6655
▁har	-11.6655
▁frustrating	-11.6656
▁hi	-11.6657
▁suite	-11.6657
▁flames	-11.6658
▁explicitly	-11.6661
▁sidelines	-11.6661
▁0.1	-11.6663
▁generating	-11.6663
▁lined	-11.6665
▁outright	-11.6666
▁void	-11.6666
▁Colts	-11.6667
▁Kenny	-11.6669
stick	-11.667
minded	-11.667
tig	-11.667
▁50,000	-11.6671
▁IBM	-11.6673
▁4,000	-11.6673
▁outline	-11.6675
▁tables	-11.6677
▁Surface	-11.6679
▁Nobel	-11.6684
▁Prison	-11.6685
▁Bike	-11.6686
▁TR	-11.6686
▁Disease	-11.6687
▁Scha	-11.6689
▁Ambassador	-11.669
ige	-11.6693
NN	-11.6693
▁Hawk	-11.6694
▁Privacy	-11.6694
▁accounting	-11.6695
▁130	-11.6695
▁thorough	-11.6696
,800	-11.6696
2016	-11.6697
RB	-11.67
▁Info	-11.6701
utter	-11.6701
▁happiness	-11.6702
▁boundaries	-11.6702
rance	-11.6702
Last	-11.6706
▁inch	-11.6709
▁Bran	-11.671
▁mountains	-11.6711
▁Fresh	-11.6712
▁dare	-11.6713
public	-11.6714
▁Vin	-11.6714
wear	-11.6714
▁\	-11.6714
▁Training	-11.6717
▁Hundreds	-11.6721
▁Henderson	-11.6721
▁Hudson	-11.6721
▁gunman	-11.6722
▁poses	-11.6723
▁builds	-11.6725
▁Fourth	-11.6725
▁Seoul	-11.6725
▁Sunni	-11.6726
▁Veterans	-11.6728
▁villages	-11.6729
▁sweeping	-11.673
▁thoroughly	-11.6731
▁eliminated	-11.6732
▁rallies	-11.6732
▁Appeals	-11.6732
▁sticking	-11.6735
▁40%	-11.6735
▁specify	-11.6738
▁assuming	-11.6739
▁THIS	-11.6741
▁Kenya	-11.6743
▁concepts	-11.6743
▁Merc	-11.6744
▁Tillerson	-11.6744
green	-11.6744
other	-11.6745
▁Manafort	-11.6752
▁Montgomery	-11.6752
▁var	-11.6752
▁Brothers	-11.6753
▁Member	-11.6755
motion	-11.6757
pool	-11.6758
▁PDF	-11.6761
▁Crimea	-11.6762
Black	-11.6762
▁merger	-11.6767
pid	-11.6767
▁urgent	-11.677
▁Origin	-11.677
▁LP	-11.6771
▁victories	-11.6771
▁Abe	-11.6773
▁rider	-11.6773
aff	-11.6773
OD	-11.6773
▁campaigning	-11.6776
▁Train	-11.6778
image	-11.678
▁injection	-11.678
▁SM	-11.6781
▁84	-11.6781
▁wrestling	-11.6782
▁Stories	-11.6783
aker	-11.6784
▁Belt	-11.6785
ime	-11.679
▁stint	-11.6791
▁Newton	-11.6796
LS	-11.6799
▁Maps	-11.6801
▁incorporate	-11.6801
▁Sweet	-11.6802
▁Pai	-11.6803
ovich	-11.6803
▁matched	-11.6804
▁garlic	-11.6806
▁27-	-11.6807
▁reboot	-11.6808
▁courage	-11.6809
loc	-11.6809
ska	-11.6811
when	-11.6812
lton	-11.6813
▁treatments	-11.6813
/8	-11.6815
▁Cancer	-11.6816
▁youngster	-11.6817
▁Courtesy	-11.6818
brand	-11.6818
▁fulfill	-11.6819
See	-11.6821
moto	-11.6821
▁gray	-11.6823
▁unity	-11.6824
▁Wang	-11.6824
▁execute	-11.6824
▁arc	-11.6824
▁hood	-11.6827
specific	-11.6828
ista	-11.683
▁Mormon	-11.6831
ovic	-11.6833
▁suppress	-11.6835
▁logical	-11.6837
▁font	-11.6838
▁youngest	-11.6838
▁notorious	-11.6839
▁wo	-11.6839
▁exceptional	-11.6839
HC	-11.684
▁Easter	-11.6841
▁spam	-11.6842
▁XL	-11.6848
cock	-11.6849
▁dated	-11.685
▁aging	-11.685
▁rebuild	-11.6855
realDonaldTrump	-11.6856
▁laboratory	-11.6857
▁exc	-11.6858
isa	-11.6858
▁sons	-11.6858
▁Born	-11.6859
▁Nissan	-11.686
ident	-11.686
▁Theresa	-11.6865
▁caucus	-11.6867
▁pour	-11.6869
acre	-11.687
▁proving	-11.6871
▁Danish	-11.6873
▁Pic	-11.6873
▁extremists	-11.6874
▁Fear	-11.6875
tv	-11.6877
▁1.3	-11.6877
hou	-11.6878
▁rendering	-11.688
▁lawmaker	-11.6883
▁(12	-11.6884
▁endangered	-11.6884
▁detection	-11.6884
ota	-11.6884
▁Server	-11.6884
▁RA	-11.6885
around	-11.6886
▁cart	-11.6893
-21	-11.6895
▁blown	-11.6898
▁RBI	-11.6899
▁tolerance	-11.6899
▁offline	-11.6899
▁1986	-11.6903
▁fitting	-11.6903
▁holy	-11.6903
▁Chapter	-11.6904
▁Seth	-11.6904
achi	-11.6906
ood	-11.6907
▁Moto	-11.6907
▁Walt	-11.6909
lian	-11.6909
dell	-11.691
lav	-11.6911
going	-11.6912
gno	-11.6913
▁desired	-11.6913
Day	-11.6918
▁protesting	-11.6922
Watch	-11.6922
▁Gibson	-11.6923
▁imports	-11.6923
bby	-11.6924
▁speeches	-11.6924
▁Benghazi	-11.6927
▁awaiting	-11.6927
▁DLC	-11.693
▁beneficial	-11.693
▁handy	-11.6932
MT	-11.6934
FI	-11.6934
▁Tool	-11.6937
▁analyze	-11.6937
▁decides	-11.6938
▁Alt	-11.6938
▁Holland	-11.6938
▁cheat	-11.6941
▁Shanghai	-11.6942
▁accidents	-11.6946
▁30,000	-11.6947
▁enabling	-11.695
youtube	-11.6951
rine	-11.6953
▁Avengers	-11.6954
600	-11.6957
▁token	-11.6958
▁historian	-11.6958
aga	-11.6959
▁trainer	-11.6959
▁exploded	-11.696
▁weighed	-11.6961
▁ser	-11.6964
▁Dale	-11.6964
▁thankful	-11.6967
▁Lightning	-11.6967
▁hotels	-11.6968
dog	-11.6968
▁hunger	-11.6969
▁Falls	-11.6969
▁Rescue	-11.697
9,000	-11.6972
▁ja	-11.6972
TON	-11.6973
▁Kurt	-11.6974
▁Iceland	-11.6975
▁bacon	-11.6979
▁Eagle	-11.698
ease	-11.698
▁prompt	-11.6981
▁cafe	-11.6981
▁exercises	-11.6981
▁arrives	-11.6982
▁MVP	-11.6983
▁$40	-11.6983
▁MIT	-11.6985
▁installing	-11.6986
cott	-11.6989
▁Idaho	-11.699
complete	-11.699
-14	-11.6992
▁FREE	-11.6994
▁Queens	-11.6994
yu	-11.6994
▁organize	-11.6995
▁prevention	-11.6996
▁Mou	-11.6996
▁Lower	-11.6997
root	-11.6997
▁gem	-11.6998
▁Occupy	-11.6999
▁Northwest	-11.6999
atic	-11.7
▁Correction	-11.7003
▁processed	-11.7003
▁Fact	-11.7004
iver	-11.7004
▁Fine	-11.7008
▁linking	-11.7009
▁Delaware	-11.7009
▁regain	-11.7009
▁bloody	-11.701
▁lemon	-11.7011
Muslim	-11.7011
▁obligation	-11.7015
▁Notes	-11.7016
▁soup	-11.7017
tone	-11.7018
▁Porter	-11.7018
▁homosexuality	-11.7019
▁Mali	-11.7021
cip	-11.7022
▁Brent	-11.7023
▁Legend	-11.7023
▁observe	-11.7025
▁Muhammad	-11.7025
▁Cinema	-11.7026
▁bullying	-11.7026
system	-11.7027
▁Dow	-11.7028
▁seekers	-11.7029
▁economics	-11.703
▁predictions	-11.703
▁prevail	-11.7033
▁**	-11.7036
▁Stream	-11.7037
▁juvenile	-11.7037
▁transplant	-11.7037
▁fingerprint	-11.7037
▁beans	-11.7038
▁Digg	-11.7039
▁outlook	-11.7041
▁amateur	-11.7041
▁arrangements	-11.7041
deep	-11.7041
▁strategist	-11.7045
gn	-11.7046
▁Prosecutors	-11.7047
President	-11.7048
▁NRA	-11.7051
▁Logan	-11.7051
▁Fen	-11.7055
▁Comment	-11.7057
▁Quinn	-11.7057
▁ballots	-11.7057
League	-11.7059
eta	-11.7062
▁Dana	-11.7064
▁territories	-11.7065
▁upgrades	-11.7068
▁pedestrian	-11.7068
▁horrific	-11.7069
fest	-11.7071
▁stir	-11.7071
▁BY	-11.7073
▁penis	-11.7073
▁Math	-11.7073
▁columnist	-11.7074
,700	-11.7075
mill	-11.7076
▁outcomes	-11.7077
▁dominate	-11.708
▁Snyder	-11.7081
Look	-11.7081
▁discriminate	-11.7081
▁poison	-11.7081
▁Temp	-11.7084
▁Titans	-11.7084
▁2006.	-11.7088
▁Malcolm	-11.7089
fact	-11.7089
▁Housing	-11.709
▁setback	-11.709
▁simulation	-11.7093
court	-11.7095
ando	-11.7096
▁08	-11.7099
▁runner	-11.71
▁enthusiasm	-11.7101
▁Ultimate	-11.7103
cies	-11.7103
▁dense	-11.7103
▁Princess	-11.7104
▁insert	-11.7104
▁bans	-11.7104
▁laying	-11.7105
▁Bet	-11.7105
▁hung	-11.7106
▁smash	-11.7106
▁tougher	-11.7108
▁sells	-11.7108
▁Holmes	-11.7109
share	-11.7109
▁wisdom	-11.7113
▁casualties	-11.7113
▁olive	-11.7114
▁Kre	-11.7114
▁Theater	-11.7115
▁Audio	-11.7115
▁limiting	-11.7116
▁epidemic	-11.7117
▁considers	-11.7118
▁Twenty	-11.7125
▁jaw	-11.7125
▁Rabbi	-11.7129
▁Complete	-11.7129
▁bearing	-11.7133
▁Ant	-11.7135
▁prey	-11.7136
▁28-	-11.7137
▁Pirate	-11.7139
ois	-11.714
▁Colbert	-11.7141
▁Bashar	-11.7143
ante	-11.7144
▁Wells	-11.7147
running	-11.7147
▁reset	-11.7148
▁fortunate	-11.7149
▁navigation	-11.7153
Dis	-11.7154
▁advances	-11.7155
▁pockets	-11.7156
▁Limited	-11.7156
▁Enlarge	-11.7157
cco	-11.7157
rag	-11.716
▁81	-11.7161
▁frankly	-11.7164
his	-11.7165
▁Carroll	-11.7166
▁generator	-11.7169
▁tuition	-11.7169
driven	-11.7171
.[4]	-11.7171
▁Elliott	-11.7173
▁credited	-11.7177
▁Brewer	-11.7178
File	-11.718
▁Cass	-11.7181
▁Bailey	-11.7182
▁lasted	-11.7184
▁admire	-11.7186
▁basement	-11.7189
/11	-11.7191
email	-11.7191
▁sharply	-11.7194
▁Casey	-11.7194
ç	-11.7195
bell	-11.7196
▁node	-11.7196
▁Brendan	-11.7198
▁modify	-11.7199
▁pat	-11.7201
▁teaspoon	-11.7201
strong	-11.7201
ops	-11.7202
▁portray	-11.7202
▁suits	-11.7204
▁demonstrators	-11.7204
▁intensity	-11.7205
▁chains	-11.7207
wheel	-11.7207
▁dip	-11.721
earn	-11.7212
▁albums	-11.7212
TP	-11.7213
▁slower	-11.7214
eous	-11.7214
▁Neu	-11.7214
-35	-11.7216
▁raids	-11.7217
yr	-11.7219
▁routinely	-11.7225
odo	-11.7225
▁Sales	-11.7227
▁qua	-11.723
uter	-11.7231
▁labeled	-11.7234
scribe	-11.7234
edit	-11.7235
▁Extra	-11.7237
▁sculpture	-11.7238
▁hedge	-11.7238
▁QB	-11.7239
▁proceeds	-11.7243
lane	-11.7244
udi	-11.7244
▁Agreement	-11.7245
▁likelihood	-11.7245
▁voluntary	-11.7245
gui	-11.7246
▁coconut	-11.7249
▁supremacist	-11.7249
▁Study	-11.725
▁bass	-11.7251
UC	-11.7252
▁internationally	-11.7253
▁draws	-11.7254
▁Nad	-11.7255
aver	-11.7255
▁squeeze	-11.7257
▁RCMP	-11.7258
▁sealed	-11.7259
Many	-11.7261
▁shelves	-11.7266
▁delete	-11.7266
▁$1,000	-11.7267
▁ethical	-11.7267
▁composed	-11.727
▁Ap	-11.7272
▁disability	-11.7272
▁invalid	-11.7274
▁consoles	-11.7274
▁Ship	-11.7274
▁Que	-11.7275
▁Pie	-11.7275
▁bun	-11.7276
mili	-11.7277
▁colon	-11.7278
▁worries	-11.7278
▁impacted	-11.7279
▁spice	-11.728
▁Sudan	-11.7281
▁spur	-11.7282
▁bracket	-11.7282
▁exempt	-11.7283
pir	-11.7286
▁0.0	-11.7286
▁Chile	-11.7286
▁Munich	-11.7286
▁PT	-11.7289
▁assertion	-11.7289
iko	-11.729
▁separation	-11.729
▁neighboring	-11.729
IST	-11.7291
▁cookies	-11.7292
▁pets	-11.7294
▁satellites	-11.7295
▁recognise	-11.7298
▁cocktail	-11.7298
▁Sil	-11.73
▁boring	-11.73
cking	-11.73
abil	-11.7304
▁wash	-11.7306
▁patience	-11.7306
▁aerial	-11.7308
Work	-11.7309
mbi	-11.7309
▁economists	-11.7312
▁tooth	-11.7313
▁CF	-11.7315
Gra	-11.7316
▁organ	-11.7317
▁:)	-11.7319
▁counterpart	-11.732
▁Anton	-11.7322
each	-11.7323
uto	-11.7324
▁observation	-11.7324
Since	-11.7325
▁mud	-11.7325
">	-11.7327
▁inauguration	-11.7327
cept	-11.7327
▁Shan	-11.7329
▁Regardless	-11.7329
▁Years	-11.7329
▁furniture	-11.7331
Su	-11.7332
▁contents	-11.7335
▁Living	-11.7338
▁abortions	-11.734
vil	-11.7341
▁skip	-11.7342
▁backers	-11.7343
▁Zone	-11.7345
▁Lead	-11.7346
▁beast	-11.7351
▁triumph	-11.7351
▁reiterated	-11.7352
Here	-11.7352
▁Tommy	-11.7355
▁echo	-11.7355
▁Critics	-11.7355
▁Lego	-11.7356
▁accountability	-11.7356
▁disputed	-11.7356
▁83	-11.7357
▁touching	-11.7359
▁Podcast	-11.7359
▁litigation	-11.7359
three	-11.7359
▁unaware	-11.736
▁patents	-11.7362
ended	-11.7364
▁dude	-11.7364
▁staffers	-11.7369
▁RPG	-11.737
▁besides	-11.737
▁evacuated	-11.737
NET	-11.7371
corn	-11.7372
dem	-11.7372
num	-11.7375
▁illustrate	-11.7375
▁Rex	-11.7379
▁dam	-11.738
▁pur	-11.738
▁Issue	-11.738
▁1979	-11.7382
▁quo	-11.7383
▁Noah	-11.7387
▁1987	-11.7387
▁willingness	-11.7388
rise	-11.7388
▁obligations	-11.739
▁Eventually	-11.7392
▁Experience	-11.7392
pay	-11.7392
hack	-11.7393
▁Taking	-11.7394
▁Zen	-11.7397
ott	-11.7397
▁03	-11.74
▁eBay	-11.7401
▁Palestine	-11.7402
cin	-11.7403
▁competitor	-11.7404
EG	-11.7404
enko	-11.7407
oriented	-11.7408
▁themes	-11.7408
stro	-11.7409
▁Communist	-11.741
▁liberals	-11.741
▁Thousands	-11.7411
▁diamond	-11.7413
▁dignity	-11.7413
lov	-11.7414
▁Deb	-11.7415
▁entertain	-11.7415
qual	-11.7417
▁Confederate	-11.7417
▁Leicester	-11.7417
▁shifting	-11.7418
▁apartments	-11.7419
▁Kashmir	-11.7421
present	-11.7421
while	-11.7422
▁Really	-11.7427
▁Javascript	-11.7429
▁CNBC	-11.743
▁dressing	-11.7432
nen	-11.7433
▁subjected	-11.7434
Right	-11.7437
atur	-11.7438
END	-11.7441
▁confidential	-11.7442
▁throat	-11.7444
▁complement	-11.7446
▁avoiding	-11.7447
▁safeguard	-11.7447
▁meta	-11.7447
▁Personal	-11.7448
▁zip	-11.7448
▁Porsche	-11.745
▁warrior	-11.745
▁KO	-11.7452
▁tsp	-11.7452
▁1.1	-11.7453
▁YORK	-11.7454
OO	-11.7455
▁scenarios	-11.7455
▁Jill	-11.7457
Pe	-11.7458
▁founding	-11.7459
▁humble	-11.7459
Tech	-11.7459
▁soundtrack	-11.7459
▁corridor	-11.7462
▁Halo	-11.7462
DF	-11.7465
▁upgraded	-11.7466
▁critically	-11.7469
▁partial	-11.7469
2012	-11.7472
▁900	-11.7472
▁Ari	-11.7473
▁Nobody	-11.7474
▁Plant	-11.7475
▁passwords	-11.7476
▁unrest	-11.7478
aku	-11.7482
▁maintains	-11.7486
▁Ruby	-11.7487
iac	-11.7489
▁Works	-11.7489
▁independently	-11.7493
▁Dash	-11.7494
▁coincide	-11.7494
▁Oz	-11.7495
May	-11.7495
▁Observatory	-11.7495
▁publicity	-11.7496
▁Sla	-11.7497
▁Shortly	-11.7498
▁appealed	-11.7499
▁Schmidt	-11.75
▁contacts	-11.75
▁explicit	-11.7502
▁wreck	-11.7503
▁utilize	-11.7504
▁concession	-11.7504
▁observations	-11.7506
▁2018,	-11.7507
▁blew	-11.7508
▁una	-11.7509
social	-11.7509
▁Connect	-11.7511
▁Arabic	-11.7511
▁TH	-11.7513
▁Sie	-11.7515
ml	-11.7516
▁beard	-11.7517
throp	-11.7517
KA	-11.7517
▁References	-11.7518
▁bloc	-11.7518
make	-11.7518
▁Gonzalez	-11.752
Di	-11.7521
▁Prevention	-11.7521
▁farming	-11.7521
▁investigator	-11.7522
eman	-11.7523
▁Christianity	-11.7523
▁Tournament	-11.7525
▁Worth	-11.7526
▁(18	-11.7527
▁Focus	-11.7527
▁Rai	-11.7528
▁neat	-11.7528
▁debuted	-11.7531
come	-11.7531
DD	-11.7533
▁Echo	-11.7534
▁winger	-11.7534
▁dangers	-11.7534
▁Wu	-11.7534
▁vent	-11.7535
▁Falcons	-11.7537
▁Laboratory	-11.7537
▁exhaust	-11.7541
▁unsupported	-11.7541
shaped	-11.7542
▁establishing	-11.7542
▁explosives	-11.7542
▁Heights	-11.7542
▁Strange	-11.7545
▁ya	-11.7545
kle	-11.7547
▁marker	-11.7549
▁Michel	-11.7552
▁shareholders	-11.7552
▁Rift	-11.7552
▁Consider	-11.7552
▁Investment	-11.7552
such	-11.7552
control	-11.7553
▁clue	-11.7554
▁Dodgers	-11.7555
▁financially	-11.7558
▁convictions	-11.7558
▁worrying	-11.7558
▁30%	-11.7559
▁FI	-11.756
▁Previously	-11.7561
crib	-11.7563
▁installment	-11.7569
▁sounded	-11.7569
▁Nik	-11.757
▁Lamb	-11.757
▁Rosa	-11.7572
▁applicants	-11.7573
safe	-11.7578
think	-11.7579
▁Kane	-11.758
wen	-11.7581
▁adequate	-11.7582
▁Self	-11.7582
talk	-11.7583
▁alt	-11.7584
sale	-11.7585
para	-11.7587
▁Month	-11.7589
▁afterwards	-11.7589
▁encountered	-11.759
▁conscious	-11.759
▁gravity	-11.7591
▁warehouse	-11.7591
▁Jenkins	-11.7592
▁decreased	-11.7593
▁bur	-11.7595
▁CON	-11.7595
▁grandmother	-11.7596
▁Motorola	-11.7596
▁justified	-11.7598
Those	-11.7599
▁comparable	-11.76
▁peanut	-11.76
▁brains	-11.76
▁aliens	-11.7603
▁Geo	-11.7604
▁meme	-11.7605
▁AAP	-11.7606
▁04	-11.7607
▁thrive	-11.7608
▁Turnbull	-11.7608
ctic	-11.761
▁bats	-11.7611
abi	-11.7611
▁concussion	-11.7612
▁mechanics	-11.7613
▁distinction	-11.7613
2.5	-11.7615
century	-11.762
rou	-11.7621
shore	-11.7622
▁Days	-11.7623
,200	-11.7624
mac	-11.7625
▁rebound	-11.7625
▁administrators	-11.7625
enti	-11.7627
▁Virtual	-11.7628
▁promotional	-11.763
▁modification	-11.763
▁Perth	-11.7631
bid	-11.7632
▁crowded	-11.7633
▁averaging	-11.7633
▁waiver	-11.7634
science	-11.7636
▁horses	-11.764
▁Evil	-11.7641
▁Host	-11.7642
▁bounce	-11.7643
▁arranged	-11.7644
▁lone	-11.7644
lich	-11.7645
▁clouds	-11.7646
▁Brett	-11.7649
▁Din	-11.765
▁indie	-11.7651
issue	-11.7651
own	-11.7654
▁intentionally	-11.7654
▁gasoline	-11.7654
▁Emily	-11.7655
▁invented	-11.7655
▁quad	-11.7656
▁styles	-11.7656
▁Chen	-11.7658
▁Rating	-11.7659
▁turtle	-11.7659
▁dragged	-11.7659
▁rot	-11.7659
▁USC	-11.7664
▁suing	-11.7664
▁Fel	-11.7664
cam	-11.7665
▁consulting	-11.7666
▁rational	-11.7666
▁rings	-11.7667
▁Performance	-11.7667
kit	-11.7668
stat	-11.7668
▁sweep	-11.767
▁Nike	-11.767
▁believing	-11.7671
imo	-11.7674
▁chemistry	-11.7674
eli	-11.7675
▁shouting	-11.7675
▁screenshot	-11.7675
▁Books	-11.7676
▁1985	-11.7679
▁yen	-11.768
dig	-11.7681
alo	-11.7681
dging	-11.7682
pra	-11.7683
ury	-11.7684
▁relax	-11.7684
▁mon	-11.7685
Life	-11.7687
▁affidavit	-11.7688
TB	-11.7689
▁hover	-11.769
▁naming	-11.769
rail	-11.7692
▁Armstrong	-11.7693
▁bonuses	-11.7696
▁Companies	-11.7697
▁postseason	-11.77
▁Bristol	-11.7701
▁tiger	-11.7702
▁Berg	-11.7702
▁blur	-11.7704
▁(11	-11.7707
Get	-11.7709
▁Opposition	-11.771
div	-11.771
▁replica	-11.7711
▁manufacture	-11.7713
TU	-11.7713
▁accessories	-11.7714
nz	-11.7714
▁Omar	-11.7715
▁chopped	-11.7715
▁evolve	-11.7715
-22	-11.7715
▁banana	-11.7719
▁Coleman	-11.772
▁affiliated	-11.772
mine	-11.7721
▁dining	-11.7721
▁imminent	-11.7722
▁Stuart	-11.7722
aud	-11.7723
▁09	-11.7723
hee	-11.7724
▁Somalia	-11.7726
cover	-11.7727
logy	-11.7728
▁monsters	-11.7728
▁fuels	-11.7729
zone	-11.773
▁Sab	-11.773
COM	-11.773
First	-11.7734
▁SI	-11.7735
▁Caribbean	-11.7735
▁separately	-11.7736
may	-11.7737
▁loot	-11.7742
▁inaugural	-11.7743
▁censorship	-11.7744
▁Nan	-11.7744
▁tribal	-11.7748
▁Chang	-11.775
▁memorable	-11.7752
▁Gang	-11.7754
▁Honor	-11.7755
▁heaven	-11.7756
nc	-11.7758
▁clerk	-11.7761
▁eclipse	-11.7761
▁accurately	-11.7761
▁Rapids	-11.7764
friend	-11.7765
▁Walsh	-11.7766
▁attach	-11.7771
▁libertarian	-11.7773
▁precaution	-11.7773
▁ripped	-11.7774
▁Alien	-11.7775
▁rides	-11.7777
▁volumes	-11.7778
▁Version	-11.7779
▁intimate	-11.778
▁undercover	-11.7783
SF	-11.7785
▁Agriculture	-11.7786
▁forming	-11.7788
got	-11.779
▁Edinburgh	-11.779
▁Emirates	-11.779
▁hurdle	-11.779
duction	-11.7792
/9	-11.7794
▁Nepal	-11.7796
▁2-0	-11.7797
▁duration	-11.78
▁Fill	-11.7802
▁offerings	-11.7802
due	-11.7803
▁ballistic	-11.7806
▁credentials	-11.7808
▁ignoring	-11.7808
▁securing	-11.7808
▁Colombia	-11.7808
▁Cri	-11.7809
▁Walking	-11.7809
Str	-11.781
▁directing	-11.7813
factor	-11.7813
▁Barnes	-11.7814
▁weekday	-11.7814
▁tide	-11.782
▁authentic	-11.782
▁fond	-11.7823
support	-11.7824
▁sheets	-11.7825
max	-11.7828
LD	-11.7828
▁Av	-11.7829
▁Nicholas	-11.7829
▁fragment	-11.7829
▁slash	-11.7829
▁sisters	-11.7831
▁organizing	-11.7834
▁Gur	-11.7834
▁Wings	-11.7834
▁relies	-11.7835
▁investigative	-11.7838
▁shaped	-11.7839
CBC	-11.7841
▁Someone	-11.7841
responsibilities	-11.7842
▁bullets	-11.7843
▁adjusted	-11.7844
▁Southeast	-11.7844
usa	-11.7845
▁hype	-11.7849
▁87	-11.785
▁translated	-11.7851
HP	-11.7852
MR	-11.7855
▁sophomore	-11.7855
▁Banks	-11.7855
▁1,500	-11.7856
oka	-11.7856
▁Gamb	-11.7857
▁theatre	-11.7859
▁Bluetooth	-11.7859
▁kingdom	-11.7859
UD	-11.786
▁HR	-11.7861
▁educate	-11.7864
▁shuttle	-11.7865
▁Cab	-11.7865
▁$11	-11.7867
▁makeup	-11.7868
▁Darren	-11.7869
▁$300	-11.7869
▁manufactured	-11.7872
▁density	-11.7872
did	-11.7872
▁grind	-11.7873
▁Yan	-11.7875
Source	-11.788
▁92	-11.788
▁Rare	-11.7881
tale	-11.7883
▁Roth	-11.7884
▁troubling	-11.7885
▁[...]	-11.7885
▁Associate	-11.7885
▁NFC	-11.7886
▁lethal	-11.7886
▁lightweight	-11.7887
wave	-11.7888
▁Culture	-11.7889
▁swear	-11.7891
▁hearings	-11.7892
TOR	-11.7893
▁VP	-11.7893
food	-11.7895
▁IGN	-11.7896
▁remainder	-11.7897
▁Flu	-11.7897
impl	-11.7898
▁Conservation	-11.7898
▁swept	-11.7898
▁liability	-11.7898
▁Triple	-11.7899
▁cliff	-11.7899
▁pork	-11.7899
▁wrongdoing	-11.7907
Pi	-11.7907
▁cooked	-11.791
asa	-11.791
▁Bha	-11.7912
▁lacking	-11.7913
▁observers	-11.7913
▁demonstrates	-11.7915
▁purple	-11.7915
▁Pew	-11.7917
map	-11.7917
▁clips	-11.7918
▁bleeding	-11.7918
BE	-11.7918
mates	-11.792
▁Grace	-11.7922
▁turnout	-11.7922
cient	-11.7922
▁automaker	-11.7923
▁vet	-11.7923
▁Qua	-11.7924
▁96	-11.7925
▁cope	-11.7926
▁Mirror	-11.7928
▁spying	-11.793
▁mill	-11.793
▁employ	-11.7931
road	-11.7932
▁goat	-11.7933
▁lure	-11.7934
God	-11.7936
▁Dam	-11.7937
▁Blo	-11.7938
▁united	-11.7941
▁skeptical	-11.7941
▁favorable	-11.7941
▁lifting	-11.7943
▁Randy	-11.7943
▁airports	-11.7945
[...]
