<pad>	0
<unk>	0
<s>	0
</s>	0
▁이	-0
▁.	-1
▁는	-2
▁에	-3
▁을	-4
▁다	-5
▁하	-6
▁의	-7
▁고	-8
▁가	-9
▁,	-10
▁은	-11
▁지	-12
▁를	-13
▁한	-14
▁도	-15
▁으	-16
▁대	-17
▁있	-18
▁기	-19
니다	-20
▁사	-21
▁들	-22
▁시	-23
▁1	-24
▁으로	-25
▁인	-26
▁해	-27
▁수	-28
▁아	-29
▁로	-30
▁일	-31
▁에서	-32
▁어	-33
▁2	-34
▁과	-35
▁주	-36
▁그	-37
▁전	-38
▁정	-39
▁했	-40
▁보	-41
▁부	-42
▁자	-43
▁적	-44
▁되	-45
▁만	-46
▁(	-47
▁나	-48
▁)	-49
▁공	-50
▁국	-51
▁것	-52
▁라	-53
▁위	-54
▁제	-55
▁게	-56
▁여	-57
▁등	-58
▁년	-59
▁면	-60
▁경	-61
▁개	-62
▁습	-63
▁와	-64
▁중	-65
▁조	-66
▁세	-67
▁습니다	-68
▁할	-69
▁3	-70
▁상	-71
▁었	-72
▁입	-73
▁된	-74
▁관	-75
▁안	-76
▁생	-77
▁원	-78
▁합	-79
▁소	-80
▁없	-81
▁모	-82
▁선	-83
▁마	-84
▁20	-85
▁한다	-86
▁서	-87
▁성	-88
▁연	-89
▁유	-90
▁교	-91
▁신	-92
▁내	-93
▁거	-94
▁문	-95
▁며	-96
▁않	-97
▁비	-98
▁오	-99
▁월	-100
▁명	-101
▁구	-102
▁방	-103
▁동	-104
▁?	-105
▁"	-106
▁미	-107
▁발	-108
▁“	-109
▁합니다	-110
▁말	-111
▁”	-112
▁‘	-113
▁’	-114
▁5	-115
▁청	-116
▁우	-117
▁분	-118
▁받	-119
▁4	-120
▁현	-121
▁학	-122
▁바	-123
▁장	-124
▁무	-125
▁통	-126
▁당	-127
▁차	-128
▁진	-129
▁계	-130
▁'	-131
▁화	-132
▁실	-133
▁최	-134
▁건	-135
▁더	-136
▁예	-137
▁강	-138
▁국민	-139
▁대한	-140
▁·	-141
▁까	-142
▁입니다	-143
▁저	-144
00	-145
▁까지	-146
▁회	-147
▁때	-148
▁에게	-149
▁재	-150
▁불	-151
▁스	-152
▁영	-153
▁노	-154
▁단	-155
▁19	-156
▁많	-157
▁지역	-158
▁같	-159
▁감	-160
▁겠	-161
▁처	-162
▁6	-163
▁남	-164
▁위해	-165
▁반	-166
▁사람	-167
▁또	-168
▁였	-169
▁사업	-170
▁행	-171
▁확	-172
▁법	-173
▁추	-174
▁라고	-175
▁운	-176
▁후	-177
▁던	-178
▁김	-179
▁결	-180
▁특	-181
▁지만	-182
▁올	-183
▁다고	-184
▁요	-185
▁생각	-186
▁-	-187
▁%	-188
▁는데	-189
▁따	-190
▁7	-191
▁지원	-192
▁함	-193
▁지난	-194
▁된다	-195
▁군	-196
▁출	-197
▁및	-198
▁면서	-199
▁부터	-200
▁권	-201
▁못	-202
▁알	-203
▁집	-204
▁평	-205
▁았	-206
▁민	-207
▁직	-208
▁피	-209
▁201	-210
▁활	-211
▁매	-212
▁살	-213
▁간	-214
▁산	-215
▁참	-216
▁배	-217
▁8	-218
▁설	-219
▁포	-220
▁임	-221
▁역	-222
▁정부	-223
▁라는	-224
▁광	-225
▁교육	-226
▁우리	-227
▁물	-228
▁달	-229
▁체	-230
▁다는	-231
▁아니	-232
▁10	-233
▁투	-234
▁세요	-235
▁협	-236
▁금	-237
▁9	-238
▁나라	-239
▁작	-240
▁심	-241
니까	-242
▁프	-243
▁번	-244
▁도록	-245
▁됐	-246
▁코	-247
▁드	-248
▁형	-249
▁억	-250
▁해야	-251
▁두	-252
▁열	-253
▁양	-254
▁근	-255
▁천	-256
▁본	-257
▁통해	-258
▁문제	-259
▁종	-260
▁박	-261
▁외	-262
▁초	-263
▁한국	-264
▁농	-265
통령	-266
▁사회	-267
▁점	-268
▁!	-269
▁업	-270
▁판	-271
▁대통령	-272
▁필	-273
▁복	-274
▁될	-275
▁데	-276
▁환	-277
▁치	-278
▁파	-279
▁..	-280
▁시간	-281
▁검	-282
▁좋	-283
▁음	-284
▁국가	-285
▁호	-286
▁밝	-287
▁이상	-288
▁앞	-289
▁총	-290
▁위한	-291
▁증	-292
▁아이	-293
▁취	-294
▁충	-295
▁기업	-296
▁리	-297
▁야	-298
▁~	-299
▁맞	-300
▁보다	-301
▁때문	-302
▁이번	-303
▁힘	-304
▁함께	-305
▁네	-306
▁대해	-307
▁타	-308
▁잘	-309
▁각	-310
▁목	-311
▁규	-312
▁만들	-313
▁병	-314
민국	-315
▁으면	-316
▁지금	-317
▁님	-318
▁니	-319
▁사용	-320
▁현재	-321
▁경기	-322
▁대한민국	-323
▁해서	-324
▁경우	-325
▁운영	-326
▁학교	-327
▁이나	-328
▁북	-329
▁변	-330
▁정책	-331
▁약	-332
▁관련	-333
▁용	-334
▁필요	-335
▁위원	-336
▁새	-337
▁피해	-338
▁너	-339
▁대표	-340
▁진행	-341
▁그리	-342
▁이런	-343
▁줄	-344
▁길	-345
▁경제	-346
▁접	-347
▁문화	-348
▁계획	-349
▁누	-350
▁높	-351
▁대학	-352
▁다른	-353
▁밝혔	-354
▁그러	-355
▁준	-356
▁폐	-357
▁카	-358
▁시장	-359
▁가능	-360
▁식	-361
▁조사	-362
▁12	-363
▁창	-364
▁으며	-365
▁곳	-366
▁속	-367
▁버	-368
▁담	-369
▁채	-370
▁따라	-371
▁프로	-372
▁관계	-373
▁대상	-374
▁편	-375
▁상황	-376
▁돌	-377
▁학생	-378
▁11	-379
▁백	-380
▁센	-381
▁질	-382
▁독	-383
▁토	-384
▁/	-385
▁돈	-386
▁이후	-387
▁언	-388
▁추진	-389
▁활동	-390
▁또한	-391
▁폭	-392
▁온	-393
▁걸	-394
▁경찰	-395
▁범	-396
▁관리	-397
▁시민	-398
▁너무	-399
▁도시	-400
▁기관	-401
▁승	-402
▁서울	-403
▁씨	-404
▁태	-405
▁청원	-406
▁급	-407
▁손	-408
▁의원	-409
▁그리고	-410
▁200	-411
▁시작	-412
▁표	-413
▁항	-414
▁축	-415
▁순	-416
▁왜	-417
▁모두	-418
▁광주	-419
▁A	-420
▁철	-421
▁그런	-422
▁시설	-423
▁센터	-424
▁18	-425
▁국회	-426
로나	-427
▁글	-428
▁이용	-429
▁쓰	-430
▁안전	-431
▁려	-432
▁일본	-433
▁30	-434
▁절	-435
▁모든	-436
▁별	-437
▁친	-438
▁코로나	-439
▁여성	-440
▁미국	-441
▁환경	-442
▁참여	-443
▁개발	-444
▁발생	-445
▁산업	-446
▁큰	-447
▁하나	-448
▁다시	-449
▁15	-450
▁크	-451
▁주민	-452
▁싶	-453
▁십	-454
▁는지	-455
▁허	-456
▁사건	-457
▁돼	-458
▁연구	-459
▁세계	-460
▁책	-461
▁완	-462
▁삼	-463
▁넘	-464
▁이유	-465
▁자신	-466
▁팀	-467
▁가장	-468
▁생활	-469
▁대구	-470
▁가지	-471
▁날	-472
▁S	-473
▁아닌	-474
▁예정	-475
▁민주	-476
▁트	-477
▁지난해	-478
▁선수	-479
▁ᆞ	-480
▁정도	-481
▁어서	-482
▁특히	-483
▁막	-484
▁많이	-485
▁기자	-486
▁뒤	-487
▁0	-488
▁결과	-489
▁애	-490
▁벌	-491
지만	-492
▁한다고	-493
▁부산	-494
▁올해	-495
▁찾	-496
000	-497
▁홍	-498
렇게	-499
▁다양	-500
▁기술	-501
▁먹	-502
▁제공	-503
▁사이	-504
▁늘	-505
▁202	-506
▁정치	-507
▁거나	-508
으며	-509
▁△	-510
▁행정	-511
▁다음	-512
▁메	-513
대로	-514
▁느	-515
▁들어	-516
▁하지만	-517
▁죽	-518
▁중국	-519
▁제도	-520
▁주택	-521
▁논	-522
▁기준	-523
▁못하	-524
▁지방	-525
▁사실	-526
▁K	-527
▁전문	-528
▁공무	-529
▁는다	-530
▁없이	-531
▁발전	-532
▁가족	-533
▁방송	-534
▁됩	-535
▁이날	-536
▁정말	-537
▁난	-538
▁뿐	-539
스트	-540
▁전국	-541
▁처럼	-542
▁여러	-543
▁향	-544
▁복지	-545
립니다	-546
▁m	-547
▁:	-548
▁존	-549
▁효	-550
▁어야	-551
▁내용	-552
▁최근	-553
▁좀	-554
▁공무원	-555
▁엄	-556
▁개선	-557
▁얼	-558
▁키	-559
▁보호	-560
▁어려	-561
▁잡	-562
▁동안	-563
▁디	-564
▁정보	-565
▁베	-566
▁처벌	-567
▁개인	-568
▁마련	-569
자리	-570
▁따르	-571
▁대회	-572
▁설치	-573
비스	-574
▁청소	-575
▁세금	-576
▁답	-577
▁과정	-578
▁레	-579
▁기간	-580
▁됩니다	-581
▁평가	-582
▁갈	-583
▁위원회	-584
▁플	-585
▁관계자	-586
▁눈	-587
▁기록	-588
▁16	-589
▁첫	-590
▁병원	-591
▁확인	-592
▁C	-593
▁육	-594
▁시키	-595
▁뉴	-596
▁서비스	-597
▁현장	-598
▁감사	-599
▁브	-600
▁13	-601
▁어린	-602
▁100	-603
▁범죄	-604
▁테	-605
▁단체	-606
▁사고	-607
▁희	-608
▁네요	-609
▁휴	-610
▁14	-611
▁포함	-612
▁다가	-613
▁갖	-614
▁나요	-615
▁회사	-616
▁해결	-617
▁17	-618
▁건강	-619
▁볼	-620
▁청년	-621
▁선거	-622
▁아파	-623
▁선정	-624
▁강화	-625
▁조성	-626
▁투자	-627
▁문재	-628
▁일반	-629
▁당시	-630
▁마음	-631
▁프로그	-632
▁공개	-633
▁측	-634
▁라며	-635
▁신청	-636
▁북한	-637
▁국내	-638
▁죠	-639
▁해당	-640
▁25	-641
▁운동	-642
▁그러나	-643
▁교통	-644
▁프로그램	-645
▁이어	-646
▁일부	-647
▁몇	-648
▁한다는	-649
▁끝	-650
▁인데	-651
▁실시	-652
▁일자리	-653
▁청소년	-654
▁또는	-655
▁페	-656
▁연금	-657
▁밖	-658
▁악	-659
▁놓	-660
▁계속	-661
▁업체	-662
▁부탁	-663
▁노력	-664
랍니다	-665
▁책임	-666
▁째	-667
▁그래	-668
▁행사	-669
▁미래	-670
▁노동	-671
▁...	-672
▁봉	-673
▁패	-674
▁장애	-675
▁아파트	-676
▁구성	-677
▁라도	-678
▁공사	-679
▁자유	-680
▁공동	-681
▁k	-682
▁응	-683
▁골	-684
▁관광	-685
▁한편	-686
▁대책	-687
▁기대	-688
▁업무	-689
▁중요	-690
부터	-691
▁직원	-692
▁바랍니다	-693
▁발표	-694
▁수사	-695
▁인지	-696
▁M	-697
▁결정	-698
▁인해	-699
▁어떤	-700
▁왕	-701
▁극	-702
▁커	-703
▁T	-704
▁먼	-705
가요	-706
▁아무	-707
▁국제	-708
주의	-709
▁송	-710
▁폐지	-711
▁몰	-712
▁차량	-713
▁시대	-714
▁이러	-715
▁보험	-716
▁엔	-717
▁예산	-718
▁시행	-719
▁건설	-720
▁께	-721
▁규모	-722
▁특별	-723
▁든	-724
▁새로	-725
▁50	-726
▁직접	-727
▁황	-728
▁빠	-729
▁이렇게	-730
▁자리	-731
▁십시	-732
▁후보	-733
▁혁	-734
▁B	-735
▁확대	-736
▁겁	-737
▁활용	-738
▁모르	-739
시아	-740
▁주장	-741
▁상태	-742
▁어떻	-743
의원	-744
▁방문	-745
▁모습	-746
▁L	-747
▁방법	-748
▁분야	-749
▁저희	-750
어나	-751
▁셨	-752
▁이제	-753
▁의료	-754
▁적극	-755
▁중심	-756
▁귀	-757
▁요구	-758
▁해도	-759
▁역사	-760
▁윤	-761
▁가격	-762
▁다면	-763
▁검사	-764
▁같이	-765
▁반대	-766
▁부동	-767
아가	-768
▁공공	-769
▁물론	-770
▁탄	-771
▁알려	-772
▁하루	-773
운데	-774
▁근무	-775
▁근로	-776
▁처음	-777
▁제발	-778
▁이미	-779
▁생산	-780
▁관심	-781
▁추가	-782
▁국회의원	-783
▁만큼	-784
▁지속	-785
▁불법	-786
▁부분	-787
까요	-788
▁부동산	-789
▁나오	-790
▁증가	-791
▁왔	-792
▁판매	-793
▁2019	-794
▁피해자	-795
▁보이	-796
▁아야	-797
▁침	-798
▁란	-799
▁처리	-800
랜드	-801
▁준비	-802
▁시스	-803
▁계약	-804
▁가운데	-805
▁%)	-806
▁마을	-807
▁층	-808
▁시켜	-809
▁24	-810
▁21	-811
▁회의	-812
▁개월	-813
▁외국	-814
▁인천	-815
▁현실	-816
▁유치	-817
레이	-818
▁조선	-819
▁자동	-820
▁터	-821
▁설명	-822
▁장관	-823
▁회장	-824
▁개최	-825
▁나타	-826
▁갑	-827
▁지급	-828
▁어린이	-829
▁전남	-830
▁신고	-831
▁감독	-832
▁문재인	-833
▁시스템	-834
▁협력	-835
▁199	-836
▁오후	-837
▁대부	-838
▁이야	-839
리아	-840
▁클	-841
▁영화	-842
▁적용	-843
▁습니까	-844
▁나가	-845
▁이해	-846
▁이름	-847
▁도움	-848
▁러	-849
▁석	-850
▁조치	-851
▁부모	-852
▁듯	-853
▁입장	-854
▁I	-855
▁위치	-856
▁접종	-857
▁기사	-858
▁22	-859
▁위해서	-860
▁의견	-861
▁거래	-862
▁=	-863
▁D	-864
▁최대	-865
▁어떻게	-866
▁더욱	-867
학교	-868
▁대부분	-869
▁기본	-870
▁가정	-871
▁《	-872
▁얼마	-873
▁울	-874
▁냐	-875
라도	-876
▁행위	-877
▁소득	-878
▁퇴	-879
▁》	-880
▁청와	-881
▁미세	-882
▁이야기	-883
▁청와대	-884
▁도로	-885
▁밀	-886
▁여자	-887
▁그런데	-888
▁바이	-889
▁40	-890
▁새로운	-891
▁이전	-892
▁공간	-893
▁민주당	-894
▁혜	-895
▁자기	-896
▁수준	-897
▁교수	-898
▁바로	-899
▁드립니다	-900
▁사진	-901
▁긴	-902
▁정신	-903
▁2018	-904
으나	-905
▁떨	-906
▁지정	-907
▁혼	-908
▁즉	-909
▁F	-910
▁최고	-911
▁협의	-912
▁징	-913
▁아직	-914
!!	-915
▁중앙	-916
▁서민	-917
▁아닙	-918
▁홈	-919
▁어요	-920
▁탈	-921
▁이루	-922
▁납	-923
▁소비	-924
▁힘들	-925
▁대해서	-926
▁제품	-927
▁예방	-928
▁잘못	-929
▁헌	-930
▁사랑	-931
▁제대로	-932
▁금지	-933
▁G	-934
▁인터	-935
▁인권	-936
▁누구	-937
▁인정	-938
▁낮	-939
▁교사	-940
▁맡	-941
▁영향	-942
▁성장	-943
라인	-944
▁유지	-945
▁머	-946
▁효과	-947
▁제작	-948
▁보여	-949
▁비롯	-950
▁전체	-951
▁떠	-952
▁활성	-953
▁리그	-954
▁기존	-955
▁시험	-956
▁23	-957
▁로서	-958
▁개정	-959
▁의회	-960
▁씩	-961
▁방안	-962
먼지	-963
▁구축	-964
▁뜻	-965
▁핵	-966
▁치료	-967
▁죄	-968
▁시즌	-969
▁미세먼지	-970
▁백신	-971
▁대출	-972
▁P	-973
▁콘	-974
▁요청	-975
▁확보	-976
▁거리	-977
▁능	-978
▁방식	-979
▁주요	-980
▁전기	-981
▁꼭	-982
▁으나	-983
▁루	-984
▁인구	-985
▁28	-986
▁아서	-987
▁뉴스	-988
▁부담	-989
다고	-990
▁시청	-991
기업	-992
▁정상	-993
▁택	-994
▁봅	-995
▁임금	-996
▁고용	-997
▁상대	-998
▁착	-999
▁열린	-1000
▁마다	-1001
▁케	-1002
▁잠	-1003
▁26	-1004
▁소방	-1005
▁블	-1006
▁금융	-1007
▁안정	-1008
▁격	-1009
▁구조	-1010
▁강력	-1011
▁언론	-1012
▁해외	-1013
▁대비	-1014
▁의해	-1015
▁최저	-1016
▁게임	-1017
▁얻	-1018
▁기회	-1019
▁대전	-1020
▁사항	-1021
▁대학교	-1022
▁팔	-1023
▁망	-1024
다는	-1025
▁여기	-1026
▁그렇	-1027
..	-1028
▁체육	-1029
▁이것	-1030
▁대응	-1031
▁중소	-1032
▁부족	-1033
▁훈	-1034
**	-1035
▁역할	-1036
▁비용	-1037
▁공급	-1038
▁라면	-1039
▁지지	-1040
▁혜택	-1041
▁조직	-1042
▁27	-1043
▁희망	-1044
▁오늘	-1045
▁취업	-1046
▁봅니다	-1047
▁자체	-1048
▁동물	-1049
▁안녕	-1050
▁등록	-1051
▁검찰	-1052
▁정권	-1053
▁자동차	-1054
▁으로서	-1055
▁규제	-1056
▁경쟁	-1057
▁임대	-1058
▁본인	-1059
▁봐	-1060
▁남자	-1061
▁자치	-1062
▁환자	-1063
▁위원장	-1064
▁밖에	-1065
▁작품	-1066
▁실제	-1067
▁암	-1068
▁초등	-1069
▁성공	-1070
▁혁신	-1071
▁경기도	-1072
▁놀	-1073
▁먼저	-1074
▁의미	-1075
▁그것	-1076
▁체험	-1077
▁올림	-1078
▁다니	-1079
▁률	-1080
▁티	-1081
▁고려	-1082
▁둘	-1083
▁남성	-1084
▁의무	-1085
▁2017	-1086
▁주변	-1087
▁그래서	-1088
▁품	-1089
▁삶	-1090
▁결국	-1091
▁]	-1092
▁삼성	-1093
▁농업	-1094
▁확진	-1095
▁담당	-1096
▁려고	-1097
▁수도	-1098
▁행복	-1099
▁[	-1100
▁조금	-1101
▁종합	-1102
▁어느	-1103
▁c	-1104
▁펼	-1105
▁인간	-1106
인다	-1107
▁사망	-1108
▁전화	-1109
▁보건	-1110
▁요즘	-1111
▁변화	-1112
▁떨어	-1113
▁뭐	-1114
▁고등	-1115
▁강조	-1116
▁인사	-1117
▁공원	-1118
▁매우	-1119
▁존재	-1120
▁보내	-1121
▁겁니다	-1122
▁29	-1123
▁고자	-1124
너지	-1125
▁무엇	-1126
▁198	-1127
▁따른	-1128
▁홍보	-1129
▁제한	-1130
▁감염	-1131
▁자격	-1132
▁로부터	-1133
▁압	-1134
거리	-1135
▁나이	-1136
▁입니까	-1137
▁지구	-1138
▁풀	-1139
▁사무	-1140
▁참석	-1141
▁전쟁	-1142
▁분석	-1143
▁예술	-1144
▁현대	-1145
라고	-1146
▁견	-1147
▁축구	-1148
▁자원	-1149
▁스타	-1150
마트	-1151
▁우선	-1152
▁공연	-1153
▁그냥	-1154
▁믿	-1155
▁캠	-1156
▁촉	-1157
▁인상	-1158
▁올림픽	-1159
▁이사	-1160
▁지도	-1161
▁도입	-1162
▁몸	-1163
▁올라	-1164
▁아동	-1165
▁했으며	-1166
▁판단	-1167
▁위험	-1168
▁율	-1169
▁선택	-1170
▁세대	-1171
▁자연	-1172
▁배우	-1173
▁우수	-1174
▁재산	-1175
▁각종	-1176
▁가구	-1177
▁사례	-1178
▁단계	-1179
▁풍	-1180
▁평화	-1181
▁방역	-1182
▁참가	-1183
▁기념	-1184
▁운전	-1185
▁집중	-1186
▁충북	-1187
이지	-1188
▁경영	-1189
▁기반	-1190
▁혐	-1191
▁전달	-1192
▁영상	-1193
▁제안	-1194
▁지적	-1195
▁자료	-1196
▁소속	-1197
▁세상	-1198
▁행동	-1199
▁쉽	-1200
▁경북	-1201
▁최초	-1202
▁투기	-1203
▁가치	-1204
▁역시	-1205
▁캐	-1206
▁노인	-1207
--	-1208
▁충남	-1209
▁민원	-1210
▁공정	-1211
▁지나	-1212
▁통합	-1213
▁빨	-1214
▁E	-1215
▁기능	-1216
▁더불	-1217
▁최소	-1218
▁앞서	-1219
▁음악	-1220
▁은행	-1221
▁의사	-1222
▁외국인	-1223
▁60	-1224
▁검토	-1225
▁십시오	-1226
이스	-1227
▁본부	-1228
머니	-1229
▁근로자	-1230
▁온라인	-1231
▁감소	-1232
▁능력	-1233
▁이뤄	-1234
▁겪	-1235
▁독립	-1236
▁31	-1237
▁버스	-1238
▁상승	-1239
er	-1240
▁단지	-1241
이터	-1242
▁주차	-1243
▁지요	-1244
▁인한	-1245
▁어려운	-1246
▁2020	-1247
▁건물	-1248
▁아닙니다	-1249
▁당장	-1250
▁친구	-1251
▁워	-1252
이트	-1253
▁혹	-1254
▁셔	-1255
▁싸	-1256
▁동의	-1257
▁장기	-1258
▁상품	-1259
▁보장	-1260
▁돌아	-1261
▁&	-1262
▁꿈	-1263
▁시기	-1264
▁000	-1265
▁인력	-1266
▁체계	-1267
▁설립	-1268
버지	-1269
▁전시	-1270
▁히	-1271
▁으로써	-1272
▁목적	-1273
▁못한	-1274
▁곡	-1275
▁좌	-1276
▁아들	-1277
▁졸	-1278
▁구매	-1279
▁그룹	-1280
▁각각	-1281
▁이하	-1282
▁가입	-1283
▁지켜	-1284
▁재판	-1285
▁올리	-1286
▁출연	-1287
러스	-1288
▁작업	-1289
▁h	-1290
▁짓	-1291
▁퍼	-1292
▁조정	-1293
▁쇼	-1294
▁직장	-1295
▁과학	-1296
▁어렵	-1297
▁목표	-1298
▁N	-1299
▁분양	-1300
▁대로	-1301
▁잔	-1302
▁민간	-1303
▁이게	-1304
▁도와	-1305
▁수상	-1306
▁오전	-1307
▁바라	-1308
▁스마트	-1309
▁평균	-1310
▁빌	-1311
▁불편	-1312
▁변경	-1313
▁채용	-1314
▁서로	-1315
▁km	-1316
▁결혼	-1317
▁즐	-1318
▁소리	-1319
▁술	-1320
▁수출	-1321
▁확산	-1322
▁그렇게	-1323
▁강원	-1324
▁건축	-1325
▁욕	-1326
▁반영	-1327
소리	-1328
▁우려	-1329
▁어디	-1330
▁2021	-1331
▁제외	-1332
▁무슨	-1333
▁관한	-1334
▁발견	-1335
▁프랑	-1336
▁궁	-1337
▁빈	-1338
▁차지	-1339
▁심각	-1340
▁최종	-1341
▁집단	-1342
▁공장	-1343
▁보도	-1344
▁전문가	-1345
▁전망	-1346
▁점검	-1347
▁중소기업	-1348
▁내려	-1349
▁규정	-1350
▁녹	-1351
▁영국	-1352
▁겨	-1353
▁전환	-1354
▁경험	-1355
▁에너지	-1356
▁화폐	-1357
▁전했	-1358
▁출신	-1359
▁봉사	-1360
▁차별	-1361
▁기초	-1362
▁당진	-1363
▁동시	-1364
▁된다고	-1365
▁자금	-1366
▁땅	-1367
▁철도	-1368
on	-1369
학생	-1370
▁과거	-1371
▁컨	-1372
▁보상	-1373
▁영업	-1374
▁고객	-1375
▁섬	-1376
스크	-1377
▁께서	-1378
▁인터넷	-1379
▁금액	-1380
▁협회	-1381
▁혈	-1382
▁가진	-1383
▁공항	-1384
▁심사	-1385
▁국토	-1386
▁정의	-1387
어난	-1388
▁자녀	-1389
▁듣	-1390
▁거의	-1391
▁지사	-1392
므로	-1393
▁꾸	-1394
▁공식	-1395
▁협약	-1396
▁군대	-1397
▁뛰	-1398
▁지하	-1399
▁훈련	-1400
▁지난달	-1401
▁공모	-1402
▁교육청	-1403
▁창업	-1404
▁소통	-1405
▁생명	-1406
▁숨	-1407
▁거주	-1408
▁나온	-1409
▁읍	-1410
▁말씀	-1411
▁더라도	-1412
주시	-1413
▁방향	-1414
▁예상	-1415
▁권리	-1416
▁거쳐	-1417
▁마지	-1418
▁끌	-1419
▁내년	-1420
▁고통	-1421
▁상당	-1422
BS	-1423
▁높이	-1424
▁독일	-1425
드시	-1426
▁일정	-1427
▁들어가	-1428
an	-1429
▁이익	-1430
▁스포	-1431
▁폭행	-1432
▁숙	-1433
▁솔	-1434
▁반드시	-1435
▁학년	-1436
▁2016	-1437
▁정당	-1438
▁제기	-1439
▁평등	-1440
▁투표	-1441
▁70	-1442
▁위기	-1443
▁한테	-1444
▁드라	-1445
▁언제	-1446
다면	-1447
▁옥	-1448
▁잇	-1449
▁통한	-1450
▁흥	-1451
▁니까	-1452
▁쿠	-1453
▁항공	-1454
동안	-1455
▁당연	-1456
▁대체	-1457
▁축제	-1458
▁마지막	-1459
▁수행	-1460
▁어려움	-1461
▁지자	-1462
▁197	-1463
in	-1464
▁어도	-1465
▁려는	-1466
▁얼마나	-1467
▁개혁	-1468
▁논의	-1469
▁프랑스	-1470
▁끼	-1471
▁답변	-1472
▁카드	-1473
▁광고	-1474
▁헤	-1475
▁기획	-1476
▁뽑	-1477
▁가해	-1478
▁제출	-1479
▁통신	-1480
▁인가	-1481
▁만나	-1482
▁신규	-1483
▁이동	-1484
▁우승	-1485
▁낙	-1486
▁아버지	-1487
▁혐의	-1488
전히	-1489
▁딸	-1490
▁▲	-1491
▁붙	-1492
▁넣	-1493
▁사이트	-1494
▁십시요	-1495
▁절차	-1496
▁인식	-1497
레스	-1498
▁오히	-1499
▁졌	-1500
란다	-1501
▁당하	-1502
▁원인	-1503
▁여행	-1504
▁음식	-1505
▁슈	-1506
▁법원	-1507
▁으니	-1508
▁철저	-1509
▁조합	-1510
▁선생	-1511
▁강제	-1512
▁오히려	-1513
▁표현	-1514
▁제시	-1515
▁사전	-1516
없이	-1517
▁상담	-1518
▁쉬	-1519
▁공부	-1520
▁스포츠	-1521
▁방침	-1522
or	-1523
▁적폐	-1524
▁연기	-1525
▁한다면	-1526
▁드리	-1527
▁t	-1528
▁지키	-1529
▁투입	-1530
린다	-1531
▁찬	-1532
▁조건	-1533
▁소비자	-1534
▁가상	-1535
▁지자체	-1536
▁선발	-1537
▁공격	-1538
▁성과	-1539
▁유치원	-1540
▁최선	-1541
▁단속	-1542
▁폭력	-1543
▁식품	-1544
▁제주	-1545
▁방지	-1546
▁접수	-1547
▁그만	-1548
▁연결	-1549
▁형태	-1550
진다	-1551
▁전통	-1552
▁80	-1553
▁만든	-1554
▁고등학교	-1555
▁주제	-1556
▁을까요	-1557
▁대신	-1558
▁아래	-1559
▁비판	-1560
▁젊	-1561
▁판결	-1562
▁유럽	-1563
▁못했	-1564
▁부정	-1565
▁걱	-1566
▁불구	-1567
▁U	-1568
▁부부	-1569
▁창출	-1570
▁여부	-1571
▁졸업	-1572
▁걱정	-1573
▁차이	-1574
▁500	-1575
▁조차	-1576
▁수요	-1577
▁깨	-1578
▁국방	-1579
▁값	-1580
▁주식	-1581
▁도서	-1582
나라	-1583
▁월급	-1584
▁드러	-1585
▁전략	-1586
▁전자	-1587
▁살인	-1588
▁양성	-1589
페인	-1590
▁연계	-1591
▁줘	-1592
▁어린이집	-1593
▁밤	-1594
▁공유	-1595
▁염	-1596
▁바란다	-1597
▁비리	-1598
페이지	-1599
▁보인다	-1600
▁홈페이지	-1601
▁가까	-1602
심히	-1603
▁위반	-1604
▁경남	-1605
▁보고	-1606
▁슬	-1607
호사	-1608
▁똑	-1609
▁봤	-1610
일보	-1611
▁집행	-1612
▁전혀	-1613
▁재정	-1614
▁R	-1615
▁통과	-1616
▁팬	-1617
▁매년	-1618
▁196	-1619
▁부지	-1620
▁충분	-1621
▁구역	-1622
▁보유	-1623
▁라이	-1624
▁웃	-1625
▁H	-1626
▁화재	-1627
▁총장	-1628
▁구속	-1629
▁차례	-1630
▁인도	-1631
▁토지	-1632
▁이라고	-1633
▁TV	-1634
▁아요	-1635
▁모델	-1636
▁진짜	-1637
▁재단	-1638
▁쪽	-1639
▁빼	-1640
▁얘	-1641
어지	-1642
▁노동자	-1643
▁육성	-1644
▁스럽	-1645
▁류	-1646
▁열심히	-1647
▁괴	-1648
▁소재	-1649
▁힘든	-1650
▁전북	-1651
▁합의	-1652
▁O	-1653
▁그럼	-1654
▁법률	-1655
▁연합	-1656
▁내부	-1657
▁액	-1658
▁정확	-1659
▁인근	-1660
▁제조	-1661
▁사장	-1662
▁벤	-1663
▁억울	-1664
▁주로	-1665
▁균	-1666
▁차원	-1667
▁목소리	-1668
▁헌법	-1669
▁버리	-1670
디오	-1671
▁져	-1672
▁흡	-1673
▁일어나	-1674
▁2015	-1675
▁시절	-1676
▁색	-1677
▁수업	-1678
산물	-1679
▁난민	-1680
▁본격	-1681
▁발굴	-1682
디어	-1683
▁주인	-1684
▁회원	-1685
▁입주	-1686
▁보수	-1687
스로	-1688
▁판사	-1689
▁원장	-1690
▁만드	-1691
▁35	-1692
▁브랜드	-1693
▁키우	-1694
▁운행	-1695
▁잃	-1696
▁진정	-1697
▁당신	-1698
▁인증	-1699
▁쓰레	-1700
▁드라마	-1701
▁정비	-1702
▁대형	-1703
▁300	-1704
▁작가	-1705
▁사법	-1706
▁갔	-1707
ww	-1708
▁주도	-1709
▁절대	-1710
▁쓰레기	-1711
▁기여	-1712
▁출산	-1713
▁모집	-1714
▁남북	-1715
▁가해자	-1716
▁체결	-1717
▁설계	-1718
▁시급	-1719
리스	-1720
▁달리	-1721
▁나왔	-1722
▁푸	-1723
▁소유	-1724
▁p	-1725
▁농가	-1726
▁세력	-1727
▁합니까	-1728
▁수당	-1729
ti	-1730
▁급여	-1731
▁노선	-1732
▁따라서	-1733
▁해양	-1734
▁논란	-1735
▁전부	-1736
▁스스로	-1737
▁읽	-1738
▁%,	-1739
▁학부	-1740
▁써	-1741
▁사태	-1742
▁러시아	-1743
▁불안	-1744
▁글로	-1745
▁법인	-1746
▁국립	-1747
▁다만	-1748
▁에선	-1749
▁연장	-1750
▁없애	-1751
▁나타났	-1752
▁사기	-1753
▁묻	-1754
▁인원	-1755
▁익	-1756
▁디자	-1757
▁오르	-1758
▁특정	-1759
▁진출	-1760
▁예비	-1761
▁향상	-1762
▁택시	-1763
▁스트	-1764
반기	-1765
▁비교	-1766
▁중단	-1767
▁엄마	-1768
▁얘기	-1769
▁의혹	-1770
▁천만	-1771
▁부문	-1772
▁타이	-1773
▁그동안	-1774
▁토론	-1775
시다	-1776
러운	-1777
▁여론	-1778
▁이끌	-1779
▁으로부터	-1780
▁정규	-1781
▁진단	-1782
▁인가요	-1783
▁편의	-1784
▁담배	-1785
▁거부	-1786
▁분위	-1787
▁주거	-1788
▁보조	-1789
▁세기	-1790
▁’,	-1791
▁민족	-1792
▁194	-1793
우스	-1794
ar	-1795
텐츠	-1796
▁비해	-1797
▁수립	-1798
▁직업	-1799
▁파악	-1800
▁누가	-1801
▁s	-1802
▁링	-1803
▁깊	-1804
▁밝혀	-1805
▁자세	-1806
▁승리	-1807
▁이건	-1808
▁느끼	-1809
▁여러분	-1810
▁이명	-1811
▁홀	-1812
▁핵심	-1813
▁선보	-1814
▁낳	-1815
▁올려	-1816
▁마시	-1817
▁매일	-1818
▁그대로	-1819
▁재난	-1820
▁인기	-1821
▁해소	-1822
▁글로벌	-1823
▁바뀌	-1824
▁학습	-1825
▁이르	-1826
▁수입	-1827
tt	-1828
▁공단	-1829
▁통일	-1830
▁집값	-1831
▁종교	-1832
▁은데	-1833
▁여야	-1834
▁포항	-1835
▁수원	-1836
▁가져	-1837
▁교회	-1838
▁는가	-1839
▁였으며	-1840
▁n	-1841
▁덕	-1842
▁무시	-1843
▁흔	-1844
▁사과	-1845
▁아주	-1846
▁권력	-1847
▁확정	-1848
▁작성	-1849
▁흐	-1850
인트	-1851
▁늦	-1852
▁공인	-1853
가지	-1854
▁허가	-1855
듭니다	-1856
▁엄청	-1857
라이	-1858
▁;	-1859
▁기다	-1860
▁g	-1861
▁W	-1862
환경	-1863
▁유통	-1864
▁속도	-1865
스터	-1866
~~	-1867
▁연속	-1868
▁위하	-1869
▁무대	-1870
▁김정	-1871
▁넘어	-1872
▁건립	-1873
▁물질	-1874
▁데이터	-1875
▁촉구	-1876
▁안타	-1877
▁낸	-1878
▁바람	-1879
▁칼	-1880
▁촬	-1881
▁회복	-1882
▁맛	-1883
▁평생	-1884
리카	-1885
▁댓	-1886
▁움	-1887
군요	-1888
▁계기	-1889
▁감정	-1890
▁분명	-1891
▁비율	-1892
▁2000	-1893
en	-1894
▁저지	-1895
▁대중	-1896
사자	-1897
▁형성	-1898
▁발언	-1899
▁동일	-1900
▁촬영	-1901
한다	-1902
▁광주시	-1903
▁출전	-1904
▁광역	-1905
▁다르	-1906
▁너무나	-1907
▁프리	-1908
▁향후	-1909
▁둔	-1910
▁법안	-1911
BC	-1912
▁노래	-1913
▁콘텐츠	-1914
▁달러	-1915
▁싱	-1916
▁디자인	-1917
▁195	-1918
어났	-1919
▁시도	-1920
▁민주주의	-1921
▁유명	-1922
▁했으나	-1923
▁줄어	-1924
▁전하	-1925
▁공직	-1926
▁과연	-1927
▁나와	-1928
▁번호	-1929
▁도서관	-1930
▁사라	-1931
▁36	-1932
▁외교	-1933
▁찍	-1934
▁임시	-1935
▁역량	-1936
▁등급	-1937
▁고민	-1938
▁찾아	-1939
▁컴	-1940
▁등장	-1941
▁신경	-1942
▁분위기	-1943
▁구청	-1944
▁탐	-1945
▁J	-1946
▁협의회	-1947
▁여름	-1948
▁인하	-1949
요일	-1950
▁반면	-1951
▁짜	-1952
▁구간	-1953
▁꽃	-1954
▁밥	-1955
▁요금	-1956
▁학원	-1957
▁군수	-1958
▁군인	-1959
▁부탁드	-1960
▁매출	-1961
▁나서	-1962
▁전투	-1963
▁빛	-1964
▁줄이	-1965
니아	-1966
▁기억	-1967
▁2014	-1968
▁소송	-1969
▁소개	-1970
▁특성	-1971
▁증거	-1972
▁당국	-1973
▁항상	-1974
▁대하	-1975
▁음주	-1976
▁수술	-1977
▁과장	-1978
▁**	-1979
▁신뢰	-1980
▁군사	-1981
▁일으	-1982
▁영어	-1983
▁시켰	-1984
산시	-1985
▁반응	-1986
▁척	-1987
▁완료	-1988
▁계층	-1989
▁현지	-1990
▁으면서	-1991
▁멀	-1992
▁어머니	-1993
▁벗	-1994
▁확실	-1995
▁32	-1996
▁기부	-1997
▁부여	-1998
om	-1999
▁의식	-2000
▁안내	-2001
▁단순	-2002
▁획	-2003
운드	-2004
▁탑	-2005
▁일상	-2006
▁실천	-2007
▁횡	-2008
▁조례	-2009
▁빨리	-2010
▁건가요	-2011
▁사업자	-2012
▁건지	-2013
▁혁명	-2014
▁콜	-2015
▁수익	-2016
▁꺼	-2017
▁구체	-2018
▁장소	-2019
▁전해	-2020
▁효율	-2021
▁기타	-2022
▁대기	-2023
ttp	-2024
▁월드	-2025
▁현상	-2026
▁낭	-2027
이션	-2028
▁약속	-2029
▁언급	-2030
▁바꾸	-2031
▁취약	-2032
▁똑같	-2033
▁생기	-2034
▁궁금	-2035
▁http	-2036
▁>	-2037
▁혹은	-2038
▁부서	-2039
▁세종	-2040
▁이명박	-2041
▁33	-2042
▁겁니까	-2043
▁징역	-2044
▁달성	-2045
▁덧	-2046
▁무기	-2047
▁득	-2048
▁국정	-2049
▁천안	-2050
▁프로젝	-2051
▁배출	-2052
▁만약	-2053
▁무료	-2054
▁아프	-2055
▁취소	-2056
▁을까	-2057
▁박근	-2058
▁대구시	-2059
▁화장	-2060
▁청산	-2061
화국	-2062
▁초기	-2063
▁교체	-2064
▁제정	-2065
▁조작	-2066
▁대화	-2067
▁흘	-2068
▁맞춤	-2069
▁임명	-2070
▁곧	-2071
▁의장	-2072
▁사상	-2073
▁벌금	-2074
▁셔서	-2075
▁유일	-2076
▁싫	-2077
▁게시	-2078
▁끊	-2079
▁더니	-2080
▁시킨	-2081
▁복합	-2082
▁출시	-2083
▁특수	-2084
▁디지	-2085
▁생태	-2086
▁강남	-2087
▁성적	-2088
▁야구	-2089
▁노조	-2090
▁프로젝트	-2091
▁융	-2092
▁공감	-2093
▁뇌	-2094
▁오래	-2095
▁45	-2096
▁과제	-2097
▁중학교	-2098
▁공기	-2099
▁근거	-2100
▁학부모	-2101
▁신속	-2102
▁옮	-2103
▁폐기	-2104
▁더군요	-2105
▁친환경	-2106
▁된다는	-2107
▁비슷	-2108
▁아시아	-2109
▁V	-2110
▁구입	-2111
▁이웃	-2112
▁첨	-2113
▁댓글	-2114
▁폴	-2115
▁머리	-2116
▁농협	-2117
▁부대	-2118
▁범죄자	-2119
▁90	-2120
▁알려졌	-2121
▁불리	-2122
▁포기	-2123
▁수많	-2124
▁교류	-2125
▁챙	-2126
▁묘	-2127
▁서류	-2128
▁전용	-2129
▁노후	-2130
▁부탁드립니다	-2131
▁갈등	-2132
▁앞두	-2133
▁헬	-2134
▁박근혜	-2135
▁장비	-2136
▁신설	-2137
▁허용	-2138
▁빚	-2139
▁롭	-2140
▁알리	-2141
▁앨	-2142
▁디지털	-2143
▁엘	-2144
▁배치	-2145
▁등등	-2146
▁니다	-2147
al	-2148
▁인물	-2149
▁선언	-2150
▁삭	-2151
▁65	-2152
▁아침	-2153
▁미술	-2154
▁마이	-2155
▁대상자	-2156
▁52	-2157
▁틀	-2158
▁바탕	-2159
▁다수	-2160
▁마치	-2161
▁수급	-2162
▁위협	-2163
▁명예	-2164
▁곤	-2165
▁오른	-2166
▁+	-2167
▁연구원	-2168
▁균형	-2169
▁덧붙	-2170
▁추천	-2171
▁지원금	-2172
▁살아가	-2173
▁보였	-2174
▁∼	-2175
▁나갈	-2176
▁복무	-2177
▁오염	-2178
▁처분	-2179
▁포인트	-2180
▁뮤	-2181
▁부과	-2182
▁SN	-2183
▁용역	-2184
▁실현	-2185
▁쓸	-2186
▁려면	-2187
▁고속	-2188
▁연락	-2189
▁수영	-2190
▁불가	-2191
▁마스크	-2192
▁뿌	-2193
▁주관	-2194
아들	-2195
▁로운	-2196
▁신문	-2197
▁만족	-2198
▁바이러스	-2199
▁울산	-2200
▁실제로	-2201
▁개소	-2202
▁수용	-2203
▁2010	-2204
▁성인	-2205
▁도대	-2206
▁올랐	-2207
▁농촌	-2208
▁’(	-2209
▁모아	-2210
▁롯	-2211
▁겸	-2212
▁보통	-2213
▁플랫	-2214
프트	-2215
▁법무	-2216
▁십니까	-2217
▁이재	-2218
▁도대체	-2219
▁공약	-2220
▁문자	-2221
▁변호사	-2222
▁얼굴	-2223
▁봄	-2224
▁경찰서	-2225
▁차단	-2226
▁2013	-2227
▁이달	-2228
▁데뷔	-2229
▁작년	-2230
▁??	-2231
▁그린	-2232
▁돕	-2233
▁폐쇄	-2234
▁<	-2235
무리	-2236
▁자주	-2237
▁취지	-2238
▁자영	-2239
30	-2240
▁순위	-2241
▁므로	-2242
▁수소	-2243
▁의한	-2244
란드	-2245
▁국당	-2246
▁실질	-2247
▁폼	-2248
▁당부	-2249
▁랑	-2250
▁전세	-2251
▁쌓	-2252
▁이탈	-2253
▁접근	-2254
▁정치인	-2255
반도	-2256
▁나섰	-2257
▁시점	-2258
▁SNS	-2259
▁신용	-2260
수록	-2261
공사	-2262
▁보육	-2263
▁거짓	-2264
▁나머	-2265
▁2012	-2266
▁납부	-2267
스코	-2268
▁옛	-2269
▁원칙	-2270
튜브	-2271
▁르	-2272
조건	-2273
▁주목	-2274
▁자영업	-2275
▁가리	-2276
▁기원	-2277
▁실패	-2278
▁%),	-2279
▁나머지	-2280
▁의심	-2281
▁강원도	-2282
▁마무리	-2283
▁1000	-2284
▁활약	-2285
▁전반	-2286
▁이곳	-2287
▁남편	-2288
▁경력	-2289
▁혼자	-2290
이드	-2291
▁전년	-2292
▁아무리	-2293
▁34	-2294
▁불과	-2295
▁그녀	-2296
▁충청	-2297
▁움직	-2298
▁넓	-2299
▁돌아가	-2300
▁희생	-2301
▁형사	-2302
▁!!	-2303
▁맥	-2304
▁나선	-2305
합니다	-2306
▁론	-2307
▁자식	-2308
▁걷	-2309
▁살아	-2310
▁사업비	-2311
▁경쟁력	-2312
▁실업	-2313
▁언어	-2314
▁무조건	-2315
▁진료	-2316
▁승인	-2317
▁순간	-2318
▁어르	-2319
▁펼쳐	-2320
▁합리	-2321
▁맨	-2322
▁뜨	-2323
▁냉	-2324
re	-2325
버스	-2326
▁부당	-2327
▁분류	-2328
▁인생	-2329
▁아도	-2330
▁주년	-2331
▁였으나	-2332
▁고령	-2333
▁질문	-2334
▁비상	-2335
▁마찬	-2336
----	-2337
▁총리	-2338
▁유기	-2339
▁뒷	-2340
▁겨울	-2341
▁부르	-2342
▁회담	-2343
▁장치	-2344
▁구요	-2345
남도	-2346
▁소년	-2347
▁소식	-2348
▁2011	-2349
▁춘	-2350
▁유튜브	-2351
▁어르신	-2352
▁열리	-2353
▁마찬가지	-2354
▁나무	-2355
▁걸쳐	-2356
▁자는	-2357
▁롯데	-2358
▁점점	-2359
▁시위	-2360
▁후원	-2361
▁성폭	-2362
▁자살	-2363
▁지식	-2364
▁보증	-2365
▁으려	-2366
소득	-2367
▁늘어나	-2368
▁줬	-2369
▁2008	-2370
▁판정	-2371
교육	-2372
▁빠른	-2373
▁됨	-2374
▁시리	-2375
▁옆	-2376
▁응답	-2377
▁채널	-2378
▁웨	-2379
▁답답	-2380
▁침해	-2381
▁떠나	-2382
▁가수	-2383
▁한반도	-2384
▁경상	-2385
▁아닌가요	-2386
▁부디	-2387
▁청구	-2388
▁외부	-2389
이버	-2390
▁꼬	-2391
▁연수	-2392
▁입학	-2393
▁흡연	-2394
▁부처	-2395
▁확장	-2396
▁아닙니까	-2397
▁분기	-2398
▁다며	-2399
으면	-2400
▁플레이	-2401
▁청주	-2402
▁KBS	-2403
▁유공	-2404
▁반복	-2405
▁줘야	-2406
▁아무런	-2407
▁태양	-2408
▁38	-2409
▁취임	-2410
▁선고	-2411
▁돌봄	-2412
▁받아들	-2413
▁완화	-2414
▁병역	-2415
▁휘	-2416
▁돌려	-2417
▁들여	-2418
▁유도	-2419
▁여전히	-2420
▁업계	-2421
▁남녀	-2422
▁긴급	-2423
▁쳐	-2424
▁벨	-2425
▁할인	-2426
▁수수	-2427
▁대사	-2428
▁멤	-2429
▁미만	-2430
▁근데	-2431
▁선진	-2432
▁사유	-2433
사고	-2434
▁창원	-2435
▁37	-2436
▁덧붙였	-2437
▁추정	-2438
프라	-2439
▁심지	-2440
▁정해	-2441
▁다이	-2442
▁쯤	-2443
▁체제	-2444
▁마리	-2445
▁캠페인	-2446
id	-2447
▁아울	-2448
▁클럽	-2449
▁맞춰	-2450
▁조기	-2451
운전	-2452
▁이어지	-2453
북도	-2454
▁김영	-2455
▁이미지	-2456
▁지진	-2457
▁음성	-2458
▁로써	-2459
▁발매	-2460
▁심리	-2461
▁국장	-2462
어진	-2463
▁면적	-2464
▁나눔	-2465
▁쓴	-2466
▁당연히	-2467
▁바꿔	-2468
트남	-2469
▁된다면	-2470
▁일제	-2471
▁가졌	-2472
세요	-2473
▁정리	-2474
▁소장	-2475
시지	-2476
▁아르	-2477
▁누리	-2478
▁어떠	-2479
▁자율	-2480
▁고발	-2481
▁당선	-2482
▁상호	-2483
▁투명	-2484
▁맘	-2485
▁주말	-2486
▁정기	-2487
▁앨범	-2488
▁심지어	-2489
▁선출	-2490
▁이행	-2491
▁하락	-2492
▁정원	-2493
▁취득	-2494
▁명령	-2495
▁일원	-2496
▁손해	-2497
▁여건	-2498
▁대변	-2499
▁거기	-2500
▁극복	-2501
▁카페	-2502
▁맺	-2503
▁촛	-2504
▁분리	-2505
▁나누	-2506
▁소중	-2507
▁기구	-2508
▁가스	-2509
▁기계	-2510
▁2009	-2511
▁출국	-2512
▁장학	-2513
▁인민	-2514
▁39	-2515
▁퇴직	-2516
▁도민	-2517
▁족	-2518
▁면허	-2519
▁상생	-2520
▁멤버	-2521
▁192	-2522
▁단위	-2523
▁자랑	-2524
▁반려	-2525
▁텐	-2526
▁시리즈	-2527
▁별도	-2528
▁관광객	-2529
▁그때	-2530
▁내놓	-2531
▁주차장	-2532
▁편성	-2533
▁고요	-2534
▁제국	-2535
▁소상	-2536
▁종목	-2537
▁해라	-2538
범죄	-2539
▁군민	-2540
▁부상	-2541
▁공동체	-2542
▁b	-2543
▁원래	-2544
▁마저	-2545
▁코스	-2546
▁직무	-2547
▁앱	-2548
▁학대	-2549
▁심의	-2550
▁숲	-2551
▁촛불	-2552
▁공산	-2553
전자	-2554
▁가량	-2555
▁전력	-2556
▁개편	-2557
▁l	-2558
▁바이오	-2559
▁국무	-2560
▁듯이	-2561
▁밑	-2562
▁정착	-2563
▁베트남	-2564
▁보급	-2565
▁아름	-2566
▁55	-2567
▁냈	-2568
▁충분히	-2569
▁대선	-2570
▁통계	-2571
▁SK	-2572
▁칸	-2573
▁유공자	-2574
▁재생	-2575
▁교육부	-2576
▁시킬	-2577
▁문의	-2578
▁FC	-2579
▁분노	-2580
▁요소	-2581
▁협상	-2582
▁자국	-2583
▁레이	-2584
▁범위	-2585
▁당했	-2586
▁아닐	-2587
▁고양	-2588
▁인재	-2589
▁조두	-2590
▁남부	-2591
▁의지	-2592
▁응원	-2593
담회	-2594
▁지하철	-2595
▁중간	-2596
!!!!	-2597
▁합격	-2598
훼손	-2599
▁바다	-2600
▁요양	-2601
▁하이	-2602
▁스트레스	-2603
▁75	-2604
▁알아	-2605
▁매장	-2606
▁사형	-2607
▁정지	-2608
▁실행	-2609
▁아울러	-2610
▁연맹	-2611
▁a	-2612
▁내리	-2613
▁시티	-2614
▁동참	-2615
▁조두순	-2616
▁193	-2617
▁진실	-2618
▁칠	-2619
▁꾸준	-2620
▁개념	-2621
▁건의	-2622
▁아마	-2623
메달	-2624
▁원전	-2625
라스	-2626
▁실정	-2627
▁교실	-2628
▁부장	-2629
▁스러운	-2630
▁최소한	-2631
▁세워	-2632
▁비행	-2633
▁수십	-2634
▁연구소	-2635
▁동아	-2636
▁완전	-2637
▁형식	-2638
▁간담회	-2639
▁출입	-2640
▁인공	-2641
▁191	-2642
▁덜	-2643
▁물가	-2644
물관	-2645
▁소음	-2646
▁짧	-2647
CT	-2648
▁빠르	-2649
▁놈	-2650
▁가슴	-2651
▁광양	-2652
▁이탈리아	-2653
▁→	-2654
▁LG	-2655
▁던지	-2656
▁선물	-2657
▁나타나	-2658
▁인프라	-2659
▁네이버	-2660
▁기울	-2661
▁대처	-2662
▁긍	-2663
▁방치	-2664
▁문학	-2665
▁공매	-2666
▁상공	-2667
▁문제점	-2668
▁가르	-2669
▁400	-2670
▁완성	-2671
▁kr	-2672
....	-2673
▁세월	-2674
▁총선	-2675
▁호소	-2676
▁앉	-2677
▁전면	-2678
▁그림	-2679
▁접촉	-2680
▁문화재	-2681
▁뭔	-2682
▁모양	-2683
▁해석	-2684
▁도전	-2685
▁그래도	-2686
천시	-2687
▁비대	-2688
▁아내	-2689
▁통제	-2690
▁단일	-2691
▁쌍	-2692
▁감시	-2693
▁호텔	-2694
천군	-2695
▁모임	-2696
▁주의	-2697
▁철저히	-2698
▁시범	-2699
▁양심	-2700
▁질환	-2701
▁났	-2702
▁기에	-2703
자기	-2704
▁대법	-2705
▁학과	-2706
▁잖	-2707
▁고위	-2708
▁유리	-2709
▁로마	-2710
▁미치	-2711
▁시정	-2712
▁올립니다	-2713
▁스토	-2714
==	-2715
▁_	-2716
▁생계	-2717
▁와서	-2718
▁느냐	-2719
▁산림	-2720
▁줄어들	-2721
▁박물관	-2722
▁발전소	-2723
▁지휘	-2724
▁자본	-2725
▁지상	-2726
▁현안	-2727
▁측정	-2728
▁고소	-2729
▁수정	-2730
▁신호	-2731
▁표준	-2732
▁필수	-2733
▁강한	-2734
▁구분	-2735
▁특징	-2736
▁알려져	-2737
▁금리	-2738
▁존경	-2739
▁*	-2740
▁제일	-2741
▁정규직	-2742
▁예전	-2743
▁청장	-2744
▁그게	-2745
직원	-2746
▁연대	-2747
▁42	-2748
▁지시	-2749
▁하늘	-2750
▁명칭	-2751
다수	-2752
▁f	-2753
▁한데	-2754
▁증명	-2755
▁서구	-2756
▁굴	-2757
▁성범죄	-2758
▁실장	-2759
▁투자자	-2760
▁관람	-2761
▁빅	-2762
▁휴대	-2763
▁2007	-2764
은행	-2765
▁낭비	-2766
▁2022	-2767
▁훨	-2768
▁네트	-2769
거운	-2770
▁듭니다	-2771
▁나온다	-2772
▁운전자	-2773
▁꼽	-2774
른다	-2775
▁이론	-2776
▁김해	-2777
▁출범	-2778
▁탁	-2779
▁달라	-2780
▁협조	-2781
▁서울시	-2782
▁국비	-2783
▁표시	-2784
▁5000	-2785
▁48	-2786
▁41	-2787
▁거래소	-2788
▁가까운	-2789
▁역대	-2790
▁원자	-2791
▁부산시	-2792
▁com	-2793
▁읍니다	-2794
▁벽	-2795
▁목숨	-2796
벤트	-2797
▁올바	-2798
▁권한	-2799
▁불러	-2800
▁자산	-2801
▁안심	-2802
▁사단	-2803
▁통화	-2804
▁법무부	-2805
▁미디어	-2806
▁동양	-2807
▁동네	-2808
▁죽이	-2809
▁을지	-2810
▁칭	-2811
▁임기	-2812
▁작용	-2813
▁검색	-2814
▁식당	-2815
▁신분	-2816
▁라인	-2817
▁치매	-2818
▁대리	-2819
▁월드컵	-2820
▁상관	-2821
▁컬	-2822
▁제재	-2823
▁훼손	-2824
▁선도	-2825
▁면제	-2826
▁집회	-2827
▁샤	-2828
▁LH	-2829
▁실적	-2830
▁배달	-2831
▁이벤트	-2832
▁이외	-2833
▁탓	-2834
▁입법	-2835
▁어찌	-2836
▁반도	-2837
▁대다수	-2838
워크	-2839
▁무역	-2840
▁메이	-2841
▁육아	-2842
▁유아	-2843
▁떨어지	-2844
라리	-2845
▁수석	-2846
▁맹	-2847
▁당한	-2848
▁진입	-2849
▁ww	-2850
ᄏᄏ	-2851
▁화학	-2852
▁동구	-2853
니스	-2854
▁www	-2855
▁사정	-2856
▁살펴	-2857
▁긍정	-2858
▁KT	-2859
▁래	-2860
▁런	-2861
▁할지	-2862
▁당진시	-2863
▁유사	-2864
▁제거	-2865
▁훨씬	-2866
▁쏟	-2867
▁는다는	-2868
▁보험료	-2869
▁공직자	-2870
▁도심	-2871
▁뿌리	-2872
▁실험	-2873
비아	-2874
▁150	-2875
▁구단	-2876
??	-2877
▁업종	-2878
▁의하	-2879
▁음주운전	-2880
▁객	-2881
▁우주	-2882
▁휴가	-2883
▁앤	-2884
▁일단	-2885
▁올렸	-2886
▁인터뷰	-2887
▁묵	-2888
es	-2889
▁나아가	-2890
아지	-2891
▁손실	-2892
▁는데요	-2893
임금	-2894
ou	-2895
▁는다고	-2896
▁평창	-2897
총리	-2898
▁화물	-2899
▁허위	-2900
▁실수	-2901
▁수단	-2902
▁질병	-2903
▁기다리	-2904
▁솔직	-2905
▁▶	-2906
출산	-2907
▁브라	-2908
▁못해	-2909
▁이자	-2910
▁해제	-2911
▁영역	-2912
▁공고	-2913
▁느낌	-2914
▁여수	-2915
▁기후	-2916
▁신체	-2917
▁해요	-2918
▁검증	-2919
▁짐	-2920
▁늘리	-2921
▁연령	-2922
▁동생	-2923
▁쇼핑	-2924
▁컴퓨	-2925
▁탄핵	-2926
▁밴	-2927
▁종사자	-2928
▁빠져	-2929
▁점수	-2930
▁시내	-2931
▁부품	-2932
▁연간	-2933
▁전날	-2934
▁전주	-2935
▁44	-2936
▁노출	-2937
▁전형	-2938
▁저출산	-2939
▁출근	-2940
▁출마	-2941
▁오픈	-2942
▁2006	-2943
▁자전	-2944
▁충격	-2945
▁대안	-2946
▁밝히	-2947
▁즈	-2948
▁도쿄	-2949
▁아빠	-2950
▁연봉	-2951
▁현황	-2952
▁북부	-2953
▁기소	-2954
어날	-2955
▁촌	-2956
▁최우	-2957
▁근본	-2958
▁량	-2959
▁살리	-2960
▁의문	-2961
▁누군	-2962
▁강의	-2963
▁최저임금	-2964
다운	-2965
▁수수료	-2966
▁대우	-2967
▁야당	-2968
▁쌀	-2969
▁MBC	-2970
▁공매도	-2971
단지	-2972
▁열차	-2973
▁새롭	-2974
▁더라	-2975
▁청사	-2976
▁경찰청	-2977
▁캐릭	-2978
▁마케	-2979
▁방해	-2980
▁연예	-2981
▁엄청난	-2982
▁나중	-2983
▁탄소	-2984
▁획득	-2985
▁널	-2986
▁출발	-2987
▁가로	-2988
▁찬성	-2989
▁종료	-2990
▁X	-2991
다가	-2992
▁컵	-2993
▁약자	-2994
▁파크	-2995
▁웹	-2996
la	-2997
▁관내	-2998
▁캐릭터	-2999
▁흑	-3000
▁갑자기	-3001
져야	-3002
▁저녁	-3003
▁예고	-3004
▁완전히	-3005
▁물리	-3006
▁가요	-3007
르크	-3008
▁참고	-3009
▁후반	-3010
▁증진	-3011
▁아기	-3012
조합	-3013
▁d	-3014
▁수능	-3015
▁낼	-3016
▁저소득	-3017
▁심판	-3018
▁다운	-3019
▁봐야	-3020
▁원내	-3021
▁KI	-3022
▁우리나라	-3023
나무	-3024
▁농산물	-3025
▁면접	-3026
▁',	-3027
▁도박	-3028
▁발행	-3029
▁따뜻	-3030
▁강사	-3031
▁셀	-3032
▁현행	-3033
▁명절	-3034
▁51	-3035
▁핑	-3036
▁무서	-3037
▁계산	-3038
▁비서	-3039
▁연주	-3040
▁상처	-3041
▁절반	-3042
▁느껴	-3043
▁회견	-3044
▁꾼	-3045
▁43	-3046
▁소수	-3047
▁매입	-3048
려야	-3049
▁자격증	-3050
▁골프	-3051
▁굳	-3052
▁지도자	-3053
▁잊	-3054
▁AI	-3055
▁챔	-3056
▁경로	-3057
▁동원	-3058
▁공화국	-3059
정부	-3060
▁반발	-3061
▁복귀	-3062
▁보안	-3063
▁예약	-3064
▁꼴	-3065
▁~~	-3066
▁그리스	-3067
▁축산	-3068
▁경기장	-3069
▁정작	-3070
▁주간	-3071
▁46	-3072
▁게시판	-3073
▁재배	-3074
▁즉시	-3075
▁케이	-3076
▁e	-3077
▁둘러	-3078
▁메시지	-3079
▁사립	-3080
ic	-3081
▁주소	-3082
▁간절	-3083
tion	-3084
▁수학	-3085
▁오랜	-3086
▁보호법	-3087
▁원하	-3088
▁대학생	-3089
▁죽음	-3090
▁주일	-3091
▁컴퓨터	-3092
구요	-3093
▁비난	-3094
▁증상	-3095
▁요리	-3096
▁찾아가	-3097
▁현금	-3098
▁전공	-3099
▁텔	-3100
▁네트워크	-3101
▁kg	-3102
▁간곡	-3103
▁통하	-3104
▁사업장	-3105
▁이래	-3106
▁개설	-3107
▁〉	-3108
▁펼치	-3109
▁인정받	-3110
▁응급	-3111
▁상징	-3112
운동	-3113
▁세우	-3114
▁시각	-3115
▁벤처	-3116
▁장려	-3117
▁부인	-3118
▁평소	-3119
▁몽	-3120
▁이슈	-3121
카오	-3122
▁김종	-3123
▁미리	-3124
ew	-3125
▁빙	-3126
is	-3127
▁수시	-3128
▁에어	-3129
▁〈	-3130
▁법정	-3131
▁전라	-3132
▁옷	-3133
▁갖추	-3134
at	-3135
▁상반기	-3136
▁먼지	-3137
▁브리	-3138
▁엑	-3139
▁타당	-3140
▁초과	-3141
▁든지	-3142
▁돼지	-3143
it	-3144
▁청약	-3145
▁설정	-3146
▁순환	-3147
▁준공	-3148
▁택배	-3149
▁품질	-3150
▁담당자	-3151
▁기독	-3152
▁통보	-3153
▁폐기물	-3154
▁차라리	-3155
▁전원	-3156
▁상식	-3157
▁주문	-3158
▁▷	-3159
le	-3160
▁매매	-3161
▁나올	-3162
▁비중	-3163
▁앞장	-3164
▁갖춘	-3165
▁서부	-3166
▁47	-3167
▁광장	-3168
▁아카	-3169
▁세트	-3170
▁적절	-3171
▁김정은	-3172
▁소프트	-3173
▁깨끗	-3174
▁줄여	-3175
▁걸로	-3176
▁실내	-3177
▁요인	-3178
▁스페인	-3179
▁지점	-3180
▁지배	-3181
▁자전거	-3182
▁합시다	-3183
▁물건	-3184
▁결승	-3185
▁어른	-3186
▁제목	-3187
▁아닌가	-3188
▁마케팅	-3189
▁개국	-3190
▁비트	-3191
▁통상	-3192
▁득점	-3193
▁도착	-3194
▁톤	-3195
▁단축	-3196
▁보존	-3197
▁논리	-3198
▁혈세	-3199
▁박사	-3200
▁선진국	-3201
▁킹	-3202
▁준다	-3203
▁특화	-3204
▁불만	-3205
▁음반	-3206
▁민국	-3207
▁착용	-3208
▁해체	-3209
▁49	-3210
▁보완	-3211
▁장난	-3212
▁존중	-3213
▁교통부	-3214
▁슈퍼	-3215
▁으시	-3216
▁물류	-3217
▁통해서	-3218
▁매력	-3219
▁꾸준히	-3220
▁대폭	-3221
▁장면	-3222
▁보건소	-3223
▁발급	-3224
▁페이스	-3225
▁54	-3226
▁위탁	-3227
▁생리	-3228
▁실무	-3229
▁관할	-3230
▁경계	-3231
▁털	-3232
▁베이	-3233
▁잉	-3234
▁다름	-3235
▁안보	-3236
▁여당	-3237
▁장학금	-3238
▁거듭	-3239
▁종류	-3240
▁2005	-3241
어도	-3242
▁북구	-3243
▁개방	-3244
▁이뤄지	-3245
▁비정	-3246
스타	-3247
▁생존	-3248
▁190	-3249
▁급식	-3250
▁소설	-3251
▁개정안	-3252
▁실력	-3253
▁피부	-3254
▁지내	-3255
▁시청자	-3256
▁반도체	-3257
▁의도	-3258
▁경비	-3259
▁모니	-3260
▁취급	-3261
▁단어	-3262
▁아예	-3263
▁투어	-3264
▁뻔	-3265
▁무리	-3266
▁설비	-3267
▁발달	-3268
바일	-3269
▁태도	-3270
▁파괴	-3271
▁따로	-3272
▁유발	-3273
회사	-3274
▁계시	-3275
▁정식	-3276
▁집계	-3277
▁배경	-3278
▁으신	-3279
▁이루어지	-3280
▁미군	-3281
▁사안	-3282
▁나눠	-3283
▁멘	-3284
▁챔피	-3285
▁힐	-3286
▁미사	-3287
▁구미	-3288
▁양육	-3289
▁전수	-3290
▁혼란	-3291
▁명확	-3292
해서	-3293
▁지침	-3294
▁포장	-3295
▁다리	-3296
▁유입	-3297
▁체육관	-3298
▁보조금	-3299
▁모바일	-3300
럼프	-3301
▁눈물	-3302
BO	-3303
지사	-3304
▁교통사고	-3305
▁결제	-3306
▁수칙	-3307
▁기분	-3308
▁장사	-3309
▁사법부	-3310
▁지명	-3311
▁쾌	-3312
▁하우스	-3313
▁합동	-3314
▁델	-3315
▁나쁜	-3316
▁간곡히	-3317
▁정체	-3318
▁옳	-3319
▁새벽	-3320
▁이기	-3321
▁ᅳ	-3322
▁코리아	-3323
▁비정규	-3324
도로	-3325
▁박탈	-3326
▁이때	-3327
▁확충	-3328
▁충전	-3329
▁드린다	-3330
▁측면	-3331
▁펜	-3332
▁실태	-3333
▁악화	-3334
▁동부	-3335
▁비정규직	-3336
▁Y	-3337
▁화장실	-3338
▁삭제	-3339
▁결론	-3340
▁개통	-3341
▁링크	-3342
▁하반기	-3343
▁중대	-3344
▁블랙	-3345
▁모여	-3346
▁개막	-3347
▁수리	-3348
▁단독	-3349
▁대행	-3350
▁태어났	-3351
▁지인	-3352
▁보고서	-3353
▁목포	-3354
▁「	-3355
▁세포	-3356
▁진심	-3357
▁600	-3358
▁한계	-3359
▁융합	-3360
▁요원	-3361
▁그러면	-3362
▁기기	-3363
▁육군	-3364
▁기호	-3365
▁괜	-3366
▁마땅	-3367
▁반성	-3368
워서	-3369
▁사퇴	-3370
▁시선	-3371
▁야간	-3372
▁지수	-3373
▁활발	-3374
▁무상	-3375
FA	-3376
▁크기	-3377
▁누군가	-3378
▁제주도	-3379
▁곳곳	-3380
▁」	-3381
▁대변인	-3382
▁승강	-3383
▁보관	-3384
▁카카오	-3385
▁다녀	-3386
▁둘째	-3387
▁비전	-3388
▁구하	-3389
▁수치	-3390
▁저런	-3391
▁놀이	-3392
▁텐데	-3393
대표	-3394
▁노무	-3395
▁대법원	-3396
터리	-3397
▁두려	-3398
▁거점	-3399
려고	-3400
▁트럼프	-3401
▁출소	-3402
▁가까이	-3403
▁가동	-3404
집니다	-3405
▁스마트폰	-3406
▁한지	-3407
▁혹시	-3408
▁마트	-3409
▁모니터	-3410
▁파견	-3411
▁진흥	-3412
▁기독교	-3413
▁입원	-3414
▁ᅲ	-3415
▁본사	-3416
▁64	-3417
▁어쩔	-3418
▁세부	-3419
▁그저	-3420
▁멸	-3421
▁격리	-3422
▁매주	-3423
▁쥐	-3424
▁56	-3425
▁최대한	-3426
▁물품	-3427
▁이루어	-3428
▁이거	-3429
▁총회	-3430
▁통장	-3431
▁김성	-3432
▁거두	-3433
▁철거	-3434
▁첨단	-3435
▁올바른	-3436
▁했었	-3437
성군	-3438
▁공익	-3439
▁흉	-3440
▁식사	-3441
▁즉각	-3442
▁물량	-3443
▁강릉	-3444
▁임신	-3445
▁전개	-3446
▁페미	-3447
▁상장	-3448
▁멈	-3449
▁이사장	-3450
▁옹	-3451
▁작전	-3452
▁아프리카	-3453
▁축소	-3454
▁납니다	-3455
▁셋	-3456
▁밴드	-3457
▁가득	-3458
▁동료	-3459
▁2004	-3460
▁계열	-3461
▁유형	-3462
▁일대	-3463
▁59	-3464
▁전담	-3465
▁유출	-3466
▁환경부	-3467
▁핸	-3468
▁한국인	-3469
▁생겨	-3470
▁아이디어	-3471
▁정하	-3472
▁회계	-3473
▁영양	-3474
▁이내	-3475
▁선박	-3476
▁초청	-3477
▁딱	-3478
▁고시	-3479
▁웃음	-3480
▁운용	-3481
▁들어오	-3482
▁공제	-3483
영상	-3484
메라	-3485
▁비밀	-3486
▁역임	-3487
▁취하	-3488
산부	-3489
▁협박	-3490
▁주최	-3491
▁라운드	-3492
화점	-3493
으로	-3494
▁주행	-3495
▁산업단지	-3496
▁섭	-3497
▁전역	-3498
▁원주	-3499
뮤니	-3500
▁벗어나	-3501
티브	-3502
▁눈치	-3503
▁생겼	-3504
나다	-3505
▁과목	-3506
▁국방부	-3507
▁53	-3508
▁종시	-3509
▁커뮤니	-3510
▁3000	-3511
▁보냈	-3512
▁https	-3513
▁농민	-3514
▁배려	-3515
▁텍	-3516
▁근처	-3517
▁가짜	-3518
▁산단	-3519
▁개별	-3520
▁동양일보	-3521
▁초대	-3522
문화	-3523
▁단장	-3524
▁시상	-3525
▁테크	-3526
▁일어난	-3527
▁그걸	-3528
▁뉴욕	-3529
고기	-3530
▁고교	-3531
▁명단	-3532
▁독도	-3533
▁시켜야	-3534
옵니다	-3535
▁58	-3536
▁주기	-3537
▁스테	-3538
바이	-3539
▁그럴	-3540
▁기금	-3541
▁@	-3542
▁연말	-3543
▁누적	-3544
▁엉	-3545
▁62	-3546
▁이승	-3547
▁저감	-3548
▁강하	-3549
▁....	-3550
▁수여	-3551
려서	-3552
▁돼야	-3553
▁소외	-3554
▁올린	-3555
▁진로	-3556
▁위주	-3557
▁보훈	-3558
▁옮겨	-3559
▁동영상	-3560
▁부패	-3561
▁붕	-3562
▁57	-3563
▁2002	-3564
▁작곡	-3565
▁잖아	-3566
▁추구	-3567
▁사무실	-3568
▁탄생	-3569
▁자라	-3570
▁트리	-3571
▁편리	-3572
▁오스트	-3573
▁성남	-3574
▁일시	-3575
▁식물	-3576
▁됩니까	-3577
▁끝나	-3578
▁모자	-3579
▁소화	-3580
▁재학	-3581
▁SBS	-3582
HO	-3583
▁올라가	-3584
소년	-3585
▁00	-3586
▁사실상	-3587
▁솔직히	-3588
▁아름다운	-3589
간다	-3590
▁드론	-3591
50	-3592
▁갚	-3593
he	-3594
▁바른	-3595
▁무죄	-3596
▁구청장	-3597
▁동맹	-3598
▁가공	-3599
▁맞이	-3600
▁캠프	-3601
▁평범	-3602
▁고생	-3603
▁프리미	-3604
▁가게	-3605
▁임원	-3606
▁당초	-3607
us	-3608
▁들어갔	-3609
▁왼	-3610
▁노동부	-3611
▁여서	-3612
▁컨설	-3613
▁행태	-3614
▁》(	-3615
et	-3616
▁셈	-3617
▁폭발	-3618
▁직후	-3619
서트	-3620
▁한전	-3621
▁라서	-3622
▁방사	-3623
▁싸움	-3624
▁대학원	-3625
▁경고	-3626
▁84	-3627
▁청정	-3628
▁보행	-3629
▁협업	-3630
▁99	-3631
▁일방	-3632
▁66	-3633
▁선사	-3634
▁끼리	-3635
▁벌이	-3636
▁됐으며	-3637
▁스위	-3638
▁이란	-3639
▁상가	-3640
▁포럼	-3641
▁지대	-3642
▁태극	-3643
발전	-3644
▁72	-3645
▁교육감	-3646
▁갑니다	-3647
▁즐길	-3648
생활	-3649
광역	-3650
▁떨어진	-3651
▁이른	-3652
▁서명	-3653
▁페이스북	-3654
시장	-3655
▁널리	-3656
▁자고	-3657
▁청렴	-3658
▁끌어	-3659
▁배상	-3660
▁제약	-3661
▁연방	-3662
▁아트	-3663
▁한번	-3664
릅니다	-3665
▁촉진	-3666
▁자문	-3667
▁팀장	-3668
▁산하	-3669
▁바르	-3670
▁연습	-3671
▁이스	-3672
▁좁	-3673
▁교복	-3674
▁할머니	-3675
▁엔진	-3676
▁렌	-3677
▁오토	-3678
▁오프	-3679
▁유해	-3680
▁중점	-3681
▁연출	-3682
▁유니	-3683
▁어려워	-3684
▁동해	-3685
▁소방서	-3686
▁간단	-3687
▁황제	-3688
▁경주	-3689
▁눈길	-3690
▁내일	-3691
▁알려진	-3692
▁친일	-3693
▁간부	-3694
▁철회	-3695
▁재개	-3696
▁지부	-3697
▁챙기	-3698
▁악용	-3699
▁합법	-3700
▁흥원	-3701
▁주인공	-3702
▁실시간	-3703
벌이	-3704
▁조속	-3705
▁간호사	-3706
▁과태	-3707
▁열렸	-3708
▁수렴	-3709
▁달하	-3710
▁냐고	-3711
▁즐기	-3712
▁토대	-3713
▁결합	-3714
▁항목	-3715
▁일환	-3716
▁생물	-3717
▁수산	-3718
▁캐나다	-3719
▁고향	-3720
▁철학	-3721
▁집안	-3722
▁핀	-3723
▁이슬	-3724
▁콘서트	-3725
▁몇몇	-3726
▁성격	-3727
▁저렴	-3728
▁상인	-3729
▁학기	-3730
▁중구	-3731
▁개입	-3732
▁신혼	-3733
저히	-3734
▁매체	-3735
▁후손	-3736
나마	-3737
리트	-3738
▁61	-3739
▁한마	-3740
▁교과	-3741
▁봐도	-3742
▁과태료	-3743
▁리더	-3744
▁본다	-3745
▁백화점	-3746
▁윈	-3747
▁떼	-3748
▁재미	-3749
▁걸리	-3750
▁종이	-3751
▁강력히	-3752
▁모색	-3753
▁조합원	-3754
매매	-3755
스트라	-3756
▁체포	-3757
▁박람	-3758
▁흐름	-3759
▁징계	-3760
▁공기업	-3761
▁지지율	-3762
▁복원	-3763
▁아시	-3764
▁김대	-3765
▁덮	-3766
▁테마	-3767
▁관측	-3768
▁지연	-3769
▁이혼	-3770
▁적어도	-3771
▁보전	-3772
▁무주	-3773
▁비하	-3774
▁화성	-3775
▁어제	-3776
▁기아	-3777
▁성능	-3778
▁예측	-3779
▁출생	-3780
▁태풍	-3781
▁표기	-3782
▁수백	-3783
▁박정	-3784
▁강요	-3785
▁착공	-3786
▁닫	-3787
▁미성	-3788
교통	-3789
▁동남	-3790
로스	-3791
▁기상	-3792
▁뮤지	-3793
▁사무소	-3794
▁양식	-3795
▁키로	-3796
▁120	-3797
▁상위	-3798
▁는다면	-3799
▁연료	-3800
▁형제	-3801
▁오리	-3802
▁지불	-3803
ro	-3804
▁출판	-3805
▁아무것	-3806
▁실망	-3807
▁행정부	-3808
ing	-3809
▁컨설팅	-3810
▁발의	-3811
▁삼성전자	-3812
▁맞추	-3813
▁춘천	-3814
▁이라도	-3815
▁력	-3816
▁문서	-3817
▁중개	-3818
▁직장인	-3819
▁성폭행	-3820
▁폰	-3821
▁채택	-3822
▁왜곡	-3823
▁살려	-3824
▁햇	-3825
▁향해	-3826
▁농어	-3827
▁주체	-3828
▁저지르	-3829
▁애니	-3830
▁공시	-3831
의자	-3832
▁토론회	-3833
▁%(	-3834
회장	-3835
▁명회	-3836
퍼스	-3837
▁바닥	-3838
▁진상	-3839
▁영동	-3840
▁74	-3841
▁인수	-3842
▁그려	-3843
▁선임	-3844
▁부채	-3845
▁안타까	-3846
▁800	-3847
▁에요	-3848
▁카메라	-3849
▁썩	-3850
▁라디오	-3851
▁위안	-3852
▁못할	-3853
▁로봇	-3854
▁공학	-3855
▁이용자	-3856
▁예능	-3857
▁원내대표	-3858
▁뛰어	-3859
▁특별법	-3860
▁IT	-3861
▁수령	-3862
▁상업	-3863
데미	-3864
▁충주	-3865
▁모으	-3866
▁700	-3867
▁한마디	-3868
▁증권	-3869
▁앙	-3870
▁o	-3871
▁재건	-3872
▁잠시	-3873
▁재료	-3874
▁부작	-3875
▁압박	-3876
▁블록	-3877
▁분쟁	-3878
▁호흡	-3879
▁김동	-3880
▁숫	-3881
▁상상	-3882
▁품목	-3883
광역시	-3884
▁휴식	-3885
▁선제	-3886
▁68	-3887
▁펀	-3888
▁주위	-3889
▁비디오	-3890
▁화제	-3891
▁경찰관	-3892
시마	-3893
▁95	-3894
웨어	-3895
▁아카데미	-3896
다른	-3897
▁남쪽	-3898
▁방탄	-3899
▁성추	-3900
▁공평	-3901
▁편의점	-3902
드리	-3903
▁목사	-3904
▁항의	-3905
▁셔야	-3906
▁진다	-3907
▁호남	-3908
▁상품권	-3909
▁성매매	-3910
▁퇴근	-3911
▁커피	-3912
▁용인	-3913
▁추세	-3914
카이	-3915
▁감안	-3916
▁사각	-3917
▁이주	-3918
▁넘어가	-3919
▁이중	-3920
▁생긴	-3921
▁노무현	-3922
▁민생	-3923
▁심하	-3924
▁이민	-3925
▁당사자	-3926
지대	-3927
▁내세	-3928
▁연예인	-3929
▁v	-3930
▁텔레	-3931
▁학자	-3932
▁규명	-3933
항공	-3934
▁두기	-3935
▁양산	-3936
▁지위	-3937
▁매달	-3938
▁성추행	-3939
▁63	-3940
▁67	-3941
▁방어	-3942
▁완벽	-3943
르트	-3944
▁독립운동	-3945
▁♥	-3946
▁진보	-3947
▁위생	-3948
▁권고	-3949
▁ᄏᄏ	-3950
▁흔들	-3951
▁미사일	-3952
▁해군	-3953
▁자극	-3954
▁재직	-3955
▁커뮤니티	-3956
▁균형발전	-3957
▁버렸	-3958
▁박람회	-3959
▁넷	-3960
▁방학	-3961
▁공주	-3962
▁김진	-3963
▁짜리	-3964
▁부끄	-3965
▁줍	-3966
▁절감	-3967
▁똑같이	-3968
▁내렸	-3969
▁로스	-3970
▁는지요	-3971
미널	-3972
▁구현	-3973
▁실습	-3974
▁몬	-3975
▁북쪽	-3976
▁용기	-3977
▁특혜	-3978
▁특례	-3979
리어	-3980
▁투수	-3981
▁출장	-3982
▁극장	-3983
▁적발	-3984
▁아니면	-3985
▁고대	-3986
▁회의실	-3987
▁수비	-3988
▁이틀	-3989
▁팩	-3990
▁지표	-3991
▁cm	-3992
▁소련	-3993
▁영토	-3994
▁온갖	-3995
▁이슬람	-3996
▁자국민	-3997
▁캠퍼스	-3998
▁데이	-3999
▁하고	-4000
스탄	-4001
▁윌	-4002
▁도청	-4003
▁여겨	-4004
▁2003	-4005
▁챔피언	-4006
▁성실	-4007
▁스타일	-4008
▁대대	-4009
▁스튜	-4010
▁썼	-4011
▁김경	-4012
▁사령	-4013
▁동기	-4014
▁에스	-4015
▁전파	-4016
▁조항	-4017
▁겨우	-4018
▁남구	-4019
▁상임	-4020
▁파트	-4021
▁그나마	-4022
▁금메달	-4023
▁져야	-4024
▁85	-4025
▁학술	-4026
▁할까요	-4027
▁동반	-4028
▁소방관	-4029
▁규칙	-4030
▁월세	-4031
▁의뢰	-4032
▁신종	-4033
▁교원	-4034
▁회관	-4035
▁이젠	-4036
▁입사	-4037
▁공헌	-4038
▁비례	-4039
▁조국	-4040
▁승진	-4041
▁으므로	-4042
▁뭘	-4043
▁공포	-4044
▁대장	-4045
▁일자	-4046
▁고서	-4047
▁중화	-4048
▁미성년	-4049
▁출동	-4050
▁일으키	-4051
▁구성원	-4052
▁터미널	-4053
▁선호	-4054
▁원활	-4055
▁용품	-4056
▁건데	-4057
▁농장	-4058
▁잖아요	-4059
▁적자	-4060
공화국	-4061
▁삽	-4062
▁현역	-4063
▁수록	-4064
▁인민공화국	-4065
회의	-4066
▁77	-4067
▁진화	-4068
▁엔터	-4069
▁1980	-4070
▁뮤직	-4071
▁핸드	-4072
▁초반	-4073
▁에겐	-4074
▁해운	-4075
▁마당	-4076
센터	-4077
▁성명	-4078
▁계신	-4079
▁끈	-4080
▁덴	-4081
▁격차	-4082
▁독재	-4083
▁물러	-4084
▁명시	-4085
▁학회	-4086
▁접하	-4087
▁순천	-4088
▁앞장서	-4089
▁거짓말	-4090
▁소년법	-4091
▁늘려	-4092
▁해수	-4093
지능	-4094
▁괴롭	-4095
▁다소	-4096
▁구제	-4097
▁일반인	-4098
▁장점	-4099
▁간절히	-4100
▁자아	-4101
▁중립	-4102
스티	-4103
▁기지	-4104
▁복잡	-4105
▁특검	-4106
▁이수	-4107
▁CCT	-4108
▁괜찮	-4109
▁고도	-4110
▁연극	-4111
▁119	-4112
▁숫자	-4113
▁무너	-4114
▁인공지능	-4115
10	-4116
▁CCTV	-4117
▁미약	-4118
▁파이	-4119
▁준수	-4120
▁플라스	-4121
▁조명	-4122
▁부회장	-4123
▁대중교통	-4124
▁1990	-4125
▁심신	-4126
▁발사	-4127
el	-4128
에도	-4129
▁라니	-4130
▁장군	-4131
▁점차	-4132
ct	-4133
▁용어	-4134
▁라이브	-4135
▁상당히	-4136
il	-4137
니어	-4138
▁시인	-4139
▁초등학생	-4140
▁보낸	-4141
▁뉴딜	-4142
▁무능	-4143
am	-4144
▁우울	-4145
▁진술	-4146
▁질서	-4147
▁태어나	-4148
▁포르	-4149
▁신입	-4150
▁커지	-4151
메이션	-4152
▁굉	-4153
▁미친	-4154
▁무고	-4155
피스	-4156
▁엄격	-4157
▁나선다	-4158
▁FI	-4159
▁축하	-4160
▁연휴	-4161
▁띄	-4162
▁열린다	-4163
▁애국	-4164
▁충돌	-4165
▁안타깝	-4166
▁스러	-4167
▁푸드	-4168
▁여객	-4169
▁키워	-4170
▁침체	-4171
▁입시	-4172
▁제고	-4173
▁싸우	-4174
하루	-4175
▁경유	-4176
▁쓰이	-4177
▁당해	-4178
▁심한	-4179
▁산불	-4180
▁조절	-4181
▁'(	-4182
▁힘듭니다	-4183
▁훌	-4184
▁프레	-4185
av	-4186
▁어쩌	-4187
▁임대료	-4188
▁수집	-4189
▁번지	-4190
바로	-4191
▁재해	-4192
▁버린	-4193
▁인건	-4194
▁코치	-4195
▁사라지	-4196
▁정서	-4197
다니	-4198
▁다루	-4199
은이	-4200
ch	-4201
▁겟	-4202
▁부자	-4203
▁성폭력	-4204
▁세무	-4205
▁갤	-4206
▁꼼	-4207
▁드림	-4208
▁엄중	-4209
▁유가	-4210
▁벼	-4211
▁놀라	-4212
▁배정	-4213
▁휴게	-4214
▁공립	-4215
▁이적	-4216
▁평택	-4217
▁가계	-4218
▁합류	-4219
▁날씨	-4220
▁당일	-4221
▁통행	-4222
▁동력	-4223
▁광산	-4224
▁싱글	-4225
▁푼	-4226
▁지출	-4227
▁미니	-4228
▁예선	-4229
▁연관	-4230
▁붕괴	-4231
▁주력	-4232
▁아님	-4233
▁활력	-4234
▁연합회	-4235
▁깜	-4236
▁빼앗	-4237
▁체력	-4238
▁한정	-4239
단체	-4240
▁당당	-4241
▁인건비	-4242
▁단순히	-4243
▁파리	-4244
▁해상	-4245
▁주주	-4246
▁타임	-4247
▁담보	-4248
▁건축물	-4249
▁광역시	-4250
▁유엔	-4251
▁속하	-4252
▁소요	-4253
▁이성	-4254
▁전해졌	-4255
ol	-4256
▁편하	-4257
▁온도	-4258
▁189	-4259
ent	-4260
▁동성	-4261
▁신임	-4262
입니다	-4263
▁거대	-4264
▁방영	-4265
▁선수단	-4266
▁주자	-4267
▁떨어져	-4268
▁분명히	-4269
▁플라스틱	-4270
▁돌파	-4271
▁메뉴	-4272
▁요건	-4273
▁군청	-4274
▁화합	-4275
▁암호	-4276
▁착수	-4277
▁필리	-4278
▁인천시	-4279
▁막대	-4280
구역	-4281
▁자발	-4282
▁바라보	-4283
▁부작용	-4284
▁2001	-4285
▁업소	-4286
▁시세	-4287
▁냄	-4288
▁무섭	-4289
▁배제	-4290
▁서식	-4291
▁잇따	-4292
▁감면	-4293
▁빠지	-4294
▁김포	-4295
▁밸	-4296
▁마감	-4297
▁갈수록	-4298
▁해명	-4299
▁관광지	-4300
▁집합	-4301
▁무단	-4302
▁승강장	-4303
▁그래야	-4304
▁숙박	-4305
▁여유	-4306
으니	-4307
▁71	-4308
▁적합	-4309
▁특허	-4310
▁타이틀	-4311
▁묶	-4312
다리	-4313
▁기원전	-4314
▁항만	-4315
▁몰라	-4316
▁아우	-4317
▁노예	-4318
▁윤리	-4319
▁go	-4320
▁모니터링	-4321
▁명백	-4322
▁의학	-4323
▁밝힌	-4324
▁머물	-4325
▁수성	-4326
▁김태	-4327
▁지냈	-4328
▁계좌	-4329
▁제조업	-4330
▁자꾸	-4331
▁고정	-4332
▁비싼	-4333
▁오늘날	-4334
▁태극기	-4335
▁전기차	-4336
▁청문	-4337
▁그만큼	-4338
▁운송	-4339
▁입증	-4340
▁태양광	-4341
▁중지	-4342
▁튀	-4343
▁마약	-4344
▁라면서	-4345
▁사망자	-4346
▁책임지	-4347
▁병사	-4348
▁휴대폰	-4349
▁시달	-4350
▁국적	-4351
▁유관	-4352
▁뷰	-4353
▁권익	-4354
▁긴장	-4355
▁선별	-4356
▁보령	-4357
▁치유	-4358
▁PC	-4359
▁굉장	-4360
▁大	-4361
▁88	-4362
▁면역	-4363
▁구상	-4364
▁약간	-4365
▁북미	-4366
▁고등학생	-4367
▁중부	-4368
▁도덕	-4369
▁이랑	-4370
▁형편	-4371
▁성분	-4372
▁첫째	-4373
▁중고	-4374
▁형평	-4375
▁깔	-4376
▁교환	-4377
▁덕분	-4378
▁동쪽	-4379
▁근절	-4380
▁먹거리	-4381
▁신축	-4382
▁부진	-4383
▁고양이	-4384
▁부활	-4385
▁외면	-4386
▁원자력	-4387
▁벌써	-4388
▁콩	-4389
▁적정	-4390
▁회수	-4391
▁기호일보	-4392
▁사후	-4393
▁남기	-4394
▁안동	-4395
▁비싸	-4396
▁직전	-4397
▁고지	-4398
▁게다가	-4399
▁사각지대	-4400
▁미술관	-4401
▁스튜디오	-4402
▁패배	-4403
▁중계	-4404
▁저지른	-4405
휴일	-4406
▁스타트	-4407
▁입찰	-4408
▁부가	-4409
▁달려	-4410
▁친화	-4411
▁클래	-4412
▁일까요	-4413
▁관찰	-4414
▁보복	-4415
▁테러	-4416
▁하루하루	-4417
복지	-4418
▁선보이	-4419
세대	-4420
▁외치	-4421
▁명의	-4422
▁창작	-4423
▁폭염	-4424
▁늘어난	-4425
▁저질	-4426
▁재판부	-4427
▁애니메이션	-4428
▁69	-4429
▁열정	-4430
▁조각	-4431
퇴근	-4432
▁입지	-4433
▁호주	-4434
▁매각	-4435
▁벌어	-4436
▁부실	-4437
▁높여	-4438
▁투쟁	-4439
--------	-4440
▁gt	-4441
▁서쪽	-4442
▁소지	-4443
리오	-4444
▁타인	-4445
▁혐오	-4446
▁증대	-4447
▁심해	-4448
as	-4449
▁경선	-4450
▁어떨	-4451
▁입국	-4452
▁명목	-4453
▁마세요	-4454
▁표창	-4455
▁호응	-4456
▁감염증	-4457
▁임직원	-4458
▁유족	-4459
▁엑스	-4460
웨이	-4461
▁건조	-4462
▁강점	-4463
▁김재	-4464
▁주연	-4465
▁가만	-4466
▁본선	-4467
▁매월	-4468
▁만남	-4469
▁록	-4470
▁크리스	-4471
▁김기	-4472
▁저장	-4473
▁편안	-4474
▁심정	-4475
▁피아	-4476
가스	-4477
▁에어컨	-4478
▁소형	-4479
▁그곳	-4480
▁점령	-4481
▁타운	-4482
ews	-4483
난다	-4484
▁미성년자	-4485
▁차트	-4486
▁참전	-4487
▁!!!	-4488
▁공휴일	-4489
▁기대감	-4490
▁스토리	-4491
▁맞벌이	-4492
▁단기	-4493
▁은퇴	-4494
▁도저히	-4495
▁도중	-4496
▁이재명	-4497
▁급증	-4498
▁누진	-4499
▁간호	-4500
▁for	-4501
▁급격	-4502
▁대가	-4503
▁민심	-4504
▁담긴	-4505
▁180	-4506
사업	-4507
▁과도	-4508
▁학위	-4509
▁백만	-4510
▁국무총리	-4511
▁블루	-4512
▁이종	-4513
▁차관	-4514
▁김상	-4515
▁교황	-4516
▁스위스	-4517
▁열악	-4518
▁멋	-4519
▁고문	-4520
▁한심	-4521
▁73	-4522
▁논문	-4523
▁연차	-4524
▁흘러	-4525
▁경상북도	-4526
▁전당	-4527
▁엠	-4528
▁회생	-4529
▁페미니	-4530
▁댄	-4531
▁피하	-4532
▁lt	-4533
▁무주택	-4534
▁76	-4535
▁절실	-4536
▁왼쪽	-4537
▁원정	-4538
▁곽	-4539
▁공군	-4540
▁추방	-4541
▁관객	-4542
▁개봉	-4543
▁횡단	-4544
▁교도	-4545
▁시립	-4546
▁82	-4547
▁영세	-4548
▁포털	-4549
▁파일	-4550
▁알아보	-4551
▁국내외	-4552
▁가질	-4553
▁임용	-4554
▁트랙	-4555
▁차질	-4556
▁복구	-4557
▁아닌지	-4558
▁건전	-4559
▁그간	-4560
▁최악	-4561
▁건수	-4562
▁체육회	-4563
▁해고	-4564
▁당원	-4565
▁재활	-4566
▁건너	-4567
▁참가자	-4568
▁집권	-4569
코인	-4570
▁빵	-4571
▁바이든	-4572
▁각자	-4573
▁위로	-4574
▁으니까	-4575
▁이어졌	-4576
▁승객	-4577
▁주사	-4578
▁78	-4579
▁대북	-4580
~~~~	-4581
▁느낄	-4582
▁출퇴근	-4583
▁포스코	-4584
▁찌	-4585
▁결의	-4586
IL	-4587
▁잠재	-4588
▁소녀	-4589
▁후속	-4590
^^	-4591
▁극단	-4592
▁고급	-4593
▁저항	-4594
안군	-4595
▁살펴보	-4596
▁진학	-4597
▁둥	-4598
▁기탁	-4599
▁만화	-4600
▁녹색	-4601
▁해산	-4602
▁릴	-4603
연히	-4604
od	-4605
▁움직임	-4606
▁더라고	-4607
▁거제	-4608
▁처우	-4609
▁브리핑	-4610
트리	-4611
▁불교	-4612
▁위상	-4613
▁홍콩	-4614
▁국세	-4615
▁팝	-4616
▁치러	-4617
▁영장	-4618
▁주가	-4619
▁강아지	-4620
핵화	-4621
▁살해	-4622
▁비핵화	-4623
▁과세	-4624
ST	-4625
▁소감	-4626
▁음식점	-4627
▁뮤지컬	-4628
▁이렇	-4629
서구	-4630
▁닥	-4631
▁거론	-4632
▁홈런	-4633
▁굉장히	-4634
▁조리	-4635
▁저소득층	-4636
▁령	-4637
▁괴산	-4638
▁도모	-4639
▁아산	-4640
▁영광	-4641
▁완공	-4642
▁뛰어난	-4643
▁체크	-4644
▁시공	-4645
▁코드	-4646
▁향한	-4647
▁해안	-4648
▁피의자	-4649
▁밟	-4650
▁김현	-4651
NA	-4652
직자	-4653
▁목록	-4654
▁수거	-4655
▁거절	-4656
▁재벌	-4657
▁당첨	-4658
▁세웠	-4659
▁신라	-4660
▁알바	-4661
▁유행	-4662
▁인명	-4663
▁1998	-4664
▁테이	-4665
▁왕국	-4666
▁터널	-4667
▁후쿠	-4668
▁비트코인	-4669
▁탈락	-4670
▁통치	-4671
▁가난	-4672
▁사면	-4673
▁해졌	-4674
▁쇠	-4675
▁격려	-4676
▁움직이	-4677
▁깊이	-4678
▁분열	-4679
▁불량	-4680
▁소위	-4681
▁보좌	-4682
▁그럼에도	-4683
▁군부	-4684
▁하수	-4685
▁듀	-4686
▁아쉬	-4687
▁교장	-4688
▁감옥	-4689
▁젊은이	-4690
▁공작	-4691
▁설문	-4692
▁상하	-4693
▁풍부	-4694
▁1999	-4695
▁병행	-4696
▁수천	-4697
흥민	-4698
▁간접	-4699
▁마친	-4700
▁벌어지	-4701
란히	-4702
▁버전	-4703
▁협동	-4704
문학	-4705
여금	-4706
▁되게	-4707
▁조지	-4708
▁길거리	-4709
▁다행	-4710
권자	-4711
▁이정	-4712
ad	-4713
▁엇	-4714
▁손흥민	-4715
▁위안부	-4716
▁가입자	-4717
mu	-4718
▁대단	-4719
▁식민	-4720
▁궤	-4721
▁98	-4722
▁슬로	-4723
▁중증	-4724
▁경관	-4725
▁250	-4726
▁돌아오	-4727
▁높였	-4728
▁들어간	-4729
▁기재	-4730
▁지나가	-4731
▁채무	-4732
▁형량	-4733
▁공영	-4734
▁이나마	-4735
▁결코	-4736
▁화면	-4737
▁거든	-4738
▁멜	-4739
▁어울	-4740
▁창원시	-4741
▁발휘	-4742
▁와이	-4743
▁스케	-4744
▁하위	-4745
▁실명	-4746
▁전액	-4747
▁사로	-4748
▁큐	-4749
▁감당	-4750
▁골목	-4751
▁워크	-4752
▁대만	-4753
▁사료	-4754
▁차선	-4755
▁임산부	-4756
덜란드	-4757
▁확률	-4758
▁이뤄졌	-4759
▁네덜란드	-4760
▁남동	-4761
▁랜드	-4762
▁부적	-4763
▁tv	-4764
▁창의	-4765
▁호기	-4766
양군	-4767
▁굳이	-4768
▁더라구요	-4769
▁계약직	-4770
톨릭	-4771
▁소독	-4772
▁86	-4773
▁입단	-4774
▁떡	-4775
▁동아리	-4776
▁조약	-4777
▁응시	-4778
시설	-4779
▁사원	-4780
▁미얀	-4781
▁정확히	-4782
▁79	-4783
▁옵	-4784
▁협정	-4785
▁아시안	-4786
▁87	-4787
▁전철	-4788
▁금연	-4789
▁아라	-4790
▁마르	-4791
▁교차	-4792
▁애초	-4793
▁재능	-4794
▁충족	-4795
▁법령	-4796
▁비즈	-4797
▁플러스	-4798
▁배송	-4799
▁자면	-4800
▁무사	-4801
▁태어난	-4802
▁보입니다	-4803
ed	-4804
거래	-4805
▁ᅲᅲ	-4806
▁한글	-4807
▁농어촌	-4808
▁4000	-4809
▁프리미엄	-4810
▁조용	-4811
▁동계	-4812
▁추경	-4813
▁타워	-4814
아이	-4815
▁선배	-4816
▁개헌	-4817
▁총괄	-4818
▁마이크	-4819
▁개장	-4820
▁타격	-4821
▁모았	-4822
▁권역	-4823
▁뚜	-4824
▁감동	-4825
▁노사	-4826
▁찰	-4827
▁가을	-4828
▁입대	-4829
▁조장	-4830
아버지	-4831
▁소프트웨어	-4832
▁범행	-4833
리스트	-4834
▁재발	-4835
▁뜨거운	-4836
▁상실	-4837
일러	-4838
▁아끼	-4839
▁야외	-4840
▁징수	-4841
레이드	-4842
▁석탄	-4843
▁스웨	-4844
▁ha	-4845
산업	-4846
ig	-4847
▁독서	-4848
▁패션	-4849
▁83	-4850
▁느라	-4851
▁마사	-4852
▁옥천	-4853
뜨리	-4854
▁모범	-4855
▁서해	-4856
▁군산	-4857
▁로드	-4858
▁조달	-4859
▁필리핀	-4860
▁매립	-4861
▁방과	-4862
▁시책	-4863
신문	-4864
▁일어났	-4865
▁농지	-4866
▁상환	-4867
▁잉글	-4868
▁부스	-4869
빨리	-4870
▁승격	-4871
▁미투	-4872
▁냐는	-4873
▁유학	-4874
▁매수	-4875
▁나타내	-4876
철도	-4877
▁강연	-4878
▁남겨	-4879
▁받아들이	-4880
▁돌리	-4881
▁손님	-4882
▁사찰	-4883
▁정성	-4884
====	-4885
▁에이	-4886
▁종사	-4887
▁단체장	-4888
▁게끔	-4889
▁심장	-4890
로지	-4891
▁던데	-4892
▁관장	-4893
▁가중	-4894
▁추모	-4895
▁신중	-4896
▁들어와	-4897
▁일관	-4898
▁이득	-4899
▁펴	-4900
▁그건	-4901
▁설득	-4902
▁납득	-4903
▁케어	-4904
▁다를	-4905
▁시설물	-4906
▁순수	-4907
▁고유	-4908
▁휴일	-4909
▁행보	-4910
▁지역민	-4911
바이트	-4912
▁.....	-4913
▁에게서	-4914
루스	-4915
▁어업	-4916
▁추적	-4917
▁수강	-4918
▁료	-4919
▁원합니다	-4920
▁기도	-4921
▁소문	-4922
▁편지	-4923
이너	-4924
▁롤	-4925
▁메달	-4926
▁샌	-4927
▁부천	-4928
▁낮추	-4929
OC	-4930
▁스티	-4931
▁코인	-4932
▁사로잡	-4933
▁냄새	-4934
▁런던	-4935
▁화이	-4936
소년단	-4937
▁가톨릭	-4938
▁시상식	-4939
▁w	-4940
▁실효	-4941
▁쾌적	-4942
▁윗	-4943
▁감축	-4944
▁임상	-4945
▁결성	-4946
▁김치	-4947
▁거치	-4948
▁끝난	-4949
▁감염병	-4950
▁모은	-4951
▁욕설	-4952
▁펼쳤	-4953
▁접속	-4954
▁97	-4955
▁파업	-4956
▁보증금	-4957
▁쟁	-4958
▁81	-4959
▁대답	-4960
▁반환	-4961
▁방탄소년단	-4962
▁사교육	-4963
▁집니다	-4964
▁04	-4965
▁진압	-4966
▁검진	-4967
▁공로	-4968
▁새해	-4969
▁영구	-4970
▁스웨덴	-4971
▁종전	-4972
▁차장	-4973
HOIL	-4974
HOILBO	-4975
▁KIHOILBO	-4976
▁일찍	-4977
▁끝내	-4978
▁시군	-4979
▁창립	-4980
▁배터리	-4981
▁출석	-4982
▁지켜보	-4983
▁합병	-4984
▁지역구	-4985
▁될지	-4986
▁채우	-4987
▁더라고요	-4988
▁양도	-4989
로그	-4990
▁농도	-4991
▁바보	-4992
▁포상	-4993
▁안양	-4994
▁계승	-4995
▁임무	-4996
가락	-4997
▁체납	-4998
▁십니다	-4999
▁치열	-5000
▁어리	-5001
▁드러났	-5002
▁강도	-5003
▁군요	-5004
▁참으로	-5005
▁박스	-5006
▁신상	-5007
규모	-5008
▁등교	-5009
▁미얀마	-5010
▁강간	-5011
▁이영	-5012
▁화력	-5013
▁뇌물	-5014
▁폴란드	-5015
▁복수	-5016
▁승부	-5017
▁츠	-5018
▁도망	-5019
▁변이	-5020
▁비자	-5021
▁편집	-5022
▁자제	-5023
▁성향	-5024
▁헌신	-5025
▁일종	-5026
린지	-5027
▁여중	-5028
▁탑승	-5029
▁독자	-5030
▁브라질	-5031
▁토요일	-5032
▁94	-5033
▁상주	-5034
▁공통	-5035
▁사이버	-5036
▁던가	-5037
▁챌	-5038
▁넘겨	-5039
▁민선	-5040
▁창조	-5041
▁소유자	-5042
▁내역	-5043
▁최적	-5044
▁추억	-5045
러스터	-5046
▁페르	-5047
▁1997	-5048
▁개성	-5049
▁관점	-5050
▁귀농	-5051
▁수험	-5052
▁근대	-5053
▁오프라인	-5054
▁생성	-5055
▁디스	-5056
▁안건	-5057
▁지리	-5058
▁관리자	-5059
▁준다고	-5060
▁끔	-5061
▁나와서	-5062
▁전시회	-5063
▁그분	-5064
▁느낀	-5065
아내	-5066
▁96	-5067
▁소각	-5068
▁2030	-5069
▁해진	-5070
▁188	-5071
▁클러스터	-5072
▁도둑	-5073
▁이듬	-5074
▁news	-5075
▁립	-5076
▁한화	-5077
▁92	-5078
▁제보	-5079
▁이닝	-5080
▁지향	-5081
▁고쳐	-5082
▁공중	-5083
▁애플	-5084
▁오피스	-5085
▁해결책	-5086
▁조합장	-5087
▁유산	-5088
▁2023	-5089
▁부위	-5090
▁제천	-5091
▁중도	-5092
▁교직원	-5093
▁아르바이트	-5094
▁내린	-5095
▁무려	-5096
▁감성	-5097
▁고리	-5098
▁다섯	-5099
▁아웃	-5100
▁허리	-5101
▁뭔가	-5102
라우	-5103
▁구나	-5104
▁모른	-5105
▁페이	-5106
▁재건축	-5107
▁숭	-5108
▁남양	-5109
▁챙겨	-5110
네시아	-5111
시코	-5112
메리카	-5113
▁인류	-5114
▁소규모	-5115
고리	-5116
▁인성	-5117
▁거든요	-5118
▁산정	-5119
▁업자	-5120
▁헛	-5121
▁아픈	-5122
▁다스	-5123
▁가사	-5124
▁태평	-5125
▁문구	-5126
▁객관	-5127
▁쫓	-5128
▁산학	-5129
▁공업	-5130
um	-5131
▁춤	-5132
▁비록	-5133
▁지경	-5134
▁천억	-5135
▁^^	-5136
▁잉글랜드	-5137
▁후기	-5138
▁쉼	-5139
킨다	-5140
유산	-5141
mula	-5142
▁개척	-5143
▁편입	-5144
▁이듬해	-5145
▁서울대	-5146
▁아이돌	-5147
기술	-5148
리티	-5149
▁분포	-5150
▁헬기	-5151
▁모욕	-5152
▁추첨	-5153
▁영원	-5154
▁91	-5155
▁mm	-5156
▁점심	-5157
▁전직	-5158
▁불가피	-5159
▁돌입	-5160
▁되돌	-5161
os	-5162
▁이스라	-5163
▁가끔	-5164
▁번역	-5165
▁실종	-5166
▁전후	-5167
▁마쳤	-5168
▁1970	-5169
▁동서	-5170
▁휴직	-5171
▁관료	-5172
▁의존	-5173
▁전지	-5174
▁정시	-5175
▁병력	-5176
▁위법	-5177
▁전라남도	-5178
▁장병	-5179
이브	-5180
▁정밀	-5181
▁룸	-5182
▁금감	-5183
▁넘치	-5184
▁우편	-5185
▁초래	-5186
▁매번	-5187
▁철수	-5188
▁생리대	-5189
▁신청서	-5190
▁중학생	-5191
▁힐링	-5192
▁formula	-5193
▁무장	-5194
▁쉴	-5195
▁정수	-5196
▁종종	-5197
▁화상	-5198
▁별로	-5199
카드	-5200
▁치안	-5201
▁태국	-5202
▁의결	-5203
▁이리	-5204
▁폭탄	-5205
▁몰랐	-5206
▁자부	-5207
▁하천	-5208
▁분산	-5209
▁현대차	-5210
▁무지	-5211
▁상시	-5212
▁용산	-5213
▁6000	-5214
un	-5215
▁멕	-5216
평가	-5217
▁인접	-5218
▁보고회	-5219
▁이스라엘	-5220
▁솜	-5221
▁기득	-5222
▁영농	-5223
▁심화	-5224
▁부양	-5225
▁환영	-5226
▁공모전	-5227
▁린	-5228
비전	-5229
구니	-5230
▁경향	-5231
▁부착	-5232
▁주재	-5233
▁명품	-5234
▁중심지	-5235
▁천안시	-5236
플레이	-5237
▁ᆢ	-5238
▁가시	-5239
▁예비군	-5240
▁농단	-5241
▁1995	-5242
▁현직	-5243
▁외상	-5244
▁농림	-5245
▁보여준	-5246
용차	-5247
▁기름	-5248
▁랩	-5249
▁스피	-5250
▁전동	-5251
▁처장	-5252
▁신선	-5253
▁***	-5254
EC	-5255
▁토록	-5256
▁화려	-5257
▁이걸	-5258
▁입구	-5259
▁구리	-5260
▁발령	-5261
▁변동	-5262
▁위장	-5263
▁일지	-5264
▁생길	-5265
▁저축	-5266
가리	-5267
오르	-5268
▁주한	-5269
▁합당	-5270
▁유래	-5271
▁확실히	-5272
▁Q	-5273
▁청춘	-5274
▁수목	-5275
▁아닌데	-5276
▁들어서	-5277
▁무분	-5278
▁대결	-5279
▁천연	-5280
▁붉	-5281
▁오직	-5282
▁JT	-5283
▁무용	-5284
▁펀드	-5285
▁핸드폰	-5286
▁사회주의	-5287
▁횟	-5288
▁1996	-5289
▁하루빨리	-5290
▁고장	-5291
▁상수	-5292
▁무분별	-5293
▁부사	-5294
▁드러나	-5295
▁스타트업	-5296
▁신장	-5297
▁책임자	-5298
ation	-5299
▁학업	-5300
▁박정희	-5301
▁아티	-5302
▁도약	-5303
and	-5304
▁여파	-5305
▁호수	-5306
마크	-5307
바지	-5308
▁관행	-5309
▁베르	-5310
▁턱	-5311
러리	-5312
▁사우	-5313
▁홀로	-5314
▁선동	-5315
민주	-5316
아먹	-5317
▁구글	-5318
▁내달	-5319
▁유전	-5320
▁쏘	-5321
▁쏠	-5322
▁수질	-5323
▁책정	-5324
▁보건복지	-5325
ac	-5326
▁개관	-5327
▁버려	-5328
▁여의	-5329
▁베스트	-5330
▁팽	-5331
경원	-5332
▁평양	-5333
▁공산주의	-5334
조리	-5335
▁역학	-5336
▁확립	-5337
▁중독	-5338
▁양자	-5339
▁느꼈	-5340
▁작동	-5341
▁이대로	-5342
▁청주시	-5343
관리	-5344
디아	-5345
▁영입	-5346
▁킬	-5347
▁대립	-5348
▁뼈	-5349
▁법조	-5350
PG	-5351
▁귀족	-5352
▁나주	-5353
▁중기	-5354
▁먹이	-5355
져서	-5356
▁남용	-5357
▁어차	-5358
▁캘	-5359
▁으려고	-5360
소연	-5361
▁최다	-5362
▁김대중	-5363
▁오토바이	-5364
▁치르	-5365
▁한도	-5366
▁지분	-5367
▁수고	-5368
▁응답자	-5369
낸다	-5370
▁기온	-5371
▁튜	-5372
▁녹음	-5373
▁보건복지부	-5374
▁광명	-5375
▁음료	-5376
▁nav	-5377
유예	-5378
▁길이	-5379
▁탑재	-5380
키지	-5381
▁앞둔	-5382
▁체감	-5383
▁엘리	-5384
▁수처	-5385
두환	-5386
▁션	-5387
▁보이스	-5388
▁명분	-5389
▁가산	-5390
▁나설	-5391
▁빗	-5392
▁89	-5393
▁MC	-5394
▁하청	-5395
▁영남	-5396
친다	-5397
레인	-5398
▁세미	-5399
▁지법	-5400
▁마스터	-5401
▁악취	-5402
▁랭	-5403
▁장착	-5404
하면	-5405
코드	-5406
▁상향	-5407
▁좋아	-5408
▁스코	-5409
▁매도	-5410
▁이끄	-5411
▁시내버스	-5412
▁더러	-5413
▁진주	-5414
▁임차	-5415
▁마주	-5416
안전	-5417
▁어차피	-5418
▁충청남도	-5419
▁운동장	-5420
▁무인	-5421
▁1994	-5422
▁버티	-5423
▁만난	-5424
▁본래	-5425
▁한층	-5426
▁패키지	-5427
▁리라	-5428
▁도구	-5429
▁이럴	-5430
▁신세	-5431
▁영향력	-5432
▁8000	-5433
디션	-5434
▁93	-5435
▁매니	-5436
▁영주	-5437
▁전선	-5438
▁차리	-5439
▁스페	-5440
▁차기	-5441
십니다	-5442
SG	-5443
▁부리	-5444
▁죄송	-5445
▁억제	-5446
▁국경	-5447
▁이어질	-5448
▁FIFA	-5449
▁니까요	-5450
▁세운	-5451
▁스키	-5452
▁가하	-5453
▁가이드	-5454
▁‧	-5455
▁밀집	-5456
▁항소	-5457
▁아나	-5458
▁유흥	-5459
▁내각	-5460
▁에서부터	-5461
▁#	-5462
▁받아들여	-5463
▁성립	-5464
▁장르	-5465
▁환수	-5466
▁테스트	-5467
▁내내	-5468
▁예수	-5469
▁자립	-5470
나이	-5471
▁옛날	-5472
▁내수	-5473
로드	-5474
스티벌	-5475
▁페스티벌	-5476
▁예외	-5477
▁조심	-5478
▁뭉	-5479
▁시원	-5480
▁정화	-5481
경북	-5482
▁석유	-5483
▁JTBC	-5484
▁놔	-5485
▁펠	-5486
▁해방	-5487
▁기각	-5488
▁다채	-5489
▁소멸	-5490
▁추락	-5491
▁조속히	-5492
▁땀	-5493
▁세입	-5494
▁육상	-5495
▁훌륭	-5496
▁걸려	-5497
▁여권	-5498
▁선교	-5499
▁구급	-5500
▁가맹	-5501
▁순서	-5502
▁취재	-5503
▁합쳐	-5504
▁신인	-5505
총장	-5506
▁점포	-5507
행위	-5508
▁해임	-5509
조사	-5510
▁빠진	-5511
▁인도네시아	-5512
▁수장	-5513
깁니다	-5514
▁국악	-5515
▁삭감	-5516
▁폐업	-5517
▁끊임	-5518
▁묘사	-5519
▁붙여	-5520
▁기증	-5521
▁커녕	-5522
▁저하	-5523
▁터지	-5524
▁궁금증	-5525
▁걸음	-5526
▁부총리	-5527
▁변하	-5528
▁피고	-5529
▁그라	-5530
▁여도	-5531
▁일삼	-5532
▁랜	-5533
▁노르	-5534
▁아스트라	-5535
▁기한	-5536
▁좌파	-5537
▁계정	-5538
▁무관	-5539
▁산책	-5540
▁신학	-5541
▁챌린지	-5542
▁교대	-5543
▁대국	-5544
▁으라	-5545
▁줄일	-5546
십니까	-5547
▁186	-5548
▁낫	-5549
스턴	-5550
▁청문회	-5551
▁기울이	-5552
▁용도	-5553
▁꺾	-5554
▁스크	-5555
▁배우자	-5556
▁양국	-5557
▁하계	-5558
▁어떨까	-5559
보드	-5560
▁187	-5561
▁견제	-5562
▁금속	-5563
▁등기	-5564
▁떨어졌	-5565
▁1960	-5566
▁몽골	-5567
▁골든	-5568
▁따지	-5569
▁박지	-5570
▁보궐	-5571
▁탈출	-5572
▁통증	-5573
▁교도소	-5574
들이	-5575
▁목격	-5576
▁사연	-5577
▁셰	-5578
▁흔히	-5579
▁멀리	-5580
피아	-5581
▁이념	-5582
▁멕시코	-5583
▁준다는	-5584
▁장악	-5585
▁취해	-5586
▁맞서	-5587
▁닭	-5588
▁든다	-5589
▁원리	-5590
▁앓	-5591
▁벌였	-5592
▁완주	-5593
▁특강	-5594
▁한국어	-5595
▁유전자	-5596
▁유대	-5597
▁남아	-5598
▁일어날	-5599
▁겹	-5600
▁김용	-5601
▁공문	-5602
▁소액	-5603
▁지닌	-5604
▁추석	-5605
▁항공기	-5606
▁나갔	-5607
▁농구	-5608
▁전두환	-5609
레일	-5610
▁장식	-5611
▁파워	-5612
▁시골	-5613
▁아이스	-5614
▁성금	-5615
갑니다	-5616
▁체류	-5617
▁캡	-5618
▁흰	-5619
▁정산	-5620
▁덩	-5621
▁뱅	-5622
▁GT	-5623
▁힘쓰	-5624
▁간다	-5625
▁락	-5626
▁핑계	-5627
▁배포	-5628
▁처방	-5629
▁수년	-5630
▁오사	-5631
▁일치	-5632
▁영화제	-5633
▁정년	-5634
▁상금	-5635
▁유물	-5636
▁왜냐	-5637
▁고작	-5638
▁오른쪽	-5639
트로	-5640
▁소환	-5641
▁대금	-5642
▁식민지	-5643
▁1992	-5644
▁포스트	-5645
▁고스	-5646
▁지지자	-5647
▁중반	-5648
▁소득세	-5649
▁의료진	-5650
소시	-5651
▁나아	-5652
▁잔인	-5653
▁만세	-5654
▁◇	-5655
▁황당	-5656
▁본질	-5657
▁표면	-5658
▁귀국	-5659
▁스프	-5660
▁그러므로	-5661
▁오스트리아	-5662
▁미루	-5663
▁의정부	-5664
▁갖춰	-5665
▁리모	-5666
▁조현	-5667
▁훈장	-5668
▁절대로	-5669
▁퀴	-5670
▁그거	-5671
▁평일	-5672
▁후배	-5673
▁상무	-5674
▁가르치	-5675
▁개시	-5676
수수	-5677
▁IC	-5678
▁900	-5679
▁농사	-5680
▁수상자	-5681
▁마크	-5682
▁횟수	-5683
▁국군	-5684
▁나경원	-5685
▁유로	-5686
▁특권	-5687
▁띠	-5688
▁05	-5689
▁트렌	-5690
▁여고	-5691
▁갱	-5692
리지	-5693
▁운항	-5694
▁메이저	-5695
▁수송	-5696
▁인용	-5697
▁맥주	-5698
차례	-5699
▁그랬	-5700
▁비즈니스	-5701
▁솔로	-5702
▁오류	-5703
▁틈	-5704
공업	-5705
일랜드	-5706
▁아픔	-5707
▁가축	-5708
▁오로지	-5709
▁장애인	-5710
▁수확	-5711
▁협동조합	-5712
▁대원	-5713
▁보낼	-5714
▁용서	-5715
▁불안감	-5716
▁상권	-5717
▁몰려	-5718
▁어라	-5719
▁김수	-5720
▁총력	-5721
▁유적	-5722
▁뜯	-5723
▁대량	-5724
▁도내	-5725
▁마켓	-5726
▁젠	-5727
▁반란	-5728
▁시비	-5729
▁대구경북	-5730
▁~~~	-5731
▁공지	-5732
▁무게	-5733
▁제어	-5734
▁1991	-5735
▁7000	-5736
화문	-5737
▁미터	-5738
▁봉사자	-5739
▁유포	-5740
▁흥미	-5741
▁애기	-5742
▁참사	-5743
▁씁	-5744
▁수신	-5745
▁강좌	-5746
주교	-5747
▁고기	-5748
▁채권	-5749
▁방문객	-5750
▁엄벌	-5751
공항	-5752
▁상속	-5753
▁국공	-5754
▁유력	-5755
▁관여	-5756
▁새끼	-5757
▁항공사	-5758
▁박수	-5759
▁예요	-5760
PA	-5761
▁계급	-5762
▁트럭	-5763
▁흡수	-5764
▁걸어	-5765
▁넘기	-5766
▁접근성	-5767
▁파트너	-5768
▁나옵니다	-5769
▁스파	-5770
▁주권	-5771
▁비닐	-5772
▁공산당	-5773
포르	-5774
▁")	-5775
▁가속	-5776
▁부도	-5777
▁스쿨	-5778
▁시달리	-5779
▁무한	-5780
▁요시	-5781
▁최우선	-5782
드라	-5783
러지	-5784
▁결승전	-5785
▁미안	-5786
▁보인	-5787
▁학력	-5788
▁고의	-5789
▁흘리	-5790
▁쉬운	-5791
▁못합니다	-5792
▁뒤집	-5793
▁보편	-5794
▁닿	-5795
▁데리	-5796
▁시킨다	-5797
▁서장	-5798
▁그날	-5799
▁연설	-5800
▁수지	-5801
▁건설사	-5802
▁정차	-5803
평군	-5804
▁납품	-5805
▁저작	-5806
▁가만히	-5807
op	-5808
▁조언	-5809
ED	-5810
▁』	-5811
▁오랫	-5812
▁옹호	-5813
▁금호	-5814
▁1988	-5815
▁알렉	-5816
▁아이템	-5817
▁오스	-5818
▁감형	-5819
▁대항	-5820
▁트로	-5821
▁김민	-5822
▁선거구	-5823
▁쇄	-5824
▁x	-5825
▁관람객	-5826
▁라이프	-5827
▁정말로	-5828
▁언론사	-5829
너스	-5830
▁정세	-5831
▁겉	-5832
▁과일	-5833
▁대륙	-5834
▁왕조	-5835
▁이른바	-5836
▁셋째	-5837
▁청취	-5838
▁y	-5839
▁자매	-5840
▁줄어든	-5841
▁대해선	-5842
▁보호자	-5843
▁메인	-5844
무원	-5845
▁증언	-5846
말로	-5847
▁드러내	-5848
▁야생	-5849
▁발간	-5850
▁진영	-5851
▁약식	-5852
▁지목	-5853
▁며칠	-5854
▁130	-5855
▁고속도로	-5856
▁고구	-5857
▁용지	-5858
▁켜	-5859
▁손상	-5860
▁환불	-5861
▁드러냈	-5862
▁『	-5863
▁웅	-5864
먼스	-5865
▁그쳤	-5866
▁화장품	-5867
▁탕	-5868
▁간주	-5869
▁멈추	-5870
▁학문	-5871
▁혈액	-5872
▁일선	-5873
▁횡령	-5874
▁올라오	-5875
▁이루어진	-5876
▁땐	-5877
로운	-5878
▁게재	-5879
▁노동조합	-5880
▁집행유예	-5881
▁명소	-5882
▁재원	-5883
▁날짜	-5884
▁컸	-5885
▁강점기	-5886
▁대피	-5887
야마	-5888
▁끔찍	-5889
▁부근	-5890
▁톡	-5891
힌다	-5892
▁과실	-5893
▁그램	-5894
▁회전	-5895
▁학년도	-5896
▁고인	-5897
▁그만두	-5898
▁댄스	-5899
▁방위	-5900
▁선두	-5901
▁으셨	-5902
▁치킨	-5903
▁오랫동안	-5904
▁맑	-5905
▁우대	-5906
▁수호	-5907
▁발매되	-5908
▁국산	-5909
▁나간	-5910
▁기숙	-5911
▁소용	-5912
▁장례	-5913
▁의해서	-5914
▁본회의	-5915
루션	-5916
▁"(	-5917
▁퇴사	-5918
▁될까요	-5919
▁범인	-5920
▁성희	-5921
▁선전	-5922
▁섞	-5923
OU	-5924
▁법규	-5925
▁선거법	-5926
▁사인	-5927
▁특구	-5928
마자	-5929
▁최상	-5930
▁비행기	-5931
▁수원시	-5932
▁뺏	-5933
▁캄	-5934
▁공천	-5935
▁성별	-5936
▁金	-5937
워드	-5938
▁회피	-5939
▁금강	-5940
▁160	-5941
▁CE	-5942
▁신성	-5943
▁테크노	-5944
▁단백	-5945
▁도우	-5946
▁피싱	-5947
▁신재	-5948
▁물려	-5949
▁박영	-5950
▁Z	-5951
▁해야지	-5952
▁짝	-5953
▁기쁘	-5954
▁어이	-5955
▁헝	-5956
▁학급	-5957
▁힘써	-5958
▁익산	-5959
▁어깨	-5960
▁유동	-5961
▁상대방	-5962
▁페이지	-5963
▁1993	-5964
▁싹	-5965
▁퍼포	-5966
▁퍼포먼스	-5967
▁돋	-5968
▁광복	-5969
▁초점	-5970
▁남도	-5971
▁내외	-5972
▁빌려	-5973
▁동향	-5974
▁잦	-5975
▁어긋	-5976
무소	-5977
▁시사	-5978
▁사격	-5979
▁인과	-5980
▁상해	-5981
▁비치	-5982
▁수료	-5983
▁허락	-5984
▁신다면	-5985
▁갓	-5986
▁기장	-5987
▁바로잡	-5988
▁이라	-5989
▁110	-5990
▁답니다	-5991
▁동성애	-5992
▁멍	-5993
▁일요일	-5994
40	-5995
▁꿈꾸	-5996
▁실증	-5997
▁등록금	-5998
▁압력	-5999
▁횡포	-6000
▁고속도	-6001
▁감수	-6002
▁쉼터	-6003
▁흐르	-6004
모리	-6005
▁우울증	-6006
▁셧	-6007
▁전사	-6008
▁선보인다	-6009
▁서양	-6010
▁의약	-6011
▁사업주	-6012
▁유성	-6013
▁창고	-6014
▁합성	-6015
▁단절	-6016
▁아스	-6017
▁오가	-6018
▁112	-6019
▁기피	-6020
▁들어갈	-6021
▁엿	-6022
▁미쳤	-6023
▁행진	-6024
▁기념식	-6025
기술센터	-6026
▁건국	-6027
▁남한	-6028
▁모금	-6029
▁약하	-6030
▁성희롱	-6031
▁마드	-6032
▁남원	-6033
▁황금	-6034
▁발주	-6035
▁만날	-6036
▁여지	-6037
▁장수	-6038
▁확신	-6039
▁농업기술센터	-6040
▁어촌	-6041
▁접촉자	-6042
▁마음대로	-6043
▁기하	-6044
▁단일팀	-6045
▁인턴	-6046
▁깜짝	-6047
▁장성	-6048
▁보행자	-6049
▁수산물	-6050
▁태평양	-6051
▁위촉	-6052
▁한두	-6053
▁정의당	-6054
▁안타까운	-6055
▁됬	-6056
센티브	-6057
특별	-6058
▁인센티브	-6059
▁°	-6060
▁흙	-6061
▁퇴직금	-6062
▁토크	-6063
▁법제	-6064
▁타자	-6065
▁노리	-6066
▁FA	-6067
▁광부	-6068
▁바쁘	-6069
▁변신	-6070
▁약물	-6071
▁헬스	-6072
▁중복	-6073
▁공론	-6074
▁계약서	-6075
▁청정기	-6076
▁아티스트	-6077
▁박상	-6078
▁지나치	-6079
▁유죄	-6080
나가	-6081
▁반박	-6082
▁쇼핑몰	-6083
▁타이어	-6084
ᅳᅳ	-6085
미터	-6086
▁수차례	-6087
▁감각	-6088
▁조회	-6089
▁할아버지	-6090
▁약한	-6091
▁분할	-6092
▁운명	-6093
▁진행할	-6094
▁바뀐	-6095
▁국어	-6096
오프	-6097
▁넥	-6098
▁드릴	-6099
▁시흥	-6100
▁종일	-6101
▁이력	-6102
▁불쌍	-6103
▁주류	-6104
▁멘토	-6105
▁분권	-6106
▁표정	-6107
▁비서관	-6108
▁남겼	-6109
▁주어	-6110
▁나뉘	-6111
▁밀려	-6112
▁세탁	-6113
▁일각	-6114
▁판로	-6115
잡이	-6116
▁01	-6117
▁압류	-6118
▁장교	-6119
만금	-6120
▁에다	-6121
▁어려울	-6122
▁그치	-6123
▁좌석	-6124
▁리스트	-6125
▁최우수	-6126
▁단백질	-6127
▁아닐까요	-6128
▁안전사고	-6129
체인	-6130
▁카운	-6131
▁교과서	-6132
▁잎	-6133
▁납세	-6134
▁캘리	-6135
▁상한	-6136
▁시일	-6137
▁창단	-6138
▁허브	-6139
NG	-6140
▁지검	-6141
▁수면	-6142
▁몰래	-6143
▁대거	-6144
▁업주	-6145
▁미용	-6146
▁플라	-6147
▁조종	-6148
▁즐거	-6149
▁톱	-6150
▁고전	-6151
▁안성	-6152
▁낙태	-6153
▁요새	-6154
▁레코드	-6155
▁계절	-6156
▁무릎	-6157
▁수습	-6158
▁오브	-6159
▁오해	-6160
공단	-6161
▁거뒀	-6162
▁윤석	-6163
▁화이자	-6164
본부	-6165
▁살아갈	-6166
▁최신	-6167
▁중순	-6168
제품	-6169
▁새만금	-6170
▁텔레비전	-6171
▁인종	-6172
▁자마자	-6173
▁옮기	-6174
▁현수	-6175
▁지도부	-6176
▁분과	-6177
▁카이	-6178
▁퇴출	-6179
▁떠올	-6180
▁서산	-6181
▁탄압	-6182
▁솔루션	-6183
▁통학	-6184
ur	-6185
▁바람직	-6186
▁불신	-6187
▁샘	-6188
▁선포	-6189
▁크로	-6190
▁경매	-6191
▁입양	-6192
▁김경수	-6193
시간	-6194
▁착한	-6195
▁채워	-6196
▁가벼	-6197
▁영웅	-6198
▁위성	-6199
▁포항시	-6200
▁■	-6201
▁상자	-6202
▁naver	-6203
▁유용	-6204
▁아일랜드	-6205
▁경로당	-6206
▁관련자	-6207
▁선보였	-6208
▁실업자	-6209
▁수시로	-6210
▁생활비	-6211
▁걸린	-6212
▁동등	-6213
▁친일파	-6214
▁미흡	-6215
▁사냥	-6216
▁아까	-6217
▁지장	-6218
▁고개	-6219
▁모를	-6220
▁압도	-6221
▁블록체인	-6222
▁맡기	-6223
▁환승	-6224
매김	-6225
▁벨트	-6226
▁한자	-6227
▁강구	-6228
페라	-6229
▁내주	-6230
▁무더	-6231
▁동남아	-6232
▁오피스텔	-6233
▁자리매김	-6234
▁수위	-6235
▁팜	-6236
▁02	-6237
▁입금	-6238
▁CO	-6239
▁계단	-6240
베이	-6241
▁과감	-6242
▁섬유	-6243
▁표명	-6244
▁국세청	-6245
머스	-6246
▁김지	-6247
▁금감원	-6248
▁1989	-6249
▁03	-6250
▁각국	-6251
▁실점	-6252
▁경상남도	-6253
▁보좌관	-6254
▁도지사	-6255
▁정한	-6256
▁추후	-6257
▁ᅮ	-6258
▁다닐	-6259
▁가문	-6260
▁담겨	-6261
▁발송	-6262
▁시술	-6263
▁견인	-6264
▁독점	-6265
▁모터	-6266
▁히로	-6267
가포르	-6268
▁처해	-6269
▁홍성	-6270
부르크	-6271
▁싱가포르	-6272
▁높일	-6273
▁연고	-6274
▁지킬	-6275
▁이송	-6276
▁친절	-6277
▁여학생	-6278
▁더욱더	-6279
▁가리킨다	-6280
▁녀	-6281
욕장	-6282
▁등지	-6283
▁면담	-6284
▁축사	-6285
▁돌보	-6286
▁전월	-6287
▁국정원	-6288
▁원천	-6289
▁프라	-6290
▁돌려주	-6291
▁양질	-6292
▁점유	-6293
▁정류	-6294
▁양육비	-6295
CC	-6296
▁되찾	-6297
이크	-6298
▁자회사	-6299
▁모릅니다	-6300
▁밀접	-6301
▁방출	-6302
▁위축	-6303
ay	-6304
▁지능	-6305
▁몫	-6306
▁동문	-6307
▁화물차	-6308
▁권위	-6309
▁다치	-6310
▁휴양	-6311
▁입주민	-6312
▁재무	-6313
▁징병	-6314
▁광화문	-6315
▁사명	-6316
▁이뤄질	-6317
▁교통안전	-6318
▁무산	-6319
▁김병	-6320
▁탄력	-6321
▁논쟁	-6322
▁대교	-6323
▁억지	-6324
▁미소	-6325
▁침대	-6326
▁지주	-6327
▁두려워	-6328
▁제작진	-6329
▁하도	-6330
▁전제	-6331
▁태권	-6332
▁표지	-6333
▁지켜야	-6334
▁통신사	-6335
▁세미나	-6336
▁누릴	-6337
▁무렵	-6338
▁아미	-6339
▁두려움	-6340
▁놀이터	-6341
▁이집	-6342
머리	-6343
▁송도	-6344
▁여가	-6345
▁장려금	-6346
▁감사원	-6347
▁이집트	-6348
▁민사	-6349
▁끄	-6350
닉스	-6351
▁감지	-6352
▁난리	-6353
▁부추	-6354
▁포스	-6355
▁단원	-6356
▁야마	-6357
▁와중	-6358
▁행성	-6359
ia	-6360
▁칩	-6361
▁강경	-6362
▁때리	-6363
▁외출	-6364
▁유가족	-6365
im	-6366
▁명성	-6367
▁티켓	-6368
▁대한항공	-6369
▁고사	-6370
▁음성군	-6371
▁1950	-6372
▁선량	-6373
▁품종	-6374
▁연애	-6375
▁일용	-6376
▁야기	-6377
▁문경	-6378
▁물어	-6379
▁승점	-6380
▁적당	-6381
▁로맨	-6382
▁전방	-6383
▁추측	-6384
▁낚	-6385
▁붙잡	-6386
▁이룬	-6387
▁보강	-6388
▁망하	-6389
▁전라북도	-6390
밀히	-6391
▁신부	-6392
▁1987	-6393
▁적응	-6394
케이션	-6395
▁휠	-6396
▁대수	-6397
▁마침	-6398
▁상당수	-6399
▁드래	-6400
▁유예	-6401
▁흡연자	-6402
▁김해시	-6403
▁신화	-6404
▁고스란히	-6405
▁동북	-6406
▁나쁘	-6407
▁국공립	-6408
▁돌아온	-6409
ir	-6410
▁몰아	-6411
▁분당	-6412
▁학사	-6413
▁AP	-6414
▁순찰	-6415
▁진도	-6416
▁이뤄진	-6417
마스	-6418
▁강행	-6419
▁고조	-6420
▁피우	-6421
▁웰	-6422
▁꼬리	-6423
▁플로	-6424
▁욱	-6425
▁구별	-6426
▁포지	-6427
ea	-6428
▁알렸	-6429
▁충실	-6430
▁내륙	-6431
▁개조	-6432
▁포도	-6433
▁윌리	-6434
▁정황	-6435
▁호봉	-6436
▁무주택자	-6437
▁뚫	-6438
▁부시장	-6439
시오	-6440
▁간격	-6441
▁들이	-6442
▁울릉	-6443
▁찾아보	-6444
▁산재	-6445
▁일가	-6446
▁다중	-6447
▁무서운	-6448
▁피고인	-6449
▁방면	-6450
토리	-6451
▁경위	-6452
▁곧바로	-6453
2)	-6454
권력	-6455
▁걸까요	-6456
▁갑작	-6457
▁!!!!!	-6458
▁오페라	-6459
▁궤도	-6460
▁데려	-6461
▁오세	-6462
▁원격	-6463
▁도달	-6464
▁생애	-6465
▁****	-6466
▁동장	-6467
▁모순	-6468
▁기숙사	-6469
▁무너지	-6470
▁관세	-6471
▁학살	-6472
▁민정	-6473
무사	-6474
▁TF	-6475
▁승차	-6476
▁한때	-6477
▁참조	-6478
▁창구	-6479
▁",	-6480
▁침략	-6481
▁구도	-6482
▁입점	-6483
▁양승	-6484
▁입소	-6485
▁승용차	-6486
▁.......	-6487
▁전설	-6488
80	-6489
▁부끄럽	-6490
▁주식회사	-6491
▁트렌드	-6492
▁동행	-6493
▁렀	-6494
▁남대	-6495
▁끌어올	-6496
▁극대	-6497
▁대외	-6498
▁몰리	-6499
▁연체	-6500
▁음원	-6501
▁풀이	-6502
▁고가	-6503
▁등판	-6504
▁한미	-6505
▁대사관	-6506
▁당할	-6507
▁조상	-6508
▁들어온	-6509
싱턴	-6510
▁주부	-6511
▁첨부	-6512
ve	-6513
▁배수	-6514
▁자재	-6515
▁오사카	-6516
구나	-6517
▁티비	-6518
▁독특	-6519
▁개개	-6520
▁고성	-6521
망이	-6522
▁가려	-6523
▁서버	-6524
▁이겨	-6525
▁금전	-6526
▁어처	-6527
▁ᄏᄏᄏ	-6528
▁레드	-6529
▁중견	-6530
▁경보	-6531
▁휩	-6532
▁니깐	-6533
▁밸리	-6534
▁자세히	-6535
▁만났	-6536
▁안산	-6537
▁140	-6538
▁re	-6539
▁역전	-6540
▁연일	-6541
▁포르투	-6542
▁中	-6543
▁석방	-6544
▁조화	-6545
▁스카이	-6546
▁모시	-6547
▁릴레이	-6548
▁달한다	-6549
▁좌우	-6550
▁내보	-6551
▁of	-6552
▁써야	-6553
▁련	-6554
▁일체	-6555
▁돌아왔	-6556
▁국기	-6557
▁뚜렷	-6558
▁분담	-6559
▁참모	-6560
▁신분증	-6561
▁기조	-6562
하우	-6563
▁재정부	-6564
▁믹	-6565
▁소집	-6566
▁드루	-6567
▁스리	-6568
▁세입자	-6569
▁1500	-6570
▁왜냐하면	-6571
▁2025	-6572
▁기법	-6573
▁케이블	-6574
▁무력	-6575
▁인격	-6576
▁택지	-6577
▁해질	-6578
다보	-6579
▁농기	-6580
▁어선	-6581
▁입력	-6582
▁가볍	-6583
▁시가	-6584
▁tvN	-6585
▁불어	-6586
▁특위	-6587
▁후회	-6588
▁대략	-6589
▁언니	-6590
▁반납	-6591
▁양극	-6592
▁태안	-6593
▁공감대	-6594
▁빨간	-6595
▁유망	-6596
▁자존	-6597
▁지니	-6598
티아	-6599
▁어처구니	-6600
▁李	-6601
▁빈번	-6602
▁리얼	-6603
▁부합	-6604
▁●	-6605
병대	-6606
▁달했	-6607
▁누르	-6608
▁세비	-6609
▁유세	-6610
▁무효	-6611
건설	-6612
▁기리	-6613
▁상관없이	-6614
학자	-6615
▁이마트	-6616
▁해운대	-6617
▁임시회	-6618
시스	-6619
60	-6620
▁배부	-6621
▁치과	-6622
▁KIA	-6623
▁잇따라	-6624
▁밭	-6625
▁중국인	-6626
▁합창	-6627
▁퓨	-6628
▁인테	-6629
사무소	-6630
▁견해	-6631
▁경과	-6632
▁바우	-6633
▁초미	-6634
▁광산구	-6635
▁co	-6636
▁규탄	-6637
평균	-6638
▁현수막	-6639
모토	-6640
▁진지	-6641
▁워싱턴	-6642
▁수주	-6643
▁할까	-6644
▁코너	-6645
▁캘리포	-6646
▁피아노	-6647
▁신생	-6648
▁지낸	-6649
▁구호	-6650
▁영리	-6651
▁천황	-6652
▁하나님	-6653
ec	-6654
▁앵	-6655
▁GS	-6656
▁사범	-6657
▁가져가	-6658
▁픽	-6659
▁약국	-6660
▁이목	-6661
▁UE	-6662
▁동화	-6663
▁재고	-6664
▁1945	-6665
부로	-6666
▁김명	-6667
▁단가	-6668
▁굿	-6669
▁정형	-6670
▁문화유산	-6671
▁이준	-6672
▁폭락	-6673
▁일손	-6674
▁다자	-6675
▁로또	-6676
받침	-6677
▁키울	-6678
▁기업체	-6679
▁캘리포니아	-6680
▁방관	-6681
리에	-6682
▁탐방	-6683
파크	-6684
▁혼인	-6685
▁국도	-6686
자치	-6687
▁연동	-6688
▁몰카	-6689
▁호평	-6690
og	-6691
▁닝	-6692
▁트위	-6693
▁핫	-6694
▁우체	-6695
▁파산	-6696
▁베네	-6697
▁세르	-6698
▁최순	-6699
▁기상청	-6700
▁기업인	-6701
▁서면	-6702
▁각오	-6703
▁대여	-6704
▁가깝	-6705
▁도출	-6706
▁각지	-6707
▁험	-6708
경기	-6709
▁자치구	-6710
▁연안	-6711
러진	-6712
▁매물	-6713
▁지났	-6714
▁늘어날	-6715
▁극심	-6716
▁정해진	-6717
▁St	-6718
▁만료	-6719
▁하원	-6720
▁딴	-6721
▁선착	-6722
▁소원	-6723
▁조만	-6724
▁전무	-6725
▁플랜	-6726
▁으라고	-6727
벨트	-6728
▁한강	-6729
협회	-6730
▁검출	-6731
▁나름	-6732
▁오케	-6733
▁예산안	-6734
▁이루어져	-6735
▁페미니즘	-6736
▁미칠	-6737
▁or	-6738
▁동대	-6739
▁서원	-6740
납니다	-6741
▁예산군	-6742
▁불렀	-6743
▁어이없	-6744
▁UEFA	-6745
▁공화	-6746
▁산지	-6747
▁서기	-6748
▁PD	-6749
▁올릴	-6750
▁익명	-6751
▁만족도	-6752
▁글자	-6753
▁들려	-6754
▁빙상	-6755
둥이	-6756
▁근육	-6757
▁함수	-6758
▁영업자	-6759
▁헝가리	-6760
▁씻	-6761
▁인디	-6762
▁김천	-6763
▁지붕	-6764
▁기울여	-6765
허가	-6766
릭스	-6767
▁포지션	-6768
▁곰	-6769
▁구멍	-6770
▁난다	-6771
▁막말	-6772
▁전신	-6773
▁보일	-6774
▁일산	-6775
▁꿀	-6776
▁명명	-6777
▁청탁	-6778
▁여의도	-6779
▁줍니다	-6780
▁헨	-6781
▁군복	-6782
▁변호	-6783
▁상영	-6784
▁용량	-6785
▁한쪽	-6786
▁동래	-6787
▁욕구	-6788
▁일회	-6789
▁자진	-6790
▁정교	-6791
▁라이트	-6792
▁섭취	-6793
▁우크	-6794
▁개체	-6795
▁매트	-6796
▁실용	-6797
▁KBO	-6798
ot	-6799
▁파티	-6800
레이션	-6801
▁민원인	-6802
▁틱	-6803
▁패널	-6804
▁진정한	-6805
em	-6806
▁KTX	-6807
▁외교부	-6808
▁짜증	-6809
▁GM	-6810
▁인연	-6811
▁교차로	-6812
▁힘드	-6813
▁가전	-6814
▁그해	-6815
▁다짐	-6816
▁102	-6817
▁임의	-6818
▁사업단	-6819
▁득표	-6820
▁어릴	-6821
▁원은	-6822
▁캔	-6823
▁in	-6824
▁향하	-6825
▁구해	-6826
▁동작	-6827
▁사직	-6828
▁생일	-6829
▁선행	-6830
▁플래	-6831
▁해경	-6832
▁공백	-6833
▁정무	-6834
▁매출액	-6835
▁바꿀	-6836
▁성당	-6837
프리카	-6838
▁엑스포	-6839
▁김일	-6840
▁밝혀졌	-6841
체류	-6842
▁NH	-6843
▁여주	-6844
▁와인	-6845
▁개개인	-6846
▁박차	-6847
▁고충	-6848
▁》()	-6849
▁부담금	-6850
▁고치	-6851
▁이치	-6852
▁작물	-6853
▁전주시	-6854
▁기술력	-6855
▁교부	-6856
▁국고	-6857
▁으세요	-6858
▁갈라	-6859
▁쓰여	-6860
▁공권력	-6861
▁국왕	-6862
▁조세	-6863
▁동결	-6864
▁법관	-6865
▁정례	-6866
▁개미	-6867
▁위대	-6868
▁조폭	-6869
▁불법체류	-6870
▁똥	-6871
▁바쁜	-6872
▁떠났	-6873
▁초미세	-6874
▁일보	-6875
▁제자	-6876
▁ICT	-6877
아리	-6878
▁언제나	-6879
oc	-6880
▁검정	-6881
▁대국민	-6882
▁다가오	-6883
▁인데요	-6884
▁간편	-6885
▁단식	-6886
▁금산	-6887
▁백성	-6888
▁기념관	-6889
▁증명서	-6890
▁101	-6891
▁꽤	-6892
▁고마	-6893
▁주무	-6894
▁획기	-6895
ag	-6896
▁거친	-6897
▁취직	-6898
공정	-6899
▁변수	-6900
▁증인	-6901
▁늘어났	-6902
▁시켜서	-6903
TS	-6904
▁시중	-6905
▁벌어진	-6906
▁빌딩	-6907
▁GTX	-6908
▁군단	-6909
▁카르	-6910
▁골프장	-6911
▁베이징	-6912
▁관중	-6913
▁아쉽	-6914
▁주정	-6915
영향	-6916
타인	-6917
▁상세	-6918
▁패스	-6919
▁미혼	-6920
▁경연	-6921
▁고맙	-6922
▁화순	-6923
▁입주자	-6924
▁투기꾼	-6925
▁끊임없이	-6926
▁결심	-6927
▁불거	-6928
▁전염	-6929
키스탄	-6930
▁창문	-6931
▁히트	-6932
▁우회	-6933
▁가맹점	-6934
▁함부로	-6935
어리	-6936
▁광양시	-6937
▁노하우	-6938
▁차세대	-6939
이즈	-6940
▁주전	-6941
스키	-6942
▁하남	-6943
▁두렵	-6944
▁상용	-6945
▁본보	-6946
▁방송국	-6947
▁자본주의	-6948
▁공조	-6949
▁양보	-6950
▁유효	-6951
▁교섭	-6952
▁일당	-6953
▁잡지	-6954
▁은지	-6955
셔널	-6956
▁아리	-6957
▁스프링	-6958
▁해킹	-6959
▁고령화	-6960
▁ᄋ	-6961
▁선조	-6962
▁신앙	-6963
▁포착	-6964
▁박성	-6965
▁재수	-6966
오스	-6967
eti	-6968
▁리자	-6969
▁경산	-6970
▁지옥	-6971
▁합격자	-6972
▁통산	-6973
▁힘없	-6974
▁정류장	-6975
▁모리	-6976
▁더욱이	-6977
OP	-6978
▁조롱	-6979
▁지회	-6980
▁보단	-6981
▁강서구	-6982
▁물러나	-6983
▁IM	-6984
▁흔적	-6985
▁튼	-6986
▁지혜	-6987
▁모빌	-6988
▁전차	-6989
▁신속히	-6990
▁홍준	-6991
▁의약품	-6992
▁민관	-6993
방망이	-6994
▁둘러싼	-6995
▁껍	-6996
▁붙이	-6997
▁트위터	-6998
▁안팎	-6999
▁山	-7000
▁밀리	-7001
▁배구	-7002
▁갤러리	-7003
▁교육비	-7004
▁들리	-7005
▁포스터	-7006
▁유연	-7007
원회	-7008
▁매니저	-7009
▁지방세	-7010
▁대면	-7011
▁직위	-7012
▁참석자	-7013
▁MB	-7014
▁원가	-7015
▁무선	-7016
▁연도	-7017
▁자행	-7018
res	-7019
▁패스트	-7020
▁소매	-7021
▁여사	-7022
고속	-7023
▁기술원	-7024
▁양도세	-7025
▁백제	-7026
TA	-7027
▁동명	-7028
▁UN	-7029
▁쪼	-7030
12	-7031
▁고흥	-7032
▁급속	-7033
▁양상	-7034
▁일본인	-7035
▁상수도	-7036
센트	-7037
▁강진	-7038
▁겐	-7039
▁이낙	-7040
▁주범	-7041
▁350	-7042
▁게이	-7043
▁곤란	-7044
▁9000	-7045
▁조카	-7046
▁고백	-7047
▁워크숍	-7048
▁장인	-7049
▁창설	-7050
▁곁	-7051
▁쿼	-7052
▁일괄	-7053
▁아랍	-7054
▁신세계	-7055
▁통계청	-7056
▁급등	-7057
▁이시	-7058
▁1986	-7059
▁딜	-7060
스토	-7061
▁접목	-7062
▁대전시	-7063
▁걸렸	-7064
▁농수	-7065
▁저자	-7066
▁헌혈	-7067
▁170	-7068
▁베이스	-7069
▁김제	-7070
▁회의소	-7071
▁솜방망이	-7072
여행	-7073
▁권유	-7074
▁운운	-7075
▁위조	-7076
▁좌절	-7077
▁이어진	-7078
▁앞세	-7079
▁이낙연	-7080
▁노트	-7081
▁에드	-7082
▁에피	-7083
▁중공업	-7084
▁대법원장	-7085
높이	-7086
▁습관	-7087
▁시너지	-7088
영수	-7089
▁앞당	-7090
▁체인	-7091
▁코미	-7092
▁분자	-7093
▁염원	-7094
▁칭찬	-7095
▁깃	-7096
▁소스	-7097
▁업적	-7098
▁음식물	-7099
업자	-7100
▁윈도	-7101
▁서울특별	-7102
▁조만간	-7103
▁홍준표	-7104
▁특별히	-7105
▁계곡	-7106
▁슬로건	-7107
▁포르투갈	-7108
▁해지	-7109
▁줄기	-7110
▁이지	-7111
▁터키	-7112
▁사제	-7113
▁뒷받침	-7114
▁II	-7115
▁유독	-7116
▁디스플레이	-7117
개발	-7118
▁》,	-7119
▁적립	-7120
▁희생자	-7121
폭력	-7122
▁전입	-7123
▁말레이	-7124
▁자아냈	-7125
▁AS	-7126
▁수색	-7127
▁유료	-7128
▁일으킨	-7129
▁장기간	-7130
놀이	-7131
▁뒤늦	-7132
▁이용객	-7133
▁망치	-7134
티나	-7135
▁우스	-7136
▁낙동	-7137
▁가리키	-7138
▁원료	-7139
▁훔	-7140
▁공예	-7141
▁스틸	-7142
▁스크린	-7143
갱이	-7144
▁민중	-7145
▁윌리엄	-7146
▁본관	-7147
▁개량	-7148
▁피로	-7149
▁모의	-7150
▁06	-7151
▁발목	-7152
▁체불	-7153
▁파주	-7154
▁이메	-7155
▁하드	-7156
▁특산물	-7157
▁구직	-7158
▁온실	-7159
▁줘서	-7160
▁행하	-7161
▁갑작스	-7162
▁클래스	-7163
▁원금	-7164
▁한우	-7165
ow	-7166
▁콤	-7167
▁욕심	-7168
▁정면	-7169
▁정읍	-7170
▁우롱	-7171
혜원	-7172
▁사령관	-7173
▁맛있	-7174
▁떠오르	-7175
레일리아	-7176
▁김보	-7177
▁전대	-7178
데타	-7179
▁손가락	-7180
브리	-7181
▁이재용	-7182
▁취업자	-7183
▁낚시	-7184
▁박원	-7185
▁필기	-7186
▁계열사	-7187
인드	-7188
▁이바지	-7189
면적	-7190
▁악마	-7191
▁양쪽	-7192
▁중동	-7193
▁그루	-7194
▁어우	-7195
▁j	-7196
▁운수	-7197
????	-7198
려면	-7199
▁In	-7200
▁계룡	-7201
▁답했	-7202
▁부드	-7203
▁빌라	-7204
▁이산	-7205
▁닥터	-7206
▁등산	-7207
▁야권	-7208
▁침입	-7209
▁중개사	-7210
▁국제공항	-7211
▁성경	-7212
▁시끄	-7213
▁자부심	-7214
▁독려	-7215
▁상원	-7216
▁연루	-7217
▁검거	-7218
▁자이	-7219
▁여름철	-7220
▁민감	-7221
▁어마	-7222
풀이	-7223
▁더더	-7224
▁작곡가	-7225
▁파라	-7226
▁탱	-7227
▁부임	-7228
tu	-7229
▁썬	-7230
▁약사	-7231
임스	-7232
▁미드	-7233
▁민법	-7234
▁전산	-7235
▁185	-7236
▁윤석열	-7237
▁어린아이	-7238
통일	-7239
▁과수	-7240
▁유린	-7241
▁일본군	-7242
▁구인	-7243
▁바램	-7244
벤션	-7245
▁푸른	-7246
▁플레이오프	-7247
▁직종	-7248
▁냉장	-7249
▁람	-7250
▁OEC	-7251
▁모자라	-7252
▁사령부	-7253
▁이른다	-7254
▁좋아하	-7255
▁아키	-7256
▁잠수	-7257
▁차등	-7258
신문고	-7259
▁연이	-7260
▁편히	-7261
▁LPG	-7262
▁국민신문고	-7263
ul	-7264
▁떠들	-7265
▁브레이	-7266
▁핀란드	-7267
▁감싸	-7268
▁김광	-7269
▁뽐	-7270
▁이윤	-7271
▁나치	-7272
▁상사	-7273
▁블로그	-7274
▁재판소	-7275
▁OECD	-7276
▁꼼꼼	-7277
▁상습	-7278
▁원작	-7279
▁전적	-7280
▁증정	-7281
▁MOU	-7282
▁생산량	-7283
▁이메일	-7284
▁프로세	-7285
tions	-7286
▁ᆞ군	-7287
▁독립운동가	-7288
▁앗	-7289
▁였을	-7290
문화재	-7291
▁롱	-7292
▁즐겁	-7293
▁할려고	-7294
▁배후	-7295
▁직권	-7296
▁독거	-7297
▁무궁	-7298
▁시신	-7299
▁내려가	-7300
▁배운	-7301
▁프린	-7302
▁일용직	-7303
▁컨벤션	-7304
CA	-7305
▁우체국	-7306
▁파탄	-7307
▁부른다	-7308
ce	-7309
오카	-7310
▁간판	-7311
▁너희	-7312
▁연상	-7313
▁원단	-7314
▁유권자	-7315
▁원수	-7316
▁살림	-7317
런스	-7318
▁국외	-7319
▁빠졌	-7320
▁산소	-7321
▁만만	-7322
▁법칙	-7323
▁서울특별시	-7324
소드	-7325
▁침묵	-7326
▁충주시	-7327
▁코미디	-7328
▁체전	-7329
▁끌려	-7330
▁워킹	-7331
▁즉위	-7332
▁끼치	-7333
▁성숙	-7334
▁식량	-7335
▁다면서	-7336
▁아산시	-7337
70	-7338
▁방류	-7339
▁탁상	-7340
▁믿음	-7341
▁부를	-7342
▁유인	-7343
▁가담	-7344
▁미수	-7345
▁전락	-7346
▁인테리어	-7347
▁ᄒ	-7348
▁서초	-7349
▁중재	-7350
▁다카	-7351
▁미나	-7352
▁부평	-7353
▁옥천군	-7354
▁인해서	-7355
▁CD	-7356
▁대강	-7357
▁금요일	-7358
▁보살	-7359
▁위해선	-7360
슬라	-7361
▁발효	-7362
▁신도	-7363
▁쿠데타	-7364
▁당내	-7365
▁풍경	-7366
▁넘쳐	-7367
▁매진	-7368
▁쿨	-7369
▁색깔	-7370
▁CEO	-7371
▁의자	-7372
ap	-7373
흡연	-7374
▁경호	-7375
▁벌어졌	-7376
▁공세	-7377
▁보컬	-7378
▁근무자	-7379
▁살피	-7380
▁스펙	-7381
▁사운드	-7382
▁마산	-7383
▁쿠팡	-7384
▁The	-7385
▁일으켰	-7386
▁은하	-7387
▁반전	-7388
▁진천	-7389
▁수성구	-7390
▁사물	-7391
▁장터	-7392
▁감찰	-7393
▁더더욱	-7394
ter	-7395
▁컬러	-7396
▁상승세	-7397
▁안방	-7398
▁주정차	-7399
▁통지	-7400
▁폴리	-7401
▁고구려	-7402
셉트	-7403
▁키트	-7404
▁테이블	-7405
트라	-7406
▁노벨	-7407
▁남해	-7408
▁월요일	-7409
▁1985	-7410
박스	-7411
▁영원히	-7412
▁안드	-7413
▁선착순	-7414
▁자유민주	-7415
▁노총	-7416
▁드렸	-7417
▁밀어	-7418
▁일어	-7419
▁출하	-7420
▁불린다	-7421
▁두산	-7422
▁별다른	-7423
▁아메리카	-7424
▁복권	-7425
▁덴마크	-7426
▁충당	-7427
▁학점	-7428
▁현명	-7429
▁오스트레일리아	-7430
▁발탁	-7431
▁어두	-7432
▁외식	-7433
▁시행령	-7434
▁충청북도	-7435
▁부재	-7436
▁배당	-7437
▁특유	-7438
▁peti	-7439
▁i	-7440
▁개그	-7441
▁기쁨	-7442
▁양파	-7443
▁연다	-7444
▁클래식	-7445
▁때려	-7446
▁발상	-7447
▁특색	-7448
▁웹툰	-7449
▁주유	-7450
▁공연장	-7451
▁가벼운	-7452
▁운반	-7453
▁대지	-7454
▁원소	-7455
▁포토	-7456
▁후쿠시마	-7457
▁소셜	-7458
▁보험금	-7459
20	-7460
▁사자	-7461
▁세제	-7462
▁소모	-7463
▁감히	-7464
▁부딪	-7465
▁탈퇴	-7466
▁1984	-7467
▁김주	-7468
▁양수	-7469
▁응용	-7470
▁파면	-7471
▁멀티	-7472
▁전한	-7473
세포	-7474
▁다시피	-7475
▁꼼수	-7476
▁부의	-7477
▁자분	-7478
▁휴무	-7479
이어	-7480
저기	-7481
▁기만	-7482
▁담임	-7483
▁방사능	-7484
▁사무총장	-7485
버트	-7486
▁박종	-7487
▁애정	-7488
▁급격히	-7489
▁文	-7490
무니	-7491
▁동상	-7492
▁조율	-7493
▁판매량	-7494
▁유착	-7495
▁입자	-7496
▁무거운	-7497
▁여기저기	-7498
▁재현	-7499
▁주머니	-7500
▁모이	-7501
▁종결	-7502
▁불공정	-7503
▁모드	-7504
▁치우	-7505
▁법치	-7506
▁스런	-7507
▁착취	-7508
▁럭	-7509
▁CJ	-7510
▁놓여	-7511
▁더블	-7512
▁동호	-7513
▁보호구역	-7514
▁가덕	-7515
▁순차	-7516
▁제임스	-7517
▁변명	-7518
수산부	-7519
▁속한	-7520
▁작사	-7521
바닥	-7522
▁무자	-7523
▁인문	-7524
▁대입	-7525
▁우정	-7526
▁창업자	-7527
테이너	-7528
▁사라졌	-7529
▁표본	-7530
▁분배	-7531
▁치솟	-7532
▁카풀	-7533
▁한시	-7534
▁여수시	-7535
쳐서	-7536
▁인조	-7537
▁일간	-7538
▁매치	-7539
▁전술	-7540
▁주교	-7541
▁포트	-7542
▁하여금	-7543
88	-7544
ctv	-7545
▁농작	-7546
▁인제	-7547
▁죽여	-7548
▁petitions	-7549
▁다각	-7550
▁알파	-7551
▁특이	-7552
▁the	-7553
▁짖	-7554
▁큽	-7555
▁무안	-7556
▁들어왔	-7557
▁공대	-7558
▁미분	-7559
▁부하	-7560
▁들어선	-7561
▁경사	-7562
▁만성	-7563
▁폭로	-7564
▁도시락	-7565
▁명문	-7566
▁무화	-7567
▁씁니다	-7568
트넘	-7569
▁2024	-7570
▁해양수산부	-7571
▁반사	-7572
▁분해	-7573
▁항구	-7574
▁부각	-7575
▁악기	-7576
▁원산	-7577
▁복용	-7578
▁소홀	-7579
어버	-7580
▁파손	-7581
▁고양시	-7582
▁감상	-7583
▁종자	-7584
▁처지	-7585
▁낙동강	-7586
▁눌	-7587
창군	-7588
▁신한	-7589
▁노고	-7590
▁철강	-7591
▁한방	-7592
▁마드리	-7593
▁터무니	-7594
▁림	-7595
▁개원	-7596
▁조류	-7597
▁직결	-7598
▁외국어	-7599
▁뷰티	-7600
▁신기	-7601
▁동메달	-7602
▁금정	-7603
▁상정	-7604
▁한창	-7605
bs	-7606
▁광범	-7607
▁자책	-7608
▁보상금	-7609
▁하소연	-7610
▁후보지	-7611
▁생생	-7612
▁이태	-7613
▁정직	-7614
▁프라이	-7615
▁교정	-7616
▁열람	-7617
▁우습	-7618
▁도우미	-7619
▁둘러싸	-7620
▁결단	-7621
▁펼칠	-7622
▁이어져	-7623
FC	-7624
▁샀	-7625
▁KB	-7626
▁마라	-7627
▁숨겨	-7628
▁일까	-7629
▁아마도	-7630
▁발판	-7631
▁수명	-7632
▁외곽	-7633
▁종로	-7634
▁후진	-7635
▁이뤄지지	-7636
▁거품	-7637
▁포괄	-7638
▁그렇지만	-7639
▁레저	-7640
▁시공사	-7641
▁큽니다	-7642
▁귀촌	-7643
▁리조	-7644
▁신동	-7645
▁DB	-7646
▁EU	-7647
▁정선	-7648
▁죄인	-7649
▁한참	-7650
▁군데	-7651
▁녹지	-7652
▁태백	-7653
▁배움	-7654
▁새겨	-7655
▁해남	-7656
철수	-7657
▁우유	-7658
▁필터	-7659
▁나타난	-7660
워야	-7661
▁층간	-7662
▁오를	-7663
▁전교	-7664
시지가	-7665
슬림	-7666
▁원고	-7667
▁절약	-7668
▁꺼내	-7669
▁공시지가	-7670
▁이국	-7671
▁영동군	-7672
▁마드리드	-7673
11	-7674
▁다룬	-7675
▁환급	-7676
▁무슬림	-7677
▁저질렀	-7678
▁경감	-7679
▁속초	-7680
▁누진세	-7681
▁대충	-7682
▁이강	-7683
RI	-7684
▁문장	-7685
▁지청	-7686
▁184	-7687
▁살아남	-7688
▁결산	-7689
▁음란	-7690
▁잠깐	-7691
▁사생활	-7692
▁신청자	-7693
▁후원금	-7694
▁굶	-7695
▁조형	-7696
수수색	-7697
▁아닐까	-7698
▁압수수색	-7699
▁AZ	-7700
▁등재	-7701
▁크루	-7702
▁즐거운	-7703
▁에피소드	-7704
▁정주	-7705
▁정통	-7706
▁당황	-7707
▁진동	-7708
▁바꿔야	-7709
▁갇	-7710
연합	-7711
▁만일	-7712
▁변형	-7713
▁출간	-7714
SA	-7715
▁끈다	-7716
▁도발	-7717
▁배웠	-7718
▁오빠	-7719
▁IP	-7720
▁말기	-7721
▁이승만	-7722
▁돼서	-7723
▁스카	-7724
▁알렉산	-7725
▁잭	-7726
▁레인	-7727
▁합법화	-7728
▁샵	-7729
▁베를	-7730
▁환원	-7731
▁누진제	-7732
▁즐거움	-7733
▁이원	-7734
▁주역	-7735
▁해설	-7736
▁로맨스	-7737
십자	-7738
▁사내	-7739
▁출처	-7740
▁석사	-7741
▁다자녀	-7742
▁방송사	-7743
▁빌보드	-7744
돼지	-7745
방위	-7746
tic	-7747
▁공청	-7748
▁사학	-7749
▁양측	-7750
▁철원	-7751
▁토로	-7752
▁토트넘	-7753
▁두드	-7754
▁특급	-7755
▁검찰청	-7756
▁구민	-7757
▁노란	-7758
▁앞선	-7759
▁이관	-7760
▁채취	-7761
▁통영	-7762
▁관해	-7763
▁낮춰	-7764
__	-7765
▁합산	-7766
▁모스크	-7767
▁마냥	-7768
▁맞춘	-7769
▁써서	-7770
▁언젠	-7771
▁연산	-7772
▁질량	-7773
▁리조트	-7774
▁나마	-7775
▁소망	-7776
▁1982	-7777
▁동선	-7778
▁엄청나	-7779
▁ar	-7780
▁공용	-7781
▁미국인	-7782
▁젖	-7783
▁훗	-7784
▁보드	-7785
▁사죄	-7786
▁게스트	-7787
▁08	-7788
▁단양	-7789
▁과열	-7790
▁강소	-7791
▁축적	-7792
▁179	-7793
▁천주교	-7794
▁호기심	-7795
▁발레	-7796
▁향토	-7797
mp	-7798
자원	-7799
▁SU	-7800
▁나빠	-7801
▁뭡	-7802
▁스탠	-7803
▁불어넣	-7804
▁이병	-7805
▁증세	-7806
▁총재	-7807
▁관리비	-7808
▁재미있	-7809
▁공존	-7810
▁랭킹	-7811
▁필지	-7812
▁플랫폼	-7813
▁떳	-7814
▁머무	-7815
▁멀쩡	-7816
▁멸망	-7817
▁세이	-7818
▁굽	-7819
▁깡	-7820
▁성주	-7821
▁기간제	-7822
▁cctv	-7823
▁보충	-7824
▁모빌리티	-7825
▁경성	-7826
▁인형	-7827
▁침공	-7828
▁사거리	-7829
▁성남시	-7830
▁치료제	-7831
▁섹	-7832
▁마디	-7833
▁배신	-7834
▁광범위	-7835
▁콘셉트	-7836
▁김준	-7837
▁흘려	-7838
▁힙	-7839
▁연인	-7840
▁출력	-7841
▁임차인	-7842
▁・	-7843
▁댐	-7844
▁농기계	-7845
타리	-7846
▁공략	-7847
▁때로	-7848
▁소극	-7849
▁룰	-7850
▁공방	-7851
▁사리	-7852
▁식구	-7853
▁더러운	-7854
▁뭡니까	-7855
▁화이트	-7856
▁브루	-7857
▁재심	-7858
▁오케스트라	-7859
▁닉	-7860
재단	-7861
▁후임	-7862
▁내세우	-7863
▁빨갱이	-7864
▁보태	-7865
▁연소	-7866
▁지형	-7867
▁기다려	-7868
▁미지	-7869
▁이경	-7870
▁절망	-7871
▁첫날	-7872
▁전임	-7873
▁지난주	-7874
▁그러니까	-7875
▁한국전	-7876
▁리스	-7877
▁1981	-7878
▁마비	-7879
▁불로	-7880
▁습지	-7881
▁볼거리	-7882
부인	-7883
▁미달	-7884
▁밀도	-7885
▁애인	-7886
▁코스닥	-7887
▁해수욕장	-7888
▁바지	-7889
▁우즈	-7890
▁짓밟	-7891
▁못한다	-7892
▁불법행위	-7893
▁네티	-7894
▁잣	-7895
▁불행	-7896
▁토양	-7897
▁무서워	-7898
▁깎	-7899
러져	-7900
▁추운	-7901
▁패턴	-7902
▁말레이시아	-7903
베르	-7904
▁방제	-7905
▁빈곤	-7906
▁측근	-7907
네스코	-7908
▁대체로	-7909
▁철도망	-7910
▁정정	-7911
▁허나	-7912
▁DNA	-7913
▁단행	-7914
▁실체	-7915
▁퇴임	-7916
▁필드	-7917
나이티	-7918
택시	-7919
▁고액	-7920
▁신년	-7921
▁달라지	-7922
▁컨테이너	-7923
ri	-7924
▁벅	-7925
▁자사	-7926
▁트레이	-7927
▁삼국	-7928
▁전경	-7929
▁유나이티	-7930
▁될까	-7931
트롤	-7932
▁Ch	-7933
▁성질	-7934
▁군정	-7935
▁쓰인다	-7936
▁경각	-7937
▁뻔뻔	-7938
▁증원	-7939
▁라이온	-7940
▁수혜	-7941
▁원비	-7942
▁다녔	-7943
▁마늘	-7944
▁비스	-7945
▁엔지	-7946
▁탈세	-7947
▁SOC	-7948
▁운영비	-7949
▁내지	-7950
▁일회용	-7951
▁※	-7952
▁손자	-7953
▁가산점	-7954
▁금지법	-7955
▁내정	-7956
▁주먹	-7957
▁후지	-7958
st	-7959
▁1979	-7960
▁유네스코	-7961
두리	-7962
▁계십니다	-7963
▁완도	-7964
▁의류	-7965
▁지체	-7966
▁감자	-7967
▁수감	-7968
▁현제	-7969
▁펼쳐진다	-7970
SI	-7971
▁감리	-7972
▁내려오	-7973
주얼	-7974
▁강당	-7975
▁털어	-7976
▁편한	-7977
▁이순	-7978
유럽	-7979
▁강렬	-7980
▁길래	-7981
▁모인	-7982
▁바깥	-7983
▁센서	-7984
▁신념	-7985
▁임진	-7986
▁임종	-7987
▁그랜드	-7988
▁네티즌	-7989
▁두루	-7990
▁이모	-7991
▁아쉬움	-7992
▁1983	-7993
▁진료소	-7994
▁사관	-7995
▁으리	-7996
▁패러	-7997
▁돌아와	-7998
▁인체	-7999
▁치명	-8000
▁탐사	-8001
▁갱신	-8002
▁눈높이	-8003
▁예술가	-8004
▁노르웨이	-8005
▁플레이어	-8006
▁만행	-8007
▁우호	-8008
▁현충	-8009
▁카카오톡	-8010
▁페미니스트	-8011
행사	-8012
▁끊이	-8013
▁마루	-8014
▁위임	-8015
▁폭언	-8016
▁구름	-8017
▁기차	-8018
▁형법	-8019
▁마리아	-8020
▁대검	-8021
▁역세	-8022
▁난방	-8023
▁액션	-8024
▁용사	-8025
▁막막	-8026
▁상황실	-8027
▁엽	-8028
▁거세	-8029
▁마구	-8030
▁소아	-8031
▁명확히	-8032
▁꾀	-8033
차별	-8034
▁이만	-8035
▁선보일	-8036
▁아실	-8037
▁한진	-8038
먼트	-8039
▁마일	-8040
th	-8041
무기	-8042
▁밀착	-8043
▁걸친	-8044
▁골드	-8045
▁힘입	-8046
▁부제	-8047
▁예금	-8048
▁유류	-8049
▁이온	-8050
▁고종	-8051
위원회	-8052
▁주어지	-8053
▁곤충	-8054
▁소급	-8055
▁아십니까	-8056
▁예배	-8057
▁원도	-8058
▁행해	-8059
▁공청회	-8060
▁웨이	-8061
▁취미	-8062
▁프리미어	-8063
▁아깝	-8064
▁합작	-8065
▁여중생	-8066
▁윈도우	-8067
▁낡	-8068
▁엄정	-8069
▁져서	-8070
▁울진	-8071
▁치밀	-8072
▁조선일보	-8073
▁닮	-8074
▁김학	-8075
▁꼬박	-8076
▁전이	-8077
▁컴백	-8078
▁으라는	-8079
군다	-8080
럭시	-8081
▁하인	-8082
▁교육장	-8083
▁닷	-8084
▁약화	-8085
▁일기	-8086
▁커버	-8087
▁냅	-8088
▁관공	-8089
▁매국	-8090
▁자질	-8091
▁주둔	-8092
▁리버	-8093
▁권장	-8094
▁양주	-8095
▁갤럭시	-8096
거나	-8097
▁북동	-8098
▁불쾌	-8099
▁사소	-8100
▁시계	-8101
▁원형	-8102
▁손혜원	-8103
▁과다	-8104
▁금품	-8105
▁바뀔	-8106
▁안전관	-8107
EA	-8108
▁버젓	-8109
▁쏟아	-8110
드라마	-8111
▁싼	-8112
▁재앙	-8113
▁감추	-8114
▁고수	-8115
▁담겼	-8116
▁보물	-8117
▁아가	-8118
▁훗날	-8119
▁팅	-8120
▁였으면	-8121
병원	-8122
▁가혹	-8123
▁놓치	-8124
▁지친	-8125
▁프랜	-8126
▁한가	-8127
▁군주	-8128
▁사육	-8129
▁대동	-8130
▁발병	-8131
▁호흡기	-8132
▁도장	-8133
▁비타	-8134
▁아세	-8135
▁민속	-8136
▁우산	-8137
▁울리	-8138
▁으려는	-8139
예술	-8140
▁’)	-8141
▁김선	-8142
▁만주	-8143
▁경각심	-8144
▁내년도	-8145
▁테니스	-8146
▁시나	-8147
▁영월	-8148
▁효소	-8149
▁1972	-8150
▁펑	-8151
▁색상	-8152
▁채소	-8153
▁발암	-8154
▁북서	-8155
▁센트	-8156
▁언스	-8157
▁베를린	-8158
▁스페셜	-8159
▁예술인	-8160
▁붓	-8161
▁묘지	-8162
▁양해	-8163
TV	-8164
▁젤	-8165
▁공과	-8166
▁교향	-8167
▁내릴	-8168
▁단점	-8169
▁동포	-8170
▁인척	-8171
▁리더십	-8172
▁프레임	-8173
▁오버	-8174
▁DM	-8175
▁공판	-8176
▁폭등	-8177
▁연면적	-8178
▁벡	-8179
▁가방	-8180
▁혼합	-8181
기에	-8182
▁일조	-8183
▁랍니다	-8184
▁무고죄	-8185
▁개교	-8186
▁제로	-8187
행정	-8188
▁지우	-8189
▁포용	-8190
▁재산세	-8191
▁타이거	-8192
▁해수부	-8193
▁번영	-8194
▁어기	-8195
▁혈관	-8196
▁천문학	-8197
▁힌	-8198
▁고집	-8199
▁박재	-8200
▁신원	-8201
▁해역	-8202
▁분단	-8203
▁속이	-8204
▁치료비	-8205
▁관계없이	-8206
▁r	-8207
어마	-8208
▁러브	-8209
▁뛰어나	-8210
▁지원자	-8211
▁억압	-8212
▁크림	-8213
▁다는데	-8214
부패	-8215
▁활기	-8216
▁기아차	-8217
▁09	-8218
▁남긴	-8219
▁뱅크	-8220
▁산다	-8221
▁연승	-8222
▁기성	-8223
▁통로	-8224
▁혈압	-8225
▁열기	-8226
▁잠정	-8227
▁처한	-8228
▁함양	-8229
▁긴밀	-8230
보이	-8231
▁신서	-8232
▁강원랜드	-8233
▁걸맞	-8234
▁순회	-8235
▁닦	-8236
▁벚	-8237
▁별개	-8238
▁산화	-8239
▁서서	-8240
▁태우	-8241
▁ESG	-8242
▁1973	-8243
PS	-8244
▁의료비	-8245
▁딩	-8246
▁->	-8247
▁과잉	-8248
▁벤트	-8249
▁봉투	-8250
▁열릴	-8251
▁추산	-8252
ain	-8253
▁三	-8254
▁간섭	-8255
▁맡겨	-8256
▁왕복	-8257
▁유감	-8258
구장	-8259
▁NC	-8260
▁한국전력	-8261
▁햄	-8262
하여	-8263
▁모독	-8264
▁숨기	-8265
▁부적절	-8266
▁일으켜	-8267
▁찢	-8268
▁망가	-8269
▁허성	-8270
전지	-8271
▁딸기	-8272
▁지질	-8273
▁아르헨	-8274
▁고갈	-8275
▁전송	-8276
▁정복	-8277
▁중산	-8278
▁메모리	-8279
▁얀	-8280
데이	-8281
▁난임	-8282
▁사임	-8283
▁주방	-8284
▁구직자	-8285
▁깁니다	-8286
관위	-8287
ang	-8288
▁바둑	-8289
▁암살	-8290
▁조별	-8291
▁날리	-8292
▁보탬	-8293
픕니다	-8294
▁데이트	-8295
▁부의장	-8296
▁임대차	-8297
▁부정부패	-8298
▁첼	-8299
▁질의	-8300
▁폭넓	-8301
▁어울리	-8302
▁기동	-8303
▁프로모	-8304
제철	-8305
▁수법	-8306
키아	-8307
▁이철	-8308
▁재임	-8309
▁출자	-8310
▁LED	-8311
▁사업소	-8312
공원	-8313
증권	-8314
타르	-8315
▁관제	-8316
▁보성	-8317
▁괴산군	-8318
DP	-8319
▁목욕	-8320
▁뭔지	-8321
▁천시	-8322
▁쿠폰	-8323
▁황교	-8324
▁실상	-8325
▁제압	-8326
▁편법	-8327
▁보여준다	-8328
▁여단	-8329
▁거주자	-8330
바라	-8331
사관	-8332
▁박형	-8333
▁성사	-8334
▁닌	-8335
▁괴롭히	-8336
▁계획서	-8337
▁꼽힌다	-8338
▁물고기	-8339
▁아르헨티나	-8340
▁내신	-8341
▁한숨	-8342
다란	-8343
든지	-8344
▁옵션	-8345
▁의정	-8346
▁유니폼	-8347
▁돌아다니	-8348
▁날아	-8349
▁메가	-8350
▁서대	-8351
▁처사	-8352
▁잡혀	-8353
▁백악	-8354
▁치렀	-8355
▁조선족	-8356
데스	-8357
▁겨냥	-8358
▁아베	-8359
▁제사	-8360
▁컷	-8361
▁외모	-8362
▁곱	-8363
▁날개	-8364
▁떠난	-8365
▁이분	-8366
▁따위	-8367
▁들어간다	-8368
▁거둔	-8369
▁기르	-8370
▁일명	-8371
▁꾸며	-8372
▁혀	-8373
▁사양	-8374
▁실리	-8375
▁켄	-8376
▁아사	-8377
베이터	-8378
생물	-8379
▁구독	-8380
▁중위	-8381
▁옵니다	-8382
▁트레	-8383
▁홍천	-8384
▁어마어마	-8385
▁안락	-8386
▁전과	-8387
▁주휴	-8388
▁초록	-8389
▁다행히	-8390
훈련	-8391
▁바위	-8392
▁몰라도	-8393
▁불상	-8394
▁제제	-8395
▁핑크	-8396
▁겨울철	-8397
▁공채	-8398
▁벌인	-8399
▁엉망	-8400
▁파란	-8401
질랜드	-8402
▁의거	-8403
▁바우처	-8404
▁열려	-8405
▁프로모션	-8406
▁처형	-8407
▁경주시	-8408
▁번호판	-8409
▁故	-8410
▁내국	-8411
▁일련	-8412
하키	-8413
▁메일	-8414
▁부친	-8415
▁요한	-8416
▁군포	-8417
▁달린	-8418
▁증시	-8419
뉴얼	-8420
▁다큐	-8421
▁영수	-8422
▁융자	-8423
▁형벌	-8424
▁똑바로	-8425
▁매립지	-8426
▁덤	-8427
▁누굴	-8428
▁밀양	-8429
▁클린	-8430
▁행안	-8431
▁으려면	-8432
▁꼽히	-8433
▁모래	-8434
▁문명	-8435
▁비극	-8436
▁비단	-8437
▁잡히	-8438
▁계통	-8439
▁메르	-8440
▁수돗	-8441
▁빌리	-8442
▁전시관	-8443
▁뉴질랜드	-8444
의사	-8445
▁적십자	-8446
대식	-8447
산면	-8448
▁강국	-8449
▁알림	-8450
▁도리	-8451
▁김일성	-8452
어들	-8453
▁입건	-8454
▁고추	-8455
▁노부	-8456
▁저해	-8457
▁퀴즈	-8458
▁거주지	-8459
▁은메달	-8460
iew	-8461
▁범법	-8462
▁제철	-8463
▁증폭	-8464
▁사설	-8465
소시엄	-8466
▁상관없	-8467
▁1948	-8468
▁컨소시엄	-8469
바다	-8470
테르	-8471
▁추격	-8472
▁환기	-8473
▁수련	-8474
▁수돗물	-8475
▁1930	-8476
▁발열	-8477
▁구원	-8478
▁맞대	-8479
▁모형	-8480
▁으론	-8481
▁잔치	-8482
경찰	-8483
비드	-8484
▁무덤	-8485
▁재차	-8486
▁해치	-8487
▁159	-8488
▁건가	-8489
▁특집	-8490
▁상여금	-8491
▁수영장	-8492
IN	-8493
누스	-8494
▁눈빛	-8495
▁면모	-8496
****	-8497
▁조용히	-8498
▁브로	-8499
▁주석	-8500
네스	-8501
▁나카	-8502
▁서포	-8503
▁자가	-8504
▁라틴	-8505
▁무작	-8506
젤레스	-8507
▁납치	-8508
▁클리	-8509
▁나폴	-8510
▁내놨	-8511
▁발명	-8512
▁배울	-8513
▁형상	-8514
▁부유	-8515
▁증액	-8516
▁전투기	-8517
해야	-8518
▁교토	-8519
▁다지	-8520
▁온실가스	-8521
▁녹화	-8522
▁튜버	-8523
▁전라도	-8524
▁기둥	-8525
▁지부장	-8526
▁펌	-8527
더스	-8528
▁중세	-8529
▁스러워	-8530
▁헐	-8531
▁바퀴	-8532
▁수요일	-8533
▁AR	-8534
▁위함	-8535
▁증여	-8536
▁매뉴얼	-8537
▁비타민	-8538
▁엔지니어	-8539
버그	-8540
사스	-8541
▁에이스	-8542
▁VR	-8543
▁마쓰	-8544
▁야근	-8545
▁워터	-8546
▁정유	-8547
▁스토어	-8548
▁아이스하키	-8549
▁늙	-8550
▁땜	-8551
▁경전	-8552
▁니스	-8553
▁삼각	-8554
▁티저	-8555
관계	-8556
▁선원	-8557
▁재조사	-8558
MA	-8559
ns	-8560
▁기생	-8561
▁담합	-8562
▁불명	-8563
▁염색	-8564
▁you	-8565
▁관공서	-8566
▁나타냈	-8567
▁김홍	-8568
▁미션	-8569
▁램	-8570
▁김희	-8571
▁탄탄	-8572
일으	-8573
ver	-8574
▁연패	-8575
▁지킴	-8576
▁효력	-8577
동생	-8578
▁왕자	-8579
▁조그	-8580
▁대법관	-8581
▁불러일으	-8582
▁정동	-8583
저우	-8584
▁김구	-8585
▁라니요	-8586
금리	-8587
▁증설	-8588
▁바닷	-8589
▁실버	-8590
▁제대	-8591
▁컨트롤	-8592
▁어려웠	-8593
▁구비	-8594
▁연중	-8595
▁항쟁	-8596
▁마침내	-8597
근무	-8598
▁자칫	-8599
▁뻗	-8600
▁안중	-8601
▁응모	-8602
▁010	-8603
▁삼척	-8604
▁달서구	-8605
▁청나라	-8606
▁황교안	-8607
▁자유민주주의	-8608
무실	-8609
▁역차별	-8610
▁대왕	-8611
▁서산시	-8612
일리	-8613
▁성우	-8614
▁왕위	-8615
▁1920	-8616
▁김승	-8617
▁더위	-8618
▁신발	-8619
▁원년	-8620
▁언젠가	-8621
은혜	-8622
▁고품	-8623
▁여섯	-8624
▁이장	-8625
▁고분	-8626
▁관대	-8627
▁출제	-8628
▁충성	-8629
▁풍성	-8630
적으로	-8631
▁줌	-8632
▁단편	-8633
▁대접	-8634
▁차익	-8635
▁무궁화	-8636
▁순천시	-8637
▁줄어드	-8638
대원	-8639
▁교감	-8640
▁규격	-8641
▁버튼	-8642
▁세수	-8643
▁폐차	-8644
하나	-8645
▁맨날	-8646
▁온천	-8647
▁원조	-8648
▁직면	-8649
▁결함	-8650
▁자택	-8651
▁고령자	-8652
▁성실히	-8653
▁찔	-8654
진구	-8655
▁대개	-8656
▁예의	-8657
업소	-8658
▁보병	-8659
31	-8660
▁랍	-8661
머님	-8662
비치	-8663
▁삼진	-8664
▁상기	-8665
▁파출	-8666
▁콜라	-8667
멘트	-8668
▁천사	-8669
▁합계	-8670
▁강북	-8671
▁이진	-8672
▁한다며	-8673
▁놨	-8674
ity	-8675
▁원서	-8676
▁인치	-8677
▁헤이	-8678
▁???	-8679
▁붐	-8680
▁게이트	-8681
▁중시	-8682
▁관하	-8683
▁희귀	-8684
▁1976	-8685
▁벤치	-8686
▁잣대	-8687
▁취한	-8688
▁소관	-8689
▁타입	-8690
▁크로스	-8691
========	-8692
▁씌	-8693
▁전념	-8694
▁모른다	-8695
▁세인트	-8696
▁텍사스	-8697
태우	-8698
▁화석	-8699
▁갯	-8700
▁입맛	-8701
▁박원순	-8702
▁쓸데	-8703
▁무척	-8704
▁탁월	-8705
ab	-8706
▁킥	-8707
▁소방차	-8708
▁렉	-8709
▁영혼	-8710
▁침몰	-8711
▁사회단체	-8712
▁봇	-8713
▁교내	-8714
▁망신	-8715
▁대리점	-8716
▁벌금형	-8717
▁옥상	-8718
▁캠핑	-8719
▁탐색	-8720
▁감독원	-8721
▁BM	-8722
▁교량	-8723
▁꾸려	-8724
▁문정	-8725
▁쌓여	-8726
▁사라진	-8727
▁사업체	-8728
----------------	-8729
▁열매	-8730
▁유저	-8731
▁182	-8732
▁발대식	-8733
▁高	-8734
▁방화	-8735
ER	-8736
▁묵인	-8737
▁코트	-8738
▁고르	-8739
▁전진	-8740
▁펼친다	-8741
던지	-8742
▁든든	-8743
▁병합	-8744
▁1978	-8745
▁총기	-8746
▁여성부	-8747
▁가이드라인	-8748
▁얽	-8749
▁주축	-8750
▁타점	-8751
▁담당관	-8752
▁대마	-8753
▁바꾼	-8754
▁부속	-8755
▁휴교	-8756
▁근간	-8757
▁까다	-8758
▁대주	-8759
▁육체	-8760
▁완주군	-8761
▁불렸	-8762
▁이노	-8763
▁LNG	-8764
▁대상지	-8765
▁이용섭	-8766
▁골자	-8767
▁대덕	-8768
▁방조	-8769
▁105	-8770
▁아동학	-8771
법인	-8772
▁염려	-8773
▁소방본부	-8774
▁미뤄	-8775
▁사드	-8776
▁십자	-8777
▁전도	-8778
▁교통비	-8779
▁서서히	-8780
▁흔들리	-8781
▁기본소득	-8782
OS	-8783
▁​	-8784
가와	-8785
ong	-8786
▁반입	-8787
▁유역	-8788
▁함유	-8789
▁커다란	-8790
▁각별	-8791
▁동산	-8792
▁승무원	-8793
▁시트	-8794
▁영덕	-8795
▁저서	-8796
▁이광	-8797
▁착각	-8798
▁회식	-8799
▁막상	-8800
▁함대	-8801
▁원대	-8802
▁최후	-8803
운서	-8804
▁달아	-8805
▁적시	-8806
▁청양	-8807
앤젤레스	-8808
▁1919	-8809
▁상륙	-8810
▁하향	-8811
▁한당	-8812
▁해법	-8813
▁취임식	-8814
▁DG	-8815
▁남양주	-8816
▁로스앤젤레스	-8817
▁무언	-8818
▁아나운서	-8819
▁남다른	-8820
▁드려	-8821
▁스승	-8822
▁장년	-8823
▁포로	-8824
▁바이어	-8825
▁분식	-8826
▁딘	-8827
▁검장	-8828
▁논산	-8829
▁승계	-8830
▁흑인	-8831
tm	-8832
▁간식	-8833
▁동지	-8834
▁배분	-8835
▁벨기에	-8836
▁책임감	-8837
▁현행법	-8838
▁영암	-8839
▁해외여행	-8840
▁까요	-8841
▁시당	-8842
▁익숙	-8843
▁친정	-8844
▁긴장감	-8845
▁1963	-8846
▁당뇨	-8847
▁메디	-8848
▁선관위	-8849
▁강수	-8850
▁이룰	-8851
▁환상	-8852
▁비주얼	-8853
▁짚	-8854
▁틴	-8855
스레	-8856
우리	-8857
▁송치	-8858
▁악의	-8859
▁주유소	-8860
▁디자이너	-8861
▁미스터	-8862
▁배기	-8863
▁위배	-8864
▁전복	-8865
▁멸종	-8866
▁되풀이	-8867
▁확고	-8868
▁1975	-8869
▁모스크바	-8870
▁엘리베이터	-8871
▁켈	-8872
▁저질러	-8873
▁전기세	-8874
▁내면	-8875
▁복음	-8876
▁친척	-8877
▁칠곡	-8878
▁안전망	-8879
▁일부러	-8880
▁성범죄자	-8881
32	-8882
▁걸릴	-8883
▁우연히	-8884
▁출산율	-8885
▁보스	-8886
▁평론	-8887
징금	-8888
▁07	-8889
▁기량	-8890
계약	-8891
▁막히	-8892
▁낯	-8893
▁구로	-8894
▁세로	-8895
▁항성	-8896
르타	-8897
키퍼	-8898
▁깨닫	-8899
▁반하	-8900
▁흥행	-8901
▁IMF	-8902
둘러	-8903
방송	-8904
▁골키퍼	-8905
▁1974	-8906
19	-8907
보험	-8908
▁슈팅	-8909
▁항복	-8910
▁휘발	-8911
라노	-8912
▁누나	-8913
▁자존심	-8914
▁짙	-8915
▁십쇼	-8916
▁클라우	-8917
▁알레	-8918
▁여신	-8919
▁원망	-8920
▁냉장고	-8921
▁오세훈	-8922
ob	-8923
관광	-8924
▁떳떳	-8925
▁끓	-8926
요시	-8927
▁보람	-8928
▁이창	-8929
▁인쇄	-8930
▁해리	-8931
▁올라온	-8932
▁늘어	-8933
▁365	-8934
▁일본어	-8935
▁먹여	-8936
▁체코	-8937
▁1971	-8938
▁발족	-8939
▁어지	-8940
▁로스쿨	-8941
▁자신감	-8942
구리	-8943
준다	-8944
▁사당	-8945
▁알코	-8946
▁결과물	-8947
▁올라와	-8948
▁각계	-8949
▁기적	-8950
▁안일	-8951
...	-8952
▁납입	-8953
▁영도	-8954
현진	-8955
▁으실	-8956
▁선보인	-8957
ident	-8958
▁과천	-8959
▁1968	-8960
▁멈춰	-8961
▁의대	-8962
▁헤어	-8963
▁amp	-8964
▁음악회	-8965
곡동	-8966
퍼드	-8967
▁매칭	-8968
▁봉화	-8969
▁신사	-8970
▁타율	-8971
▁기부금	-8972
▁소재지	-8973
▁연세대	-8974
▁1940	-8975
35	-8976
▁샷	-8977
하라	-8978
▁음력	-8979
틀랜드	-8980
▁철도역	-8981
▁☏	-8982
▁멋진	-8983
▁조경	-8984
▁집사	-8985
▁핵무기	-8986
▁도매	-8987
▁아이디	-8988
▁王	-8989
oun	-8990
▁고무	-8991
▁구석	-8992
▁법학	-8993
▁디스크	-8994
▁고립	-8995
▁관절	-8996
▁숙소	-8997
▁실거	-8998
▁혼잡	-8999
▁인문학	-9000
▁pres	-9001
▁무서워서	-9002
▁KA	-9003
▁봐서	-9004
▁장자	-9005
우드	-9006
▁벚꽃	-9007
▁실사	-9008
▁시리아	-9009
▁휴게소	-9010
▁기저	-9011
▁목재	-9012
▁일일	-9013
▁레이스	-9014
덩이	-9015
▁강동	-9016
▁내장	-9017
▁농약	-9018
▁부녀	-9019
▁설사	-9020
▁건설업	-9021
긴다	-9022
▁흉악	-9023
▁면서도	-9024
▁만기	-9025
▁속상	-9026
퍼니	-9027
▁내몰	-9028
▁원동	-9029
▁철폐	-9030
▁피할	-9031
▁면세	-9032
▁악질	-9033
▁저기	-9034
▁화성시	-9035
▁금고	-9036
▁다름없	-9037
▁특별시	-9038
▁저조	-9039
▁돌아갈	-9040
▁케이스	-9041
널드	-9042
연구	-9043
▁카테	-9044
▁해변	-9045
▁후문	-9046
▁톨	-9047
포구	-9048
▁간첩	-9049
▁360	-9050
▁가칭	-9051
▁구할	-9052
▁도립	-9053
▁정문	-9054
▁총무	-9055
추어	-9056
▁구경	-9057
▁똑똑	-9058
▁정립	-9059
▁SUV	-9060
▁경영자	-9061
▁놓인	-9062
▁영예	-9063
▁주어진	-9064
▁공소	-9065
▁박진	-9066
▁어긋나	-9067
언스	-9068
▁송파	-9069
▁자비	-9070
▁장례식	-9071
▁주소지	-9072
스카	-9073
▁우드	-9074
▁응급실	-9075
IST	-9076
▁간사	-9077
▁망명	-9078
▁엉뚱	-9079
▁정관	-9080
▁임대인	-9081
▁전한다	-9082
▁ᅮᅮ	-9083
▁관직	-9084
▁증서	-9085
hn	-9086
▁나영	-9087
▁소주	-9088
▁장흥	-9089
▁주거지	-9090
▁기념행사	-9091
oo	-9092
▁구장	-9093
▁예우	-9094
▁의상	-9095
▁추출	-9096
▁신다고	-9097
▁신자	-9098
▁탐구	-9099
▁후유	-9100
▁갖췄	-9101
▁컴퍼니	-9102
▁중화민국	-9103
▁괴물	-9104
▁주점	-9105
▁최강	-9106
▁커졌	-9107
▁버젓이	-9108
▁오리지	-9109
▁남서	-9110
▁신곡	-9111
▁시카	-9112
▁신안	-9113
▁조선대	-9114
성기	-9115
▁거버	-9116
▁산맥	-9117
▁집행부	-9118
▁퍼센트	-9119
▁견디	-9120
▁노숙	-9121
▁뜬	-9122
▁그릇	-9123
▁영천	-9124
리케이션	-9125
▁대두	-9126
▁도당	-9127
▁수요자	-9128
RA	-9129
▁막혀	-9130
▁봉쇄	-9131
▁안철수	-9132
▁요양원	-9133
▁트랜	-9134
▁μ	-9135
▁첩	-9136
▁내보내	-9137
고속도로	-9138
▁별명	-9139
▁복사	-9140
로이드	-9141
기부	-9142
리히	-9143
ard	-9144
▁산악	-9145
▁풍력	-9146
▁의료인	-9147
▁서비스업	-9148
▁편견	-9149
▁휴전	-9150
▁신생아	-9151
▁이국종	-9152
하고	-9153
▁소화기	-9154
▁매개	-9155
▁변제	-9156
▁과학자	-9157
▁합창단	-9158
▁리콜	-9159
▁물체	-9160
▁판타	-9161
▁예정자	-9162
▁올바르	-9163
도르	-9164
▁교양	-9165
▁극히	-9166
▁스님	-9167
▁용이	-9168
▁지문	-9169
▁코레	-9170
▁프란	-9171
레이터	-9172
▁구조물	-9173
▁기관장	-9174
▁항소심	-9175
▁무식	-9176
▁실전	-9177
▁은폐	-9178
▁재선	-9179
▁가르쳐	-9180
원장	-9181
▁원룸	-9182
▁종식	-9183
▁오디션	-9184
▁–	-9185
▁공범	-9186
all	-9187
▁펼쳐지	-9188
그레이드	-9189
▁그린벨트	-9190
▁검열	-9191
▁구형	-9192
▁죽인	-9193
▁책상	-9194
▁넉	-9195
종원	-9196
▁카를	-9197
▁업그레이드	-9198
DI	-9199
RT	-9200
에르	-9201
▁동탄	-9202
▁문정부	-9203
▁문헌	-9204
▁발음	-9205
▁예매	-9206
▁중추	-9207
라드	-9208
▁IS	-9209
▁SM	-9210
▁대유	-9211
▁연재	-9212
군다나	-9213
사키	-9214
▁중장	-9215
▁도마	-9216
▁안경	-9217
어로	-9218
▁교재	-9219
▁급하	-9220
▁비방	-9221
▁내걸	-9222
▁125	-9223
▁결혼식	-9224
▁오리지널	-9225
▁문체	-9226
▁제이	-9227
▁양구	-9228
▁에코	-9229
▁광주광역시	-9230
▁가진다	-9231
▁경비원	-9232
▁부산대	-9233
▁아름다	-9234
▁으리라	-9235
▁중국어	-9236
▁노릇	-9237
▁로켓	-9238
▁원치	-9239
▁지중	-9240
▁강력범	-9241
가족	-9242
▁경부	-9243
▁공표	-9244
▁관문	-9245
▁음모	-9246
▁조업	-9247
▁220	-9248
▁징병제	-9249
▁아마추어	-9250
77	-9251
ak	-9252
번에	-9253
▁야구장	-9254
▁시그	-9255
▁모조리	-9256
▁몰라라	-9257
▁정신병	-9258
▁꼬집	-9259
▁염수	-9260
▁우월	-9261
▁돌아보	-9262
넌스	-9263
▁거버넌스	-9264
90	-9265
▁불참	-9266
▁소생	-9267
▁공정위	-9268
▁납세자	-9269
▁문화원	-9270
▁1946	-9271
▁그리스도	-9272
▁퀸	-9273
랑이	-9274
▁감기	-9275
▁루이	-9276
▁문건	-9277
▁영산	-9278
▁이현	-9279
▁입당	-9280
▁자활	-9281
▁김종민	-9282
듀서	-9283
답니다	-9284
▁쌍둥이	-9285
▁알코올	-9286
▁홍성군	-9287
러미	-9288
▁프로듀서	-9289
▁노스	-9290
▁얼음	-9291
▁거제시	-9292
렴치	-9293
▁무형	-9294
▁포위	-9295
▁후계	-9296
▁멘토링	-9297
▁1969	-9298
▁턴	-9299
▁전소	-9300
▁감액	-9301
▁기점	-9302
▁노령	-9303
▁시집	-9304
▁옮겼	-9305
▁떨어질	-9306
▁빽	-9307
▁감탄	-9308
▁속한다	-9309
▁그리하여	-9310
▁맙	-9311
디움	-9312
지역	-9313
▁대성	-9314
▁원한	-9315
▁행정력	-9316
▁킨	-9317
무지	-9318
▁그야	-9319
▁놀랐	-9320
▁증축	-9321
▁포천	-9322
순환	-9323
▁DJ	-9324
▁어째	-9325
크리트	-9326
▁연합군	-9327
▁파렴치	-9328
▁뜻깊	-9329
▁그래픽	-9330
▁각하	-9331
▁과시	-9332
▁정액	-9333
▁화가	-9334
▁보령시	-9335
▁보일러	-9336
▁요금제	-9337
▁president	-9338
영진	-9339
▁대인	-9340
▁왕실	-9341
▁회화	-9342
▁웨스트	-9343
▁익산시	-9344
버리	-9345
▁부추기	-9346
▁상의	-9347
▁대출금	-9348
▁서식지	-9349
▁농축	-9350
▁감염자	-9351
▁개신	-9352
▁리드	-9353
▁신천	-9354
▁약정	-9355
▁랄	-9356
고사	-9357
▁kt	-9358
▁내전	-9359
▁대놓	-9360
▁수협	-9361
▁세계인	-9362
▁서정	-9363
▁풀려	-9364
어트	-9365
▁파출소	-9366
노이	-9367
준영	-9368
▁대치	-9369
▁추위	-9370
!!!!!!!!	-9371
▁반장	-9372
▁산모	-9373
▁중년	-9374
▁미생물	-9375
▁1962	-9376
카와	-9377
▁쌍용	-9378
▁나타난다	-9379
▁벌여	-9380
▁오락	-9381
▁한양	-9382
▁깍	-9383
▁따져	-9384
▁분량	-9385
▁숨진	-9386
▁우위	-9387
▁적법	-9388
▁톡톡	-9389
▁판문	-9390
▁가까워	-9391
▁더군다나	-9392
▁수구	-9393
▁제명	-9394
▁중형	-9395
▁처하	-9396
▁추행	-9397
▁학계	-9398
▁화해	-9399
▁나날	-9400
▁드물	-9401
▁접할	-9402
▁강남구	-9403
33	-9404
노스	-9405
세이	-9406
▁미스	-9407
▁장단	-9408
라이나	-9409
▁소나	-9410
▁수저	-9411
▁외무	-9412
▁공격수	-9413
▁공교육	-9414
▁더구나	-9415
▁당분	-9416
▁프랜차	-9417
▁하도급	-9418
▁이뤄지고	-9419
▁상점	-9420
▁진전	-9421
▁병원장	-9422
▁잃어버	-9423
▁프랜차이즈	-9424
다이	-9425
▁공신	-9426
▁사도	-9427
▁정재	-9428
▁턱없이	-9429
▁東	-9430
▁쳤	-9431
체어	-9432
▁경진	-9433
▁루트	-9434
▁무제	-9435
▁변환	-9436
▁제휴	-9437
▁수분	-9438
▁케미	-9439
▁통신부	-9440
▁부산광역시	-9441
▁寺	-9442
▁안겨	-9443
▁거지	-9444
▁손쉽	-9445
▁방송인	-9446
▁연구회	-9447
▁늘려야	-9448
▁1964	-9449
▁짤	-9450
▁보류	-9451
▁입상	-9452
▁영수증	-9453
▁히어로	-9454
▁개업	-9455
▁석문	-9456
▁백악관	-9457
▁단호	-9458
▁여대	-9459
2,	-9460
▁시한	-9461
▁용납	-9462
▁차상	-9463
▁넘어서	-9464
▁아무렇	-9465
수지	-9466
▁나눴	-9467
▁240	-9468
▁거듭나	-9469
▁더럽	-9470
▁싱어	-9471
▁체자	-9472
▁억지로	-9473
희정	-9474
▁논평	-9475
▁만연	-9476
▁천재	-9477
▁방사선	-9478
▁콘크리트	-9479
▁풋	-9480
▁관리법	-9481
▁경신	-9482
▁그레	-9483
▁기체	-9484
▁여왕	-9485
▁즐겨	-9486
▁회로	-9487
▁농작물	-9488
▁올려서	-9489
▁찾아볼	-9490
▁피트	-9491
▁항일	-9492
▁해선	-9493
▁언론인	-9494
▁행사장	-9495
이익	-9496
▁불황	-9497
▁오만	-9498
▁잘라	-9499
▁증후	-9500
▁메이커	-9501
▁휠체어	-9502
▁디젤	-9503
▁유의	-9504
▁낙하	-9505
▁버릴	-9506
▁해져	-9507
▁돌아갔	-9508
ut	-9509
▁州	-9510
그룹	-9511
▁군위	-9512
▁단단	-9513
▁소진	-9514
▁스톱	-9515
▁원상	-9516
▁유재	-9517
▁육박	-9518
▁예보	-9519
▁104	-9520
▁學	-9521
▁대권	-9522
▁성원	-9523
▁액수	-9524
▁탱크	-9525
▁편파	-9526
▁나뉜	-9527
▁대조	-9528
▁안쪽	-9529
▁우린	-9530
▁일행	-9531
▁자정	-9532
▁서포터	-9533
▁유소년	-9534
▁氏	-9535
▁옴	-9536
페이	-9537
▁실기	-9538
▁노래방	-9539
가루	-9540
▁정경	-9541
▁군산시	-9542
▁올라왔	-9543
▁달성군	-9544
▁수목원	-9545
▁테마파크	-9546
SD	-9547
가운	-9548
봐야	-9549
▁무소	-9550
▁침수	-9551
▁악영향	-9552
▁흩	-9553
▁크다	-9554
▁연료전지	-9555
▁냉동	-9556
▁다툼	-9557
▁이듭	-9558
▁청도	-9559
▁개인전	-9560
▁뜨겁	-9561
▁미야	-9562
▁언더	-9563
▁CN	-9564
▁충원	-9565
▁마이너스	-9566
2(	-9567
▁로비	-9568
▁산림청	-9569
▁판문점	-9570
▁그야말로	-9571
▁담사	-9572
▁이뤘	-9573
▁작금	-9574
▁피땀	-9575
▁지휘자	-9576
▁크리에	-9577
▁상급	-9578
▁시체	-9579
▁왕따	-9580
▁찬반	-9581
▁한파	-9582
▁원주민	-9583
▁축구단	-9584
▁달라진	-9585
▁!!!!	-9586
▁도로공사	-9587
▁슛	-9588
▁홋	-9589
▁김연	-9590
▁송정	-9591
▁입문	-9592
▁성명서	-9593
▁잠수함	-9594
이도	-9595
필더	-9596
▁TK	-9597
▁반경	-9598
▁심야	-9599
▁의제	-9600
▁마땅히	-9601
▁자책점	-9602
▁미드필더	-9603
▁으니까요	-9604
하이	-9605
▁~)	-9606
▁홍수	-9607
▁135	-9608
▁대포	-9609
▁로직	-9610
▁시드	-9611
▁준우	-9612
▁튼튼	-9613
데이트	-9614
est	-9615
▁가마	-9616
▁글씨	-9617
▁북아	-9618
▁사흘	-9619
▁선양	-9620
어내	-9621
정식	-9622
타운	-9623
▁내게	-9624
▁발발	-9625
▁슬픔	-9626
▁입체	-9627
▁마인드	-9628
▁1965	-9629
▁왠	-9630
▁제네	-9631
▁업데이트	-9632
▁강성	-9633
▁공구	-9634
▁막내	-9635
▁출원	-9636
▁경제학	-9637
▁미분양	-9638
▁☎	-9639
▁결실	-9640
▁묵묵	-9641
▁개막전	-9642
▁신호등	-9643
▁연구자	-9644
▁특활	-9645
▁1977	-9646
▁동아시아	-9647
▁대본	-9648
▁총독	-9649
▁탈당	-9650
셀로나	-9651
▁노동력	-9652
▁됐으나	-9653
▁활동비	-9654
▁바르셀로나	-9655
15	-9656
▁출구	-9657
▁팔리	-9658
▁103	-9659
ode	-9660
▁공짜	-9661
▁문인	-9662
▁으러	-9663
▁캄보	-9664
▁살아온	-9665
▁찾아내	-9666
▁갈아	-9667
▁이인	-9668
▁카라	-9669
▁맘대로	-9670
▁웬	-9671
▁흠	-9672
▁도정	-9673
▁파급	-9674
▁아픕니다	-9675
▁펫	-9676
▁남매	-9677
▁알릴	-9678
▁유무	-9679
▁했으니	-9680
▁유승	-9681
▁간소	-9682
▁계란	-9683
▁복직	-9684
▁소신	-9685
▁퍼지	-9686
십시오	-9687
▁WHO	-9688
▁sns	-9689
▁1949	-9690
▁뉘	-9691
▁EP	-9692
▁FM	-9693
▁ᄒᄒ	-9694
▁로고	-9695
▁165	-9696
▁둘러보	-9697
▁지나친	-9698
▁가정폭력	-9699
▁결재	-9700
▁연임	-9701
▁열사	-9702
▁재검	-9703
▁스타디움	-9704
▁막부	-9705
▁커플	-9706
▁트라우	-9707
▁활발히	-9708
눈물	-9709
▁봐라	-9710
▁절벽	-9711
▁증후군	-9712
▁이어진다	-9713
밀리	-9714
▁블라	-9715
▁여경	-9716
▁진해	-9717
▁나란히	-9718
▁악순환	-9719
ip	-9720
▁st	-9721
▁급한	-9722
▁레전	-9723
▁민자	-9724
▁상류	-9725
▁헤아	-9726
낍니다	-9727
▁망언	-9728
▁세리	-9729
▁세일	-9730
▁전가	-9731
▁천체	-9732
▁450	-9733
▁증권사	-9734
▁김형	-9735
▁마찰	-9736
▁정자	-9737
▁통역	-9738
▁파장	-9739
▁복지부	-9740
▁이라크	-9741
▁커머스	-9742
▁평택시	-9743
▁들어와서	-9744
▁매연	-9745
▁송금	-9746
▁축협	-9747
▁헨리	-9748
▁정했	-9749
▁한반도기	-9750
▁뒀	-9751
▁당사	-9752
▁력사	-9753
▁봄철	-9754
▁정진	-9755
▁무언가	-9756
▁스티커	-9757
art	-9758
▁급감	-9759
▁수직	-9760
▁들어올	-9761
▁이루어져야	-9762
▁수반	-9763
▁적성	-9764
▁키움	-9765
어져	-9766
▁가라	-9767
▁누락	-9768
▁이은	-9769
▁클릭	-9770
▁그레이	-9771
▁피눈물	-9772
▁1200	-9773
▁심상	-9774
▁~!!	-9775
▁가져오	-9776
▁수사관	-9777
▁전염병	-9778
▁찾아오	-9779
,,	-9780
▁SW	-9781
▁관념	-9782
▁임하	-9783
▁치마	-9784
▁國	-9785
청사	-9786
▁세심	-9787
▁아테	-9788
▁존엄	-9789
▁카지	-9790
▁바이올	-9791
느리	-9792
▁AT	-9793
▁강변	-9794
▁대목	-9795
▁2500	-9796
▁계양	-9797
▁보직	-9798
▁카톡	-9799
▁박탈감	-9800
▁트라우마	-9801
▁어렸	-9802
▁카운티	-9803
▁원안	-9804
▁퍼져	-9805
▁따라가	-9806
▁소각장	-9807
▁시나리오	-9808
▁내포	-9809
▁박형준	-9810
▁수비수	-9811
▁수자원	-9812
BA	-9813
▁텃	-9814
이나	-9815
▁깨달	-9816
▁부수	-9817
▁채움	-9818
▁앞세워	-9819
igh	-9820
▁낙후	-9821
▁동조	-9822
▁르노	-9823
▁선로	-9824
▁장벽	-9825
▁인허가	-9826
▁자긍	-9827
▁대책위	-9828
▁던져	-9829
▁여인	-9830
▁웃기	-9831
▁하차	-9832
하성	-9833
▁텔레콤	-9834
▁리뷰	-9835
▁식용	-9836
▁워낙	-9837
▁후퇴	-9838
▁기다렸	-9839
▁쫒	-9840
▁템	-9841
▁차종	-9842
▁페어	-9843
▁자이언	-9844
▁스코틀랜드	-9845
36	-9846
▁--	-9847
▁견학	-9848
▁경질	-9849
▁훈훈	-9850
▁.!!	-9851
▁마음껏	-9852
▁자긍심	-9853
▁미비	-9854
▁호칭	-9855
▁어두운	-9856
들여	-9857
▁근접	-9858
▁노동당	-9859
▁당분간	-9860
▁캄보디아	-9861
▁시속	-9862
▁정전	-9863
▁라인업	-9864
▁아름답	-9865
34	-9866
ee	-9867
▁스미	-9868
▁잘사	-9869
▁느낍니다	-9870
▁낸다	-9871
▁볼넷	-9872
▁서술	-9873
▁연쇄	-9874
▁창당	-9875
82	-9876
르기	-9877
▁소견	-9878
▁장남	-9879
▁페널	-9880
▁엄연히	-9881
▁허성무	-9882
▁드린	-9883
▁바치	-9884
▁박은	-9885
▁노동청	-9886
▁생겨나	-9887
▁수백만	-9888
DA	-9889
시고	-9890
왜란	-9891
▁변질	-9892
▁수익금	-9893
17	-9894
▁성서	-9895
▁승소	-9896
▁문화예술	-9897
▁임진왜란	-9898
하마	-9899
▁오산	-9900
▁포부	-9901
▁포식	-9902
▁포크	-9903
▁뛰어넘	-9904
▁상설	-9905
▁체하	-9906
처럼	-9907
▁반찬	-9908
▁번식	-9909
▁언덕	-9910
▁평안	-9911
저리	-9912
▁계명	-9913
▁상응	-9914
▁실형	-9915
소시효	-9916
▁국유	-9917
▁정국	-9918
▁공소시효	-9919
▁평면	-9920
▁사용량	-9921
▁직책	-9922
▁우크라	-9923
▁드라이브	-9924
▁뱃	-9925
두르	-9926
▁반해	-9927
▁코르	-9928
▁개신교	-9929
▁괴롭힘	-9930
▁머물렀	-9931
TO	-9932
▁톰	-9933
▁개막식	-9934
▁졌으며	-9935
▁1961	-9936
치기	-9937
▁개판	-9938
▁살포	-9939
▁문신	-9940
▁의구	-9941
▁정은	-9942
▁천지	-9943
▁통행료	-9944
▁판매자	-9945
▁공수	-9946
▁난무	-9947
▁다닌	-9948
▁미미	-9949
▁오지	-9950
▁총수	-9951
▁호국	-9952
▁모은다	-9953
▁상고	-9954
▁손잡	-9955
▁약해	-9956
▁장미	-9957
▁넘어섰	-9958
▁코스피	-9959
스팅	-9960
▁가꾸	-9961
▁개회	-9962
▁리가	-9963
▁빨라	-9964
▁화산	-9965
날레	-9966
테크	-9967
▁명심	-9968
▁백종원	-9969
▁소나무	-9970
▁못지	-9971
▁성취	-9972
▁편향	-9973
▁김보름	-9974
▁이순신	-9975
▁국책	-9976
▁우라	-9977
▁136	-9978
▁잔재	-9979
▁타이완	-9980
▁자라나	-9981
▁프로세스	-9982
▁교리	-9983
▁산출	-9984
▁역점	-9985
▁초월	-9986
▁눈앞	-9987
▁수량	-9988
▁사이클	-9989
▁소수자	-9990
쟁이	-9991
▁로컬	-9992
▁모듈	-9993
▁연제	-9994
▁영등	-9995
▁우익	-9996
▁지름	-9997
▁흉기	-9998
▁뛰어들	-9999
▁레전드	-10000
▁진천군	-10001
▁클라우드	-10002
▁세균	-10003
▁손길	-10004
▁순조	-10005
▁취할	-10006
▁필름	-10007
▁신약	-10008
▁아메	-10009
▁양궁	-10010
▁투구	-10011
▁할당	-10012
▁둘레	-10013
▁마이클	-10014
▁센트럴	-10015
▁원산지	-10016
배우	-10017
현실	-10018
▁여전	-10019
▁이견	-10020
▁해진다	-10021
▁소금	-10022
▁키즈	-10023
▁파격	-10024
▁162	-10025
▁축산물	-10026
▁근린	-10027
▁트롯	-10028
▁회원국	-10029
▁웨딩	-10030
▁구급대	-10031
▁이뤄지는	-10032
▁카테고리	-10033
선거	-10034
▁LA	-10035
▁소폭	-10036
▁속해	-10037
ine	-10038
▁출입구	-10039
14	-10040
▁생물학	-10041
▁나주시	-10042
▁네이	-10043
▁장승	-10044
▁터져	-10045
▁피난	-10046
▁하나하나	-10047
~~~~~~~~	-10048
무라	-10049
▁각본	-10050
▁아저	-10051
▁적혀	-10052
▁무더위	-10053
▁1967	-10054
▁公	-10055
▁직속	-10056
▁흰색	-10057
▁아저씨	-10058
▁시조	-10059
▁안다	-10060
▁외노	-10061
▁폭격	-10062
▁%)’	-10063
▁물리학	-10064
성장	-10065
크로	-10066
▁동월	-10067
▁섬세	-10068
▁장갑	-10069
▁어야지	-10070
▁늑	-10071
연금	-10072
▁모토	-10073
▁악법	-10074
▁탐지	-10075
▁김성태	-10076
▁1966	-10077
시험	-10078
▁골라	-10079
▁장로	-10080
카이도	-10081
퍼런스	-10082
▁일일이	-10083
▁新	-10084
▁팍	-10085
투스	-10086
▁레오	-10087
▁맡길	-10088
▁허술	-10089
쿠라	-10090
▁개발자	-10091
▁존재감	-10092
▁【	-10093
체육	-10094
▁국익	-10095
▁김원	-10096
▁빛나	-10097
▁덧붙여	-10098
▁기념사업	-10099
노총	-10100
▁강해	-10101
▁모병	-10102
▁실감	-10103
▁염증	-10104
▁의구심	-10105
▁적대	-10106
▁직선	-10107
▁차주	-10108
▁145	-10109
▁에듀	-10110
▁진작	-10111
▁기술자	-10112
▁청년층	-10113
▁챔피언십	-10114
IV	-10115
▁마법	-10116
▁양양	-10117
살이	-10118
▁KO	-10119
▁영감	-10120
▁주지	-10121
▁공공시설	-10122
▁닛	-10123
▁접대	-10124
▁조수	-10125
▁면밀히	-10126
▁증가세	-10127
▁문화재청	-10128
▁김우	-10129
▁행렬	-10130
▁부사관	-10131
▁백두	-10132
▁사지	-10133
▁쌓이	-10134
▁양승태	-10135
▁중앙선	-10136
느님	-10137
▁유신	-10138
▁재량	-10139
넘기	-10140
▁압축	-10141
▁추대	-10142
▁포획	-10143
러워	-10144
▁보답	-10145
▁앤드	-10146
▁고품질	-10147
▁단체전	-10148
▁어쩌면	-10149
▁하느님	-10150
▁무늬	-10151
▁시카고	-10152
▁장난감	-10153
▁급급	-10154
▁로드맵	-10155
▁륜	-10156
자유	-10157
▁교역	-10158
▁몰락	-10159
▁센타	-10160
▁단말	-10161
▁분수	-10162
▁서해안	-10163
▁天	-10164
▁계실	-10165
▁동방	-10166
▁살릴	-10167
▁송영	-10168
▁휩싸	-10169
▁로직스	-10170
▁태안군	-10171
▁다릅니다	-10172
▁낱	-10173
▁싸이	-10174
▁집필	-10175
▁히데	-10176
▁목요일	-10177
47	-10178
▁요령	-10179
▁유익	-10180
▁천성	-10181
▁굵	-10182
▁여태	-10183
▁회동	-10184
▁부가세	-10185
▁지금껏	-10186
▁스페이스	-10187
▁安	-10188
▁금방	-10189
▁넓혀	-10190
▁미쓰	-10191
▁신비	-10192
▁예천	-10193
▁원로	-10194
▁인승	-10195
▁한류	-10196
▁당당히	-10197
▁트로트	-10198
▁고는	-10199
▁동경	-10200
▁법상	-10201
▁오일	-10202
▁토목	-10203
▁등록증	-10204
▁예천군	-10205
▁이스트	-10206
▁둬	-10207
니스트	-10208
▁156	-10209
▁175	-10210
▁DGB	-10211
▁으십니다	-10212
봐도	-10213
▁놔두	-10214
▁용돈	-10215
▁115	-10216
▁저렇게	-10217
▁척결	-10218
▁브라운	-10219
▁자유당	-10220
39	-10221
▁.?	-10222
▁성수	-10223
▁모아서	-10224
산동	-10225
▁기종	-10226
▁말리	-10227
▁유쾌	-10228
▁127	-10229
어스	-10230
▁강전	-10231
▁불화	-10232
▁저널	-10233
▁동물원	-10234
▁승강기	-10235
▁무겁	-10236
▁보석	-10237
▁쌍방	-10238
▁주입	-10239
▁지칭	-10240
▁평년	-10241
▁황사	-10242
나라당	-10243
▁해병대	-10244
▁AC	-10245
▁금회	-10246
▁니콜	-10247
▁전전	-10248
▁한나라당	-10249
▁경악	-10250
▁불꽃	-10251
▁요코	-10252
▁준하	-10253
▁척추	-10254
▁택트	-10255
▁호구	-10256
▁】	-10257
내리	-10258
▁내비	-10259
▁루수	-10260
▁구급차	-10261
▁드러난	-10262
▁찾아와	-10263
▁교구	-10264
▁나노	-10265
▁박용	-10266
▁속출	-10267
▁천문	-10268
▁물어야	-10269
▁CC	-10270
▁원청	-10271
▁139	-10272
▁소행	-10273
▁구미시	-10274
▁군부대	-10275
▁내려놓	-10276
▁시켜라	-10277
▁정해져	-10278
▁프로그래	-10279
풍기	-10280
▁NA	-10281
▁US	-10282
▁근원	-10283
▁백지	-10284
▁지켰	-10285
▁폐수	-10286
▁실수요	-10287
▁이산화	-10288
▁南	-10289
여정	-10290
▁152	-10291
▁htm	-10292
▁랴	-10293
보증	-10294
에이	-10295
▁과반	-10296
▁DMZ	-10297
▁싣	-10298
▁나눌	-10299
▁전격	-10300
▁영남대	-10301
▁여객철도	-10302
▁가설	-10303
축구	-10304
▁극우	-10305
▁대진	-10306
▁수억	-10307
▁심포	-10308
▁심히	-10309
▁역행	-10310
▁정답	-10311
▁다니요	-10312
▁릭	-10313
▁강호	-10314
▁분립	-10315
▁주고	-10316
▁178	-10317
▁주무관	-10318
▁라이온즈	-10319
▁○	-10320
▁어떡	-10321
▁점주	-10322
▁정인	-10323
▁운동가	-10324
▁지하수	-10325
IA	-10326
▁당정	-10327
▁동학	-10328
▁민영	-10329
▁이종억	-10330
▁일으킬	-10331
▁조형물	-10332
▁판서	-10333
▁관해서	-10334
▁빠져나가	-10335
▁자생	-10336
▁민간인	-10337
저스	-10338
any	-10339
▁쟁점	-10340
▁마라톤	-10341
▁1953	-10342
어야	-10343
▁숙원	-10344
▁서둘러	-10345
▁후유증	-10346
▁SP	-10347
▁걸림	-10348
▁최영	-10349
▁트라	-10350
▁후보자	-10351
▁간행	-10352
▁사모	-10353
▁원예	-10354
▁직영	-10355
▁차려	-10356
........	-10357
그릇	-10358
▁안산시	-10359
▁간병	-10360
▁유한	-10361
▁조제	-10362
▁표했	-10363
▁합덕	-10364
▁이루어질	-10365
▁칭하	-10366
▁콘스탄	-10367
▁세븐	-10368
▁신흥	-10369
▁퇴원	-10370
▁엘리트	-10371
▁졌으면	-10372
▁가치관	-10373
▁나타날	-10374
▁한국은행	-10375
37	-10376
▁유선	-10377
▁커질	-10378
▁대표자	-10379
▁로버트	-10380
▁활동가	-10381
▁1944	-10382
▁는대	-10383
▁라스	-10384
▁맞물	-10385
▁미납	-10386
▁인삼	-10387
▁114	-10388
▁얇	-10389
▁갈색	-10390
▁강대	-10391
▁브레	-10392
▁연내	-10393
▁정계	-10394
▁대리인	-10395
▁주니어	-10396
▁부득	-10397
▁이륜	-10398
▁대놓고	-10399
▁민방위	-10400
▁안락사	-10401
▁에다가	-10402
▁징역형	-10403
▁스트라이	-10404
▁道	-10405
▁상표	-10406
▁신지	-10407
▁페지	-10408
▁108	-10409
▁와이프	-10410
▁문단	-10411
▁세습	-10412
▁추기	-10413
▁하동	-10414
18	-10415
▁|	-10416
▁부풀	-10417
▁언행	-10418
▁예멘	-10419
▁오니	-10420
▁청송	-10421
▁삽니다	-10422
16	-10423
▁◆	-10424
▁개학	-10425
▁경마	-10426
▁보름	-10427
▁부끄러운	-10428
▁능동	-10429
▁샌드	-10430
▁자르	-10431
IC	-10432
▁뱀	-10433
▁썸	-10434
러움	-10435
▁대승	-10436
▁천장	-10437
▁한복	-10438
▁지지층	-10439
수리	-10440
▁선교사	-10441
▁스피드	-10442
▁신고자	-10443
는데	-10444
▁상부	-10445
▁쏟아지	-10446
▁이어서	-10447
▁현판	-10448
붙이	-10449
연대	-10450
▁법대	-10451
▁137	-10452
재해	-10453
▁국사	-10454
▁김부	-10455
▁미숙	-10456
▁비로	-10457
▁타협	-10458
베이스	-10459
▁누리집	-10460
▁마르크	-10461
▁보유자	-10462
▁사무국	-10463
▁준다면	-10464
▁카지노	-10465
대교	-10466
▁치아	-10467
▁혈전	-10468
▁색다른	-10469
연맹	-10470
▁단과	-10471
▁의왕	-10472
▁짐승	-10473
▁셧다운	-10474
BM	-10475
▁깔끔	-10476
▁면은	-10477
▁셀프	-10478
▁지각	-10479
▁자가용	-10480
▁토론토	-10481
▁낙찰	-10482
▁인플	-10483
▁잔디	-10484
▁체중	-10485
▁파헤	-10486
▁해택	-10487
▁변호인	-10488
▁어머님	-10489
▁매일신문	-10490
▁다케	-10491
▁발맞	-10492
▁이규	-10493
▁토너	-10494
▁학비	-10495
▁돌려받	-10496
▁기무사	-10497
▁봅시다	-10498
OM	-10499
▁고로	-10500
▁맛집	-10501
▁베드	-10502
▁부두	-10503
▁숨지	-10504
▁신탁	-10505
▁이뤄져야	-10506
에트	-10507
외과	-10508
크스	-10509
▁기용	-10510
▁전범	-10511
▁풀리	-10512
▁항해	-10513
▁기념일	-10514
▁출입국	-10515
▁분통	-10516
▁직계	-10517
▁킬로	-10518
▁동점	-10519
▁전례	-10520
▁채팅	-10521
▁최장	-10522
▁토끼	-10523
▁지영수	-10524
▁계엄	-10525
▁공해	-10526
라지	-10527
▁비위	-10528
▁항체	-10529
▁휴지	-10530
▁동북아	-10531
▁뮌	-10532
▁고취	-10533
▁마녀	-10534
▁이례	-10535
▁흑자	-10536
▁알아주	-10537
▁렀다	-10538
▁서점	-10539
▁경기력	-10540
▁사이드	-10541
▁채무자	-10542
▁휘발유	-10543
▁레알	-10544
본다	-10545
예산	-10546
▁대위	-10547
▁사마	-10548
▁삽입	-10549
▁폭풍	-10550
▁내셔널	-10551
▁면허증	-10552
▁이사회	-10553
▁중고차	-10554
▁뜰	-10555
꼬박	-10556
렉스	-10557
맞이	-10558
▁순경	-10559
▁중성	-10560
▁느낀다	-10561
▁꼬박꼬박	-10562
▁세르비아	-10563
▁꽉	-10564
정호	-10565
조선	-10566
▁기운	-10567
▁품격	-10568
체스터	-10569
▁몰라서	-10570
▁박영선	-10571
▁정형식	-10572
▁지상파	-10573
▁youtu	-10574
▁꽁	-10575
▁김창	-10576
▁되새	-10577
▁정미	-10578
▁106	-10579
▁기본급	-10580
▁희망자	-10581
▁왈	-10582
프리	-10583
▁도래	-10584
▁시동	-10585
▁입히	-10586
▁자손	-10587
▁편찬	-10588
▁냥	-10589
▁만점	-10590
▁오키	-10591
▁155	-10592
▁간다는	-10593
슬러	-10594
▁노약	-10595
▁로그	-10596
▁헤르	-10597
▁알고리	-10598
▁전달식	-10599
▁평론가	-10600
▁커서	-10601
▁우파	-10602
▁유휴	-10603
▁파생	-10604
▁포켓	-10605
▁고위험	-10606
▁내세워	-10607
▁류현진	-10608
▁산책로	-10609
▁세무서	-10610
▁포상금	-10611
▁힘든데	-10612
▁html	-10613
▁구사	-10614
▁치사	-10615
▁파운드	-10616
▁결핵	-10617
▁조문	-10618
▁대유행	-10619
▁도널드	-10620
▁平	-10621
▁슴	-10622
타이	-10623
▁CP	-10624
▁가뭄	-10625
▁변함	-10626
▁측량	-10627
IP	-10628
리즘	-10629
▁명부	-10630
▁베리	-10631
▁여우	-10632
▁정점	-10633
orea	-10634
▁루이스	-10635
▁전세금	-10636
▁국면	-10637
▁치른	-10638
▁판례	-10639
▁김영록	-10640
▁연평균	-10641
▁市	-10642
▁술집	-10643
▁인회	-10644
▁참담	-10645
▁컬링	-10646
▁수없이	-10647
▁통일부	-10648
▁1958	-10649
▁돔	-10650
▁궁극	-10651
▁달콤	-10652
▁범주	-10653
▁이식	-10654
▁이토	-10655
▁잔류	-10656
▁잔여	-10657
▁전장	-10658
▁증빙	-10659
▁코믹	-10660
▁명백히	-10661
▁청양군	-10662
▁당직	-10663
▁우선시	-10664
▁반기	-10665
▁스태	-10666
▁앞뒤	-10667
▁트램	-10668
▁사이즈	-10669
▁1900	-10670
▁닐	-10671
의회	-10672
▁하사	-10673
▁추기경	-10674
TT	-10675
▁라돈	-10676
▁문예	-10677
▁부응	-10678
▁헤드	-10679
▁왔으며	-10680
▁알고리즘	-10681
사이	-10682
▁보금	-10683
▁소명	-10684
▁액체	-10685
▁들어야	-10686
▁보금자리	-10687
▁천국	-10688
▁쳐먹	-10689
▁라고요	-10690
▁메이지	-10691
▁본연	-10692
▁초선	-10693
▁부사장	-10694
▁생산자	-10695
▁장거리	-10696
▁지휘관	-10697
OD	-10698
▁쏠리	-10699
▁운임	-10700
▁진급	-10701
▁•	-10702
▁속보	-10703
▁실수요자	-10704
▁이해관계	-10705
틀러	-10706
▁MV	-10707
▁과자	-10708
▁묵살	-10709
▁양현	-10710
▁업인	-10711
▁BMW	-10712
다임	-10713
▁꾸미	-10714
▁성형	-10715
▁역설	-10716
▁육지	-10717
▁나뉜다	-10718
▁폄	-10719
▁ᆞ면	-10720
▁122	-10721
▁드래곤	-10722
▁국민연금	-10723
▁넘겼	-10724
▁살균	-10725
▁애매	-10726
▁영지	-10727
▁특보	-10728
▁함정	-10729
▁1939	-10730
▁패러다임	-10731
▁공룡	-10732
▁절도	-10733
▁107	-10734
▁월간	-10735
▁강탈	-10736
▁서진	-10737
▁이길	-10738
▁줄줄	-10739
▁계획안	-10740
▁준우승	-10741
▁배드	-10742
▁수동	-10743
▁전처	-10744
▁지르	-10745
▁클라	-10746
▁데이비드	-10747
▁KE	-10748
▁습득	-10749
▁전승	-10750
▁최재	-10751
▁걸림돌	-10752
▁모양새	-10753
▁잇따르	-10754
▁......	-10755
천면	-10756
치소	-10757
▁양호	-10758
▁이를	-10759
▁조립	-10760
▁거래량	-10761
연수	-10762
▁나들	-10763
▁복장	-10764
▁지극	-10765
시스트	-10766
▁브레이크	-10767
▁날라	-10768
▁농부	-10769
▁복선	-10770
▁부흥	-10771
▁염두	-10772
▁제동	-10773
▁간다고	-10774
▁나들목	-10775
▁누리꾼	-10776
▁평화통일	-10777
▁머니	-10778
▁재즈	-10779
▁최상위	-10780
▁현저히	-10781
▁삼성증권	-10782
▁자연재해	-10783
▁一	-10784
▁경인	-10785
▁일컫	-10786
흡연자	-10787
▁아니하	-10788
▁비흡연자	-10789
▁당은	-10790
▁오죽	-10791
▁문학상	-10792
▁바꿨	-10793
▁성지	-10794
▁일수	-10795
멘터리	-10796
테이션	-10797
▁오스만	-10798
▁객실	-10799
▁외래	-10800
▁이의	-10801
▁청각	-10802
▁태어났으며	-10803
▁다목	-10804
▁실외	-10805
▁민원실	-10806
▁정세균	-10807
▁크리스마스	-10808
▁산란	-10809
▁어민	-10810
사리	-10811
▁거동	-10812
▁보은	-10813
▁나아갈	-10814
▁은데요	-10815
▁이래서	-10816
▁학자금	-10817
▁1956	-10818
시피	-10819
▁효능	-10820
▁출판사	-10821
▁키워드	-10822
▁comp	-10823
▁교묘	-10824
▁대명	-10825
▁어버	-10826
▁텃밭	-10827
▁도무지	-10828
클리	-10829
▁결사	-10830
▁숨졌	-10831
▁아랫	-10832
▁177	-10833
fe	-10834
▁데스	-10835
▁박장	-10836
▁박찬	-10837
▁부른	-10838
▁선처	-10839
▁위키	-10840
▁호조	-10841
▁여행사	-10842
▁無	-10843
클럽	-10844
▁모로	-10845
▁몰수	-10846
▁문턱	-10847
▁배워	-10848
▁나와야	-10849
▁처리장	-10850
▁자연환경	-10851
일드	-10852
▁반지	-10853
▁전동차	-10854
기사	-10855
우치	-10856
즈음	-10857
▁총액	-10858
▁EBS	-10859
▁재수사	-10860
▁다큐멘터리	-10861
암동	-10862
▁나눈	-10863
▁말라	-10864
▁미팅	-10865
▁박경	-10866
▁월화	-10867
자유구역	-10868
▁김영철	-10869
▁매국노	-10870
44	-10871
▁각기	-10872
▁급행	-10873
▁남발	-10874
▁넉넉	-10875
▁농성	-10876
▁떠오	-10877
▁먹방	-10878
▁영문	-10879
▁클로	-10880
▁표출	-10881
▁풍선	-10882
▁한꺼	-10883
▁한꺼번에	-10884
▁똘	-10885
▁요지	-10886
▁전학	-10887
▁안희정	-10888
▁돼지고기	-10889
▁섰	-10890
▁비아	-10891
▁비호	-10892
▁사촌	-10893
▁산후	-10894
▁난이도	-10895
▁대단히	-10896
▁사이비	-10897
▁어워드	-10898
▁용인시	-10899
▁찾아온	-10900
▁캐스팅	-10901
▁경제자유구역	-10902
기금	-10903
▁귀중	-10904
▁대공	-10905
▁나아지	-10906
ion	-10907
▁발산	-10908
▁사비	-10909
▁영위	-10910
▁키스	-10911
▁풍속	-10912
▁해피	-10913
▁화훼	-10914
▁사용료	-10915
▁여동생	-10916
▁그라운드	-10917
일기	-10918
▁또래	-10919
▁우기	-10920
▁자궁	-10921
▁창피	-10922
▁출금	-10923
▁특사	-10924
▁펠리	-10925
▁176	-10926
▁공사비	-10927
▁꼼꼼히	-10928
▁PA	-10929
▁백인	-10930
▁청량	-10931
▁프레스	-10932
▁1941	-10933
▁하이닉스	-10934
▁고심	-10935
▁연평	-10936
▁오이	-10937
▁저리	-10938
▁존슨	-10939
▁레지	-10940
▁북측	-10941
▁왕후	-10942
▁동래구	-10943
▁아세안	-10944
▁가결	-10945
▁날카	-10946
▁장마	-10947
▁허다	-10948
▁157	-10949
▁`	-10950
▁Al	-10951
▁속히	-10952
▁교통망	-10953
▁관광공사	-10954
▁에르	-10955
▁1954	-10956
뜨렸	-10957
▁128	-10958
▁게시물	-10959
▁박상기	-10960
▁AM	-10961
▁넷째	-10962
▁배차	-10963
▁수만	-10964
▁쓰였	-10965
▁쪼개	-10966
▁춘천시	-10967
▁쉐	-10968
셔서	-10969
▁였음	-10970
▁명나라	-10971
▁조지아	-10972
▁탔	-10973
네요	-10974
▁멍청	-10975
▁위헌	-10976
▁전해진다	-10977
13	-10978
▁보리	-10979
▁송악	-10980
▁수중	-10981
▁시외	-10982
▁계약금	-10983
▁사무관	-10984
▁소비에트	-10985
걸이	-10986
레나	-10987
▁서경	-10988
▁스가	-10989
▁예시	-10990
ᅳᅳᅳᅳ	-10991
▁고려대	-10992
▁남학생	-10993
외선	-10994
▁감금	-10995
▁눌러	-10996
▁단정	-10997
▁불문	-10998
▁스터	-10999
▁투여	-11000
▁호르	-11001
▁net	-11002
▁서초구	-11003
▁장학생	-11004
▁당대	-11005
▁사병	-11006
▁추월	-11007
▁GDP	-11008
▁밥그릇	-11009
▁짓거리	-11010
▁1947	-11011
▁남아프리카	-11012
용수	-11013
▁비엔	-11014
▁손꼽	-11015
▁영종	-11016
▁원시	-11017
▁자란	-11018
▁태종	-11019
▁김포시	-11020
▁1952	-11021
▁타이거즈	-11022
be	-11023
▁미추	-11024
▁병무	-11025
▁빈도	-11026
▁워너	-11027
▁짐작	-11028
브리드	-11029
▁야동	-11030
▁장래	-11031
▁김현미	-11032
▁벗어난	-11033
▁직거래	-11034
▁하이브리드	-11035
프레	-11036
▁쓴다	-11037
▁제지	-11038
▁측은	-11039
▁상임위	-11040
▁지구대	-11041
지원	-11042
ell	-11043
▁기미	-11044
▁쇠퇴	-11045
▁식별	-11046
▁정조	-11047
▁폐교	-11048
▁리스크	-11049
▁영화관	-11050
▁조사단	-11051
▁판타지	-11052
▁콕	-11053
▁항암	-11054
▁공사장	-11055
▁아쉬운	-11056
▁어째서	-11057
▁환경청	-11058
▁1910	-11059
▁SC	-11060
▁김장	-11061
▁사하	-11062
▁시마	-11063
▁쓸데없	-11064
▁컨텐츠	-11065
바꿈	-11066
보호	-11067
지르	-11068
▁극한	-11069
▁동전	-11070
▁서슴	-11071
▁서천	-11072
▁신랑	-11073
▁엇갈	-11074
▁드디어	-11075
▁페르시아	-11076
▁넓히	-11077
▁빼돌	-11078
▁착륙	-11079
▁제조사	-11080
▁캘리포니아주	-11081
99	-11082
루미	-11083
ate	-11084
▁기인	-11085
▁니시	-11086
▁빌미	-11087
▁업장	-11088
▁그런지	-11089
▁덩어리	-11090
▁시위대	-11091
▁케이블카	-11092
▁왓	-11093
래도	-11094
리다	-11095
시대	-11096
▁노년	-11097
▁담회	-11098
▁백작	-11099
▁찬양	-11100
▁판교	-11101
▁nhn	-11102
▁단기간	-11103
▁살인자	-11104
▁이해찬	-11105
▁랜드마크	-11106
ue	-11107
▁윙	-11108
▁접했	-11109
▁차입	-11110
▁146	-11111
▁공영주	-11112
▁시끄럽	-11113
▁어리석	-11114
▁1600	-11115
악단	-11116
▁식재	-11117
▁감독관	-11118
▁페널티	-11119
베리	-11120
▁도배	-11121
▁리듬	-11122
▁봐요	-11123
▁북극	-11124
▁외관	-11125
▁이끈	-11126
▁관통	-11127
▁기밀	-11128
▁달빛	-11129
▁도미	-11130
▁동인	-11131
▁생략	-11132
▁오인	-11133
▁는군요	-11134
▁잠재력	-11135
바람	-11136
▁나쁨	-11137
▁중상	-11138
▁수천만	-11139
▁달래	-11140
▁루스	-11141
▁조원	-11142
▁호가	-11143
▁화고	-11144
플릭스	-11145
▁pro	-11146
▁관심사	-11147
▁받아들일	-11148
▁SA	-11149
▁쓸모	-11150
▁잔혹	-11151
▁클레	-11152
▁하남시	-11153
▁넷플릭스	-11154
▁×	-11155
▁엮	-11156
기지	-11157
▁Re	-11158
▁상병	-11159
▁지갑	-11160
▁구제역	-11161
▁들어설	-11162
▁서천군	-11163
▁어버이	-11164
▁여겨진다	-11165
▁자이언츠	-11166
가정	-11167
치아	-11168
▁사명감	-11169
▁크리에이터	-11170
겨운	-11171
▁동굴	-11172
▁사막	-11173
▁쫓겨	-11174
▁초빙	-11175
▁대주주	-11176
▁면사무소	-11177
▁PM	-11178
▁내실	-11179
▁전향	-11180
▁연습장	-11181
▁타임스	-11182
▁그늘	-11183
▁사사	-11184
▁요약	-11185
▁울산시	-11186
▁애플리케이션	-11187
▁더운	-11188
▁불허	-11189
▁시킵	-11190
▁고용주	-11191
▁취업률	-11192
보기	-11193
▁강압	-11194
▁인맥	-11195
▁주저	-11196
▁취향	-11197
▁카자	-11198
▁기준치	-11199
워하	-11200
▁귀찮	-11201
▁북방	-11202
▁수신료	-11203
▁연주자	-11204
▁장시간	-11205
▁화요일	-11206
▁주어진다	-11207
▁XX	-11208
▁시야	-11209
▁죽였	-11210
▁출현	-11211
아티아	-11212
▁리버풀	-11213
▁소송법	-11214
리그	-11215
부모	-11216
▁각성	-11217
▁마실	-11218
▁외과	-11219
▁진료비	-11220
▁크로아티아	-11221
메이	-11222
▁동두	-11223
▁디즈	-11224
▁서한	-11225
▁애완	-11226
▁포드	-11227
▁기본법	-11228
▁사용자	-11229
마을	-11230
원지	-11231
▁신평	-11232
▁당과	-11233
▁방한	-11234
▁아껴	-11235
▁성과급	-11236
▁후쿠오카	-11237
38	-11238
ra	-11239
▁불복	-11240
▁석면	-11241
▁심도	-11242
▁유방	-11243
▁166	-11244
▁관리사	-11245
▁트레이드	-11246
42	-11247
▁넌	-11248
불리	-11249
승현	-11250
시티	-11251
▁구례	-11252
▁급기	-11253
▁대세	-11254
▁반격	-11255
▁이색	-11256
▁재천	-11257
▁폭스	-11258
▁피곤	-11259
▁시니어	-11260
▁연수원	-11261
▁은행장	-11262
▁read	-11263
▁오라	-11264
▁의의	-11265
▁침투	-11266
▁힙합	-11267
▁BTS	-11268
▁IOC	-11269
▁후계자	-11270
▁도요	-11271
▁뒤따	-11272
▁메리	-11273
▁부득이	-11274
▁부산항	-11275
▁양주시	-11276
45	-11277
▁구마	-11278
▁도비	-11279
▁사적	-11280
▁성황	-11281
▁약관	-11282
▁편익	-11283
▁폭동	-11284
▁회상	-11285
▁파키스탄	-11286
▁찐	-11287
▁급수	-11288
▁기강	-11289
▁임재	-11290
▁넘어선	-11291
▁당첨자	-11292
▁탈바꿈	-11293
▁1959	-11294
걸음	-11295
코스	-11296
▁비웃	-11297
▁비유	-11298
▁치부	-11299
▁법률안	-11300
▁스테이션	-11301
▁안전교육	-11302
se	-11303
▁떄	-11304
▁맏	-11305
▁도왔	-11306
▁벤츠	-11307
▁상회	-11308
▁쿼터	-11309
▁접어들	-11310
▁ᆞ중	-11311
▁갈취	-11312
▁레벨	-11313
▁방패	-11314
▁세자	-11315
▁수변	-11316
▁온다	-11317
▁최하	-11318
▁놀라운	-11319
베스	-11320
싸움	-11321
▁막판	-11322
▁서북	-11323
▁목포시	-11324
▁조선소	-11325
▁주택가	-11326
▁펄	-11327
ice	-11328
▁곡선	-11329
▁중진	-11330
▁출품	-11331
▁휴업	-11332
▁일수록	-11333
아웃	-11334
▁결집	-11335
▁종영	-11336
▁토리	-11337
▁귀가	-11338
▁부설	-11339
▁수박	-11340
▁시연	-11341
▁원회	-11342
▁정현	-11343
릿수	-11344
▁그대	-11345
▁서브	-11346
▁약탈	-11347
▁큰일	-11348
▁파주시	-11349
▁룩	-11350
▁이화	-11351
▁신문고	-11352
▁요즈음	-11353
▁리아	-11354
▁발길	-11355
▁저술	-11356
▁차체	-11357
▁어울림	-11358
▁vs	-11359
▁거꾸	-11360
▁관습	-11361
▁구강	-11362
▁귀여	-11363
▁토마	-11364
▁방정식	-11365
▁장자연	-11366
루엔	-11367
▁겹치	-11368
▁발부	-11369
▁본명	-11370
▁유수	-11371
▁크라	-11372
▁유성구	-11373
our	-11374
▁가평	-11375
▁터치	-11376
▁파르	-11377
▁행적	-11378
필품	-11379
▁개수	-11380
▁경품	-11381
▁실직	-11382
▁영하	-11383
▁다시금	-11384
▁무사히	-11385
▁사라질	-11386
▁종로구	-11387
▁오송	-11388
▁꽂	-11389
천동	-11390
▁ᅳᅳ	-11391
▁김석	-11392
▁줘라	-11393
▁살아왔	-11394
▁영주시	-11395
▁올스타	-11396
▁못한다면	-11397
▁쥬	-11398
▁맥락	-11399
▁보르	-11400
▁아인	-11401
니스탄	-11402
▁가져야	-11403
▁과징금	-11404
▁생필품	-11405
▁올라서	-11406
▁아름다움	-11407
▁탁상행정	-11408
▁듬	-11409
▁ᆞ도	-11410
▁가뜩	-11411
▁금수	-11412
▁내야	-11413
▁양키	-11414
▁터전	-11415
위대	-11416
쳐야	-11417
▁방산	-11418
▁어항	-11419
▁증평	-11420
▁이철우	-11421
▁서열	-11422
▁책자	-11423
▁소유주	-11424
▁김혜	-11425
▁압수	-11426
▁좌익	-11427
▁함락	-11428
▁구매자	-11429
▁음악가	-11430
▁한다니	-11431
▁남양주시	-11432
▁u	-11433
바르	-11434
사태	-11435
▁기해	-11436
▁방대	-11437
▁성동	-11438
▁수첩	-11439
▁자한	-11440
▁징용	-11441
▁초상	-11442
▁타선	-11443
▁필라	-11444
▁기자단	-11445
▁EC	-11446
▁강자	-11447
▁메카	-11448
▁숙제	-11449
▁순방	-11450
▁이대	-11451
▁118	-11452
▁자치회	-11453
▁세션	-11454
▁송출	-11455
▁시뮬	-11456
▁하트	-11457
▁109	-11458
▁울타리	-11459
▁전문학교	-11460
▁★	-11461
리칸	-11462
▁경영진	-11463
▁개인택시	-11464
▁고래	-11465
▁수탁	-11466
▁씨름	-11467
▁열풍	-11468
▁거꾸로	-11469
▁대표단	-11470
oT	-11471
▁거북	-11472
▁동창	-11473
▁박세	-11474
▁반역	-11475
▁원만	-11476
▁제치	-11477
▁중원	-11478
▁230	-11479
▁단말기	-11480
▁짱	-11481
소통	-11482
ort	-11483
▁명사	-11484
▁한인	-11485
▁음란물	-11486
▁이룬다	-11487
▁데이터베이스	-11488
아치	-11489
▁델타	-11490
▁도어	-11491
▁본토	-11492
▁적금	-11493
▁동의서	-11494
▁모터스	-11495
▁드래프트	-11496
▁城	-11497
이다	-11498
▁파인	-11499
▁해자	-11500
시스코	-11501
▁김천시	-11502
▁수십만	-11503
▁크레인	-11504
▁기다려야	-11505
▁전통문화	-11506
▁교단	-11507
▁김인	-11508
▁늘릴	-11509
▁신보	-11510
▁악덕	-11511
▁욕망	-11512
▁270	-11513
▁되돌아	-11514
▁비해서	-11515
▁어려우	-11516
46	-11517
▁례	-11518
▁농경	-11519
▁서남	-11520
닙니다	-11521
▁사우스	-11522
▁책임질	-11523
▁후진국	-11524
▁가뜩이나	-11525
▁이야말로	-11526
호영	-11527
▁개년	-11528
▁고고	-11529
▁배급	-11530
▁익스	-11531
▁지로	-11532
▁하얀	-11533
▁입법부	-11534
▁반감	-11535
▁안티	-11536
▁남원시	-11537
▁노태우	-11538
▁다이어트	-11539
▁가파	-11540
▁간신	-11541
▁거쳤	-11542
▁렌즈	-11543
▁사위	-11544
▁유상	-11545
▁하구	-11546
▁고위직	-11547
▁그런가	-11548
▁보호사	-11549
▁가루	-11550
▁갇혀	-11551
▁균등	-11552
▁기일	-11553
▁모호	-11554
▁외신	-11555
▁원심	-11556
▁부조리	-11557
▁사라져	-11558
▁독감	-11559
▁서방	-11560
▁양반	-11561
▁접한	-11562
▁AFC	-11563
▁안내문	-11564
▁컨디션	-11565
▁껴	-11566
업체	-11567
▁DS	-11568
▁모노	-11569
▁평상	-11570
▁280	-11571
▁넘쳐나	-11572
▁을려고	-11573
▁해서라도	-11574
ist	-11575
▁이석	-11576
▁일곱	-11577
▁주시	-11578
▁프랑크	-11579
모니	-11580
▁id	-11581
▁김도	-11582
▁누수	-11583
▁성년	-11584
▁안토	-11585
▁중량	-11586
▁합치	-11587
▁지방분	-11588
퀘어	-11589
▁>>	-11590
▁박주	-11591
▁알선	-11592
▁펼친	-11593
▁COM	-11594
▁산업체	-11595
▁주고받	-11596
▁김윤	-11597
▁나열	-11598
▁선점	-11599
▁유진	-11600
▁126	-11601
▁가로막	-11602
▁재검토	-11603
▁長	-11604
▁관악	-11605
▁동백	-11606
▁콜롬	-11607
▁다문화	-11608
▁스트리	-11609
▁치러진	-11610
▁심합니다	-11611
보도	-11612
▁구동	-11613
▁부시	-11614
막이	-11615
▁다발	-11616
▁정가	-11617
▁경상도	-11618
▁핏	-11619
시민	-11620
▁배추	-11621
▁생선	-11622
▁위계	-11623
조무사	-11624
▁사다리	-11625
▁입장료	-11626
▁한동안	-11627
▁괴로	-11628
▁벽화	-11629
▁야스	-11630
▁210	-11631
▁배양	-11632
▁영재	-11633
▁트윈	-11634
▁향유	-11635
▁스러웠	-11636
▁제작사	-11637
▁1955	-11638
▁간호조무사	-11639
49	-11640
▁멧	-11641
▁김은	-11642
▁베토	-11643
▁파울	-11644
▁해온	-11645
▁147	-11646
▁나이트	-11647
▁적당히	-11648
▁출연진	-11649
bc	-11650
▁뚝	-11651
수단	-11652
▁너지	-11653
▁부결	-11654
교회	-11655
▁An	-11656
▁미쳐	-11657
▁분화	-11658
▁서인	-11659
▁송전	-11660
▁이선	-11661
▁내려와	-11662
▁수도원	-11663
▁맨체스터	-11664
▁획기적으로	-11665
레옹	-11666
▁김미	-11667
▁동국	-11668
▁따돌	-11669
▁세율	-11670
▁용수	-11671
▁잠실	-11672
▁토착	-11673
▁표적	-11674
▁116	-11675
▁시멘트	-11676
▁제자리	-11677
▁날려	-11678
▁서적	-11679
▁힘내	-11680
▁인권위	-11681
▁혹시나	-11682
▁고창	-11683
▁박인	-11684
▁하버	-11685
루엔자	-11686
▁한가요	-11687
▁부드러운	-11688
▁플로리다	-11689
IS	-11690
금속	-11691
▁씨앗	-11692
▁이직	-11693
▁키운	-11694
▁---	-11695
▁가져다	-11696
▁나폴레옹	-11697
누리	-11698
▁기세	-11699
▁분뇨	-11700
▁생전	-11701
▁선비	-11702
▁우세	-11703
▁유급	-11704
▁친문	-11705
▁가세	-11706
▁구두	-11707
▁유교	-11708
▁자수	-11709
칩니다	-11710
▁142	-11711
▁부여군	-11712
▁평창동	-11713
▁기수	-11714
▁김남	-11715
▁선수촌	-11716
▁Ar	-11717
▁무등	-11718
▁진통	-11719
▁펌프	-11720
▁표지판	-11721
▁악행	-11722
▁취득세	-11723
▁자동차세	-11724
▁솟	-11725
일비	-11726
▁나리	-11727
▁낭독	-11728
▁블럭	-11729
▁위태	-11730
▁재밌	-11731
▁발표회	-11732
▁인플루엔자	-11733
▁디아	-11734
▁실물	-11735
▁신뢰도	-11736
▁쌈	-11737
▁벌레	-11738
▁비춰	-11739
▁실은	-11740
▁천천	-11741
▁남해안	-11742
▁체납자	-11743
▁몹	-11744
▁박희	-11745
▁위급	-11746
▁차명	-11747
▁한들	-11748
▁알렉산드	-11749
서리	-11750
▁다투	-11751
▁사행	-11752
▁양평	-11753
▁에버	-11754
▁149	-11755
▁베토벤	-11756
▁정례회	-11757
▁천천히	-11758
▁국한	-11759
▁비참	-11760
▁순식	-11761
▁죄책	-11762
▁레이저	-11763
▁1800	-11764
▁1957	-11765
▁끌어올리	-11766
▁뤼	-11767
▁가점	-11768
▁려던	-11769
▁루마	-11770
▁분경	-11771
▁유령	-11772
▁158	-11773
▁다가가	-11774
▁연락처	-11775
▁연예계	-11776
▁1951	-11777
48	-11778
MS	-11779
▁안면	-11780
▁117	-11781
▁사유지	-11782
▁낭만	-11783
▁배틀	-11784
▁삐	-11785
▁단의	-11786
▁리원	-11787
▁모음	-11788
▁172	-11789
▁330	-11790
),	-11791
화원	-11792
▁가와	-11793
▁거둬	-11794
▁승려	-11795
▁엄연	-11796
▁광명시	-11797
ᅲᅲ	-11798
▁엎	-11799
▁유고	-11800
▁책무	-11801
▁밝혀야	-11802
▁의사소통	-11803
▁♠	-11804
파이	-11805
▁Li	-11806
▁면책	-11807
▁발현	-11808
▁노동법	-11809
▁양승조	-11810
▁유형문화재	-11811
결승	-11812
테스	-11813
▁당위	-11814
▁모험	-11815
▁미주	-11816
▁봉급	-11817
▁약품	-11818
▁비대위	-11819
▁北	-11820
균관	-11821
▁성기	-11822
▁현존	-11823
▁개탄	-11824
▁상단	-11825
▁입수	-11826
▁조병	-11827
▁친분	-11828
▁기장군	-11829
▁줄여야	-11830
ID	-11831
▁계류	-11832
▁유언	-11833
▁재질	-11834
렉션	-11835
이치	-11836
커녕	-11837
현동	-11838
▁고안	-11839
▁기침	-11840
▁징벌	-11841
▁칠레	-11842
▁회기	-11843
▁260	-11844
▁학교장	-11845
까봐	-11846
▁도울	-11847
▁독보	-11848
▁본점	-11849
▁쇄신	-11850
▁아크	-11851
▁적힌	-11852
▁치즈	-11853
▁IoT	-11854
▁당나라	-11855
▁아파서	-11856
▁유은혜	-11857
▁주의보	-11858
▁company	-11859
▁찜	-11860
사전	-11861
▁군림	-11862
▁끝날	-11863
▁동거	-11864
▁둥지	-11865
▁뮌헨	-11866
▁정우	-11867
▁고지서	-11868
▁수십억	-11869
란트	-11870
쿠스	-11871
▁드문	-11872
▁산청	-11873
▁습격	-11874
▁신차	-11875
▁업무상	-11876
슬링	-11877
▁검역	-11878
▁온난	-11879
▁권영진	-11880
▁정보원	-11881
▁클라이	-11882
▁나타낸다	-11883
▁잃어버린	-11884
▁르네	-11885
▁숙련	-11886
▁온통	-11887
▁윤종	-11888
▁독일군	-11889
▁순식간	-11890
▁스티븐	-11891
▁이민자	-11892
▁할려면	-11893
▁1943	-11894
가치	-11895
▁ch	-11896
▁신조	-11897
▁이소	-11898
▁흔한	-11899
▁선보여	-11900
▁흉악범	-11901
▁바이올린	-11902
▁토너먼트	-11903
▁西	-11904
▁려다	-11905
▁마그	-11906
▁소소	-11907
▁미추홀	-11908
반대	-11909
의정	-11910
ers	-11911
▁성모	-11912
▁여진	-11913
▁청라	-11914
▁팬데	-11915
▁소기업	-11916
ty	-11917
▁공법	-11918
▁줄지	-11919
▁찰스	-11920
▁1942	-11921
▁킴	-11922
▁".	-11923
▁시국	-11924
▁예민	-11925
▁펜스	-11926
▁허덕	-11927
▁훌쩍	-11928
▁132	-11929
▁아우르	-11930
▁골절	-11931
▁바디	-11932
▁절단	-11933
▁검색어	-11934
▁전기금	-11935
▁CG	-11936
▁귀한	-11937
▁면장	-11938
▁박해	-11939
▁살린	-11940
▁여정	-11941
▁친선	-11942
▁해발	-11943
▁MVP	-11944
▁낙하산	-11945
▁성균관	-11946
▁세워졌	-11947
▁이륜차	-11948
▁호랑이	-11949
▁人	-11950
▁法	-11951
▁노선영	-11952
▁떠넘기	-11953
▁올려야	-11954
▁화합물	-11955
▁결탁	-11956
▁버팀	-11957
▁조처	-11958
▁개그맨	-11959
▁레스	-11960
▁선의	-11961
▁수조	-11962
▁시아	-11963
▁우상	-11964
▁청결	-11965
▁골목길	-11966
▁저수지	-11967
▁접한다	-11968
▁주의자	-11969
자치단체	-11970
▁이양	-11971
▁피력	-11972
▁본다면	-11973
▁생계비	-11974
▁여행객	-11975
▁오랜만	-11976
▁폴리스	-11977
▁할수록	-11978
▁무수	-11979
▁전매	-11980
▁한성	-11981
▁168	-11982
▁남북한	-11983
▁부상자	-11984
▁신천지	-11985
▁우즈베	-11986
▁줄여서	-11987
▁디딤	-11988
▁따름	-11989
▁무색	-11990
▁불매	-11991
▁양형	-11992
▁존속	-11993
▁머무르	-11994
▁전기료	-11995
▁블랙리스트	-11996
나와	-11997
천리	-11998
▁검단	-11999
▁꺼리	-12000
▁내밀	-12001
▁대관	-12002
▁빈부	-12003
▁유배	-12004
▁카시	-12005
▁쿠바	-12006
▁허탈	-12007
▁김기식	-12008
▁트로피	-12009
▁TH	-12010
▁각서	-12011
▁강등	-12012
▁과속	-12013
▁밝혀진	-12014
▁우크라이나	-12015
림동	-12016
▁단합	-12017
▁도쿠	-12018
▁벼슬	-12019
▁사계	-12020
▁재범	-12021
▁질타	-12022
▁태그	-12023
▁태조	-12024
▁포수	-12025
▁129	-12026
▁면역력	-12027
▁블랙박스	-12028
▁홋카이도	-12029
▁수평	-12030
▁aid	-12031
▁다녀온	-12032
▁동사무소	-12033
▁프랑스어	-12034
IT	-12035
ae	-12036
▁義	-12037
▁On	-12038
▁다던	-12039
▁루타	-12040
▁복제	-12041
▁위력	-12042
▁주심	-12043
▁지쳐	-12044
▁초고	-12045
▁김재정	-12046
▁책임져야	-12047
▁횡단보도	-12048
▁동남아시아	-12049
▁사채	-12050
▁세여	-12051
▁재래	-12052
▁차후	-12053
▁울릉도	-12054
관리위원회	-12055
du	-12056
산리	-12057
폭탄	-12058
▁사절	-12059
▁세관	-12060
▁애쓰	-12061
▁피자	-12062
▁다녀야	-12063
▁묵묵히	-12064
▁한국사	-12065
▁''	-12066
▁바리	-12067
▁초석	-12068
▁스케이	-12069
▁에이즈	-12070
▁마르크스	-12071
▁SS	-12072
▁각광	-12073
▁그쪽	-12074
▁마운드	-12075
▁방문자	-12076
▁앞당겨	-12077
ill	-12078
▁금치	-12079
▁발렌	-12080
▁백운	-12081
▁오카	-12082
▁청하	-12083
▁태아	-12084
▁부통령	-12085
▁세워진	-12086
▁전망대	-12087
▁히틀러	-12088
▁다운로드	-12089
▁아무래도	-12090
▁선거관리위원회	-12091
러졌	-12092
제국	-12093
현수	-12094
ear	-12095
▁가야	-12096
▁선장	-12097
▁연초	-12098
▁영유	-12099
▁초보	-12100
ight	-12101
▁인지도	-12102
▁일제히	-12103
ss	-12104
기구	-12105
▁MW	-12106
▁경희	-12107
▁고독	-12108
▁교란	-12109
▁늘린	-12110
▁단층	-12111
▁담양	-12112
▁수제	-12113
▁일식	-12114
▁출고	-12115
▁탄원	-12116
▁관리원	-12117
▁사기업	-12118
▁용의자	-12119
▁안타까움	-12120
ON	-12121
▁맵	-12122
▁늘렸	-12123
▁하노이	-12124
들인	-12125
몬드	-12126
▁개명	-12127
▁고부	-12128
▁관은	-12129
▁되살	-12130
▁막강	-12131
▁무방	-12132
▁방언	-12133
▁신협	-12134
▁후성	-12135
오리	-12136
티노	-12137
▁김세	-12138
▁대내	-12139
▁립니	-12140
▁이마	-12141
▁지치	-12142
▁구치소	-12143
▁카리스	-12144
에른	-12145
▁실려	-12146
▁의성	-12147
▁착오	-12148
▁어려서	-12149
▁삿	-12150
북자	-12151
이센	-12152
▁새우	-12153
▁윤창	-12154
▁이희	-12155
▁시흥시	-12156
▁보트	-12157
▁세액	-12158
▁167	-12159
▁도로는	-12160
기념	-12161
▁국수	-12162
▁안장	-12163
▁유능	-12164
▁추상	-12165
▁폐암	-12166
▁피스	-12167
▁베이비	-12168
▁지극히	-12169
▁생깁니다	-12170
▁다문화가정	-12171
게임	-12172
봉사	-12173
▁시험장	-12174
▁진단서	-12175
▁국보	-12176
▁물자	-12177
▁변해	-12178
▁애견	-12179
▁대의원	-12180
시경	-12181
▁kW	-12182
▁피드	-12183
▁쭉	-12184
부분	-12185
▁격상	-12186
▁눈감	-12187
▁돌연	-12188
▁산타	-12189
▁카스	-12190
▁피터	-12191
▁oid	-12192
▁들어선다	-12193
▁川	-12194
줘야	-12195
▁숭고	-12196
▁작정	-12197
▁조연	-12198
▁111	-12199
▁가져왔	-12200
ry	-12201
▁ᄀ	-12202
▁경작	-12203
▁빅토	-12204
▁시어	-12205
▁최정	-12206
▁토스	-12207
▁트래	-12208
▁촘	-12209
▁병들	-12210
▁비추	-12211
▁승률	-12212
▁artic	-12213
▁日	-12214
▁기뻐	-12215
▁목욕탕	-12216
▁엄중히	-12217
▁뷔	-12218
곡리	-12219
▁남짓	-12220
▁설날	-12221
▁세분	-12222
▁중력	-12223
▁진리	-12224
▁틀리	-12225
▁하부	-12226
▁몰아가	-12227
eb	-12228
금고	-12229
▁br	-12230
▁발찌	-12231
▁설렘	-12232
▁일전	-12233
▁간단히	-12234
▁건축가	-12235
▁라이벌	-12236
▁생활고	-12237
▁증평군	-12238
▁테슬라	-12239
▁마십시오	-12240
▁낙인	-12241
▁지킨	-12242
▁파동	-12243
▁페트	-12244
▁and	-12245
▁메트로	-12246
▁보스턴	-12247
▁안전성	-12248
대부	-12249
▁매스	-12250
▁셔틀	-12251
▁코파	-12252
▁크리	-12253
▁트랜스	-12254
규상	-12255
▁던졌	-12256
▁메타	-12257
▁조망	-12258
▁패밀리	-12259
▁얹	-12260
환자	-12261
▁분실	-12262
▁열망	-12263
▁향기	-12264
▁TOP	-12265
▁교향곡	-12266
▁카자흐	-12267
숭이	-12268
▁무임	-12269
▁승마	-12270
▁오름	-12271
▁전작	-12272
▁침범	-12273
▁상주시	-12274
▁홈경기	-12275
노소	-12276
▁Th	-12277
▁어스	-12278
▁외환	-12279
▁진격	-12280
▁화살	-12281
▁현충원	-12282
▁Sh	-12283
▁간통	-12284
▁다뤄	-12285
▁직급	-12286
▁후세	-12287
일비재	-12288
▁벗어날	-12289
▁대행업체	-12290
▁비일비재	-12291
▁배관	-12292
▁배임	-12293
▁자니	-12294
▁제의	-12295
▁면세점	-12296
▁불량자	-12297
▁첸	-12298
미르	-12299
팡이	-12300
▁이호	-12301
▁조조	-12302
▁종부	-12303
▁엄격히	-12304
▁크루즈	-12305
▁마을금고	-12306
▁적십자사	-12307
성이	-12308
수소	-12309
▁성산	-12310
▁장이	-12311
▁종업	-12312
▁회차	-12313
▁흡입	-12314
▁강대국	-12315
▁노약자	-12316
▁동대문	-12317
▁올라갈	-12318
티스	-12319
▁SF	-12320
▁토막	-12321
▁개헌안	-12322
▁느냐는	-12323
▁충실히	-12324
▁나온다고	-12325
▁거둘	-12326
▁나비	-12327
▁무전	-12328
▁스킨	-12329
▁온몸	-12330
▁임영	-12331
▁잡힌	-12332
▁참배	-12333
▁후대	-12334
▁버팀목	-12335
더니	-12336
취업	-12337
▁걸러	-12338
▁높인	-12339
▁든가	-12340
▁소양	-12341
▁암컷	-12342
▁얀센	-12343
▁320	-12344
▁조종사	-12345
셔야	-12346
▁더해	-12347
▁불합	-12348
▁생체	-12349
▁유혹	-12350
▁모여서	-12351
▁바이에른	-12352
과이	-12353
도시	-12354
독부	-12355
▁스탈	-12356
▁안무	-12357
▁입안	-12358
▁작위	-12359
▁토요	-12360
으므로	-12361
▁는데도	-12362
▁소방대원	-12363
▁롬	-12364
소니	-12365
▁김유	-12366
▁깃발	-12367
▁싸웠	-12368
▁콜로	-12369
▁투스	-12370
주의자	-12371
▁심리학	-12372
▁온전히	-12373
거지	-12374
▁셰프	-12375
▁하물	-12376
▁해저	-12377
▁FTA	-12378
▁트라이	-12379
▁校	-12380
민턴	-12381
▁만장	-12382
▁벨라	-12383
▁왕비	-12384
▁일터	-12385
▁첨가	-12386
▁뺑	-12387
PAN	-12388
▁갯벌	-12389
▁괜히	-12390
▁대박	-12391
▁문양	-12392
▁발자	-12393
▁조재	-12394
▁초교	-12395
▁탄도	-12396
▁폐해	-12397
▁돈벌이	-12398
▁범법자	-12399
▁원동력	-12400
▁유기농	-12401
▁껀	-12402
▁양대	-12403
▁코어	-12404
▁현관	-12405
▁회색	-12406
▁148	-12407
▁개돼지	-12408
▁들으면	-12409
▁사회생활	-12410
▁신한은행	-12411
▁軍	-12412
ess	-12413
▁여력	-12414
▁외지	-12415
▁원했	-12416
▁정명	-12417
▁조영	-12418
폴리스	-12419
▁법조인	-12420
▁실무자	-12421
▁루마니아	-12422
ET	-12423
▁고법	-12424
▁사체	-12425
▁잭슨	-12426
▁김명수	-12427
▁떠올리	-12428
▁시가지	-12429
▁이준석	-12430
기능	-12431
▁설레	-12432
▁탐험	-12433
▁아마존	-12434
▁회의장	-12435
▁1936	-12436
▁1938	-12437
▁남녀노소	-12438
▁무실	-12439
▁증강	-12440
▁꾸러미	-12441
▁논산시	-12442
▁도망가	-12443
▁청렴도	-12444
▁前	-12445
▁덥	-12446
▁뿔	-12447
▁썰	-12448
베트	-12449
▁급제	-12450
▁연탄	-12451
▁주상	-12452
▁후방	-12453
▁SSG	-12454
▁결의안	-12455
▁아테네	-12456
▁카리스마	-12457
▁랏	-12458
매장	-12459
▁마신	-12460
▁북항	-12461
▁조석	-12462
▁sid	-12463
▁버려야	-12464
▁안양시	-12465
▁보여집니다	-12466
버님	-12467
사르	-12468
테랑	-12469
▁개표	-12470
▁고질	-12471
▁둔다	-12472
▁명실	-12473
▁스릴	-12474
▁이브	-12475
▁호의	-12476
▁금강산	-12477
▁부적합	-12478
▁사회관	-12479
▁2050	-12480
▁아메리칸	-12481
▁본문	-12482
▁비료	-12483
▁식비	-12484
▁친근	-12485
▁다니엘	-12486
▁드레스	-12487
▁오디오	-12488
▁배지	-12489
▁유격	-12490
▁은가	-12491
▁치루	-12492
▁스태프	-12493
승부	-12494
▁루프	-12495
▁지워	-12496
▁디즈니	-12497
▁보은군	-12498
▁장년층	-12499
▁조그만	-12500
생명	-12501
▁cc	-12502
▁심혈	-12503
▁유보	-12504
▁축물	-12505
래프트	-12506
▁펠리페	-12507
▁나랏	-12508
▁물결	-12509
▁밝힐	-12510
▁살짝	-12511
▁신나	-12512
▁증식	-12513
▁환호	-12514
▁블라디	-12515
▁명예훼손	-12516
▁건네	-12517
▁국지	-12518
▁대령	-12519
▁전단	-12520
▁시제품	-12521
▁올린다	-12522
▁국민은행	-12523
▁SR	-12524
▁너스	-12525
▁노원	-12526
▁라우	-12527
▁로움	-12528
▁묻혀	-12529
▁박명	-12530
▁원본	-12531
▁천하	-12532
▁휩쓸	-12533
▁발맞춰	-12534
▁부지사	-12535
신소	-12536
▁복리	-12537
▁솔선	-12538
▁응하	-12539
▁되돌려	-12540
▁이어받	-12541
▁하락세	-12542
뉴스	-12543
▁견주	-12544
▁본회	-12545
▁인자	-12546
▁증오	-12547
▁질소	-12548
▁풍요	-12549
▁스퀘어	-12550
▁원주시	-12551
▁배드민턴	-12552
인물	-12553
▁재편	-12554
▁죽일	-12555
▁크레	-12556
▁한눈	-12557
▁환산	-12558
usan	-12559
▁그래프	-12560
▁죄책감	-12561
랜서	-12562
리안	-12563
용품	-12564
부인과	-12565
▁뭔가요	-12566
▁욱일기	-12567
▁1937	-12568
▁사이언스	-12569
▁신용카드	-12570
ub	-12571
▁퀘	-12572
▁늑대	-12573
▁몰두	-12574
▁세정	-12575
▁스텔	-12576
▁잊혀	-12577
▁장안	-12578
▁제때	-12579
▁취했	-12580
▁할리	-12581
페이스	-12582
▁선풍기	-12583
▁시간대	-12584
▁톡톡히	-12585
▁협력체	-12586
▁불가리아	-12587
▁산부인과	-12588
▁경정	-12589
▁근래	-12590
▁리처	-12591
베리아	-12592
다지	-12593
▁강인	-12594
▁저번	-12595
▁추이	-12596
회계	-12597
▁노골	-12598
▁망설	-12599
▁딸아이	-12600
▁조달청	-12601
▁시킨다는	-12602
급식	-12603
▁마중	-12604
▁체질	-12605
총독부	-12606
▁공주시	-12607
▁방사성	-12608
▁준결승	-12609
▁하물며	-12610
▁조선총독부	-12611
NK	-12612
▁MS	-12613
▁리치	-12614
▁무성	-12615
▁서예	-12616
▁전광	-12617
▁태세	-12618
▁표방	-12619
▁황후	-12620
▁수사대	-12621
▁쓰레기통	-12622
자재	-12623
▁국위	-12624
▁담아	-12625
▁둔화	-12626
▁선형	-12627
▁숙종	-12628
▁심재	-12629
▁정용	-12630
▁김영삼	-12631
▁부천시	-12632
▁진주시	-12633
▁떨어뜨리	-12634
▁사교육비	-12635
▁유흥업소	-12636
▁월화드라마	-12637
LA	-12638
▁元	-12639
▁경청	-12640
▁고층	-12641
▁국화	-12642
▁물의	-12643
▁월등	-12644
▁푸르	-12645
▁호스	-12646
고시	-12647
▁다방	-12648
▁미네	-12649
▁벅스	-12650
▁이완	-12651
▁법인세	-12652
▁병무청	-12653
▁텀	-12654
▁YG	-12655
▁오너	-12656
▁전할	-12657
▁점진	-12658
▁금년	-12659
▁모방	-12660
▁조건부	-12661
▁다닙니다	-12662
▁못한다는	-12663
▁프로이센	-12664
one	-12665
▁방범	-12666
▁싱크	-12667
▁아오	-12668
▁함량	-12669
▁양산시	-12670
▁진다고	-12671
▁박태	-12672
▁사방	-12673
▁지소	-12674
▁칭호	-12675
▁호전	-12676
▁다이빙	-12677
▁pc	-12678
▁내다	-12679
▁빼쳐	-12680
▁스캔	-12681
▁접경	-12682
▁초음	-12683
▁김영란	-12684
▁윤규상	-12685
▁임종석	-12686
마르	-12687
▁대란	-12688
▁소충	-12689
▁순국	-12690
▁에티	-12691
▁절박	-12692
▁통폐	-12693
▁당해야	-12694
▁돋보이	-12695
▁프리랜서	-12696
▁article	-12697
▁거창	-12698
▁격렬	-12699
▁급변	-12700
▁리터	-12701
▁안착	-12702
▁촘촘	-12703
▁득표율	-12704
▁스톤	-12705
▁요법	-12706
▁윤정	-12707
▁컨셉	-12708
▁황태	-12709
▁고마움	-12710
▁미혼모	-12711
▁엉터리	-12712
▁갈비	-12713
▁구한	-12714
▁내과	-12715
▁이월	-12716
▁재외	-12717
▁전대통령	-12718
▁우즈베키스탄	-12719
▁太	-12720
▁까진	-12721
▁등극	-12722
▁벡터	-12723
▁우측	-12724
▁이연	-12725
▁자칭	-12726
▁치가	-12727
▁타카	-12728
▁햇빛	-12729
▁헌데	-12730
▁경영학	-12731
ES	-12732
서치	-12733
▁궁전	-12734
▁기습	-12735
▁넘긴	-12736
▁려니	-12737
▁여군	-12738
▁영아	-12739
▁유병	-12740
▁장담	-12741
▁팽팽	-12742
▁베테랑	-12743
▁입장권	-12744
▁종업원	-12745
▁대구은행	-12746
▁HD	-12747
▁갔다	-12748
▁김호	-12749
▁750	-12750
▁BBC	-12751
글스	-12752
▁심층	-12753
▁아틀	-12754
▁오월	-12755
▁적색	-12756
▁특단	-12757
▁선호도	-12758
▁재판관	-12759
와이	-12760
▁줄인	-12761
▁계룡시	-12762
▁는구나	-12763
▁줍시다	-12764
▁美	-12765
런트	-12766
▁캐피	-12767
▁프렌	-12768
▁연고지	-12769
▁재능기부	-12770
▁툴	-12771
너무	-12772
▁간염	-12773
▁남산	-12774
▁약점	-12775
▁열연	-12776
▁가르침	-12777
▁당선자	-12778
엘라	-12779
▁UA	-12780
▁강민	-12781
▁대호	-12782
▁제곱	-12783
▁조짐	-12784
▁증기	-12785
▁테일	-12786
▁슬픈	-12787
▁인출	-12788
▁돌아올	-12789
▁신안군	-12790
▁조선인	-12791
사랑	-12792
프스	-12793
▁닷컴	-12794
▁묶여	-12795
▁버블	-12796
▁병동	-12797
▁쇼트	-12798
▁통근	-12799
▁동호회	-12800
▁스피커	-12801
▁전문의	-12802
▁포르노	-12803
어가	-12804
트랙	-12805
▁PR	-12806
▁동사	-12807
▁신항	-12808
▁역과	-12809
▁피크	-12810
▁노트북	-12811
▁동호인	-12812
상부	-12813
식물	-12814
▁버섯	-12815
▁항로	-12816
▁독재자	-12817
▁사상자	-12818
▁통폐합	-12819
AR	-12820
▁경미	-12821
▁고졸	-12822
▁극동	-12823
▁밥상	-12824
▁주파	-12825
거래위	-12826
▁숨겨진	-12827
▁저지를	-12828
▁팔아먹	-12829
▁부위원장	-12830
▁공정거래위	-12831
▁거울	-12832
▁국영	-12833
▁국채	-12834
▁러닝	-12835
▁수월	-12836
▁수컷	-12837
▁심폐	-12838
▁우연	-12839
▁인계	-12840
▁저격	-12841
▁강릉시	-12842
▁모티브	-12843
▁상하이	-12844
▁오른다	-12845
▁1932	-12846
▁가죽	-12847
▁계망	-12848
▁미시	-12849
▁속여	-12850
▁신다	-12851
▁헤아려	-12852
프란	-12853
▁감소세	-12854
▁건지요	-12855
게요	-12856
▁나르	-12857
▁벌점	-12858
▁셔도	-12859
셔츠	-12860
▁배열	-12861
▁수력	-12862
▁약제	-12863
▁전폭	-12864
▁헌정	-12865
▁기념품	-12866
▁치른다	-12867
▁무상급식	-12868
▁히로시마	-12869
▁간직	-12870
▁논하	-12871
▁메세	-12872
▁줄줄이	-12873
▁1935	-12874
동원	-12875
주곡	-12876
타임	-12877
▁서재	-12878
▁단양군	-12879
▁보이콧	-12880
▁생태계	-12881
▁알루미	-12882
▁을수록	-12883
▁아시아나	-12884
▁옐	-12885
▁찿	-12886
▁냉각	-12887
▁사신	-12888
▁경산시	-12889
▁넘어갔	-12890
▁보안법	-12891
▁생명체	-12892
▁아이폰	-12893
▁카타르	-12894
▁스테이지	-12895
▁다친	-12896
▁망원	-12897
▁밤낮	-12898
▁뽐내	-12899
▁틀린	-12900
▁허물	-12901
▁나간다	-12902
▁비서실	-12903
▁프로그래밍	-12904
▁날로	-12905
▁요미	-12906
▁체장	-12907
▁쳐서	-12908
▁촉매	-12909
▁호도	-12910
▁권력자	-12911
▁수출액	-12912
▁아야지	-12913
▁컬렉션	-12914
▁1300	-12915
▁아시아나항공	-12916
구치	-12917
년생	-12918
▁김규	-12919
▁최경	-12920
▁커져	-12921
▁물려주	-12922
▁스케이팅	-12923
▁독창	-12924
▁미관	-12925
▁소정	-12926
▁저렇	-12927
▁타령	-12928
▁퇴진	-12929
▁특기	-12930
▁흘러가	-12931
▁고난	-12932
▁그지	-12933
▁농락	-12934
▁목줄	-12935
▁목회	-12936
▁아비	-12937
▁이즈	-12938
슈타인	-12939
▁고성군	-12940
▁다녀오	-12941
▁다이아	-12942
▁멧돼지	-12943
▁못해서	-12944
▁살아나	-12945
▁영도구	-12946
부지	-12947
소수	-12948
▁당제	-12949
▁상역	-12950
▁유영	-12951
▁보너스	-12952
▁장성군	-12953
▁티베트	-12954
ie	-12955
▁뿜	-12956
보내	-12957
▁병설	-12958
▁비틀	-12959
▁서훈	-12960
▁특가	-12961
▁파기	-12962
▁허무	-12963
▁APT	-12964
▁살인마	-12965
▁인민군	-12966
▁1914	-12967
▁자아낸다	-12968
팩트	-12969
▁공분	-12970
▁공석	-12971
▁깡패	-12972
▁성전	-12973
▁안겼	-12974
▁여선	-12975
▁즈음	-12976
▁엘리자	-12977
▁에드워드	-12978
ff	-12979
무늬	-12980
▁Lo	-12981
▁to	-12982
▁간혹	-12983
▁늦추	-12984
▁모텔	-12985
▁신하	-12986
▁악장	-12987
▁카트	-12988
▁138	-12989
▁냅니다	-12990
▁커뮤니케이션	-12991
ge	-12992
난방	-12993
화물	-12994
▁만지	-12995
▁맞붙	-12996
▁불길	-12997
▁설마	-12998
▁일러	-12999
▁저변	-13000
▁특산	-13001
▁한옥	-13002
▁자릿수	-13003
▁절실히	-13004
▁진다면	-13005
▁광주은행	-13006
나물	-13007
▁끝났	-13008
▁장만	-13009
▁키웠	-13010
▁예정지	-13011
▁좀처럼	-13012
▁시외버스	-13013
TE	-13014
커스	-13015
▁가드	-13016
▁극도	-13017
▁영조	-13018
▁필립	-13019
▁디딤돌	-13020
▁간접흡연	-13021
로디	-13022
창기	-13023
토스	-13024
▁응대	-13025
▁몰아내	-13026
▁북서쪽	-13027
▁正	-13028
투리	-13029
▁누워	-13030
▁마져	-13031
▁절제	-13032
▁타지	-13033
▁표결	-13034
▁본보기	-13035
▁이동식	-13036
▁회사원	-13037
▁광역철도	-13038
▁뺀	-13039
▁격파	-13040
▁무패	-13041
▁시호	-13042
▁인디언	-13043
▁버립니다	-13044
▁생업	-13045
▁역동	-13046
▁이세	-13047
▁일리	-13048
▁회고	-13049
▁남동구	-13050
▁탈북자	-13051
▁흥신소	-13052
iz	-13053
▁꿇	-13054
▁거액	-13055
▁다량	-13056
▁돌이	-13057
▁방통	-13058
▁화답	-13059
▁방지법	-13060
▁요코하마	-13061
수도	-13062
▁낙선	-13063
▁넘나	-13064
▁원유	-13065
▁미나리	-13066
▁실험실	-13067
▁유니버	-13068
▁정교회	-13069
▁정준영	-13070
▁칠곡군	-13071
▁농수산물	-13072
정동	-13073
▁간청	-13074
▁어딘	-13075
▁일화	-13076
▁장편	-13077
▁전보	-13078
▁체증	-13079
▁학군	-13080
▁물리치	-13081
▁애국가	-13082
▁펼쳐졌	-13083
▁극악	-13084
▁가져올	-13085
▁더라면	-13086
▁성직자	-13087
▁교통수단	-13088
▁팟	-13089
마이	-13090
스럽	-13091
▁學校	-13092
▁개칭	-13093
▁내기	-13094
▁당기	-13095
▁리어	-13096
▁소사	-13097
▁스미스	-13098
▁1918	-13099
구석	-13100
▁김한	-13101
▁엄두	-13102
▁우아	-13103
▁전상	-13104
▁채권자	-13105
▁맥스	-13106
▁수두	-13107
▁정거	-13108
▁후자	-13109
▁발전기	-13110
▁연제구	-13111
▁지리산	-13112
노미	-13113
▁구이	-13114
▁노점	-13115
▁말미	-13116
▁선대	-13117
▁풀어	-13118
▁고흥군	-13119
▁아프가	-13120
▁세계유산	-13121
▁알루미늄	-13122
내기	-13123
로우	-13124
▁도데	-13125
▁레일	-13126
▁심심	-13127
▁용자	-13128
▁자의	-13129
▁죄질	-13130
레이트	-13131
▁급기야	-13132
▁스코어	-13133
▁여객선	-13134
▁카자흐스탄	-13135
수거	-13136
퇴직	-13137
▁EV	-13138
▁귀환	-13139
▁내란	-13140
▁무마	-13141
▁반부	-13142
▁불타	-13143
▁역활	-13144
▁파도	-13145
▁113	-13146
▁교통량	-13147
▁소설가	-13148
네마	-13149
▁ML	-13150
▁범어	-13151
▁병장	-13152
▁사표	-13153
▁소름	-13154
▁실비	-13155
▁향수	-13156
▁고창군	-13157
▁생겨서	-13158
▁만듭니다	-13159
▁부산진구	-13160
▁神	-13161
▁틸	-13162
▁게르	-13163
▁꺼려	-13164
▁링컨	-13165
▁손녀	-13166
▁쓰인	-13167
▁프랭	-13168
▁독일어	-13169
▁유대인	-13170
▁1400	-13171
▁부가가치	-13172
뜨린	-13173
▁da	-13174
▁결렬	-13175
▁다크	-13176
▁대역	-13177
▁시력	-13178
▁이별	-13179
▁일생	-13180
▁출격	-13181
▁특전	-13182
▁너무너무	-13183
▁경기도지사	-13184
▁뢰	-13185
▁마셨	-13186
▁메탈	-13187
▁봉해	-13188
▁재혼	-13189
▁종양	-13190
▁처단	-13191
▁흥덕	-13192
▁세이브	-13193
▁아리랑	-13194
▁아닌지요	-13195
트니	-13196
▁BJ	-13197
▁JR	-13198
▁간선	-13199
▁굳건	-13200
▁만호	-13201
▁박준	-13202
▁연한	-13203
▁지선	-13204
▁촉발	-13205
▁함평	-13206
▁해인	-13207
▁아이콘	-13208
TC	-13209
삼성	-13210
신저	-13211
▁달랐	-13212
▁던진	-13213
▁문법	-13214
▁승자	-13215
▁양지	-13216
▁인대	-13217
▁동일본	-13218
부진	-13219
▁예년	-13220
▁위약	-13221
▁의병	-13222
▁함경	-13223
▁홀몸	-13224
바키아	-13225
▁개소식	-13226
▁장승주	-13227
te	-13228
수범	-13229
▁겸임	-13230
▁남극	-13231
▁머신	-13232
▁정종	-13233
▁제반	-13234
▁동반자	-13235
▁아버님	-13236
▁집무실	-13237
▁휴양림	-13238
▁시뮬레이션	-13239
▁上	-13240
성동	-13241
▁고아	-13242
▁길러	-13243
▁박병	-13244
▁외계	-13245
▁이이	-13246
▁입각	-13247
▁학창	-13248
▁MBN	-13249
▁밍	-13250
▁기어	-13251
▁번거	-13252
▁삼촌	-13253
▁임야	-13254
▁지날	-13255
▁내려야	-13256
▁목격자	-13257
▁무승부	-13258
▁갭	-13259
숭아	-13260
▁QR	-13261
▁구타	-13262
▁리포	-13263
▁어학	-13264
▁여호	-13265
▁한림	-13266
▁한식	-13267
냅니다	-13268
▁판결문	-13269
▁했으면	-13270
▁COMPAN	-13271
막식	-13272
▁구내	-13273
▁급락	-13274
▁명장	-13275
▁봉기	-13276
▁플루	-13277
라이트	-13278
▁김동연	-13279
▁정거장	-13280
▁헛소리	-13281
▁동성애자	-13282
▁분리수거	-13283
ib	-13284
ly	-13285
절기	-13286
▁광학	-13287
▁무예	-13288
▁아부	-13289
▁탁구	-13290
▁텍스	-13291
▁구리시	-13292
▁로그인	-13293
▁상거래	-13294
▁순이익	-13295
영향평가	-13296
▁韓	-13297
▁팁	-13298
▁드럼	-13299
▁문항	-13300
▁박쥐	-13301
▁부울	-13302
▁어둠	-13303
▁어쨌	-13304
▁절친	-13305
▁지열	-13306
▁OST	-13307
▁인구수	-13308
▁제안서	-13309
▁호르몬	-13310
▁COMPANY	-13311
TN	-13312
▁光	-13313
▁田	-13314
▁石	-13315
돋움	-13316
▁꾀하	-13317
▁전업	-13318
▁하교	-13319
▁현혹	-13320
▁김제시	-13321
▁높인다	-13322
41	-13323
셀러	-13324
회전	-13325
▁뿌려	-13326
▁시진	-13327
▁으뜸	-13328
▁중사	-13329
▁거쳐야	-13330
▁발돋움	-13331
▁스파이	-13332
▁테두리	-13333
▁핸드볼	-13334
▁허덕이	-13335
▁1933	-13336
노동	-13337
에스	-13338
▁Sp	-13339
▁관현	-13340
▁나흘	-13341
▁누명	-13342
▁집어	-13343
▁회분	-13344
▁가라앉	-13345
▁과감히	-13346
▁기자재	-13347
▁무작위	-13348
▁유적지	-13349
▁고속버스	-13350
▁구슬	-13351
▁막론	-13352
▁차액	-13353
스토랑	-13354
▁모병제	-13355
▁업로드	-13356
▁포켓몬	-13357
▁레스토랑	-13358
지엄	-13359
▁강서	-13360
▁똘똘	-13361
▁앵커	-13362
▁금정구	-13363
▁사업가	-13364
▁양아치	-13365
▁털어놨	-13366
▁아프가니스탄	-13367
▁환경영향평가	-13368
▁;;	-13369
▁결선	-13370
▁달걀	-13371
▁종북	-13372
▁체온	-13373
▁흥청	-13374
▁공정성	-13375
▁기관차	-13376
▁지중해	-13377
▁스트리트	-13378
▁심포지엄	-13379
▁MA	-13380
▁공적	-13381
▁참신	-13382
▁타석	-13383
▁당선인	-13384
▁월평균	-13385
▁중앙아	-13386
▁인천광역시	-13387
▁귀속	-13388
▁난폭	-13389
▁베타	-13390
▁비수	-13391
▁수개	-13392
▁야지	-13393
▁패소	-13394
▁김성수	-13395
▁샌프란	-13396
▁양현종	-13397
▁유학생	-13398
▁mode	-13399
▁자유주의	-13400
▁샌프란시스코	-13401
제르	-13402
▁개찰	-13403
▁모친	-13404
▁발동	-13405
▁스와	-13406
▁인먼	-13407
▁페루	-13408
▁포격	-13409
▁호출	-13410
▁Pro	-13411
▁미지급	-13412
▁????	-13413
▁띤	-13414
가시	-13415
▁백수	-13416
▁변한	-13417
▁샤워	-13418
▁불거진	-13419
▁장하성	-13420
▁테이프	-13421
▁퇴직자	-13422
qu	-13423
▁aT	-13424
▁be	-13425
▁세울	-13426
▁역도	-13427
▁예찰	-13428
▁재보	-13429
▁지기	-13430
▁최진	-13431
▁가져온	-13432
▁리처드	-13433
▁스케줄	-13434
▁장애물	-13435
▁프랑스군	-13436
▁벙	-13437
도록	-13438
장치	-13439
필드	-13440
▁다졌	-13441
▁레미	-13442
▁작목	-13443
▁쾌거	-13444
▁다스리	-13445
▁운전기사	-13446
일스	-13447
▁각도	-13448
▁노회	-13449
▁세련	-13450
▁효자	-13451
드리히	-13452
힙니다	-13453
▁KEB	-13454
▁북동쪽	-13455
▁스탈린	-13456
▁피드백	-13457
트럼	-13458
▁세라	-13459
▁아낌	-13460
▁코딩	-13461
▁교부세	-13462
▁윤여정	-13463
▁단종	-13464
▁지성	-13465
▁특공	-13466
▁혈안	-13467
▁기업가	-13468
▁이뤄져	-13469
▁체육계	-13470
▁하드웨어	-13471
벌레	-13472
▁고압	-13473
▁독성	-13474
▁이룩	-13475
▁홍역	-13476
▁ASF	-13477
▁검사장	-13478
▁고구마	-13479
▁분담금	-13480
▁정읍시	-13481
▁행정관	-13482
▁콜롬비아	-13483
징어	-13484
▁이겼	-13485
▁임채	-13486
▁휘하	-13487
▁끌려가	-13488
▁레시피	-13489
▁송파구	-13490
▁애국심	-13491
플레이션	-13492
라미	-13493
▁급진	-13494
▁동요	-13495
▁버텨	-13496
▁법주	-13497
▁슬프	-13498
▁안위	-13499
▁추종	-13500
▁패럴	-13501
▁sec	-13502
▁기관지	-13503
▁보성군	-13504
▁연수구	-13505
▁외교관	-13506
▁원자로	-13507
▁출범식	-13508
▁홍보물	-13509
▁솔선수범	-13510
▁水	-13511
석희	-13512
▁다다	-13513
▁모기	-13514
▁무혐	-13515
▁본청	-13516
▁식단	-13517
▁쓰일	-13518
▁예쁜	-13519
▁유비	-13520
▁퇴장	-13521
▁힘겹	-13522
▁제보자	-13523
▁1923	-13524
▁등장인물	-13525
▁村	-13526
ore	-13527
▁불우	-13528
▁숨쉬	-13529
▁앞날	-13530
▁그려져	-13531
▁들여다	-13532
▁무더기	-13533
▁뮤지션	-13534
▁스펙트럼	-13535
▁괘	-13536
소송	-13537
정지	-13538
호우	-13539
▁바래	-13540
▁사본	-13541
▁실지	-13542
▁전속	-13543
▁출토	-13544
계약서	-13545
리스타	-13546
플러스	-13547
▁LIN	-13548
▁간신히	-13549
▁어떤지	-13550
▁의성군	-13551
▁저금리	-13552
▁후반기	-13553
▁1929	-13554
▁view	-13555
▁프리드리히	-13556
상스	-13557
▁구금	-13558
▁발원	-13559
▁파우	-13560
▁노란색	-13561
▁라틴어	-13562
▁OS	-13563
▁강풍	-13564
▁관례	-13565
▁담장	-13566
▁래퍼	-13567
▁암시	-13568
▁줄였	-13569
▁엔지니어링	-13570
ᄍᄍ	-13571
테일	-13572
▁삼가	-13573
▁오창	-13574
▁자처	-13575
▁취항	-13576
▁홍익	-13577
▁일부분	-13578
▁털어놓	-13579
▁슨	-13580
게이	-13581
▁금상	-13582
▁목성	-13583
▁묘역	-13584
▁불의	-13585
▁소실	-13586
▁승지	-13587
▁청동	-13588
▁041	-13589
▁금산군	-13590
▁낙태죄	-13591
▁머물러	-13592
▁생산직	-13593
▁이력서	-13594
▁마일리지	-13595
▁사회봉사	-13596
▁전지훈련	-13597
고루	-13598
미애	-13599
▁En	-13600
▁마술	-13601
▁소니	-13602
▁시모	-13603
▁조이	-13604
▁창간	-13605
▁며느리	-13606
▁비로소	-13607
▁살인죄	-13608
▁울진군	-13609
IM	-13610
처분	-13611
▁Un	-13612
▁금번	-13613
▁당권	-13614
▁선명	-13615
▁신진	-13616
▁안치	-13617
▁원성	-13618
▁자랐	-13619
▁제게	-13620
▁행각	-13621
▁도데체	-13622
▁취리히	-13623
▁오키나와	-13624
▁근로계약서	-13625
▁껍질	-13626
▁독촉	-13627
▁미끄	-13628
▁숨통	-13629
▁적재	-13630
▁화천	-13631
▁생긴다	-13632
▁칙	-13633
▁~!	-13634
▁간과	-13635
▁금성	-13636
▁김관	-13637
▁승선	-13638
▁음향	-13639
▁고소득	-13640
▁상대식	-13641
▁재취업	-13642
▁전성기	-13643
▁하버드	-13644
▁화이팅	-13645
▁교인	-13646
▁파고	-13647
▁mid	-13648
▁넘어갈	-13649
▁온누리	-13650
▁초창기	-13651
▁학술지	-13652
▁洞	-13653
▁정중	-13654
▁편곡	-13655
내셔널	-13656
▁임금제	-13657
▁토마토	-13658
▁판소리	-13659
▁인터내셔널	-13660
25	-13661
▁로즈	-13662
▁면죄	-13663
▁시요	-13664
▁열혈	-13665
▁종신	-13666
▁주된	-13667
▁감사관	-13668
▁통신망	-13669
▁장례식장	-13670
▁무형문화재	-13671
▁안드로이드	-13672
43	-13673
북면	-13674
블리	-13675
어졌	-13676
▁169	-13677
▁LSD	-13678
▁국제선	-13679
▁귀여운	-13680
▁따라야	-13681
▁발걸음	-13682
▁예비역	-13683
▁올라갔	-13684
은희	-13685
준호	-13686
▁NO	-13687
▁강세	-13688
▁고농	-13689
▁녹취	-13690
▁복식	-13691
▁일개	-13692
▁종량	-13693
▁통틀	-13694
▁헌재	-13695
▁메신저	-13696
▁미스트	-13697
▁우승자	-13698
▁졸업식	-13699
동물	-13700
아나	-13701
▁기압	-13702
▁불씨	-13703
▁체조	-13704
▁타국	-13705
▁허구	-13706
▁전문점	-13707
▁무너뜨리	-13708
▁어버이날	-13709
▁不	-13710
▁海	-13711
디스	-13712
▁넘버	-13713
▁방금	-13714
▁투약	-13715
▁하로	-13716
▁하마	-13717
▁흔하	-13718
▁차이점	-13719
▁갑작스럽	-13720
▁비엔날레	-13721
▁busan	-13722
ud	-13723
▁거머	-13724
▁소인	-13725
▁실린	-13726
▁우루	-13727
▁유정	-13728
▁폭소	-13729
베르크	-13730
▁무작정	-13731
▁현대제철	-13732
지우	-13733
▁귀추	-13734
▁아웅	-13735
▁이와	-13736
▁그림자	-13737
▁다녀왔	-13738
▁못지않	-13739
▁포천시	-13740
세종	-13741
▁드로	-13742
▁사칭	-13743
▁오바	-13744
▁학장	-13745
▁감사패	-13746
▁1928	-13747
▁집중호우	-13748
EN	-13749
ran	-13750
▁단서	-13751
▁붙인	-13752
▁화분	-13753
▁123	-13754
▁마사지	-13755
▁성황리	-13756
▁중환자	-13757
▁균열	-13758
▁불금	-13759
▁사역	-13760
▁샘플	-13761
▁입성	-13762
▁정찰	-13763
▁플레	-13764
▁내세운	-13765
▁미스터리	-13766
명령	-13767
▁귀하	-13768
▁뿌듯	-13769
▁세밀	-13770
▁일몰	-13771
▁지폐	-13772
▁김정숙	-13773
▁부서장	-13774
▁이건희	-13775
▁1931	-13776
패스	-13777
▁가두	-13778
▁등부	-13779
▁서문	-13780
▁일감	-13781
▁재기	-13782
▁조서	-13783
▁한껏	-13784
▁회가	-13785
▁던가요	-13786
▁빨간색	-13787
▁마스터즈	-13788
▁관사	-13789
▁대담	-13790
▁심기	-13791
▁향교	-13792
▁건축사	-13793
▁골고루	-13794
▁기저귀	-13795
▁나날이	-13796
▁복숭아	-13797
▁겸직	-13798
▁면천	-13799
▁섬진	-13800
▁투병	-13801
▁하단	-13802
▁호재	-13803
▁휘둘	-13804
____	-13805
▁팔레스	-13806
▁ex	-13807
▁담뱃	-13808
▁라기	-13809
▁속속	-13810
▁울림	-13811
▁인산	-13812
▁지류	-13813
▁치를	-13814
▁한중	-13815
▁043	-13816
▁고소장	-13817
▁국립대	-13818
▁무너져	-13819
▁郡	-13820
검사	-13821
투아	-13822
▁거실	-13823
▁군비	-13824
▁누스	-13825
▁달서	-13826
▁보라	-13827
▁색출	-13828
▁젠더	-13829
▁맞대결	-13830
▁알레르기	-13831
▁합니다만	-13832
▁두꺼	-13833
▁보료	-13834
▁오타	-13835
▁자민	-13836
▁정제	-13837
▁존스	-13838
▁비행장	-13839
▁아사히	-13840
▁영천시	-13841
무도	-13842
▁Go	-13843
▁그렸	-13844
▁내진	-13845
▁마틴	-13846
▁혹여	-13847
수엘라	-13848
▁떠올랐	-13849
▁매트리스	-13850
▁검체	-13851
▁기승	-13852
▁범칙	-13853
▁상반	-13854
▁수납	-13855
▁여럿	-13856
▁기생충	-13857
▁여고생	-13858
▁유시민	-13859
▁제철소	-13860
▁프로토	-13861
▁한해서	-13862
승차	-13863
ith	-13864
▁뻔한	-13865
▁순례	-13866
▁시킴	-13867
▁파벌	-13868
▁맞물려	-13869
▁서대문	-13870
GC	-13871
▁成	-13872
▁동이	-13873
▁떠안	-13874
▁마블	-13875
▁싸워	-13876
▁예언	-13877
▁일회용품	-13878
pp	-13879
▁강령	-13880
▁명박	-13881
▁아바	-13882
▁일깨	-13883
▁후생	-13884
▁사우루스	-13885
DS	-13886
▁모교	-13887
▁유라	-13888
▁토니	-13889
▁회비	-13890
▁달라질	-13891
▁실생활	-13892
▁안중근	-13893
▁왔으나	-13894
▁참여연대	-13895
▁院	-13896
일치	-13897
▁교훈	-13898
▁등원	-13899
▁버지	-13900
▁보선	-13901
▁불기	-13902
▁세례	-13903
▁열대	-13904
▁월남	-13905
▁직시	-13906
▁진이	-13907
▁패전	-13908
▁느껴졌	-13909
▁슬라이	-13910
▁베네수엘라	-13911
▁地	-13912
▁듭	-13913
포츠	-13914
▁IB	-13915
▁TP	-13916
▁대의	-13917
▁았었	-13918
▁유투	-13919
▁지반	-13920
▁화두	-13921
▁강수량	-13922
▁강화군	-13923
▁관세청	-13924
▁농수산	-13925
▁대내외	-13926
▁신문사	-13927
▁유럽연합	-13928
▁팔레스타인	-13929
박이	-13930
▁교권	-13931
▁냉방	-13932
▁연명	-13933
▁용적	-13934
▁처참	-13935
▁1921	-13936
▁르노삼성	-13937
때로	-13938
뜨려	-13939
▁나미	-13940
▁박남	-13941
▁이점	-13942
▁저명	-13943
▁정쟁	-13944
▁피시	-13945
▁라구요	-13946
▁리서치	-13947
▁해야죠	-13948
▁동물보호	-13949
와서	-13950
▁라뇨	-13951
▁목조	-13952
▁외벽	-13953
▁즉석	-13954
▁직렬	-13955
▁포화	-13956
▁메이크	-13957
▁수도권	-13958
▁광주시장	-13959
▁즘	-13960
교도	-13961
▁다쳤	-13962
▁단선	-13963
▁데모	-13964
▁복도	-13965
▁행운	-13966
▁환율	-13967
▁내려졌	-13968
▁하와이	-13969
▁어우러진	-13970
▁불려	-13971
▁인신	-13972
▁진시	-13973
▁코디	-13974
체육회	-13975
▁라지만	-13976
▁목적지	-13977
▁블라인	-13978
▁플랜트	-13979
▁""	-13980
▁노역	-13981
▁미개	-13982
▁홍대	-13983
▁기념사	-13984
▁잼	-13985
딩스	-13986
림픽	-13987
텍스	-13988
▁원아	-13989
▁장동	-13990
▁주취	-13991
▁초연	-13992
▁간호학	-13993
▁세탁기	-13994
▁르네상스	-13995
처치	-13996
▁감행	-13997
▁공전	-13998
▁광물	-13999
▁도용	-14000
▁선천	-14001
▁성씨	-14002
▁아쿠	-14003
▁점거	-14004
▁챙긴	-14005
▁화보	-14006
▁베르크	-14007
▁유재석	-14008
▁명실상부	-14009
레오	-14010
위치	-14011
▁극본	-14012
▁신변	-14013
▁을시	-14014
▁저러	-14015
▁초중	-14016
▁펀딩	-14017
▁일어난다	-14018
▁±	-14019
▁DA	-14020
▁고원	-14021
▁김소	-14022
▁라트	-14023
▁보미	-14024
▁재가	-14025
라비아	-14026
▁650	-14027
▁wat	-14028
▁武	-14029
▁공복	-14030
▁광해	-14031
▁달렸	-14032
▁뜨거	-14033
▁몰입	-14034
▁버그	-14035
▁뽐냈	-14036
▁유닛	-14037
▁터진	-14038
▁거슬러	-14039
▁끊임없	-14040
▁비상식	-14041
▁완성도	-14042
슬리	-14043
▁완치	-14044
▁토토	-14045
▁자부담	-14046
▁진행자	-14047
공항공사	-14048
▁툭	-14049
마리	-14050
▁me	-14051
▁코칭	-14052
베이션	-14053
▁걸어서	-14054
▁입소자	-14055
▁이루어진다	-14056
빠진	-14057
▁김순	-14058
▁냉정	-14059
▁노비	-14060
▁레닌	-14061
▁불펜	-14062
▁서지	-14063
▁지참	-14064
▁한라	-14065
▁밀라노	-14066
▁빨아먹	-14067
▁세워야	-14068
▁연주회	-14069
▁위약금	-14070
▁검정고시	-14071
▁고군	-14072
▁규범	-14073
▁디오	-14074
▁사수	-14075
▁서영	-14076
▁열흘	-14077
▁예기	-14078
▁예쁘	-14079
▁제왕	-14080
▁집착	-14081
▁토종	-14082
▁통수	-14083
▁개회식	-14084
▁국산화	-14085
▁이노베이션	-14086
▁가미	-14087
▁경색	-14088
▁공황	-14089
▁민설	-14090
▁사살	-14091
▁상소	-14092
▁직구	-14093
▁시급히	-14094
▁실종자	-14095
▁안토니	-14096
▁민간단체	-14097
▁느껴집니다	-14098
▁가늠	-14099
▁도피	-14100
▁붙였	-14101
▁옮긴	-14102
▁일렉	-14103
▁정사	-14104
▁공통점	-14105
▁무허가	-14106
▁부드럽	-14107
▁비평가	-14108
▁전시장	-14109
▁3500	-14110
▁라벨	-14111
▁채운	-14112
▁탈환	-14113
베르트	-14114
▁애국지사	-14115
그리	-14116
둘기	-14117
든가	-14118
분투	-14119
▁급히	-14120
▁득실	-14121
▁바흐	-14122
▁버거	-14123
▁병해	-14124
▁참관	-14125
▁품위	-14126
▁부녀회	-14127
▁수술실	-14128
▁투성이	-14129
▁1925	-14130
▁LINC	-14131
▁블라인드	-14132
▁스트리밍	-14133
▁짊	-14134
주로	-14135
▁김문	-14136
▁등본	-14137
▁무참	-14138
▁수역	-14139
▁엔딩	-14140
▁여덟	-14141
▁인위	-14142
▁잇달	-14143
▁거래세	-14144
▁아이러	-14145
▁1922	-14146
▁럼	-14147
카스	-14148
▁도보	-14149
▁이긴	-14150
▁가로수	-14151
▁임재업	-14152
▁DC	-14153
▁매사	-14154
▁발제	-14155
▁산수	-14156
▁서사	-14157
▁접견	-14158
▁캐시	-14159
▁메세지	-14160
▁아이오	-14161
▁나간다는	-14162
▁연합뉴스	-14163
비히	-14164
사람	-14165
▁유스	-14166
▁질주	-14167
▁가평군	-14168
▁과거사	-14169
▁토마스	-14170
▁1934	-14171
▁ᄏ	-14172
▁춥	-14173
▁곡성	-14174
▁막힌	-14175
▁몬테	-14176
▁볼모	-14177
▁성도	-14178
▁애써	-14179
▁오렌	-14180
▁자명	-14181
▁줘도	-14182
▁파스	-14183
▁범칙금	-14184
▁불합격	-14185
▁퍼스트	-14186
▁1924	-14187
▁교섭단체	-14188
과점	-14189
쿠르	-14190
▁맹점	-14191
▁생식	-14192
▁심부	-14193
▁타수	-14194
▁하의	-14195
▁현주	-14196
▁흘렸	-14197
▁550	-14198
▁연기력	-14199
▁옥수수	-14200
▁른	-14201
▁기공	-14202
▁색채	-14203
▁아토	-14204
▁우물	-14205
▁성장세	-14206
▁스릴러	-14207
▁들여다보	-14208
마치	-14209
▁개항	-14210
▁귀기	-14211
▁딱히	-14212
▁떠돌	-14213
▁본국	-14214
▁파문	-14215
기념물	-14216
▁남서쪽	-14217
▁개종	-14218
▁글리	-14219
▁명인	-14220
▁물동	-14221
▁손목	-14222
▁토의	-14223
▁구독자	-14224
▁물려받	-14225
▁앞바다	-14226
▁전시실	-14227
▁모른다는	-14228
▁무임승차	-14229
▁받아들였	-14230
▁仁	-14231
▁쯔	-14232
age	-14233
▁GP	-14234
▁고체	-14235
▁내성	-14236
▁라운	-14237
▁상이	-14238
▁소서	-14239
▁잡혔	-14240
▁한단	-14241
▁물러났	-14242
▁트레이닝	-14243
영장	-14244
▁성악	-14245
▁실과	-14246
▁알라	-14247
▁워치	-14248
▁입담	-14249
▁팽창	-14250
▁해충	-14251
▁어지럽	-14252
랑카	-14253
▁관용	-14254
▁내요	-14255
▁느니	-14256
▁단죄	-14257
▁동떨	-14258
▁문과	-14259
▁승합	-14260
▁염소	-14261
▁인텔	-14262
▁채굴	-14263
▁간다면	-14264
▁당뇨병	-14265
▁쏠린다	-14266
▁대리운전	-14267
▁아이파크	-14268
▁할리우드	-14269
SS	-14270
▁앰	-14271
들였	-14272
▁공명	-14273
▁교전	-14274
▁농담	-14275
▁박민	-14276
▁선구	-14277
▁쌓인	-14278
▁앙상	-14279
▁어미	-14280
▁인질	-14281
▁조양	-14282
▁커진	-14283
▁기단	-14284
▁느리	-14285
▁리틀	-14286
▁불분	-14287
▁우르	-14288
▁장대	-14289
▁쟁이	-14290
▁미래형	-14291
▁세계관	-14292
▁요미우리	-14293
▁인터페이스	-14294
진영	-14295
▁ᆞ고	-14296
▁리바	-14297
▁병상	-14298
▁상작	-14299
▁캐슬	-14300
▁한울	-14301
▁기록부	-14302
▁초음파	-14303
▁두려워하	-14304
OR	-14305
촌동	-14306
▁남불	-14307
▁돼요	-14308
▁백스	-14309
▁수의	-14310
▁안마	-14311
▁제트	-14312
▁테라	-14313
모비스	-14314
▁김진태	-14315
▁벌인다	-14316
▁천연기념물	-14317
▁原	-14318
▁푹	-14319
레아	-14320
▁대용	-14321
▁방접	-14322
▁소변	-14323
▁유키	-14324
▁자카	-14325
▁주공	-14326
▁HIV	-14327
▁내세웠	-14328
▁현대모비스	-14329
▁공보	-14330
▁남경	-14331
▁받침	-14332
▁복당	-14333
▁소품	-14334
▁알린	-14335
▁토벌	-14336
VD	-14337
▁교시	-14338
▁반고	-14339
▁성찰	-14340
▁지낼	-14341
▁페리	-14342
▁기념물	-14343
▁수출입	-14344
▁홀딩스	-14345
니즘	-14346
서야	-14347
▁BC	-14348
▁단국	-14349
▁에릭	-14350
▁지평	-14351
▁화랑	-14352
▁518	-14353
▁근무지	-14354
▁남동쪽	-14355
▁내국인	-14356
▁내다봤	-14357
▁룡	-14358
활약	-14359
▁문무	-14360
▁욕먹	-14361
▁줄곧	-14362
▁초심	-14363
스트리	-14364
▁CBS	-14365
▁진다는	-14366
▁펼쳐질	-14367
▁킬로미터	-14368
ik	-14369
▁家	-14370
라기	-14371
ark	-14372
▁AB	-14373
▁대통	-14374
▁바나	-14375
▁성비	-14376
▁원점	-14377
▁지바	-14378
▁할려	-14379
▁황해	-14380
▁생각나	-14381
▁확인서	-14382
▁리얼미터	-14383
▁가액	-14384
▁다변	-14385
▁양념	-14386
▁용병	-14387
▁초안	-14388
▁CNN	-14389
▁케이크	-14390
▁하수도	-14391
▁시킵니다	-14392
은색	-14393
ite	-14394
▁LC	-14395
▁남미	-14396
▁만인	-14397
▁애틀	-14398
▁외쳤	-14399
▁좌측	-14400
▁향우	-14401
▁131	-14402
▁인사말	-14403
▁특례시	-14404
▁1100	-14405
▁事	-14406
▁府	-14407
▁땡	-14408
▁가면	-14409
▁끼친	-14410
▁선례	-14411
▁시의	-14412
▁양면	-14413
▁읍성	-14414
▁총량	-14415
▁파열	-14416
▁하우	-14417
▁맞이해	-14418
▁선제골	-14419
▁대통령령	-14420
버려	-14421
▁각급	-14422
▁대문	-14423
▁미명	-14424
▁원통	-14425
▁토익	-14426
▁평준	-14427
▁휴먼	-14428
▁끌어내	-14429
▁로이터	-14430
▁버린다	-14431
▁평상시	-14432
▁날카로운	-14433
end	-14434
▁계수	-14435
▁금토	-14436
▁드셨	-14437
▁묘목	-14438
▁바오	-14439
▁은혜	-14440
▁일찌	-14441
▁주임	-14442
▁지면	-14443
▁퇴치	-14444
▁작업장	-14445
▁특례법	-14446
에어	-14447
파리	-14448
ory	-14449
▁금할	-14450
▁날렸	-14451
▁점프	-14452
▁추악	-14453
▁친족	-14454
▁퍼시	-14455
▁품안	-14456
▁민노총	-14457
▁바꿔서	-14458
▁움직일	-14459
▁지사장	-14460
▁클리닉	-14461
도리	-14462
▁관철	-14463
▁국판	-14464
▁남중	-14465
▁드나	-14466
▁땅값	-14467
▁어류	-14468
▁요가	-14469
▁이단	-14470
▁참견	-14471
▁축복	-14472
▁호프	-14473
▁Con	-14474
▁교육자	-14475
▁단거리	-14476
▁망원경	-14477
▁불분명	-14478
▁추미애	-14479
지오	-14480
학년	-14481
ant	-14482
▁금일	-14483
▁비시	-14484
▁생색	-14485
▁악재	-14486
▁맹활약	-14487
▁빼앗기	-14488
▁어쩌다	-14489
▁특산품	-14490
▁퍼레이드	-14491
▁릉	-14492
▁복싱	-14493
▁추신	-14494
▁380	-14495
▁노조원	-14496
▁보호관	-14497
▁수여식	-14498
▁팩토리	-14499
▁1907	-14500
▁대한제국	-14501
▁꿰	-14502
마다	-14503
▁반문	-14504
▁사카	-14505
▁소자	-14506
▁여겼	-14507
▁지오	-14508
▁휘말	-14509
▁김정일	-14510
▁새로이	-14511
▁1700	-14512
▁샴	-14513
▁콰	-14514
▁가나	-14515
▁광안	-14516
▁믹스	-14517
▁빠짐	-14518
▁시효	-14519
▁익히	-14520
▁농경지	-14521
▁때때로	-14522
▁종교인	-14523
같이	-14524
▁모더	-14525
▁변했	-14526
▁송산	-14527
▁이딴	-14528
▁출입문	-14529
▁가전제품	-14530
▁부탁드리	-14531
▁지지부진	-14532
▁넬	-14533
의식	-14534
찰청	-14535
▁노면	-14536
▁노바	-14537
▁돋보	-14538
▁버디	-14539
▁사탕	-14540
▁산점	-14541
▁우량	-14542
▁위증	-14543
▁출혈	-14544
▁폐원	-14545
▁BNK	-14546
▁눈치보	-14547
▁주어졌	-14548
▁패럴림픽	-14549
성면	-14550
악산	-14551
▁돌봐	-14552
▁순직	-14553
▁집결	-14554
▁카리	-14555
▁거듭날	-14556
▁국무부	-14557
▁1927	-14558
▁小	-14559
호텔	-14560
!!!	-14561
▁끼칠	-14562
▁동정	-14563
▁원사	-14564
▁이따	-14565
▁첼시	-14566
▁EPL	-14567
어붙	-14568
ail	-14569
▁과대	-14570
▁관청	-14571
▁미카	-14572
▁민회	-14573
▁불이	-14574
▁사슬	-14575
▁시료	-14576
▁주름	-14577
▁테르	-14578
▁플리	-14579
▁홍문	-14580
▁브라이	-14581
▁애틀랜	-14582
▁주지사	-14583
▁4500	-14584
걸리	-14585
창호	-14586
▁구심	-14587
▁난치	-14588
▁레바	-14589
▁마린	-14590
▁본능	-14591
▁사치	-14592
▁중종	-14593
▁철새	-14594
▁경제력	-14595
▁생존자	-14596
▁아우성	-14597
블릿	-14598
▁거행	-14599
▁단결	-14600
▁무명	-14601
▁박기	-14602
▁부세	-14603
▁빠듯	-14604
▁손수	-14605
▁영진	-14606
▁자취	-14607
▁장항	-14608
▁209	-14609
▁파이널	-14610
▁감정평가	-14611
▁동아일보	-14612
▁이기주의	-14613
▁중앙일보	-14614
▁피아니스트	-14615
▁짠	-14616
감치	-14617
양이	-14618
▁면회	-14619
▁정태	-14620
▁타원	-14621
▁평수	-14622
▁후면	-14623
▁YTN	-14624
▁걸어가	-14625
▁담배꽁	-14626
▁부담감	-14627
▁브로커	-14628
▁뺑소니	-14629
끼리	-14630
줌마	-14631
▁가관	-14632
▁법체	-14633
▁연립	-14634
▁윤영	-14635
▁이권	-14636
▁한결	-14637
▁흥국	-14638
▁냐구요	-14639
▁daum	-14640
▁응급처치	-14641
▁텅	-14642
마킹	-14643
히로	-14644
▁낯선	-14645
▁달해	-14646
▁생사	-14647
▁서약	-14648
▁연세	-14649
▁온전	-14650
▁워커	-14651
▁유희	-14652
▁홍영	-14653
▁화기	-14654
▁달려가	-14655
▁무실점	-14656
▁아무튼	-14657
▁영업용	-14658
▁벤치마킹	-14659
▁문고	-14660
▁방수	-14661
▁분비	-14662
▁소총	-14663
▁실책	-14664
▁웨어	-14665
▁유총	-14666
▁일탈	-14667
▁자괴	-14668
▁재물	-14669
▁태워	-14670
▁하키	-14671
▁한하	-14672
▁화사	-14673
▁마중물	-14674
▁물동량	-14675
▁실리콘	-14676
▁초년생	-14677
▁충전기	-14678
GA	-14679
▁팰	-14680
▁OO	-14681
▁면밀	-14682
▁박유	-14683
▁북대	-14684
▁창녕	-14685
▁패했	-14686
▁폐렴	-14687
▁포탈	-14688
▁그다지	-14689
▁부여받	-14690
저것	-14691
▁남여	-14692
▁본론	-14693
▁탈취	-14694
▁고쳐야	-14695
▁대검찰청	-14696
▁공산주의자	-14697
▁대한체육회	-14698
▁쿵	-14699
갈이	-14700
카르	-14701
▁가령	-14702
▁매몰	-14703
▁안부	-14704
▁왼손	-14705
▁한발	-14706
▁호환	-14707
▁고소인	-14708
▁다고요	-14709
▁소나타	-14710
▁오렌지	-14711
▁플라이	-14712
▁이것저것	-14713
▁렴	-14714
▁뒷전	-14715
▁망해	-14716
▁이춘	-14717
▁자백	-14718
▁찬사	-14719
▁향했	-14720
▁획단	-14721
▁121	-14722
▁동반성	-14723
▁레이블	-14724
▁멋대로	-14725
▁무너졌	-14726
▁그리스어	-14727
▁만장일치	-14728
▁베네치아	-14729
정원	-14730
클린	-14731
▁답사	-14732
▁모셔	-14733
▁송구	-14734
▁주립	-14735
▁필두	-14736
▁합천	-14737
▁영상물	-14738
▁읍니까	-14739
▁가상현실	-14740
▁홈플러스	-14741
52	-14742
ck	-14743
▁콧	-14744
거진	-14745
그라	-14746
▁저택	-14747
▁행방	-14748
▁그림책	-14749
▁보낸다	-14750
▁아줌마	-14751
▁오징어	-14752
▁중심부	-14753
▁태어날	-14754
정리	-14755
▁ON	-14756
▁개강	-14757
▁계량	-14758
▁까닭	-14759
▁대청	-14760
▁써도	-14761
▁외화	-14762
▁케인	-14763
▁막걸리	-14764
▁정수장	-14765
▁괄	-14766
▁mg	-14767
▁베일	-14768
▁유서	-14769
▁장상	-14770
▁전일	-14771
▁흐리	-14772
▁고위급	-14773
▁불기소	-14774
▁전해져	-14775
▁카운트	-14776
▁휘두르	-14777
선언	-14778
▁떠날	-14779
▁바쳐	-14780
▁부호	-14781
▁불통	-14782
▁비장	-14783
▁빙자	-14784
▁진구	-14785
▁패딩	-14786
▁국민당	-14787
▁멜로디	-14788
▁병해충	-14789
▁1908	-14790
▁대학원생	-14791
EM	-14792
per	-14793
▁구출	-14794
▁남궁	-14795
▁듀오	-14796
▁라마	-14797
▁쓰리	-14798
▁아홉	-14799
▁탈피	-14800
▁광복절	-14801
▁부평구	-14802
▁사계절	-14803
▁장난치	-14804
▁활주로	-14805
▁1905	-14806
▁사라져야	-14807
▁20180	-14808
▁겔	-14809
▁난항	-14810
▁불출	-14811
▁뻔히	-14812
▁수인	-14813
▁야심	-14814
▁이우	-14815
▁만난다	-14816
▁아울렛	-14817
▁전과자	-14818
▁파이프	-14819
▁영업시간	-14820
▁곶	-14821
▁가출	-14822
▁기틀	-14823
▁나고	-14824
▁도호	-14825
▁방재	-14826
▁식수	-14827
▁이오	-14828
▁피지	-14829
▁항원	-14830
▁340	-14831
▁매크로	-14832
▁산다는	-14833
▁철학자	-14834
▁법치주의	-14835
▁子	-14836
▁샹	-14837
▁당면	-14838
▁독단	-14839
▁직격	-14840
▁징집	-14841
▁통관	-14842
▁건의문	-14843
▁Me	-14844
▁묘소	-14845
▁스폰	-14846
▁주원	-14847
▁진안	-14848
▁군사력	-14849
▁상담원	-14850
▁차가운	-14851
▁최종구	-14852
▁후원자	-14853
꼬리	-14854
데르	-14855
▁BI	-14856
▁명상	-14857
▁산자	-14858
▁안주	-14859
▁왕가	-14860
▁욕하	-14861
▁울분	-14862
▁간통죄	-14863
▁다지만	-14864
▁라오스	-14865
▁합병증	-14866
▁프로세서	-14867
▁De	-14868
▁구토	-14869
▁넥슨	-14870
▁안개	-14871
▁차분	-14872
▁참패	-14873
▁폭파	-14874
▁흥분	-14875
▁가로등	-14876
▁경희대	-14877
▁버려진	-14878
▁1912	-14879
▁담배꽁초	-14880
▁아이러니	-14881
▁일찌감치	-14882
no	-14883
국수	-14884
야스	-14885
▁겹쳐	-14886
▁군함	-14887
▁대졸	-14888
▁수식	-14889
▁용시	-14890
▁죄다	-14891
▁건너가	-14892
▁상담소	-14893
▁움직여	-14894
▁잡아먹	-14895
▁종량제	-14896
▁행정소송	-14897
▁스트라이크	-14898
▁뽀	-14899
봉투	-14900
▁로프	-14901
▁분사	-14902
▁산신	-14903
▁슬기	-14904
▁양방	-14905
▁얼룩	-14906
▁수두룩	-14907
▁커리어	-14908
▁1917	-14909
▁도쿠가와	-14910
▁사우디아	-14911
io	-14912
곡면	-14913
아르	-14914
▁구자	-14915
▁국력	-14916
▁미연	-14917
▁법리	-14918
▁빠질	-14919
▁악랄	-14920
▁포유	-14921
▁풍상	-14922
▁공문서	-14923
▁다가온	-14924
▁맞춰서	-14925
▁비둘기	-14926
▁샐	-14927
슬로	-14928
▁가이	-14929
▁계셨	-14930
▁규슈	-14931
▁반값	-14932
▁부안	-14933
▁시는	-14934
▁총사	-14935
▁최환	-14936
▁쿠르	-14937
▁텐트	-14938
▁화나	-14939
▁마을버스	-14940
대기	-14941
▁KD	-14942
▁ᆞ공	-14943
▁박승	-14944
▁색소	-14945
▁어치	-14946
▁외제	-14947
▁울려	-14948
▁144	-14949
▁와일드	-14950
보증기금	-14951
제한	-14952
▁볼링	-14953
▁분지	-14954
▁드러낸	-14955
▁유승민	-14956
▁전광판	-14957
▁체납액	-14958
▁그놈	-14959
▁매직	-14960
▁오미	-14961
▁위선	-14962
▁잔업	-14963
▁종편	-14964
스크림	-14965
▁거창군	-14966
▁역사관	-14967
▁집중력	-14968
▁해양경찰	-14969
▁수목드라마	-14970
애나	-14971
▁가창	-14972
▁돌렸	-14973
▁약칭	-14974
▁오거	-14975
▁임관	-14976
▁정장	-14977
▁칼리	-14978
▁해왔	-14979
▁훔쳐	-14980
▁내다보	-14981
▁냐고요	-14982
▁앙상블	-14983
▁영양사	-14984
▁전문대	-14985
▁협주곡	-14986
▁컨퍼런스	-14987
▁뱉	-14988
무진	-14989
▁CA	-14990
▁고선	-14991
▁대칭	-14992
▁멜론	-14993
▁부식	-14994
▁워즈	-14995
▁다가올	-14996
▁당국자	-14997
▁1926	-14998
▁수행평가	-14999
▁한답니다	-15000
말라	-15001
▁마진	-15002
▁백색	-15003
▁콘테	-15004
▁풍기	-15005
▁김부겸	-15006
▁들어섰	-15007
▁무너진	-15008
▁쓰러져	-15009
▁임영웅	-15010
▁칸막이	-15011
▁엘리자베스	-15012
플러	-15013
ial	-15014
▁변론	-15015
▁여운	-15016
▁연달	-15017
▁외로	-15018
▁쳐도	-15019
▁큐브	-15020
하우스	-15021
▁고분군	-15022
▁문경시	-15023
▁시진핑	-15024
▁지점장	-15025
▁하이드	-15026
학습	-15027
▁과언	-15028
▁딱지	-15029
▁봉안	-15030
▁자작	-15031
▁해냈	-15032
민주당	-15033
▁시험관	-15034
▁이용료	-15035
▁자괴감	-15036
▁지난번	-15037
▁견고	-15038
▁계도	-15039
▁그릴	-15040
▁달인	-15041
▁대소	-15042
▁사옥	-15043
▁세척	-15044
▁긴밀히	-15045
▁세대주	-15046
▁펼쳐진	-15047
▁학생회	-15048
▁가했	-15049
▁개요	-15050
▁공자	-15051
▁스모	-15052
▁싸울	-15053
▁연전	-15054
▁자석	-15055
▁해협	-15056
▁귀기울	-15057
▁면죄부	-15058
▁중금속	-15059
▁아이스크림	-15060
▁럽	-15061
▁가람	-15062
▁무급	-15063
▁무도	-15064
▁민요	-15065
▁박광	-15066
▁시에	-15067
▁왕성	-15068
▁까다롭	-15069
▁노후화	-15070
▁동두천	-15071
▁전교조	-15072
▁제작자	-15073
▁里	-15074
습기	-15075
▁관건	-15076
▁속성	-15077
▁외주	-15078
▁이복	-15079
▁저온	-15080
▁찌르	-15081
▁한달	-15082
▁형국	-15083
▁225	-15084
▁껍니다	-15085
▁아르메	-15086
▁작업자	-15087
▁ᄌ	-15088
ook	-15089
▁Co	-15090
▁극찬	-15091
▁악성	-15092
▁여타	-15093
▁원화	-15094
▁진한	-15095
▁친한	-15096
▁포레	-15097
▁도마뱀	-15098
▁스케일	-15099
▁흔들림	-15100
▁인플레이션	-15101
실히	-15102
▁AA	-15103
▁기판	-15104
▁대차	-15105
▁몸살	-15106
▁박현	-15107
▁밤새	-15108
▁외야	-15109
▁접전	-15110
▁종족	-15111
▁장려상	-15112
산성	-15113
▁급자	-15114
▁냉전	-15115
▁마스	-15116
▁머스	-15117
▁반짝	-15118
▁월성	-15119
▁위자	-15120
▁혈중	-15121
▁홍삼	-15122
리카락	-15123
▁당해서	-15124
▁쳐다보	-15125
▁콩쿠르	-15126
▁티셔츠	-15127
▁광양제철	-15128
▁머리카락	-15129
덕션	-15130
▁HA	-15131
▁기갑	-15132
▁리베	-15133
▁만찬	-15134
▁슈트	-15135
▁중등	-15136
▁검사소	-15137
▁미용실	-15138
▁아까운	-15139
▁아르메니아	-15140
▁☆	-15141
▁가할	-15142
▁국부	-15143
▁목동	-15144
▁목상	-15145
▁번복	-15146
▁사주	-15147
▁의향	-15148
▁임성	-15149
▁장도	-15150
▁전량	-15151
▁터졌	-15152
▁호법	-15153
▁네이션	-15154
▁벌어질	-15155
▁어긋난	-15156
▁올라간	-15157
▁낀	-15158
재판	-15159
주군	-15160
코프	-15161
▁군경	-15162
▁상록	-15163
▁예타	-15164
▁기획사	-15165
▁주파수	-15166
▁태블릿	-15167
▁사우디아라비아	-15168
▁구정	-15169
▁서귀	-15170
▁온상	-15171
▁조승	-15172
▁황선	-15173
▁상세히	-15174
▁쓰러지	-15175
▁일찍이	-15176
▁이산가족	-15177
▁임상시험	-15178
▁KAIST	-15179
운영	-15180
▁검침	-15181
▁공국	-15182
▁관상	-15183
▁내구	-15184
▁무법	-15185
▁벽돌	-15186
▁섞인	-15187
▁스팸	-15188
▁신전	-15189
▁와야	-15190
▁원할	-15191
▁진공	-15192
▁항생	-15193
▁후안	-15194
이스터	-15195
▁Com	-15196
▁상속세	-15197
▁근로복지	-15198
▁자연스레	-15199
돌프	-15200
▁구본	-15201
▁국격	-15202
▁성품	-15203
▁역적	-15204
▁잔액	-15205
▁중흥	-15206
▁팀원	-15207
▁김수현	-15208
▁되새기	-15209
▁에디션	-15210
▁전월세	-15211
▁태권도	-15212
▁빕	-15213
어서	-15214
저트	-15215
▁각인	-15216
▁빈틈	-15217
▁서신	-15218
▁세조	-15219
▁커리	-15220
▁펜싱	-15221
▁황토	-15222
▁말아먹	-15223
▁산업은행	-15224
ld	-15225
▁됀	-15226
▁퀄	-15227
▁당도	-15228
▁뒷면	-15229
▁성종	-15230
▁205	-15231
▁근로복지공단	-15232
ian	-15233
▁개화	-15234
▁꾸리	-15235
▁내줬	-15236
▁동종	-15237
▁리오	-15238
▁마자	-15239
▁모씨	-15240
▁문책	-15241
▁시시	-15242
▁양조	-15243
▁전류	-15244
▁폭침	-15245
▁효성	-15246
▁THE	-15247
▁살인범	-15248
▁소방청	-15249
▁스러울	-15250
▁칩니다	-15251
▁江	-15252
▁고온	-15253
▁골문	-15254
▁동급	-15255
▁반포	-15256
▁번번	-15257
▁수기	-15258
▁운하	-15259
▁작자	-15260
▁차도	-15261
▁추징	-15262
▁판촉	-15263
▁124	-15264
▁울릉군	-15265
▁지방비	-15266
▁근린공원	-15267
부동	-15268
천구	-15269
▁대산	-15270
▁빗물	-15271
▁성급	-15272
▁식기	-15273
▁열띤	-15274
▁윤상	-15275
▁이놈	-15276
고양이	-15277
▁자아내	-15278
투아니아	-15279
▁...............	-15280
▁政	-15281
텐도	-15282
log	-15283
▁로렌	-15284
▁미처	-15285
▁블리	-15286
▁성벽	-15287
▁신정	-15288
▁요정	-15289
▁이남	-15290
▁초동	-15291
▁탈모	-15292
오피아	-15293
▁기부자	-15294
▁닌텐도	-15295
▁스테이	-15296
▁치료법	-15297
▁리투아니아	-15298
▁에티오피아	-15299
66	-15300
▁쫌	-15301
▁맞췄	-15302
▁베풀	-15303
▁저주	-15304
▁푸틴	-15305
▁과천시	-15306
▁데스크	-15307
▁할지라도	-15308
▁볶	-15309
▁띄우	-15310
▁만끽	-15311
▁쌓았	-15312
▁오비	-15313
▁자회	-15314
▁차인	-15315
▁타파	-15316
▁예술단	-15317
▁이유로	-15318
▁버지니아	-15319
▁제주항공	-15320
▁ᄂ	-15321
▁무신	-15322
▁병실	-15323
▁우지	-15324
▁이천	-15325
▁드라이	-15326
▁Coun	-15327
▁어시스트	-15328
22	-15329
▁縣	-15330
이자	-15331
▁겨자	-15332
▁근속	-15333
▁기병	-15334
▁로워	-15335
▁싸인	-15336
▁왕래	-15337
▁요하	-15338
▁차마	-15339
미화원	-15340
지우지	-15341
▁환경미화원	-15342
▁늪	-15343
루살	-15344
▁Gr	-15345
▁라곤	-15346
▁생육	-15347
▁역주	-15348
▁제니	-15349
▁홍남	-15350
루살렘	-15351
▁손바닥	-15352
▁어쨌든	-15353
슬라비아	-15354
▁보냅니다	-15355
▁터무니없	-15356
▁다이아몬드	-15357
▁유고슬라비아	-15358
▁性	-15359
차기	-15360
▁니즈	-15361
▁씁쓸	-15362
▁원생	-15363
▁잠식	-15364
▁폭포	-15365
▁회유	-15366
▁노회찬	-15367
▁최환준	-15368
▁좌지우지	-15369
▁꼽혔	-15370
▁돌발	-15371
▁런닝	-15372
▁비평	-15373
▁생수	-15374
▁신대	-15375
▁외세	-15376
▁외유	-15377
▁제설	-15378
▁지뢰	-15379
▁터트	-15380
▁더한다	-15381
▁조석준	-15382
▁취재진	-15383
▁youtube	-15384
▁곡물	-15385
▁금남	-15386
▁말살	-15387
▁발기	-15388
▁불륜	-15389
▁양사	-15390
▁재위	-15391
▁주선	-15392
▁초콜	-15393
▁수용소	-15394
▁양양군	-15395
▁영등포	-15396
▁제국주의	-15397
oy	-15398
▁島	-15399
▁本	-15400
토록	-15401
▁가닥	-15402
▁마나	-15403
▁마취	-15404
▁몰이	-15405
▁특근	-15406
▁폐광	-15407
▁광주대	-15408
▁매립장	-15409
▁수개월	-15410
▁텍스트	-15411
▁특정인	-15412
▁플래시	-15413
▁明	-15414
리학	-15415
자키	-15416
▁가든	-15417
▁심근	-15418
▁열쇠	-15419
▁엿볼	-15420
▁옥스	-15421
▁용객	-15422
▁이임	-15423
▁캡처	-15424
▁태영	-15425
▁kbs	-15426
▁과반수	-15427
▁전단지	-15428
▁중도금	-15429
▁롯데마트	-15430
▁비하인드	-15431
주부	-15432
▁교직	-15433
▁마누	-15434
▁미상	-15435
▁블로	-15436
▁오차	-15437
▁이불	-15438
▁조인	-15439
▁출렁	-15440
▁충동	-15441
▁학연	-15442
▁달라졌	-15443
▁대응책	-15444
▁송영길	-15445
▁긁	-15446
▁뻥	-15447
위생	-15448
▁가즈	-15449
▁거침	-15450
▁내뱉	-15451
▁농공	-15452
▁다듬	-15453
▁대서	-15454
▁메시	-15455
▁시오	-15456
▁연꽃	-15457
▁완수	-15458
▁우방	-15459
▁장모	-15460
▁현저	-15461
습니다	-15462
▁개고기	-15463
▁국제법	-15464
▁그려졌	-15465
▁서귀포	-15466
▁우라늄	-15467
▁홍천군	-15468
뿌리	-15469
▁de	-15470
▁구실	-15471
▁구했	-15472
▁라던	-15473
▁마력	-15474
▁송가	-15475
▁수교	-15476
▁유자	-15477
쌉니다	-15478
▁무안군	-15479
▁북아메리카	-15480
▁큼	-15481
ack	-15482
▁ST	-15483
▁누출	-15484
▁디비	-15485
▁리빙	-15486
▁발라	-15487
▁쇼군	-15488
▁차림	-15489
▁수산업	-15490
스틴	-15491
▁견본	-15492
▁그랑	-15493
▁느슨	-15494
▁방음	-15495
▁분교	-15496
▁설교	-15497
▁수락	-15498
▁숙명	-15499
▁심문	-15500
▁옹진	-15501
▁자막	-15502
▁조계	-15503
▁파행	-15504
▁하프	-15505
▁기록물	-15506
▁막바지	-15507
▁배불리	-15508
▁브라우	-15509
▁소홀히	-15510
▁총동원	-15511
▁파란색	-15512
▁교향악단	-15513
▁五	-15514
▁PK	-15515
▁나기	-15516
▁니아	-15517
▁동맥	-15518
▁송환	-15519
▁없앤	-15520
▁재부	-15521
▁제정신	-15522
▁스리랑카	-15523
sh	-15524
▁龍	-15525
료품	-15526
줄기	-15527
▁TE	-15528
▁결여	-15529
▁놓였	-15530
▁늦춰	-15531
▁사토	-15532
▁알콜	-15533
▁왕립	-15534
▁잔뜩	-15535
▁궐	-15536
▁고모	-15537
▁명동	-15538
▁명함	-15539
▁선결	-15540
▁시발	-15541
▁씌우	-15542
▁오보	-15543
▁재인	-15544
럼비아	-15545
리우스	-15546
▁기념비	-15547
▁돌아간	-15548
▁동맹국	-15549
▁선거철	-15550
▁싸이트	-15551
pe	-15552
무게	-15553
▁가옥	-15554
▁기형	-15555
▁따를	-15556
▁모녀	-15557
▁모였	-15558
▁무진	-15559
▁버틸	-15560
▁성대	-15561
▁성체	-15562
▁아군	-15563
▁요동	-15564
▁익위	-15565
▁잡아	-15566
▁칼럼	-15567
▁틀림	-15568
▁평행	-15569
ment	-15570
▁디저트	-15571
▁몸무게	-15572
▁보여야	-15573
▁소지자	-15574
▁줍니까	-15575
▁지식인	-15576
▁칼리지	-15577
▁행정명령	-15578
LL	-15579
▁%→	-15580
▁ID	-15581
▁검경	-15582
▁850	-15583
▁TBS	-15584
▁더해져	-15585
▁사무직	-15586
▁사용법	-15587
▁소환제	-15588
▁십자가	-15589
데시	-15590
릴라	-15591
▁거처	-15592
▁계장	-15593
▁선상	-15594
▁수다	-15595
▁아드	-15596
▁진위	-15597
▁내버려	-15598
▁행정학	-15599
수아	-15600
▁WW	-15601
▁남인	-15602
▁디바	-15603
▁베른	-15604
▁비산	-15605
▁새싹	-15606
▁예견	-15607
▁용접	-15608
▁의용	-15609
▁졸음	-15610
▁춘추	-15611
▁불거지	-15612
▁체인지	-15613
▁고군분투	-15614
▁白	-15615
ung	-15616
▁거니	-15617
▁경량	-15618
▁끼쳤	-15619
▁드립	-15620
▁드신	-15621
▁벽면	-15622
▁설령	-15623
▁쉬쉬	-15624
▁올레	-15625
▁장지	-15626
▁추리	-15627
▁모아야	-15628
▁박지우	-15629
▁서울역	-15630
▁설계사	-15631
▁아미노	-15632
▁어우러져	-15633
▁으십니까	-15634
▁宗	-15635
속기	-15636
▁가락	-15637
▁바랄	-15638
▁삼중	-15639
▁정영	-15640
▁총격	-15641
▁호위	-15642
▁레슬링	-15643
▁실망감	-15644
▁우주선	-15645
▁댈	-15646
무장	-15647
어준	-15648
▁AD	-15649
▁리뉴	-15650
▁마인	-15651
▁불평	-15652
▁아케	-15653
▁척하	-15654
▁토르	-15655
▁후일	-15656
▁가르쳤	-15657
▁강진군	-15658
▁김어준	-15659
▁내비쳤	-15660
▁물놀이	-15661
▁수급비	-15662
▁조현민	-15663
▁스테이트	-15664
▁개동	-15665
▁물음	-15666
▁시안	-15667
▁위문	-15668
▁절정	-15669
▁터질	-15670
▁폐단	-15671
▁화원	-15672
▁환전	-15673
duct	-15674
▁고의로	-15675
▁리비아	-15676
▁마포구	-15677
▁바닷물	-15678
▁수혜자	-15679
나르	-15680
▁골격	-15681
▁발해	-15682
▁배고	-15683
▁전관	-15684
▁폭주	-15685
▁시드니	-15686
▁재판장	-15687
▁충청도	-15688
▁화순군	-15689
대장	-15690
중독	-15691
▁감내	-15692
▁두류	-15693
▁바비	-15694
▁사외	-15695
▁었었	-15696
▁옥외	-15697
▁이드	-15698
▁저탄	-15699
▁치하	-15700
▁한약	-15701
▁선발전	-15702
▁원자재	-15703
▁홍남기	-15704
▁넨	-15705
버린	-15706
▁김시	-15707
▁나스	-15708
▁문통	-15709
▁묻히	-15710
▁비문	-15711
▁비법	-15712
▁어가	-15713
▁연호	-15714
▁임업	-15715
▁정글	-15716
▁정승	-15717
▁포즈	-15718
▁북동부	-15719
▁조선업	-15720
▁항공모	-15721
▁유치원생	-15722
세스	-15723
▁가금	-15724
▁광대	-15725
▁스마	-15726
▁유례	-15727
▁회신	-15728
▁레미콘	-15729
▁GB	-15730
▁독주	-15731
▁미르	-15732
▁밀폐	-15733
▁산물	-15734
▁잔금	-15735
▁조력	-15736
▁팍팍	-15737
▁호황	-15738
▁광저우	-15739
▁다네요	-15740
▁빅토리아	-15741
▁忠	-15742
▁GO	-15743
▁NE	-15744
▁낱낱	-15745
▁망상	-15746
▁보임	-15747
▁부조	-15748
▁상경	-15749
▁섞여	-15750
▁편중	-15751
▁허울	-15752
▁에스파	-15753
▁용산구	-15754
사관학교	-15755
▁일러스트	-15756
▁돌풍	-15757
▁머드	-15758
▁물놀	-15759
▁바티	-15760
▁수배	-15761
▁신병	-15762
▁바라지	-15763
▁박장미	-15764
▁유관순	-15765
▁주호영	-15766
▁Korea	-15767
ex	-15768
▁≫	-15769
니지	-15770
러드	-15771
리나	-15772
수영	-15773
▁〉(	-15774
▁겸비	-15775
▁근교	-15776
▁보잉	-15777
▁정일	-15778
▁제물	-15779
▁친목	-15780
▁고려인	-15781
▁다룬다	-15782
▁북유럽	-15783
▁엉덩이	-15784
▁우편물	-15785
▁쑥	-15786
암리	-15787
자동	-15788
▁가급	-15789
▁농정	-15790
▁매기	-15791
▁버터	-15792
▁샤를	-15793
▁악몽	-15794
▁어둡	-15795
▁임박	-15796
▁철근	-15797
▁POP	-15798
▁감지기	-15799
▁밝혀내	-15800
▁여행지	-15801
▁영산강	-15802
▁오산시	-15803
▁이재민	-15804
▁측정기	-15805
▁예루살렘	-15806
▁체험학습	-15807
▁댁	-15808
서울	-15809
열차	-15810
▁느린	-15811
▁대도	-15812
▁수작	-15813
▁신민	-15814
▁자랄	-15815
▁표절	-15816
▁핑장	-15817
▁연구실	-15818
▁인력난	-15819
미아	-15820
▁구절	-15821
▁내무	-15822
▁뒤덮	-15823
▁부경	-15824
▁대주교	-15825
▁적절히	-15826
상식	-15827
티지	-15828
▁기류	-15829
▁밀수	-15830
▁알맞	-15831
▁코오	-15832
▁해커	-15833
▁광양항	-15834
▁김종인	-15835
▁아레나	-15836
▁훈련장	-15837
마개	-15838
▁KF	-15839
▁ᆞ정	-15840
▁격투	-15841
▁과하	-15842
▁레고	-15843
▁미아	-15844
▁빼먹	-15845
▁재계	-15846
▁좌표	-15847
▁타일	-15848
▁태자	-15849
▁남동생	-15850
▁사하구	-15851
▁새겨진	-15852
▁식중독	-15853
▁가톨릭교회	-15854
CN	-15855
▁겨루	-15856
▁도면	-15857
▁로열	-15858
▁발각	-15859
▁부류	-15860
▁사르	-15861
▁어드	-15862
▁요르	-15863
▁설립자	-15864
▁들어갑니다	-15865
▁계발	-15866
▁국과	-15867
▁방울	-15868
▁숲길	-15869
▁실추	-15870
▁입영	-15871
▁정적	-15872
▁조취	-15873
▁청화	-15874
▁미래인	-15875
▁박희중	-15876
▁신호위	-15877
62	-15878
75	-15879
▁쿤	-15880
블러	-15881
임자	-15882
타기	-15883
▁견뎌	-15884
▁로선	-15885
▁루머	-15886
▁부검	-15887
▁주당	-15888
▁태생	-15889
▁나폴리	-15890
ey	-15891
▁옌	-15892
ank	-15893
▁VS	-15894
▁Wh	-15895
▁냐며	-15896
▁말투	-15897
▁복면	-15898
▁부영	-15899
▁야드	-15900
▁조교	-15901
▁축내	-15902
▁기하학	-15903
▁내려온	-15904
▁사리사	-15905
▁이동하	-15906
▁ph	-15907
▁내놔	-15908
▁밥통	-15909
▁수매	-15910
▁신현	-15911
▁요트	-15912
▁유년	-15913
▁인내	-15914
▁자선	-15915
▁처먹	-15916
▁투신	-15917
▁포맷	-15918
▁역주행	-15919
▁의뢰인	-15920
▁초콜릿	-15921
▁파이터	-15922
▁항생제	-15923
지물	-15924
▁둔갑	-15925
▁반칙	-15926
▁숭배	-15927
▁양재	-15928
▁IPA	-15929
▁OTT	-15930
▁PCR	-15931
▁축구장	-15932
▁해준다	-15933
▁저질러도	-15934
▁反	-15935
랑크	-15936
려요	-15937
요금	-15938
▁ᆞ보	-15939
▁난동	-15940
▁불감	-15941
▁설화	-15942
▁싫어	-15943
▁이조	-15944
▁지으	-15945
▁날아가	-15946
▁노인회	-15947
▁농어민	-15948
▁소중히	-15949
▁원활히	-15950
▁웨일스	-15951
▁떨어진다	-15952
▁정신병자	-15953
속히	-15954
체능	-15955
▁CF	-15956
▁GA	-15957
▁그물	-15958
▁놓이	-15959
▁등용	-15960
▁망정	-15961
▁불시	-15962
▁약대	-15963
▁할꺼	-15964
▁어딘가	-15965
▁줄다리	-15966
▁코오롱	-15967
▁메이크업	-15968
▁하루속히	-15969
글라	-15970
부상	-15971
net	-15972
▁경시	-15973
▁교외	-15974
▁도가	-15975
▁무라	-15976
▁사시	-15977
▁시초	-15978
▁작태	-15979
▁콩고	-15980
▁탕감	-15981
▁토사	-15982
▁협연	-15983
▁계약자	-15984
▁머스크	-15985
▁앞당기	-15986
▁히어로즈	-15987
방식	-15988
인구	-15989
착륙	-15990
▁남방	-15991
▁매너	-15992
▁샤이	-15993
▁연천	-15994
▁요직	-15995
▁입출	-15996
▁합친	-15997
▁해시	-15998
▁혜성	-15999
궐선거	-16000
▁급속히	-16001
▁여겨졌	-16002
▁증여세	-16003
▁이리저리	-16004
▁줄기세포	-16005
▁빡	-16006
▁웁	-16007
프로	-16008
▁〉,	-16009
▁거칠	-16010
▁규약	-16011
▁논술	-16012
▁뒤쪽	-16013
▁마오	-16014
▁비준	-16015
▁장원	-16016
▁접해	-16017
▁총파	-16018
▁산업재	-16019
▁아이즈	-16020
▁양수산	-16021
▁페인트	-16022
▁1906	-16023
ᆞ고	-16024
▁뛴	-16025
▁강우	-16026
▁과밀	-16027
▁교화	-16028
▁분주	-16029
▁자판	-16030
▁카니	-16031
▁219	-16032
▁데일리	-16033
▁레이더	-16034
▁유격수	-16035
▁띈	-16036
대군	-16037
메인	-16038
브라	-16039
▁김신	-16040
▁별세	-16041
▁설탕	-16042
▁아랑	-16043
▁앞면	-16044
▁졸속	-16045
▁태반	-16046
▁햇살	-16047
▁혼동	-16048
스코트	-16049
▁134	-16050
▁사과문	-16051
▁수치심	-16052
▁스폰서	-16053
▁여행자	-16054
▁총파업	-16055
보험공단	-16056
▁줄다리기	-16057
65	-16058
물산	-16059
ber	-16060
▁가가	-16061
▁군내	-16062
▁배척	-16063
▁여긴	-16064
▁이공	-16065
▁한남	-16066
▁혈당	-16067
▁힌두	-16068
▁살려야	-16069
▁수천억	-16070
▁인천항	-16071
▁트리플	-16072
▁법무법인	-16073
ph	-16074
볶이	-16075
▁내사	-16076
▁들으	-16077
▁문성	-16078
▁수문	-16079
▁알뜰	-16080
▁야쿠	-16081
▁오정	-16082
▁조광	-16083
▁청계	-16084
▁히스	-16085
▁뛰어놀	-16086
▁레바논	-16087
▁산사태	-16088
▁都	-16089
▁빔	-16090
가르	-16091
▁간략	-16092
▁거센	-16093
▁건대	-16094
▁계몽	-16095
▁고귀	-16096
▁노화	-16097
▁누렸	-16098
▁미일	-16099
▁브래	-16100
▁오다	-16101
▁행세	-16102
▁NHK	-16103
▁몰상식	-16104
▁예체능	-16105
▁世	-16106
다드	-16107
동면	-16108
▁굴뚝	-16109
▁녀석	-16110
▁말소	-16111
▁빨래	-16112
▁사익	-16113
▁소량	-16114
▁쇼크	-16115
▁시식	-16116
▁어의	-16117
▁외양	-16118
▁정오	-16119
▁친숙	-16120
▁피켓	-16121
▁UAE	-16122
▁건드리	-16123
▁고속화	-16124
▁다이묘	-16125
▁아틀레	-16126
▁1913	-16127
▁벨라루스	-16128
▁항공모함	-16129
▁콘스탄티노	-16130
▁건강보험공단	-16131
ps	-16132
▁"'	-16133
▁감경	-16134
▁나트	-16135
▁외압	-16136
▁이봉	-16137
▁종점	-16138
▁주춤	-16139
▁초범	-16140
▁판명	-16141
▁디테일	-16142
▁생겨났	-16143
▁수리비	-16144
▁조그마	-16145
▁최하위	-16146
▁1909	-16147
▁마이스터	-16148
▁와이파이	-16149
▁체크카드	-16150
▁ᄃ	-16151
▁딥	-16152
▁웍	-16153
올라	-16154
▁고산	-16155
▁넘길	-16156
▁맛보	-16157
▁성토	-16158
▁신데	-16159
▁정량	-16160
▁부주의	-16161
▁찾아왔	-16162
▁삼성물산	-16163
▁쏜	-16164
동자	-16165
축제	-16166
▁do	-16167
▁결핍	-16168
▁교포	-16169
▁나인	-16170
▁너머	-16171
▁대파	-16172
▁리브	-16173
▁미러	-16174
▁발리	-16175
▁송라	-16176
▁갈리아	-16177
▁개소리	-16178
▁무자비	-16179
ug	-16180
▁OK	-16181
▁로울	-16182
▁법위	-16183
▁성화	-16184
▁수해	-16185
▁옆집	-16186
▁척도	-16187
▁특목	-16188
▁펑크	-16189
▁한상	-16190
▁합하	-16191
▁호감	-16192
▁..?	-16193
▁DVD	-16194
▁발사체	-16195
▁캐피탈	-16196
▁통틀어	-16197
▁안전장치	-16198
컨대	-16199
▁리우	-16200
▁분별	-16201
▁섬기	-16202
▁수긍	-16203
▁요식	-16204
▁입힌	-16205
▁체내	-16206
▁평정	-16207
▁마이너	-16208
▁오프닝	-16209
▁사리사욕	-16210
▁PS	-16211
▁SO	-16212
▁겸하	-16213
▁고강	-16214
▁깨지	-16215
▁대물	-16216
▁명복	-16217
▁산원	-16218
▁삼바	-16219
▁암행	-16220
▁재택	-16221
▁정할	-16222
▁지망	-16223
▁한탄	-16224
▁호투	-16225
▁마우스	-16226
▁성공회	-16227
▁쏟아져	-16228
▁통지서	-16229
GO	-16230
거름	-16231
ure	-16232
▁분출	-16233
▁서동	-16234
▁아팠	-16235
▁제소	-16236
▁튜닝	-16237
▁가급적	-16238
▁경영난	-16239
▁체육인	-16240
▁히가시	-16241
▁쑤	-16242
▁쫄	-16243
각각	-16244
고래	-16245
PGA	-16246
▁Tr	-16247
▁경복	-16248
▁됐었	-16249
▁부려	-16250
▁시즈	-16251
▁아플	-16252
▁에도	-16253
▁임해	-16254
▁회부	-16255
▁둘레길	-16256
▁떡볶이	-16257
▁손꼽히	-16258
▁시네마	-16259
▁입학식	-16260
▁퍼시픽	-16261
▁한국전력공사	-16262
▁民	-16263
▁룬	-16264
▁리메	-16265
▁변모	-16266
▁신작	-16267
▁지울	-16268
▁크나	-16269
View	-16270
▁공학부	-16271
▁대마도	-16272
▁떠오른	-16273
▁정수기	-16274
▁??????	-16275
무네	-16276
징계	-16277
▁김철	-16278
▁농심	-16279
▁뚜껑	-16280
▁리튬	-16281
▁볼리	-16282
▁시라	-16283
▁여아	-16284
▁원부	-16285
▁챙겼	-16286
▁초소	-16287
▁최성	-16288
플렉스	-16289
▁데려가	-16290
▁독립성	-16291
▁로맨틱	-16292
▁미지수	-16293
▁아니한다	-16294
▁해집니다	-16295
ost	-16296
▁놀란	-16297
▁성북	-16298
▁시합	-16299
▁위즈	-16300
▁군포시	-16301
▁된다며	-16302
▁안성시	-16303
혁명	-16304
ust	-16305
▁류자	-16306
▁밀린	-16307
▁바란	-16308
▁세단	-16309
▁식도	-16310
▁애도	-16311
▁엘지	-16312
▁이빨	-16313
▁필자	-16314
▁420	-16315
▁결의문	-16316
▁선언문	-16317
▁식자재	-16318
▁완벽히	-16319
▁임채만	-16320
▁크나큰	-16321
▁≪	-16322
▁됍	-16323
부리	-16324
전입	-16325
▁as	-16326
▁공관	-16327
▁데크	-16328
▁비비	-16329
▁수온	-16330
▁의석	-16331
▁지탱	-16332
▁놀라움	-16333
▁라이더	-16334
▁민족주의	-16335
▁오릅니다	-16336
▁해운대구	-16337
▁기타리스트	-16338
방울	-16339
▁다룰	-16340
▁성역	-16341
▁싸운	-16342
▁어설	-16343
▁역명	-16344
▁유모	-16345
▁유부	-16346
▁정녕	-16347
▁총체	-16348
▁치뤄	-16349
▁카네	-16350
연구원	-16351
▁공고문	-16352
▁동문회	-16353
▁평창군	-16354
▁마스코트	-16355
▁였음에도	-16356
▁중환자실	-16357
67	-16358
PC	-16359
▁全	-16360
구멍	-16361
유키	-16362
태현	-16363
▁CS	-16364
▁고비	-16365
▁그랜	-16366
▁몰렸	-16367
▁몰린	-16368
▁캡쳐	-16369
▁폄훼	-16370
델피아	-16371
도니아	-16372
▁늘려서	-16373
▁리이다	-16374
▁갑작스런	-16375
▁필라델피아	-16376
▁팡	-16377
▁라파	-16378
▁썩어	-16379
▁원당	-16380
▁이면	-16381
▁자급	-16382
▁진수	-16383
▁처했	-16384
▁통용	-16385
▁피임	-16386
▁133	-16387
▁강제성	-16388
▁법원장	-16389
▁빠져나	-16390
▁영광군	-16391
▁이스타	-16392
▁판매점	-16393
▁늘어난다	-16394
▁맥도	-16395
▁빙산	-16396
▁이니	-16397
▁집적	-16398
하르트	-16399
▁브로드	-16400
▁순기능	-16401
▁영암군	-16402
▁이주민	-16403
▁초상화	-16404
▁플라자	-16405
▁합쳐서	-16406
▁국제기구	-16407
▁슐	-16408
나리	-16409
▁GH	-16410
▁나사	-16411
▁셔츠	-16412
▁아즈	-16413
▁장신	-16414
▁종착	-16415
▁주안	-16416
▁타결	-16417
▁필사	-16418
▁무사증	-16419
▁한다면서	-16420
▁남아메리카	-16421
▁렵	-16422
상가	-16423
▁경의	-16424
▁고을	-16425
▁끝냈	-16426
▁놀랍	-16427
▁망할	-16428
▁섭외	-16429
▁소파	-16430
▁유증	-16431
▁은평	-16432
▁이체	-16433
▁편식	-16434
▁간병인	-16435
▁내려갔	-16436
▁사우나	-16437
▁산림조합	-16438
▁알렉산더	-16439
▁主	-16440
다르	-16441
▁나우	-16442
▁망쳐	-16443
▁벗겨	-16444
▁열받	-16445
▁이에	-16446
▁추서	-16447
▁황색	-16448
▁김홍장	-16449
▁동해안	-16450
▁드려요	-16451
▁무참히	-16452
▁안전시설	-16453
▁콘테스트	-16454
▁바이오산업	-16455
UN	-16456
들리	-16457
미사	-16458
▁떨리	-16459
▁망국	-16460
▁유민	-16461
▁육회	-16462
▁현시	-16463
▁그토록	-16464
▁main	-16465
co	-16466
▁탤	-16467
ace	-16468
▁귀신	-16469
▁난감	-16470
▁반공	-16471
▁세법	-16472
▁위쪽	-16473
▁의외	-16474
▁이찬	-16475
▁530	-16476
▁공공연	-16477
▁도로변	-16478
▁옮겨졌	-16479
▁유흥주	-16480
▁해남군	-16481
▁나갑니다	-16482
▁베이스볼	-16483
igation	-16484
================	-16485
▁會	-16486
▁聖	-16487
▁샬	-16488
무가	-16489
▁th	-16490
▁中學	-16491
▁거스	-16492
▁문란	-16493
▁번주	-16494
▁실화	-16495
▁자갈	-16496
▁가습기	-16497
▁당해도	-16498
▁선거제	-16499
크래프트	-16500
▁비쌉니다	-16501
▁올라간다	-16502
▁위장전입	-16503
▁땄	-16504
▁둥근	-16505
▁몸통	-16506
▁방콕	-16507
▁변광	-16508
▁속인	-16509
▁터보	-16510
▁투석	-16511
▁퍼스	-16512
▁편도	-16513
▁학령	-16514
▁수영구	-16515
▁운동부	-16516
▁인원수	-16517
▁진정서	-16518
인지	-16519
일본	-16520
▁관동	-16521
▁그로	-16522
▁뇌졸	-16523
▁보탰	-16524
▁석가	-16525
▁성욕	-16526
▁시게	-16527
▁외침	-16528
▁점성	-16529
▁퍼부	-16530
▁폭설	-16531
▁해내	-16532
▁경쟁자	-16533
▁레이싱	-16534
▁몰아주	-16535
▁부총장	-16536
▁엑스코	-16537
▁연기금	-16538
▁완도군	-16539
▁정반대	-16540
▁알바니아	-16541
▁젓	-16542
REA	-16543
ast	-16544
▁부업	-16545
▁빈센	-16546
▁스루	-16547
▁스틱	-16548
▁안병	-16549
▁잠들	-16550
▁재조	-16551
▁정맥	-16552
▁찬스	-16553
▁파병	-16554
▁팩스	-16555
대표제	-16556
▁아이유	-16557
▁피로감	-16558
▁무용지물	-16559
yn	-16560
토미	-16561
▁광교	-16562
▁두통	-16563
▁마운	-16564
▁뽑혔	-16565
▁태만	-16566
▁넘겨졌	-16567
▁저마다	-16568
▁초과근무	-16569
▁크리스토	-16570
▁괌	-16571
▁떴	-16572
▁얄	-16573
▁캉	-16574
▁경도	-16575
▁수순	-16576
▁암석	-16577
▁외벌	-16578
▁진솔	-16579
▁풍자	-16580
▁내려진	-16581
▁좌회전	-16582
▁고등교육	-16583
▁크리스티	-16584
친절	-16585
▁CT	-16586
▁공병	-16587
▁배심	-16588
▁선심	-16589
▁선종	-16590
▁착하	-16591
▁챙길	-16592
▁통칭	-16593
▁판치	-16594
▁피폐	-16595
▁흘린	-16596
▁랍시고	-16597
▁임대업	-16598
▁저버리	-16599
▁합의금	-16600
실록	-16601
▁CU	-16602
▁램프	-16603
▁맡긴	-16604
▁범하	-16605
▁분유	-16606
▁빨대	-16607
▁사의	-16608
▁수군	-16609
▁숙지	-16610
▁위례	-16611
▁장제	-16612
▁혼선	-16613
▁활짝	-16614
▁NBA	-16615
▁나아질	-16616
▁무지개	-16617
▁이슬람교	-16618
더미	-16619
부사	-16620
회원	-16621
▁그쳐	-16622
▁머릿	-16623
▁모을	-16624
▁수유	-16625
▁타르	-16626
▁440	-16627
▁토머스	-16628
▁홍영표	-16629
▁루트비히	-16630
▁리바운드	-16631
▁라디오스타	-16632
▁얕	-16633
▁캣	-16634
딩크	-16635
라면	-16636
지도	-16637
처리	-16638
ock	-16639
▁BB	-16640
▁다산	-16641
▁데로	-16642
▁별칭	-16643
▁사대	-16644
▁수필	-16645
▁제수	-16646
▁진선	-16647
▁370	-16648
▁480	-16649
▁구시대	-16650
▁바가지	-16651
▁작성자	-16652
▁직매장	-16653
▁가장자리	-16654
▁navigation	-16655
▁漢	-16656
▁거인	-16657
▁건담	-16658
▁앨런	-16659
▁정예	-16660
▁타마	-16661
▁나고야	-16662
▁선거인	-16663
▁성장기	-16664
▁스러움	-16665
▁식료품	-16666
▁의왕시	-16667
▁주거비	-16668
▁2026	-16669
▁파트너십	-16670
겹살	-16671
미경	-16672
숙고	-16673
▁눈부	-16674
▁따랐	-16675
▁사바	-16676
▁시크	-16677
▁자퇴	-16678
▁촉식	-16679
▁평강	-16680
▁폐사	-16681
▁갑니까	-16682
▁건의안	-16683
▁그걸로	-16684
▁돌아다	-16685
▁삼겹살	-16686
▁야구단	-16687
▁얼어붙	-16688
▁오리온	-16689
▁전년도	-16690
▁추신수	-16691
▁페트병	-16692
▁히딩크	-16693
▁심사숙고	-16694
ational	-16695
▁君	-16696
보살	-16697
소싱	-16698
어질	-16699
▁갑상	-16700
▁광풍	-16701
▁기고	-16702
▁수심	-16703
▁슬라	-16704
▁신시	-16705
▁양동	-16706
▁없앨	-16707
▁일주	-16708
▁장본	-16709
▁집배	-16710
▁총대	-16711
▁코카	-16712
▁KDI	-16713
▁기울였	-16714
▁메디컬	-16715
▁멤버십	-16716
▁아토피	-16717
▁알려야	-16718
▁창의력	-16719
▁학기제	-16720
▁1911	-16721
▁product	-16722
ok	-16723
▁朴	-16724
▁靑	-16725
▁댕	-16726
▁딛	-16727
▁짬	-16728
▁경합	-16729
▁뻔하	-16730
▁선율	-16731
▁스노	-16732
▁연정	-16733
▁연해	-16734
▁장유	-16735
▁제후	-16736
▁찌푸	-16737
▁다방면	-16738
▁붙잡혔	-16739
▁빈센조	-16740
▁증거인	-16741
▁텐데요	-16742
▁아웃소싱	-16743
iv	-16744
▁KC	-16745
▁벌리	-16746
▁상국	-16747
▁숙청	-16748
▁습니	-16749
▁식이	-16750
▁웃돌	-16751
▁이혜	-16752
▁정벌	-16753
▁종말	-16754
▁최문	-16755
무가내	-16756
미디어	-16757
카메라	-16758
▁MLB	-16759
▁담아내	-16760
▁사무장	-16761
▁재대로	-16762
▁특목고	-16763
▁했어야	-16764
▁막무가내	-16765
▁자카르타	-16766
과학	-16767
원수	-16768
▁개도	-16769
▁두께	-16770
▁박동	-16771
▁부역	-16772
▁약서	-16773
▁억대	-16774
▁영체	-16775
▁원분	-16776
▁주조	-16777
▁쿠스	-16778
▁피렌	-16779
▁건축법	-16780
▁유로파	-16781
▁중앙지	-16782
▁컨트리	-16783
▁까다로운	-16784
▁~~~~~~~~~	-16785
▁픈	-16786
에미	-16787
▁경협	-16788
▁농산	-16789
▁부름	-16790
▁실로	-16791
▁악단	-16792
▁이타	-16793
▁조공	-16794
▁탐욕	-16795
▁하자	-16796
▁손잡이	-16797
▁출근길	-16798
▁비례대표제	-16799
▁社	-16800
▁自	-16801
바리	-16802
▁감량	-16803
▁기내	-16804
▁기질	-16805
▁뒤지	-16806
▁우뚝	-16807
▁치중	-16808
▁김광현	-16809
▁보수당	-16810
▁알프스	-16811
▁유지비	-16812
▁古	-16813
어냈	-16814
▁xx	-16815
▁대당	-16816
▁분진	-16817
▁사은	-16818
▁천명	-16819
▁코팅	-16820
▁테스	-16821
▁호화	-16822
▁획일	-16823
▁거머쥐	-16824
▁불친절	-16825
▁사절단	-16826
▁사회학	-16827
▁전문직	-16828
▁학점제	-16829
▁못한다고	-16830
▁한국일보	-16831
▁County	-16832
▁뺨	-16833
즈키	-16834
트릭	-16835
▁Le	-16836
▁개천	-16837
▁경이	-16838
▁경종	-16839
▁그제	-16840
▁동승	-16841
▁무술	-16842
▁에프	-16843
▁협소	-16844
▁황산	-16845
▁김주오	-16846
▁매거진	-16847
▁봉화군	-16848
▁성수기	-16849
▁어서다	-16850
▁합천군	-16851
걸스	-16852
테이	-16853
▁갈리	-16854
▁강과	-16855
▁갖출	-16856
▁밀레	-16857
▁석탑	-16858
▁세뇌	-16859
▁외인	-16860
▁자위	-16861
▁제언	-16862
▁축조	-16863
▁혈통	-16864
▁화단	-16865
▁적시타	-16866
운동연합	-16867
▁안타까워	-16868
▁z	-16869
구조	-16870
시온	-16871
▁가솔	-16872
▁건만	-16873
▁관전	-16874
▁동강	-16875
▁만취	-16876
▁맡겼	-16877
▁미역	-16878
▁받들	-16879
▁새기	-16880
▁성행	-16881
▁수축	-16882
▁신태	-16883
▁잠복	-16884
▁질책	-16885
▁칼라	-16886
▁평판	-16887
▁향년	-16888
▁VIP	-16889
▁구도심	-16890
▁양평군	-16891
▁유방암	-16892
▁평화상	-16893
▁1896	-16894
▁~~~~	-16895
▁사고방식	-16896
▁뽕	-16897
▁공민	-16898
▁도스	-16899
▁모국	-16900
▁무얼	-16901
▁별관	-16902
▁순창	-16903
▁슬퍼	-16904
▁온정	-16905
▁존치	-16906
▁차남	-16907
▁급속도	-16908
▁김진수	-16909
▁누군지	-16910
▁식생활	-16911
▁이랜드	-16912
▁제네바	-16913
▁조양호	-16914
▁트윈스	-16915
▁썩어빠진	-16916
▁불러일으키	-16917
여객	-16918
▁CM	-16919
▁IN	-16920
▁SH	-16921
▁교민	-16922
▁국감	-16923
▁김의	-16924
▁노가	-16925
▁달할	-16926
▁속내	-16927
▁엄한	-16928
▁열방	-16929
▁왕족	-16930
▁일축	-16931
▁조르	-16932
▁파파	-16933
▁경전철	-16934
▁넘어간	-16935
▁사상구	-16936
▁스토킹	-16937
▁주사기	-16938
▁출발점	-16939
▁프렌즈	-16940
▁마케도니아	-16941
92	-16942
▁行	-16943
난히	-16944
▁강철	-16945
▁공실	-16946
▁문희	-16947
▁산적	-16948
▁선후	-16949
▁아로	-16950
▁최전	-16951
▁한대	-16952
▁행한	-16953
▁부도덕	-16954
▁발렌시아	-16955
▁홉	-16956
레라	-16957
엑스	-16958
▁<<	-16959
▁BA	-16960
▁ᆞ이	-16961
▁다쳐	-16962
▁두서	-16963
▁방호	-16964
▁생후	-16965
▁소박	-16966
▁스톡	-16967
▁앞섰	-16968
▁어긴	-16969
▁예결	-16970
▁조민	-16971
▁증발	-16972
▁퇴각	-16973
▁강의실	-16974
▁밑거름	-16975
▁설득력	-16976
▁저탄소	-16977
▁조현우	-16978
축구협회	-16979
▁LX	-16980
▁가열	-16981
▁기흥	-16982
▁로우	-16983
▁뭉쳐	-16984
▁바그	-16985
▁불순	-16986
▁순진	-16987
▁어종	-16988
▁윤택	-16989
▁전유	-16990
▁공과금	-16991
▁군위군	-16992
▁다거나	-16993
▁베란다	-16994
▁베어스	-16995
▁삼거리	-16996
▁쓰러진	-16997
▁저기압	-16998
▁청량리	-16999
▁뾰	-17000
▁sk	-17001
▁두각	-17002
▁러시	-17003
▁명곡	-17004
▁박살	-17005
▁사납	-17006
▁서독	-17007
▁솜씨	-17008
▁주경	-17009
라이어	-17010
▁고독사	-17011
▁노원구	-17012
▁화웨이	-17013
▁보통학교	-17014
▁대한축구협회	-17015
번스	-17016
케인	-17017
테롤	-17018
▁LP	-17019
▁’.	-17020
▁겸손	-17021
▁경차	-17022
▁단다	-17023
▁마니	-17024
▁명지	-17025
▁무거	-17026
▁문해	-17027
▁복부	-17028
▁윤봉	-17029
▁자바	-17030
▁좌상	-17031
▁포대	-17032
▁호반	-17033
게이트	-17034
다하고	-17035
▁나와도	-17036
▁마피아	-17037
▁봉해졌	-17038
▁연장선	-17039
▁터뜨리	-17040
▁피렌체	-17041
▁휴가철	-17042
▁1904	-17043
▁부가가치세	-17044
▁김옥	-17045
▁깔려	-17046
▁백혈	-17047
▁복판	-17048
▁사서	-17049
▁시화	-17050
▁장부	-17051
▁적격	-17052
답시고	-17053
▁대행사	-17054
▁웨이브	-17055
▁진도군	-17056
▁체육공원	-17057
▁히데요시	-17058
▁敎	-17059
소스	-17060
▁구가	-17061
▁분장	-17062
▁산둥	-17063
▁센스	-17064
▁울음	-17065
▁자폐	-17066
▁차감	-17067
▁430	-17068
▁김종국	-17069
▁불감증	-17070
▁올리브	-17071
▁휴교령	-17072
▁멀다하고	-17073
▁재활용품	-17074
▁司	-17075
개골	-17076
쓰기	-17077
▁경실	-17078
▁별거	-17079
▁어부	-17080
▁의기	-17081
▁초저	-17082
tive	-17083
▁살아오	-17084
▁월등히	-17085
▁이글스	-17086
▁키보드	-17087
▁투르크	-17088
▁FINA	-17089
▁빠짐없이	-17090
▁지냈으며	-17091
▁참모총장	-17092
85	-17093
마켓	-17094
▁No	-17095
▁PO	-17096
▁경증	-17097
▁노드	-17098
▁단골	-17099
▁바빠	-17100
▁발트	-17101
▁비축	-17102
▁쓰러	-17103
▁외형	-17104
▁장석	-17105
▁최태	-17106
▁퇴적	-17107
▁그래미	-17108
▁청도군	-17109
▁송라이터	-17110
▁德	-17111
돌이	-17112
로이	-17113
▁개각	-17114
▁누비	-17115
▁동신	-17116
▁비만	-17117
▁지양	-17118
▁차차	-17119
▁프론	-17120
▁허점	-17121
▁극소수	-17122
▁대덕구	-17123
▁입마개	-17124
▁경제성장	-17125
▁플레이스	-17126
▁팸	-17127
금융	-17128
나래	-17129
LED	-17130
▁ᄍᄍ	-17131
▁가왕	-17132
▁루터	-17133
▁벌일	-17134
▁비결	-17135
▁트루	-17136
릅니까	-17137
▁나타낸	-17138
▁오거돈	-17139
▁브레이브	-17140
▁투기지역	-17141
▁일어납니다	-17142
95	-17143
aw	-17144
불성	-17145
정보	-17146
MCA	-17147
▁가부	-17148
▁강정	-17149
▁과격	-17150
▁단추	-17151
▁마칠	-17152
▁몸소	-17153
▁버금	-17154
▁볼까	-17155
▁비워	-17156
▁엄하	-17157
▁윤치	-17158
▁질까	-17159
▁차출	-17160
▁블랙홀	-17161
▁모른다고	-17162
ind	-17163
▁AK	-17164
▁갈래	-17165
▁리비	-17166
▁샌디	-17167
▁소란	-17168
▁오클	-17169
▁정렬	-17170
▁추돌	-17171
▁한겨	-17172
▁한태	-17173
▁흐지	-17174
▁관찰사	-17175
▁살펴볼	-17176
▁소고기	-17177
▁텀블러	-17178
▁상하수도	-17179
▁흐지부지	-17180
배상	-17181
▁ro	-17182
▁관망	-17183
▁대타	-17184
▁대패	-17185
▁셔요	-17186
▁영사	-17187
▁정몽	-17188
▁정희	-17189
▁중처	-17190
▁차용	-17191
▁창건	-17192
▁청과	-17193
▁통째	-17194
▁걸려서	-17195
▁김태우	-17196
▁다저스	-17197
▁미나미	-17198
▁부적격	-17199
▁북서부	-17200
▁애국자	-17201
▁여호와	-17202
제한구역	-17203
▁계신가요	-17204
▁제네시스	-17205
▁개발제한구역	-17206
HD	-17207
ax	-17208
▁릿	-17209
▁국교	-17210
▁끼워	-17211
▁다져	-17212
▁반말	-17213
▁산시	-17214
▁상봉	-17215
▁장윤	-17216
▁제방	-17217
▁학파	-17218
▁한몫	-17219
▁고발자	-17220
▁그래요	-17221
▁연기자	-17222
▁오바마	-17223
▁특허청	-17224
출혈	-17225
킨스	-17226
▁비석	-17227
▁선서	-17228
▁여쭤	-17229
▁오수	-17230
▁KCC	-17231
▁가솔린	-17232
▁개구리	-17233
▁거래처	-17234
▁난다고	-17235
▁상상력	-17236
▁원숭이	-17237
▁의료법	-17238
▁해봐도	-17239
▁대전광역시	-17240
▁헷	-17241
▁견과	-17242
▁깜깜	-17243
▁내고	-17244
▁누설	-17245
▁도축	-17246
▁망각	-17247
▁변국	-17248
▁봉지	-17249
▁신주	-17250
▁열전	-17251
▁인금	-17252
▁채점	-17253
▁720	-17254
▁WTO	-17255
▁내려지	-17256
▁다구요	-17257
▁이동해	-17258
▁이시종	-17259
▁자본금	-17260
레스테롤	-17261
▁所	-17262
▁生	-17263
장소	-17264
▁ᆞ부	-17265
▁교동	-17266
▁독제	-17267
▁법사	-17268
▁병기	-17269
▁스핀	-17270
▁어딜	-17271
▁직행	-17272
▁활개	-17273
▁540	-17274
▁560	-17275
▁Mar	-17276
▁Wor	-17277
▁개최지	-17278
▁경찰대	-17279
▁등록제	-17280
▁스위치	-17281
▁흩어져	-17282
눅스	-17283
부족	-17284
철주	-17285
▁꽃길	-17286
▁두부	-17287
▁막중	-17288
▁모스	-17289
▁수로	-17290
▁수하	-17291
▁이한	-17292
▁제창	-17293
▁청자	-17294
▁공고히	-17295
▁수의사	-17296
▁신기록	-17297
▁영유권	-17298
▁청사진	-17299
▁마구잡이	-17300
▁콜레스테롤	-17301
▁각료	-17302
▁브이	-17303
▁사악	-17304
▁에디	-17305
▁인양	-17306
▁친왕	-17307
▁판독	-17308
▁그려진	-17309
▁승합차	-17310
실험	-17311
▁몰지	-17312
▁무공	-17313
▁무심	-17314
▁쉬워	-17315
▁암울	-17316
▁이쪽	-17317
▁일벌	-17318
▁최승	-17319
▁카탈	-17320
▁포티	-17321
▁걸린다	-17322
▁높여야	-17323
▁담양군	-17324
▁리눅스	-17325
▁분기점	-17326
▁에드가	-17327
▁에스토	-17328
▁코끼리	-17329
▁극악무도	-17330
▁드라이버	-17331
▁리메이크	-17332
▁慶	-17333
▁뛸	-17334
▁뻘	-17335
부림	-17336
사실	-17337
어링	-17338
ide	-17339
▁무의	-17340
▁불사	-17341
▁서머	-17342
▁심경	-17343
▁암흑	-17344
▁엔젤	-17345
▁중수	-17346
▁징후	-17347
▁채울	-17348
▁해준	-17349
▁관람료	-17350
▁세무사	-17351
▁신가요	-17352
24	-17353
▁맷	-17354
인권	-17355
▁고영	-17356
▁낮출	-17357
▁사가	-17358
▁처치	-17359
▁최병	-17360
▁국방력	-17361
▁노점상	-17362
▁발라드	-17363
▁백두산	-17364
▁십자군	-17365
▁전반기	-17366
▁제천시	-17367
▁시베리아	-17368
▁信	-17369
경정	-17370
▁민의	-17371
▁반출	-17372
▁연가	-17373
▁염기	-17374
▁위니	-17375
▁종속	-17376
▁직진	-17377
▁책봉	-17378
▁평형	-17379
▁풍토	-17380
▁박지훈	-17381
▁콜라보	-17382
▁애틀랜타	-17383
▁同	-17384
▁쏴	-17385
차도	-17386
act	-17387
▁건널	-17388
▁군중	-17389
▁라구	-17390
▁미공	-17391
▁번뇌	-17392
▁북경	-17393
▁식대	-17394
▁억류	-17395
▁여간	-17396
▁옮길	-17397
▁위수	-17398
▁치닫	-17399
▁패하	-17400
▁독과점	-17401
▁박남춘	-17402
▁슈퍼맨	-17403
▁앞장섰	-17404
▁진통제	-17405
▁합격률	-17406
▁↑	-17407
▁퉁	-17408
나카	-17409
니치	-17410
▁대군	-17411
▁바늘	-17412
▁순교	-17413
▁앞쪽	-17414
▁양정	-17415
▁이학	-17416
▁일사	-17417
▁자그	-17418
▁초유	-17419
▁타깃	-17420
▁피츠	-17421
▁피치	-17422
▁리프트	-17423
▁알아볼	-17424
▁LPGA	-17425
▁에스토니아	-17426
공론	-17427
장난	-17428
▁Te	-17429
▁도의	-17430
▁렌트	-17431
▁리본	-17432
▁민초	-17433
▁엄지	-17434
▁왕세	-17435
▁일족	-17436
▁창시	-17437
▁느냐고	-17438
▁반대편	-17439
▁자치체	-17440
케이	-17441
ism	-17442
▁달력	-17443
▁따내	-17444
▁때렸	-17445
▁발포	-17446
▁생가	-17447
▁약값	-17448
▁오롯	-17449
▁저것	-17450
▁총영	-17451
지리아	-17452
▁310	-17453
▁부르크	-17454
▁킨텍스	-17455
에미리트	-17456
▁계십니까	-17457
▁길고양이	-17458
▁모자이크	-17459
▁나이지리아	-17460
RE	-17461
▁書	-17462
▁깁	-17463
▁딕	-17464
훈장	-17465
▁루카	-17466
▁리코	-17467
▁미라	-17468
▁바친	-17469
▁뱅킹	-17470
▁석회	-17471
▁은닉	-17472
▁제인	-17473
▁는커녕	-17474
▁왜냐면	-17475
▁외식업	-17476
▁원거리	-17477
▁나온다는	-17478
▁샌드위치	-17479
▁하이라이트	-17480
▁아랍에미리트	-17481
▁환경운동연합	-17482
민호	-17483
▁Bl	-17484
▁도봉	-17485
▁둬야	-17486
▁뒤쳐	-17487
▁블룸	-17488
▁시종	-17489
▁어뢰	-17490
▁졸라	-17491
▁출루	-17492
▁출항	-17493
자치시	-17494
▁박은성	-17495
▁여배우	-17496
▁평의회	-17497
▁피시방	-17498
▁보스니아	-17499
▁복원사업	-17500
▁컬럼비아	-17501
▁섣	-17502
결연	-17503
조류	-17504
▁ᆞ수	-17505
▁구명	-17506
▁만능	-17507
▁매듭	-17508
▁민경	-17509
▁반갑	-17510
▁소동	-17511
▁실에	-17512
▁원문	-17513
▁위화	-17514
▁좁혀	-17515
▁포고	-17516
철주야	-17517
▁군무원	-17518
▁나눠서	-17519
▁삼각형	-17520
▁지구촌	-17521
▁직격탄	-17522
경정예산	-17523
▁동떨어진	-17524
▁불철주야	-17525
▁자매결연	-17526
▁추가경정예산	-17527
87	-17528
▁鄭	-17529
▁경륜	-17530
▁과로	-17531
▁노린	-17532
▁문하	-17533
▁서도	-17534
▁안과	-17535
▁어필	-17536
▁진열	-17537
▁천도	-17538
▁하류	-17539
▁넘어지	-17540
▁사무처	-17541
▁소용없	-17542
▁아리스	-17543
▁온다고	-17544
are	-17545
▁BT	-17546
▁EM	-17547
▁무로	-17548
▁백승	-17549
▁선봉	-17550
▁선우	-17551
▁수완	-17552
▁원어	-17553
▁의아	-17554
▁인적	-17555
▁재회	-17556
▁포구	-17557
▁대용량	-17558
▁수령자	-17559
▁신중히	-17560
▁예컨대	-17561
▁밀어붙이	-17562
▁탁상공론	-17563
▁善	-17564
턴트	-17565
▁고공	-17566
▁구와	-17567
▁네오	-17568
▁디렉	-17569
▁리플	-17570
▁마포	-17571
▁번갈	-17572
▁스윙	-17573
▁와도	-17574
▁이문	-17575
▁장차	-17576
▁SRF	-17577
▁됍니다	-17578
▁바닷가	-17579
▁포장재	-17580
▁독립선언	-17581
▁바리스타	-17582
▁특별자치시	-17583
▁朝	-17584
▁河	-17585
도사	-17586
아요	-17587
영화	-17588
예프	-17589
평동	-17590
▁고국	-17591
▁고칠	-17592
▁보루	-17593
▁식탁	-17594
▁오찬	-17595
▁위크	-17596
▁자구	-17597
▁추계	-17598
▁필연	-17599
▁혜화	-17600
바구니	-17601
▁660	-17602
▁라는데	-17603
▁모르쇠	-17604
▁순찰차	-17605
▁신학기	-17606
▁제약사	-17607
▁부탁드려요	-17608
ont	-17609
▁Sc	-17610
▁굴욕	-17611
▁귀순	-17612
▁담수	-17613
▁도라	-17614
▁목돈	-17615
▁민망	-17616
▁시노	-17617
▁어색	-17618
▁재양	-17619
▁재화	-17620
▁접어	-17621
▁접점	-17622
▁트릭	-17623
▁평야	-17624
tter	-17625
▁농작업	-17626
▁뇌졸중	-17627
▁대표작	-17628
▁목숨걸	-17629
▁방글라	-17630
▁청원서	-17631
▁우루과이	-17632
▁윌리엄스	-17633
▁방글라데시	-17634
YP	-17635
제이	-17636
▁권순	-17637
▁뜯어	-17638
▁송이	-17639
▁완충	-17640
▁위정	-17641
▁잠자	-17642
▁중학	-17643
▁차비	-17644
▁충무	-17645
▁흘렀	-17646
▁몰아넣	-17647
▁무방비	-17648
▁속상하	-17649
▁스티브	-17650
▁양키스	-17651
▁카운터	-17652
▁프린터	-17653
▁훈련소	-17654
▁재보궐선거	-17655
▁松	-17656
▁野	-17657
▁씹	-17658
선열	-17659
▁%·	-17660
▁ᆞ전	-17661
▁구룡	-17662
▁부피	-17663
▁조남	-17664
▁포진	-17665
▁폭리	-17666
▁현종	-17667
▁힘쓸	-17668
자치도	-17669
▁광해군	-17670
▁동유럽	-17671
▁장본인	-17672
▁진에어	-17673
▁긋	-17674
정화	-17675
▁KL	-17676
▁볼트	-17677
▁아연	-17678
▁워드	-17679
▁첩보	-17680
▁체가	-17681
▁퍼즐	-17682
세데스	-17683
▁대대로	-17684
▁들어도	-17685
▁라운지	-17686
▁부정수	-17687
▁섬진강	-17688
▁전용도로	-17689
▁콘퍼런스	-17690
특별자치도	-17691
▁메르세데스	-17692
▁블라디미르	-17693
세기	-17694
현희	-17695
▁대미	-17696
▁반듯	-17697
▁윤성	-17698
▁출사	-17699
▁커브	-17700
▁토성	-17701
▁표류	-17702
▁학당	-17703
▁교황청	-17704
▁도메인	-17705
▁서두르	-17706
▁신다는	-17707
▁자료실	-17708
▁정치가	-17709
▁함평군	-17710
▁스페인어	-17711
ick	-17712
▁결격	-17713
▁공안	-17714
▁동년	-17715
▁련관	-17716
▁막연	-17717
▁미온	-17718
▁뾰족	-17719
▁섹스	-17720
▁일거	-17721
▁점자	-17722
▁중과	-17723
▁진척	-17724
▁통운	-17725
김없이	-17726
▁마리오	-17727
▁박지원	-17728
▁별자리	-17729
▁이태원	-17730
▁자기장	-17731
▁지름길	-17732
▁1915	-17733
▁YMCA	-17734
▁부양가족	-17735
▁찹	-17736
ram	-17737
▁괴리	-17738
▁교제	-17739
▁궁중	-17740
▁야자	-17741
▁열렬	-17742
▁일진	-17743
▁차로	-17744
▁커스	-17745
▁희소	-17746
슬란드	-17747
▁급식소	-17748
▁나랏일	-17749
▁대학가	-17750
▁중개업	-17751
▁중범죄	-17752
▁표창장	-17753
▁항공편	-17754
▁blog	-17755
▁인도주의	-17756
▁교통안전공단	-17757
ᆞ동	-17758
벤처	-17759
▁관서	-17760
▁대제	-17761
▁덩달	-17762
▁도급	-17763
▁명제	-17764
▁비잔	-17765
▁스콧	-17766
▁육종	-17767
▁조중	-17768
▁친수	-17769
▁폭우	-17770
▁라든지	-17771
▁민영화	-17772
▁중앙당	-17773
▁한국노총	-17774
▁아이슬란드	-17775
▁永	-17776
▁部	-17777
▁쿄	-17778
▁국물	-17779
▁날조	-17780
▁남측	-17781
▁대웅	-17782
▁불능	-17783
▁승패	-17784
▁식목	-17785
▁신예	-17786
▁아지	-17787
▁영령	-17788
▁원광	-17789
▁쿠키	-17790
▁학관	-17791
▁개찰구	-17792
▁청소기	-17793
▁brand	-17794
▁제주특별자치도	-17795
데기	-17796
▁두뇌	-17797
▁복역	-17798
▁성관	-17799
▁성문	-17800
▁손질	-17801
▁자력	-17802
▁내려왔	-17803
▁시그널	-17804
▁운전대	-17805
▁유망주	-17806
▁터뜨렸	-17807
▁핀테크	-17808
▁흘러나	-17809
▁플로리다주	-17810
86	-17811
▁쿡	-17812
모스	-17813
태평	-17814
orm	-17815
▁강기	-17816
▁견딜	-17817
▁공상	-17818
▁관로	-17819
▁국인	-17820
▁딜러	-17821
▁성군	-17822
▁제갈	-17823
▁주치	-17824
▁직관	-17825
▁친밀	-17826
▁펜션	-17827
불성설	-17828
▁290	-17829
▁새겨져	-17830
▁어촌계	-17831
▁원나라	-17832
▁한없이	-17833
▁상업시설	-17834
▁출렁다리	-17835
▁有	-17836
면제	-17837
▁나루	-17838
▁당파	-17839
▁딱딱	-17840
▁용감	-17841
▁우두	-17842
▁인방	-17843
▁퀴어	-17844
▁택하	-17845
▁하순	-17846
▁호우	-17847
▁훔친	-17848
▁경실련	-17849
▁기다릴	-17850
▁디비전	-17851
▁모욕죄	-17852
▁셔야죠	-17853
▁조연상	-17854
▁탄원서	-17855
▁튀어나	-17856
▁어불성설	-17857
▁유라시아	-17858
▁톈	-17859
시공	-17860
ome	-17861
▁다정	-17862
▁대천	-17863
▁드레	-17864
▁떡국	-17865
▁서리	-17866
▁어휘	-17867
▁연희	-17868
▁정청	-17869
▁제단	-17870
▁짜릿	-17871
▁청호	-17872
▁취수	-17873
▁친해	-17874
▁소방대	-17875
▁위자료	-17876
▁아카이브	-17877
▁연구개발	-17878
;;	-17879
▁강타	-17880
▁그친	-17881
▁바스	-17882
▁산행	-17883
▁순항	-17884
▁우발	-17885
▁체고	-17886
▁트림	-17887
▁항문	-17888
▁호서	-17889
그라드	-17890
0000	-17891
▁153	-17892
▁는가요	-17893
▁독립군	-17894
▁무제한	-17895
▁박나래	-17896
▁신사업	-17897
▁아세요	-17898
▁응시자	-17899
▁브라우저	-17900
▁우월주의	-17901
▁원한다면	-17902
▁몰래카메라	-17903
▁가명	-17904
▁값진	-17905
▁공습	-17906
▁군가	-17907
▁글러	-17908
▁단련	-17909
▁리프	-17910
▁부원	-17911
▁신칸	-17912
▁영흥	-17913
▁입비	-17914
▁저력	-17915
▁카메	-17916
▁풋볼	-17917
▁합숙	-17918
나가와	-17919
▁내실화	-17920
▁뇌출혈	-17921
▁대지진	-17922
▁배워야	-17923
▁불이익	-17924
▁스캔들	-17925
▁오인근	-17926
▁옹진군	-17927
▁요르단	-17928
▁진입로	-17929
▁책임져	-17930
▁축산업	-17931
▁1895	-17932
▁병역면제	-17933
▁스케이트	-17934
▁시킨다고	-17935
▁프로덕션	-17936
SC	-17937
사항	-17938
투어	-17939
▁구애	-17940
▁마카	-17941
▁매점	-17942
▁벼랑	-17943
▁분만	-17944
▁체벌	-17945
▁포터	-17946
▁혹독	-17947
▁가속기	-17948
▁두개골	-17949
▁복합체	-17950
▁인증서	-17951
▁준공식	-17952
▁휴게실	-17953
▁보인다고	-17954
▁렸	-17955
▁찻	-17956
디언	-17957
야구	-17958
총액	-17959
화학	-17960
▁IA	-17961
▁구태	-17962
▁동당	-17963
▁동로	-17964
▁맞출	-17965
▁발신	-17966
▁뿐이	-17967
▁양당	-17968
▁엑소	-17969
▁한족	-17970
▁허경	-17971
▁031	-17972
▁고마운	-17973
▁교수진	-17974
▁수용자	-17975
▁스케치	-17976
▁지켜본	-17977
▁하모니	-17978
▁손해배상	-17979
▁승부차기	-17980
▁시가총액	-17981
▁아주머니	-17982
▁스포츠센터	-17983
타카	-17984
▁LO	-17985
▁My	-17986
▁기쁜	-17987
▁니코	-17988
▁뒤흔	-17989
▁모던	-17990
▁밝기	-17991
▁연하	-17992
▁와라	-17993
▁와카	-17994
▁유환	-17995
▁헤라	-17996
▁황폐	-17997
학생회	-17998
ence	-17999
▁154	-18000
▁경계선	-18001
▁스터디	-18002
▁브라이언	-18003
27	-18004
▁門	-18005
▁뚱	-18006
▁쉰	-18007
국적	-18008
▁가쓰	-18009
▁근황	-18010
▁꺼지	-18011
▁도루	-18012
▁손주	-18013
▁애호	-18014
▁양립	-18015
▁최형	-18016
▁추심	-18017
▁커넥	-18018
▁케네	-18019
▁053	-18020
▁520	-18021
▁로페이	-18022
▁박찬호	-18023
▁배기량	-18024
▁청년회	-18025
▁1894	-18026
▁淸	-18027
▁츄	-18028
느니	-18029
혐오	-18030
혜진	-18031
효과	-18032
ins	-18033
▁sp	-18034
▁게양	-18035
▁권총	-18036
▁박범	-18037
▁세세	-18038
▁응징	-18039
▁천변	-18040
▁초당	-18041
▁치이	-18042
▁CGV	-18043
▁국내선	-18044
▁세워져	-18045
▁오승현	-18046
▁일반직	-18047
▁진나라	-18048
▁프로필	-18049
▁마이크로	-18050
▁총학생회	-18051
▁중앙아시아	-18052
▁광역자치단체	-18053
▁樂	-18054
▁뭣	-18055
▁퐁	-18056
각층	-18057
쓸이	-18058
▁')	-18059
▁IR	-18060
▁말단	-18061
▁정병	-18062
▁팔렸	-18063
▁패권	-18064
▁하급	-18065
▁헌장	-18066
바이벌	-18067
▁기울일	-18068
▁내정자	-18069
▁마사회	-18070
▁마음놓	-18071
▁문학관	-18072
▁브리지	-18073
▁사기죄	-18074
▁이뤄지도록	-18075
LS	-18076
생산	-18077
▁ᆞ외	-18078
▁대추	-18079
▁맹세	-18080
▁반인	-18081
▁백일	-18082
▁북면	-18083
▁송강	-18084
▁시바	-18085
▁십사	-18086
▁예절	-18087
▁위암	-18088
▁이북	-18089
▁일컬	-18090
▁후드	-18091
▁과학관	-18092
▁빈번히	-18093
▁쏟아졌	-18094
▁정해서	-18095
▁지나갈	-18096
▁각계각층	-18097
▁나선다고	-18098
▁女	-18099
자스	-18100
ens	-18101
▁Br	-18102
▁개점	-18103
▁구지	-18104
▁궁정	-18105
▁내준	-18106
▁매화	-18107
▁실재	-18108
▁요충	-18109
▁요크	-18110
▁일안	-18111
▁잡음	-18112
▁종용	-18113
▁직군	-18114
▁찔러	-18115
ance	-18116
▁달아났	-18117
▁들으며	-18118
▁위로금	-18119
▁일거리	-18120
▁한겨레	-18121
▁숙박업소	-18122
▁특별회계	-18123
▁*****	-18124
▁객관적으로	-18125
▁陽	-18126
문고	-18127
▁대합	-18128
▁미토	-18129
▁부러	-18130
▁살라	-18131
▁스쿠	-18132
▁시찰	-18133
▁어땠	-18134
▁유태	-18135
▁중생	-18136
▁패한	-18137
▁허태	-18138
레이크	-18139
퓰리즘	-18140
▁매스컴	-18141
▁싹쓸이	-18142
▁양식장	-18143
▁역부족	-18144
▁구석구석	-18145
▁시한폭탄	-18146
▁경부고속도로	-18147
드로	-18148
ann	-18149
▁is	-18150
▁각색	-18151
▁논밭	-18152
▁도주	-18153
▁로제	-18154
▁스텝	-18155
▁아날	-18156
▁오션	-18157
▁용소	-18158
▁자족	-18159
▁퇴비	-18160
▁투게	-18161
▁난개발	-18162
97	-18163
▁쑈	-18164
ile	-18165
▁TA	-18166
▁가릴	-18167
▁구획	-18168
▁동치	-18169
▁병변	-18170
▁선한	-18171
▁세간	-18172
▁수족	-18173
▁어획	-18174
▁웍스	-18175
▁참혹	-18176
▁평점	-18177
▁고금리	-18178
▁과학고	-18179
▁꼭대기	-18180
▁신칸센	-18181
▁윤봉길	-18182
▁자외선	-18183
▁적립금	-18184
▁휴스턴	-18185
▁나가사키	-18186
▁지하철역	-18187
그러	-18188
반찬	-18189
질러	-18190
터카	-18191
▁AF	-18192
▁HM	-18193
▁내딛	-18194
▁네여	-18195
▁다분	-18196
▁돌릴	-18197
▁때우	-18198
▁장영	-18199
▁피겨	-18200
프라노	-18201
▁GPS	-18202
▁서기관	-18203
▁집배원	-18204
▁찾아갔	-18205
▁홈구장	-18206
▁떨어져서	-18207
▁슈퍼마켓	-18208
▁스타크래프트	-18209
▁使	-18210
▁꺽	-18211
길이	-18212
사상	-18213
어사	-18214
치료	-18215
ond	-18216
▁MR	-18217
▁군기	-18218
▁미하	-18219
▁선적	-18220
▁안테	-18221
▁이언	-18222
▁이터	-18223
▁천정	-18224
▁해답	-18225
▁돌파구	-18226
▁몬스터	-18227
▁무이자	-18228
▁신경전	-18229
▁안보리	-18230
▁예선전	-18231
▁주세요	-18232
▁木	-18233
▁륙	-18234
심판	-18235
▁강습	-18236
▁도르	-18237
▁부턴	-18238
▁신명	-18239
▁오명	-18240
▁지녔	-18241
▁진군	-18242
▁처녀	-18243
▁팬덤	-18244
▁황실	-18245
▁휴학	-18246
▁흔드	-18247
게이머	-18248
▁USB	-18249
▁렌터카	-18250
▁투게더	-18251
▁핵실험	-18252
▁프로게이머	-18253
Pa	-18254
근히	-18255
저만	-18256
해하	-18257
▁담화	-18258
▁못함	-18259
▁양치	-18260
▁예하	-18261
▁중공	-18262
▁카디	-18263
▁건국대	-18264
▁남동부	-18265
▁밝혀져	-18266
▁지켜볼	-18267
▁八	-18268
비용	-18269
▁가단	-18270
▁나물	-18271
▁능선	-18272
▁마하	-18273
▁몹시	-18274
▁습도	-18275
▁야산	-18276
▁웃긴	-18277
▁전출	-18278
▁평원	-18279
▁학벌	-18280
▁혼다	-18281
▁흑백	-18282
다이라	-18283
▁226	-18284
▁양방향	-18285
▁예방법	-18286
▁이경규	-18287
▁입소문	-18288
▁지역상	-18289
▁취해야	-18290
▁이만저만	-18291
▁정당방위	-18292
▁줄어든다	-18293
98	-18294
▁그립	-18295
▁깊숙	-18296
▁당리	-18297
▁더비	-18298
▁도선	-18299
▁무증	-18300
▁속옷	-18301
▁아냐	-18302
▁왜구	-18303
▁일쑤	-18304
▁즐겼	-18305
▁쫒겨	-18306
▁화목	-18307
트리올	-18308
▁다가왔	-18309
▁따돌림	-18310
▁몬트리올	-18311
▁귤	-18312
▁췌	-18313
▁툰	-18314
ich	-18315
▁on	-18316
▁고신	-18317
▁듀얼	-18318
▁불릴	-18319
▁빚내	-18320
▁빼놓	-18321
▁숙성	-18322
▁장충	-18323
▁종가	-18324
▁테오	-18325
▁틈새	-18326
▁퓨처	-18327
▁You	-18328
▁남아공	-18329
▁넘겨진	-18330
▁담뱃값	-18331
▁모델링	-18332
▁비밀리	-18333
▁울주군	-18334
▁활기찬	-18335
▁對	-18336
▁心	-18337
▁相	-18338
모로	-18339
불위	-18340
▁Mo	-18341
▁여과	-18342
▁장정	-18343
▁전함	-18344
▁피신	-18345
▁합심	-18346
▁SKY	-18347
▁늘어놓	-18348
▁서부터	-18349
▁최문순	-18350
▁셔틀버스	-18351
▁하이패스	-18352
if	-18353
인명	-18354
틀리	-18355
포드	-18356
ord	-18357
▁BE	-18358
▁두터	-18359
▁망한	-18360
▁맞닿	-18361
▁분광	-18362
▁심할	-18363
▁양세	-18364
▁윤곽	-18365
▁읍내	-18366
▁전언	-18367
▁쳐들	-18368
▁필히	-18369
▁한문	-18370
▁화백	-18371
▁비무장	-18372
▁심상정	-18373
▁아랑곳	-18374
▁이토록	-18375
▁케네디	-18376
▁통신비	-18377
▁페이퍼	-18378
▁~~~~~	-18379
57	-18380
ata	-18381
▁고착	-18382
▁구걸	-18383
▁난관	-18384
▁누이	-18385
▁밥값	-18386
▁비우	-18387
▁입술	-18388
▁중령	-18389
▁초토	-18390
▁해전	-18391
▁헬멧	-18392
조리원	-18393
▁산화물	-18394
▁의존도	-18395
▁피해액	-18396
▁어떠세요	-18397
▁아카데미상	-18398
▁四	-18399
선스	-18400
제도	-18401
충돌	-18402
▁띈다	-18403
▁브릿	-18404
▁연회	-18405
▁전압	-18406
▁죄수	-18407
▁친형	-18408
▁타리	-18409
▁투옥	-18410
▁펑펑	-18411
▁228	-18412
▁곰팡이	-18413
▁만족감	-18414
▁심정지	-18415
▁외양간	-18416
▁판검사	-18417
▁확고히	-18418
▁황태자	-18419
▁쏙	-18420
남면	-18421
바겐	-18422
혀서	-18423
▁고루	-18424
▁곤두	-18425
▁닐슨	-18426
▁때린	-18427
▁매겨	-18428
▁반가	-18429
▁버림	-18430
▁여비	-18431
▁영회	-18432
▁일과	-18433
▁출세	-18434
▁행장	-18435
▁흉내	-18436
▁김종필	-18437
▁나타낼	-18438
▁낱낱이	-18439
▁시발점	-18440
▁키워야	-18441
서울청사	-18442
▁불러일으켰	-18443
56	-18444
교차	-18445
충분	-18446
▁결식	-18447
▁기정	-18448
▁독식	-18449
▁만두	-18450
▁매실	-18451
▁메우	-18452
▁불발	-18453
▁연어	-18454
▁연행	-18455
▁열광	-18456
▁유람	-18457
▁유실	-18458
▁조개	-18459
▁천식	-18460
▁143	-18461
▁망가지	-18462
▁탤런트	-18463
▁라이선스	-18464
▁러시아어	-18465
▁쇼트트랙	-18466
▁watch	-18467
▁国	-18468
▁時	-18469
세우	-18470
▁ᆞ대	-18471
▁길가	-18472
▁면직	-18473
▁물들	-18474
▁미화	-18475
▁사다	-18476
▁신접	-18477
▁실세	-18478
▁탄산	-18479
▁페인	-18480
▁풍수	-18481
▁001	-18482
▁III	-18483
▁무주군	-18484
▁상실감	-18485
▁수용체	-18486
▁원한다	-18487
▁재조명	-18488
▁PROD	-18489
▁와이번스	-18490
▁산후조리원	-18491
▁정부서울청사	-18492
96	-18493
▁後	-18494
마사	-18495
▁Cl	-18496
▁He	-18497
▁TC	-18498
▁가압	-18499
▁대림	-18500
▁메커	-18501
▁반품	-18502
▁부전	-18503
▁소공	-18504
▁애리	-18505
▁재상	-18506
▁키프	-18507
▁하태	-18508
▁갖춰야	-18509
▁대구대	-18510
▁유전체	-18511
▁의견서	-18512
▁이춘희	-18513
▁정선군	-18514
▁폭스바겐	-18515
백산	-18516
▁국론	-18517
▁기력	-18518
▁더워	-18519
▁말려	-18520
▁백서	-18521
▁부익	-18522
▁생동	-18523
▁센티	-18524
▁안도	-18525
▁열도	-18526
▁영제	-18527
▁축출	-18528
▁특채	-18529
▁팔려	-18530
캐스트	-18531
▁idx	-18532
▁도둑놈	-18533
▁아우구	-18534
▁지나간	-18535
▁지킴이	-18536
▁현대인	-18537
▁돌려보내	-18538
TI	-18539
▁の	-18540
모어	-18541
부대	-18542
▁MD	-18543
▁라임	-18544
▁버드	-18545
▁소령	-18546
▁소울	-18547
▁윌슨	-18548
▁티스	-18549
▁FDA	-18550
▁볼려고	-18551
▁적임자	-18552
▁어려워진	-18553
▁넋	-18554
▁쵸	-18555
각형	-18556
세츠	-18557
▁건들	-18558
▁내건	-18559
▁녹조	-18560
▁눈먼	-18561
▁돌출	-18562
▁마른	-18563
▁맞선	-18564
▁맞섰	-18565
▁보듬	-18566
▁비빔	-18567
▁안식	-18568
▁이코	-18569
▁이홍	-18570
▁제법	-18571
▁폄하	-18572
▁힘썼	-18573
▁고시원	-18574
▁무수히	-18575
▁박명수	-18576
▁보여서	-18577
▁귀기울여	-18578
▁메커니즘	-18579
사회	-18580
추진	-18581
튿날	-18582
ree	-18583
▁UC	-18584
▁건보	-18585
▁경무	-18586
▁끼쳐	-18587
▁란스	-18588
▁러스	-18589
▁매운	-18590
▁메모	-18591
▁모나	-18592
▁백미	-18593
▁불미	-18594
▁심했	-18595
▁액화	-18596
▁예식	-18597
▁존립	-18598
▁타로	-18599
▁행인	-18600
▁허영	-18601
라이더	-18602
추세츠	-18603
▁640	-18604
▁바나나	-18605
▁베이커	-18606
▁불명예	-18607
▁스위트	-18608
▁알아내	-18609
▁이튿날	-18610
인명사전	-18611
▁남성혐오	-18612
▁PRODU	-18613
▁매사추세츠	-18614
▁친일인명사전	-18615
큘럼	-18616
▁강단	-18617
▁계파	-18618
▁권오	-18619
▁김두	-18620
▁도사	-18621
▁미취	-18622
▁보해	-18623
▁사극	-18624
▁선불	-18625
▁의리	-18626
▁조부	-18627
▁총알	-18628
▁코코	-18629
▁하리	-18630
▁화질	-18631
▁감시단	-18632
▁갑시다	-18633
▁공급량	-18634
▁교육법	-18635
▁급식비	-18636
▁꼬라지	-18637
▁대나무	-18638
▁들여서	-18639
▁려다가	-18640
▁비상구	-18641
▁송악읍	-18642
▁중의원	-18643
▁하수관	-18644
▁희생양	-18645
테르부르크	-18646
28	-18647
▁쟈	-18648
브스	-18649
제리	-18650
▁ᄋᄋ	-18651
▁강박	-18652
▁동위	-18653
▁메스	-18654
▁본성	-18655
▁우여	-18656
▁유머	-18657
▁유체	-18658
▁정월	-18659
▁최원	-18660
▁호세	-18661
▁163	-18662
▁390	-18663
▁무교육	-18664
▁올라섰	-18665
▁인지라	-18666
▁커리큘럼	-18667
▁佛	-18668
미술	-18669
쪼록	-18670
츠키	-18671
탱크	-18672
ass	-18673
▁Be	-18674
▁강희	-18675
▁민물	-18676
▁박선	-18677
▁분개	-18678
▁전법	-18679
▁퇴거	-18680
edia	-18681
▁151	-18682
▁거느리	-18683
▁선거일	-18684
▁허태정	-18685
91	-18686
공격	-18687
더슨	-18688
afe	-18689
▁네스	-18690
▁보로	-18691
▁비누	-18692
▁술탄	-18693
▁열거	-18694
▁입항	-18695
▁전명	-18696
▁쫓아	-18697
▁천혜	-18698
▁타구	-18699
바이잔	-18700
▁BRT	-18701
▁당한다	-18702
▁발자국	-18703
▁부익부	-18704
▁의식주	-18705
▁해안가	-18706
▁둘러싸여	-18707
▁영등포구	-18708
▁!!!!!!!!!	-18709
▁ᄆ	-18710
▁깐	-18711
우옌	-18712
her	-18713
▁NY	-18714
▁감방	-18715
▁견적	-18716
▁과업	-18717
▁아치	-18718
▁암묵	-18719
▁이형	-18720
▁지라	-18721
▁질투	-18722
▁불거졌	-18723
▁아제르	-18724
▁이래도	-18725
▁최대치	-18726
▁끌어올렸	-18727
▁수학여행	-18728
▁포퓰리즘	-18729
▁아제르바이잔	-18730
▁싯	-18731
▁헥	-18732
▁마셔	-18733
▁미식	-18734
▁반증	-18735
▁방임	-18736
▁불린	-18737
▁외할	-18738
▁천막	-18739
▁치욕	-18740
▁튀르	-18741
▁ᆞ운영	-18742
▁밑바닥	-18743
▁부딪히	-18744
▁사은품	-18745
▁이라든지	-18746
▁엣	-18747
▁고단	-18748
▁께선	-18749
▁박하	-18750
▁병영	-18751
▁사슴	-18752
▁상동	-18753
▁조림	-18754
▁축전	-18755
▁타락	-18756
▁해적	-18757
정부지	-18758
,,,,	-18759
▁김하성	-18760
▁따른다	-18761
▁개탄스럽	-18762
▁천정부지	-18763
▁쎄	-18764
교사	-18765
린저	-18766
크라	-18767
푸스	-18768
▁결말	-18769
▁공설	-18770
▁너비	-18771
▁석조	-18772
▁수탈	-18773
▁우에	-18774
▁자초	-18775
▁자해	-18776
▁첼로	-18777
▁칭송	-18778
▁파종	-18779
▁팝업	-18780
▁훔치	-18781
태평양	-18782
▁뉘우치	-18783
▁등기부	-18784
▁위화감	-18785
▁으니깐	-18786
▁이제야	-18787
▁지켜봐	-18788
▁철원군	-18789
▁고사하고	-18790
▁아날로그	-18791
▁직업훈련	-18792
ys	-18793
구르	-18794
니카	-18795
ICE	-18796
▁SD	-18797
▁고하	-18798
▁과오	-18799
▁글루	-18800
▁기약	-18801
▁송시	-18802
▁악수	-18803
▁절규	-18804
▁TEU	-18805
▁가져갔	-18806
▁박지성	-18807
▁사이다	-18808
▁송나라	-18809
▁포도주	-18810
▁라트비아	-18811
▁베스트셀러	-18812
▁비닐하우스	-18813
▁꼰	-18814
▁랙	-18815
보고	-18816
진호	-18817
▁도교	-18818
▁동자	-18819
▁무드	-18820
▁상서	-18821
▁스며	-18822
▁어로	-18823
▁이여	-18824
▁장구	-18825
▁젊음	-18826
▁편차	-18827
▁거쳐서	-18828
▁관심없	-18829
▁대명사	-18830
▁두려운	-18831
▁상점가	-18832
▁이영자	-18833
▁임원진	-18834
▁졌으나	-18835
▁테일러	-18836
▁만든다고	-18837
▁환경정화	-18838
▁걍	-18839
가짐	-18840
고생	-18841
▁개진	-18842
▁김밥	-18843
▁모라	-18844
▁불태	-18845
▁상선	-18846
▁착안	-18847
▁밑반찬	-18848
▁운전석	-18849
▁이해도	-18850
▁주권자	-18851
▁추징금	-18852
▁농업용수	-18853
▁ᆞ소	-18854
▁가림	-18855
▁기말	-18856
▁난간	-18857
▁남길	-18858
▁말년	-18859
▁미모	-18860
▁사복	-18861
▁사춘	-18862
▁서른	-18863
▁오윤	-18864
▁요율	-18865
▁타개	-18866
▁헬리	-18867
▁나트륨	-18868
▁영양군	-18869
▁어린이재단	-18870
센스	-18871
▁굴착	-18872
▁나락	-18873
▁냐면	-18874
▁두어	-18875
▁모진	-18876
▁부연	-18877
▁토기	-18878
▁흥선	-18879
프레스	-18880
▁가파른	-18881
▁각별히	-18882
▁교과목	-18883
▁남해군	-18884
▁살균제	-18885
▁안내판	-18886
▁어느덧	-18887
▁유원지	-18888
▁정확도	-18889
▁총선거	-18890
▁충실하	-18891
▁1899	-18892
▁브레이브걸스	-18893
▁팻	-18894
▁햐	-18895
ood	-18896
▁ᆞ인	-18897
[...]
