<pad>	0
<unk>	0
<s>	0
</s>	0
▁t	-0
▁a	-1
he	-2
in	-3
re	-4
▁the	-5
on	-6
er	-7
▁s	-8
▁w	-9
at	-10
▁o	-11
en	-12
▁c	-13
ed	-14
an	-15
it	-16
or	-17
is	-18
▁b	-19
▁f	-20
ing	-21
es	-22
▁p	-23
▁an	-24
▁to	-25
ar	-26
ou	-27
al	-28
▁in	-29
▁of	-30
▁m	-31
▁h	-32
as	-33
▁and	-34
▁d	-35
ic	-36
le	-37
▁th	-38
om	-39
ion	-40
il	-41
▁T	-42
ent	-43
▁re	-44
▁n	-45
▁l	-46
id	-47
st	-48
ve	-49
ro	-50
▁S	-51
▁be	-52
▁e	-53
▁g	-54
ly	-55
▁A	-56
ac	-57
▁on	-58
ay	-59
ot	-60
ut	-61
ad	-62
▁,	-63
▁C	-64
am	-65
▁for	-66
▁I	-67
im	-68
▁he	-69
et	-70
ur	-71
ig	-72
ow	-73
▁that	-74
ol	-75
▁.	-76
▁M	-77
▁"	-78
ver	-79
▁is	-80
ec	-81
el	-82
▁st	-83
us	-84
un	-85
ir	-86
▁B	-87
ter	-88
▁The	-89
ith	-90
▁it	-91
▁y	-92
ation	-93
▁wh	-94
▁with	-95
▁was	-96
▁P	-97
▁as	-98
ill	-99
ce	-100
▁al	-101
ers	-102
▁H	-103
▁we	-104
▁W	-105
▁D	-106
ld	-107
ul	-108
▁at	-109
em	-110
ch	-111
▁R	-112
▁1	-113
▁con	-114
os	-115
▁F	-116
ri	-117
oun	-118
ag	-119
ct	-120
▁2	-121
ke	-122
▁r	-123
her	-124
pp	-125
▁N	-126
ts	-127
and	-128
ain	-129
ore	-130
▁com	-131
ate	-132
rom	-133
th	-134
▁pro	-135
um	-136
▁ha	-137
est	-138
ew	-139
if	-140
▁G	-141
igh	-142
▁L	-143
▁sa	-144
▁you	-145
op	-146
▁by	-147
res	-148
ear	-149
▁are	-150
▁v	-151
▁'	-152
▁from	-153
od	-154
▁his	-155
▁E	-156
ab	-157
▁ex	-158
oc	-159
ity	-160
▁J	-161
ment	-162
▁said	-163
ort	-164
▁sh	-165
ess	-166
▁have	-167
ive	-168
ould	-169
▁de	-170
red	-171
▁not	-172
art	-173
▁se	-174
▁O	-175
▁su	-176
▁(	-177
ist	-178
▁has	-179
▁ch	-180
ies	-181
▁or	-182
▁le	-183
all	-184
up	-185
ust	-186
se	-187
ack	-188
end	-189
qu	-190
▁pl	-191
ant	-192
▁this	-193
ap	-194
▁20	-195
ard	-196
▁U	-197
▁un	-198
ud	-199
our	-200
ast	-201
gh	-202
▁In	-203
out	-204
ak	-205
ight	-206
▁tr	-207
▁ab	-208
▁will	-209
ect	-210
ial	-211
iv	-212
▁j	-213
▁sp	-214
ost	-215
ren	-216
▁go	-217
ich	-218
ok	-219
ice	-220
ge	-221
▁K	-222
ide	-223
ber	-224
ome	-225
ell	-226
▁k	-227
▁=	-228
▁but	-229
▁wor	-230
ong	-231
▁whe	-232
▁her	-233
ound	-234
▁us	-235
ep	-236
ough	-237
ia	-238
00	-239
ff	-240
ans	-241
▁out	-242
▁had	-243
▁they	-244
▁int	-245
▁who	-246
,"	-247
▁up	-248
ame	-249
ated	-250
▁ad	-251
cc	-252
▁their	-253
▁all	-254
▁were	-255
ally	-256
▁St	-257
ther	-258
."	-259
ip	-260
▁ar	-261
▁off	-262
▁can	-263
▁comp	-264
▁@	-265
▁do	-266
ous	-267
ions	-268
ra	-269
ine	-270
ure	-271
▁Th	-272
▁which	-273
▁been	-274
ord	-275
age	-276
▁cl	-277
so	-278
one	-279
▁she	-280
ub	-281
▁ne	-282
▁ag	-283
ime	-284
ry	-285
▁res	-286
▁more	-287
▁cont	-288
▁year	-289
▁inc	-290
ue	-291
▁201	-292
ie	-293
og	-294
ign	-295
fter	-296
▁me	-297
act	-298
▁rep	-299
▁one	-300
▁about	-301
day	-302
ace	-303
▁Ch	-304
ake	-305
der	-306
ike	-307
▁new	-308
▁im	-309
▁exp	-310
▁would	-311
▁also	-312
ail	-313
▁its	-314
ary	-315
pt	-316
▁per	-317
iz	-318
ind	-319
own	-320
ian	-321
▁over	-322
▁en	-323
ile	-324
ire	-325
av	-326
▁so	-327
ook	-328
▁V	-329
mer	-330
▁man	-331
▁app	-332
very	-333
ass	-334
▁tw	-335
ite	-336
ks	-337
ress	-338
ose	-339
▁after	-340
ount	-341
ays	-342
orm	-343
▁An	-344
are	-345
able	-346
-@	-347
▁@-@	-348
ations	-349
▁ev	-350
▁dis	-351
▁fir	-352
▁rec	-353
▁3	-354
ase	-355
▁pe	-356
ident	-357
▁19	-358
oin	-359
▁sc	-360
▁other	-361
▁He	-362
▁Y	-363
ree	-364
▁part	-365
ib	-366
hed	-367
uc	-368
ll	-369
▁It	-370
ance	-371
ick	-372
ove	-373
▁when	-374
▁like	-375
ence	-376
▁than	-377
ark	-378
▁acc	-379
ens	-380
▁him	-381
ach	-382
▁time	-383
oll	-384
ond	-385
ople	-386
▁first	-387
▁gr	-388
▁bec	-389
▁into	-390
ish	-391
ical	-392
▁te	-393
ade	-394
ult	-395
ors	-396
▁ro	-397
lo	-398
ition	-399
lic	-400
▁kn	-401
aw	-402
▁some	-403
▁there	-404
▁them	-405
▁two	-406
▁qu	-407
vel	-408
reat	-409
▁pre	-410
▁ser	-411
▁people	-412
old	-413
uct	-414
▁work	-415
▁play	-416
▁your	-417
amp	-418
ning	-419
▁any	-420
te	-421
ang	-422
aus	-423
▁just	-424
ov	-425
▁what	-426
ory	-427
▁our	-428
vers	-429
rit	-430
▁att	-431
lect	-432
per	-433
ict	-434
▁pol	-435
▁get	-436
lud	-437
ates	-438
▁act	-439
▁imp	-440
wn	-441
ild	-442
ne	-443
form	-444
fe	-445
▁my	-446
▁could	-447
ious	-448
ings	-449
▁no	-450
▁if	-451
ft	-452
▁pr	-453
▁Un	-454
▁dec	-455
▁comm	-456
▁again	-457
▁back	-458
ons	-459
iss	-460
ents	-461
ater	-462
▁)	-463
▁inv	-464
▁4	-465
▁fe	-466
anc	-467
▁add	-468
rough	-469
ink	-470
▁includ	-471
we	-472
▁i	-473
man	-474
▁bet	-475
ug	-476
▁sec	-477
▁Tr	-478
rent	-479
uring	-480
▁5	-481
ek	-482
▁only	-483
ock	-484
▁–	-485
▁des	-486
▁—	-487
▁co	-488
urn	-489
ause	-490
▁how	-491
▁bl	-492
ased	-493
▁am	-494
▁did	-495
ob	-496
ting	-497
fore	-498
▁$	-499
..	-500
▁under	-501
▁now	-502
▁years	-503
tern	-504
hing	-505
▁New	-506
▁cons	-507
les	-508
ump	-509
▁As	-510
vern	-511
ason	-512
ted	-513
ied	-514
▁rem	-515
als	-516
ited	-517
▁supp	-518
▁last	-519
▁most	-520
ublic	-521
▁This	-522
▁Wh	-523
ational	-524
ement	-525
▁''	-526
▁-	-527
ved	-528
ward	-529
▁We	-530
enc	-531
oup	-532
▁em	-533
▁`	-534
▁mon	-535
▁ind	-536
▁``	-537
ood	-538
ating	-539
▁call	-540
arg	-541
aking	-542
ince	-543
▁report	-544
▁show	-545
▁reg	-546
hn	-547
▁look	-548
▁being	-549
▁through	-550
▁team	-551
▁down	-552
▁fin	-553
ues	-554
iew	-555
gr	-556
▁before	-557
row	-558
▁str	-559
The	-560
▁where	-561
ters	-562
▁br	-563
▁pres	-564
uch	-565
▁offic	-566
land	-567
▁count	-568
xt	-569
rib	-570
illion	-571
ath	-572
ise	-573
▁want	-574
oss	-575
▁ass	-576
▁ear	-577
ities	-578
ton	-579
▁made	-580
▁bu	-581
▁need	-582
rop	-583
▁make	-584
ful	-585
other	-586
vernment	-587
ual	-588
▁against	-589
oth	-590
▁know	-591
▁Al	-592
▁because	-593
any	-594
▁end	-595
ording	-596
▁while	-597
▁then	-598
▁even	-599
▁car	-600
ember	-601
▁But	-602
▁every	-603
hen	-604
ix	-605
▁min	-606
▁Ar	-607
▁Re	-608
ven	-609
▁rel	-610
000	-611
ollow	-612
▁ac	-613
ier	-614
ont	-615
▁bel	-616
oy	-617
ty	-618
▁say	-619
▁well	-620
tle	-621
▁6	-622
elf	-623
led	-624
▁And	-625
ily	-626
ange	-627
▁see	-628
gan	-629
▁lead	-630
▁cr	-631
▁ph	-632
ros	-633
▁sur	-634
▁sm	-635
▁Sp	-636
way	-637
▁may	-638
▁hel	-639
rest	-640
▁prod	-641
▁three	-642
▁long	-643
meric	-644
hip	-645
▁Le	-646
▁200	-647
ife	-648
▁government	-649
ork	-650
▁game	-651
ative	-652
ween	-653
▁during	-654
ank	-655
▁Sh	-656
▁told	-657
▁ent	-658
▁week	-659
▁set	-660
▁should	-661
ics	-662
▁rele	-663
▁ret	-664
und	-665
▁many	-666
▁own	-667
▁prov	-668
ool	-669
▁help	-670
ower	-671
▁sy	-672
▁op	-673
▁way	-674
▁fl	-675
com	-676
air	-677
erson	-678
io	-679
ered	-680
uss	-681
ific	-682
▁Com	-683
▁ke	-684
olog	-685
▁stud	-686
▁these	-687
▁between	-688
▁Americ	-689
oot	-690
ving	-691
▁Trump	-692
▁start	-693
velop	-694
au	-695
▁month	-696
ever	-697
ures	-698
ener	-699
▁Fr	-700
▁found	-701
ible	-702
▁sub	-703
ular	-704
ms	-705
▁sign	-706
ah	-707
▁high	-708
ames	-709
ments	-710
orts	-711
ouse	-712
atch	-713
ject	-714
▁7	-715
med	-716
▁resp	-717
▁very	-718
▁dif	-719
▁those	-720
▁num	-721
ced	-722
str	-723
▁def	-724
▁around	-725
ull	-726
irect	-727
ert	-728
▁such	-729
▁law	-730
▁10	-731
az	-732
▁Mar	-733
hes	-734
▁fil	-735
▁think	-736
cent	-737
▁use	-738
ision	-739
▁take	-740
▁don	-741
ave	-742
ner	-743
▁invest	-744
▁world	-745
ale	-746
ash	-747
▁going	-748
its	-749
▁On	-750
▁follow	-751
ility	-752
▁much	-753
ets	-754
▁trans	-755
▁ann	-756
▁still	-757
ared	-758
▁gu	-759
▁inter	-760
ady	-761
ax	-762
▁col	-763
▁disc	-764
▁spec	-765
▁cent	-766
▁med	-767
▁cour	-768
▁fam	-769
▁contin	-770
▁ins	-771
alk	-772
aj	-773
son	-774
imes	-775
▁since	-776
▁cap	-777
ists	-778
▁conf	-779
▁hand	-780
▁cur	-781
iel	-782
ices	-783
omet	-784
▁though	-785
ants	-786
▁run	-787
▁day	-788
▁fr	-789
▁head	-790
▁wom	-791
▁eff	-792
▁poin	-793
ather	-794
▁loc	-795
▁8	-796
ric	-797
▁develop	-798
ble	-799
▁group	-800
▁season	-801
▁sl	-802
,000	-803
▁good	-804
▁support	-805
stem	-806
▁dep	-807
▁elect	-808
▁For	-809
ral	-810
▁including	-811
▁Ind	-812
ines	-813
▁state	-814
ross	-815
▁Ad	-816
ys	-817
ually	-818
▁9	-819
▁right	-820
▁does	-821
▁det	-822
▁used	-823
▁next	-824
▁dr	-825
▁Cl	-826
ned	-827
▁US	-828
▁iss	-829
▁million	-830
▁both	-831
▁second	-832
▁En	-833
▁four	-834
▁ter	-835
▁says	-836
▁vot	-837
ution	-838
▁mark	-839
▁public	-840
ected	-841
▁Is	-842
▁aut	-843
▁leg	-844
▁war	-845
outh	-846
▁De	-847
▁here	-848
▁same	-849
▁open	-850
▁ext	-851
ying	-852
ives	-853
▁stat	-854
▁direct	-855
ivers	-856
rem	-857
▁company	-858
orn	-859
▁plan	-860
bers	-861
▁18	-862
▁serv	-863
▁official	-864
▁police	-865
▁char	-866
▁At	-867
▁prot	-868
▁cre	-869
ten	-870
ex	-871
▁ref	-872
ital	-873
▁ob	-874
view	-875
ox	-876
ina	-877
▁sim	-878
leg	-879
pl	-880
We	-881
ised	-882
ained	-883
▁Jo	-884
ik	-885
▁percent	-886
chool	-887
▁camp	-888
▁rece	-889
ages	-890
▁bus	-891
▁home	-892
▁pass	-893
▁news	-894
▁ask	-895
ces	-896
min	-897
ished	-898
▁Sc	-899
▁system	-900
ph	-901
orth	-902
rat	-903
erv	-904
▁inst	-905
▁You	-906
ired	-907
▁She	-908
▁Rep	-909
▁country	-910
br	-911
▁happ	-912
iness	-913
ars	-914
ody	-915
▁vide	-916
▁find	-917
ene	-918
▁post	-919
aim	-920
ized	-921
▁another	-922
pr	-923
▁person	-924
▁diffe	-925
▁mem	-926
▁near	-927
ck	-928
ins	-929
osed	-930
ret	-931
pped	-932
▁They	-933
▁requ	-934
ister	-935
▁mod	-936
alth	-937
▁conc	-938
▁belie	-939
▁child	-940
▁number	-941
▁great	-942
▁allow	-943
▁Bl	-944
line	-945
uck	-946
▁real	-947
▁somet	-948
con	-949
ience	-950
▁art	-951
▁How	-952
▁che	-953
▁bro	-954
ute	-955
riv	-956
get	-957
▁big	-958
▁according	-959
▁prev	-960
▁opp	-961
ern	-962
ling	-963
▁recent	-964
▁called	-965
▁If	-966
▁mov	-967
urs	-968
▁announ	-969
ism	-970
ense	-971
▁av	-972
▁commun	-973
ient	-974
▁lit	-975
▁put	-976
lear	-977
ights	-978
▁Z	-979
▁inf	-980
▁adv	-981
▁comple	-982
▁Br	-983
ger	-984
▁later	-985
wit	-986
uction	-987
▁come	-988
▁life	-989
▁top	-990
▁Pro	-991
ield	-992
▁United	-993
▁win	-994
akes	-995
▁far	-996
ird	-997
echn	-998
▁few	-999
ately	-1000
▁build	-1001
▁gener	-1002
▁exper	-1003
istr	-1004
▁inte	-1005
▁place	-1006
▁reported	-1007
▁best	-1008
▁met	-1009
cept	-1010
ects	-1011
▁poss	-1012
▁tri	-1013
inal	-1014
▁really	-1015
▁Can	-1016
▁air	-1017
▁incre	-1018
self	-1019
iet	-1020
▁Se	-1021
▁mil	-1022
▁attack	-1023
▁inform	-1024
ued	-1025
▁spe	-1026
ajor	-1027
▁mar	-1028
ially	-1029
▁Mon	-1030
ention	-1031
ness	-1032
ata	-1033
▁dri	-1034
▁prom	-1035
ains	-1036
els	-1037
mit	-1038
ober	-1039
til	-1040
),	-1041
▁dem	-1042
the	-1043
▁Pres	-1044
▁contro	-1045
▁Go	-1046
ided	-1047
riend	-1048
ured	-1049
cess	-1050
aff	-1051
▁each	-1052
▁too	-1053
▁cond	-1054
▁president	-1055
▁city	-1056
▁:	-1057
▁Be	-1058
ury	-1059
ission	-1060
▁won	-1061
hor	-1062
earch	-1063
▁feat	-1064
ves	-1065
augh	-1066
▁vis	-1067
▁expl	-1068
▁left	-1069
▁Q	-1070
▁Ph	-1071
▁care	-1072
▁bre	-1073
▁12	-1074
▁Min	-1075
▁There	-1076
▁That	-1077
▁claim	-1078
year	-1079
▁record	-1080
ney	-1081
yp	-1082
ically	-1083
▁turn	-1084
esp	-1085
▁pop	-1086
▁la	-1087
gram	-1088
▁video	-1089
ley	-1090
▁polit	-1091
▁main	-1092
▁took	-1093
▁let	-1094
▁got	-1095
▁May	-1096
▁Chr	-1097
▁beh	-1098
iving	-1099
▁oper	-1100
▁del	-1101
▁Mr	-1102
▁Pl	-1103
▁pay	-1104
▁[	-1105
▁lot	-1106
▁power	-1107
▁former	-1108
▁never	-1109
▁?	-1110
ived	-1111
▁current	-1112
▁family	-1113
▁stand	-1114
iver	-1115
▁move	-1116
).	-1117
ency	-1118
▁par	-1119
▁deal	-1120
be	-1121
▁pos	-1122
▁red	-1123
thing	-1124
▁soc	-1125
▁bo	-1126
▁President	-1127
▁kill	-1128
▁Dem	-1129
▁;	-1130
▁without	-1131
▁ed	-1132
▁until	-1133
▁different	-1134
▁design	-1135
aining	-1136
ode	-1137
ering	-1138
▁Gr	-1139
▁cor	-1140
▁investig	-1141
▁Mc	-1142
▁15	-1143
▁sever	-1144
gg	-1145
ize	-1146
aign	-1147
oney	-1148
▁school	-1149
▁fac	-1150
▁partic	-1151
ready	-1152
atur	-1153
▁business	-1154
▁fact	-1155
ional	-1156
loy	-1157
▁list	-1158
iam	-1159
▁Pr	-1160
▁John	-1161
▁days	-1162
It	-1163
▁2018	-1164
▁Pol	-1165
▁case	-1166
ology	-1167
▁ve	-1168
▁hard	-1169
▁major	-1170
ocrat	-1171
▁several	-1172
▁2015	-1173
arge	-1174
less	-1175
gy	-1176
▁something	-1177
ept	-1178
▁quest	-1179
nes	-1180
ane	-1181
▁mus	-1182
▁techn	-1183
to	-1184
▁Russ	-1185
▁appro	-1186
▁already	-1187
▁Am	-1188
▁five	-1189
▁keep	-1190
▁added	-1191
▁American	-1192
une	-1193
iversity	-1194
▁Eu	-1195
co	-1196
bs	-1197
ior	-1198
▁sit	-1199
▁along	-1200
▁writ	-1201
▁away	-1202
reen	-1203
▁mat	-1204
▁campaign	-1205
▁All	-1206
▁film	-1207
▁import	-1208
▁able	-1209
rence	-1210
▁came	-1211
▁perform	-1212
▁series	-1213
▁interest	-1214
▁hop	-1215
uary	-1216
20	-1217
▁market	-1218
urity	-1219
rap	-1220
▁event	-1221
iday	-1222
▁form	-1223
ched	-1224
conom	-1225
ries	-1226
▁hum	-1227
▁Car	-1228
▁Con	-1229
▁appear	-1230
crib	-1231
▁After	-1232
▁meet	-1233
▁organ	-1234
▁Aust	-1235
ott	-1236
▁small	-1237
ech	-1238
▁11	-1239
let	-1240
▁Oct	-1241
▁est	-1242
app	-1243
eral	-1244
▁past	-1245
ccess	-1246
▁might	-1247
aken	-1248
ection	-1249
artment	-1250
▁return	-1251
ague	-1252
▁information	-1253
used	-1254
ison	-1255
▁hist	-1256
cl	-1257
▁using	-1258
▁grow	-1259
▁program	-1260
▁aff	-1261
▁early	-1262
▁little	-1263
ways	-1264
ium	-1265
ecut	-1266
▁women	-1267
ards	-1268
▁making	-1269
▁released	-1270
▁better	-1271
▁process	-1272
▁el	-1273
ony	-1274
▁So	-1275
ands	-1276
▁things	-1277
ief	-1278
▁Democrat	-1279
side	-1280
▁feel	-1281
ended	-1282
iting	-1283
▁bat	-1284
▁Dec	-1285
▁night	-1286
▁crit	-1287
ading	-1288
▁Europ	-1289
▁sol	-1290
eng	-1291
ann	-1292
alf	-1293
▁Col	-1294
ians	-1295
ising	-1296
by	-1297
witter	-1298
▁old	-1299
ending	-1300
uly	-1301
▁sing	-1302
▁free	-1303
▁intern	-1304
ator	-1305
▁known	-1306
▁seem	-1307
▁change	-1308
▁level	-1309
ee	-1310
▁rest	-1311
port	-1312
▁members	-1313
▁sent	-1314
ract	-1315
ron	-1316
ified	-1317
▁data	-1318
▁sk	-1319
▁across	-1320
▁games	-1321
▁Europe	-1322
▁prof	-1323
▁Sun	-1324
▁dist	-1325
▁manag	-1326
▁large	-1327
▁today	-1328
ably	-1329
▁full	-1330
▁men	-1331
...	-1332
icle	-1333
ald	-1334
▁media	-1335
aring	-1336
▁One	-1337
urch	-1338
▁cost	-1339
▁199	-1340
▁fund	-1341
▁months	-1342
▁When	-1343
▁asked	-1344
▁join	-1345
ball	-1346
▁court	-1347
▁Sy	-1348
raft	-1349
ubl	-1350
iven	-1351
▁eas	-1352
▁chang	-1353
▁six	-1354
▁less	-1355
ider	-1356
▁X	-1357
▁hour	-1358
▁Sen	-1359
▁Brit	-1360
sh	-1361
▁friend	-1362
ases	-1363
▁following	-1364
▁However	-1365
▁story	-1366
▁seen	-1367
orld	-1368
▁working	-1369
ides	-1370
ream	-1371
▁Republic	-1372
▁Or	-1373
▁fore	-1374
▁Co	-1375
book	-1376
▁York	-1377
iously	-1378
gin	-1379
▁econom	-1380
acy	-1381
lier	-1382
▁orig	-1383
▁press	-1384
iol	-1385
▁money	-1386
▁statement	-1387
▁ide	-1388
▁area	-1389
▁avail	-1390
ster	-1391
▁line	-1392
▁charac	-1393
itc	-1394
▁Acc	-1395
ones	-1396
▁point	-1397
▁proble	-1398
▁Canad	-1399
Th	-1400
▁Im	-1401
▁view	-1402
▁local	-1403
▁deb	-1404
▁dev	-1405
▁30	-1406
▁Sept	-1407
▁why	-1408
ertain	-1409
▁mid	-1410
▁announced	-1411
▁$1	-1412
ened	-1413
vert	-1414
▁laun	-1415
.@	-1416
ored	-1417
▁@.@	-1418
▁eng	-1419
▁least	-1420
▁House	-1421
uture	-1422
▁States	-1423
rew	-1424
▁pat	-1425
▁success	-1426
▁Cent	-1427
▁invol	-1428
▁Ed	-1429
▁pa	-1430
▁project	-1431
▁test	-1432
ots	-1433
▁With	-1434
▁death	-1435
▁emp	-1436
▁author	-1437
▁order	-1438
ama	-1439
ged	-1440
▁went	-1441
▁give	-1442
▁alleg	-1443
▁health	-1444
urther	-1445
▁Ex	-1446
▁water	-1447
▁Fl	-1448
▁sex	-1449
▁vict	-1450
▁name	-1451
oung	-1452
▁ra	-1453
▁children	-1454
▁Christ	-1455
▁cust	-1456
▁clear	-1457
▁class	-1458
▁News	-1459
▁having	-1460
ai	-1461
▁job	-1462
▁Eng	-1463
▁Monday	-1464
▁prop	-1465
▁short	-1466
▁Comm	-1467
▁Friday	-1468
▁South	-1469
▁16	-1470
▁fun	-1471
▁17	-1472
▁tell	-1473
▁State	-1474
lin	-1475
▁become	-1476
▁War	-1477
ead	-1478
,@	-1479
▁@,@	-1480
ales	-1481
▁po	-1482
enn	-1483
▁available	-1484
▁var	-1485
ats	-1486
▁players	-1487
ush	-1488
igr	-1489
▁book	-1490
▁release	-1491
BC	-1492
▁val	-1493
usp	-1494
erman	-1495
▁vers	-1496
▁Austral	-1497
▁didn	-1498
▁important	-1499
▁hold	-1500
▁...	-1501
mber	-1502
▁City	-1503
▁times	-1504
amed	-1505
ana	-1506
▁0	-1507
▁product	-1508
▁No	-1509
work	-1510
▁polic	-1511
wards	-1512
▁October	-1513
▁World	-1514
emp	-1515
▁saying	-1516
▁future	-1517
▁side	-1518
▁among	-1519
ovember	-1520
▁party	-1521
▁always	-1522
▁milit	-1523
▁North	-1524
reet	-1525
▁pot	-1526
▁Don	-1527
▁addition	-1528
uesday	-1529
my	-1530
▁within	-1531
iqu	-1532
▁talk	-1533
▁due	-1534
▁close	-1535
▁service	-1536
oci	-1537
▁Aug	-1538
▁Tuesday	-1539
▁According	-1540
▁viol	-1541
ption	-1542
▁occ	-1543
▁App	-1544
▁community	-1545
though	-1546
▁taken	-1547
▁ep	-1548
▁November	-1549
▁foot	-1550
▁13	-1551
▁While	-1552
▁third	-1553
most	-1554
▁Har	-1555
▁commit	-1556
▁Dep	-1557
▁ever	-1558
▁result	-1559
▁To	-1560
".	-1561
ances	-1562
▁Cal	-1563
▁must	-1564
ederal	-1565
irl	-1566
▁ey	-1567
▁face	-1568
▁University	-1569
▁charg	-1570
▁miss	-1571
here	-1572
▁enough	-1573
osp	-1574
▁coun	-1575
ories	-1576
▁Wed	-1577
▁thought	-1578
▁14	-1579
▁land	-1580
ortun	-1581
ective	-1582
▁sugg	-1583
▁Jan	-1584
▁susp	-1585
▁ant	-1586
50	-1587
▁agre	-1588
▁sure	-1589
▁July	-1590
▁activ	-1591
▁likely	-1592
▁September	-1593
stand	-1594
▁tax	-1595
▁Man	-1596
itions	-1597
ilar	-1598
rod	-1599
▁mor	-1600
for	-1601
▁control	-1602
▁phot	-1603
▁song	-1604
▁hit	-1605
▁yet	-1606
stit	-1607
▁China	-1608
▁strong	-1609
▁based	-1610
nesday	-1611
ham	-1612
ality	-1613
rown	-1614
▁decision	-1615
▁fire	-1616
▁exc	-1617
▁love	-1618
ization	-1619
▁woman	-1620
▁whether	-1621
▁final	-1622
▁Wednesday	-1623
▁June	-1624
▁fight	-1625
ware	-1626
▁Ass	-1627
▁inj	-1628
▁rul	-1629
ential	-1630
▁Face	-1631
▁Twitter	-1632
uced	-1633
idence	-1634
▁priv	-1635
▁Sec	-1636
▁equ	-1637
rote	-1638
▁given	-1639
int	-1640
▁--	-1641
▁began	-1642
eal	-1643
ursday	-1644
▁security	-1645
▁indust	-1646
▁social	-1647
▁Ge	-1648
-1	-1649
tal	-1650
uce	-1651
▁started	-1652
▁sour	-1653
▁Thursday	-1654
back	-1655
▁thing	-1656
▁typ	-1657
ails	-1658
▁block	-1659
oon	-1660
▁capt	-1661
▁political	-1662
▁officials	-1663
▁hig	-1664
▁further	-1665
▁lat	-1666
hers	-1667
▁sum	-1668
▁National	-1669
▁behind	-1670
▁wrote	-1671
inc	-1672
resent	-1673
▁Bar	-1674
▁read	-1675
utes	-1676
▁looking	-1677
ashing	-1678
▁ident	-1679
▁low	-1680
▁publ	-1681
aced	-1682
ference	-1683
ators	-1684
▁once	-1685
ror	-1686
itive	-1687
rypt	-1688
▁net	-1689
▁access	-1690
▁half	-1691
cy	-1692
▁Facebook	-1693
▁special	-1694
ensive	-1695
▁wanted	-1696
▁bas	-1697
▁ce	-1698
▁gun	-1699
▁Sa	-1700
reme	-1701
▁live	-1702
▁confir	-1703
▁office	-1704
elt	-1705
▁Cour	-1706
raw	-1707
▁compet	-1708
▁custom	-1709
▁impro	-1710
gress	-1711
▁Gu	-1712
▁issue	-1713
▁employ	-1714
▁held	-1715
ring	-1716
ests	-1717
▁gl	-1718
▁sw	-1719
▁Dav	-1720
empt	-1721
▁Sup	-1722
▁received	-1723
ached	-1724
▁comes	-1725
gether	-1726
▁possible	-1727
▁together	-1728
▁body	-1729
▁mom	-1730
▁December	-1731
imate	-1732
ature	-1733
ps	-1734
▁national	-1735
▁/	-1736
▁lo	-1737
▁house	-1738
▁bring	-1739
▁done	-1740
hern	-1741
▁Count	-1742
▁2016	-1743
▁star	-1744
▁Dr	-1745
▁August	-1746
▁lear	-1747
▁became	-1748
▁wa	-1749
▁taking	-1750
▁ago	-1751
ds	-1752
aster	-1753
▁cut	-1754
ulation	-1755
▁music	-1756
▁describ	-1757
▁fail	-1758
▁young	-1759
ler	-1760
▁earlier	-1761
▁lim	-1762
iber	-1763
▁human	-1764
ried	-1765
ung	-1766
ows	-1767
▁Par	-1768
▁arrest	-1769
oice	-1770
verage	-1771
ef	-1772
eks	-1773
▁ple	-1774
▁doing	-1775
▁doesn	-1776
▁Mus	-1777
▁Ab	-1778
ograp	-1779
▁German	-1780
▁2014	-1781
ither	-1782
▁mean	-1783
▁track	-1784
▁Me	-1785
▁compan	-1786
▁coming	-1787
bal	-1788
▁getting	-1789
head	-1790
▁club	-1791
sel	-1792
▁West	-1793
sp	-1794
arm	-1795
▁threat	-1796
▁Just	-1797
▁foc	-1798
ourn	-1799
iron	-1800
order	-1801
▁init	-1802
▁wr	-1803
▁kind	-1804
ape	-1805
▁light	-1806
▁Te	-1807
▁What	-1808
▁complete	-1809
▁simp	-1810
▁trying	-1811
▁Em	-1812
▁front	-1813
▁billion	-1814
aps	-1815
tt	-1816
▁reve	-1817
▁By	-1818
ounds	-1819
pping	-1820
▁believe	-1821
▁often	-1822
▁question	-1823
▁creat	-1824
uff	-1825
▁fall	-1826
ination	-1827
par	-1828
▁single	-1829
▁present	-1830
▁history	-1831
att	-1832
aut	-1833
ilt	-1834
fic	-1835
▁expected	-1836
▁Court	-1837
▁cand	-1838
▁Ir	-1839
▁dam	-1840
▁25	-1841
▁led	-1842
▁tra	-1843
▁Sunday	-1844
apan	-1845
▁Off	-1846
ults	-1847
▁played	-1848
fer	-1849
▁Af	-1850
▁weeks	-1851
▁Mich	-1852
▁repl	-1853
▁similar	-1854
ops	-1855
▁fav	-1856
▁development	-1857
ument	-1858
ips	-1859
umb	-1860
go	-1861
uge	-1862
▁100	-1863
▁actually	-1864
▁Fe	-1865
▁Ne	-1866
▁Will	-1867
off	-1868
▁continue	-1869
▁quick	-1870
▁others	-1871
▁mult	-1872
▁hours	-1873
▁include	-1874
▁Police	-1875
aper	-1876
▁bill	-1877
▁epis	-1878
▁late	-1879
iety	-1880
▁building	-1881
▁black	-1882
▁non	-1883
▁study	-1884
▁almost	-1885
▁player	-1886
▁role	-1887
▁course	-1888
hy	-1889
RE	-1890
ery	-1891
▁military	-1892
▁caus	-1893
▁Cr	-1894
▁America	-1895
▁interview	-1896
uit	-1897
▁ban	-1898
▁companies	-1899
irc	-1900
▁certain	-1901
▁however	-1902
▁below	-1903
▁Japan	-1904
aged	-1905
▁upd	-1906
▁ren	-1907
▁discuss	-1908
▁Ro	-1909
▁host	-1910
▁larg	-1911
▁proper	-1912
ivid	-1913
iod	-1914
▁points	-1915
▁election	-1916
▁Pa	-1917
▁tit	-1918
▁forward	-1919
ashington	-1920
udi	-1921
lev	-1922
▁provide	-1923
bum	-1924
▁conn	-1925
▁198	-1926
▁food	-1927
▁vote	-1928
aly	-1929
▁24	-1930
of	-1931
▁ap	-1932
▁room	-1933
▁bit	-1934
ming	-1935
▁review	-1936
▁Ear	-1937
ades	-1938
ogle	-1939
▁experience	-1940
ids	-1941
▁comment	-1942
▁collect	-1943
▁Washington	-1944
▁reports	-1945
▁Res	-1946
▁site	-1947
▁India	-1948
aturday	-1949
▁spok	-1950
▁ris	-1951
lish	-1952
amer	-1953
▁soon	-1954
asing	-1955
▁step	-1956
overed	-1957
▁suggest	-1958
▁His	-1959
▁ball	-1960
ently	-1961
▁particular	-1962
▁fre	-1963
▁Red	-1964
▁legal	-1965
▁services	-1966
▁mess	-1967
▁leaders	-1968
▁begin	-1969
▁Department	-1970
▁countries	-1971
▁action	-1972
▁January	-1973
uel	-1974
▁targ	-1975
▁arg	-1976
ability	-1977
▁chall	-1978
▁himself	-1979
▁character	-1980
▁federal	-1981
▁Saturday	-1982
▁candid	-1983
▁Ste	-1984
▁County	-1985
▁prob	-1986
ij	-1987
den	-1988
▁entire	-1989
yn	-1990
▁represent	-1991
▁Cong	-1992
▁Minister	-1993
bo	-1994
▁recently	-1995
▁ste	-1996
▁Med	-1997
iding	-1998
▁makes	-1999
▁watch	-2000
▁webs	-2001
▁anim	-2002
aker	-2003
▁road	-2004
▁means	-2005
▁saw	-2006
▁pract	-2007
▁killed	-2008
medi	-2009
ressed	-2010
cil	-2011
aces	-2012
lex	-2013
▁21	-2014
oke	-2015
ences	-2016
▁British	-2017
▁position	-2018
▁wind	-2019
rael	-2020
ender	-2021
▁plans	-2022
▁morning	-2023
▁version	-2024
ournal	-2025
30	-2026
itor	-2027
▁bar	-2028
▁trad	-2029
▁stri	-2030
▁Not	-2031
yr	-2032
▁El	-2033
▁glo	-2034
▁rights	-2035
▁More	-2036
▁users	-2037
▁account	-2038
▁cann	-2039
▁lost	-2040
▁period	-2041
na	-2042
▁research	-2043
▁coup	-2044
▁comb	-2045
▁pick	-2046
▁50	-2047
oud	-2048
ault	-2049
▁attempt	-2050
ches	-2051
▁shoot	-2052
▁staff	-2053
▁port	-2054
▁online	-2055
arter	-2056
ction	-2057
▁super	-2058
▁technology	-2059
pril	-2060
▁issues	-2061
wh	-2062
▁Intern	-2063
ample	-2064
sc	-2065
▁Google	-2066
▁album	-2067
uation	-2068
▁students	-2069
▁total	-2070
▁shows	-2071
▁poll	-2072
ribut	-2073
▁stop	-2074
▁bene	-2075
▁conv	-2076
AT	-2077
▁sold	-2078
▁hom	-2079
▁March	-2080
▁signific	-2081
isc	-2082
▁Part	-2083
▁Che	-2084
▁reveal	-2085
▁fig	-2086
▁enc	-2087
▁reason	-2088
▁hope	-2089
▁April	-2090
▁space	-2091
ners	-2092
▁investigation	-2093
▁z	-2094
▁incident	-2095
▁plat	-2096
▁outside	-2097
▁field	-2098
▁relations	-2099
▁infl	-2100
▁crypt	-2101
▁latest	-2102
▁girl	-2103
avy	-2104
▁stay	-2105
▁Ke	-2106
▁industry	-2107
▁walk	-2108
viron	-2109
▁doc	-2110
▁anything	-2111
▁idea	-2112
▁jud	-2113
▁Sm	-2114
▁financ	-2115
▁veh	-2116
▁break	-2117
▁admin	-2118
ule	-2119
itcoin	-2120
▁treat	-2121
▁Israel	-2122
▁mass	-2123
▁key	-2124
▁dest	-2125
▁imm	-2126
▁neg	-2127
ugg	-2128
▁currently	-2129
.5	-2130
▁fans	-2131
▁opt	-2132
▁minutes	-2133
This	-2134
tee	-2135
▁flo	-2136
ask	-2137
▁running	-2138
abor	-2139
▁mot	-2140
dle	-2141
▁cop	-2142
▁Pe	-2143
▁understand	-2144
▁policy	-2145
▁2013	-2146
▁UK	-2147
▁sen	-2148
istration	-2149
ening	-2150
▁meeting	-2151
yl	-2152
ify	-2153
ined	-2154
▁opportun	-2155
reg	-2156
▁suff	-2157
ael	-2158
ili	-2159
▁Park	-2160
▁included	-2161
vertis	-2162
▁dou	-2163
▁content	-2164
▁Calif	-2165
over	-2166
▁shot	-2167
aur	-2168
istrict	-2169
ibility	-2170
me	-2171
▁individ	-2172
▁meas	-2173
▁profess	-2174
▁2019	-2175
▁Canada	-2176
▁White	-2177
ER	-2178
▁problem	-2179
▁dead	-2180
▁Geor	-2181
▁playing	-2182
▁popular	-2183
urg	-2184
▁pri	-2185
▁published	-2186
alt	-2187
In	-2188
▁mind	-2189
AS	-2190
▁director	-2191
bor	-2192
▁sell	-2193
▁Congress	-2194
▁match	-2195
▁original	-2196
read	-2197
ese	-2198
▁significant	-2199
▁someone	-2200
▁gave	-2201
fully	-2202
▁general	-2203
▁bad	-2204
iec	-2205
▁pain	-2206
▁respons	-2207
▁mag	-2208
▁states	-2209
atic	-2210
▁Ob	-2211
ecutive	-2212
▁ord	-2213
▁er	-2214
▁respond	-2215
▁2017	-2216
▁share	-2217
▁King	-2218
▁alleged	-2219
▁continued	-2220
ams	-2221
▁laws	-2222
time	-2223
▁Cor	-2224
▁store	-2225
▁via	-2226
cast	-2227
▁vol	-2228
▁matter	-2229
▁inside	-2230
ondon	-2231
▁League	-2232
key	-2233
aving	-2234
▁image	-2235
▁Now	-2236
▁white	-2237
▁San	-2238
ural	-2239
▁immedi	-2240
use	-2241
▁compl	-2242
▁Ang	-2243
osing	-2244
ico	-2245
▁member	-2246
▁international	-2247
▁Sw	-2248
▁mother	-2249
▁squ	-2250
▁197	-2251
▁father	-2252
now	-2253
▁race	-2254
▁create	-2255
▁try	-2256
▁price	-2257
▁platform	-2258
esc	-2259
vironment	-2260
▁These	-2261
ims	-2262
▁offer	-2263
apt	-2264
▁Pat	-2265
ift	-2266
lement	-2267
ivil	-2268
idge	-2269
▁dom	-2270
▁den	-2271
▁isn	-2272
af	-2273
▁career	-2274
▁trade	-2275
ees	-2276
▁visit	-2277
▁European	-2278
▁decided	-2279
▁Je	-2280
▁coll	-2281
▁everything	-2282
▁Pet	-2283
▁goal	-2284
▁Russia	-2285
▁involved	-2286
▁Californ	-2287
▁cred	-2288
▁nearly	-2289
▁deter	-2290
yle	-2291
ogn	-2292
▁website	-2293
rup	-2294
▁deep	-2295
▁episode	-2296
▁leave	-2297
▁Air	-2298
▁felt	-2299
aily	-2300
selves	-2301
▁esp	-2302
rought	-2303
▁turned	-2304
▁either	-2305
▁nothing	-2306
▁expect	-2307
▁contract	-2308
play	-2309
▁friends	-2310
▁town	-2311
▁Some	-2312
▁check	-2313
jects	-2314
▁Republican	-2315
ON	-2316
▁potential	-2317
ficult	-2318
▁features	-2319
▁instead	-2320
ampions	-2321
▁London	-2322
▁drug	-2323
▁increase	-2324
uk	-2325
▁moment	-2326
▁ener	-2327
▁Act	-2328
IS	-2329
IN	-2330
▁constr	-2331
cement	-2332
▁div	-2333
▁built	-2334
▁rad	-2335
lege	-2336
▁Her	-2337
▁California	-2338
irt	-2339
▁address	-2340
▁probably	-2341
▁22	-2342
▁phone	-2343
▁email	-2344
▁promot	-2345
▁created	-2346
▁difficult	-2347
▁nec	-2348
▁exist	-2349
▁40	-2350
▁rather	-2351
▁resident	-2352
▁Do	-2353
▁Apple	-2354
▁Australia	-2355
▁dig	-2356
isl	-2357
▁named	-2358
▁Black	-2359
irst	-2360
▁ground	-2361
▁Tw	-2362
▁pack	-2363
▁ens	-2364
sw	-2365
▁chief	-2366
▁example	-2367
▁cult	-2368
epend	-2369
▁introd	-2370
▁Per	-2371
ospital	-2372
rency	-2373
▁David	-2374
▁leader	-2375
▁areas	-2376
▁critic	-2377
▁target	-2378
▁Net	-2379
ecially	-2380
▁eyes	-2381
joy	-2382
▁broad	-2383
▁Street	-2384
vertisement	-2385
▁Ag	-2386
▁production	-2387
▁Indian	-2388
eared	-2389
▁Bo	-2390
▁died	-2391
▁personal	-2392
▁everyone	-2393
down	-2394
▁accept	-2395
▁Comp	-2396
▁eight	-2397
▁hands	-2398
▁concern	-2399
oint	-2400
▁performance	-2401
▁above	-2402
▁TV	-2403
▁whole	-2404
▁previous	-2405
▁needed	-2406
▁reach	-2407
▁cle	-2408
omm	-2409
▁pret	-2410
▁coach	-2411
olution	-2412
▁longer	-2413
ude	-2414
▁Hill	-2415
rench	-2416
▁twe	-2417
▁changes	-2418
▁Mor	-2419
▁fell	-2420
▁consum	-2421
de	-2422
load	-2423
ought	-2424
▁Senate	-2425
▁seven	-2426
▁circ	-2427
▁cross	-2428
▁focus	-2429
▁boy	-2430
▁needs	-2431
▁travel	-2432
▁officers	-2433
▁(@	-2434
▁force	-2435
asons	-2436
▁196	-2437
ique	-2438
▁estab	-2439
▁My	-2440
ida	-2441
▁border	-2442
.,	-2443
based	-2444
onse	-2445
anger	-2446
bed	-2447
▁Mic	-2448
▁financial	-2449
▁surpr	-2450
▁described	-2451
▁ri	-2452
▁energy	-2453
orters	-2454
▁particip	-2455
▁age	-2456
▁Gener	-2457
▁works	-2458
▁loss	-2459
▁Mo	-2460
rian	-2461
hel	-2462
▁Russian	-2463
▁groups	-2464
vil	-2465
oved	-2466
▁evidence	-2467
▁tal	-2468
ival	-2469
▁benef	-2470
ilities	-2471
▁Char	-2472
▁launch	-2473
▁2012	-2474
atives	-2475
▁soft	-2476
upp	-2477
▁desp	-2478
▁hon	-2479
lam	-2480
▁nation	-2481
.1	-2482
▁network	-2483
▁common	-2484
▁applic	-2485
▁hot	-2486
He	-2487
▁north	-2488
▁select	-2489
uz	-2490
▁abs	-2491
▁Donald	-2492
earc	-2493
eth	-2494
▁specific	-2495
▁Afric	-2496
ety	-2497
▁Pal	-2498
inese	-2499
like	-2500
▁worked	-2501
ford	-2502
ky	-2503
ises	-2504
por	-2505
▁board	-2506
▁23	-2507
action	-2508
ament	-2509
ino	-2510
estern	-2511
▁demand	-2512
▁private	-2513
omb	-2514
ients	-2515
▁Bro	-2516
▁Mark	-2517
▁conduct	-2518
▁higher	-2519
▁emer	-2520
nd	-2521
▁Kh	-2522
▁aud	-2523
▁summer	-2524
▁heart	-2525
idered	-2526
ope	-2527
▁Paul	-2528
▁Rec	-2529
▁gen	-2530
▁Play	-2531
▁especially	-2532
▁Sch	-2533
▁quarter	-2534
▁engine	-2535
▁000	-2536
▁response	-2537
▁global	-2538
itiz	-2539
▁Democrats	-2540
▁officer	-2541
▁son	-2542
▁mater	-2543
cer	-2544
▁sat	-2545
iple	-2546
▁During	-2547
rend	-2548
▁anti	-2549
▁cy	-2550
▁results	-2551
▁Michael	-2552
▁Ser	-2553
▁Chinese	-2554
▁reached	-2555
▁article	-2556
▁brought	-2557
▁wide	-2558
urning	-2559
▁buy	-2560
▁pict	-2561
▁average	-2562
▁bank	-2563
▁relationship	-2564
▁teams	-2565
unt	-2566
▁educ	-2567
▁pred	-2568
bit	-2569
ateg	-2570
AN	-2571
▁rev	-2572
▁protect	-2573
▁Qu	-2574
▁mur	-2575
▁allowed	-2576
▁considered	-2577
▁indic	-2578
▁anyone	-2579
▁favor	-2580
▁enjoy	-2581
▁arri	-2582
▁High	-2583
▁Cont	-2584
▁French	-2585
istan	-2586
▁purch	-2587
▁moved	-2588
▁park	-2589
▁phys	-2590
▁consider	-2591
▁leading	-2592
▁194	-2593
▁assist	-2594
ires	-2595
▁seems	-2596
change	-2597
oman	-2598
▁improve	-2599
▁sound	-2600
▁influ	-2601
▁page	-2602
▁confirmed	-2603
▁Tex	-2604
▁insp	-2605
▁impact	-2606
▁seek	-2607
▁piec	-2608
ole	-2609
ria	-2610
▁rate	-2611
▁ahead	-2612
▁regard	-2613
▁heard	-2614
▁couple	-2615
▁Fin	-2616
▁28	-2617
anks	-2618
▁recogn	-2619
▁self	-2620
▁William	-2621
▁James	-2622
▁environment	-2623
akers	-2624
▁risk	-2625
▁fem	-2626
▁Times	-2627
ser	-2628
▁looked	-2629
▁events	-2630
▁Iran	-2631
retary	-2632
▁forces	-2633
emb	-2634
▁quickly	-2635
ray	-2636
▁situation	-2637
▁contact	-2638
aging	-2639
▁Coun	-2640
▁rout	-2641
EO	-2642
rents	-2643
oring	-2644
ends	-2645
▁dro	-2646
hest	-2647
▁becom	-2648
▁cover	-2649
▁27	-2650
▁tried	-2651
▁Kore	-2652
osition	-2653
▁tour	-2654
▁cele	-2655
pro	-2656
oto	-2657
ze	-2658
▁living	-2659
▁arrested	-2660
▁26	-2661
omp	-2662
▁previously	-2663
fety	-2664
▁details	-2665
▁although	-2666
▁amount	-2667
▁base	-2668
uters	-2669
▁spent	-2670
▁separ	-2671
anch	-2672
▁Tur	-2673
▁despite	-2674
▁various	-2675
atory	-2676
▁itself	-2677
▁oil	-2678
▁hur	-2679
ara	-2680
▁band	-2681
rel	-2682
▁$2	-2683
▁pur	-2684
▁growth	-2685
▁themselves	-2686
▁prep	-2687
▁chance	-2688
iers	-2689
▁minister	-2690
obile	-2691
ession	-2692
mon	-2693
▁unc	-2694
▁happened	-2695
mitted	-2696
▁Up	-2697
angu	-2698
val	-2699
▁regular	-2700
▁Star	-2701
fect	-2702
▁products	-2703
▁remain	-2704
▁knew	-2705
▁disp	-2706
▁Obama	-2707
▁cases	-2708
▁wrong	-2709
▁Advertisement	-2710
▁comments	-2711
▁material	-2712
▁cho	-2713
▁sched	-2714
▁cast	-2715
icles	-2716
hi	-2717
▁source	-2718
▁training	-2719
▁produc	-2720
▁Follow	-2721
▁region	-2722
▁request	-2723
▁Here	-2724
ceed	-2725
room	-2726
enced	-2727
▁pretty	-2728
▁Bre	-2729
chain	-2730
▁neigh	-2731
▁tre	-2732
St	-2733
▁Inst	-2734
▁Rober	-2735
▁economic	-2736
gest	-2737
▁slow	-2738
▁Saudi	-2739
▁Serv	-2740
▁search	-2741
▁2011	-2742
chie	-2743
▁quite	-2744
▁legisl	-2745
▁revealed	-2746
▁wasn	-2747
▁Democratic	-2748
▁worth	-2749
ucture	-2750
body	-2751
imin	-2752
▁Get	-2753
▁General	-2754
▁signed	-2755
alled	-2756
bruary	-2757
▁appeared	-2758
istic	-2759
▁prim	-2760
▁range	-2761
▁includes	-2762
▁McC	-2763
▁England	-2764
iant	-2765
▁wants	-2766
field	-2767
▁football	-2768
▁noted	-2769
raz	-2770
▁lower	-2771
▁Associ	-2772
▁Jack	-2773
imately	-2774
▁authorities	-2775
ully	-2776
▁spot	-2777
▁lack	-2778
ills	-2779
▁February	-2780
▁Mex	-2781
iff	-2782
▁associ	-2783
▁II	-2784
▁sexual	-2785
▁immediately	-2786
orney	-2787
ha	-2788
▁questions	-2789
▁pen	-2790
▁relig	-2791
▁claims	-2792
▁ship	-2793
▁link	-2794
▁Scott	-2795
▁journal	-2796
aint	-2797
iment	-2798
▁rac	-2799
▁speed	-2800
▁Post	-2801
▁reb	-2802
▁south	-2803
▁scene	-2804
hood	-2805
▁wife	-2806
▁Mad	-2807
▁thous	-2808
ites	-2809
▁largest	-2810
▁East	-2811
▁Dan	-2812
uf	-2813
▁date	-2814
▁Cons	-2815
▁whose	-2816
la	-2817
ey	-2818
▁foreign	-2819
▁prison	-2820
▁surve	-2821
▁ready	-2822
▁words	-2823
▁claimed	-2824
ett	-2825
▁IS	-2826
▁safe	-2827
fl	-2828
oid	-2829
face	-2830
▁capital	-2831
▁station	-2832
▁workers	-2833
▁hor	-2834
▁2010	-2835
▁sil	-2836
▁Sand	-2837
▁charges	-2838
",	-2839
▁showed	-2840
earchers	-2841
▁answ	-2842
urb	-2843
▁Last	-2844
▁medical	-2845
▁aw	-2846
▁hear	-2847
wood	-2848
▁box	-2849
▁civil	-2850
▁weap	-2851
▁dog	-2852
vent	-2853
▁First	-2854
▁29	-2855
▁carry	-2856
▁Texas	-2857
▁scient	-2858
▁takes	-2859
▁Center	-2860
▁Flor	-2861
arent	-2862
▁towards	-2863
▁require	-2864
ken	-2865
▁remains	-2866
aughter	-2867
▁customers	-2868
▁Bat	-2869
▁cell	-2870
sequ	-2871
▁accused	-2872
▁prevent	-2873
.2	-2874
▁throughout	-2875
▁Ham	-2876
berg	-2877
▁problems	-2878
▁cal	-2879
▁lives	-2880
▁exact	-2881
▁huge	-2882
▁provided	-2883
▁Clin	-2884
▁Day	-2885
▁tradition	-2886
liam	-2887
▁touch	-2888
▁regul	-2889
▁simply	-2890
▁prior	-2891
atural	-2892
airs	-2893
▁Del	-2894
▁opportunity	-2895
▁wall	-2896
▁clos	-2897
▁fast	-2898
▁round	-2899
▁else	-2900
▁Reg	-2901
uing	-2902
tain	-2903
▁door	-2904
ma	-2905
AR	-2906
tr	-2907
▁title	-2908
▁administration	-2909
▁Cup	-2910
uments	-2911
▁terms	-2912
uty	-2913
istry	-2914
▁hous	-2915
ging	-2916
liament	-2917
ston	-2918
▁letter	-2919
illeg	-2920
▁celebr	-2921
ounts	-2922
▁additional	-2923
icted	-2924
▁Party	-2925
ume	-2926
▁agency	-2927
▁battle	-2928
▁feature	-2929
▁followed	-2930
▁spokes	-2931
▁giving	-2932
▁century	-2933
▁Bitcoin	-2934
▁failed	-2935
▁conference	-2936
▁Dis	-2937
▁agreement	-2938
▁pers	-2939
▁firm	-2940
10	-2941
rupt	-2942
oper	-2943
▁written	-2944
▁Angel	-2945
.'	-2946
▁easy	-2947
▁camer	-2948
▁sales	-2949
▁weekend	-2950
izing	-2951
▁ten	-2952
iction	-2953
▁Read	-2954
ampionship	-2955
▁opened	-2956
ishing	-2957
▁economy	-2958
▁true	-2959
▁Sing	-2960
▁ill	-2961
unch	-2962
▁Mal	-2963
?"	-2964
ny	-2965
▁pros	-2966
eed	-2967
▁Arab	-2968
▁progress	-2969
venue	-2970
come	-2971
▁stage	-2972
▁model	-2973
uth	-2974
iminal	-2975
▁citiz	-2976
▁terror	-2977
▁attention	-2978
stant	-2979
undred	-2980
▁Mac	-2981
ris	-2982
▁migr	-2983
▁mis	-2984
▁esc	-2985
itch	-2986
▁hospital	-2987
▁manager	-2988
▁rock	-2989
▁International	-2990
ander	-2991
▁cause	-2992
▁origin	-2993
ression	-2994
▁Rich	-2995
▁illeg	-2996
▁Sim	-2997
▁lic	-2998
▁log	-2999
▁caused	-3000
lood	-3001
//	-3002
▁achie	-3003
ellig	-3004
roy	-3005
iled	-3006
▁continues	-3007
▁Union	-3008
▁contr	-3009
▁tweet	-3010
roll	-3011
ears	-3012
▁paid	-3013
▁doll	-3014
▁screen	-3015
▁looks	-3016
▁parents	-3017
▁surv	-3018
There	-3019
▁gas	-3020
▁Bill	-3021
rain	-3022
▁numbers	-3023
▁Florida	-3024
▁finally	-3025
▁disapp	-3026
▁launched	-3027
▁safety	-3028
▁effect	-3029
▁efforts	-3030
▁majority	-3031
ram	-3032
▁necess	-3033
OS	-3034
▁designed	-3035
box	-3036
round	-3037
▁cannot	-3038
://	-3039
ube	-3040
▁passed	-3041
▁nom	-3042
▁independ	-3043
▁item	-3044
orthern	-3045
▁value	-3046
▁population	-3047
▁Clinton	-3048
ari	-3049
▁arm	-3050
▁starting	-3051
usion	-3052
▁adding	-3053
▁receive	-3054
outhern	-3055
▁School	-3056
▁senior	-3057
▁Mart	-3058
▁effort	-3059
ements	-3060
▁sn	-3061
uter	-3062
oul	-3063
oo	-3064
▁EU	-3065
▁biggest	-3066
▁movie	-3067
▁Although	-3068
rief	-3069
▁required	-3070
BI	-3071
▁species	-3072
▁RE	-3073
▁Hol	-3074
▁draw	-3075
ground	-3076
▁voters	-3077
▁rob	-3078
inks	-3079
▁forced	-3080
aught	-3081
ript	-3082
light	-3083
▁occur	-3084
▁Val	-3085
illed	-3086
▁posted	-3087
▁Alex	-3088
▁Franc	-3089
▁executive	-3090
▁rules	-3091
FL	-3092
▁multiple	-3093
rect	-3094
ges	-3095
▁voice	-3096
ibly	-3097
▁norm	-3098
onstr	-3099
anced	-3100
hib	-3101
▁Supreme	-3102
▁parts	-3103
▁immigr	-3104
▁yes	-3105
▁serious	-3106
▁defin	-3107
▁stated	-3108
Wh	-3109
ote	-3110
▁histor	-3111
ago	-3112
▁brother	-3113
▁pan	-3114
▁decl	-3115
ension	-3116
ocur	-3117
ares	-3118
▁Islam	-3119
▁increased	-3120
▁Other	-3121
▁increasing	-3122
che	-3123
ipp	-3124
.)	-3125
▁ability	-3126
▁langu	-3127
aph	-3128
▁!	-3129
▁Tor	-3130
▁sens	-3131
▁sense	-3132
▁quality	-3133
▁lab	-3134
oph	-3135
▁growing	-3136
aves	-3137
▁feet	-3138
▁Tom	-3139
▁approach	-3140
lying	-3141
itness	-3142
resh	-3143
▁Two	-3144
▁moving	-3145
riage	-3146
craft	-3147
▁perfect	-3148
▁France	-3149
levision	-3150
ification	-3151
stitution	-3152
▁prem	-3153
▁goes	-3154
▁English	-3155
ica	-3156
▁returned	-3157
ville	-3158
If	-3159
▁Wind	-3160
▁card	-3161
▁Soc	-3162
▁Over	-3163
▁ways	-3164
fort	-3165
▁From	-3166
▁shooting	-3167
▁Council	-3168
▁digital	-3169
ector	-3170
rol	-3171
▁bud	-3172
▁happen	-3173
▁shut	-3174
▁estim	-3175
▁Americans	-3176
▁agreed	-3177
▁roll	-3178
▁developed	-3179
▁Prime	-3180
oti	-3181
enge	-3182
dom	-3183
▁smart	-3184
ograph	-3185
▁traff	-3186
▁Mid	-3187
▁message	-3188
avan	-3189
▁stories	-3190
▁Commission	-3191
iders	-3192
-2	-3193
board	-3194
▁student	-3195
▁arch	-3196
▁happy	-3197
▁positive	-3198
▁levels	-3199
▁experi	-3200
▁paper	-3201
▁strugg	-3202
ding	-3203
▁league	-3204
▁Gl	-3205
irth	-3206
▁climate	-3207
▁cat	-3208
ocked	-3209
ological	-3210
▁God	-3211
▁violence	-3212
▁Ben	-3213
▁raised	-3214
▁leaving	-3215
▁charged	-3216
▁charge	-3217
unk	-3218
arily	-3219
astic	-3220
▁Aut	-3221
▁issued	-3222
▁sym	-3223
▁particularly	-3224
▁extra	-3225
TC	-3226
ufact	-3227
erc	-3228
▁conditions	-3229
ively	-3230
▁contribut	-3231
▁Mil	-3232
coming	-3233
▁learn	-3234
▁60	-3235
▁defe	-3236
▁Green	-3237
▁Trans	-3238
▁believed	-3239
erve	-3240
▁tool	-3241
▁opening	-3242
band	-3243
▁31	-3244
▁compared	-3245
▁CEO	-3246
▁2008	-3247
imum	-3248
▁candidate	-3249
▁table	-3250
▁appears	-3251
▁partners	-3252
▁sto	-3253
▁calling	-3254
▁center	-3255
▁helped	-3256
▁Rob	-3257
▁researchers	-3258
▁George	-3259
▁crow	-3260
.0	-3261
▁attacks	-3262
▁Port	-3263
▁1,	-3264
ES	-3265
aded	-3266
▁dark	-3267
arr	-3268
▁damage	-3269
▁Bel	-3270
▁miles	-3271
▁nine	-3272
▁challeng	-3273
▁mention	-3274
▁completely	-3275
▁type	-3276
▁2009	-3277
wide	-3278
▁assault	-3279
▁extreme	-3280
▁document	-3281
ki	-3282
▁lif	-3283
▁Since	-3284
▁goals	-3285
men	-3286
▁chair	-3287
▁pressure	-3288
▁property	-3289
vin	-3290
▁Que	-3291
aming	-3292
▁characters	-3293
▁ended	-3294
▁hol	-3295
.3	-3296
mar	-3297
▁hundred	-3298
▁drive	-3299
▁Germany	-3300
uals	-3301
acts	-3302
▁flag	-3303
▁display	-3304
▁doub	-3305
reng	-3306
▁central	-3307
▁thousands	-3308
▁size	-3309
▁Lo	-3310
▁cryptocur	-3311
▁mach	-3312
▁Justice	-3313
▁storm	-3314
▁sle	-3315
ux	-3316
▁ensure	-3317
▁Met	-3318
▁projects	-3319
▁bi	-3320
isions	-3321
▁closed	-3322
▁Fox	-3323
▁pus	-3324
▁sources	-3325
ilies	-3326
▁wat	-3327
▁refer	-3328
▁score	-3329
▁word	-3330
▁Art	-3331
▁vehicle	-3332
▁rank	-3333
▁Of	-3334
adem	-3335
▁ult	-3336
▁term	-3337
▁gone	-3338
yond	-3339
lands	-3340
▁Smith	-3341
.4	-3342
▁driver	-3343
orter	-3344
▁km	-3345
▁Tod	-3346
▁expand	-3347
▁changed	-3348
▁eventually	-3349
merc	-3350
ED	-3351
term	-3352
▁employees	-3353
▁Road	-3354
▁temp	-3355
agon	-3356
hod	-3357
▁mill	-3358
▁upon	-3359
▁device	-3360
▁Mod	-3361
sy	-3362
vernor	-3363
▁toward	-3364
▁fair	-3365
▁purp	-3366
▁reportedly	-3367
▁beaut	-3368
.9	-3369
▁htt	-3370
▁Australian	-3371
▁effective	-3372
▁systems	-3373
▁Jos	-3374
aby	-3375
mas	-3376
▁instr	-3377
▁danger	-3378
ously	-3379
▁pul	-3380
▁transfer	-3381
▁calls	-3382
▁di	-3383
▁highest	-3384
icket	-3385
ae	-3386
You	-3387
▁concer	-3388
▁subject	-3389
▁behav	-3390
▁bed	-3391
▁Mu	-3392
▁Bec	-3393
▁served	-3394
IC	-3395
▁Gold	-3396
▁Image	-3397
OR	-3398
▁bur	-3399
azon	-3400
▁beginning	-3401
▁Jew	-3402
60	-3403
▁organization	-3404
▁encour	-3405
▁clean	-3406
▁meant	-3407
US	-3408
▁Bay	-3409
▁related	-3410
▁vill	-3411
oyal	-3412
▁Phil	-3413
▁repe	-3414
▁sal	-3415
▁award	-3416
▁stream	-3417
▁Office	-3418
▁residents	-3419
▁Lou	-3420
▁offered	-3421
▁restr	-3422
ources	-3423
▁produced	-3424
ibr	-3425
▁Our	-3426
utions	-3427
ota	-3428
▁Gre	-3429
AP	-3430
▁convers	-3431
▁writing	-3432
▁Hall	-3433
▁tro	-3434
▁Mag	-3435
▁cars	-3436
▁Def	-3437
▁mix	-3438
▁practice	-3439
NN	-3440
▁construction	-3441
▁costs	-3442
haps	-3443
AC	-3444
▁modern	-3445
do	-3446
aches	-3447
15	-3448
▁debut	-3449
bert	-3450
▁lay	-3451
▁inn	-3452
elligence	-3453
▁Wil	-3454
▁criminal	-3455
bour	-3456
▁acqu	-3457
▁La	-3458
▁prices	-3459
▁recomm	-3460
▁har	-3461
asc	-3462
▁subs	-3463
▁blockchain	-3464
aries	-3465
▁Republicans	-3466
▁overall	-3467
▁Brown	-3468
▁joined	-3469
▁emb	-3470
vest	-3471
iance	-3472
▁unf	-3473
▁Micro	-3474
alys	-3475
▁manufact	-3476
aked	-3477
ocks	-3478
orks	-3479
▁heavy	-3480
igned	-3481
icks	-3482
▁user	-3483
▁talking	-3484
▁simple	-3485
while	-3486
▁Sal	-3487
▁lawy	-3488
ona	-3489
▁limited	-3490
cle	-3491
▁Canadian	-3492
▁exchange	-3493
They	-3494
lined	-3495
arian	-3496
espite	-3497
▁directly	-3498
▁stra	-3499
▁propos	-3500
▁Even	-3501
▁gets	-3502
▁Ber	-3503
▁female	-3504
▁Sam	-3505
▁enfor	-3506
hold	-3507
▁movement	-3508
▁victory	-3509
▁families	-3510
▁Francis	-3511
▁successful	-3512
▁fourth	-3513
▁Chief	-3514
lease	-3515
▁Lab	-3516
▁pet	-3517
▁attract	-3518
▁drop	-3519
elling	-3520
▁marriage	-3521
uled	-3522
▁Mat	-3523
▁streng	-3524
▁funding	-3525
▁communic	-3526
▁television	-3527
soft	-3528
▁Law	-3529
▁brief	-3530
▁brand	-3531
▁Jud	-3532
▁fle	-3533
edom	-3534
▁autom	-3535
▁crime	-3536
right	-3537
uana	-3538
▁ver	-3539
▁education	-3540
▁negoti	-3541
uries	-3542
▁Super	-3543
▁Most	-3544
lant	-3545
▁consist	-3546
▁presidential	-3547
▁citizens	-3548
ervative	-3549
▁Los	-3550
▁Robert	-3551
OT	-3552
▁explained	-3553
uclear	-3554
▁murder	-3555
▁grand	-3556
▁River	-3557
▁devices	-3558
▁alone	-3559
▁aircraft	-3560
▁natural	-3561
mittee	-3562
▁enter	-3563
▁middle	-3564
▁individual	-3565
▁wait	-3566
▁poor	-3567
▁code	-3568
entially	-3569
stitute	-3570
mercial	-3571
ipped	-3572
▁counter	-3573
.7	-3574
▁Nov	-3575
▁speech	-3576
▁placed	-3577
▁speak	-3578
▁Ac	-3579
▁minor	-3580
▁rap	-3581
▁figure	-3582
▁concerns	-3583
hol	-3584
▁fix	-3585
▁planned	-3586
▁Japanese	-3587
▁Many	-3588
▁lik	-3589
▁peace	-3590
As	-3591
ailed	-3592
▁transport	-3593
▁except	-3594
▁doct	-3595
▁Amazon	-3596
▁hy	-3597
▁credit	-3598
▁eye	-3599
set	-3600
▁images	-3601
▁Ter	-3602
ugh	-3603
▁trip	-3604
ijuana	-3605
▁defense	-3606
▁runs	-3607
ledge	-3608
▁owners	-3609
▁Like	-3610
▁demonstr	-3611
▁aim	-3612
▁daughter	-3613
▁crew	-3614
enty	-3615
11	-3616
▁proposed	-3617
▁software	-3618
▁adop	-3619
icip	-3620
AL	-3621
▁apparent	-3622
▁train	-3623
nel	-3624
▁operations	-3625
▁Att	-3626
▁exactly	-3627
▁wel	-3628
mission	-3629
▁wild	-3630
▁cris	-3631
▁recorded	-3632
▁fully	-3633
▁Direct	-3634
▁instit	-3635
▁Pak	-3636
▁mobile	-3637
▁2020	-3638
▁jobs	-3639
▁trust	-3640
80	-3641
OP	-3642
AD	-3643
miss	-3644
roid	-3645
▁ment	-3646
▁filed	-3647
▁Syria	-3648
acing	-3649
▁Game	-3650
mark	-3651
▁shared	-3652
▁feed	-3653
▁implement	-3654
▁fit	-3655
▁district	-3656
▁treatment	-3657
▁analy	-3658
▁Mexico	-3659
▁Vir	-3660
▁Britain	-3661
▁kept	-3662
▁debate	-3663
.6	-3664
ager	-3665
▁unique	-3666
▁Step	-3667
▁text	-3668
▁birth	-3669
▁Despite	-3670
▁pull	-3671
▁department	-3672
rec	-3673
yright	-3674
▁2007	-3675
▁arrived	-3676
▁kids	-3677
going	-3678
▁judge	-3679
iation	-3680
inn	-3681
▁photo	-3682
▁Mer	-3683
▁choice	-3684
ula	-3685
▁trial	-3686
▁Mike	-3687
oes	-3688
▁elections	-3689
BS	-3690
inated	-3691
▁reflect	-3692
▁blood	-3693
▁mer	-3694
▁fan	-3695
▁electric	-3696
▁Group	-3697
▁commission	-3698
owers	-3699
▁Committee	-3700
han	-3701
▁plant	-3702
▁language	-3703
▁mission	-3704
▁Let	-3705
▁Ver	-3706
▁destroy	-3707
▁straight	-3708
▁location	-3709
▁controvers	-3710
icago	-3711
more	-3712
▁Cur	-3713
iced	-3714
ya	-3715
▁style	-3716
▁located	-3717
▁onto	-3718
▁fine	-3719
▁finished	-3720
Ph	-3721
▁Add	-3722
▁Also	-3723
adium	-3724
▁discovered	-3725
▁investment	-3726
iles	-3727
▁wonder	-3728
▁Under	-3729
▁Army	-3730
het	-3731
▁swe	-3732
▁Microsoft	-3733
omen	-3734
▁answer	-3735
iring	-3736
▁tem	-3737
▁restaur	-3738
▁opin	-3739
vere	-3740
▁beyond	-3741
▁illegal	-3742
▁MP	-3743
▁allows	-3744
▁annual	-3745
40	-3746
lim	-3747
▁note	-3748
▁object	-3749
▁gold	-3750
▁District	-3751
▁please	-3752
▁Fore	-3753
▁Bank	-3754
▁bott	-3755
▁injury	-3756
ustr	-3757
amb	-3758
▁challenge	-3759
▁Earth	-3760
▁removed	-3761
▁$3	-3762
▁completed	-3763
▁grad	-3764
▁ang	-3765
▁budget	-3766
▁schools	-3767
▁shown	-3768
▁Christian	-3769
▁piece	-3770
▁section	-3771
GB	-3772
cel	-3773
▁traffic	-3774
▁fighting	-3775
▁update	-3776
cing	-3777
▁hair	-3778
▁suggested	-3779
▁Bu	-3780
▁method	-3781
yan	-3782
▁beg	-3783
▁Christmas	-3784
▁spokesman	-3785
▁option	-3786
▁uns	-3787
▁mount	-3788
▁attend	-3789
▁winning	-3790
eller	-3791
ww	-3792
▁scen	-3793
▁cool	-3794
▁Johnson	-3795
▁195	-3796
▁obv	-3797
▁Inter	-3798
▁mist	-3799
▁draft	-3800
▁beat	-3801
ero	-3802
▁responsible	-3803
▁cities	-3804
▁rise	-3805
▁Angeles	-3806
annel	-3807
▁jump	-3808
▁kick	-3809
▁san	-3810
▁Chicago	-3811
FC	-3812
▁ess	-3813
que	-3814
ource	-3815
▁sometimes	-3816
▁green	-3817
▁Uk	-3818
▁Chris	-3819
▁maybe	-3820
bon	-3821
▁dise	-3822
▁Thom	-3823
asts	-3824
▁arms	-3825
▁Central	-3826
▁highly	-3827
▁Liber	-3828
▁east	-3829
▁activity	-3830
▁Press	-3831
▁Windows	-3832
pe	-3833
▁driving	-3834
▁Pakistan	-3835
▁professional	-3836
▁pun	-3837
▁usually	-3838
▁certainly	-3839
▁committee	-3840
▁remained	-3841
ancy	-3842
AM	-3843
▁avoid	-3844
▁Health	-3845
▁crowd	-3846
▁Mel	-3847
▁hearing	-3848
▁college	-3849
▁church	-3850
lished	-3851
▁Rel	-3852
▁Miss	-3853
▁Det	-3854
itely	-3855
▁actions	-3856
▁send	-3857
ctions	-3858
▁ones	-3859
▁qual	-3860
▁seeing	-3861
encies	-3862
▁herself	-3863
▁identified	-3864
iny	-3865
IT	-3866
▁500	-3867
▁reasons	-3868
▁imag	-3869
▁ordered	-3870
▁MO	-3871
igan	-3872
▁asking	-3873
▁ut	-3874
tery	-3875
▁standard	-3876
▁management	-3877
reek	-3878
▁Cap	-3879
▁prec	-3880
▁appeal	-3881
▁command	-3882
▁records	-3883
▁coast	-3884
▁offers	-3885
▁ele	-3886
.8	-3887
▁daily	-3888
▁victim	-3889
▁deg	-3890
▁Jim	-3891
▁crisis	-3892
alysis	-3893
▁religious	-3894
▁caught	-3895
▁showing	-3896
▁west	-3897
▁condition	-3898
▁und	-3899
▁surround	-3900
ription	-3901
▁ran	-3902
▁complex	-3903
ropri	-3904
▁integr	-3905
ga	-3906
ength	-3907
estic	-3908
icient	-3909
ado	-3910
▁save	-3911
▁commercial	-3912
▁Great	-3913
▁spending	-3914
▁Offic	-3915
▁Service	-3916
▁becoming	-3917
▁Rock	-3918
▁UN	-3919
▁options	-3920
▁parties	-3921
▁Carol	-3922
▁Photo	-3923
inger	-3924
▁status	-3925
▁vehicles	-3926
▁ca	-3927
▁pil	-3928
▁altern	-3929
▁bal	-3930
▁(1	-3931
▁connect	-3932
▁Another	-3933
▁born	-3934
▁Op	-3935
▁serve	-3936
▁80	-3937
olute	-3938
▁Both	-3939
▁Association	-3940
EN	-3941
mp	-3942
,'	-3943
▁path	-3944
anche	-3945
▁camera	-3946
▁confirm	-3947
ables	-3948
▁stock	-3949
▁interesting	-3950
▁slight	-3951
▁determin	-3952
▁35	-3953
▁guy	-3954
▁Mill	-3955
▁193	-3956
▁competition	-3957
▁larger	-3958
▁candidates	-3959
▁effects	-3960
▁vac	-3961
nings	-3962
▁pulled	-3963
usive	-3964
▁Sub	-3965
▁Leg	-3966
▁thinking	-3967
bl	-3968
▁Elect	-3969
▁coal	-3970
▁sort	-3971
▁photos	-3972
▁AP	-3973
▁People	-3974
lor	-3975
▁deliver	-3976
▁rates	-3977
▁]	-3978
▁Sanders	-3979
oses	-3980
▁lines	-3981
▁dropped	-3982
▁Squ	-3983
▁traditional	-3984
sen	-3985
▁Government	-3986
▁Found	-3987
ointed	-3988
▁Div	-3989
▁allegedly	-3990
rival	-3991
500	-3992
iful	-3993
ipe	-3994
▁aren	-3995
▁nuclear	-3996
▁Louis	-3997
▁farm	-3998
▁Secretary	-3999
▁Back	-4000
▁coin	-4001
▁conflic	-4002
▁throw	-4003
house	-4004
▁critical	-4005
▁flight	-4006
EC	-4007
▁victims	-4008
▁meaning	-4009
▁Jones	-4010
net	-4011
▁Watch	-4012
ovel	-4013
▁Exp	-4014
▁hus	-4015
▁Inc	-4016
▁Wall	-4017
▁Commun	-4018
▁planning	-4019
kn	-4020
ING	-4021
rey	-4022
▁troops	-4023
ship	-4024
▁Bet	-4025
riff	-4026
▁neighbor	-4027
▁Nor	-4028
▁frequ	-4029
▁pra	-4030
odes	-4031
▁powerful	-4032
ties	-4033
▁street	-4034
azing	-4035
▁fif	-4036
▁grant	-4037
noon	-4038
▁reality	-4039
▁%	-4040
eter	-4041
▁fear	-4042
arks	-4043
itation	-4044
▁floor	-4045
▁refe	-4046
▁decades	-4047
▁respect	-4048
atively	-4049
▁Ms	-4050
▁uses	-4051
▁Ukrain	-4052
▁holding	-4053
▁individuals	-4054
▁survey	-4055
▁fresh	-4056
!"	-4057
▁color	-4058
▁names	-4059
rs	-4060
azine	-4061
▁Sur	-4062
▁stopped	-4063
lay	-4064
▁massive	-4065
▁rare	-4066
▁missing	-4067
▁rule	-4068
▁install	-4069
▁announcement	-4070
▁Oh	-4071
▁established	-4072
▁reject	-4073
▁Jeff	-4074
▁gives	-4075
▁videos	-4076
▁Your	-4077
▁appearance	-4078
▁temper	-4079
▁Virgin	-4080
▁feeling	-4081
▁introduced	-4082
▁90	-4083
bre	-4084
▁talks	-4085
▁killing	-4086
▁Then	-4087
▁Every	-4088
▁carried	-4089
▁Mont	-4090
night	-4091
▁scheduled	-4092
▁Big	-4093
▁culture	-4094
ste	-4095
▁scored	-4096
▁70	-4097
▁physical	-4098
▁retail	-4099
▁mic	-4100
ulated	-4101
▁creating	-4102
▁Force	-4103
▁trading	-4104
▁Camp	-4105
▁drink	-4106
▁protest	-4107
▁necessary	-4108
raq	-4109
▁weapons	-4110
▁originally	-4111
▁Mary	-4112
▁accident	-4113
▁places	-4114
▁male	-4115
▁Western	-4116
rip	-4117
▁Android	-4118
▁afternoon	-4119
▁Fire	-4120
▁stre	-4121
▁initial	-4122
tained	-4123
rav	-4124
▁ur	-4125
▁marijuana	-4126
▁spoke	-4127
lit	-4128
▁businesses	-4129
▁sale	-4130
▁animals	-4131
▁excl	-4132
▁Mur	-4133
put	-4134
za	-4135
asion	-4136
actions	-4137
▁active	-4138
▁Today	-4139
▁prosecut	-4140
isted	-4141
▁owner	-4142
rences	-4143
isation	-4144
▁seat	-4145
ords	-4146
eless	-4147
▁BBC	-4148
▁computer	-4149
▁pair	-4150
▁evening	-4151
TV	-4152
▁leadership	-4153
▁Int	-4154
▁witness	-4155
gen	-4156
▁allowing	-4157
▁funds	-4158
▁Atlant	-4159
ocal	-4160
▁Des	-4161
▁allegations	-4162
▁initi	-4163
▁push	-4164
ivity	-4165
▁double	-4166
▁2006	-4167
▁Pre	-4168
rial	-4169
▁interested	-4170
elled	-4171
rang	-4172
▁picture	-4173
▁Daily	-4174
rie	-4175
▁guys	-4176
just	-4177
▁wouldn	-4178
▁Africa	-4179
▁Iraq	-4180
▁TH	-4181
▁easily	-4182
▁withd	-4183
▁notice	-4184
▁copyright	-4185
▁whom	-4186
▁opposition	-4187
▁exam	-4188
▁Show	-4189
▁32	-4190
▁measure	-4191
▁thank	-4192
▁waiting	-4193
▁operation	-4194
▁blue	-4195
▁science	-4196
▁agree	-4197
Re	-4198
▁ton	-4199
reland	-4200
▁ign	-4201
orrow	-4202
▁suit	-4203
▁nature	-4204
▁Prem	-4205
▁society	-4206
▁Peter	-4207
▁believes	-4208
▁strik	-4209
▁provides	-4210
▁newsp	-4211
▁remember	-4212
ani	-4213
edic	-4214
where	-4215
▁advant	-4216
▁cash	-4217
▁PC	-4218
▁secret	-4219
▁Sant	-4220
▁defend	-4221
resp	-4222
▁Vict	-4223
ented	-4224
▁existing	-4225
▁NFL	-4226
kin	-4227
ulate	-4228
▁Security	-4229
▁legislation	-4230
▁Korea	-4231
▁Church	-4232
▁injured	-4233
▁organiz	-4234
ID	-4235
onn	-4236
astr	-4237
▁Sil	-4238
▁amb	-4239
IL	-4240
▁Haw	-4241
▁rail	-4242
▁providing	-4243
▁partner	-4244
▁liber	-4245
▁radio	-4246
▁repeated	-4247
▁attorney	-4248
▁Island	-4249
▁download	-4250
▁Pac	-4251
▁markets	-4252
▁activities	-4253
▁separate	-4254
atever	-4255
▁Thomas	-4256
▁nice	-4257
▁stuff	-4258
▁island	-4259
But	-4260
▁establish	-4261
ighter	-4262
BA	-4263
▁mostly	-4264
abis	-4265
▁documents	-4266
▁spend	-4267
▁Ireland	-4268
ano	-4269
▁ice	-4270
▁FBI	-4271
▁council	-4272
Ch	-4273
▁conclud	-4274
ivered	-4275
▁policies	-4276
▁Gal	-4277
▁brain	-4278
▁emot	-4279
▁managed	-4280
icy	-4281
▁Richard	-4282
▁seeking	-4283
tered	-4284
▁suffered	-4285
gi	-4286
▁route	-4287
▁cryptocurrency	-4288
▁estimated	-4289
▁Ma	-4290
▁independent	-4291
▁primary	-4292
▁Bur	-4293
▁din	-4294
▁homes	-4295
▁items	-4296
▁spread	-4297
friend	-4298
uke	-4299
▁units	-4300
sych	-4301
van	-4302
gency	-4303
▁reporters	-4304
well	-4305
▁benefits	-4306
wise	-4307
▁committed	-4308
▁Ram	-4309
▁sea	-4310
iser	-4311
▁Team	-4312
▁entered	-4313
▁supported	-4314
eder	-4315
overy	-4316
ulf	-4317
iverse	-4318
▁refuge	-4319
▁initially	-4320
illing	-4321
tar	-4322
oms	-4323
onents	-4324
▁myself	-4325
▁produce	-4326
▁squad	-4327
mine	-4328
ada	-4329
onto	-4330
▁Tim	-4331
▁husband	-4332
▁rain	-4333
▁corpor	-4334
▁refused	-4335
▁denied	-4336
▁ruling	-4337
▁sports	-4338
▁surface	-4339
uman	-4340
▁votes	-4341
▁figures	-4342
▁Out	-4343
ius	-4344
▁baby	-4345
▁Sign	-4346
▁caption	-4347
▁sun	-4348
▁hundreds	-4349
▁favorite	-4350
▁books	-4351
▁novel	-4352
▁bomb	-4353
▁controll	-4354
▁Bus	-4355
▁blog	-4356
▁couldn	-4357
▁income	-4358
▁reduce	-4359
▁crypto	-4360
▁Championship	-4361
▁asp	-4362
▁max	-4363
▁breat	-4364
▁College	-4365
▁Ken	-4366
▁upcoming	-4367
umn	-4368
▁yards	-4369
▁web	-4370
▁Grand	-4371
▁sleep	-4372
ashed	-4373
▁Us	-4374
ribution	-4375
▁intelligence	-4376
no	-4377
▁Spe	-4378
estival	-4379
▁fuel	-4380
▁Sol	-4381
win	-4382
▁Martin	-4383
▁justice	-4384
▁songs	-4385
olf	-4386
▁sett	-4387
▁normal	-4388
iest	-4389
▁reform	-4390
NA	-4391
SP	-4392
▁Kel	-4393
▁Lee	-4394
▁unit	-4395
onom	-4396
▁princ	-4397
▁Well	-4398
▁influence	-4399
▁politics	-4400
twitter	-4401
▁trou	-4402
▁Spec	-4403
▁Den	-4404
▁veter	-4405
acity	-4406
rett	-4407
▁achieve	-4408
▁dream	-4409
▁patients	-4410
▁https	-4411
terday	-4412
▁Matt	-4413
▁Str	-4414
▁investors	-4415
avanaugh	-4416
▁rough	-4417
echan	-4418
oe	-4419
▁offering	-4420
ography	-4421
▁notes	-4422
ilty	-4423
▁length	-4424
▁fat	-4425
▁raise	-4426
▁stars	-4427
IA	-4428
▁seemed	-4429
▁willing	-4430
▁teac	-4431
▁accounts	-4432
▁Frank	-4433
▁Institute	-4434
▁ir	-4435
▁Images	-4436
▁Enter	-4437
▁Tre	-4438
▁solution	-4439
iable	-4440
▁audience	-4441
▁incred	-4442
▁fired	-4443
▁correct	-4444
▁Toronto	-4445
▁army	-4446
▁perhaps	-4447
▁Gar	-4448
ategy	-4449
gar	-4450
ifying	-4451
makers	-4452
▁fa	-4453
▁depart	-4454
▁191	-4455
▁dollars	-4456
orial	-4457
eum	-4458
▁settle	-4459
▁territ	-4460
andon	-4461
▁hack	-4462
▁African	-4463
cean	-4464
▁choose	-4465
ih	-4466
▁greater	-4467
-3	-4468
▁purs	-4469
▁YouT	-4470
▁concerned	-4471
real	-4472
▁wid	-4473
▁Andrew	-4474
▁broke	-4475
▁Islamic	-4476
▁remaining	-4477
▁MORE	-4478
west	-4479
▁Mem	-4480
▁ships	-4481
▁heav	-4482
▁affected	-4483
arp	-4484
▁responded	-4485
bol	-4486
known	-4487
illa	-4488
icon	-4489
itude	-4490
4,	-4491
▁Kavanaugh	-4492
▁putting	-4493
▁45	-4494
▁application	-4495
▁regarding	-4496
▁southern	-4497
▁internet	-4498
▁Mean	-4499
orary	-4500
▁Jon	-4501
▁trail	-4502
part	-4503
▁guns	-4504
iling	-4505
▁measures	-4506
▁Mos	-4507
▁excited	-4508
▁injuries	-4509
▁Best	-4510
▁resources	-4511
▁Scot	-4512
▁Wal	-4513
witch	-4514
▁Stud	-4515
▁Lat	-4516
phone	-4517
▁spir	-4518
▁supposed	-4519
▁suspect	-4520
▁benefit	-4521
That	-4522
▁Plan	-4523
▁enforcement	-4524
▁hun	-4525
▁centre	-4526
-0	-4527
▁supply	-4528
▁purchase	-4529
▁Are	-4530
▁conducted	-4531
▁sides	-4532
▁basis	-4533
▁write	-4534
agram	-4535
▁knowledge	-4536
▁bid	-4537
▁approved	-4538
▁sust	-4539
▁admitted	-4540
gers	-4541
▁2018.	-4542
▁Rad	-4543
▁advoc	-4544
▁presence	-4545
▁views	-4546
▁bringing	-4547
▁featured	-4548
▁Good	-4549
▁animal	-4550
▁mouth	-4551
▁Please	-4552
▁CNN	-4553
▁Ros	-4554
▁housing	-4555
▁telling	-4556
▁definitely	-4557
CC	-4558
▁elected	-4559
▁extremely	-4560
▁Sl	-4561
▁communities	-4562
uses	-4563
▁obser	-4564
▁standing	-4565
▁eth	-4566
▁guilty	-4567
▁absolute	-4568
inary	-4569
▁lawsuit	-4570
▁analysis	-4571
lied	-4572
▁Sports	-4573
▁Williams	-4574
▁knows	-4575
▁192	-4576
▁weight	-4577
zen	-4578
▁clearly	-4579
▁watching	-4580
▁drivers	-4581
AF	-4582
▁focused	-4583
▁secure	-4584
▁harm	-4585
▁Ari	-4586
lyn	-4587
▁equip	-4588
▁pic	-4589
idering	-4590
▁thr	-4591
erous	-4592
▁haven	-4593
ena	-4594
▁selling	-4595
▁Develop	-4596
▁teen	-4597
ini	-4598
owl	-4599
▁syn	-4600
▁expressed	-4601
▁abuse	-4602
▁2,	-4603
▁scientists	-4604
ucky	-4605
▁performed	-4606
▁Ra	-4607
rick	-4608
▁aware	-4609
▁learned	-4610
And	-4611
town	-4612
▁Kim	-4613
▁virt	-4614
▁generally	-4615
rd	-4616
enses	-4617
asy	-4618
burg	-4619
using	-4620
bur	-4621
▁file	-4622
▁helping	-4623
▁smaller	-4624
▁bag	-4625
▁domestic	-4626
▁tight	-4627
▁Joe	-4628
▁Why	-4629
aval	-4630
▁Because	-4631
▁comfort	-4632
▁YouTube	-4633
▁Research	-4634
▁beautiful	-4635
▁supporters	-4636
▁som	-4637
▁Public	-4638
▁minute	-4639
▁Hen	-4640
▁sites	-4641
onald	-4642
▁girls	-4643
▁Ve	-4644
ader	-4645
▁hero	-4646
▁2005	-4647
ickets	-4648
urance	-4649
▁king	-4650
▁updated	-4651
▁Space	-4652
▁collection	-4653
▁direction	-4654
▁Royal	-4655
ictions	-4656
▁gar	-4657
▁Fre	-4658
▁freedom	-4659
▁concept	-4660
▁occurred	-4661
▁facing	-4662
▁yourself	-4663
add	-4664
gu	-4665
▁Once	-4666
▁covered	-4667
▁Music	-4668
▁cook	-4669
▁lose	-4670
agement	-4671
▁Georg	-4672
kins	-4673
▁protection	-4674
inct	-4675
▁voting	-4676
▁Cle	-4677
▁Hy	-4678
▁Virginia	-4679
▁rat	-4680
▁seasons	-4681
istics	-4682
▁Meanwhile	-4683
alse	-4684
▁testing	-4685
▁Carolina	-4686
▁kid	-4687
enger	-4688
▁Fil	-4689
▁voted	-4690
ien	-4691
▁NAS	-4692
70	-4693
▁opinion	-4694
▁older	-4695
itz	-4696
ET	-4697
▁Palest	-4698
erry	-4699
▁millions	-4700
▁limit	-4701
▁sequ	-4702
know	-4703
▁intended	-4704
▁Bush	-4705
lines	-4706
▁parliament	-4707
ersey	-4708
▁skin	-4709
▁catch	-4710
▁associated	-4711
▁collabor	-4712
▁enem	-4713
▁dangerous	-4714
▁Club	-4715
▁operating	-4716
▁Mount	-4717
▁studio	-4718
▁Week	-4719
▁governor	-4720
HL	-4721
▁upgr	-4722
▁wearing	-4723
ka	-4724
▁Glo	-4725
▁Director	-4726
ansion	-4727
▁Paris	-4728
▁chem	-4729
▁liter	-4730
▁bottom	-4731
▁structure	-4732
▁afford	-4733
▁Foot	-4734
▁reading	-4735
▁finding	-4736
▁Guard	-4737
▁listed	-4738
ici	-4739
met	-4740
ropical	-4741
▁advantage	-4742
▁unlike	-4743
▁difference	-4744
ervation	-4745
▁cancer	-4746
▁programs	-4747
▁sector	-4748
▁politic	-4749
oria	-4750
▁disease	-4751
▁core	-4752
▁amazing	-4753
▁truth	-4754
▁Division	-4755
▁Francisco	-4756
eline	-4757
▁gay	-4758
▁guard	-4759
▁closer	-4760
▁Internet	-4761
▁proposal	-4762
lets	-4763
▁plays	-4764
▁$5	-4765
▁ongoing	-4766
▁tack	-4767
istered	-4768
▁university	-4769
▁occup	-4770
emen	-4771
aks	-4772
▁unable	-4773
▁worst	-4774
▁Bern	-4775
▁Israeli	-4776
▁Down	-4777
abin	-4778
▁bul	-4779
ellow	-4780
odies	-4781
▁thanks	-4782
▁Jackson	-4783
▁dedic	-4784
▁Media	-4785
▁equipment	-4786
▁married	-4787
▁apolog	-4788
▁offensive	-4789
inent	-4790
ala	-4791
ewhere	-4792
▁Federal	-4793
run	-4794
▁migrants	-4795
▁wish	-4796
▁AM	-4797
oted	-4798
▁Arabia	-4799
fr	-4800
▁delivered	-4801
rison	-4802
works	-4803
▁twice	-4804
▁warned	-4805
▁Daniel	-4806
ribute	-4807
▁tim	-4808
▁films	-4809
ingly	-4810
rier	-4811
▁Tay	-4812
isters	-4813
▁Ford	-4814
ghan	-4815
▁boost	-4816
fit	-4817
ipping	-4818
▁ideas	-4819
hens	-4820
▁steps	-4821
aren	-4822
▁northern	-4823
▁mechan	-4824
▁diss	-4825
▁strategy	-4826
▁Bob	-4827
ogue	-4828
▁sche	-4829
▁privacy	-4830
ours	-4831
▁Those	-4832
▁formed	-4833
▁Labour	-4834
▁Their	-4835
▁declined	-4836
DA	-4837
90	-4838
▁delay	-4839
▁developers	-4840
▁Tra	-4841
outs	-4842
▁prime	-4843
▁Win	-4844
▁Pri	-4845
▁Ol	-4846
arant	-4847
▁weather	-4848
▁Sk	-4849
▁Following	-4850
▁Author	-4851
ucks	-4852
▁clot	-4853
▁2000	-4854
▁apparently	-4855
▁resc	-4856
▁surprise	-4857
aints	-4858
▁decade	-4859
▁slightly	-4860
▁hasn	-4861
▁variety	-4862
▁machine	-4863
chang	-4864
atures	-4865
ighters	-4866
icious	-4867
What	-4868
iliar	-4869
icide	-4870
▁keeping	-4871
▁lawyer	-4872
▁drugs	-4873
rid	-4874
iter	-4875
▁vir	-4876
▁writer	-4877
▁corner	-4878
▁categ	-4879
▁alongside	-4880
▁soldiers	-4881
2,	-4882
▁Ev	-4883
▁tom	-4884
▁Charl	-4885
▁heat	-4886
▁setting	-4887
▁Foundation	-4888
▁Sum	-4889
xit	-4890
gn	-4891
▁Rod	-4892
ype	-4893
3,	-4894
▁USA	-4895
▁Michigan	-4896
oly	-4897
▁fellow	-4898
▁learning	-4899
▁tun	-4900
▁newspaper	-4901
▁deploy	-4902
▁immigration	-4903
▁nearby	-4904
SA	-4905
▁et	-4906
astructure	-4907
▁Prot	-4908
▁respective	-4909
▁subsequ	-4910
▁See	-4911
arters	-4912
▁protected	-4913
pper	-4914
lies	-4915
▁Disney	-4916
anda	-4917
▁vul	-4918
▁Time	-4919
▁capacity	-4920
▁flood	-4921
astern	-4922
essions	-4923
▁sem	-4924
imb	-4925
▁desc	-4926
▁assess	-4927
▁connection	-4928
▁190	-4929
▁giant	-4930
▁rally	-4931
atically	-4932
▁declared	-4933
▁wood	-4934
▁speaking	-4935
▁hopes	-4936
▁developing	-4937
When	-4938
not	-4939
onna	-4940
formation	-4941
▁gain	-4942
CO	-4943
▁Techn	-4944
▁Lake	-4945
▁Av	-4946
▁Journal	-4947
▁prompt	-4948
▁proceed	-4949
▁largely	-4950
25	-4951
ximately	-4952
▁cannabis	-4953
▁bird	-4954
▁lands	-4955
▁der	-4956
▁window	-4957
▁losing	-4958
▁innov	-4959
sts	-4960
▁Hist	-4961
▁Ital	-4962
▁consult	-4963
▁glass	-4964
▁whatever	-4965
▁AD	-4966
▁Steve	-4967
aine	-4968
▁$4	-4969
ST	-4970
▁purpose	-4971
▁Braz	-4972
▁restaurant	-4973
ortion	-4974
▁happens	-4975
▁tech	-4976
▁36	-4977
▁chart	-4978
▁exerc	-4979
▁Invest	-4980
rig	-4981
▁Boy	-4982
▁Wood	-4983
▁nar	-4984
▁anc	-4985
▁fol	-4986
▁yesterday	-4987
1,	-4988
▁contain	-4989
▁graph	-4990
ador	-4991
embly	-4992
▁contest	-4993
▁Bost	-4994
▁Sar	-4995
▁Ryan	-4996
▁Games	-4997
pool	-4998
tion	-4999
▁dismiss	-5000
▁directed	-5001
▁conflict	-5002
onent	-5003
▁NY	-5004
▁experts	-5005
ronic	-5006
▁Middle	-5007
▁Check	-5008
▁strike	-5009
▁tells	-5010
rim	-5011
hab	-5012
itt	-5013
PS	-5014
▁strength	-5015
▁Walk	-5016
▁province	-5017
itors	-5018
onym	-5019
▁Instagram	-5020
arch	-5021
▁sport	-5022
ucing	-5023
▁behavior	-5024
▁receiving	-5025
▁execut	-5026
▁applications	-5027
▁newslet	-5028
ban	-5029
how	-5030
▁signing	-5031
▁Ten	-5032
▁300	-5033
▁attempted	-5034
▁Mass	-5035
▁jail	-5036
▁planet	-5037
▁considering	-5038
▁Sea	-5039
▁eat	-5040
▁brow	-5041
izes	-5042
▁presented	-5043
▁solar	-5044
orage	-5045
pa	-5046
alty	-5047
▁finish	-5048
▁franch	-5049
▁tourn	-5050
▁replaced	-5051
▁About	-5052
▁Prof	-5053
▁magazine	-5054
PA	-5055
▁critics	-5056
ores	-5057
▁solid	-5058
▁function	-5059
▁prin	-5060
raud	-5061
▁doubt	-5062
▁wal	-5063
▁kil	-5064
isf	-5065
EL	-5066
▁Fer	-5067
▁walked	-5068
▁acknow	-5069
▁Home	-5070
▁cold	-5071
▁lived	-5072
▁iPh	-5073
▁hate	-5074
99	-5075
ropriate	-5076
ocol	-5077
▁tow	-5078
▁sud	-5079
▁Card	-5080
▁debt	-5081
▁seconds	-5082
▁prepared	-5083
▁Parliament	-5084
▁GOP	-5085
cos	-5086
ortunately	-5087
▁strateg	-5088
▁bitcoin	-5089
▁renew	-5090
stein	-5091
▁Turkey	-5092
▁Instead	-5093
▁coverage	-5094
▁Any	-5095
▁scale	-5096
▁sitting	-5097
▁faced	-5098
fall	-5099
▁psych	-5100
▁generation	-5101
▁revenue	-5102
▁sudden	-5103
▁click	-5104
▁emergency	-5105
▁infr	-5106
DP	-5107
▁Year	-5108
esperson	-5109
ru	-5110
▁monitor	-5111
▁suggests	-5112
▁Far	-5113
acks	-5114
▁officially	-5115
▁attacked	-5116
▁pointed	-5117
cher	-5118
▁Top	-5119
▁fifth	-5120
▁hurt	-5121
ups	-5122
▁types	-5123
▁grab	-5124
▁Brazil	-5125
ampion	-5126
▁resist	-5127
▁struck	-5128
mond	-5129
--	-5130
▁dip	-5131
▁Zeal	-5132
▁argued	-5133
▁broadcast	-5134
aped	-5135
season	-5136
▁false	-5137
▁accur	-5138
▁Premier	-5139
▁determined	-5140
▁affect	-5141
pm	-5142
▁secretary	-5143
▁Capt	-5144
▁conversation	-5145
ining	-5146
▁Reuters	-5147
lom	-5148
▁easier	-5149
▁captured	-5150
▁stood	-5151
▁advance	-5152
▁elements	-5153
▁Kar	-5154
een	-5155
▁Fort	-5156
▁faces	-5157
anchester	-5158
▁broken	-5159
▁explos	-5160
▁cooper	-5161
ios	-5162
uzz	-5163
▁earth	-5164
life	-5165
▁task	-5166
▁background	-5167
▁ABC	-5168
▁colle	-5169
▁models	-5170
ita	-5171
ruption	-5172
ounded	-5173
▁Boston	-5174
▁numerous	-5175
▁severe	-5176
ibrary	-5177
▁tweeted	-5178
▁Jewish	-5179
▁becomes	-5180
ucted	-5181
▁prefer	-5182
▁mentioned	-5183
▁ML	-5184
▁map	-5185
▁defensive	-5186
▁partnership	-5187
bec	-5188
FA	-5189
▁Board	-5190
anish	-5191
▁Georgia	-5192
▁starts	-5193
▁pattern	-5194
▁fant	-5195
▁buildings	-5196
▁vulner	-5197
▁Kr	-5198
under	-5199
cohol	-5200
▁artist	-5201
road	-5202
▁session	-5203
▁sought	-5204
▁Cath	-5205
▁editor	-5206
olic	-5207
▁motor	-5208
▁Zealand	-5209
ordan	-5210
▁signs	-5211
▁Earlier	-5212
▁Navy	-5213
▁worse	-5214
▁cards	-5215
▁rapid	-5216
rif	-5217
▁Put	-5218
▁joint	-5219
▁ultimately	-5220
▁studies	-5221
awa	-5222
enture	-5223
▁Share	-5224
▁supporting	-5225
▁proud	-5226
▁Stan	-5227
▁prosp	-5228
▁recommend	-5229
ns	-5230
12	-5231
▁cas	-5232
▁possibly	-5233
▁arrang	-5234
pre	-5235
ocking	-5236
▁Penn	-5237
▁stores	-5238
udd	-5239
▁youth	-5240
zer	-5241
▁apply	-5242
▁stick	-5243
▁division	-5244
▁Manchester	-5245
intend	-5246
▁infrastructure	-5247
18	-5248
▁actual	-5249
▁remove	-5250
▁Who	-5251
▁sister	-5252
▁union	-5253
▁Story	-5254
▁negative	-5255
▁apps	-5256
▁Dou	-5257
▁panel	-5258
-4	-5259
▁gender	-5260
▁Though	-5261
▁Charles	-5262
▁Cast	-5263
ourney	-5264
CA	-5265
oving	-5266
▁Its	-5267
▁tough	-5268
▁opportunities	-5269
▁medic	-5270
▁decide	-5271
ait	-5272
▁constant	-5273
amples	-5274
▁combat	-5275
▁express	-5276
▁Jam	-5277
▁underst	-5278
▁Long	-5279
▁possibility	-5280
agn	-5281
▁Attorney	-5282
agues	-5283
▁picked	-5284
▁Mot	-5285
ette	-5286
▁Click	-5287
▁Second	-5288
▁spokesperson	-5289
▁identity	-5290
MA	-5291
rawn	-5292
▁Gra	-5293
▁Hel	-5294
▁banks	-5295
▁Company	-5296
▁streets	-5297
▁facility	-5298
aze	-5299
▁Kelly	-5300
▁Pacific	-5301
▁loved	-5302
▁assets	-5303
lymp	-5304
▁Ant	-5305
▁hotel	-5306
▁favour	-5307
ricane	-5308
▁Free	-5309
▁33	-5310
▁positions	-5311
▁village	-5312
▁Vide	-5313
▁tast	-5314
ev	-5315
▁turning	-5316
▁overse	-5317
▁faith	-5318
▁confident	-5319
ias	-5320
▁Afghan	-5321
▁Stephen	-5322
▁shel	-5323
▁Battle	-5324
▁missed	-5325
▁Mueller	-5326
▁pictures	-5327
▁kiss	-5328
▁matches	-5329
▁Asia	-5330
▁Brexit	-5331
▁rid	-5332
▁Korean	-5333
▁basic	-5334
▁Upd	-5335
▁Hot	-5336
▁thus	-5337
▁Delhi	-5338
idel	-5339
▁agencies	-5340
▁tools	-5341
▁NBC	-5342
ua	-5343
▁earned	-5344
▁Four	-5345
empts	-5346
▁wealth	-5347
▁expert	-5348
▁od	-5349
▁cerem	-5350
wing	-5351
▁pushed	-5352
▁memory	-5353
▁bridge	-5354
▁warning	-5355
▁burn	-5356
▁fort	-5357
▁entirely	-5358
heast	-5359
uate	-5360
▁belong	-5361
▁Jul	-5362
▁crash	-5363
▁involve	-5364
▁Prod	-5365
vis	-5366
▁conservative	-5367
▁famous	-5368
▁ge	-5369
can	-5370
UT	-5371
ican	-5372
▁Ell	-5373
hered	-5374
▁chairman	-5375
▁standards	-5376
▁Olymp	-5377
▁Wat	-5378
▁rum	-5379
ench	-5380
▁agent	-5381
▁apart	-5382
▁experienced	-5383
sex	-5384
▁Van	-5385
orry	-5386
▁actor	-5387
▁decisions	-5388
▁Max	-5389
▁breaking	-5390
▁neighborhood	-5391
▁Davis	-5392
▁Kingdom	-5393
▁causing	-5394
▁Palestin	-5395
▁reporting	-5396
▁Swed	-5397
▁Before	-5398
▁familiar	-5399
▁battery	-5400
look	-5401
osure	-5402
ran	-5403
▁locations	-5404
▁approximately	-5405
▁Rem	-5406
▁Supp	-5407
▁potentially	-5408
▁passing	-5409
▁responsibility	-5410
edy	-5411
▁wed	-5412
▁Roman	-5413
ributed	-5414
▁aggress	-5415
▁Football	-5416
▁Taylor	-5417
▁changing	-5418
▁princip	-5419
▁determine	-5420
ils	-5421
▁dress	-5422
da	-5423
▁aid	-5424
▁bought	-5425
exp	-5426
9,	-5427
▁Northern	-5428
▁Business	-5429
▁truly	-5430
ancing	-5431
ext	-5432
▁chap	-5433
▁shop	-5434
▁hang	-5435
vention	-5436
▁Thank	-5437
iate	-5438
▁criticism	-5439
▁tele	-5440
elect	-5441
▁Three	-5442
▁2015.	-5443
▁Hor	-5444
▁Ohio	-5445
▁Italy	-5446
▁Syrian	-5447
▁marg	-5448
▁payment	-5449
▁withdraw	-5450
antly	-5451
athan	-5452
▁carbon	-5453
ss	-5454
▁skills	-5455
ded	-5456
▁Muslim	-5457
▁Open	-5458
gypt	-5459
▁Thanks	-5460
▁updates	-5461
eds	-5462
▁Columb	-5463
ademy	-5464
verse	-5465
standing	-5466
For	-5467
▁2014,	-5468
▁spect	-5469
▁2015,	-5470
▁warm	-5471
▁sounds	-5472
▁footage	-5473
▁extended	-5474
▁tur	-5475
▁walking	-5476
attle	-5477
anes	-5478
lig	-5479
▁Valley	-5480
utch	-5481
woman	-5482
lete	-5483
▁pieces	-5484
▁Cy	-5485
▁Carl	-5486
isher	-5487
aching	-5488
lywood	-5489
▁understanding	-5490
▁linked	-5491
▁fly	-5492
ials	-5493
▁explain	-5494
▁ride	-5495
cies	-5496
ece	-5497
▁Ministry	-5498
▁Whe	-5499
▁crimes	-5500
▁carrying	-5501
inem	-5502
▁nor	-5503
▁armed	-5504
ologies	-5505
▁Love	-5506
asure	-5507
▁acting	-5508
RA	-5509
▁NASA	-5510
ecution	-5511
▁Loading	-5512
▁reduced	-5513
ashion	-5514
▁impress	-5515
orted	-5516
related	-5517
▁Turk	-5518
▁Irish	-5519
▁Ul	-5520
▁combined	-5521
▁widely	-5522
▁entry	-5523
▁Pan	-5524
▁serving	-5525
ansas	-5526
olved	-5527
▁beer	-5528
▁batt	-5529
▁bodies	-5530
6,	-5531
▁Scotland	-5532
▁AT	-5533
▁compar	-5534
▁obs	-5535
▁Mah	-5536
▁guess	-5537
▁deaths	-5538
▁Avenue	-5539
sey	-5540
▁stret	-5541
▁Ash	-5542
▁producer	-5543
ulture	-5544
uan	-5545
▁replace	-5546
▁highlight	-5547
▁turns	-5548
▁apprec	-5549
▁flat	-5550
oma	-5551
▁confidence	-5552
▁Egypt	-5553
▁Color	-5554
▁hoping	-5555
:30	-5556
▁mal	-5557
▁Di	-5558
▁Italian	-5559
▁watched	-5560
▁Inf	-5561
▁recording	-5562
▁Rs	-5563
▁relatively	-5564
▁authority	-5565
▁consumers	-5566
▁seats	-5567
▁Blue	-5568
▁attempts	-5569
▁inspired	-5570
▁increasingly	-5571
ews	-5572
itect	-5573
▁organizations	-5574
unte	-5575
▁environmental	-5576
▁2018,	-5577
▁professor	-5578
▁Cred	-5579
▁bigger	-5580
▁ruled	-5581
▁customer	-5582
▁manufacture	-5583
▁Dar	-5584
▁hall	-5585
▁Each	-5586
▁tend	-5587
▁worry	-5588
▁paying	-5589
▁cert	-5590
▁plants	-5591
▁accepted	-5592
▁Wars	-5593
▁rose	-5594
▁plane	-5595
▁Ty	-5596
▁amid	-5597
▁happening	-5598
▁specifically	-5599
uctions	-5600
▁minimum	-5601
rep	-5602
▁ath	-5603
▁consequ	-5604
7,	-5605
endment	-5606
▁cells	-5607
urd	-5608
ulations	-5609
▁Project	-5610
ivery	-5611
▁Yes	-5612
▁Spanish	-5613
mes	-5614
ensions	-5615
aled	-5616
org	-5617
▁internal	-5618
▁circum	-5619
▁Hillary	-5620
▁feels	-5621
rencies	-5622
▁spring	-5623
▁treated	-5624
ati	-5625
▁Ann	-5626
pass	-5627
▁(2	-5628
▁Life	-5629
▁experiment	-5630
▁iPhone	-5631
▁shortly	-5632
▁Way	-5633
▁subscrib	-5634
▁2016.	-5635
▁Cam	-5636
▁34	-5637
▁1990	-5638
▁fraud	-5639
▁follows	-5640
ockey	-5641
OL	-5642
▁payments	-5643
oggi	-5644
▁rein	-5645
'.	-5646
▁Vol	-5647
▁coff	-5648
▁Ukraine	-5649
axy	-5650
▁selected	-5651
CH	-5652
eph	-5653
▁currency	-5654
ooth	-5655
▁Hou	-5656
▁holiday	-5657
▁Coin	-5658
▁gam	-5659
▁Kent	-5660
▁defeat	-5661
oking	-5662
▁channel	-5663
▁package	-5664
▁challenges	-5665
▁Power	-5666
▁native	-5667
▁dedicated	-5668
▁franchise	-5669
place	-5670
ashoggi	-5671
▁tracks	-5672
▁Kn	-5673
uration	-5674
IM	-5675
mates	-5676
▁Ariz	-5677
▁Work	-5678
itar	-5679
▁metal	-5680
▁2004	-5681
▁weak	-5682
▁owned	-5683
▁county	-5684
war	-5685
gery	-5686
▁termin	-5687
oral	-5688
▁alternative	-5689
▁guarant	-5690
uted	-5691
iger	-5692
▁Oper	-5693
▁Henry	-5694
▁Judge	-5695
eing	-5696
▁boss	-5697
▁Centre	-5698
▁technical	-5699
▁PS	-5700
imal	-5701
▁TO	-5702
arden	-5703
▁approval	-5704
Our	-5705
▁Emp	-5706
▁perman	-5707
▁cry	-5708
▁belief	-5709
▁rejected	-5710
▁Jersey	-5711
eler	-5712
▁Er	-5713
▁winner	-5714
▁x	-5715
uated	-5716
vant	-5717
▁journey	-5718
▁registered	-5719
▁Lit	-5720
▁protests	-5721
andal	-5722
▁failure	-5723
urban	-5724
▁transl	-5725
▁storage	-5726
▁orders	-5727
▁Test	-5728
▁complaint	-5729
long	-5730
▁Town	-5731
vey	-5732
▁surrounding	-5733
▁journalist	-5734
▁rising	-5735
▁Khashoggi	-5736
cks	-5737
▁destroyed	-5738
rog	-5739
▁Arch	-5740
▁proced	-5741
▁weapon	-5742
▁maintain	-5743
▁Bol	-5744
tic	-5745
owed	-5746
acement	-5747
▁ring	-5748
▁cro	-5749
▁Gen	-5750
▁struct	-5751
▁Old	-5752
▁mental	-5753
▁discussion	-5754
▁winter	-5755
abb	-5756
▁findings	-5757
▁eastern	-5758
stream	-5759
▁sanctions	-5760
▁Live	-5761
▁healthy	-5762
oming	-5763
there	-5764
▁fish	-5765
▁wear	-5766
▁championship	-5767
flix	-5768
▁trend	-5769
▁38	-5770
▁publicly	-5771
▁alcohol	-5772
▁vs	-5773
▁Raj	-5774
▁referred	-5775
▁Coll	-5776
▁listen	-5777
▁attended	-5778
▁split	-5779
▁gather	-5780
point	-5781
▁symbol	-5782
▁resolution	-5783
▁Major	-5784
▁spons	-5785
▁expensive	-5786
▁assum	-5787
▁claiming	-5788
▁2017,	-5789
▁expansion	-5790
ez	-5791
dney	-5792
▁filled	-5793
▁western	-5794
▁tournament	-5795
▁Aff	-5796
▁pilot	-5797
▁trig	-5798
▁van	-5799
▁tests	-5800
ossible	-5801
ta	-5802
▁requires	-5803
▁humans	-5804
▁absolutely	-5805
PD	-5806
▁worldwide	-5807
▁2019.	-5808
▁faster	-5809
▁seriously	-5810
asp	-5811
▁Book	-5812
▁none	-5813
▁helps	-5814
▁improved	-5815
▁mand	-5816
▁labor	-5817
gment	-5818
▁abandon	-5819
law	-5820
▁grew	-5821
▁Development	-5822
▁Email	-5823
▁vision	-5824
▁48	-5825
ola	-5826
▁Call	-5827
erved	-5828
▁System	-5829
▁3,	-5830
apers	-5831
dit	-5832
mir	-5833
uro	-5834
▁75	-5835
▁Nick	-5836
encing	-5837
▁plus	-5838
iden	-5839
▁returning	-5840
▁honest	-5841
JP	-5842
▁Tes	-5843
▁Only	-5844
▁tot	-5845
▁Brook	-5846
▁Kevin	-5847
▁stands	-5848
ads	-5849
▁advanced	-5850
▁Coast	-5851
▁messages	-5852
▁Women	-5853
▁transition	-5854
▁leaves	-5855
▁quarterback	-5856
erm	-5857
ections	-5858
ounger	-5859
▁Prince	-5860
alo	-5861
otic	-5862
▁incor	-5863
▁roughly	-5864
▁Young	-5865
▁liqu	-5866
▁shape	-5867
▁reviews	-5868
▁Xbox	-5869
▁campus	-5870
▁Jordan	-5871
▁announce	-5872
▁edge	-5873
har	-5874
▁Sir	-5875
▁Series	-5876
▁involving	-5877
weight	-5878
amm	-5879
hem	-5880
▁controversial	-5881
▁Wales	-5882
▁Special	-5883
▁identify	-5884
▁Rog	-5885
aire	-5886
▁exhib	-5887
▁chain	-5888
▁Brad	-5889
stances	-5890
▁smile	-5891
omin	-5892
▁Arizona	-5893
▁concluded	-5894
▁Luc	-5895
▁god	-5896
engers	-5897
▁bright	-5898
▁detail	-5899
equ	-5900
▁coord	-5901
▁Brian	-5902
▁Houston	-5903
▁emph	-5904
▁exciting	-5905
▁connected	-5906
Tr	-5907
▁myster	-5908
▁thoughts	-5909
▁scenes	-5910
▁square	-5911
▁discl	-5912
▁significantly	-5913
▁contains	-5914
▁mi	-5915
▁diplom	-5916
cont	-5917
▁values	-5918
ushed	-5919
▁ending	-5920
▁appointed	-5921
▁sch	-5922
▁parking	-5923
IP	-5924
▁gra	-5925
▁ST	-5926
oked	-5927
▁featuring	-5928
▁wave	-5929
OM	-5930
▁Dig	-5931
owing	-5932
Reuters	-5933
▁ends	-5934
▁opposed	-5935
▁prove	-5936
state	-5937
▁Child	-5938
▁begins	-5939
▁agents	-5940
iat	-5941
▁facilities	-5942
▁contributed	-5943
▁Liver	-5944
▁pool	-5945
▁Nations	-5946
▁Fall	-5947
▁urg	-5948
▁37	-5949
▁Network	-5950
▁Services	-5951
▁Seattle	-5952
▁accomp	-5953
▁clin	-5954
rant	-5955
▁pod	-5956
▁balance	-5957
ocr	-5958
▁Turkish	-5959
▁NE	-5960
▁Award	-5961
▁constitution	-5962
▁dram	-5963
wan	-5964
mosp	-5965
▁percentage	-5966
abilities	-5967
issions	-5968
▁greatest	-5969
▁airport	-5970
▁die	-5971
▁Pel	-5972
▁Netflix	-5973
▁script	-5974
ylum	-5975
II	-5976
▁scheme	-5977
▁bom	-5978
▁sentence	-5979
▁degree	-5980
▁Southern	-5981
▁Human	-5982
▁crack	-5983
▁Hom	-5984
quarters	-5985
cow	-5986
lusion	-5987
▁distance	-5988
apore	-5989
▁quiet	-5990
▁frustr	-5991
5,	-5992
So	-5993
▁viewers	-5994
▁Science	-5995
▁bond	-5996
ker	-5997
▁artists	-5998
▁closely	-5999
▁matters	-6000
▁heads	-6001
▁1.	-6002
▁newly	-6003
▁Fam	-6004
▁Ill	-6005
▁materials	-6006
▁Class	-6007
▁Bell	-6008
▁spirit	-6009
▁regional	-6010
▁enh	-6011
▁Sever	-6012
▁Conn	-6013
▁threats	-6014
▁threatened	-6015
▁reaction	-6016
▁maximum	-6017
▁pregn	-6018
▁satisf	-6019
adel	-6020
▁obviously	-6021
▁apartment	-6022
ishes	-6023
▁Greek	-6024
▁motion	-6025
osite	-6026
▁AF	-6027
▁sad	-6028
▁bear	-6029
oles	-6030
▁2003	-6031
▁vice	-6032
angers	-6033
▁repeatedly	-6034
▁investigating	-6035
ules	-6036
▁advert	-6037
▁pitch	-6038
▁truck	-6039
▁shares	-6040
▁Real	-6041
▁therefore	-6042
▁McG	-6043
▁promised	-6044
▁Sydney	-6045
hand	-6046
uts	-6047
▁plenty	-6048
▁penalty	-6049
▁violent	-6050
▁founder	-6051
▁sharp	-6052
abeth	-6053
▁ranked	-6054
ali	-6055
▁forms	-6056
▁ft	-6057
essor	-6058
▁plot	-6059
▁Wilson	-6060
▁Ok	-6061
osen	-6062
▁domin	-6063
nergy	-6064
▁NBA	-6065
▁leads	-6066
▁Society	-6067
▁rich	-6068
▁Hur	-6069
▁Cro	-6070
▁Conf	-6071
▁welcome	-6072
▁interests	-6073
▁episodes	-6074
▁PM	-6075
▁handle	-6076
▁cart	-6077
▁advice	-6078
▁pal	-6079
owered	-6080
▁heavily	-6081
▁sending	-6082
rees	-6083
▁Josh	-6084
uties	-6085
olit	-6086
▁Whit	-6087
▁sand	-6088
▁scr	-6089
▁versions	-6090
▁profit	-6091
▁Agency	-6092
apping	-6093
▁dogs	-6094
▁tree	-6095
▁Liverpool	-6096
▁Night	-6097
▁champion	-6098
▁sho	-6099
▁deals	-6100
▁1980	-6101
▁Singapore	-6102
▁visited	-6103
▁assistant	-6104
▁Die	-6105
▁Stadium	-6106
▁rival	-6107
esters	-6108
▁latter	-6109
▁laugh	-6110
▁Social	-6111
▁river	-6112
utation	-6113
▁otherwise	-6114
▁Web	-6115
UR	-6116
▁hell	-6117
▁Sky	-6118
▁surprised	-6119
▁trib	-6120
▁Sn	-6121
aser	-6122
burgh	-6123
▁zone	-6124
ko	-6125
▁400	-6126
▁2017.	-6127
▁mode	-6128
▁Video	-6129
idden	-6130
▁pray	-6131
ked	-6132
▁2016,	-6133
▁Former	-6134
▁schedule	-6135
▁adjust	-6136
▁Adam	-6137
irty	-6138
▁Defense	-6139
imp	-6140
▁mixed	-6141
▁loan	-6142
active	-6143
▁defence	-6144
▁headed	-6145
gas	-6146
▁governments	-6147
▁discussed	-6148
▁vo	-6149
▁regulations	-6150
▁Greece	-6151
▁refugees	-6152
sea	-6153
abled	-6154
▁master	-6155
16	-6156
hell	-6157
ynam	-6158
▁bot	-6159
▁AL	-6160
▁territory	-6161
amin	-6162
▁Lord	-6163
▁49	-6164
▁stress	-6165
ERS	-6166
▁Ep	-6167
▁theme	-6168
aza	-6169
▁classic	-6170
▁targeted	-6171
▁volunte	-6172
upper	-6173
▁Block	-6174
My	-6175
:00	-6176
▁ET	-6177
owa	-6178
▁Blo	-6179
centr	-6180
-20	-6181
inder	-6182
▁younger	-6183
▁Santa	-6184
pay	-6185
▁Hollywood	-6186
▁negotiations	-6187
▁Organ	-6188
▁lob	-6189
▁Foreign	-6190
▁univers	-6191
uster	-6192
▁praised	-6193
hus	-6194
razy	-6195
▁unus	-6196
▁Eric	-6197
▁Moscow	-6198
Le	-6199
▁Sat	-6200
▁taxes	-6201
IV	-6202
▁edition	-6203
▁Dun	-6204
▁household	-6205
13	-6206
rible	-6207
▁delivery	-6208
▁reaching	-6209
▁volume	-6210
▁egg	-6211
▁Queen	-6212
▁Albert	-6213
▁slowly	-6214
abinet	-6215
▁adults	-6216
▁acknowled	-6217
but	-6218
orders	-6219
▁Miller	-6220
▁fill	-6221
oration	-6222
▁statements	-6223
reens	-6224
▁era	-6225
ava	-6226
▁icon	-6227
▁promote	-6228
▁elimin	-6229
▁intention	-6230
▁boys	-6231
hat	-6232
▁movies	-6233
▁Among	-6234
▁sweet	-6235
zz	-6236
▁powers	-6237
▁ministry	-6238
icing	-6239
▁IN	-6240
▁typically	-6241
▁resulted	-6242
▁unless	-6243
▁license	-6244
▁Ko	-6245
ym	-6246
▁Getty	-6247
▁moves	-6248
17	-6249
▁Several	-6250
▁roy	-6251
amsung	-6252
ilit	-6253
▁falling	-6254
▁snow	-6255
▁marketing	-6256
▁decline	-6257
▁Orig	-6258
▁remind	-6259
GBT	-6260
▁commitment	-6261
▁files	-6262
▁McD	-6263
▁granted	-6264
▁continuing	-6265
ho	-6266
▁awarded	-6267
▁2.	-6268
ca	-6269
eman	-6270
▁Singh	-6271
▁immediate	-6272
▁row	-6273
▁Marvel	-6274
iy	-6275
▁cuts	-6276
On	-6277
▁tall	-6278
roit	-6279
▁informed	-6280
TA	-6281
bury	-6282
24	-6283
erves	-6284
▁Addition	-6285
▁Rev	-6286
▁shr	-6287
▁insurance	-6288
▁satell	-6289
▁employee	-6290
ket	-6291
▁appoint	-6292
▁Care	-6293
▁flying	-6294
▁highway	-6295
▁trouble	-6296
▁Labor	-6297
▁CBS	-6298
rive	-6299
▁Global	-6300
▁Colorado	-6301
▁Cub	-6302
▁polls	-6303
awn	-6304
▁surgery	-6305
▁bug	-6306
▁FC	-6307
▁Gall	-6308
▁kilomet	-6309
▁mm	-6310
▁Wild	-6311
▁2001	-6312
▁adult	-6313
▁Tour	-6314
▁resign	-6315
▁petition	-6316
▁Tok	-6317
▁counsel	-6318
MP	-6319
▁emphas	-6320
▁lawmakers	-6321
▁breath	-6322
boy	-6323
▁capable	-6324
▁tap	-6325
iants	-6326
▁Hear	-6327
▁respectively	-6328
▁inqu	-6329
▁custody	-6330
▁bound	-6331
▁ven	-6332
▁links	-6333
▁Samsung	-6334
▁Tal	-6335
▁asylum	-6336
inson	-6337
▁Radio	-6338
▁marked	-6339
▁trees	-6340
▁rang	-6341
▁2014.	-6342
▁Pay	-6343
▁Source	-6344
uous	-6345
▁concentr	-6346
▁personnel	-6347
▁Spain	-6348
▁conce	-6349
▁architect	-6350
▁reference	-6351
▁mel	-6352
▁upper	-6353
▁fashion	-6354
▁Water	-6355
▁deputy	-6356
▁estate	-6357
▁Hu	-6358
▁Jr	-6359
▁houses	-6360
▁targets	-6361
▁Light	-6362
▁sharing	-6363
▁unknown	-6364
▁DC	-6365
foot	-6366
▁complic	-6367
writ	-6368
oured	-6369
▁tickets	-6370
▁Sov	-6371
rome	-6372
▁narrow	-6373
thew	-6374
▁desire	-6375
▁prohib	-6376
▁mine	-6377
unction	-6378
No	-6379
lder	-6380
ato	-6381
free	-6382
▁bench	-6383
▁atmosp	-6384
▁tor	-6385
▁Su	-6386
▁banned	-6387
▁extensive	-6388
▁Phot	-6389
▁activists	-6390
CL	-6391
▁etc	-6392
icial	-6393
regon	-6394
▁rating	-6395
▁Camer	-6396
keep	-6397
▁platforms	-6398
▁Dead	-6399
▁earn	-6400
▁Catholic	-6401
▁THE	-6402
▁ceremony	-6403
fire	-6404
▁waste	-6405
ura	-6406
▁suspended	-6407
▁passengers	-6408
▁Os	-6409
▁explore	-6410
intendo	-6411
▁selection	-6412
▁gang	-6413
etic	-6414
▁Bul	-6415
▁Men	-6416
▁remark	-6417
▁factors	-6418
▁chemical	-6419
▁dry	-6420
▁Energy	-6421
▁aimed	-6422
▁multi	-6423
▁vast	-6424
▁label	-6425
▁congress	-6426
▁developer	-6427
▁cited	-6428
iversary	-6429
▁Sab	-6430
▁scoring	-6431
▁shots	-6432
▁assistance	-6433
▁Credit	-6434
▁150	-6435
▁Lew	-6436
▁Head	-6437
anna	-6438
ogan	-6439
▁Stone	-6440
▁switch	-6441
▁Senator	-6442
▁stations	-6443
resents	-6444
iffs	-6445
▁tact	-6446
▁entering	-6447
▁equal	-6448
▁Modi	-6449
▁brings	-6450
▁theat	-6451
acter	-6452
▁coalition	-6453
▁ticket	-6454
▁suffering	-6455
▁promise	-6456
14	-6457
igation	-6458
▁buying	-6459
▁anticip	-6460
MS	-6461
▁ISIS	-6462
▁Academy	-6463
▁neck	-6464
rell	-6465
andom	-6466
▁playoff	-6467
▁pushing	-6468
Is	-6469
▁industrial	-6470
▁shif	-6471
▁holds	-6472
▁politicians	-6473
▁Mir	-6474
▁retire	-6475
▁affili	-6476
ether	-6477
▁coffee	-6478
▁detailed	-6479
▁bull	-6480
▁rot	-6481
▁calc	-6482
▁spark	-6483
▁mut	-6484
▁colleagues	-6485
▁theory	-6486
▁Asian	-6487
',	-6488
▁sets	-6489
▁Civil	-6490
izabeth	-6491
ilton	-6492
▁forg	-6493
Americ	-6494
▁Yemen	-6495
▁stable	-6496
▁moments	-6497
▁NHL	-6498
▁Joseph	-6499
▁tropical	-6500
▁corporate	-6501
▁institutions	-6502
usal	-6503
▁joining	-6504
▁doctor	-6505
▁Minnes	-6506
▁Hun	-6507
▁Detroit	-6508
▁Tele	-6509
▁touchdown	-6510
▁fees	-6511
▁lie	-6512
▁Dam	-6513
▁excell	-6514
▁surprising	-6515
▁captain	-6516
▁bare	-6517
▁instance	-6518
▁plastic	-6519
icken	-6520
▁relief	-6521
▁Nintendo	-6522
cript	-6523
22	-6524
▁appearances	-6525
▁Mayor	-6526
▁entertain	-6527
19	-6528
▁Cruz	-6529
▁creation	-6530
▁obtained	-6531
▁Still	-6532
▁clar	-6533
▁talked	-6534
▁nations	-6535
▁valid	-6536
▁goods	-6537
▁consumer	-6538
▁forget	-6539
▁Turn	-6540
▁practices	-6541
▁AN	-6542
▁bes	-6543
pet	-6544
▁Malays	-6545
▁Hind	-6546
▁suspected	-6547
▁4,	-6548
▁1970	-6549
▁Iowa	-6550
▁Rights	-6551
avell	-6552
▁Harris	-6553
▁react	-6554
▁represents	-6555
aling	-6556
▁Speaking	-6557
found	-6558
ora	-6559
▁streaming	-6560
▁bike	-6561
▁Hospital	-6562
▁2002	-6563
▁wake	-6564
▁Anth	-6565
ubb	-6566
adelph	-6567
▁sky	-6568
▁vess	-6569
▁chosen	-6570
▁substant	-6571
illance	-6572
▁Land	-6573
▁Putin	-6574
8,	-6575
▁Oregon	-6576
▁impossible	-6577
▁prominent	-6578
▁Ins	-6579
water	-6580
00,000	-6581
▁column	-6582
▁hardware	-6583
▁harass	-6584
▁Gov	-6585
▁consp	-6586
▁competitive	-6587
itchen	-6588
▁suc	-6589
▁adapt	-6590
▁desk	-6591
▁Tesla	-6592
▁Minnesota	-6593
▁permission	-6594
TS	-6595
▁escape	-6596
▁hat	-6597
▁tar	-6598
care	-6599
▁Hard	-6600
▁Ha	-6601
▁Entertain	-6602
uls	-6603
▁argument	-6604
▁Balt	-6605
45	-6606
▁chose	-6607
▁elev	-6608
▁optim	-6609
respond	-6610
star	-6611
Un	-6612
▁defeated	-6613
▁laid	-6614
▁talent	-6615
isa	-6616
▁WW	-6617
adelphia	-6618
▁$6	-6619
▁cultural	-6620
▁manage	-6621
ureau	-6622
▁Later	-6623
▁ing	-6624
▁roads	-6625
▁Current	-6626
▁Bang	-6627
gl	-6628
teen	-6629
▁jack	-6630
▁solutions	-6631
▁gro	-6632
mun	-6633
▁stadium	-6634
▁Lind	-6635
▁Walker	-6636
nam	-6637
▁Cat	-6638
▁convicted	-6639
▁GM	-6640
▁Further	-6641
▁shift	-6642
▁succeed	-6643
▁wedding	-6644
▁Beach	-6645
▁emissions	-6646
▁Ut	-6647
▁cloud	-6648
iro	-6649
▁motiv	-6650
▁Lin	-6651
▁unclear	-6652
gent	-6653
Sp	-6654
▁Tony	-6655
▁gaming	-6656
▁parent	-6657
▁athlet	-6658
▁musical	-6659
▁ID	-6660
▁honor	-6661
▁academ	-6662
▁55	-6663
▁acts	-6664
eding	-6665
▁Hung	-6666
ocracy	-6667
ancou	-6668
▁Next	-6669
▁Econom	-6670
▁contrast	-6671
▁requirements	-6672
▁appropriate	-6673
▁gained	-6674
▁ped	-6675
▁veteran	-6676
▁explains	-6677
▁noticed	-6678
▁Ret	-6679
▁obvious	-6680
▁mayor	-6681
▁behavi	-6682
▁passion	-6683
▁sight	-6684
▁Entertainment	-6685
▁backed	-6686
▁remarks	-6687
▁exchang	-6688
▁gift	-6689
▁Cross	-6690
▁Ontar	-6691
▁$10	-6692
75	-6693
▁Philadelphia	-6694
▁finance	-6695
terest	-6696
▁exclusive	-6697
LE	-6698
▁UFC	-6699
▁scientific	-6700
▁thick	-6701
▁Ray	-6702
▁represented	-6703
▁historic	-6704
▁effectively	-6705
An	-6706
▁LGBT	-6707
▁explo	-6708
▁losses	-6709
▁reporter	-6710
▁sick	-6711
▁condem	-6712
▁titles	-6713
▁chest	-6714
▁travell	-6715
▁depend	-6716
▁visual	-6717
▁sees	-6718
zy	-6719
▁importance	-6720
isp	-6721
enth	-6722
▁clubs	-6723
force	-6724
▁Admin	-6725
▁Tech	-6726
▁pled	-6727
ifications	-6728
va	-6729
gender	-6730
whel	-6731
▁cycl	-6732
▁legs	-6733
▁successfully	-6734
idi	-6735
iami	-6736
akh	-6737
▁tonight	-6738
▁grown	-6739
▁damaged	-6740
▁meat	-6741
▁client	-6742
▁unlikely	-6743
▁returns	-6744
▁intens	-6745
▁Ross	-6746
▁elig	-6747
pton	-6748
▁2013,	-6749
▁decent	-6750
lock	-6751
▁Arm	-6752
OW	-6753
▁horse	-6754
▁drawn	-6755
▁Bas	-6756
▁Early	-6757
▁Conference	-6758
▁duty	-6759
ologist	-6760
▁hyd	-6761
ompl	-6762
▁42	-6763
▁ties	-6764
▁ok	-6765
▁tied	-6766
stone	-6767
▁creative	-6768
▁Tit	-6769
▁micro	-6770
▁participants	-6771
ancouver	-6772
▁Jer	-6773
▁View	-6774
▁drag	-6775
▁occasion	-6776
▁useful	-6777
▁tiny	-6778
aka	-6779
▁religion	-6780
▁fleet	-6781
▁MS	-6782
▁roster	-6783
ishop	-6784
▁Market	-6785
▁Fred	-6786
▁installed	-6787
▁experiences	-6788
▁bon	-6789
▁Uber	-6790
▁Cop	-6791
▁purchased	-6792
▁mining	-6793
ternal	-6794
illy	-6795
▁Jay	-6796
▁Polit	-6797
▁Ontario	-6798
▁load	-6799
lights	-6800
▁supports	-6801
dy	-6802
▁capture	-6803
▁peak	-6804
▁patient	-6805
▁Na	-6806
▁craft	-6807
▁doctors	-6808
▁imagine	-6809
▁ESP	-6810
▁criticized	-6811
bar	-6812
▁realized	-6813
▁FI	-6814
▁visitors	-6815
▁heading	-6816
▁founded	-6817
▁dance	-6818
▁AI	-6819
▁mir	-6820
LC	-6821
▁boat	-6822
▁adds	-6823
▁posts	-6824
▁BJP	-6825
host	-6826
▁Square	-6827
▁dial	-6828
She	-6829
▁Fair	-6830
▁anywhere	-6831
adesh	-6832
lers	-6833
▁probe	-6834
▁Atlantic	-6835
▁paint	-6836
▁mere	-6837
mad	-6838
▁clients	-6839
zens	-6840
▁wire	-6841
▁settlement	-6842
▁transactions	-6843
▁winds	-6844
▁Ott	-6845
▁worried	-6846
▁virtual	-6847
▁writes	-6848
▁Circ	-6849
▁causes	-6850
▁thinks	-6851
▁Eastern	-6852
▁applied	-6853
▁operate	-6854
▁properties	-6855
olve	-6856
▁iOS	-6857
▁wing	-6858
▁downtown	-6859
▁resulting	-6860
▁races	-6861
bourne	-6862
▁DNA	-6863
▁fighters	-6864
▁collected	-6865
▁mph	-6866
▁handed	-6867
pective	-6868
▁Related	-6869
Im	-6870
▁immigrants	-6871
▁raising	-6872
▁pit	-6873
▁Vancouver	-6874
ouch	-6875
▁enthus	-6876
▁ancient	-6877
▁hyp	-6878
▁43	-6879
▁portion	-6880
▁Associated	-6881
▁auth	-6882
▁contracts	-6883
▁enemy	-6884
▁newsletter	-6885
otten	-6886
▁letters	-6887
weet	-6888
▁Viet	-6889
▁prosecutors	-6890
▁impressive	-6891
▁canc	-6892
▁Educ	-6893
▁Form	-6894
▁189	-6895
▁Pit	-6896
▁Look	-6897
ographic	-6898
▁regions	-6899
▁indicated	-6900
away	-6901
▁decre	-6902
eah	-6903
▁fing	-6904
▁VR	-6905
enny	-6906
BO	-6907
olen	-6908
▁Miami	-6909
▁Express	-6910
▁Ah	-6911
ums	-6912
▁combination	-6913
Station	-6914
▁dat	-6915
▁tomorrow	-6916
▁incredible	-6917
senal	-6918
osh	-6919
▁lock	-6920
▁remote	-6921
-5	-6922
▁Museum	-6923
▁phase	-6924
▁Stand	-6925
▁mainly	-6926
▁offense	-6927
▁initiative	-6928
▁waters	-6929
▁Scottish	-6930
▁wins	-6931
▁Ap	-6932
enda	-6933
ima	-6934
▁spin	-6935
▁engaged	-6936
▁basket	-6937
▁tested	-6938
▁Jac	-6939
▁convention	-6940
ba	-6941
rives	-6942
▁Greg	-6943
bridge	-6944
▁doors	-6945
▁anonym	-6946
▁encoun	-6947
called	-6948
▁terrorist	-6949
▁44	-6950
ulous	-6951
▁lots	-6952
▁displ	-6953
▁comfortable	-6954
▁networks	-6955
iana	-6956
osi	-6957
▁Little	-6958
▁accompl	-6959
tering	-6960
1.	-6961
▁exercise	-6962
iano	-6963
▁urged	-6964
▁investigators	-6965
▁retired	-6966
▁programme	-6967
ilipp	-6968
▁copy	-6969
▁Soviet	-6970
▁intent	-6971
with	-6972
allas	-6973
enders	-6974
▁Matthew	-6975
▁mail	-6976
▁knowing	-6977
▁Fund	-6978
▁possession	-6979
▁advis	-6980
▁Community	-6981
avor	-6982
▁habit	-6983
Sh	-6984
▁height	-6985
▁temperature	-6986
▁electricity	-6987
▁READ	-6988
▁dinner	-6989
▁transform	-6990
▁busy	-6991
▁participate	-6992
▁guide	-6993
▁enjoyed	-6994
▁discover	-6995
▁drew	-6996
▁pages	-6997
▁sac	-6998
ensus	-6999
▁Indust	-7000
▁fake	-7001
▁browser	-7002
ctor	-7003
▁headquarters	-7004
▁premie	-7005
which	-7006
▁audio	-7007
▁invited	-7008
bu	-7009
▁Awards	-7010
▁passes	-7011
▁mob	-7012
▁mo	-7013
ocket	-7014
▁Conservative	-7015
lan	-7016
▁usual	-7017
amber	-7018
▁factor	-7019
orough	-7020
▁farmers	-7021
▁sustain	-7022
▁proved	-7023
▁dollar	-7024
▁circumstances	-7025
▁guitar	-7026
▁confirmation	-7027
▁Rom	-7028
▁accus	-7029
ilding	-7030
▁Key	-7031
▁Ba	-7032
▁manner	-7033
▁suicide	-7034
unning	-7035
▁($	-7036
▁singer	-7037
▁gall	-7038
▁angry	-7039
▁controlled	-7040
ylvan	-7041
▁Jason	-7042
▁conver	-7043
mm	-7044
CE	-7045
▁65	-7046
▁Governor	-7047
game	-7048
▁Afghanistan	-7049
▁teacher	-7050
▁PlayStation	-7051
▁Bry	-7052
▁emerged	-7053
roph	-7054
▁shell	-7055
▁phones	-7056
▁pace	-7057
▁neighbour	-7058
agan	-7059
onic	-7060
▁weren	-7061
▁Marsh	-7062
aro	-7063
▁guest	-7064
▁af	-7065
sters	-7066
▁Pen	-7067
▁Ball	-7068
▁Ult	-7069
inity	-7070
▁driven	-7071
▁exposed	-7072
bel	-7073
▁Rail	-7074
▁ballot	-7075
▁39	-7076
▁Po	-7077
greg	-7078
▁citing	-7079
▁Food	-7080
unicip	-7081
uations	-7082
▁sorry	-7083
▁frequently	-7084
▁regularly	-7085
acking	-7086
▁Palestinian	-7087
mate	-7088
▁punish	-7089
▁observed	-7090
▁ESPN	-7091
▁Through	-7092
▁Rick	-7093
▁requests	-7094
▁cruc	-7095
▁Galaxy	-7096
inch	-7097
▁CO	-7098
▁CD	-7099
top	-7100
isting	-7101
▁Field	-7102
▁Season	-7103
▁meetings	-7104
▁pounds	-7105
▁Abd	-7106
ultural	-7107
oster	-7108
▁finds	-7109
▁Rand	-7110
▁tank	-7111
▁mistake	-7112
▁fee	-7113
▁Graham	-7114
▁Chel	-7115
rehens	-7116
▁Cohen	-7117
ami	-7118
▁festival	-7119
▁enable	-7120
▁unve	-7121
▁Priv	-7122
▁courts	-7123
▁hits	-7124
▁button	-7125
▁encourage	-7126
▁Constitution	-7127
▁Report	-7128
▁likes	-7129
▁sentenced	-7130
igg	-7131
▁Victoria	-7132
▁phil	-7133
▁Hay	-7134
▁tip	-7135
▁anniversary	-7136
▁investigate	-7137
▁profile	-7138
▁fought	-7139
▁surveillance	-7140
▁Independ	-7141
▁Sony	-7142
unior	-7143
▁technologies	-7144
▁schol	-7145
▁Dev	-7146
era	-7147
▁controversy	-7148
▁journalists	-7149
iracy	-7150
▁agric	-7151
▁Nation	-7152
▁Mars	-7153
▁finger	-7154
ras	-7155
oves	-7156
▁strongly	-7157
icking	-7158
▁Broad	-7159
▁reputation	-7160
▁forest	-7161
▁64	-7162
▁compens	-7163
ounced	-7164
▁Ren	-7165
▁shouldn	-7166
▁lawyers	-7167
▁incidents	-7168
▁permanent	-7169
▁adopted	-7170
acked	-7171
▁suddenly	-7172
athered	-7173
▁cameras	-7174
▁Gill	-7175
▁drama	-7176
▁quant	-7177
▁AR	-7178
▁noting	-7179
aga	-7180
inations	-7181
▁Ly	-7182
▁regime	-7183
▁recover	-7184
▁distribution	-7185
▁shoulder	-7186
ommod	-7187
▁Final	-7188
▁chapter	-7189
▁Line	-7190
▁IP	-7191
ylvania	-7192
▁Reddit	-7193
▁jury	-7194
HS	-7195
▁Bra	-7196
▁III	-7197
col	-7198
▁Vice	-7199
▁Mexican	-7200
▁desper	-7201
▁everybody	-7202
▁wage	-7203
▁History	-7204
▁licens	-7205
▁neither	-7206
▁extension	-7207
▁producers	-7208
▁behalf	-7209
▁3.	-7210
ervatives	-7211
idelines	-7212
▁fundament	-7213
uests	-7214
▁eating	-7215
ille	-7216
yo	-7217
▁Crypt	-7218
▁alive	-7219
ashes	-7220
▁entr	-7221
▁primarily	-7222
▁sav	-7223
earing	-7224
▁Fed	-7225
▁Ho	-7226
▁element	-7227
▁Fle	-7228
▁excellent	-7229
▁Medical	-7230
▁Kong	-7231
▁maintained	-7232
▁cutting	-7233
▁gap	-7234
▁sixth	-7235
▁Marc	-7236
▁eval	-7237
bro	-7238
isan	-7239
▁correspond	-7240
iner	-7241
Get	-7242
▁Ca	-7243
▁crazy	-7244
shire	-7245
▁bail	-7246
▁Cook	-7247
▁Anthony	-7248
▁depth	-7249
▁Edward	-7250
▁cycle	-7251
▁comic	-7252
ijing	-7253
▁Rout	-7254
▁emotional	-7255
iform	-7256
▁hired	-7257
acle	-7258
▁hoped	-7259
▁cru	-7260
▁efficient	-7261
▁overwhel	-7262
antry	-7263
▁involvement	-7264
▁sevent	-7265
▁flu	-7266
▁Belg	-7267
▁tons	-7268
elson	-7269
ikes	-7270
▁destr	-7271
▁brown	-7272
▁increases	-7273
▁moder	-7274
▁Bit	-7275
▁Philipp	-7276
▁unusual	-7277
▁mort	-7278
▁Moham	-7279
scrib	-7280
▁shall	-7281
▁totally	-7282
▁Article	-7283
▁protesters	-7284
▁representative	-7285
umber	-7286
eland	-7287
▁corruption	-7288
▁Id	-7289
▁battles	-7290
azz	-7291
▁Six	-7292
▁Az	-7293
▁Wi	-7294
▁Policy	-7295
▁cup	-7296
ped	-7297
▁opposite	-7298
▁rear	-7299
▁allies	-7300
▁approached	-7301
▁Anton	-7302
▁visible	-7303
▁188	-7304
▁colon	-7305
▁Program	-7306
rage	-7307
ushing	-7308
▁Dallas	-7309
▁yellow	-7310
▁library	-7311
▁Lu	-7312
!!	-7313
orne	-7314
▁Film	-7315
▁institution	-7316
asters	-7317
▁concert	-7318
▁Short	-7319
▁lean	-7320
ean	-7321
▁spokeswoman	-7322
rad	-7323
▁reward	-7324
rist	-7325
▁rape	-7326
uable	-7327
▁conven	-7328
▁inches	-7329
▁Transport	-7330
▁Again	-7331
▁beach	-7332
▁accommod	-7333
sewhere	-7334
▁46	-7335
▁opponents	-7336
▁Yet	-7337
▁nod	-7338
▁compete	-7339
born	-7340
▁Indones	-7341
All	-7342
▁Atlanta	-7343
▁Highway	-7344
ctional	-7345
▁abortion	-7346
▁stating	-7347
▁diagn	-7348
▁Penns	-7349
▁emails	-7350
▁lights	-7351
▁Beijing	-7352
▁Diego	-7353
ystem	-7354
▁titled	-7355
▁inters	-7356
▁copies	-7357
cious	-7358
▁Publ	-7359
▁recovery	-7360
▁roles	-7361
▁stolen	-7362
▁struggle	-7363
▁1,000	-7364
▁comprom	-7365
▁Anderson	-7366
▁Alab	-7367
▁dismissed	-7368
worth	-7369
▁End	-7370
▁Patrick	-7371
▁closing	-7372
▁submitted	-7373
▁fixed	-7374
▁legit	-7375
▁wheel	-7376
▁Naz	-7377
yard	-7378
▁Jes	-7379
▁zero	-7380
▁lying	-7381
▁Iranian	-7382
umes	-7383
▁1999	-7384
▁Bull	-7385
▁essential	-7386
▁replied	-7387
▁186	-7388
▁neut	-7389
▁indeed	-7390
PU	-7391
olis	-7392
▁Golden	-7393
itals	-7394
oric	-7395
rapped	-7396
hire	-7397
▁Festival	-7398
▁consequences	-7399
▁bills	-7400
▁contained	-7401
35	-7402
▁Take	-7403
▁ocean	-7404
▁Rub	-7405
▁priority	-7406
▁risks	-7407
▁celebrate	-7408
▁stone	-7409
▁pip	-7410
▁server	-7411
bell	-7412
▁flow	-7413
rimination	-7414
▁communication	-7415
▁Khan	-7416
▁Prov	-7417
▁deeply	-7418
▁discovery	-7419
▁Represent	-7420
▁Chair	-7421
▁historical	-7422
Al	-7423
▁referend	-7424
▁47	-7425
▁Girl	-7426
▁rescue	-7427
▁tag	-7428
anny	-7429
▁Review	-7430
▁5,	-7431
▁Pict	-7432
▁Ak	-7433
▁methods	-7434
▁profession	-7435
merce	-7436
cho	-7437
riers	-7438
▁Columbia	-7439
▁temporary	-7440
essed	-7441
▁sole	-7442
▁walls	-7443
▁Abb	-7444
▁Jess	-7445
▁photograph	-7446
▁intense	-7447
▁Sheriff	-7448
▁bath	-7449
At	-7450
▁Alabama	-7451
▁acquired	-7452
▁nomination	-7453
ielder	-7454
iments	-7455
▁Dutch	-7456
▁threw	-7457
▁Assembly	-7458
▁stepped	-7459
yer	-7460
DS	-7461
▁Kir	-7462
onduct	-7463
▁Kansas	-7464
▁attempting	-7465
ework	-7466
GO	-7467
izz	-7468
▁drinking	-7469
▁commented	-7470
▁steel	-7471
▁summit	-7472
▁embr	-7473
▁feedback	-7474
▁urban	-7475
▁Warren	-7476
▁atmosphere	-7477
▁Vis	-7478
▁Never	-7479
then	-7480
▁Store	-7481
▁constit	-7482
▁Ox	-7483
▁vulnerable	-7484
▁Station	-7485
▁stretch	-7486
onsin	-7487
▁astr	-7488
▁landing	-7489
▁requested	-7490
▁category	-7491
▁hosted	-7492
iot	-7493
▁Education	-7494
▁liquid	-7495
vy	-7496
▁homeless	-7497
RO	-7498
▁aside	-7499
▁alt	-7500
esy	-7501
isconsin	-7502
▁fewer	-7503
▁complaints	-7504
▁Bowl	-7505
adi	-7506
maker	-7507
▁dozen	-7508
▁Ocean	-7509
▁passenger	-7510
▁OS	-7511
▁offices	-7512
▁taste	-7513
▁organized	-7514
▁$7	-7515
▁Bridge	-7516
▁manufacturing	-7517
▁du	-7518
▁error	-7519
▁Alexander	-7520
uits	-7521
▁Pennsylvania	-7522
▁surf	-7523
▁context	-7524
car	-7525
▁smartphone	-7526
▁distinct	-7527
▁wounded	-7528
▁dealing	-7529
▁Bloom	-7530
▁Link	-7531
▁stem	-7532
ela	-7533
▁Chelsea	-7534
▁understood	-7535
▁Pop	-7536
itage	-7537
aron	-7538
▁depression	-7539
▁automatically	-7540
▁Hawai	-7541
ugby	-7542
▁Leader	-7543
▁shock	-7544
▁incorpor	-7545
▁therap	-7546
▁bow	-7547
▁portray	-7548
king	-7549
thereum	-7550
▁AFP	-7551
▁tackle	-7552
▁Adv	-7553
▁firms	-7554
▁opponent	-7555
▁communications	-7556
aven	-7557
▁iron	-7558
▁performances	-7559
▁chances	-7560
▁grounds	-7561
▁41	-7562
▁differences	-7563
lus	-7564
urt	-7565
▁Right	-7566
With	-7567
▁roof	-7568
▁gathered	-7569
▁basically	-7570
▁Dark	-7571
▁counts	-7572
espread	-7573
▁empt	-7574
▁52	-7575
▁detect	-7576
mo	-7577
▁casual	-7578
▁Where	-7579
▁Hamilton	-7580
aska	-7581
▁legend	-7582
ache	-7583
ighth	-7584
▁Hong	-7585
▁teachers	-7586
▁explan	-7587
▁expression	-7588
▁proof	-7589
▁Moore	-7590
▁Melbourne	-7591
▁Stat	-7592
▁entertainment	-7593
▁expanded	-7594
eff	-7595
▁Justin	-7596
▁wonderful	-7597
arsh	-7598
▁Liberal	-7599
▁birds	-7600
▁formal	-7601
▁silver	-7602
taining	-7603
▁blame	-7604
▁readers	-7605
▁prepare	-7606
▁recognition	-7607
▁Chap	-7608
▁achieved	-7609
▁Wisconsin	-7610
▁subsequently	-7611
▁Cre	-7612
▁aver	-7613
▁1960	-7614
▁forth	-7615
▁fallen	-7616
▁lies	-7617
▁demands	-7618
month	-7619
▁publication	-7620
▁Pelosi	-7621
aug	-7622
▁Pot	-7623
▁isol	-7624
▁token	-7625
▁ske	-7626
▁visiting	-7627
rich	-7628
▁spotted	-7629
▁Oak	-7630
▁helic	-7631
▁pump	-7632
imore	-7633
bn	-7634
▁Gun	-7635
▁random	-7636
▁Route	-7637
▁Kat	-7638
itarian	-7639
▁Harry	-7640
▁marks	-7641
▁bra	-7642
▁shopping	-7643
umer	-7644
▁Spring	-7645
▁authors	-7646
▁begun	-7647
rum	-7648
▁Jews	-7649
owned	-7650
▁Latin	-7651
▁Queens	-7652
▁ads	-7653
▁Lewis	-7654
▁engineering	-7655
alle	-7656
▁endors	-7657
-8	-7658
▁arrival	-7659
▁Allen	-7660
▁recip	-7661
esh	-7662
IG	-7663
▁Information	-7664
▁uncertain	-7665
nic	-7666
▁unn	-7667
▁generated	-7668
▁govern	-7669
▁upset	-7670
RC	-7671
▁Pros	-7672
▁organis	-7673
▁drawing	-7674
▁Have	-7675
▁liberal	-7676
▁referendum	-7677
ewhat	-7678
▁Crit	-7679
▁performing	-7680
▁helicop	-7681
▁Elizabeth	-7682
▁okay	-7683
acc	-7684
50,000	-7685
▁Digital	-7686
▁advertising	-7687
fortunately	-7688
www	-7689
enez	-7690
▁innoc	-7691
▁Guardian	-7692
itary	-7693
▁prote	-7694
▁revolution	-7695
▁oblig	-7696
iry	-7697
▁employment	-7698
mits	-7699
▁stronger	-7700
To	-7701
HA	-7702
▁nav	-7703
▁stab	-7704
▁vacc	-7705
▁recognized	-7706
ario	-7707
▁trick	-7708
▁Som	-7709
▁lowest	-7710
▁clothes	-7711
ella	-7712
▁senator	-7713
▁producing	-7714
▁eligible	-7715
▁estimates	-7716
▁referring	-7717
▁Sher	-7718
rical	-7719
▁Scient	-7720
WS	-7721
▁Note	-7722
uctive	-7723
▁realize	-7724
▁disag	-7725
▁lyr	-7726
▁Roberts	-7727
▁Cooper	-7728
How	-7729
▁branch	-7730
▁voter	-7731
▁harder	-7732
▁blow	-7733
▁admit	-7734
▁controls	-7735
▁perspective	-7736
ja	-7737
▁kitchen	-7738
▁arrive	-7739
▁hitting	-7740
▁struggling	-7741
▁predict	-7742
itled	-7743
▁ble	-7744
▁fingers	-7745
▁guests	-7746
▁frame	-7747
ception	-7748
▁format	-7749
▁gotten	-7750
▁actors	-7751
▁friendly	-7752
▁properly	-7753
▁evac	-7754
NBC	-7755
▁steal	-7756
▁Airport	-7757
▁dates	-7758
):	-7759
▁tail	-7760
▁Lyn	-7761
etime	-7762
▁comedy	-7763
▁commander	-7764
▁baseball	-7765
▁describes	-7766
▁relevant	-7767
▁facts	-7768
onnell	-7769
▁brothers	-7770
▁Arsenal	-7771
lims	-7772
▁Roy	-7773
▁dozens	-7774
▁degrees	-7775
▁Patri	-7776
▁pure	-7777
cons	-7778
▁Technology	-7779
▁crossing	-7780
▁resistance	-7781
lad	-7782
▁challenging	-7783
adow	-7784
▁Bad	-7785
▁smooth	-7786
▁Bureau	-7787
prise	-7788
ederation	-7789
▁Family	-7790
▁devast	-7791
▁accurate	-7792
▁agenda	-7793
TI	-7794
▁Lt	-7795
▁Ur	-7796
mail	-7797
level	-7798
▁replacement	-7799
▁widespread	-7800
istol	-7801
▁demanded	-7802
▁occas	-7803
▁Ta	-7804
▁classes	-7805
▁suspects	-7806
▁addressed	-7807
▁plate	-7808
opher	-7809
▁register	-7810
▁improvements	-7811
esome	-7812
▁Captain	-7813
▁merch	-7814
elfare	-7815
▁excess	-7816
▁museum	-7817
gun	-7818
▁Song	-7819
icit	-7820
▁Sound	-7821
areness	-7822
▁FA	-7823
▁Engine	-7824
▁personally	-7825
▁overt	-7826
▁acceler	-7827
ira	-7828
▁Bernie	-7829
▁objects	-7830
iques	-7831
iti	-7832
▁Las	-7833
▁dynam	-7834
▁util	-7835
▁http	-7836
apse	-7837
etts	-7838
▁screens	-7839
▁2013.	-7840
▁insisted	-7841
▁moon	-7842
ye	-7843
▁Update	-7844
▁Baltimore	-7845
▁Pass	-7846
class	-7847
▁assigned	-7848
▁contacted	-7849
▁fur	-7850
▁murd	-7851
▁Morgan	-7852
▁transgender	-7853
employ	-7854
▁tone	-7855
udios	-7856
▁racing	-7857
▁Pin	-7858
▁rub	-7859
▁recre	-7860
▁Argent	-7861
These	-7862
▁Pack	-7863
▁subsc	-7864
SS	-7865
iley	-7866
ji	-7867
▁aggressive	-7868
▁trailer	-7869
▁rural	-7870
▁Officer	-7871
▁strange	-7872
itable	-7873
▁transferred	-7874
▁MPs	-7875
▁flex	-7876
▁Austin	-7877
.-	-7878
rene	-7879
▁Staff	-7880
▁Eag	-7881
▁Squad	-7882
ecraft	-7883
▁twenty	-7884
▁amounts	-7885
▁purposes	-7886
UN	-7887
▁foundation	-7888
rin	-7889
usted	-7890
▁Corpor	-7891
▁Bh	-7892
break	-7893
▁nomine	-7894
▁recru	-7895
rik	-7896
▁depos	-7897
▁crucial	-7898
▁puts	-7899
▁touc	-7900
ordon	-7901
li	-7902
phones	-7903
▁Cust	-7904
wich	-7905
▁consistent	-7906
▁Vegas	-7907
appy	-7908
erted	-7909
TON	-7910
▁narr	-7911
▁Kentucky	-7912
▁ju	-7913
▁rapidly	-7914
Man	-7915
▁basketball	-7916
cosystem	-7917
▁somewhat	-7918
▁divided	-7919
▁preparing	-7920
▁Barack	-7921
▁(3	-7922
▁lips	-7923
▁dispute	-7924
aret	-7925
▁limits	-7926
▁6,	-7927
▁sup	-7928
▁Environment	-7929
▁relationships	-7930
EM	-7931
▁suggesting	-7932
▁Writ	-7933
▁Pitts	-7934
▁recommended	-7935
▁Steam	-7936
▁expectations	-7937
▁Moon	-7938
▁Tam	-7939
-6	-7940
▁4.	-7941
▁swim	-7942
▁Storm	-7943
uten	-7944
/2	-7945
▁1998	-7946
▁Ark	-7947
▁Jose	-7948
iciency	-7949
raid	-7950
scribe	-7951
▁porn	-7952
▁thin	-7953
▁drove	-7954
▁Michel	-7955
osis	-7956
▁Hon	-7957
▁weekly	-7958
▁hal	-7959
▁abandoned	-7960
▁Administration	-7961
▁equival	-7962
▁extend	-7963
hips	-7964
bound	-7965
rets	-7966
▁HD	-7967
ographer	-7968
▁articles	-7969
▁Hell	-7970
▁trains	-7971
RP	-7972
▁Sus	-7973
kens	-7974
osa	-7975
▁Maryland	-7976
▁upgrade	-7977
▁illustr	-7978
▁pleased	-7979
▁flash	-7980
▁hurricane	-7981
▁essentially	-7982
▁crop	-7983
▁landsc	-7984
▁failing	-7985
▁incredibly	-7986
▁SC	-7987
▁cancel	-7988
▁disaster	-7989
▁Lar	-7990
▁anymore	-7991
▁veget	-7992
▁racist	-7993
▁representing	-7994
etary	-7995
▁Roll	-7996
▁hidden	-7997
▁temperatures	-7998
achus	-7999
heim	-8000
ulating	-8001
verty	-8002
▁datab	-8003
▁Five	-8004
fol	-8005
▁Pope	-8006
▁liked	-8007
▁answers	-8008
▁SS	-8009
▁recall	-8010
iscal	-8011
▁Warner	-8012
▁promotion	-8013
▁Ethereum	-8014
comp	-8015
▁discussions	-8016
▁affairs	-8017
▁Brett	-8018
▁margin	-8019
arms	-8020
▁universe	-8021
▁warrant	-8022
▁McK	-8023
▁Imp	-8024
▁Nob	-8025
▁vocal	-8026
▁Tel	-8027
▁overs	-8028
door	-8029
▁Empire	-8030
▁fled	-8031
▁Ted	-8032
▁fighter	-8033
izon	-8034
abs	-8035
▁electronic	-8036
▁shirt	-8037
▁blocks	-8038
▁Var	-8039
▁consecutive	-8040
▁aspects	-8041
▁Professor	-8042
argo	-8043
▁mountain	-8044
▁scream	-8045
▁Person	-8046
idency	-8047
▁prepar	-8048
▁Bron	-8049
iveness	-8050
▁designs	-8051
▁cheap	-8052
ifer	-8053
▁aims	-8054
rete	-8055
▁53	-8056
viously	-8057
▁stages	-8058
PR	-8059
▁containing	-8060
▁7,	-8061
umin	-8062
▁IT	-8063
▁Studios	-8064
77	-8065
▁chat	-8066
Ar	-8067
▁dating	-8068
▁restrictions	-8069
▁supplies	-8070
▁poverty	-8071
▁cooperation	-8072
oval	-8073
▁ho	-8074
▁cha	-8075
▁DV	-8076
▁viewed	-8077
▁Mrs	-8078
▁Tenness	-8079
pts	-8080
▁Start	-8081
▁covers	-8082
▁Amendment	-8083
▁fuck	-8084
veland	-8085
otes	-8086
▁uniform	-8087
▁writers	-8088
▁Main	-8089
▁Crime	-8090
▁outcome	-8091
▁ox	-8092
▁gross	-8093
▁$8	-8094
▁clim	-8095
▁crown	-8096
▁blocked	-8097
▁medium	-8098
oen	-8099
▁Dave	-8100
▁Utah	-8101
▁Crown	-8102
▁Fant	-8103
achusetts	-8104
▁satellite	-8105
▁coordin	-8106
▁consumption	-8107
▁locked	-8108
▁questioned	-8109
▁behaviour	-8110
▁activist	-8111
front	-8112
▁exit	-8113
▁covering	-8114
▁transportation	-8115
▁foss	-8116
▁conclusion	-8117
▁Channel	-8118
▁ministers	-8119
sole	-8120
▁Sweden	-8121
▁pin	-8122
▁202	-8123
▁machines	-8124
▁fields	-8125
▁attached	-8126
▁settled	-8127
▁dub	-8128
ogether	-8129
▁Oc	-8130
%.	-8131
▁Cra	-8132
▁aged	-8133
▁nick	-8134
▁popularity	-8135
uting	-8136
▁Burn	-8137
▁rom	-8138
▁Affairs	-8139
cles	-8140
▁stuck	-8141
▁Authority	-8142
▁diet	-8143
uma	-8144
▁prompted	-8145
▁AS	-8146
fast	-8147
OC	-8148
iration	-8149
assador	-8150
ila	-8151
▁print	-8152
▁Design	-8153
antic	-8154
asks	-8155
▁blast	-8156
▁argue	-8157
▁wrest	-8158
dr	-8159
▁brew	-8160
▁representatives	-8161
▁minority	-8162
▁stake	-8163
▁Management	-8164
▁Massachusetts	-8165
▁existence	-8166
▁Make	-8167
▁Nelson	-8168
▁serves	-8169
▁boot	-8170
▁tokens	-8171
▁structures	-8172
assy	-8173
▁avo	-8174
▁scandal	-8175
ruit	-8176
▁cable	-8177
▁tie	-8178
▁loyal	-8179
▁deployed	-8180
▁Full	-8181
▁deadline	-8182
▁saved	-8183
▁Sarah	-8184
▁actress	-8185
▁Lib	-8186
▁signal	-8187
▁smoke	-8188
9.	-8189
▁Stew	-8190
▁worker	-8191
▁implic	-8192
▁Online	-8193
▁GT	-8194
▁functional	-8195
▁phen	-8196
▁Hart	-8197
▁anyway	-8198
▁charity	-8199
▁collaboration	-8200
utter	-8201
▁wine	-8202
▁Muslims	-8203
▁climb	-8204
▁Low	-8205
▁mainstream	-8206
▁Cost	-8207
▁fairly	-8208
▁survive	-8209
▁submit	-8210
▁Hond	-8211
▁distributed	-8212
▁anx	-8213
wered	-8214
igen	-8215
▁Lim	-8216
▁magn	-8217
▁Indiana	-8218
▁Jen	-8219
enezuel	-8220
▁hole	-8221
▁feelings	-8222
▁rook	-8223
inois	-8224
▁acknowledged	-8225
▁stayed	-8226
▁routine	-8227
stan	-8228
▁tort	-8229
▁Friend	-8230
▁Cleveland	-8231
▁recognize	-8232
▁extent	-8233
▁NAT	-8234
▁Executive	-8235
▁ecosystem	-8236
ennis	-8237
▁yard	-8238
▁reads	-8239
▁engage	-8240
▁Ay	-8241
▁10,	-8242
▁exceed	-8243
▁monthly	-8244
fielder	-8245
▁typical	-8246
3.	-8247
▁exception	-8248
▁nort	-8249
that	-8250
▁elsewhere	-8251
▁illness	-8252
▁attacking	-8253
▁51	-8254
▁bin	-8255
▁fears	-8256
2.	-8257
▁deadly	-8258
▁Additionally	-8259
▁Trib	-8260
▁royal	-8261
▁quoted	-8262
▁recovered	-8263
▁unp	-8264
▁NS	-8265
▁Vill	-8266
▁cler	-8267
achel	-8268
▁describe	-8269
▁Ron	-8270
▁shutdown	-8271
▁Trade	-8272
ificial	-8273
▁seized	-8274
arrass	-8275
iated	-8276
Image	-8277
▁cricket	-8278
▁demanding	-8279
▁120	-8280
▁relax	-8281
▁investigations	-8282
▁anger	-8283
▁Les	-8284
▁Jesus	-8285
ocation	-8286
▁Somet	-8287
▁wallet	-8288
▁trained	-8289
list	-8290
▁deem	-8291
▁duration	-8292
erts	-8293
▁strict	-8294
▁Pittsburgh	-8295
5.	-8296
▁Plus	-8297
▁reducing	-8298
▁Ven	-8299
▁Temp	-8300
▁Bloomberg	-8301
▁description	-8302
▁PH	-8303
remy	-8304
▁encouraged	-8305
▁rig	-8306
unes	-8307
▁Base	-8308
profit	-8309
rivals	-8310
xic	-8311
xual	-8312
▁Intel	-8313
▁prospect	-8314
▁campaigns	-8315
▁Local	-8316
▁discrimination	-8317
▁Gil	-8318
▁Steven	-8319
▁weigh	-8320
▁ourselves	-8321
▁empty	-8322
▁strategic	-8323
▁fab	-8324
ierce	-8325
▁robot	-8326
▁Venezuel	-8327
▁departure	-8328
▁asset	-8329
▁cream	-8330
orting	-8331
▁Medic	-8332
luding	-8333
▁Ali	-8334
inking	-8335
▁introduce	-8336
▁valuable	-8337
▁trem	-8338
▁pulling	-8339
▁Tennessee	-8340
iki	-8341
▁spoken	-8342
▁affordable	-8343
▁output	-8344
▁spac	-8345
▁180	-8346
▁Jean	-8347
▁academic	-8348
▁Ka	-8349
▁1997	-8350
▁Clark	-8351
▁websites	-8352
▁funny	-8353
▁blind	-8354
▁comparison	-8355
Every	-8356
▁Andy	-8357
▁cock	-8358
▁loud	-8359
iamond	-8360
▁semi	-8361
eplay	-8362
▁ramp	-8363
▁aer	-8364
▁judges	-8365
▁lifted	-8366
▁sear	-8367
▁instrument	-8368
▁organisation	-8369
▁10-	-8370
▁salary	-8371
▁Ts	-8372
▁Phill	-8373
▁temple	-8374
expected	-8375
▁depending	-8376
▁54	-8377
▁brut	-8378
aimed	-8379
▁2012,	-8380
▁innings	-8381
▁deliber	-8382
thood	-8383
▁Maybe	-8384
▁thro	-8385
▁discip	-8386
ouri	-8387
▁index	-8388
▁headlines	-8389
unicipal	-8390
▁fasc	-8391
▁perfectly	-8392
▁soph	-8393
▁Rose	-8394
▁awesome	-8395
▁equivalent	-8396
▁afraid	-8397
▁threatening	-8398
▁birthday	-8399
track	-8400
▁lyrics	-8401
▁Border	-8402
incial	-8403
▁democracy	-8404
▁rent	-8405
▁shipping	-8406
cover	-8407
Getty	-8408
rolled	-8409
▁sensitive	-8410
hour	-8411
talion	-8412
▁detained	-8413
▁voc	-8414
▁Exper	-8415
▁extrem	-8416
▁association	-8417
▁List	-8418
hentic	-8419
▁noise	-8420
▁rooms	-8421
▁subsequent	-8422
▁horror	-8423
tenance	-8424
aved	-8425
▁nin	-8426
▁riding	-8427
▁interior	-8428
▁Use	-8429
aware	-8430
▁normally	-8431
▁Dog	-8432
▁spell	-8433
▁thrown	-8434
▁Norm	-8435
▁Cow	-8436
ei	-8437
rena	-8438
▁radical	-8439
▁Bir	-8440
▁Ext	-8441
▁awareness	-8442
base	-8443
▁troub	-8444
bul	-8445
▁forecast	-8446
una	-8447
▁Der	-8448
▁Gro	-8449
▁appointment	-8450
▁Hal	-8451
▁menu	-8452
▁folks	-8453
CS	-8454
▁surge	-8455
▁Master	-8456
▁soul	-8457
▁Pent	-8458
hatt	-8459
▁literally	-8460
▁PA	-8461
▁deleg	-8462
▁hide	-8463
lah	-8464
ront	-8465
▁exchanges	-8466
okes	-8467
▁Disc	-8468
▁proven	-8469
▁Lam	-8470
▁Cameron	-8471
▁inch	-8472
▁surviv	-8473
▁throwing	-8474
▁targeting	-8475
mann	-8476
thur	-8477
▁string	-8478
▁pleaded	-8479
▁monitoring	-8480
▁crossed	-8481
▁topic	-8482
);	-8483
▁56	-8484
▁violation	-8485
▁jur	-8486
▁lux	-8487
▁Tokyo	-8488
▁indicate	-8489
▁corn	-8490
gor	-8491
▁auto	-8492
▁strikes	-8493
▁Ever	-8494
▁dad	-8495
▁unw	-8496
rific	-8497
▁crore	-8498
▁Harper	-8499
▁Malaysia	-8500
▁necessarily	-8501
▁philos	-8502
▁pollution	-8503
▁Illinois	-8504
ibilities	-8505
▁backing	-8506
▁apologize	-8507
stance	-8508
▁Silver	-8509
▁independence	-8510
▁cul	-8511
▁marry	-8512
▁reveals	-8513
▁midterm	-8514
▁terrorism	-8515
▁30,	-8516
▁landed	-8517
American	-8518
▁76	-8519
▁sid	-8520
▁metres	-8521
▁wanting	-8522
eals	-8523
▁kinds	-8524
▁restaurants	-8525
edia	-8526
▁Hit	-8527
▁beauty	-8528
▁struggled	-8529
▁LA	-8530
▁vital	-8531
▁gal	-8532
▁Nic	-8533
▁gif	-8534
abad	-8535
word	-8536
▁Bal	-8537
▁accompan	-8538
▁defended	-8539
▁regardless	-8540
▁ideal	-8541
▁racial	-8542
▁rocket	-8543
mart	-8544
▁components	-8545
▁ownership	-8546
▁Dub	-8547
oh	-8548
▁Corps	-8549
▁Children	-8550
?'	-8551
▁cabinet	-8552
▁overseas	-8553
▁somebody	-8554
aki	-8555
▁shook	-8556
▁sty	-8557
▁sympt	-8558
▁windows	-8559
▁keeps	-8560
▁nut	-8561
▁barrel	-8562
▁ranks	-8563
TM	-8564
pret	-8565
▁prize	-8566
▁promoted	-8567
▁proposals	-8568
mont	-8569
▁Portland	-8570
▁filming	-8571
▁Bow	-8572
▁fantastic	-8573
▁1950	-8574
▁defined	-8575
ais	-8576
▁lunch	-8577
▁operated	-8578
,000.	-8579
▁delight	-8580
▁coins	-8581
▁Gulf	-8582
▁Capital	-8583
36	-8584
▁fruit	-8585
▁firing	-8586
spec	-8587
lessly	-8588
iece	-8589
▁factory	-8590
▁Carter	-8591
▁flights	-8592
▁relative	-8593
LA	-8594
▁Od	-8595
▁embarrass	-8596
▁bacter	-8597
▁fulf	-8598
▁600	-8599
▁dim	-8600
▁Simon	-8601
▁exposure	-8602
▁oh	-8603
▁Ga	-8604
▁Brew	-8605
ahu	-8606
▁USD	-8607
200	-8608
▁Trust	-8609
▁addresses	-8610
▁improving	-8611
▁Bruce	-8612
▁distr	-8613
▁highlights	-8614
▁Pu	-8615
▁contribute	-8616
gered	-8617
dering	-8618
▁Saint	-8619
eck	-8620
▁Set	-8621
▁filing	-8622
olds	-8623
ateful	-8624
▁Montreal	-8625
▁input	-8626
▁convin	-8627
outheast	-8628
▁donations	-8629
▁designated	-8630
▁conspiracy	-8631
▁pig	-8632
ni	-8633
emporary	-8634
▁analyst	-8635
▁jumped	-8636
▁reven	-8637
▁Election	-8638
▁Ukrainian	-8639
▁solve	-8640
▁handling	-8641
▁85	-8642
▁Data	-8643
eld	-8644
▁misc	-8645
▁Poland	-8646
▁neutral	-8647
▁welfare	-8648
▁releases	-8649
▁principal	-8650
▁Champions	-8651
you	-8652
uros	-8653
▁bab	-8654
▁SP	-8655
rehensive	-8656
rer	-8657
▁taxpay	-8658
case	-8659
▁adventure	-8660
Pe	-8661
▁briefly	-8662
▁Dream	-8663
▁interviews	-8664
▁terrible	-8665
▁awards	-8666
▁Obs	-8667
▁constructed	-8668
apes	-8669
▁Box	-8670
▁Creek	-8671
▁Victor	-8672
▁transaction	-8673
▁ballots	-8674
▁residential	-8675
One	-8676
▁Leon	-8677
phy	-8678
▁Gard	-8679
ancial	-8680
▁bowl	-8681
▁Metro	-8682
igade	-8683
▁Andre	-8684
▁evolution	-8685
▁Dod	-8686
ppers	-8687
▁staying	-8688
▁Common	-8689
▁Marine	-8690
▁lady	-8691
ls	-8692
▁Deputy	-8693
▁barely	-8694
▁phenomen	-8695
▁graphics	-8696
▁retirement	-8697
▁toler	-8698
▁exclus	-8699
▁providers	-8700
otal	-8701
▁tracking	-8702
▁iP	-8703
Trump	-8704
▁spaces	-8705
App	-8706
▁Li	-8707
▁Has	-8708
▁Forest	-8709
▁fram	-8710
irts	-8711
▁coaching	-8712
▁strengthen	-8713
Cl	-8714
inals	-8715
▁external	-8716
ications	-8717
▁Robinson	-8718
▁introduction	-8719
▁Simp	-8720
▁Denver	-8721
▁sufficient	-8722
▁cyber	-8723
▁Control	-8724
▁somewhere	-8725
▁decor	-8726
4.	-8727
▁explanation	-8728
RL	-8729
ancell	-8730
rator	-8731
▁Biden	-8732
▁Freedom	-8733
▁sugar	-8734
▁Bor	-8735
aping	-8736
▁seventh	-8737
▁Aven	-8738
▁NATO	-8739
▁compr	-8740
▁Having	-8741
▁Edition	-8742
▁teach	-8743
▁managing	-8744
▁undert	-8745
▁Snow	-8746
▁absence	-8747
▁grass	-8748
▁gains	-8749
▁yield	-8750
▁constitutional	-8751
▁rounds	-8752
▁Jonathan	-8753
▁adj	-8754
▁wider	-8755
▁launching	-8756
▁march	-8757
gary	-8758
low	-8759
▁Nev	-8760
ATED	-8761
▁Find	-8762
▁pregnant	-8763
▁8,	-8764
▁processing	-8765
▁Howard	-8766
▁bars	-8767
▁Olympic	-8768
▁forcing	-8769
▁documentary	-8770
▁repair	-8771
▁Univers	-8772
▁magic	-8773
arth	-8774
▁clip	-8775
▁somehow	-8776
▁Mun	-8777
ologists	-8778
▁plug	-8779
▁Mississ	-8780
▁Vik	-8781
▁Point	-8782
▁implemented	-8783
core	-8784
rooms	-8785
annels	-8786
▁Han	-8787
umar	-8788
▁1996	-8789
▁entrance	-8790
anted	-8791
▁soccer	-8792
▁enemies	-8793
▁ratings	-8794
rogen	-8795
▁asks	-8796
▁Collins	-8797
▁Ale	-8798
▁Sav	-8799
▁delayed	-8800
uine	-8801
▁Mess	-8802
▁deck	-8803
▁Doctor	-8804
▁harassment	-8805
▁examples	-8806
▁drone	-8807
ses	-8808
▁rebu	-8809
▁tips	-8810
▁manip	-8811
▁generate	-8812
▁ru	-8813
oting	-8814
▁forever	-8815
▁constantly	-8816
▁Tan	-8817
▁sexually	-8818
▁weaken	-8819
▁BM	-8820
▁Bon	-8821
▁welcom	-8822
▁Run	-8823
▁spr	-8824
▁programming	-8825
▁dump	-8826
32	-8827
▁00	-8828
olves	-8829
▁Action	-8830
▁mini	-8831
ports	-8832
▁Expl	-8833
▁2019,	-8834
▁situations	-8835
▁Nether	-8836
▁breach	-8837
▁coaches	-8838
▁shout	-8839
nedy	-8840
orses	-8841
▁teeth	-8842
▁milk	-8843
inance	-8844
▁fiscal	-8845
acted	-8846
▁waves	-8847
▁sustained	-8848
▁Jeremy	-8849
▁95	-8850
▁CB	-8851
▁Mach	-8852
iller	-8853
▁Stock	-8854
itchell	-8855
prof	-8856
▁segment	-8857
▁painting	-8858
▁Oklah	-8859
PP	-8860
▁Front	-8861
liest	-8862
▁clothing	-8863
▁letting	-8864
▁formation	-8865
lee	-8866
▁expects	-8867
▁podcast	-8868
esty	-8869
▁ingred	-8870
▁disturb	-8871
bow	-8872
enna	-8873
rors	-8874
▁Core	-8875
ctic	-8876
▁stocks	-8877
hetic	-8878
▁iconic	-8879
▁investments	-8880
▁carefully	-8881
gener	-8882
▁Stewart	-8883
▁Unfortunately	-8884
▁enthusi	-8885
▁hockey	-8886
▁Command	-8887
▁inbox	-8888
▁Gib	-8889
▁Records	-8890
▁sed	-8891
ental	-8892
lash	-8893
▁unemploy	-8894
resa	-8895
▁erup	-8896
▁invasion	-8897
▁thousand	-8898
▁colors	-8899
▁Come	-8900
▁ridic	-8901
▁aired	-8902
held	-8903
eping	-8904
▁testim	-8905
▁searching	-8906
▁composed	-8907
▁mile	-8908
▁fro	-8909
▁invent	-8910
▁Alan	-8911
ocratic	-8912
▁hung	-8913
▁executives	-8914
▁destruction	-8915
athy	-8916
▁Did	-8917
▁soil	-8918
emble	-8919
▁Gordon	-8920
▁entitled	-8921
▁Opp	-8922
100	-8923
dri	-8924
▁traveling	-8925
see	-8926
▁citizen	-8927
▁obtain	-8928
acon	-8929
-9	-8930
▁dramatic	-8931
▁Whether	-8932
oga	-8933
ocated	-8934
ikh	-8935
dem	-8936
▁DE	-8937
▁ow	-8938
ingu	-8939
▁disappointed	-8940
▁protecting	-8941
▁bunch	-8942
ione	-8943
apper	-8944
▁knee	-8945
▁Using	-8946
▁slam	-8947
▁reduction	-8948
▁Bond	-8949
▁Band	-8950
▁evil	-8951
▁Kennedy	-8952
▁Protection	-8953
▁11,	-8954
ignment	-8955
▁cleared	-8956
▁missions	-8957
apolis	-8958
aturally	-8959
don	-8960
perial	-8961
fund	-8962
▁Finally	-8963
▁tries	-8964
▁je	-8965
▁caravan	-8966
▁Buff	-8967
▁opens	-8968
▁contributions	-8969
▁promises	-8970
▁solo	-8971
eway	-8972
▁Missouri	-8973
▁studied	-8974
▁logo	-8975
▁regulatory	-8976
▁5.	-8977
▁WWE	-8978
▁permit	-8979
▁everywhere	-8980
agers	-8981
▁receiver	-8982
▁maintenance	-8983
▁tower	-8984
▁techniques	-8985
▁protocol	-8986
▁Gh	-8987
▁tears	-8988
▁encounter	-8989
anth	-8990
rophy	-8991
▁Player	-8992
stop	-8993
stock	-8994
▁notable	-8995
▁Oxford	-8996
▁Toy	-8997
▁Price	-8998
▁Ku	-8999
minute	-9000
▁Alberta	-9001
▁militants	-9002
▁hook	-9003
▁Jacob	-9004
▁multip	-9005
▁CH	-9006
▁gear	-9007
▁skill	-9008
die	-9009
▁illegally	-9010
78	-9011
▁improvement	-9012
▁convinced	-9013
▁rookie	-9014
▁secured	-9015
▁Oklahoma	-9016
▁promoting	-9017
elve	-9018
▁Serb	-9019
zed	-9020
▁recruit	-9021
▁releasing	-9022
▁Yan	-9023
orge	-9024
iences	-9025
bra	-9026
▁fault	-9027
▁predicted	-9028
▁pursue	-9029
▁teaching	-9030
▁trigger	-9031
▁veterans	-9032
▁stance	-9033
UTERS	-9034
▁Es	-9035
▁appreciate	-9036
▁Ottawa	-9037
▁fundra	-9038
oren	-9039
▁tweets	-9040
▁burning	-9041
▁coc	-9042
▁inquiry	-9043
▁clock	-9044
ASH	-9045
urities	-9046
▁DVD	-9047
▁database	-9048
▁capabilities	-9049
emit	-9050
▁functions	-9051
bing	-9052
Pro	-9053
▁sample	-9054
▁disappear	-9055
▁Musk	-9056
▁calm	-9057
▁adoption	-9058
▁ON	-9059
▁venue	-9060
PM	-9061
▁ham	-9062
AA	-9063
▁overwhelming	-9064
▁substantial	-9065
olph	-9066
power	-9067
▁adap	-9068
▁Summer	-9069
▁beating	-9070
▁Tai	-9071
▁smiled	-9072
▁creator	-9073
itol	-9074
cling	-9075
sec	-9076
▁choices	-9077
making	-9078
▁employed	-9079
▁Wright	-9080
▁fel	-9081
▁800	-9082
▁Try	-9083
▁Hope	-9084
▁bell	-9085
▁Emer	-9086
▁scenario	-9087
▁DO	-9088
▁salt	-9089
inf	-9090
oor	-9091
▁Hamp	-9092
▁fatal	-9093
RI	-9094
ughed	-9095
▁Mountain	-9096
▁commonly	-9097
▁unexpected	-9098
ito	-9099
▁incent	-9100
ompson	-9101
orious	-9102
▁rif	-9103
▁Ce	-9104
▁Croat	-9105
▁processes	-9106
▁luck	-9107
▁patrol	-9108
▁Billboard	-9109
▁fundamental	-9110
mers	-9111
▁Kam	-9112
▁lucky	-9113
▁Gaza	-9114
▁Son	-9115
aya	-9116
▁Chairman	-9117
▁filmed	-9118
▁Support	-9119
▁defender	-9120
▁250	-9121
▁Beng	-9122
▁moral	-9123
▁console	-9124
▁58	-9125
▁scholars	-9126
▁frag	-9127
▁funded	-9128
▁reception	-9129
▁speculation	-9130
▁provision	-9131
▁recalled	-9132
migr	-9133
ova	-9134
▁185	-9135
▁papers	-9136
▁reserve	-9137
▁$20	-9138
▁warming	-9139
mal	-9140
▁Vlad	-9141
Bl	-9142
▁cos	-9143
▁earthqu	-9144
▁Financial	-9145
▁posting	-9146
▁implementation	-9147
▁assists	-9148
▁legally	-9149
ATE	-9150
▁sessions	-9151
abet	-9152
aders	-9153
▁laughed	-9154
▁Russell	-9155
rows	-9156
▁abroad	-9157
▁hunting	-9158
▁tariffs	-9159
ington	-9160
▁silence	-9161
▁congressional	-9162
▁Vietnam	-9163
pan	-9164
▁arguing	-9165
▁earnings	-9166
▁Age	-9167
▁SU	-9168
▁concrete	-9169
igate	-9170
▁ethnic	-9171
▁channels	-9172
▁eggs	-9173
▁resigned	-9174
▁listening	-9175
▁Linux	-9176
riors	-9177
▁toll	-9178
ectors	-9179
▁ans	-9180
▁15,	-9181
▁ty	-9182
▁guarantee	-9183
▁regulation	-9184
agh	-9185
▁Such	-9186
▁phr	-9187
ecess	-9188
▁rely	-9189
▁FO	-9190
▁dies	-9191
▁brill	-9192
▁advertisement	-9193
▁Netherlands	-9194
▁precise	-9195
icked	-9196
▁weird	-9197
▁confront	-9198
▁innovation	-9199
▁wet	-9200
▁ages	-9201
▁narrative	-9202
▁gameplay	-9203
▁survived	-9204
▁residence	-9205
▁participated	-9206
▁Commissioner	-9207
▁flaw	-9208
▁escal	-9209
▁artificial	-9210
▁Madrid	-9211
▁attending	-9212
▁facilit	-9213
▁Ast	-9214
▁lineup	-9215
ifies	-9216
▁Corn	-9217
▁falls	-9218
▁taught	-9219
estyle	-9220
▁legacy	-9221
▁expanding	-9222
▁nominated	-9223
▁reign	-9224
▁Bi	-9225
▁nobody	-9226
icts	-9227
▁Beat	-9228
▁transit	-9229
ester	-9230
▁genuine	-9231
▁samples	-9232
▁72	-9233
-10	-9234
struction	-9235
▁Berlin	-9236
▁nominee	-9237
▁assessment	-9238
ucker	-9239
▁duties	-9240
▁lane	-9241
reprene	-9242
iac	-9243
rimin	-9244
tra	-9245
▁gent	-9246
▁charging	-9247
▁spots	-9248
▁centers	-9249
atar	-9250
▁Fal	-9251
berry	-9252
world	-9253
▁default	-9254
▁plea	-9255
stal	-9256
week	-9257
usalem	-9258
▁imposed	-9259
uto	-9260
PG	-9261
▁Forces	-9262
▁Py	-9263
▁buried	-9264
pat	-9265
▁bol	-9266
▁earning	-9267
▁preced	-9268
iability	-9269
▁Antonio	-9270
istant	-9271
▁Maria	-9272
▁myth	-9273
iture	-9274
▁borders	-9275
▁unveiled	-9276
▁odd	-9277
upid	-9278
▁REUTERS	-9279
▁assembly	-9280
▁Dur	-9281
▁Thompson	-9282
▁colour	-9283
▁enhance	-9284
▁violations	-9285
▁Charlie	-9286
hr	-9287
▁Ban	-9288
lining	-9289
▁loans	-9290
▁Rah	-9291
▁Spr	-9292
▁brands	-9293
▁Ju	-9294
▁Kings	-9295
▁answered	-9296
▁accusations	-9297
▁symptoms	-9298
oln	-9299
▁21,	-9300
▁femin	-9301
▁reasonable	-9302
▁66	-9303
▁rolling	-9304
▁complicated	-9305
▁authentic	-9306
▁SE	-9307
▁Hurricane	-9308
▁gathering	-9309
▁missile	-9310
▁witnesses	-9311
▁establishment	-9312
▁proport	-9313
▁Batman	-9314
▁accompanied	-9315
▁Model	-9316
▁id	-9317
▁Area	-9318
▁ease	-9319
▁hosting	-9320
agen	-9321
▁CC	-9322
▁OK	-9323
vard	-9324
owski	-9325
election	-9326
▁Gab	-9327
▁technique	-9328
▁patterns	-9329
▁Blockchain	-9330
▁venture	-9331
▁20,	-9332
▁alien	-9333
▁beta	-9334
▁meters	-9335
▁equipped	-9336
▁Craig	-9337
▁CS	-9338
kee	-9339
▁lists	-9340
▁tear	-9341
layer	-9342
▁Murray	-9343
▁movements	-9344
▁analysts	-9345
▁Row	-9346
▁carrier	-9347
▁Nik	-9348
▁pending	-9349
▁Exchange	-9350
▁prosecutor	-9351
acher	-9352
istent	-9353
▁Collect	-9354
▁attracted	-9355
▁Brooklyn	-9356
▁inflation	-9357
bi	-9358
▁Confeder	-9359
▁prisoners	-9360
▁cow	-9361
▁alter	-9362
▁mole	-9363
alties	-9364
▁peaceful	-9365
▁joke	-9366
▁Eve	-9367
▁Rh	-9368
agger	-9369
▁18,	-9370
▁Prop	-9371
-7	-9372
▁9,	-9373
holders	-9374
▁joy	-9375
▁focusing	-9376
▁Perhaps	-9377
nered	-9378
▁premium	-9379
▁diverse	-9380
▁anime	-9381
▁chicken	-9382
▁civilians	-9383
than	-9384
▁Esp	-9385
ricts	-9386
▁Jerusalem	-9387
wall	-9388
▁occupied	-9389
olas	-9390
▁Sean	-9391
▁cinem	-9392
▁hosts	-9393
37	-9394
▁suspension	-9395
▁statistics	-9396
▁Independent	-9397
author	-9398
▁Calgary	-9399
▁engineer	-9400
wa	-9401
▁rolled	-9402
backs	-9403
▁administr	-9404
▁Du	-9405
▁enorm	-9406
▁12,	-9407
haw	-9408
▁lap	-9409
▁McDonald	-9410
▁acquis	-9411
▁banking	-9412
▁keen	-9413
▁membership	-9414
▁blamed	-9415
▁handful	-9416
rons	-9417
▁thorough	-9418
illery	-9419
▁IM	-9420
▁fires	-9421
igenous	-9422
high	-9423
▁divor	-9424
▁Adams	-9425
▁seemingly	-9426
▁AC	-9427
▁deemed	-9428
ardo	-9429
▁MLS	-9430
▁progressive	-9431
▁Equ	-9432
licit	-9433
▁Unlike	-9434
▁kicked	-9435
▁config	-9436
izza	-9437
▁swing	-9438
▁Published	-9439
casts	-9440
▁bombs	-9441
▁outs	-9442
▁routes	-9443
▁couples	-9444
▁computers	-9445
made	-9446
▁compensation	-9447
▁Death	-9448
▁appearing	-9449
Ex	-9450
▁cm	-9451
▁islands	-9452
▁Corporation	-9453
▁diversity	-9454
38	-9455
▁checks	-9456
▁provincial	-9457
ixt	-9458
graph	-9459
▁Lady	-9460
▁Revolution	-9461
▁vary	-9462
▁uncom	-9463
▁bottle	-9464
▁preferred	-9465
▁Christopher	-9466
▁1995	-9467
▁mad	-9468
▁merely	-9469
▁speaker	-9470
▁engines	-9471
▁SEC	-9472
▁tiss	-9473
▁shocked	-9474
▁accessible	-9475
▁quit	-9476
▁alarm	-9477
ocolate	-9478
▁Nich	-9479
▁outlets	-9480
irds	-9481
hattan	-9482
aun	-9483
imir	-9484
▁pill	-9485
▁"[	-9486
oenix	-9487
▁stom	-9488
ixel	-9489
▁Nevada	-9490
▁outrage	-9491
▁registration	-9492
▁26,	-9493
▁hip	-9494
otype	-9495
cott	-9496
▁25,	-9497
orship	-9498
▁rarely	-9499
▁emerging	-9500
▁Bud	-9501
▁patch	-9502
▁secondary	-9503
▁Roger	-9504
▁Brother	-9505
▁junior	-9506
burn	-9507
▁Iron	-9508
▁butt	-9509
bery	-9510
▁dressed	-9511
alog	-9512
▁kingdom	-9513
▁Tri	-9514
oz	-9515
▁promising	-9516
▁crimin	-9517
▁followers	-9518
▁Drive	-9519
▁privile	-9520
48	-9521
▁strip	-9522
▁medicine	-9523
▁personality	-9524
▁Dal	-9525
▁29,	-9526
vens	-9527
▁jet	-9528
gus	-9529
▁reprod	-9530
Go	-9531
▁hopefully	-9532
Me	-9533
▁Wolf	-9534
▁borrow	-9535
▁gate	-9536
ems	-9537
ika	-9538
ippi	-9539
▁nerv	-9540
LATED	-9541
ateral	-9542
▁Hug	-9543
▁intercept	-9544
▁blo	-9545
▁caps	-9546
eries	-9547
ferences	-9548
▁elder	-9549
▁Stanley	-9550
▁Murphy	-9551
▁lift	-9552
▁classified	-9553
▁Barb	-9554
▁17,	-9555
▁bonus	-9556
▁comprehensive	-9557
▁girlfriend	-9558
▁scan	-9559
▁fiction	-9560
▁Mult	-9561
▁exped	-9562
▁striking	-9563
▁signature	-9564
▁Sud	-9565
▁removal	-9566
aco	-9567
▁Connect	-9568
▁99	-9569
▁stability	-9570
▁Pers	-9571
▁sequel	-9572
▁premiere	-9573
▁hosp	-9574
▁Linc	-9575
▁midfielder	-9576
▁Reserve	-9577
▁Fif	-9578
ancellor	-9579
▁deeper	-9580
▁Mas	-9581
keeper	-9582
parency	-9583
▁poison	-9584
▁procedure	-9585
▁finishing	-9586
▁Islands	-9587
▁stamp	-9588
▁detention	-9589
aria	-9590
▁collapse	-9591
ugged	-9592
▁57	-9593
▁owns	-9594
▁Harrison	-9595
fers	-9596
▁24,	-9597
▁pleasure	-9598
▁smoking	-9599
▁Tax	-9600
▁Intelligence	-9601
▁assume	-9602
....	-9603
▁Rome	-9604
leted	-9605
▁populations	-9606
UL	-9607
▁Giants	-9608
iev	-9609
▁fossil	-9610
def	-9611
asio	-9612
▁scores	-9613
theless	-9614
▁defending	-9615
oil	-9616
▁Duke	-9617
▁inner	-9618
▁deserve	-9619
▁Manhattan	-9620
▁MD	-9621
▁Native	-9622
▁Indonesia	-9623
▁contribution	-9624
mith	-9625
▁designer	-9626
apped	-9627
▁Lear	-9628
▁horses	-9629
▁Ian	-9630
▁Finance	-9631
▁citizenship	-9632
▁glad	-9633
▁oldest	-9634
▁competing	-9635
▁subsid	-9636
kel	-9637
oween	-9638
Con	-9639
hop	-9640
vision	-9641
oir	-9642
▁creates	-9643
▁framework	-9644
▁landscape	-9645
▁Christians	-9646
While	-9647
▁propag	-9648
▁shelter	-9649
▁nationwide	-9650
sa	-9651
irm	-9652
▁investigated	-9653
shot	-9654
asury	-9655
▁displayed	-9656
▁Holl	-9657
▁Pear	-9658
▁collaps	-9659
▁powered	-9660
wo	-9661
▁ec	-9662
acco	-9663
beat	-9664
▁definition	-9665
▁exclusively	-9666
osaur	-9667
▁Chen	-9668
▁estimate	-9669
▁railway	-9670
▁Asked	-9671
▁Which	-9672
▁16,	-9673
▁rush	-9674
▁Norway	-9675
▁persons	-9676
▁upload	-9677
▁opinions	-9678
▁span	-9679
▁Event	-9680
▁Order	-9681
umble	-9682
▁torn	-9683
▁consent	-9684
▁Subscribe	-9685
▁impressed	-9686
▁conversations	-9687
▁Rangers	-9688
▁industries	-9689
erald	-9690
▁naval	-9691
▁rushed	-9692
▁tourists	-9693
style	-9694
▁instructions	-9695
▁extraord	-9696
▁Near	-9697
▁reforms	-9698
mouth	-9699
preced	-9700
▁virus	-9701
▁Cash	-9702
▁Smart	-9703
uces	-9704
▁Marg	-9705
▁reliable	-9706
People	-9707
▁stomach	-9708
▁Memorial	-9709
▁participating	-9710
▁fold	-9711
▁27,	-9712
▁recipe	-9713
▁shoulders	-9714
▁28,	-9715
▁alliance	-9716
▁leaked	-9717
rac	-9718
alling	-9719
erto	-9720
ulpt	-9721
ointing	-9722
▁breaks	-9723
yes	-9724
reck	-9725
▁Ath	-9726
ighed	-9727
▁anybody	-9728
▁19,	-9729
▁Bab	-9730
▁complained	-9731
▁suspic	-9732
▁listing	-9733
▁guidelines	-9734
▁participation	-9735
▁compat	-9736
▁22,	-9737
▁Poll	-9738
▁Cas	-9739
▁districts	-9740
precedented	-9741
▁Along	-9742
oned	-9743
range	-9744
▁knife	-9745
▁scrut	-9746
▁Lincoln	-9747
Ad	-9748
▁1994	-9749
ernand	-9750
through	-9751
▁engagement	-9752
▁suffer	-9753
rane	-9754
▁Due	-9755
▁settings	-9756
iciary	-9757
▁viral	-9758
▁surrounded	-9759
▁Da	-9760
party	-9761
▁ignored	-9762
▁Dragon	-9763
▁WH	-9764
▁dust	-9765
▁Pradesh	-9766
.99	-9767
▁Arts	-9768
▁Qual	-9769
▁Privacy	-9770
▁usage	-9771
▁aspect	-9772
▁explosion	-9773
%,	-9774
▁gonna	-9775
▁grabbed	-9776
▁Federation	-9777
▁Kal	-9778
▁perce	-9779
▁Quest	-9780
▁dialogue	-9781
olitan	-9782
▁transp	-9783
-19	-9784
▁Mul	-9785
▁wages	-9786
▁universities	-9787
rupted	-9788
▁revers	-9789
▁Mail	-9790
accept	-9791
renthood	-9792
▁testimony	-9793
▁Java	-9794
▁touched	-9795
▁terrorists	-9796
▁explaining	-9797
▁Defence	-9798
▁memor	-9799
ulus	-9800
▁autonom	-9801
brid	-9802
asty	-9803
▁inaug	-9804
▁influenced	-9805
▁traded	-9806
▁Cambridge	-9807
▁sections	-9808
Fi	-9809
▁belt	-9810
founder	-9811
▁pointing	-9812
loyd	-9813
▁uncon	-9814
arn	-9815
▁Domin	-9816
▁efficiency	-9817
Star	-9818
▁saving	-9819
▁discussing	-9820
▁$100	-9821
▁volunteers	-9822
▁diplomatic	-9823
▁bands	-9824
ogen	-9825
▁layer	-9826
earcher	-9827
▁withdrawal	-9828
▁boats	-9829
▁Lie	-9830
▁garden	-9831
gorith	-9832
▁towns	-9833
coin	-9834
▁kit	-9835
▁extract	-9836
▁Todd	-9837
▁Senior	-9838
orous	-9839
▁Aud	-9840
▁Benn	-9841
▁Pant	-9842
▁connections	-9843
oca	-9844
▁62	-9845
▁poly	-9846
▁TR	-9847
▁59	-9848
aver	-9849
▁chip	-9850
▁wond	-9851
▁eager	-9852
hu	-9853
will	-9854
▁physic	-9855
▁Manager	-9856
▁Phoenix	-9857
▁rivals	-9858
▁Download	-9859
▁constitu	-9860
udeau	-9861
giving	-9862
▁consideration	-9863
▁Portug	-9864
▁riders	-9865
SO	-9866
▁hanging	-9867
▁announcing	-9868
▁Mississippi	-9869
▁spacecraft	-9870
▁Cu	-9871
irates	-9872
▁genetic	-9873
▁2012.	-9874
▁Without	-9875
▁Dean	-9876
▁Parker	-9877
▁exists	-9878
▁expecting	-9879
▁alert	-9880
▁kilometres	-9881
▁innovative	-9882
▁BC	-9883
▁Bart	-9884
▁FIFA	-9885
▁resignation	-9886
ublin	-9887
▁intel	-9888
▁Mohammed	-9889
▁Mitchell	-9890
rait	-9891
▁Cole	-9892
▁manufacturers	-9893
▁pron	-9894
▁ori	-9895
▁relie	-9896
▁brilliant	-9897
▁Bros	-9898
▁theft	-9899
▁subscription	-9900
▁pitc	-9901
▁dict	-9902
▁lets	-9903
▁involves	-9904
rez	-9905
▁intim	-9906
▁acres	-9907
▁possess	-9908
▁frequent	-9909
▁contemporary	-9910
oub	-9911
▁badly	-9912
▁childhood	-9913
▁BTC	-9914
▁Shan	-9915
after	-9916
▁molec	-9917
▁adviser	-9918
▁animated	-9919
▁grade	-9920
▁Officials	-9921
ervations	-9922
▁ultimate	-9923
▁beliefs	-9924
▁credits	-9925
iban	-9926
▁Niger	-9927
▁Aaron	-9928
▁actively	-9929
▁inspiration	-9930
omed	-9931
▁Mobile	-9932
▁mos	-9933
agu	-9934
▁lad	-9935
▁PD	-9936
▁(20	-9937
CNN	-9938
▁Chron	-9939
utenant	-9940
▁2011,	-9941
▁1.5	-9942
AE	-9943
▁14,	-9944
▁pocket	-9945
▁2020.	-9946
▁refres	-9947
▁senators	-9948
▁rebels	-9949
▁decentral	-9950
▁paralle	-9951
▁Investig	-9952
oli	-9953
zing	-9954
▁tab	-9955
▁1992	-9956
▁ranking	-9957
▁Pentagon	-9958
▁23,	-9959
bes	-9960
borne	-9961
organ	-9962
▁Contact	-9963
▁simpl	-9964
▁Bah	-9965
▁Gary	-9966
▁describing	-9967
47	-9968
▁Code	-9969
▁migration	-9970
▁Abbott	-9971
▁Gand	-9972
▁Trip	-9973
▁absor	-9974
▁Fa	-9975
▁encouraging	-9976
▁Euro	-9977
▁Quebec	-9978
isd	-9979
▁perpet	-9980
▁regarded	-9981
oa	-9982
▁Rap	-9983
oded	-9984
▁migrant	-9985
▁sparked	-9986
▁13,	-9987
▁Grant	-9988
▁Steel	-9989
embered	-9990
▁100%	-9991
▁Halloween	-9992
▁welcomed	-9993
▁Swit	-9994
▁toss	-9995
▁fishing	-9996
onaut	-9997
▁Resp	-9998
▁innocent	-9999
▁wrapped	-10000
▁Trudeau	-10001
▁Hawaii	-10002
▁carries	-10003
▁Gray	-10004
▁Planned	-10005
err	-10006
▁fantasy	-10007
▁mask	-10008
rection	-10009
ested	-10010
rated	-10011
▁Parenthood	-10012
arma	-10013
▁drum	-10014
▁Organization	-10015
▁legislative	-10016
▁Prin	-10017
▁Squadron	-10018
▁luxury	-10019
▁1993	-10020
▁blank	-10021
▁presum	-10022
▁loose	-10023
▁cheese	-10024
▁nose	-10025
igious	-10026
▁Coal	-10027
▁exha	-10028
▁profits	-10029
▁Access	-10030
▁fastest	-10031
▁Join	-10032
▁odds	-10033
▁provider	-10034
cr	-10035
umbai	-10036
▁Ow	-10037
otte	-10038
▁coinc	-10039
▁speaks	-10040
ubble	-10041
▁tunnel	-10042
▁stops	-10043
▁Taiwan	-10044
celona	-10045
▁memories	-10046
▁Cos	-10047
▁revel	-10048
▁HE	-10049
person	-10050
▁engineers	-10051
▁punishment	-10052
▁architecture	-10053
▁Nap	-10054
INGTON	-10055
dog	-10056
ultane	-10057
▁accord	-10058
▁highlighted	-10059
▁Upon	-10060
▁graduate	-10061
page	-10062
▁arc	-10063
▁educational	-10064
▁helicopter	-10065
▁genre	-10066
▁Dublin	-10067
▁advised	-10068
▁Blu	-10069
▁developments	-10070
▁chips	-10071
▁Orange	-10072
bors	-10073
▁greatly	-10074
▁Hockey	-10075
▁Rain	-10076
▁deny	-10077
▁singing	-10078
▁Economic	-10079
▁parliamentary	-10080
▁Hampshire	-10081
▁Harvard	-10082
▁elite	-10083
▁outstanding	-10084
▁albums	-10085
▁Winter	-10086
▁studying	-10087
▁OF	-10088
etch	-10089
▁operational	-10090
▁compos	-10091
▁Capitol	-10092
▁bags	-10093
▁Canadians	-10094
▁Mother	-10095
▁grateful	-10096
▁mystery	-10097
▁IG	-10098
▁packages	-10099
▁meal	-10100
enz	-10101
▁pride	-10102
▁flooding	-10103
▁interface	-10104
lie	-10105
▁Queensland	-10106
▁1940	-10107
▁Origin	-10108
▁Secret	-10109
▁Nag	-10110
itter	-10111
▁mood	-10112
▁stro	-10113
▁tens	-10114
▁celebration	-10115
▁demonstrated	-10116
==	-10117
udes	-10118
▁removing	-10119
dale	-10120
iminary	-10121
▁persu	-10122
▁Swedish	-10123
osexual	-10124
▁SN	-10125
▁winners	-10126
▁10,000	-10127
▁Commons	-10128
▁Est	-10129
father	-10130
▁dropping	-10131
▁crashed	-10132
▁polling	-10133
▁preview	-10134
▁NEW	-10135
million	-10136
napped	-10137
▁Motor	-10138
▁municipal	-10139
▁statue	-10140
▁interpret	-10141
▁assumed	-10142
▁vessels	-10143
▁raw	-10144
▁sne	-10145
▁legitimate	-10146
26	-10147
PC	-10148
▁occasions	-10149
▁Wel	-10150
market	-10151
▁languages	-10152
▁Similar	-10153
▁attitude	-10154
▁Gi	-10155
▁shoes	-10156
AG	-10157
▁counties	-10158
▁butter	-10159
▁formally	-10160
▁practical	-10161
▁shit	-10162
ounding	-10163
▁difficulty	-10164
▁entreprene	-10165
▁Arthur	-10166
▁vig	-10167
▁debuted	-10168
▁courtesy	-10169
44	-10170
bart	-10171
▁78	-10172
olly	-10173
▁Hous	-10174
28	-10175
entures	-10176
▁dual	-10177
▁trials	-10178
▁Nas	-10179
▁Morning	-10180
▁interact	-10181
▁Knight	-10182
▁Temple	-10183
▁Reds	-10184
▁fest	-10185
▁equality	-10186
bally	-10187
▁algorith	-10188
isms	-10189
▁Dor	-10190
western	-10191
▁thread	-10192
▁Keep	-10193
scale	-10194
▁breast	-10195
▁maps	-10196
▁completion	-10197
▁challenged	-10198
▁healthcare	-10199
▁stressed	-10200
▁Authorities	-10201
▁Hunt	-10202
▁Nash	-10203
▁Swiss	-10204
▁anch	-10205
▁Barcelona	-10206
▁physically	-10207
▁Luke	-10208
▁Soft	-10209
▁20-	-10210
rends	-10211
▁centuries	-10212
▁Oakland	-10213
▁$15	-10214
ht	-10215
▁Safety	-10216
▁longest	-10217
▁arriving	-10218
▁playoffs	-10219
▁Evans	-10220
▁Alliance	-10221
ipple	-10222
▁hospitals	-10223
▁Kurd	-10224
▁lobby	-10225
▁Chrome	-10226
▁renewable	-10227
▁cam	-10228
prod	-10229
▁Lau	-10230
▁Bos	-10231
acre	-10232
▁Osc	-10233
▁Lisa	-10234
▁reun	-10235
▁misconduct	-10236
▁Library	-10237
netic	-10238
▁Fantasy	-10239
▁loves	-10240
hot	-10241
estone	-10242
VP	-10243
▁Arena	-10244
cedes	-10245
▁Philippines	-10246
▁fabric	-10247
missions	-10248
▁Sin	-10249
lings	-10250
▁camps	-10251
▁consistently	-10252
byn	-10253
▁Between	-10254
▁Tro	-10255
uccess	-10256
▁Mario	-10257
▁refugee	-10258
▁expenses	-10259
▁celebrated	-10260
▁Budd	-10261
▁puzz	-10262
plus	-10263
▁burned	-10264
inction	-10265
▁wore	-10266
▁$9	-10267
▁newsletters	-10268
▁Eagles	-10269
▁presidency	-10270
▁stupid	-10271
jamin	-10272
▁Morris	-10273
▁auction	-10274
▁Tower	-10275
▁tasks	-10276
▁requirement	-10277
fare	-10278
▁destination	-10279
▁tong	-10280
issa	-10281
▁manufacturer	-10282
omes	-10283
wick	-10284
▁tape	-10285
▁picking	-10286
▁Hindu	-10287
aley	-10288
▁Dick	-10289
isk	-10290
▁Chand	-10291
▁luc	-10292
▁arrests	-10293
▁67	-10294
▁Ped	-10295
▁gest	-10296
▁diseases	-10297
oard	-10298
onz	-10299
▁Say	-10300
▁favourite	-10301
new	-10302
▁Mand	-10303
▁electron	-10304
iens	-10305
▁donated	-10306
▁Kumar	-10307
▁audi	-10308
endar	-10309
▁advocates	-10310
▁anonymous	-10311
jo	-10312
▁visits	-10313
▁protein	-10314
▁Vladimir	-10315
:5	-10316
▁6.	-10317
▁bedroom	-10318
▁associate	-10319
▁ash	-10320
▁Around	-10321
▁deficit	-10322
▁buyers	-10323
▁intellect	-10324
▁orbit	-10325
▁consists	-10326
▁Currently	-10327
bie	-10328
▁resolve	-10329
▁Jamal	-10330
▁Lions	-10331
math	-10332
▁sculpt	-10333
BM	-10334
▁Case	-10335
hero	-10336
▁mart	-10337
ION	-10338
▁Jane	-10339
▁1930	-10340
▁indicates	-10341
▁professionals	-10342
33	-10343
▁equally	-10344
▁enormous	-10345
vereign	-10346
▁Campbell	-10347
▁substance	-10348
▁(5	-10349
▁recommendations	-10350
des	-10351
▁Wayne	-10352
▁Inn	-10353
▁inject	-10354
▁Prosecut	-10355
▁bacteria	-10356
▁outbreak	-10357
▁presentation	-10358
▁lapt	-10359
inating	-10360
▁unfair	-10361
▁disorder	-10362
via	-10363
itement	-10364
ophy	-10365
▁Bes	-10366
▁fate	-10367
▁scar	-10368
▁Given	-10369
▁researcher	-10370
omi	-10371
breaking	-10372
▁execution	-10373
▁principles	-10374
49	-10375
idd	-10376
▁Vin	-10377
▁boxes	-10378
eor	-10379
▁Dak	-10380
▁Based	-10381
▁accomplish	-10382
IR	-10383
▁Prior	-10384
▁68	-10385
▁Perry	-10386
▁nurs	-10387
▁explicit	-10388
acceptable	-10389
▁Cry	-10390
arted	-10391
▁voices	-10392
▁Hungary	-10393
▁Nad	-10394
charg	-10395
▁imprison	-10396
▁restore	-10397
▁amendment	-10398
peror	-10399
▁keys	-10400
▁praise	-10401
▁Pow	-10402
▁Mumbai	-10403
▁themes	-10404
▁gaze	-10405
inding	-10406
TE	-10407
Not	-10408
▁hub	-10409
▁USB	-10410
▁flew	-10411
▁Creat	-10412
aman	-10413
anim	-10414
▁careful	-10415
▁Universal	-10416
▁Leban	-10417
▁Argentina	-10418
ancer	-10419
▁Rosen	-10420
▁broader	-10421
ags	-10422
▁nervous	-10423
▁parks	-10424
gree	-10425
▁tired	-10426
46	-10427
▁stored	-10428
▁Rest	-10429
▁Corp	-10430
▁overnight	-10431
▁momentum	-10432
Hz	-10433
▁affiliate	-10434
▁unprecedented	-10435
▁cig	-10436
▁conservation	-10437
▁Laur	-10438
▁bass	-10439
▁Ref	-10440
▁scientist	-10441
ello	-10442
▁households	-10443
▁arts	-10444
▁dynamic	-10445
▁attendance	-10446
eb	-10447
▁component	-10448
anded	-10449
▁yeah	-10450
▁tensions	-10451
elle	-10452
▁Bou	-10453
▁McConnell	-10454
▁striker	-10455
▁shops	-10456
orarily	-10457
zerland	-10458
▁sheriff	-10459
▁procedures	-10460
▁Polish	-10461
▁talented	-10462
▁executed	-10463
▁Jerry	-10464
▁Baker	-10465
▁Cann	-10466
▁Benjamin	-10467
▁knock	-10468
▁Contin	-10469
▁retailers	-10470
▁arguments	-10471
▁Hans	-10472
▁racism	-10473
TO	-10474
▁700	-10475
oning	-10476
▁lanes	-10477
▁Belgium	-10478
▁batter	-10479
emic	-10480
▁guid	-10481
▁discount	-10482
▁northeast	-10483
▁Spot	-10484
▁Operation	-10485
▁mechanism	-10486
▁Farm	-10487
▁Griff	-10488
▁submar	-10489
▁Taliban	-10490
▁unemployment	-10491
▁Ky	-10492
onia	-10493
▁Castle	-10494
▁Friends	-10495
▁wondering	-10496
▁Hotel	-10497
▁humanity	-10498
agic	-10499
▁360	-10500
▁criminals	-10501
awei	-10502
idays	-10503
▁coastal	-10504
▁regret	-10505
▁vocals	-10506
▁anticipated	-10507
VER	-10508
/20	-10509
▁grid	-10510
uri	-10511
▁sustainable	-10512
▁transparency	-10513
▁dubbed	-10514
reading	-10515
▁sequence	-10516
eda	-10517
▁Insp	-10518
7.	-10519
▁Formula	-10520
▁handled	-10521
▁www	-10522
▁1991	-10523
▁Country	-10524
▁reverse	-10525
▁attractive	-10526
▁convince	-10527
▁violated	-10528
▁pm	-10529
▁Non	-10530
▁Editor	-10531
▁delivering	-10532
Now	-10533
insula	-10534
▁speeds	-10535
="	-10536
▁Conc	-10537
▁pressed	-10538
▁Campaign	-10539
▁cens	-10540
▁gig	-10541
▁furn	-10542
▁elabor	-10543
▁Ward	-10544
▁Until	-10545
▁heritage	-10546
▁hire	-10547
▁confron	-10548
▁simultane	-10549
angel	-10550
▁waited	-10551
▁Pap	-10552
▁Bishop	-10553
▁Members	-10554
▁generations	-10555
ilst	-10556
▁safely	-10557
▁converted	-10558
▁passage	-10559
ussels	-10560
▁memorial	-10561
▁tex	-10562
▁Map	-10563
attered	-10564
▁operators	-10565
News	-10566
▁eighth	-10567
▁athletes	-10568
▁sovereign	-10569
▁Magic	-10570
▁reass	-10571
▁Representatives	-10572
▁beneath	-10573
itbart	-10574
▁dying	-10575
empl	-10576
▁toxic	-10577
ounce	-10578
▁Switzerland	-10579
▁Hand	-10580
▁cancelled	-10581
From	-10582
ellar	-10583
orneys	-10584
▁intersection	-10585
▁sheet	-10586
▁northwest	-10587
IF	-10588
▁Shah	-10589
▁killer	-10590
▁funeral	-10591
▁intensity	-10592
▁periods	-10593
▁ranging	-10594
▁criticised	-10595
ampa	-10596
ivan	-10597
▁charts	-10598
▁hes	-10599
resident	-10600
▁Jun	-10601
▁rhy	-10602
▁Prom	-10603
▁traged	-10604
▁Hold	-10605
▁survival	-10606
▁63	-10607
▁30-	-10608
▁Future	-10609
▁tremend	-10610
▁commissioner	-10611
UP	-10612
▁Military	-10613
▁fut	-10614
isons	-10615
▁globe	-10616
▁Alaska	-10617
▁acted	-10618
▁hin	-10619
▁WASH	-10620
▁naked	-10621
▁Macron	-10622
▁painted	-10623
anyahu	-10624
▁naturally	-10625
wal	-10626
▁mistakes	-10627
▁meets	-10628
▁topics	-10629
▁Chuck	-10630
▁Dougl	-10631
▁firef	-10632
▁smell	-10633
▁UC	-10634
▁pipeline	-10635
▁requiring	-10636
▁rumors	-10637
▁ensuring	-10638
▁rated	-10639
▁flagship	-10640
▁hadn	-10641
▁instantly	-10642
eption	-10643
▁grav	-10644
▁Know	-10645
▁teammates	-10646
only	-10647
umph	-10648
6.	-10649
▁Sport	-10650
▁NDP	-10651
▁inev	-10652
▁ancest	-10653
▁traveled	-10654
oons	-10655
▁publisher	-10656
▁tent	-10657
▁temporarily	-10658
arre	-10659
▁rhet	-10660
▁CR	-10661
▁187	-10662
strong	-10663
pha	-10664
▁Huawei	-10665
▁Mov	-10666
▁survivors	-10667
▁tea	-10668
▁vend	-10669
▁versus	-10670
bat	-10671
▁Hills	-10672
▁outfit	-10673
▁startup	-10674
▁considerable	-10675
ampton	-10676
ihad	-10677
▁airline	-10678
▁Nat	-10679
▁crude	-10680
▁desperate	-10681
bits	-10682
▁ICO	-10683
▁integrated	-10684
nan	-10685
tes	-10686
▁pharm	-10687
▁packed	-10688
▁WASHINGTON	-10689
:0	-10690
▁Fight	-10691
▁Circuit	-10692
▁Hunter	-10693
ahoo	-10694
▁Nazi	-10695
▁Third	-10696
ropolitan	-10697
▁firearms	-10698
▁GDP	-10699
anka	-10700
▁vessel	-10701
▁Confederate	-10702
cop	-10703
elsh	-10704
▁civilian	-10705
▁reviewed	-10706
▁Researchers	-10707
dict	-10708
▁Reading	-10709
▁utility	-10710
▁dish	-10711
▁seeks	-10712
▁babies	-10713
▁longtime	-10714
reement	-10715
▁acid	-10716
▁adopt	-10717
▁mac	-10718
▁dism	-10719
▁Corbyn	-10720
▁Much	-10721
▁maintaining	-10722
▁administrative	-10723
onies	-10724
▁Mi	-10725
print	-10726
▁humanitarian	-10727
▁prel	-10728
▁Nar	-10729
▁Magazine	-10730
▁mysterious	-10731
▁lifetime	-10732
▁whenever	-10733
▁Cloud	-10734
achment	-10735
▁Madison	-10736
21	-10737
▁punch	-10738
▁plain	-10739
▁jurisd	-10740
▁hopeful	-10741
▁Deep	-10742
▁subjects	-10743
uh	-10744
ourke	-10745
▁commissioned	-10746
▁Crypto	-10747
▁smugg	-10748
▁abilities	-10749
▁advocate	-10750
▁hardly	-10751
▁demol	-10752
aid	-10753
▁hunt	-10754
▁Fun	-10755
8.	-10756
▁Change	-10757
▁Weekly	-10758
▁murdered	-10759
▁pink	-10760
▁prevented	-10761
▁piano	-10762
▁treaty	-10763
▁shame	-10764
hard	-10765
▁signals	-10766
▁stopping	-10767
▁emotion	-10768
▁accepting	-10769
▁closest	-10770
▁10.	-10771
▁qualified	-10772
▁tactics	-10773
▁Treasury	-10774
▁agreements	-10775
▁forum	-10776
▁silent	-10777
bitious	-10778
▁pedest	-10779
▁info	-10780
NC	-10781
▁("	-10782
▁timing	-10783
▁Talk	-10784
▁sail	-10785
▁epic	-10786
▁incomp	-10787
▁construct	-10788
▁ED	-10789
▁2,000	-10790
▁distingu	-10791
▁Ry	-10792
onder	-10793
▁Oil	-10794
▁impression	-10795
▁interviewed	-10796
],	-10797
▁therapy	-10798
▁Hann	-10799
▁bread	-10800
▁damn	-10801
▁Netanyahu	-10802
ante	-10803
▁cous	-10804
▁publishing	-10805
▁acquisition	-10806
▁seed	-10807
▁Theresa	-10808
▁enjoying	-10809
▁billions	-10810
watch	-10811
▁Ice	-10812
▁Building	-10813
▁Kyle	-10814
▁concerning	-10815
▁dominated	-10816
▁managers	-10817
▁isolated	-10818
ige	-10819
After	-10820
▁sits	-10821
▁guards	-10822
atherine	-10823
▁ingredients	-10824
▁categories	-10825
▁extraordinary	-10826
▁Brun	-10827
▁Jimmy	-10828
▁travelling	-10829
cut	-10830
29	-10831
ugs	-10832
step	-10833
rowing	-10834
ania	-10835
▁Larry	-10836
▁Overall	-10837
▁Venezuela	-10838
arity	-10839
▁meanwhile	-10840
▁Armen	-10841
▁Amy	-10842
▁rehab	-10843
▁separated	-10844
bus	-10845
▁Tun	-10846
▁reop	-10847
▁printed	-10848
▁bulk	-10849
▁measured	-10850
raf	-10851
mic	-10852
ught	-10853
alia	-10854
▁indict	-10855
▁Cape	-10856
winning	-10857
▁ambassador	-10858
boys	-10859
▁prince	-10860
▁Neil	-10861
ranean	-10862
▁Draft	-10863
▁underground	-10864
rition	-10865
▁Pun	-10866
▁replic	-10867
▁reluct	-10868
▁Lawrence	-10869
▁(6	-10870
▁vegan	-10871
▁bullet	-10872
▁Spider	-10873
▁teenager	-10874
▁steady	-10875
ration	-10876
▁Sel	-10877
asant	-10878
▁cheaper	-10879
oros	-10880
▁spray	-10881
▁oppose	-10882
lu	-10883
▁assass	-10884
ori	-10885
loved	-10886
▁everyday	-10887
▁Welsh	-10888
▁openly	-10889
▁fool	-10890
▁gentle	-10891
▁Page	-10892
▁Whitaker	-10893
▁bone	-10894
▁delays	-10895
▁instant	-10896
▁wealthy	-10897
▁Olympics	-10898
▁displays	-10899
▁enl	-10900
▁witnessed	-10901
leton	-10902
▁Chall	-10903
41	-10904
igers	-10905
▁castle	-10906
▁Players	-10907
▁males	-10908
▁sleeping	-10909
▁param	-10910
▁stunning	-10911
overs	-10912
who	-10913
▁cod	-10914
▁nic	-10915
▁moderate	-10916
omy	-10917
▁cats	-10918
▁lasted	-10919
▁photographs	-10920
▁31,	-10921
yon	-10922
▁animation	-10923
▁mounted	-10924
▁conducting	-10925
▁directors	-10926
idal	-10927
▁references	-10928
Be	-10929
▁donation	-10930
▁Princ	-10931
▁Speaker	-10932
▁McL	-10933
guard	-10934
▁Amb	-10935
▁69	-10936
▁volat	-10937
▁operates	-10938
▁respondents	-10939
fish	-10940
▁1920	-10941
▁Legisl	-10942
▁beaten	-10943
▁trillion	-10944
▁exploring	-10945
▁Philip	-10946
▁resource	-10947
▁Wy	-10948
▁Palace	-10949
▁Sessions	-10950
▁Lane	-10951
▁poet	-10952
▁ignore	-10953
▁shield	-10954
▁wildlife	-10955
▁operator	-10956
▁incumb	-10957
▁judicial	-10958
▁Eth	-10959
▁Place	-10960
▁politically	-10961
▁Alexand	-10962
izer	-10963
grade	-10964
▁Admir	-10965
▁Fleet	-10966
▁virtually	-10967
▁Thus	-10968
▁restricted	-10969
WA	-10970
.'"	-10971
km	-10972
▁Nav	-10973
▁Douglas	-10974
▁outlet	-10975
▁partly	-10976
▁retain	-10977
ulu	-10978
23	-10979
aration	-10980
▁conviction	-10981
▁intervention	-10982
▁Brussels	-10983
400	-10984
▁lighting	-10985
▁Mercedes	-10986
▁preparation	-10987
AND	-10988
▁swit	-10989
▁Hend	-10990
▁Ltd	-10991
aud	-10992
▁Deb	-10993
27	-10994
▁absent	-10995
acent	-10996
▁integrity	-10997
icate	-10998
▁Anti	-10999
▁bathroom	-11000
▁Nancy	-11001
▁Holy	-11002
▁scope	-11003
▁underway	-11004
▁confusion	-11005
cription	-11006
▁dreams	-11007
▁argues	-11008
lando	-11009
urches	-11010
▁prosecution	-11011
atter	-11012
▁radar	-11013
angle	-11014
▁Blues	-11015
▁Dri	-11016
▁Boeing	-11017
▁Updated	-11018
▁steam	-11019
▁greet	-11020
▁Mission	-11021
▁licenses	-11022
pur	-11023
▁que	-11024
▁Snap	-11025
▁Abr	-11026
▁2010,	-11027
friendly	-11028
▁Gandhi	-11029
▁annually	-11030
▁integration	-11031
▁harsh	-11032
castle	-11033
AB	-11034
▁Ferr	-11035
Donald	-11036
▁Others	-11037
▁savings	-11038
▁Regional	-11039
▁exports	-11040
▁Jenn	-11041
▁wireless	-11042
▁Shel	-11043
▁collective	-11044
vi	-11045
▁minds	-11046
OK	-11047
▁modified	-11048
▁Treat	-11049
▁bears	-11050
uru	-11051
▁Ronald	-11052
screen	-11053
▁tanks	-11054
▁ES	-11055
▁robots	-11056
▁guidance	-11057
▁ambitious	-11058
▁Dom	-11059
▁till	-11060
uez	-11061
▁preliminary	-11062
▁flav	-11063
▁chamber	-11064
▁blocking	-11065
▁chocolate	-11066
▁Hop	-11067
DAY	-11068
▁kg	-11069
▁stim	-11070
▁crews	-11071
kar	-11072
cribed	-11073
▁gradually	-11074
▁disappeared	-11075
mod	-11076
rators	-11077
▁assured	-11078
▁CIA	-11079
▁anxiety	-11080
▁relatives	-11081
▁influential	-11082
▁commem	-11083
▁gifts	-11084
▁Egyptian	-11085
she	-11086
▁unsuccess	-11087
▁responding	-11088
degree	-11089
▁Salman	-11090
▁Climate	-11091
▁ordinary	-11092
▁agriculture	-11093
▁legislature	-11094
▁ports	-11095
▁DJ	-11096
▁fights	-11097
▁Marshall	-11098
▁Furthermore	-11099
▁Alf	-11100
▁nodded	-11101
▁organic	-11102
▁urging	-11103
▁restrict	-11104
85	-11105
▁Brady	-11106
▁purchases	-11107
▁tension	-11108
FO	-11109
oker	-11110
otyp	-11111
▁NOT	-11112
▁certific	-11113
▁Louisiana	-11114
▁cleaning	-11115
▁refreshing	-11116
▁condemned	-11117
▁Gam	-11118
▁Comic	-11119
▁shore	-11120
▁Plat	-11121
▁aboard	-11122
▁replacing	-11123
▁engaging	-11124
▁availability	-11125
atre	-11126
▁touchdowns	-11127
▁rall	-11128
▁circuit	-11129
▁slot	-11130
▁Sex	-11131
ailand	-11132
▁AMD	-11133
▁Linked	-11134
eling	-11135
▁golden	-11136
ailable	-11137
▁Nature	-11138
▁24-	-11139
▁Stars	-11140
▁inhab	-11141
▁bump	-11142
▁politician	-11143
▁sons	-11144
▁Partners	-11145
atched	-11146
▁diver	-11147
▁knocked	-11148
▁Morrison	-11149
▁Patriots	-11150
▁Garden	-11151
▁trips	-11152
Some	-11153
▁suspicious	-11154
▁Athlet	-11155
▁arrangement	-11156
▁mirror	-11157
▁overcome	-11158
▁Think	-11159
▁Lock	-11160
▁shifted	-11161
▁speakers	-11162
mons	-11163
aning	-11164
▁iPad	-11165
▁cease	-11166
▁resemb	-11167
▁objective	-11168
▁demonstrate	-11169
DC	-11170
▁echo	-11171
▁closure	-11172
▁earthquake	-11173
oken	-11174
▁Advent	-11175
▁whit	-11176
▁helpful	-11177
▁conventional	-11178
odox	-11179
▁conscious	-11180
erse	-11181
▁soldier	-11182
▁Conservatives	-11183
▁Within	-11184
▁impacts	-11185
▁77	-11186
child	-11187
lynn	-11188
stanbul	-11189
▁adaptation	-11190
▁checked	-11191
▁servers	-11192
▁remembered	-11193
jan	-11194
▁Abu	-11195
▁bold	-11196
▁fare	-11197
RS	-11198
▁Heart	-11199
▁suitable	-11200
▁Trek	-11201
▁ax	-11202
▁installation	-11203
▁penalties	-11204
▁domain	-11205
▁confused	-11206
▁casualties	-11207
▁12-	-11208
▁Mans	-11209
▁supporter	-11210
▁affair	-11211
▁Buy	-11212
Do	-11213
acular	-11214
▁Cyber	-11215
▁beside	-11216
▁underw	-11217
▁Cuba	-11218
▁sued	-11219
▁drinks	-11220
▁pricing	-11221
iffe	-11222
▁prospects	-11223
arat	-11224
▁excitement	-11225
▁consensus	-11226
leep	-11227
▁honour	-11228
▁invested	-11229
▁Transportation	-11230
▁benefic	-11231
idges	-11232
Ne	-11233
usting	-11234
▁burst	-11235
39	-11236
▁RT	-11237
▁Warriors	-11238
▁occurs	-11239
▁refusing	-11240
ulty	-11241
ixon	-11242
former	-11243
▁boyfriend	-11244
▁Want	-11245
▁ally	-11246
▁tissue	-11247
▁explosive	-11248
▁recreational	-11249
gal	-11250
▁lect	-11251
▁champions	-11252
▁tongue	-11253
▁damages	-11254
▁questioning	-11255
▁Flash	-11256
▁archae	-11257
▁placing	-11258
▁hackers	-11259
▁Log	-11260
▁toile	-11261
▁Michelle	-11262
▁Pur	-11263
▁1989	-11264
▁2011.	-11265
mingham	-11266
▁hiring	-11267
▁lake	-11268
has	-11269
▁scrap	-11270
▁Istanbul	-11271
▁arranged	-11272
borough	-11273
▁Austria	-11274
▁marine	-11275
mi	-11276
▁Type	-11277
▁judgment	-11278
Can	-11279
▁grin	-11280
▁assemb	-11281
▁circle	-11282
▁graphic	-11283
▁unacceptable	-11284
uther	-11285
monton	-11286
▁Madonna	-11287
shore	-11288
▁lifestyle	-11289
▁triggered	-11290
▁euro	-11291
▁maker	-11292
▁exhibition	-11293
▁dated	-11294
▁Oliver	-11295
▁hiding	-11296
▁revealing	-11297
ethe	-11298
▁Orlando	-11299
▁keyboard	-11300
ME	-11301
▁Slo	-11302
ogy	-11303
▁surely	-11304
ttes	-11305
▁ratio	-11306
▁Late	-11307
▁CNBC	-11308
▁Brazilian	-11309
▁attributed	-11310
▁Walter	-11311
▁investing	-11312
hew	-11313
▁Less	-11314
▁fence	-11315
▁Denmark	-11316
▁principle	-11317
New	-11318
▁Round	-11319
formance	-11320
▁Citiz	-11321
▁Rodrig	-11322
▁drones	-11323
profile	-11324
▁projected	-11325
▁orange	-11326
▁rainfall	-11327
300	-11328
▁pow	-11329
▁Does	-11330
▁Bangl	-11331
▁Anyone	-11332
▁burden	-11333
▁buck	-11334
▁trends	-11335
▁Lucas	-11336
▁literature	-11337
▁CL	-11338
▁soundtrack	-11339
▁IV	-11340
isode	-11341
▁devastating	-11342
otton	-11343
was	-11344
▁disabled	-11345
▁partially	-11346
▁drives	-11347
▁loaded	-11348
▁licensed	-11349
▁Sometimes	-11350
▁Fact	-11351
▁Thailand	-11352
▁Init	-11353
▁export	-11354
▁peaked	-11355
,'"	-11356
▁Keith	-11357
▁Pier	-11358
▁Ele	-11359
▁Swift	-11360
▁7.	-11361
▁Clar	-11362
aughters	-11363
▁assaulted	-11364
ressing	-11365
▁caution	-11366
▁bund	-11367
▁tribute	-11368
▁Mom	-11369
▁administ	-11370
post	-11371
▁intimid	-11372
▁Edge	-11373
▁Sad	-11374
▁imported	-11375
dis	-11376
oop	-11377
▁taxi	-11378
▁ridiculous	-11379
▁61	-11380
▁adequ	-11381
▁interven	-11382
▁notably	-11383
ATCH	-11384
▁SH	-11385
▁160	-11386
olid	-11387
▁viewing	-11388
heastern	-11389
▁interference	-11390
weg	-11391
olving	-11392
▁minimal	-11393
▁addressing	-11394
Just	-11395
▁trucks	-11396
▁compromise	-11397
arthy	-11398
▁Money	-11399
atto	-11400
asha	-11401
▁shooter	-11402
▁choosing	-11403
▁investor	-11404
▁Studio	-11405
cor	-11406
▁escaped	-11407
▁Kl	-11408
▁Buck	-11409
▁hers	-11410
▁consulate	-11411
▁gard	-11412
▁audiences	-11413
▁Move	-11414
▁raid	-11415
rendra	-11416
▁picks	-11417
▁Communications	-11418
▁hen	-11419
▁Thanksgiving	-11420
▁les	-11421
▁suck	-11422
▁representation	-11423
▁awa	-11424
▁flowers	-11425
▁remarkable	-11426
eria	-11427
▁Fel	-11428
ilateral	-11429
▁ast	-11430
▁Coach	-11431
▁chaos	-11432
▁pilots	-11433
▁neighbors	-11434
▁API	-11435
render	-11436
▁proceedings	-11437
▁IC	-11438
▁snap	-11439
▁phrase	-11440
▁occasionally	-11441
▁Rav	-11442
▁responses	-11443
▁twelve	-11444
▁jake	-11445
Oh	-11446
hess	-11447
▁presents	-11448
▁accompany	-11449
▁Infantry	-11450
eo	-11451
▁Lad	-11452
cill	-11453
iterranean	-11454
isive	-11455
▁Custom	-11456
▁emotions	-11457
▁motivated	-11458
ao	-11459
▁Puerto	-11460
▁Moreover	-11461
oints	-11462
▁sentiment	-11463
▁shark	-11464
▁throat	-11465
rien	-11466
▁bases	-11467
▁democratic	-11468
oft	-11469
▁cub	-11470
▁Small	-11471
bean	-11472
▁spy	-11473
▁vert	-11474
▁portfol	-11475
▁3-	-11476
ecute	-11477
▁terrif	-11478
omic	-11479
▁eliminate	-11480
▁turb	-11481
▁promotional	-11482
▁Iraqi	-11483
▁18-	-11484
▁wrap	-11485
▁panels	-11486
▁Should	-11487
▁Nathan	-11488
▁convert	-11489
▁Everyone	-11490
manuel	-11491
▁euros	-11492
▁Salt	-11493
▁tradem	-11494
▁Kick	-11495
▁Celt	-11496
▁finale	-11497
▁nights	-11498
▁smartphones	-11499
▁root	-11500
▁Cart	-11501
▁agricultural	-11502
▁RC	-11503
▁cab	-11504
▁resort	-11505
▁tourism	-11506
offs	-11507
grad	-11508
▁Anne	-11509
▁Tampa	-11510
▁rib	-11511
▁artillery	-11512
▁scared	-11513
▁Birmingham	-11514
hou	-11515
shirt	-11516
▁unions	-11517
▁1:	-11518
▁Ec	-11519
▁Chang	-11520
▁buses	-11521
▁collecting	-11522
▁repeat	-11523
▁whereas	-11524
▁tragedy	-11525
▁Shaw	-11526
▁Below	-11527
▁amongst	-11528
leans	-11529
zes	-11530
▁15-	-11531
▁Cold	-11532
▁wings	-11533
▁130	-11534
▁embassy	-11535
▁superior	-11536
▁tourist	-11537
▁Doug	-11538
▁Edmonton	-11539
▁preventing	-11540
▁casting	-11541
VE	-11542
▁Wol	-11543
▁Brand	-11544
▁Arkansas	-11545
▁Interest	-11546
▁Pomp	-11547
▁hill	-11548
▁credited	-11549
▁subscribing	-11550
cha	-11551
mary	-11552
▁Guy	-11553
▁Was	-11554
▁Things	-11555
▁scrutiny	-11556
ping	-11557
ylan	-11558
▁lod	-11559
▁uncertainty	-11560
Rourke	-11561
incinn	-11562
▁destro	-11563
immer	-11564
▁rice	-11565
▁Mack	-11566
▁Veter	-11567
▁shed	-11568
▁holes	-11569
▁Mediterranean	-11570
▁conced	-11571
▁pose	-11572
▁compliance	-11573
▁composition	-11574
▁Tyler	-11575
▁Vermont	-11576
▁disrupt	-11577
▁pregnancy	-11578
▁courage	-11579
▁HBO	-11580
eason	-11581
▁brutal	-11582
▁apology	-11583
▁licensing	-11584
NS	-11585
▁duo	-11586
▁approve	-11587
▁Newcastle	-11588
▁Oscar	-11589
▁Ald	-11590
uating	-11591
iang	-11592
▁Eff	-11593
▁demo	-11594
▁Tory	-11595
▁Merkel	-11596
▁rhetoric	-11597
ilation	-11598
▁Aw	-11599
▁foods	-11600
▁courses	-11601
▁starring	-11602
▁Firef	-11603
limited	-11604
▁astronom	-11605
▁lip	-11606
▁Germ	-11607
▁stir	-11608
▁Ton	-11609
▁dominant	-11610
▁Mall	-11611
▁departments	-11612
▁colleg	-11613
▁Pas	-11614
▁missiles	-11615
ixed	-11616
▁cruel	-11617
▁competitors	-11618
uded	-11619
▁Mort	-11620
▁stun	-11621
▁Hamas	-11622
▁propaganda	-11623
▁Palestinians	-11624
▁reck	-11625
▁patent	-11626
▁Coalition	-11627
▁provisions	-11628
acles	-11629
gate	-11630
▁frustration	-11631
ENT	-11632
incinnati	-11633
▁toy	-11634
▁shadow	-11635
▁difficulties	-11636
▁opposing	-11637
▁PR	-11638
▁cooking	-11639
▁sin	-11640
BN	-11641
▁LE	-11642
▁Ger	-11643
atti	-11644
▁earliest	-11645
▁relation	-11646
▁wound	-11647
▁obst	-11648
▁Banks	-11649
▁inapp	-11650
▁transparent	-11651
▁jew	-11652
caster	-11653
▁advertis	-11654
eu	-11655
ques	-11656
▁theater	-11657
▁ninth	-11658
▁surpass	-11659
istle	-11660
▁importantly	-11661
▁mandatory	-11662
▁Patrol	-11663
▁RELATED	-11664
GA	-11665
thal	-11666
migration	-11667
▁Anim	-11668
▁poster	-11669
▁examined	-11670
▁fract	-11671
▁Moh	-11672
▁medal	-11673
▁repeal	-11674
rake	-11675
name	-11676
▁divorce	-11677
▁McCarthy	-11678
▁completing	-11679
▁phenomenon	-11680
▁Susan	-11681
▁Soon	-11682
onel	-11683
▁Sac	-11684
▁manga	-11685
verning	-11686
▁accusing	-11687
▁reply	-11688
eston	-11689
▁Resident	-11690
▁Indians	-11691
▁recount	-11692
▁currencies	-11693
backed	-11694
itated	-11695
▁balls	-11696
▁restored	-11697
▁Environmental	-11698
▁rushing	-11699
▁Ub	-11700
▁renewed	-11701
emon	-11702
▁offseason	-11703
turn	-11704
▁Orleans	-11705
▁lung	-11706
▁distribut	-11707
▁attorneys	-11708
▁Assistant	-11709
▁organisations	-11710
▁indication	-11711
▁EPA	-11712
uki	-11713
▁Carson	-11714
▁jaw	-11715
▁golf	-11716
▁Brigade	-11717
▁vibr	-11718
ophob	-11719
▁Rachel	-11720
▁muscle	-11721
ygen	-11722
▁bip	-11723
▁depends	-11724
▁beef	-11725
▁bombing	-11726
▁Ric	-11727
▁preserve	-11728
▁pledged	-11729
amous	-11730
▁Yahoo	-11731
▁96	-11732
▁swimming	-11733
▁2.0	-11734
▁Kit	-11735
▁arbit	-11736
illo	-11737
▁barg	-11738
▁certified	-11739
].	-11740
jud	-11741
800	-11742
ovic	-11743
umbled	-11744
▁Watson	-11745
dam	-11746
commun	-11747
▁unfortunately	-11748
leading	-11749
▁sisters	-11750
▁rocks	-11751
▁Ashley	-11752
▁Natural	-11753
▁bankrupt	-11754
▁shocking	-11755
▁creatures	-11756
EP	-11757
▁Hud	-11758
▁tremendous	-11759
Semit	-11760
tains	-11761
▁disappoint	-11762
▁79	-11763
▁911	-11764
storm	-11765
▁SA	-11766
▁Joy	-11767
▁Cz	-11768
▁briefing	-11769
▁reflected	-11770
▁Indeed	-11771
▁Turner	-11772
▁Walmart	-11773
▁rend	-11774
issance	-11775
▁mamm	-11776
izarre	-11777
▁Peace	-11778
inate	-11779
▁Rugby	-11780
▁gallery	-11781
▁$500	-11782
mind	-11783
▁refuse	-11784
▁breakfast	-11785
▁Gallery	-11786
rate	-11787
En	-11788
rones	-11789
▁Seven	-11790
▁gaining	-11791
▁joins	-11792
including	-11793
▁renov	-11794
▁verdict	-11795
▁discour	-11796
OD	-11797
agg	-11798
oday	-11799
▁Phys	-11800
▁Works	-11801
▁forming	-11802
▁Cincinnati	-11803
▁differently	-11804
▁comed	-11805
instein	-11806
▁singles	-11807
▁Rogers	-11808
ois	-11809
▁Jets	-11810
▁86	-11811
▁experiments	-11812
▁guaranteed	-11813
▁comply	-11814
▁robust	-11815
▁Left	-11816
▁Serge	-11817
-16	-11818
▁insult	-11819
▁obsc	-11820
▁roots	-11821
▁telephone	-11822
▁tenure	-11823
valid	-11824
▁overd	-11825
▁SD	-11826
▁newest	-11827
▁Villa	-11828
adh	-11829
▁collapsed	-11830
olt	-11831
▁Motors	-11832
▁perceived	-11833
▁88	-11834
▁Krist	-11835
▁74	-11836
ensity	-11837
▁trapped	-11838
ski	-11839
rock	-11840
▁prox	-11841
▁Progress	-11842
▁stere	-11843
▁calendar	-11844
▁fu	-11845
iors	-11846
ieties	-11847
eness	-11848
▁Colomb	-11849
inge	-11850
boards	-11851
iga	-11852
5,000	-11853
ishers	-11854
▁suggestion	-11855
▁73	-11856
▁Pad	-11857
▁Dakota	-11858
Sc	-11859
▁dece	-11860
▁Newslet	-11861
▁annoy	-11862
otion	-11863
▁twin	-11864
▁Tob	-11865
▁2:	-11866
▁CON	-11867
▁recy	-11868
▁laughing	-11869
iva	-11870
▁dealt	-11871
▁backup	-11872
▁besides	-11873
▁Narendra	-11874
▁appeals	-11875
▁reserved	-11876
obs	-11877
▁existed	-11878
piece	-11879
trans	-11880
imet	-11881
▁approaching	-11882
▁arena	-11883
▁hyper	-11884
▁infection	-11885
▁leak	-11886
▁Traff	-11887
emption	-11888
▁cops	-11889
arettes	-11890
▁experiencing	-11891
▁drought	-11892
▁resolved	-11893
▁approaches	-11894
▁buff	-11895
▁Bears	-11896
▁Being	-11897
▁polar	-11898
▁successor	-11899
▁spectrum	-11900
ouds	-11901
▁NCA	-11902
▁Shortly	-11903
▁focuses	-11904
▁parade	-11905
▁Stanford	-11906
▁employers	-11907
▁protections	-11908
▁premier	-11909
▁permitted	-11910
▁unanim	-11911
▁churches	-11912
▁monument	-11913
▁Agr	-11914
▁connecting	-11915
▁interaction	-11916
▁Aqu	-11917
ullivan	-11918
▁shake	-11919
▁motorcy	-11920
▁Cher	-11921
!)	-11922
▁Buffalo	-11923
orate	-11924
▁bones	-11925
kees	-11926
aste	-11927
▁Pod	-11928
▁fierce	-11929
ashi	-11930
▁trafficking	-11931
▁Chile	-11932
▁Production	-11933
▁98	-11934
SE	-11935
▁stead	-11936
ollar	-11937
tegr	-11938
▁Photos	-11939
news	-11940
▁Peters	-11941
▁mixt	-11942
munition	-11943
MC	-11944
▁burg	-11945
VID	-11946
▁historian	-11947
▁Bed	-11948
▁leather	-11949
▁characteristics	-11950
▁PHOT	-11951
▁streak	-11952
looking	-11953
▁Inside	-11954
▁suggestions	-11955
▁Cabinet	-11956
▁partial	-11957
mid	-11958
oda	-11959
▁Stay	-11960
▁lakh	-11961
oche	-11962
▁accum	-11963
▁Kas	-11964
armed	-11965
▁array	-11966
▁slide	-11967
▁Norweg	-11968
▁Theatre	-11969
▁beloved	-11970
▁counted	-11971
▁Winn	-11972
▁Maine	-11973
▁Battalion	-11974
%)	-11975
▁checking	-11976
▁shaped	-11977
▁planes	-11978
▁accl	-11979
▁outdoor	-11980
▁automatic	-11981
▁BE	-11982
▁Sent	-11983
▁backs	-11984
▁comics	-11985
▁volunt	-11986
▁tel	-11987
▁universal	-11988
rot	-11989
▁Thunder	-11990
▁females	-11991
▁CA	-11992
▁Section	-11993
▁Fame	-11994
ecurity	-11995
▁weakness	-11996
Photo	-11997
▁simultaneously	-11998
urrent	-11999
▁enabled	-12000
600	-12001
▁labour	-12002
▁Bristol	-12003
▁strategies	-12004
▁Rat	-12005
encer	-12006
▁proportion	-12007
▁qualifying	-12008
▁introducing	-12009
▁Len	-12010
▁formerly	-12011
annon	-12012
▁contributing	-12013
▁flour	-12014
▁publish	-12015
kes	-12016
▁Had	-12017
▁bicy	-12018
▁Raf	-12019
rians	-12020
▁1987	-12021
▁prototype	-12022
▁implications	-12023
mother	-12024
▁Industry	-12025
this	-12026
▁Dubai	-12027
osta	-12028
▁Flynn	-12029
TH	-12030
▁wishes	-12031
▁expertise	-12032
▁Danny	-12033
▁parallel	-12034
▁satisfied	-12035
arget	-12036
▁mountains	-12037
runner	-12038
▁Blood	-12039
▁Richmond	-12040
▁1988	-12041
▁Airl	-12042
abling	-12043
▁decentralized	-12044
▁chronic	-12045
rek	-12046
▁Terms	-12047
▁Franklin	-12048
▁Kate	-12049
▁midnight	-12050
▁Anna	-12051
▁Brandon	-12052
elli	-12053
▁outer	-12054
▁donors	-12055
▁compare	-12056
▁celebrating	-12057
ailing	-12058
▁villages	-12059
▁Imperial	-12060
▁suspicion	-12061
▁Xi	-12062
▁walks	-12063
▁insight	-12064
▁conservatives	-12065
-15	-12066
▁Crow	-12067
▁Honda	-12068
▁deployment	-12069
Rep	-12070
▁2.5	-12071
▁grave	-12072
▁tables	-12073
▁Stevens	-12074
forcement	-12075
▁carriers	-12076
▁romantic	-12077
▁Sources	-12078
▁evident	-12079
▁EC	-12080
▁urge	-12081
▁dign	-12082
▁rewards	-12083
▁indicating	-12084
orns	-12085
▁FOX	-12086
▁batteries	-12087
luded	-12088
▁Gene	-12089
▁drunk	-12090
▁Fro	-12091
▁Terry	-12092
▁Standard	-12093
▁gym	-12094
▁excuse	-12095
▁artwork	-12096
▁billionaire	-12097
▁dramatically	-12098
SU	-12099
▁heroes	-12100
OU	-12101
▁Wik	-12102
herent	-12103
▁110	-12104
▁habitat	-12105
bot	-12106
▁Bennett	-12107
▁Kirk	-12108
aul	-12109
iar	-12110
orus	-12111
▁Side	-12112
▁100,000	-12113
▁Arctic	-12114
▁Hitler	-12115
FF	-12116
▁Dist	-12117
▁fitness	-12118
▁processor	-12119
quest	-12120
▁Buzz	-12121
▁communicate	-12122
▁Pil	-12123
ortez	-12124
KE	-12125
▁unnecess	-12126
wealth	-12127
▁Bak	-12128
isers	-12129
ocument	-12130
ipper	-12131
▁harvest	-12132
▁Fab	-12133
▁armor	-12134
▁posed	-12135
▁embrace	-12136
▁corporations	-12137
▁Speed	-12138
▁finals	-12139
▁decrease	-12140
▁strongest	-12141
▁instruments	-12142
▁qualify	-12143
▁sacrif	-12144
▁sectors	-12145
▁Merc	-12146
▁Niel	-12147
▁ric	-12148
▁AFL	-12149
▁Sri	-12150
▁Finn	-12151
▁manif	-12152
▁hunter	-12153
orse	-12154
ullah	-12155
▁intr	-12156
▁cents	-12157
▁pione	-12158
▁rugby	-12159
▁Alb	-12160
▁forests	-12161
▁Original	-12162
▁Gay	-12163
▁organised	-12164
▁coordinator	-12165
utt	-12166
▁71	-12167
▁Officers	-12168
▁slated	-12169
▁Wrest	-12170
▁globally	-12171
▁electoral	-12172
▁tune	-12173
▁Barry	-12174
▁desert	-12175
▁meantime	-12176
▁tuned	-12177
▁Television	-12178
▁EP	-12179
atoes	-12180
▁recon	-12181
▁Congressional	-12182
▁Fu	-12183
▁fert	-12184
▁subscribe	-12185
Mar	-12186
▁Garc	-12187
▁musicians	-12188
olk	-12189
▁cake	-12190
▁reaches	-12191
▁WATCH	-12192
chi	-12193
▁haz	-12194
quer	-12195
▁Saints	-12196
▁succeeded	-12197
▁meaningful	-12198
wind	-12199
▁Trail	-12200
▁Caption	-12201
▁Juan	-12202
▁rescued	-12203
▁similarly	-12204
▁spiritual	-12205
▁tum	-12206
▁Mana	-12207
ovo	-12208
roc	-12209
▁warnings	-12210
▁Chart	-12211
▁forgotten	-12212
anz	-12213
▁adm	-12214
▁theaters	-12215
ucus	-12216
▁Prim	-12217
▁Minor	-12218
▁felony	-12219
▁clinical	-12220
▁makers	-12221
ouses	-12222
▁Bird	-12223
ista	-12224
omo	-12225
▁worn	-12226
half	-12227
▁Jar	-12228
▁Finland	-12229
▁consisted	-12230
▁disappointing	-12231
▁Ot	-12232
▁afterwards	-12233
abe	-12234
▁NSW	-12235
▁instances	-12236
urred	-12237
▁Racing	-12238
▁Picture	-12239
▁visa	-12240
▁wo	-12241
▁Teh	-12242
▁sorts	-12243
▁deleted	-12244
▁Content	-12245
▁daughters	-12246
▁slammed	-12247
▁hybrid	-12248
▁discrimin	-12249
▁Therefore	-12250
▁ammunition	-12251
▁Convention	-12252
archy	-12253
▁exploration	-12254
▁arrangements	-12255
htt	-12256
▁remainder	-12257
▁continu	-12258
▁elderly	-12259
iper	-12260
▁nest	-12261
▁curious	-12262
▁dancing	-12263
▁refers	-12264
▁Judiciary	-12265
▁Breitbart	-12266
▁transported	-12267
▁southwest	-12268
▁inclusion	-12269
▁southeast	-12270
ICE	-12271
▁Il	-12272
inho	-12273
ridge	-12274
▁initiatives	-12275
di	-12276
▁Jake	-12277
▁retreat	-12278
▁demonstration	-12279
▁tub	-12280
▁tut	-12281
charge	-12282
▁pizza	-12283
▁revenues	-12284
▁Rams	-12285
▁Prize	-12286
▁Must	-12287
▁styles	-12288
▁Classic	-12289
▁fed	-12290
▁lessons	-12291
▁incumbent	-12292
▁interim	-12293
▁Invalid	-12294
airy	-12295
▁Airlines	-12296
bris	-12297
▁Muham	-12298
▁firearm	-12299
▁creators	-12300
▁kilometers	-12301
▁Hat	-12302
▁bats	-12303
▁inequ	-12304
▁holidays	-12305
▁subscribers	-12306
▁Norwegian	-12307
▁unl	-12308
azed	-12309
▁fict	-12310
geon	-12311
hist	-12312
▁HIV	-12313
▁boards	-12314
▁Syn	-12315
▁governing	-12316
▁Tweet	-12317
elligent	-12318
▁Cand	-12319
TER	-12320
gel	-12321
▁reminded	-12322
▁RAM	-12323
▁crowds	-12324
")	-12325
▁Bris	-12326
itting	-12327
▁Jennifer	-12328
anches	-12329
▁accommodate	-12330
vet	-12331
▁Sep	-12332
alid	-12333
icut	-12334
▁halt	-12335
▁inher	-12336
eded	-12337
▁flags	-12338
▁Rio	-12339
▁Beck	-12340
▁Analy	-12341
▁filling	-12342
▁Boys	-12343
▁Ripple	-12344
▁Against	-12345
▁acquire	-12346
▁drafted	-12347
▁thrilled	-12348
▁McM	-12349
▁rhyth	-12350
▁equity	-12351
▁gene	-12352
▁wondered	-12353
▁setup	-12354
▁upgraded	-12355
▁Interior	-12356
▁Sciences	-12357
▁spreading	-12358
▁prey	-12359
▁Powell	-12360
▁lengthy	-12361
▁quietly	-12362
▁Schumer	-12363
▁Product	-12364
obe	-12365
▁Sox	-12366
anked	-12367
▁Dest	-12368
▁garage	-12369
Ind	-12370
▁Abrams	-12371
▁serial	-12372
▁amend	-12373
▁specialist	-12374
▁deputies	-12375
▁cargo	-12376
ributes	-12377
▁Gear	-12378
▁Electric	-12379
▁honey	-12380
▁skept	-12381
▁Record	-12382
▁fleeing	-12383
▁8.	-12384
zb	-12385
▁torped	-12386
▁Hey	-12387
▁Bengal	-12388
▁Kemp	-12389
▁Bible	-12390
▁Chamber	-12391
▁frustrated	-12392
▁philosophy	-12393
▁$50	-12394
lington	-12395
▁clinic	-12396
▁conversion	-12397
vo	-12398
esis	-12399
▁wooden	-12400
▁affects	-12401
emet	-12402
▁produces	-12403
nik	-12404
asted	-12405
▁gray	-12406
obi	-12407
▁cyclone	-12408
▁Charlotte	-12409
▁volunteer	-12410
itudes	-12411
▁frequency	-12412
▁fundraising	-12413
▁intellectual	-12414
▁hypot	-12415
42	-12416
▁Devil	-12417
▁mathem	-12418
▁electrical	-12419
▁coron	-12420
▁adapted	-12421
ationally	-12422
ateur	-12423
▁Yankees	-12424
▁fet	-12425
▁tob	-12426
▁mall	-12427
▁sidew	-12428
▁Naval	-12429
▁invite	-12430
enter	-12431
▁assert	-12432
▁costume	-12433
▁procl	-12434
▁steep	-12435
▁arrives	-12436
▁pressing	-12437
speed	-12438
▁Ni	-12439
cour	-12440
▁Tar	-12441
▁taxpayers	-12442
▁UPD	-12443
▁NCAA	-12444
▁traders	-12445
iah	-12446
▁gre	-12447
being	-12448
▁sentencing	-12449
▁Pakistani	-12450
▁diagnosed	-12451
▁Agric	-12452
▁hearts	-12453
▁Railway	-12454
▁sounded	-12455
▁inmates	-12456
elta	-12457
▁lun	-12458
▁pound	-12459
▁pension	-12460
▁140	-12461
▁boom	-12462
▁athletic	-12463
▁reflects	-12464
▁editorial	-12465
▁Send	-12466
▁realistic	-12467
▁enterprise	-12468
▁Construction	-12469
▁Si	-12470
▁sauce	-12471
▁lovely	-12472
▁expense	-12473
▁sometime	-12474
▁understands	-12475
▁Bangladesh	-12476
▁teens	-12477
▁desktop	-12478
▁Dow	-12479
▁CBC	-12480
▁pup	-12481
▁Hero	-12482
▁legendary	-12483
aha	-12484
▁Drag	-12485
▁monster	-12486
▁iT	-12487
Why	-12488
▁vowed	-12489
▁Kurdish	-12490
▁doubled	-12491
▁prompting	-12492
ivic	-12493
arded	-12494
▁reiter	-12495
▁Pictures	-12496
AFP	-12497
▁EV	-12498
▁Unit	-12499
▁notion	-12500
▁Universe	-12501
▁Cho	-12502
ols	-12503
▁jam	-12504
▁Fergus	-12505
▁journalism	-12506
▁functionality	-12507
700	-12508
atics	-12509
▁squee	-12510
▁voiced	-12511
imm	-12512
▁Solar	-12513
▁corrid	-12514
▁intrig	-12515
och	-12516
atern	-12517
▁retained	-12518
▁territories	-12519
powered	-12520
pack	-12521
▁1984	-12522
▁Tribune	-12523
▁Rather	-12524
By	-12525
bast	-12526
enh	-12527
▁Gonz	-12528
▁Tigers	-12529
▁Alt	-12530
▁Album	-12531
▁drops	-12532
fortable	-12533
▁fines	-12534
▁chase	-12535
▁reactions	-12536
ripts	-12537
▁lone	-12538
▁holders	-12539
▁considers	-12540
▁portfolio	-12541
▁minim	-12542
▁resume	-12543
▁Columbus	-12544
po	-12545
ere	-12546
oven	-12547
▁Jin	-12548
neath	-12549
▁violating	-12550
▁regulators	-12551
cat	-12552
▁Soccer	-12553
▁solely	-12554
▁Insider	-12555
▁Arn	-12556
▁Lang	-12557
▁swift	-12558
▁alerts	-12559
thodox	-12560
ported	-12561
▁Czech	-12562
▁creature	-12563
ellation	-12564
▁accuracy	-12565
▁1986	-12566
▁Cowboys	-12567
GE	-12568
▁Remember	-12569
▁decides	-12570
▁Gate	-12571
Well	-12572
▁cultiv	-12573
▁thirty	-12574
▁87	-12575
▁Race	-12576
▁Carlos	-12577
▁vacation	-12578
▁aftermath	-12579
▁delicious	-12580
▁sponsored	-12581
43	-12582
▁Kash	-12583
▁bizarre	-12584
▁bugs	-12585
▁accidentally	-12586
▁Shar	-12587
▁divers	-12588
▁raises	-12589
gets	-12590
▁Om	-12591
angered	-12592
▁struggles	-12593
stable	-12594
▁triple	-12595
▁angle	-12596
▁volumes	-12597
▁AND	-12598
emetery	-12599
▁interpre	-12600
▁5,000	-12601
essional	-12602
▁Holland	-12603
▁Students	-12604
▁sophistic	-12605
▁Ax	-12606
▁purchasing	-12607
▁Ahmed	-12608
ILE	-12609
gage	-12610
▁Liberty	-12611
▁Nep	-12612
▁Ferrari	-12613
ecting	-12614
▁revised	-12615
▁detected	-12616
about	-12617
▁toys	-12618
▁Grey	-12619
zone	-12620
▁convenient	-12621
▁MLB	-12622
vironments	-12623
▁seeds	-12624
umed	-12625
▁Hum	-12626
▁bias	-12627
▁pupp	-12628
▁quote	-12629
ortunate	-12630
lesh	-12631
▁grey	-12632
▁Abdul	-12633
▁imports	-12634
▁photographer	-12635
uber	-12636
▁specim	-12637
▁Looking	-12638
▁deciding	-12639
hill	-12640
▁Cob	-12641
▁Fat	-12642
▁Maur	-12643
▁Kath	-12644
▁whis	-12645
▁lineback	-12646
uras	-12647
▁Ent	-12648
▁vari	-12649
▁notified	-12650
▁FOR	-12651
▁Carib	-12652
▁institutional	-12653
▁delighted	-12654
▁lin	-12655
amped	-12656
▁deserves	-12657
ghai	-12658
▁uncle	-12659
▁canceled	-12660
▁1942	-12661
aments	-12662
▁IGN	-12663
▁Maj	-12664
▁Regiment	-12665
aukee	-12666
▁coat	-12667
thes	-12668
ilder	-12669
▁Scientists	-12670
▁damaging	-12671
▁respected	-12672
95	-12673
▁CM	-12674
▁scam	-12675
hner	-12676
▁Raiders	-12677
▁Ze	-12678
anguage	-12679
▁oxygen	-12680
▁Background	-12681
▁Fast	-12682
▁Spir	-12683
bane	-12684
▁Kaz	-12685
▁unt	-12686
ptions	-12687
▁biological	-12688
▁trash	-12689
▁Connecticut	-12690
▁tobacco	-12691
▁reserves	-12692
▁safer	-12693
▁Bund	-12694
▁refusal	-12695
▁97	-12696
▁Nort	-12697
▁masc	-12698
▁sensor	-12699
▁contrad	-12700
▁cave	-12701
▁disg	-12702
rolling	-12703
▁Father	-12704
86	-12705
▁GPU	-12706
▁wars	-12707
▁enables	-12708
chers	-12709
▁documented	-12710
athon	-12711
▁iTunes	-12712
etheless	-12713
▁commentary	-12714
▁Cox	-12715
▁Nine	-12716
▁jailed	-12717
even	-12718
▁TODAY	-12719
▁tale	-12720
▁antib	-12721
▁Whats	-12722
▁acceptable	-12723
▁Cass	-12724
▁SR	-12725
▁lobb	-12726
▁plaint	-12727
▁LinkedIn	-12728
▁astronaut	-12729
▁Days	-12730
▁Studies	-12731
▁synd	-12732
▁abund	-12733
▁nowhere	-12734
fa	-12735
▁Kle	-12736
▁Throughout	-12737
▁dil	-12738
hl	-12739
uv	-12740
▁Wing	-12741
▁Herald	-12742
▁evolved	-12743
▁controller	-12744
▁feared	-12745
oret	-12746
▁orient	-12747
-12	-12748
▁Guide	-12749
▁immune	-12750
▁homosexual	-12751
▁Charg	-12752
▁6-	-12753
▁Gaming	-12754
▁sporting	-12755
▁82	-12756
▁Lanc	-12757
▁toug	-12758
assion	-12759
elaide	-12760
▁preseason	-12761
▁smiling	-12762
▁NO	-12763
▁mit	-12764
▁embed	-12765
parts	-12766
▁Robin	-12767
▁Verizon	-12768
▁invitation	-12769
ountered	-12770
▁Chad	-12771
▁ther	-12772
▁rapper	-12773
▁Kos	-12774
lett	-12775
▁Raw	-12776
▁superhero	-12777
▁1945	-12778
waukee	-12779
from	-12780
▁breed	-12781
▁Admiral	-12782
paid	-12783
▁Bear	-12784
▁humor	-12785
government	-12786
▁rit	-12787
▁Word	-12788
▁celeb	-12789
▁Wallace	-12790
▁feeding	-12791
▁wounds	-12792
▁wreck	-12793
▁debris	-12794
▁diamond	-12795
▁Daw	-12796
ollah	-12797
▁directions	-12798
▁rifle	-12799
▁flavor	-12800
writer	-12801
inces	-12802
▁Milan	-12803
▁whisp	-12804
▁examine	-12805
▁Select	-12806
▁lesson	-12807
▁Release	-12808
▁receives	-12809
▁Vi	-12810
▁Desc	-12811
▁Modern	-12812
▁disappearance	-12813
▁UAE	-12814
▁stepping	-12815
ching	-12816
▁Chronicle	-12817
▁underlying	-12818
TT	-12819
▁severely	-12820
▁Muhammad	-12821
▁capability	-12822
▁poorly	-12823
opard	-12824
▁worship	-12825
▁Fitz	-12826
▁postp	-12827
▁Medicine	-12828
▁encountered	-12829
▁tablet	-12830
▁Nin	-12831
▁Regard	-12832
▁strain	-12833
▁screening	-12834
▁centres	-12835
▁identical	-12836
Book	-12837
▁Xia	-12838
▁5-	-12839
▁Nevertheless	-12840
▁reader	-12841
rics	-12842
tees	-12843
▁Clear	-12844
▁Century	-12845
▁spectacular	-12846
▁environments	-12847
rite	-12848
▁Fried	-12849
▁irre	-12850
▁farms	-12851
▁Princess	-12852
they	-12853
▁errors	-12854
▁Broadway	-12855
mel	-12856
▁Germans	-12857
▁FRE	-12858
▁Hispan	-12859
▁Sale	-12860
opes	-12861
▁painful	-12862
▁backlash	-12863
▁Hi	-12864
▁Nielsen	-12865
sl	-12866
▁divisions	-12867
stitutional	-12868
uition	-12869
▁Brend	-12870
▁crops	-12871
▁provinces	-12872
girl	-12873
▁Total	-12874
▁Dennis	-12875
▁reminder	-12876
amation	-12877
▁Liberals	-12878
▁averaged	-12879
▁refund	-12880
▁jumping	-12881
▁Shanghai	-12882
aba	-12883
▁Ess	-12884
▁Phillips	-12885
▁symp	-12886
▁panic	-12887
▁breeding	-12888
▁Australians	-12889
▁Joint	-12890
amine	-12891
▁abol	-12892
▁trusted	-12893
comes	-12894
▁Telegraph	-12895
▁deliberately	-12896
▁spl	-12897
▁meth	-12898
▁cousin	-12899
▁LLC	-12900
▁Luck	-12901
▁bottles	-12902
▁recordings	-12903
TR	-12904
▁wished	-12905
sm	-12906
▁rebel	-12907
▁memo	-12908
stage	-12909
▁Rico	-12910
▁breathing	-12911
GM	-12912
▁Lion	-12913
▁Animal	-12914
eli	-12915
▁wrestling	-12916
▁Sure	-12917
▁bitter	-12918
▁BMW	-12919
▁Sym	-12920
▁Bryan	-12921
▁Daniels	-12922
▁touching	-12923
▁portrayed	-12924
dep	-12925
▁DA	-12926
▁booked	-12927
auc	-12928
▁fork	-12929
▁Rodgers	-12930
chair	-12931
abetes	-12932
▁authorized	-12933
anne	-12934
uins	-12935
▁Angela	-12936
▁photograp	-12937
▁treating	-12938
▁1985	-12939
▁Past	-12940
▁bite	-12941
▁hydrogen	-12942
ulent	-12943
▁powder	-12944
▁whales	-12945
rike	-12946
▁Meet	-12947
▁grants	-12948
▁Adelaide	-12949
ppy	-12950
▁occupation	-12951
Today	-12952
▁donate	-12953
▁floating	-12954
▁celebrity	-12955
▁disclosed	-12956
▁impose	-12957
▁appropri	-12958
▁colleague	-12959
▁Tropical	-12960
▁Johnny	-12961
▁Dawn	-12962
▁3,000	-12963
▁Butler	-12964
utterstock	-12965
▁travelled	-12966
sk	-12967
▁2010.	-12968
▁sexy	-12969
mare	-12970
ication	-12971
▁1944	-12972
▁compiled	-12973
▁instruct	-12974
▁Mattis	-12975
nesty	-12976
▁Besides	-12977
▁zones	-12978
▁Romney	-12979
anking	-12980
▁Ferguson	-12981
rior	-12982
▁Flight	-12983
▁avoided	-12984
arer	-12985
▁searches	-12986
▁victories	-12987
▁PHOTO	-12988
▁locals	-12989
▁infected	-12990
▁optimistic	-12991
▁Activ	-12992
▁laptop	-12993
▁Kon	-12994
▁Bald	-12995
▁shower	-12996
sing	-12997
▁Scar	-12998
▁Wells	-12999
▁figured	-13000
▁jacket	-13001
iege	-13002
▁Vers	-13003
▁math	-13004
▁waist	-13005
▁tragic	-13006
urring	-13007
usc	-13008
▁conflicts	-13009
vas	-13010
rose	-13011
sign	-13012
▁excessive	-13013
▁autonomous	-13014
▁bypass	-13015
▁offence	-13016
▁complain	-13017
▁financing	-13018
▁Pok	-13019
▁ware	-13020
▁swept	-13021
gt	-13022
▁unh	-13023
▁Track	-13024
▁gamers	-13025
▁mandate	-13026
▁Chancellor	-13027
▁bother	-13028
▁faculty	-13029
▁Telegram	-13030
▁deterior	-13031
▁founding	-13032
▁acknowledge	-13033
▁Billy	-13034
▁alike	-13035
aux	-13036
▁Esc	-13037
▁1000	-13038
▁Girls	-13039
▁pants	-13040
▁multiplayer	-13041
▁autumn	-13042
▁Horn	-13043
▁Impact	-13044
▁Milwaukee	-13045
▁Everything	-13046
▁firmly	-13047
▁eliminated	-13048
96	-13049
▁barrier	-13050
▁starter	-13051
link	-13052
▁Kur	-13053
uda	-13054
▁Jamie	-13055
▁Lynch	-13056
▁Homeland	-13057
▁Louisville	-13058
▁Parks	-13059
DR	-13060
▁modest	-13061
▁shorter	-13062
▁debates	-13063
▁Jessica	-13064
▁radiation	-13065
▁Allied	-13066
visor	-13067
▁prohibited	-13068
left	-13069
▁weekday	-13070
▁storyline	-13071
▁Fan	-13072
▁torture	-13073
▁Ave	-13074
▁encl	-13075
oshi	-13076
▁unders	-13077
▁passionate	-13078
irus	-13079
▁clash	-13080
▁Nearly	-13081
▁mechanical	-13082
▁Hus	-13083
▁Acosta	-13084
▁theories	-13085
▁particles	-13086
▁chemicals	-13087
▁Rice	-13088
▁RA	-13089
▁Bobby	-13090
▁printing	-13091
▁neighborhoods	-13092
▁compound	-13093
▁enhanced	-13094
iox	-13095
▁inappropriate	-13096
▁dispens	-13097
itr	-13098
▁distant	-13099
▁reviewing	-13100
▁Thous	-13101
▁shipped	-13102
▁affecting	-13103
▁vulnerability	-13104
▁Beh	-13105
ieval	-13106
DI	-13107
ervatory	-13108
▁Russians	-13109
▁barriers	-13110
zo	-13111
▁destroying	-13112
▁$1,	-13113
▁Yellow	-13114
▁teenage	-13115
bian	-13116
▁Pul	-13117
Cortez	-13118
▁topped	-13119
▁Christine	-13120
▁recruiting	-13121
▁NSA	-13122
▁sensors	-13123
▁Village	-13124
▁harmful	-13125
▁Ocasio	-13126
▁concentration	-13127
▁possibilities	-13128
▁Edwards	-13129
▁greenhouse	-13130
▁900	-13131
▁Caribbean	-13132
▁Commerce	-13133
▁advocacy	-13134
▁NC	-13135
▁gut	-13136
▁Summit	-13137
amps	-13138
▁rede	-13139
▁Psych	-13140
▁stealing	-13141
▁cartoon	-13142
▁landmark	-13143
▁tracked	-13144
▁expedition	-13145
▁pursuing	-13146
ocus	-13147
▁loop	-13148
31	-13149
▁youngest	-13150
▁transmission	-13151
▁SO	-13152
▁veto	-13153
▁grace	-13154
mented	-13155
▁eleph	-13156
iri	-13157
▁grip	-13158
▁Qatar	-13159
▁admission	-13160
▁whilst	-13161
▁Mitch	-13162
▁frozen	-13163
▁Sha	-13164
▁Tak	-13165
▁prayer	-13166
▁underneath	-13167
FS	-13168
▁matt	-13169
▁terminal	-13170
▁ward	-13171
▁robbery	-13172
▁pledge	-13173
▁acceptance	-13174
▁interactions	-13175
pin	-13176
▁Led	-13177
▁Laura	-13178
NG	-13179
▁attacker	-13180
▁surviving	-13181
avid	-13182
▁Nova	-13183
▁peer	-13184
Let	-13185
▁relating	-13186
otive	-13187
▁Pete	-13188
88	-13189
UC	-13190
▁Pi	-13191
▁Need	-13192
▁locally	-13193
▁cheek	-13194
▁incorrect	-13195
▁interchange	-13196
Pal	-13197
ottenham	-13198
▁ears	-13199
▁condemn	-13200
▁dirty	-13201
▁licence	-13202
▁achievement	-13203
▁emphasis	-13204
ogs	-13205
▁Beyond	-13206
urse	-13207
▁leaned	-13208
▁accounting	-13209
▁agreeing	-13210
Am	-13211
▁layers	-13212
rise	-13213
▁Constant	-13214
▁wip	-13215
▁Eight	-13216
▁dimin	-13217
▁1941	-13218
May	-13219
▁nonprofit	-13220
onge	-13221
▁Tol	-13222
▁traditionally	-13223
▁stared	-13224
▁indictment	-13225
▁uncomfortable	-13226
▁Born	-13227
riel	-13228
hedral	-13229
▁Broncos	-13230
▁newspapers	-13231
mus	-13232
cery	-13233
good	-13234
ecessor	-13235
▁ma	-13236
▁loving	-13237
sub	-13238
drop	-13239
▁Rhod	-13240
▁swall	-13241
NY	-13242
ALL	-13243
▁Pompeo	-13244
▁rankings	-13245
▁Living	-13246
▁ank	-13247
▁2009,	-13248
▁recognised	-13249
▁MMA	-13250
▁Sche	-13251
▁meals	-13252
arest	-13253
▁employer	-13254
▁elaborate	-13255
gow	-13256
rying	-13257
▁forb	-13258
▁alumin	-13259
ocate	-13260
▁Clay	-13261
▁Mind	-13262
▁erect	-13263
▁Simpson	-13264
▁Christie	-13265
▁overturn	-13266
▁folk	-13267
▁fined	-13268
▁slipped	-13269
▁True	-13270
▁mothers	-13271
▁Metropolitan	-13272
▁laser	-13273
think	-13274
grounds	-13275
▁Legend	-13276
▁negotiate	-13277
rov	-13278
▁FCC	-13279
hal	-13280
cell	-13281
▁freshman	-13282
▁Auto	-13283
▁GB	-13284
▁MA	-13285
▁cheer	-13286
▁intend	-13287
▁Weather	-13288
▁searched	-13289
jab	-13290
▁RS	-13291
▁Leaf	-13292
▁Shin	-13293
agogue	-13294
▁Additional	-13295
▁Hass	-13296
▁wheels	-13297
▁applying	-13298
▁headline	-13299
▁Sid	-13300
▁chains	-13301
▁derived	-13302
addy	-13303
▁Forum	-13304
▁establishing	-13305
▁psychological	-13306
▁heated	-13307
▁screaming	-13308
▁Histor	-13309
thon	-13310
words	-13311
ulator	-13312
▁UPDATE	-13313
▁extending	-13314
▁predecessor	-13315
▁Search	-13316
▁examination	-13317
▁patri	-13318
istance	-13319
▁Pinterest	-13320
las	-13321
▁offerings	-13322
neg	-13323
▁unnecessary	-13324
▁USS	-13325
▁Mour	-13326
▁gorge	-13327
▁unfortunate	-13328
▁trio	-13329
▁Freder	-13330
▁Julian	-13331
▁facial	-13332
▁goalkeeper	-13333
▁crying	-13334
▁Sem	-13335
▁define	-13336
▁shaking	-13337
▁endorsed	-13338
rix	-13339
▁Halo	-13340
▁pour	-13341
34	-13342
▁9.	-13343
▁identifying	-13344
▁vent	-13345
▁Norman	-13346
▁friendship	-13347
▁Copyright	-13348
kward	-13349
atorial	-13350
▁Originally	-13351
▁historically	-13352
ifier	-13353
▁pursuit	-13354
Don	-13355
▁Planet	-13356
▁Reports	-13357
▁storms	-13358
itted	-13359
hin	-13360
▁jul	-13361
▁diesel	-13362
▁Reporter	-13363
▁initiated	-13364
▁horrible	-13365
▁compatible	-13366
▁LG	-13367
date	-13368
▁oversight	-13369
▁1968	-13370
▁ambul	-13371
▁vaccine	-13372
▁facilitate	-13373
▁Armed	-13374
▁Palmer	-13375
▁Bradley	-13376
Up	-13377
doing	-13378
▁collision	-13379
inum	-13380
▁Inv	-13381
▁Level	-13382
▁shootings	-13383
▁Aer	-13384
65	-13385
▁rental	-13386
▁permits	-13387
▁jurisdiction	-13388
▁surprisingly	-13389
▁Nothing	-13390
▁EX	-13391
ipeg	-13392
▁Ern	-13393
▁Drake	-13394
▁novels	-13395
▁Hungarian	-13396
PL	-13397
▁1967	-13398
▁retrie	-13399
levard	-13400
▁ol	-13401
▁Glas	-13402
▁Agreement	-13403
▁GO	-13404
▁Marco	-13405
▁Pence	-13406
▁planets	-13407
▁jets	-13408
▁editing	-13409
▁disturbing	-13410
reated	-13411
▁builds	-13412
opez	-13413
▁dispos	-13414
▁Lebanon	-13415
▁Critics	-13416
▁quarters	-13417
▁cogn	-13418
▁Houth	-13419
▁Baseball	-13420
▁Tottenham	-13421
▁experimental	-13422
cot	-13423
▁Switch	-13424
▁interactive	-13425
▁liv	-13426
▁Carey	-13427
▁Samuel	-13428
▁Coinbase	-13429
▁contrary	-13430
▁Fans	-13431
▁whale	-13432
▁accountable	-13433
ayed	-13434
▁$30	-13435
▁plates	-13436
▁VII	-13437
pen	-13438
ple	-13439
▁bonds	-13440
▁imper	-13441
▁criteria	-13442
pot	-13443
atican	-13444
▁Tehran	-13445
▁sentences	-13446
white	-13447
▁dining	-13448
erk	-13449
▁launches	-13450
▁identification	-13451
▁breakdown	-13452
▁Mason	-13453
▁McCain	-13454
▁valued	-13455
▁magnetic	-13456
▁admits	-13457
▁ACL	-13458
▁asc	-13459
▁Starting	-13460
▁offences	-13461
▁Salv	-13462
kind	-13463
▁utter	-13464
▁skull	-13465
▁prest	-13466
▁Posted	-13467
tail	-13468
▁Din	-13469
uates	-13470
▁Almost	-13471
▁abused	-13472
▁satellites	-13473
inging	-13474
▁Belgian	-13475
IVE	-13476
sky	-13477
▁seekers	-13478
▁Sullivan	-13479
▁Heat	-13480
▁Toyota	-13481
▁intends	-13482
▁surveyed	-13483
▁Kap	-13484
▁Rou	-13485
▁determination	-13486
▁immun	-13487
▁Montana	-13488
▁Leices	-13489
▁physics	-13490
▁Enterprise	-13491
▁bout	-13492
▁Workers	-13493
▁Commonwealth	-13494
tech	-13495
▁conj	-13496
▁quad	-13497
▁viable	-13498
▁agg	-13499
▁Survey	-13500
▁marking	-13501
▁supplement	-13502
Yes	-13503
▁Tree	-13504
▁hike	-13505
▁stabil	-13506
▁renamed	-13507
▁CPU	-13508
▁sooner	-13509
▁tender	-13510
▁grandfather	-13511
ambers	-13512
▁Happy	-13513
oust	-13514
▁Barbara	-13515
▁mixture	-13516
▁impacted	-13517
▁appealing	-13518
▁Edin	-13519
▁Kan	-13520
▁Breaking	-13521
▁economies	-13522
▁buzz	-13523
▁aiming	-13524
▁workforce	-13525
▁confronted	-13526
▁Clarke	-13527
▁hostile	-13528
▁flexible	-13529
▁Emergency	-13530
▁Barr	-13531
chestr	-13532
▁Index	-13533
▁sizes	-13534
▁alternate	-13535
tha	-13536
aters	-13537
ussion	-13538
▁audit	-13539
dated	-13540
▁FILE	-13541
▁enters	-13542
▁Vatican	-13543
▁issuing	-13544
▁opted	-13545
▁matching	-13546
▁theatre	-13547
izard	-13548
▁Urban	-13549
what	-13550
▁unnamed	-13551
bled	-13552
▁brick	-13553
▁Episode	-13554
▁treatments	-13555
▁Mend	-13556
▁Pred	-13557
income	-13558
▁jokes	-13559
▁Hughes	-13560
▁heels	-13561
▁mutual	-13562
▁Training	-13563
▁1979	-13564
▁Sask	-13565
▁evacuated	-13566
inter	-13567
▁correctly	-13568
▁1943	-13569
▁anth	-13570
▁Close	-13571
▁penet	-13572
▁undergo	-13573
▁timeline	-13574
▁Lieutenant	-13575
identified	-13576
▁25-	-13577
vious	-13578
Any	-13579
lav	-13580
mat	-13581
▁Movie	-13582
▁raped	-13583
▁Harvey	-13584
MI	-13585
acer	-13586
itis	-13587
iasm	-13588
aired	-13589
▁Foster	-13590
▁hotels	-13591
▁suprem	-13592
▁enforce	-13593
▁Woman	-13594
▁fitted	-13595
▁millenn	-13596
▁quantum	-13597
ulk	-13598
some	-13599
▁Stra	-13600
▁reconstr	-13601
official	-13602
▁belonging	-13603
▁fictional	-13604
▁None	-13605
▁consultation	-13606
▁poem	-13607
▁vel	-13608
▁Drug	-13609
▁folder	-13610
▁Explore	-13611
lr	-13612
▁sib	-13613
▁flower	-13614
▁turnout	-13615
HI	-13616
▁BL	-13617
▁BR	-13618
▁businessman	-13619
ref	-13620
▁ghost	-13621
▁jihad	-13622
▁immigrant	-13623
▁Ing	-13624
▁Reed	-13625
ambling	-13626
occ	-13627
▁tackles	-13628
▁adjacent	-13629
▁exercises	-13630
around	-13631
▁Comics	-13632
▁exempt	-13633
▁gently	-13634
cience	-13635
▁Engineering	-13636
▁permanently	-13637
istical	-13638
▁attraction	-13639
▁Winnipeg	-13640
▁1982	-13641
▁Baby	-13642
gments	-13643
▁entert	-13644
▁enabling	-13645
▁Fish	-13646
▁compelling	-13647
▁Got	-13648
▁fixt	-13649
terror	-13650
minster	-13651
▁Nashville	-13652
▁believing	-13653
fits	-13654
▁vit	-13655
▁Kerry	-13656
▁sew	-13657
oj	-13658
▁exploit	-13659
ulum	-13660
▁Belf	-13661
▁MC	-13662
▁subsidi	-13663
▁Croatia	-13664
▁branches	-13665
▁shortage	-13666
▁honestly	-13667
▁contents	-13668
comm	-13669
▁lion	-13670
▁tonnes	-13671
▁lasting	-13672
▁perception	-13673
Brien	-13674
▁ultra	-13675
▁infantry	-13676
/11	-13677
▁tatto	-13678
▁HERE	-13679
erving	-13680
▁Would	-13681
▁Bright	-13682
▁Rolling	-13683
▁Together	-13684
▁84	-13685
▁Colin	-13686
▁Month	-13687
▁Nigeria	-13688
olan	-13689
quis	-13690
agonist	-13691
▁Resources	-13692
bin	-13693
▁MTV	-13694
▁Comey	-13695
▁Hudson	-13696
▁Relations	-13697
tics	-13698
▁plun	-13699
▁Yam	-13700
▁privilege	-13701
▁trademark	-13702
▁malicious	-13703
▁intelligent	-13704
books	-13705
oline	-13706
sized	-13707
▁scratch	-13708
▁dash	-13709
▁handgun	-13710
▁surrender	-13711
izable	-13712
▁edited	-13713
gregation	-13714
▁accomplished	-13715
▁concepts	-13716
▁89	-13717
▁Ja	-13718
▁teammate	-13719
▁defendant	-13720
▁gri	-13721
▁Cond	-13722
▁Curt	-13723
▁secrets	-13724
iatric	-13725
▁worlds	-13726
▁Browns	-13727
▁desired	-13728
▁Brisbane	-13729
▁password	-13730
▁technological	-13731
▁sends	-13732
▁BB	-13733
▁incoming	-13734
▁16-	-13735
▁yours	-13736
▁significance	-13737
▁2008,	-13738
▁computing	-13739
▁insist	-13740
▁Championships	-13741
▁maneu	-13742
bage	-13743
loading	-13744
▁awkward	-13745
MB	-13746
gence	-13747
▁dear	-13748
▁seam	-13749
▁combine	-13750
▁boundaries	-13751
▁Clean	-13752
▁batting	-13753
▁defendants	-13754
▁Name	-13755
▁mice	-13756
▁Heavy	-13757
▁organizers	-13758
.25	-13759
▁fo	-13760
▁Employ	-13761
▁Tell	-13762
▁disappointment	-13763
them	-13764
▁Save	-13765
▁Libya	-13766
▁kissed	-13767
▁unlock	-13768
▁observations	-13769
76	-13770
store	-13771
ete	-13772
▁fright	-13773
▁sophisticated	-13774
fi	-13775
▁Gram	-13776
Script	-13777
azi	-13778
▁Nex	-13779
▁Wildlife	-13780
olo	-13781
▁Recently	-13782
warf	-13783
▁1972	-13784
▁awful	-13785
▁Neither	-13786
▁formula	-13787
▁Huff	-13788
▁hood	-13789
▁Youth	-13790
▁Zero	-13791
▁pronounced	-13792
▁screw	-13793
▁colleges	-13794
rine	-13795
▁Hem	-13796
▁Lopez	-13797
▁economics	-13798
conf	-13799
▁workplace	-13800
rament	-13801
starter	-13802
▁Lot	-13803
▁fame	-13804
▁Kane	-13805
▁Cardinals	-13806
mn	-13807
achi	-13808
▁suite	-13809
▁prosper	-13810
▁rides	-13811
▁cocaine	-13812
▁Commander	-13813
▁genes	-13814
▁priest	-13815
▁devoted	-13816
▁Danish	-13817
▁repairs	-13818
▁delegation	-13819
▁aerial	-13820
▁rebounds	-13821
▁1983	-13822
▁slip	-13823
▁starred	-13824
▁entities	-13825
▁Immigration	-13826
▁regards	-13827
▁Gang	-13828
quality	-13829
▁malware	-13830
▁RBI	-13831
▁declining	-13832
▁inequality	-13833
▁unde	-13834
▁median	-13835
▁appealed	-13836
▁snapped	-13837
▁honored	-13838
Net	-13839
▁10%	-13840
▁lease	-13841
▁submarine	-13842
▁fer	-13843
▁Earl	-13844
imeter	-13845
▁extrad	-13846
▁Register	-13847
▁na	-13848
▁congr	-13849
▁frank	-13850
▁scary	-13851
alg	-13852
▁Nico	-13853
▁straw	-13854
▁squadron	-13855
▁privately	-13856
atem	-13857
▁OP	-13858
▁impe	-13859
▁bridges	-13860
▁commod	-13861
ormal	-13862
walk	-13863
▁Room	-13864
asting	-13865
▁Limited	-13866
▁consolid	-13867
▁mush	-13868
▁manual	-13869
▁overha	-13870
▁councill	-13871
▁aqu	-13872
▁prol	-13873
▁contacts	-13874
prising	-13875
▁fucking	-13876
▁Communist	-13877
issan	-13878
riages	-13879
▁assisted	-13880
keley	-13881
▁Political	-13882
▁pairs	-13883
▁Trav	-13884
rities	-13885
▁stole	-13886
▁ug	-13887
▁caut	-13888
▁Legal	-13889
▁negotiating	-13890
▁Tamil	-13891
▁entity	-13892
▁pale	-13893
▁Assad	-13894
▁container	-13895
▁Lok	-13896
▁Soul	-13897
▁Mirror	-13898
▁festiv	-13899
ogg	-13900
iler	-13901
▁Isa	-13902
▁declaration	-13903
▁PAC	-13904
▁Half	-13905
▁spotlight	-13906
EST	-13907
iking	-13908
▁vertical	-13909
▁Saud	-13910
gom	-13911
▁abd	-13912
▁Audi	-13913
▁whispered	-13914
▁Could	-13915
▁Challenge	-13916
itime	-13917
▁Delaware	-13918
▁monetary	-13919
ockets	-13920
▁Pick	-13921
▁hatred	-13922
▁Systems	-13923
▁brave	-13924
Bec	-13925
▁Gas	-13926
▁showc	-13927
▁altogether	-13928
▁priorities	-13929
terms	-13930
▁Beyon	-13931
▁legalization	-13932
DB	-13933
▁generous	-13934
▁weakened	-13935
card	-13936
▁hacking	-13937
▁depict	-13938
▁kicking	-13939
▁signatures	-13940
▁LED	-13941
terior	-13942
▁bearing	-13943
▁volcan	-13944
▁favorable	-13945
▁confidential	-13946
hum	-13947
▁Mik	-13948
▁Stu	-13949
▁spare	-13950
▁infring	-13951
▁consisting	-13952
▁Arc	-13953
undreds	-13954
▁Thrones	-13955
▁50%	-13956
,000,	-13957
▁attackers	-13958
▁Et	-13959
Car	-13960
▁mouse	-13961
▁implementing	-13962
▁Wa	-13963
▁grows	-13964
▁Member	-13965
▁separation	-13966
irmed	-13967
▁Stef	-13968
▁pitched	-13969
▁raids	-13970
▁Greens	-13971
▁92	-13972
▁ram	-13973
▁lied	-13974
artisan	-13975
▁Potter	-13976
▁happiness	-13977
▁Virt	-13978
afe	-13979
gov	-13980
gans	-13981
prin	-13982
▁buttons	-13983
▁Poly	-13984
▁Haz	-13985
▁nan	-13986
▁Reid	-13987
▁lens	-13988
▁Brent	-13989
▁disagree	-13990
aned	-13991
▁Hack	-13992
▁fails	-13993
Ass	-13994
pol	-13995
▁Sales	-13996
▁withdrew	-13997
bet	-13998
▁Ghost	-13999
email	-14000
▁Jared	-14001
▁Perth	-14002
▁sharply	-14003
othy	-14004
▁customs	-14005
▁continent	-14006
▁350	-14007
▁module	-14008
▁parked	-14009
raph	-14010
▁denies	-14011
▁Avengers	-14012
▁switched	-14013
▁uncovered	-14014
▁outcomes	-14015
▁81	-14016
▁bully	-14017
ometown	-14018
▁climbed	-14019
▁outlook	-14020
▁Heritage	-14021
▁teenagers	-14022
▁Ye	-14023
▁anchor	-14024
▁lifting	-14025
▁countless	-14026
▁intentions	-14027
oom	-14028
uper	-14029
▁Erd	-14030
remlin	-14031
utical	-14032
▁staring	-14033
press	-14034
▁Give	-14035
▁navy	-14036
ulsion	-14037
▁Edinburgh	-14038
▁laying	-14039
▁incorporated	-14040
▁Blake	-14041
ugging	-14042
▁opener	-14043
▁unsuccessful	-14044
▁Brooks	-14045
▁Manafort	-14046
▁supposedly	-14047
▁firefighters	-14048
iaz	-14049
▁1969	-14050
▁Emperor	-14051
▁feather	-14052
▁catching	-14053
HT	-14054
▁shy	-14055
,''	-14056
lude	-14057
▁tempt	-14058
▁Altern	-14059
▁Bernard	-14060
▁3.5	-14061
▁pub	-14062
▁Bulls	-14063
▁controlling	-14064
▁Ru	-14065
▁Globe	-14066
▁stones	-14067
▁thresh	-14068
oba	-14069
▁excav	-14070
▁sanct	-14071
▁visibility	-14072
▁Gates	-14073
▁ceiling	-14074
▁counting	-14075
▁advisory	-14076
▁magnitude	-14077
▁orientation	-14078
lat	-14079
anium	-14080
▁pepper	-14081
▁urgent	-14082
▁meg	-14083
usters	-14084
▁counterparts	-14085
conn	-14086
▁Lex	-14087
▁addiction	-14088
rawl	-14089
itate	-14090
escope	-14091
rowned	-14092
▁logic	-14093
▁Diamond	-14094
▁Criminal	-14095
▁photography	-14096
▁lb	-14097
▁circulation	-14098
IE	-14099
▁Dw	-14100
▁170	-14101
▁Cut	-14102
▁Jeb	-14103
fires	-14104
▁designers	-14105
▁culmin	-14106
▁applies	-14107
▁Glasgow	-14108
intendent	-14109
66	-14110
▁SW	-14111
Russ	-14112
ahan	-14113
▁Goldman	-14114
▁Rud	-14115
agine	-14116
▁fits	-14117
▁technically	-14118
▁Oculus	-14119
▁3:	-14120
▁twist	-14121
▁rational	-14122
▁toilet	-14123
▁banning	-14124
▁neglect	-14125
▁productive	-14126
▁internationally	-14127
amy	-14128
▁Bent	-14129
▁Punjab	-14130
▁altered	-14131
▁reinforce	-14132
▁immense	-14133
▁offshore	-14134
▁MI	-14135
ernandez	-14136
arios	-14137
▁Dian	-14138
▁Stein	-14139
▁broadcaster	-14140
dles	-14141
However	-14142
▁gunman	-14143
▁hearings	-14144
▁mature	-14145
▁limitations	-14146
▁interfe	-14147
▁sanction	-14148
▁Greater	-14149
▁orchestr	-14150
▁17-	-14151
▁Beaut	-14152
aceutical	-14153
Os	-14154
▁securing	-14155
▁Fem	-14156
▁recession	-14157
▁retailer	-14158
▁1/	-14159
▁Cab	-14160
▁bikes	-14161
▁Target	-14162
▁lawsuits	-14163
▁(4	-14164
▁mock	-14165
▁risen	-14166
regular	-14167
▁embark	-14168
check	-14169
▁Fury	-14170
▁peers	-14171
inez	-14172
▁mum	-14173
outing	-14174
▁Seoul	-14175
▁rotation	-14176
ayan	-14177
▁GPS	-14178
aying	-14179
▁LGBTQ	-14180
▁Users	-14181
izations	-14182
▁restoration	-14183
▁displaced	-14184
blem	-14185
▁pictured	-14186
▁watchdog	-14187
▁enthusiasm	-14188
▁Spencer	-14189
▁XRP	-14190
chest	-14191
▁exhibit	-14192
fly	-14193
affe	-14194
▁cruise	-14195
▁unrest	-14196
▁campaigning	-14197
▁Riy	-14198
initely	-14199
▁supplied	-14200
▁FR	-14201
inery	-14202
▁Pixel	-14203
▁freely	-14204
▁93	-14205
anton	-14206
▁bankruptcy	-14207
▁hungry	-14208
▁Ultimate	-14209
▁SUV	-14210
▁bron	-14211
▁furniture	-14212
Even	-14213
▁Kil	-14214
▁desperately	-14215
▁manifest	-14216
▁Homer	-14217
▁rings	-14218
itional	-14219
▁Mes	-14220
▁consumed	-14221
▁merchand	-14222
▁dependent	-14223
▁Prix	-14224
▁File	-14225
SD	-14226
two	-14227
▁Moto	-14228
▁Bryant	-14229
▁recovering	-14230
▁farming	-14231
▁stabbed	-14232
▁UTC	-14233
▁bless	-14234
▁Boulevard	-14235
UD	-14236
▁Kin	-14237
▁clashes	-14238
▁Rodriguez	-14239
▁VP	-14240
▁linebacker	-14241
▁Investigators	-14242
chen	-14243
ships	-14244
▁1964	-14245
▁Packers	-14246
▁dealers	-14247
Fr	-14248
▁Malt	-14249
▁Junior	-14250
riptions	-14251
▁unaware	-14252
▁Conservation	-14253
▁Bash	-14254
▁grie	-14255
▁insane	-14256
anye	-14257
▁1973	-14258
▁pipe	-14259
▁Wang	-14260
▁texts	-14261
▁surfaced	-14262
▁fascinating	-14263
rah	-14264
▁Rubio	-14265
▁prayers	-14266
▁Lightning	-14267
sun	-14268
▁seal	-14269
▁securities	-14270
▁Pink	-14271
▁Eddie	-14272
▁muscles	-14273
▁paintings	-14274
▁expressing	-14275
ND	-14276
▁Meth	-14277
▁commands	-14278
▁predomin	-14279
▁Jefferson	-14280
▁Rhodes	-14281
▁Kashmir	-14282
▁diabetes	-14283
▁testified	-14284
▁91	-14285
▁slid	-14286
▁Years	-14287
▁interpretation	-14288
▁u	-14289
▁dive	-14290
▁Kend	-14291
▁lined	-14292
▁Colonel	-14293
dec	-14294
▁sake	-14295
Plus	-14296
heimer	-14297
▁Serbia	-14298
▁Eventually	-14299
human	-14300
▁cute	-14301
▁colony	-14302
▁climbing	-14303
▁accidents	-14304
story	-14305
lusive	-14306
▁deport	-14307
psons	-14308
anchez	-14309
▁circles	-14310
▁inhabit	-14311
▁pad	-14312
▁wise	-14313
▁vic	-14314
▁tooth	-14315
▁declaring	-14316
idia	-14317
▁sink	-14318
▁indigenous	-14319
▁translation	-14320
▁Aub	-14321
▁documentation	-14322
ahl	-14323
▁Own	-14324
▁ALSO	-14325
▁Tommy	-14326
▁treasure	-14327
cap	-14328
▁productivity	-14329
▁subt	-14330
▁Costa	-14331
uka	-14332
▁clouds	-14333
▁breakthrough	-14334
▁94	-14335
▁Dylan	-14336
whe	-14337
▁apologized	-14338
▁confrontation	-14339
▁Bomb	-14340
▁Chan	-14341
▁Marie	-14342
▁Guatem	-14343
▁1965	-14344
▁mild	-14345
▁continuous	-14346
flow	-14347
▁Surv	-14348
▁foul	-14349
onymous	-14350
▁matched	-14351
▁supportive	-14352
oko	-14353
▁diam	-14354
▁vigil	-14355
▁avoiding	-14356
▁upgrades	-14357
cient	-14358
▁jersey	-14359
▁Industrial	-14360
-18	-14361
loying	-14362
▁Lloyd	-14363
▁showcase	-14364
▁achievements	-14365
▁kidn	-14366
▁curve	-14367
▁Stephan	-14368
colm	-14369
▁FREE	-14370
mediate	-14371
▁Silicon	-14372
▁justify	-14373
leased	-14374
▁cabin	-14375
▁sponsor	-14376
▁stranger	-14377
▁minorities	-14378
umblr	-14379
▁warn	-14380
celand	-14381
▁preserved	-14382
▁endangered	-14383
urop	-14384
erala	-14385
mans	-14386
▁Wag	-14387
▁Gillum	-14388
▁inevitable	-14389
oples	-14390
▁proc	-14391
iw	-14392
▁Blair	-14393
forward	-14394
▁catast	-14395
▁barrels	-14396
▁Iv	-14397
▁disclose	-14398
▁precious	-14399
▁2-	-14400
inema	-14401
▁Lakers	-14402
▁Ker	-14403
▁declare	-14404
▁insists	-14405
▁shifting	-14406
▁21-	-14407
▁Performance	-14408
loe	-14409
▁Break	-14410
▁Karen	-14411
bling	-14412
▁Leicester	-14413
▁flexibility	-14414
iop	-14415
▁Bib	-14416
▁competitions	-14417
▁inaugural	-14418
▁nationally	-14419
may	-14420
best	-14421
▁CP	-14422
▁Fallout	-14423
▁Fig	-14424
▁Welcome	-14425
▁structural	-14426
qual	-14427
▁Delta	-14428
▁schemes	-14429
▁marketplace	-14430
▁Official	-14431
▁militant	-14432
holder	-14433
▁queen	-14434
▁critically	-14435
isle	-14436
▁SM	-14437
▁Suz	-14438
names	-14439
▁substitute	-14440
▁Chiefs	-14441
----	-14442
ivia	-14443
▁Very	-14444
▁Software	-14445
▁Utt	-14446
oding	-14447
▁Saskat	-14448
▁dragged	-14449
team	-14450
▁1971	-14451
▁Karl	-14452
▁flames	-14453
asket	-14454
▁clay	-14455
▁Barn	-14456
▁chef	-14457
▁von	-14458
▁ethics	-14459
▁Superman	-14460
etta	-14461
▁milestone	-14462
▁compliment	-14463
NE	-14464
▁Learn	-14465
mund	-14466
▁Sudan	-14467
▁density	-14468
▁Berkeley	-14469
▁McN	-14470
▁Carr	-14471
▁Nord	-14472
▁subtle	-14473
▁messaging	-14474
▁SpaceX	-14475
▁presumably	-14476
▁proceeds	-14477
▁Crew	-14478
▁Bolton	-14479
▁Omar	-14480
▁outlined	-14481
▁aide	-14482
▁slower	-14483
▁villain	-14484
iph	-14485
▁env	-14486
▁conve	-14487
▁killings	-14488
▁protective	-14489
▁eleven	-14490
▁Description	-14491
▁inspection	-14492
▁Rivers	-14493
▁Ring	-14494
▁Assange	-14495
▁UP	-14496
▁1974	-14497
▁denying	-14498
gomery	-14499
▁referen	-14500
generation	-14501
ICK	-14502
▁Iceland	-14503
▁uploaded	-14504
iko	-14505
▁Glass	-14506
▁torpedo	-14507
▁whistle	-14508
▁crackdown	-14509
orig	-14510
▁pole	-14511
bastian	-14512
▁Spotify	-14513
Ob	-14514
anic	-14515
▁grat	-14516
▁murders	-14517
▁Margaret	-14518
▁musician	-14519
▁contributor	-14520
▁recommendation	-14521
▁Marcus	-14522
▁Shield	-14523
▁directing	-14524
▁Garcia	-14525
▁Nicholas	-14526
▁rallies	-14527
irate	-14528
▁unre	-14529
umbling	-14530
▁undermine	-14531
irk	-14532
heric	-14533
▁draws	-14534
▁summary	-14535
untu	-14536
▁NHS	-14537
▁corporation	-14538
▁Peterson	-14539
▁companion	-14540
▁navigation	-14541
▁1939	-14542
▁Manning	-14543
.10	-14544
▁GP	-14545
aniel	-14546
▁Grace	-14547
▁Machine	-14548
▁reinfor	-14549
▁defenders	-14550
▁Fisher	-14551
▁Nissan	-14552
▁laboratory	-14553
▁chuck	-14554
▁overtime	-14555
▁precisely	-14556
rint	-14557
proof	-14558
▁Kurt	-14559
him	-14560
aeda	-14561
▁sealed	-14562
▁Details	-14563
▁Mourinho	-14564
▁counterpart	-14565
▁correspondent	-14566
▁Categ	-14567
▁Indianapolis	-14568
uy	-14569
asi	-14570
▁1975	-14571
▁4-	-14572
▁electronics	-14573
arently	-14574
mile	-14575
▁Gins	-14576
▁Minne	-14577
▁Astr	-14578
otypes	-14579
▁Travel	-14580
▁miners	-14581
▁ordering	-14582
▁assembled	-14583
▁CBD	-14584
▁Cla	-14585
▁bay	-14586
▁2020,	-14587
▁trace	-14588
▁contam	-14589
▁processed	-14590
▁Shutterstock	-14591
▁Dodgers	-14592
nex	-14593
▁ERA	-14594
▁comeback	-14595
▁alternatives	-14596
ongh	-14597
xton	-14598
▁aest	-14599
▁Ruth	-14600
▁Operations	-14601
agged	-14602
▁dense	-14603
▁Writing	-14604
▁sla	-14605
antle	-14606
phoon	-14607
▁1976	-14608
98	-14609
▁IBM	-14610
▁gorgeous	-14611
▁Thai	-14612
▁libr	-14613
▁Falls	-14614
▁redes	-14615
▁maintains	-14616
▁Deal	-14617
▁landl	-14618
▁depicted	-14619
hya	-14620
▁Reform	-14621
▁Lower	-14622
▁genus	-14623
▁betray	-14624
▁composer	-14625
▁committing	-14626
▁Metal	-14627
▁priced	-14628
▁lighter	-14629
▁algorithm	-14630
▁exceptional	-14631
▁Mahar	-14632
▁Listen	-14633
▁rivers	-14634
▁pap	-14635
▁aggrav	-14636
▁galaxy	-14637
▁deposit	-14638
▁leaf	-14639
▁Vikings	-14640
▁83	-14641
▁fluid	-14642
▁Simpsons	-14643
▁certificate	-14644
▁Return	-14645
▁neighboring	-14646
ii	-14647
▁decreased	-14648
Mus	-14649
▁epid	-14650
▁Crystal	-14651
iked	-14652
▁Jama	-14653
▁Wire	-14654
▁Kerala	-14655
▁aliens	-14656
▁loyalty	-14657
▁Ral	-14658
▁Wii	-14659
▁congrat	-14660
▁Brothers	-14661
master	-14662
▁unlaw	-14663
▁threaten	-14664
▁Victorian	-14665
▁comparing	-14666
▁flip	-14667
▁convey	-14668
fil	-14669
ippers	-14670
▁Fly	-14671
uling	-14672
▁Peninsula	-14673
▁Vincent	-14674
▁venues	-14675
VR	-14676
aku	-14677
▁bust	-14678
charged	-14679
▁chemistry	-14680
▁Pic	-14681
▁Enjoy	-14682
▁travels	-14683
▁Prosecutors	-14684
▁celebrities	-14685
▁Representative	-14686
AK	-14687
▁recipes	-14688
▁battalion	-14689
55	-14690
olphins	-14691
▁anytime	-14692
▁Nam	-14693
▁Viol	-14694
▁Jeffrey	-14695
▁Kremlin	-14696
▁triumph	-14697
isha	-14698
▁Rab	-14699
▁calculated	-14700
▁discipline	-14701
▁Quinn	-14702
▁dread	-14703
clusive	-14704
▁filter	-14705
▁allegation	-14706
▁hometown	-14707
▁Liz	-14708
Cal	-14709
▁Feb	-14710
▁stiff	-14711
▁graduated	-14712
▁sacrifice	-14713
▁Agriculture	-14714
▁Enforcement	-14715
▁Iss	-14716
▁colonial	-14717
▁freeway	-14718
▁Charleston	-14719
▁Compan	-14720
brew	-14721
▁hed	-14722
▁curb	-14723
owners	-14724
source	-14725
nia	-14726
ifax	-14727
istically	-14728
▁tang	-14729
▁Housing	-14730
▁balanced	-14731
▁leverage	-14732
▁automated	-14733
▁suits	-14734
▁pays	-14735
enson	-14736
uming	-14737
▁1981	-14738
▁Julie	-14739
▁Thor	-14740
▁emerge	-14741
▁trauma	-14742
▁grocery	-14743
abee	-14744
liers	-14745
▁Shop	-14746
▁divid	-14747
ryption	-14748
▁streams	-14749
.),	-14750
ecoin	-14751
ulates	-14752
essa	-14753
▁pistol	-14754
▁stroke	-14755
▁tube	-14756
▁2009.	-14757
▁silly	-14758
▁Moz	-14759
plant	-14760
▁Moroc	-14761
▁banner	-14762
▁trophy	-14763
▁artistic	-14764
▁Heroes	-14765
▁satisfaction	-14766
IO	-14767
▁Jur	-14768
▁Sgt	-14769
▁sword	-14770
▁UE	-14771
▁holy	-14772
▁corners	-14773
▁HMS	-14774
▁divide	-14775
▁habits	-14776
▁independently	-14777
Or	-14778
▁14-	-14779
pound	-14780
▁appl	-14781
▁makeup	-14782
▁disgr	-14783
▁battling	-14784
▁Sanchez	-14785
▁glanced	-14786
▁Palm	-14787
azines	-14788
▁irrit	-14789
▁magical	-14790
▁Panthers	-14791
▁infamous	-14792
▁expend	-14793
▁commitments	-14794
▁(8	-14795
▁convoy	-14796
dd	-14797
▁Sach	-14798
▁sheep	-14799
▁bipartisan	-14800
▁Working	-14801
▁retro	-14802
▁weighed	-14803
▁influences	-14804
▁submission	-14805
pect	-14806
uffy	-14807
▁Joel	-14808
▁Glenn	-14809
▁Jesse	-14810
▁Pluto	-14811
▁dar	-14812
▁Reagan	-14813
▁Malcolm	-14814
▁bubble	-14815
▁literary	-14816
▁manufactured	-14817
threat	-14818
nut	-14819
▁mol	-14820
ideshow	-14821
▁insurg	-14822
▁forthcoming	-14823
▁bure	-14824
▁economist	-14825
▁Westminster	-14826
▁mentally	-14827
▁lacking	-14828
raham	-14829
▁(7	-14830
▁Craw	-14831
▁codes	-14832
▁entries	-14833
▁Christianity	-14834
aults	-14835
utton	-14836
arette	-14837
ods	-14838
▁Belfast	-14839
▁Comments	-14840
▁Wiki	-14841
▁packs	-14842
bye	-14843
ido	-14844
▁Ana	-14845
▁Sak	-14846
▁bans	-14847
▁dirt	-14848
▁imagery	-14849
▁Martinez	-14850
▁flee	-14851
▁drain	-14852
▁nurse	-14853
▁Wonder	-14854
▁analys	-14855
▁profound	-14856
▁Chem	-14857
itches	-14858
▁drift	-14859
▁Barnes	-14860
▁lowered	-14861
▁anonymity	-14862
▁Gw	-14863
▁$200	-14864
▁Build	-14865
▁adequate	-14866
▁palace	-14867
▁mornings	-14868
▁UI	-14869
▁Fac	-14870
▁slavery	-14871
HC	-14872
ilia	-14873
▁darkness	-14874
▁scenarios	-14875
VA	-14876
nels	-14877
▁MVP	-14878
▁beneficial	-14879
▁1.2	-14880
ierra	-14881
▁Rush	-14882
▁Emily	-14883
▁columnist	-14884
▁grandmother	-14885
▁transformation	-14886
▁fuels	-14887
▁cooling	-14888
▁Walt	-14889
▁Circle	-14890
▁conclude	-14891
ocaust	-14892
▁glasses	-14893
▁1978	-14894
Because	-14895
fold	-14896
▁Huck	-14897
▁Magn	-14898
▁Phone	-14899
▁naming	-14900
▁credential	-14901
disc	-14902
rafts	-14903
▁advances	-14904
▁worthy	-14905
▁wash	-14906
▁Similarly	-14907
Qu	-14908
▁transfers	-14909
ju	-14910
▁Triple	-14911
driving	-14912
▁Hod	-14913
▁diox	-14914
▁midfield	-14915
▁TM	-14916
▁flown	-14917
▁flows	-14918
▁sweat	-14919
/0	-14920
Hub	-14921
▁telev	-14922
pop	-14923
▁Quick	-14924
▁IST	-14925
▁Portugal	-14926
isdom	-14927
▁Petro	-14928
▁digit	-14929
▁dispar	-14930
▁DM	-14931
▁mate	-14932
▁Cardiff	-14933
Mobile	-14934
De	-14935
alan	-14936
▁empire	-14937
▁Beyonc	-14938
▁gesture	-14939
▁partisan	-14940
inea	-14941
▁crowded	-14942
▁opio	-14943
▁modes	-14944
▁dignity	-14945
▁Aj	-14946
Conn	-14947
▁Continue	-14948
▁Pand	-14949
▁Apart	-14950
▁Joshua	-14951
▁Medicare	-14952
▁Luis	-14953
▁collections	-14954
▁observation	-14955
actor	-14956
▁consultant	-14957
▁packaging	-14958
gro	-14959
▁seiz	-14960
osit	-14961
uably	-14962
▁Hyde	-14963
station	-14964
aho	-14965
wart	-14966
▁airst	-14967
▁variant	-14968
▁deposits	-14969
bey	-14970
▁Waters	-14971
▁ICE	-14972
▁ber	-14973
▁1977	-14974
▁manages	-14975
acies	-14976
▁Riyadh	-14977
▁taxpayer	-14978
▁labels	-14979
▁regulated	-14980
ahaw	-14981
▁knees	-14982
Mal	-14983
lif	-14984
▁Trophy	-14985
??	-14986
feld	-14987
▁Minneapolis	-14988
vell	-14989
▁1966	-14990
▁batch	-14991
▁aggreg	-14992
▁Montgomery	-14993
▁Lic	-14994
▁Firefox	-14995
▁Rahul	-14996
▁Richardson	-14997
▁125	-14998
▁Dynam	-14999
▁Kab	-15000
▁Wals	-15001
▁opera	-15002
▁rider	-15003
▁Athletic	-15004
▁disputed	-15005
▁Bark	-15006
▁glac	-15007
▁ineff	-15008
▁eleg	-15009
▁Customs	-15010
▁aviation	-15011
▁entrepreneurs	-15012
▁Sug	-15013
▁Cort	-15014
prot	-15015
[...]
