<pad>	0
<unk>	0
<s>	0
</s>	0
▁t	-0
he	-1
▁a	-2
in	-3
▁the	-4
er	-5
on	-6
▁s	-7
▁,	-8
ed	-9
▁w	-10
▁.	-11
re	-12
▁o	-13
nd	-14
at	-15
▁b	-16
▁c	-17
▁f	-18
it	-19
or	-20
en	-21
is	-22
ing	-23
ar	-24
es	-25
an	-26
▁of	-27
▁in	-28
al	-29
ou	-30
as	-31
▁p	-32
▁h	-33
▁and	-34
▁m	-35
▁to	-36
▁d	-37
ic	-38
le	-39
ro	-40
ion	-41
▁'	-42
▁he	-43
▁th	-44
▁n	-45
▁l	-46
▁T	-47
▁re	-48
il	-49
▁e	-50
ent	-51
st	-52
el	-53
▁=	-54
▁S	-55
om	-56
ad	-57
▁was	-58
▁A	-59
ac	-60
▁g	-61
▁"	-62
▁1	-63
am	-64
▁be	-65
id	-66
ly	-67
▁on	-68
▁C	-69
im	-70
▁@	-71
ut	-72
ur	-73
ot	-74
ir	-75
▁M	-76
ow	-77
▁for	-78
ig	-79
et	-80
ver	-81
ve	-82
ol	-83
▁as	-84
▁B	-85
▁st	-86
ay	-87
▁The	-88
ith	-89
ter	-90
▁that	-91
us	-92
ct	-93
▁I	-94
▁with	-95
-@	-96
▁@-@	-97
▁wh	-98
▁H	-99
ce	-100
▁his	-101
▁it	-102
ch	-103
ation	-104
▁her	-105
un	-106
▁2	-107
▁P	-108
▁al	-109
▁at	-110
▁r	-111
▁an	-112
ul	-113
▁R	-114
and	-115
th	-116
▁D	-117
▁y	-118
her	-119
▁con	-120
▁by	-121
▁is	-122
ain	-123
ld	-124
os	-125
ri	-126
▁W	-127
▁F	-128
▁se	-129
rom	-130
▁she	-131
▁i	-132
em	-133
▁L	-134
ag	-135
▁)	-136
▁(	-137
▁G	-138
ers	-139
um	-140
▁N	-141
od	-142
est	-143
▁19	-144
▁de	-145
igh	-146
pp	-147
▁from	-148
▁J	-149
00	-150
ak	-151
▁''	-152
▁com	-153
▁`	-154
▁``	-155
▁E	-156
ill	-157
ist	-158
▁k	-159
ant	-160
▁had	-161
ore	-162
gh	-163
▁v	-164
ere	-165
▁sh	-166
▁su	-167
ew	-168
▁pro	-169
if	-170
ard	-171
op	-172
▁you	-173
art	-174
▁O	-175
res	-176
ab	-177
iv	-178
all	-179
▁were	-180
ap	-181
▁ch	-182
ould	-183
ate	-184
se	-185
ort	-186
▁ex	-187
ack	-188
ies	-189
qu	-190
ong	-191
ber	-192
ess	-193
oc	-194
ich	-195
ough	-196
ight	-197
▁le	-198
ear	-199
▁In	-200
▁or	-201
▁u	-202
▁not	-203
▁pl	-204
▁ha	-205
our	-206
▁but	-207
ud	-208
ame	-209
ated	-210
ast	-211
pe	-212
ive	-213
ity	-214
ust	-215
ound	-216
ell	-217
out	-218
ip	-219
▁ar	-220
▁K	-221
ment	-222
ok	-223
ally	-224
▁tr	-225
▁j	-226
ge	-227
▁are	-228
▁U	-229
▁him	-230
▁whe	-231
av	-232
▁which	-233
pt	-234
▁St	-235
ost	-236
▁int	-237
ine	-238
ian	-239
ord	-240
▁un	-241
ie	-242
ous	-243
ia	-244
ide	-245
▁ab	-246
▁me	-247
▁cl	-248
ther	-249
hed	-250
▁have	-251
ary	-252
cl	-253
ra	-254
▁out	-255
rit	-256
fter	-257
ome	-258
ction	-259
nt	-260
ff	-261
▁3	-262
▁up	-263
ure	-264
▁this	-265
▁fir	-266
▁do	-267
▁go	-268
cc	-269
▁all	-270
ke	-271
▁one	-272
own	-273
ish	-274
▁comp	-275
▁cont	-276
▁Ch	-277
ry	-278
▁their	-279
ial	-280
▁ag	-281
▁tw	-282
ime	-283
▁ne	-284
ass	-285
ue	-286
▁200	-287
▁wor	-288
per	-289
▁V	-290
ond	-291
▁first	-292
▁would	-293
te	-294
▁been	-295
▁ro	-296
ru	-297
so	-298
▁who	-299
▁ad	-300
ign	-301
▁sa	-302
▁us	-303
ire	-304
age	-305
one	-306
ind	-307
▁over	-308
▁?	-309
ile	-310
ace	-311
ub	-312
ice	-313
▁so	-314
ater	-315
▁;	-316
▁we	-317
og	-318
▁20	-319
▁they	-320
orm	-321
ition	-322
pl	-323
▁its	-324
ical	-325
▁sc	-326
are	-327
ov	-328
ely	-329
▁into	-330
act	-331
▁off	-332
▁:	-333
▁–	-334
▁res	-335
▁also	-336
▁per	-337
▁kn	-338
▁en	-339
mer	-340
ance	-341
▁bec	-342
▁He	-343
ans	-344
iz	-345
▁my	-346
ook	-347
▁man	-348
uc	-349
ree	-350
▁two	-351
▁gr	-352
▁when	-353
ick	-354
▁te	-355
ake	-356
ll	-357
ach	-358
ence	-359
▁time	-360
▁4	-361
▁dis	-362
▁after	-363
▁part	-364
▁app	-365
ade	-366
ress	-367
ect	-368
▁rec	-369
▁sp	-370
oll	-371
ult	-372
▁ev	-373
urn	-374
▁Th	-375
▁5	-376
▁des	-377
▁has	-378
wn	-379
▁other	-380
▁18	-381
ark	-382
way	-383
▁im	-384
▁ser	-385
▁year	-386
.@	-387
▁@.@	-388
ib	-389
uring	-390
▁about	-391
ory	-392
▁more	-393
ep	-394
ations	-395
ted	-396
nder	-397
▁did	-398
,@	-399
▁@,@	-400
▁play	-401
▁201	-402
▁again	-403
ward	-404
able	-405
ens	-406
▁fe	-407
▁It	-408
ite	-409
ang	-410
▁pre	-411
clud	-412
we	-413
ions	-414
ove	-415
rough	-416
▁li	-417
land	-418
▁could	-419
ount	-420
▁said	-421
▁them	-422
oin	-423
▁back	-424
iss	-425
anc	-426
ng	-427
ne	-428
ose	-429
ft	-430
old	-431
ked	-432
▁fl	-433
ase	-434
ail	-435
ied	-436
aus	-437
▁Y	-438
ings	-439
oy	-440
vers	-441
▁bet	-442
▁att	-443
man	-444
▁includ	-445
reat	-446
ious	-447
▁spe	-448
ood	-449
ered	-450
ict	-451
▁than	-452
very	-453
▁inter	-454
▁no	-455
▁what	-456
▁there	-457
▁only	-458
ks	-459
ited	-460
fore	-461
ild	-462
▁Se	-463
ased	-464
ved	-465
▁qu	-466
amp	-467
ason	-468
ates	-469
▁then	-470
▁co	-471
ors	-472
▁sec	-473
▁Un	-474
▁6	-475
les	-476
▁new	-477
▁comm	-478
▁rem	-479
ilm	-480
form	-481
▁pr	-482
att	-483
▁bl	-484
fer	-485
port	-486
▁through	-487
▁Ar	-488
oth	-489
▁fin	-490
▁some	-491
▁7	-492
ath	-493
ss	-494
vel	-495
gan	-496
▁before	-497
ron	-498
▁any	-499
▁under	-500
▁Re	-501
ug	-502
▁can	-503
▁ear	-504
elf	-505
▁made	-506
end	-507
▁Al	-508
led	-509
ween	-510
▁sm	-511
▁like	-512
ts	-513
▁if	-514
▁most	-515
rib	-516
ning	-517
ix	-518
ents	-519
▁day	-520
▁film	-521
▁just	-522
ons	-523
outh	-524
▁cons	-525
▁rel	-526
other	-527
ollow	-528
▁where	-529
hip	-530
▁8	-531
▁while	-532
▁between	-533
▁want	-534
als	-535
▁ret	-536
▁Mar	-537
ican	-538
▁during	-539
aw	-540
ob	-541
▁down	-542
▁end	-543
▁char	-544
ubl	-545
▁later	-546
▁work	-547
▁game	-548
▁ac	-549
▁three	-550
▁De	-551
▁am	-552
▁9	-553
▁hand	-554
▁pe	-555
red	-556
ather	-557
▁On	-558
▁how	-559
▁pos	-560
▁look	-561
ily	-562
ife	-563
ating	-564
cted	-565
▁199	-566
▁call	-567
ton	-568
▁cent	-569
ting	-570
orth	-571
▁ass	-572
▁br	-573
▁rele	-574
▁prod	-575
▁though	-576
ause	-577
▁song	-578
▁New	-579
ational	-580
iew	-581
▁bu	-582
▁act	-583
▁acc	-584
▁sl	-585
tern	-586
hing	-587
▁against	-588
▁second	-589
▁num	-590
hes	-591
ph	-592
ink	-593
ics	-594
▁being	-595
ren	-596
▁sur	-597
enc	-598
▁head	-599
▁def	-600
▁car	-601
ished	-602
au	-603
▁inc	-604
ular	-605
▁Le	-606
▁dec	-607
▁well	-608
▁sub	-609
▁00	-610
ful	-611
ever	-612
▁reg	-613
▁long	-614
ral	-615
ters	-616
▁follow	-617
▁season	-618
ision	-619
ock	-620
▁ele	-621
▁ent	-622
ave	-623
▁em	-624
oh	-625
▁four	-626
ained	-627
▁Amer	-628
▁years	-629
▁such	-630
▁ind	-631
ener	-632
aking	-633
▁mus	-634
air	-635
▁op	-636
ames	-637
▁form	-638
ince	-639
iel	-640
son	-641
▁Com	-642
▁around	-643
ool	-644
ual	-645
ember	-646
▁supp	-647
ise	-648
row	-649
▁record	-650
▁col	-651
gr	-652
oun	-653
hen	-654
▁spec	-655
ific	-656
io	-657
▁show	-658
pr	-659
ident	-660
▁set	-661
▁used	-662
az	-663
▁lar	-664
▁ep	-665
bum	-666
mber	-667
▁writ	-668
▁sy	-669
ten	-670
orn	-671
▁team	-672
▁000	-673
self	-674
▁now	-675
▁min	-676
▁get	-677
▁inv	-678
ale	-679
uch	-680
pped	-681
▁high	-682
▁both	-683
▁add	-684
oup	-685
..	-686
ised	-687
ower	-688
▁loc	-689
▁arm	-690
▁As	-691
▁bro	-692
ode	-693
▁10	-694
▁found	-695
▁...	-696
cept	-697
▁At	-698
▁Sh	-699
ah	-700
▁mon	-701
▁This	-702
ury	-703
ier	-704
▁even	-705
▁sever	-706
▁pres	-707
ross	-708
ouse	-709
▁ey	-710
▁air	-711
▁inst	-712
▁war	-713
▁publ	-714
ving	-715
▁album	-716
▁/	-717
ened	-718
ty	-719
▁mar	-720
ck	-721
ived	-722
▁because	-723
til	-724
aj	-725
▁know	-726
▁mat	-727
velop	-728
▁turn	-729
▁lead	-730
iet	-731
▁epis	-732
▁number	-733
▁way	-734
▁own	-735
ven	-736
ork	-737
erm	-738
▁An	-739
▁sing	-740
▁gu	-741
ually	-742
iver	-743
▁bel	-744
▁took	-745
▁17	-746
▁0	-747
▁became	-748
omet	-749
▁until	-750
▁met	-751
▁ph	-752
ank	-753
ert	-754
▁will	-755
▁After	-756
▁charac	-757
▁cap	-758
▁appear	-759
ced	-760
ann	-761
▁perform	-762
ull	-763
▁ins	-764
tle	-765
ures	-766
rop	-767
▁mov	-768
ject	-769
▁your	-770
▁Brit	-771
igin	-772
▁including	-773
its	-774
vern	-775
▁start	-776
der	-777
▁Sc	-778
▁dif	-779
▁Be	-780
ople	-781
up	-782
ried	-783
erson	-784
xt	-785
▁ob	-786
▁right	-787
▁str	-788
▁cre	-789
any	-790
▁contin	-791
▁—	-792
▁exp	-793
▁many	-794
olog	-795
▁main	-796
▁198	-797
▁every	-798
▁United	-799
▁imp	-800
▁dire	-801
ines	-802
▁Joh	-803
▁comple	-804
ober	-805
▁Con	-806
▁several	-807
▁15	-808
▁series	-809
ley	-810
▁ke	-811
▁much	-812
ized	-813
▁12	-814
▁may	-815
▁stud	-816
▁run	-817
osed	-818
ities	-819
oot	-820
▁Wh	-821
▁She	-822
ued	-823
▁fam	-824
▁pol	-825
ange	-826
ird	-827
▁life	-828
ided	-829
▁began	-830
▁known	-831
▁pass	-832
▁return	-833
▁194	-834
get	-835
▁see	-836
ield	-837
though	-838
ments	-839
▁mill	-840
ax	-841
▁War	-842
▁ship	-843
▁develop	-844
▁John	-845
▁near	-846
▁called	-847
enn	-848
ative	-849
▁still	-850
▁dist	-851
imes	-852
▁Eng	-853
▁rece	-854
▁make	-855
▁sign	-856
▁hel	-857
ody	-858
ble	-859
gin	-860
▁16	-861
gg	-862
▁Br	-863
▁poin	-864
▁episode	-865
ured	-866
ern	-867
▁origin	-868
▁sim	-869
▁Cl	-870
▁need	-871
▁rep	-872
▁along	-873
▁people	-874
ible	-875
▁wom	-876
▁lit	-877
▁same	-878
chool	-879
▁eyes	-880
▁eff	-881
ner	-882
▁trans	-883
▁!	-884
▁pop	-885
▁197	-886
▁disc	-887
▁wee	-888
view	-889
ched	-890
iam	-891
▁last	-892
▁American	-893
ric	-894
▁design	-895
▁11	-896
▁Aust	-897
▁196	-898
▁say	-899
▁Ind	-900
▁desc	-901
ism	-902
ccess	-903
▁Fr	-904
ys	-905
ces	-906
▁est	-907
▁early	-908
▁prov	-909
aced	-910
▁feat	-911
▁art	-912
▁should	-913
ially	-914
▁inf	-915
ared	-916
emb	-917
▁gl	-918
▁music	-919
▁each	-920
▁Sp	-921
▁these	-922
ists	-923
ivers	-924
elt	-925
ret	-926
▁Z	-927
ars	-928
▁released	-929
▁another	-930
▁How	-931
ately	-932
▁win	-933
▁Bl	-934
▁Gr	-935
ium	-936
▁left	-937
▁rest	-938
▁since	-939
ady	-940
augh	-941
▁dep	-942
▁never	-943
▁count	-944
une	-945
▁che	-946
▁good	-947
ling	-948
ution	-949
▁gener	-950
amed	-951
wards	-952
▁going	-953
und	-954
▁US	-955
ane	-956
ement	-957
▁prev	-958
▁care	-959
▁ed	-960
stem	-961
▁Wor	-962
rap	-963
ired	-964
▁May	-965
▁very	-966
▁land	-967
▁somet	-968
▁take	-969
▁use	-970
ash	-971
▁crit	-972
els	-973
▁group	-974
▁thought	-975
ene	-976
▁prom	-977
▁away	-978
▁Ger	-979
ains	-980
▁million	-981
▁giv	-982
▁cr	-983
eb	-984
ger	-985
▁think	-986
▁mil	-987
▁small	-988
ying	-989
▁conf	-990
▁offic	-991
alk	-992
▁too	-993
▁let	-994
ajor	-995
▁const	-996
pect	-997
▁bo	-998
ik	-999
▁consid	-1000
▁success	-1001
▁British	-1002
uss	-1003
▁13	-1004
▁mod	-1005
▁six	-1006
aining	-1007
▁Ad	-1008
▁hist	-1009
uction	-1010
oss	-1011
▁$	-1012
▁Tr	-1013
ored	-1014
▁attack	-1015
ently	-1016
uth	-1017
▁oper	-1018
uced	-1019
▁bre	-1020
tend	-1021
▁occ	-1022
▁home	-1023
▁govern	-1024
▁place	-1025
▁help	-1026
▁describ	-1027
▁dr	-1028
▁build	-1029
▁real	-1030
▁Col	-1031
erv	-1032
▁conc	-1033
▁Aug	-1034
▁ann	-1035
ues	-1036
▁wanted	-1037
▁Sept	-1038
▁For	-1039
▁support	-1040
▁five	-1041
▁batt	-1042
riend	-1043
▁August	-1044
▁result	-1045
▁September	-1046
▁world	-1047
▁All	-1048
ute	-1049
▁Is	-1050
▁World	-1051
▁contro	-1052
▁la	-1053
▁class	-1054
▁character	-1055
▁came	-1056
ility	-1057
▁ref	-1058
▁States	-1059
▁next	-1060
▁following	-1061
▁feel	-1062
▁Q	-1063
▁14	-1064
ness	-1065
▁expl	-1066
▁det	-1067
▁Te	-1068
▁adv	-1069
▁Austral	-1070
ention	-1071
▁el	-1072
ets	-1073
ison	-1074
ract	-1075
▁German	-1076
▁sk	-1077
▁ext	-1078
▁old	-1079
▁Pl	-1080
▁Ju	-1081
▁po	-1082
ged	-1083
▁red	-1084
▁cour	-1085
ctor	-1086
med	-1087
ina	-1088
cess	-1089
▁child	-1090
▁felt	-1091
▁Oct	-1092
▁km	-1093
▁family	-1094
▁Me	-1095
▁area	-1096
▁open	-1097
▁differ	-1098
▁those	-1099
▁received	-1100
▁north	-1101
arr	-1102
▁system	-1103
▁However	-1104
▁state	-1105
▁195	-1106
▁month	-1107
be	-1108
ined	-1109
rod	-1110
▁October	-1111
▁name	-1112
ants	-1113
▁belie	-1114
▁193	-1115
▁allow	-1116
▁partic	-1117
▁person	-1118
rist	-1119
alf	-1120
▁191	-1121
▁cur	-1122
thing	-1123
ively	-1124
▁report	-1125
ached	-1126
▁beh	-1127
▁leg	-1128
▁Ed	-1129
raft	-1130
▁city	-1131
▁var	-1132
▁serv	-1133
▁line	-1134
ically	-1135
▁few	-1136
ins	-1137
ony	-1138
ission	-1139
urch	-1140
▁By	-1141
▁best	-1142
▁night	-1143
▁men	-1144
uck	-1145
▁face	-1146
▁single	-1147
aim	-1148
▁public	-1149
▁They	-1150
ilt	-1151
▁large	-1152
▁side	-1153
ording	-1154
▁century	-1155
▁dam	-1156
▁poss	-1157
▁med	-1158
▁band	-1159
my	-1160
over	-1161
▁short	-1162
▁major	-1163
▁North	-1164
hern	-1165
empt	-1166
▁stand	-1167
▁June	-1168
aged	-1169
ica	-1170
▁body	-1171
▁resp	-1172
ney	-1173
ister	-1174
▁Jan	-1175
▁Mc	-1176
ides	-1177
arl	-1178
ats	-1179
oice	-1180
▁asked	-1181
▁]	-1182
▁Comm	-1183
ians	-1184
▁[	-1185
rote	-1186
▁%	-1187
▁school	-1188
by	-1189
▁July	-1190
▁held	-1191
ront	-1192
▁little	-1193
▁father	-1194
▁house	-1195
▁book	-1196
▁Ph	-1197
avy	-1198
ovember	-1199
pril	-1200
uro	-1201
▁November	-1202
ott	-1203
ural	-1204
▁Can	-1205
▁repl	-1206
▁King	-1207
▁top	-1208
▁April	-1209
na	-1210
ense	-1211
rew	-1212
▁York	-1213
lish	-1214
▁Pr	-1215
▁appro	-1216
▁eng	-1217
▁dem	-1218
aff	-1219
▁vis	-1220
idge	-1221
ient	-1222
▁ste	-1223
▁without	-1224
ague	-1225
▁wat	-1226
▁final	-1227
orp	-1228
▁March	-1229
▁power	-1230
▁Ge	-1231
ales	-1232
uary	-1233
ience	-1234
▁event	-1235
▁South	-1236
▁find	-1237
▁30	-1238
ified	-1239
▁incre	-1240
▁room	-1241
ages	-1242
▁Will	-1243
▁third	-1244
▁played	-1245
▁great	-1246
▁es	-1247
▁water	-1248
▁sw	-1249
▁gave	-1250
ball	-1251
▁list	-1252
ital	-1253
▁Or	-1254
ional	-1255
▁move	-1256
▁led	-1257
▁story	-1258
▁vers	-1259
▁kill	-1260
▁cond	-1261
yl	-1262
ives	-1263
▁put	-1264
▁sound	-1265
▁death	-1266
reen	-1267
▁position	-1268
▁fr	-1269
▁Dece	-1270
▁stru	-1271
ctions	-1272
ograp	-1273
oon	-1274
▁south	-1275
▁December	-1276
akes	-1277
▁went	-1278
▁fur	-1279
▁During	-1280
▁due	-1281
▁opp	-1282
▁camp	-1283
▁colle	-1284
apan	-1285
▁friend	-1286
▁looked	-1287
▁II	-1288
▁ra	-1289
▁requ	-1290
ung	-1291
▁pri	-1292
▁track	-1293
▁25	-1294
▁port	-1295
▁days	-1296
▁del	-1297
▁included	-1298
▁tell	-1299
▁here	-1300
▁192	-1301
▁having	-1302
sh	-1303
▁wrote	-1304
▁himself	-1305
▁Japan	-1306
inc	-1307
▁based	-1308
▁January	-1309
oad	-1310
rown	-1311
▁tit	-1312
▁gun	-1313
▁government	-1314
▁won	-1315
▁moved	-1316
▁tour	-1317
ably	-1318
▁tri	-1319
▁something	-1320
ves	-1321
▁far	-1322
▁love	-1323
hest	-1324
ideo	-1325
▁ty	-1326
eng	-1327
▁wind	-1328
omin	-1329
less	-1330
▁exper	-1331
▁When	-1332
▁previous	-1333
ering	-1334
▁bus	-1335
ances	-1336
ery	-1337
▁attempt	-1338
▁late	-1339
br	-1340
ont	-1341
▁mid	-1342
embers	-1343
▁stre	-1344
▁view	-1345
ords	-1346
▁described	-1347
▁review	-1348
ior	-1349
▁sit	-1350
▁iss	-1351
▁join	-1352
▁come	-1353
ilar	-1354
▁turned	-1355
bo	-1356
▁named	-1357
▁term	-1358
▁half	-1359
ivision	-1360
▁Fl	-1361
▁although	-1362
ned	-1363
iness	-1364
pend	-1365
▁within	-1366
▁effect	-1367
▁command	-1368
side	-1369
iversity	-1370
oute	-1371
▁Mus	-1372
▁capt	-1373
▁av	-1374
ee	-1375
▁hard	-1376
▁Euro	-1377
▁light	-1378
▁ide	-1379
aken	-1380
▁continued	-1381
▁happ	-1382
▁different	-1383
ead	-1384
iod	-1385
most	-1386
▁hour	-1387
▁making	-1388
▁games	-1389
▁dri	-1390
▁fact	-1391
▁organ	-1392
▁And	-1393
rench	-1394
mp	-1395
▁town	-1396
ike	-1397
▁match	-1398
▁mark	-1399
▁cover	-1400
ature	-1401
▁mom	-1402
aster	-1403
▁100	-1404
▁addition	-1405
▁caus	-1406
ards	-1407
▁hum	-1408
ested	-1409
ences	-1410
ator	-1411
ways	-1412
▁Gu	-1413
▁species	-1414
▁built	-1415
ented	-1416
▁cle	-1417
ize	-1418
▁members	-1419
▁Christ	-1420
let	-1421
▁however	-1422
▁vict	-1423
▁Car	-1424
ebru	-1425
▁hands	-1426
▁wa	-1427
ebruary	-1428
▁February	-1429
▁dest	-1430
▁knew	-1431
▁front	-1432
▁His	-1433
arch	-1434
▁release	-1435
▁sent	-1436
▁Man	-1437
▁why	-1438
▁original	-1439
oci	-1440
urr	-1441
lev	-1442
▁prop	-1443
▁period	-1444
▁Pro	-1445
▁told	-1446
▁There	-1447
▁fore	-1448
▁begin	-1449
ices	-1450
▁plan	-1451
▁deb	-1452
▁storm	-1453
eth	-1454
▁infl	-1455
▁video	-1456
▁woman	-1457
▁mag	-1458
▁across	-1459
▁Am	-1460
pite	-1461
▁former	-1462
ressed	-1463
▁Europe	-1464
▁init	-1465
▁National	-1466
▁point	-1467
▁adm	-1468
▁ever	-1469
used	-1470
▁2010	-1471
iting	-1472
ither	-1473
▁polit	-1474
day	-1475
▁role	-1476
▁sold	-1477
▁estab	-1478
irl	-1479
▁further	-1480
▁once	-1481
▁behind	-1482
iving	-1483
▁often	-1484
▁French	-1485
▁considered	-1486
me	-1487
▁21	-1488
▁got	-1489
emp	-1490
▁claim	-1491
hy	-1492
▁pat	-1493
▁does	-1494
▁meet	-1495
▁fre	-1496
▁tot	-1497
ots	-1498
raw	-1499
▁strong	-1500
eter	-1501
ulation	-1502
▁less	-1503
▁given	-1504
▁post	-1505
▁X	-1506
app	-1507
▁road	-1508
ese	-1509
▁Her	-1510
ising	-1511
▁Min	-1512
▁equ	-1513
▁West	-1514
par	-1515
▁hold	-1516
▁local	-1517
uted	-1518
▁constru	-1519
atic	-1520
▁arri	-1521
▁law	-1522
gether	-1523
▁together	-1524
▁par	-1525
ham	-1526
oe	-1527
▁become	-1528
itary	-1529
▁saw	-1530
ops	-1531
rent	-1532
▁voice	-1533
ald	-1534
▁mother	-1535
▁chang	-1536
▁Geor	-1537
to	-1538
▁low	-1539
▁almost	-1540
▁control	-1541
▁week	-1542
gy	-1543
▁door	-1544
▁started	-1545
ches	-1546
▁foot	-1547
▁similar	-1548
▁mind	-1549
utes	-1550
ape	-1551
▁among	-1552
▁ant	-1553
▁24	-1554
▁really	-1555
▁2009	-1556
▁ran	-1557
craft	-1558
ology	-1559
▁2008	-1560
▁William	-1561
ropical	-1562
▁eas	-1563
▁production	-1564
▁Co	-1565
▁level	-1566
▁young	-1567
ope	-1568
ille	-1569
▁lost	-1570
gram	-1571
ler	-1572
▁squ	-1573
▁bas	-1574
▁sugg	-1575
▁career	-1576
▁Mich	-1577
rie	-1578
▁mor	-1579
▁order	-1580
atter	-1581
ford	-1582
err	-1583
▁reached	-1584
▁aff	-1585
▁quick	-1586
▁2011	-1587
▁Dav	-1588
▁fire	-1589
ief	-1590
ript	-1591
▁company	-1592
▁import	-1593
▁No	-1594
aur	-1595
omb	-1596
▁enough	-1597
yle	-1598
▁England	-1599
▁invol	-1600
ones	-1601
▁times	-1602
▁Des	-1603
ories	-1604
▁soc	-1605
▁prof	-1606
▁2007	-1607
▁&	-1608
▁fun	-1609
iled	-1610
▁pain	-1611
▁stat	-1612
▁Har	-1613
▁seen	-1614
▁announ	-1615
▁auth	-1616
▁keep	-1617
den	-1618
▁returned	-1619
uct	-1620
▁22	-1621
▁cast	-1622
estern	-1623
▁prote	-1624
aut	-1625
ival	-1626
▁Bar	-1627
▁One	-1628
ipp	-1629
▁club	-1630
line	-1631
▁history	-1632
▁player	-1633
▁City	-1634
▁z	-1635
ondon	-1636
▁east	-1637
iety	-1638
▁our	-1639
ec	-1640
ampions	-1641
▁El	-1642
▁west	-1643
▁Acc	-1644
▁building	-1645
hel	-1646
▁seem	-1647
▁ord	-1648
▁decl	-1649
ching	-1650
▁black	-1651
▁Air	-1652
▁190	-1653
▁Ang	-1654
▁version	-1655
▁Park	-1656
▁sil	-1657
ips	-1658
▁bed	-1659
▁Count	-1660
▁able	-1661
con	-1662
▁Although	-1663
▁Cent	-1664
▁defe	-1665
oney	-1666
▁conv	-1667
▁sex	-1668
ression	-1669
▁ten	-1670
▁pur	-1671
ox	-1672
▁refer	-1673
ump	-1674
▁influ	-1675
▁might	-1676
pec	-1677
▁women	-1678
▁written	-1679
▁give	-1680
aving	-1681
▁clos	-1682
▁23	-1683
▁hig	-1684
▁months	-1685
isc	-1686
▁rad	-1687
rest	-1688
ests	-1689
arent	-1690
▁2012	-1691
▁English	-1692
yr	-1693
▁Batt	-1694
▁son	-1695
ae	-1696
ready	-1697
▁sol	-1698
▁full	-1699
▁heart	-1700
▁instead	-1701
▁commun	-1702
▁better	-1703
▁country	-1704
que	-1705
ush	-1706
▁herself	-1707
ertain	-1708
▁press	-1709
▁River	-1710
▁eight	-1711
▁comb	-1712
▁Su	-1713
▁close	-1714
▁particular	-1715
acy	-1716
irc	-1717
▁With	-1718
▁lim	-1719
ploy	-1720
▁fail	-1721
▁cross	-1722
▁trad	-1723
reet	-1724
lex	-1725
isted	-1726
com	-1727
▁already	-1728
▁feet	-1729
sequ	-1730
▁brother	-1731
▁total	-1732
ai	-1733
▁ground	-1734
▁London	-1735
▁Ex	-1736
▁University	-1737
▁opened	-1738
ms	-1739
ges	-1740
▁We	-1741
chn	-1742
alth	-1743
▁You	-1744
▁relations	-1745
▁High	-1746
ole	-1747
▁miss	-1748
▁tre	-1749
▁repres	-1750
▁Cal	-1751
▁taken	-1752
▁children	-1753
here	-1754
ana	-1755
▁Canad	-1756
umb	-1757
▁tou	-1758
▁stated	-1759
levision	-1760
▁anim	-1761
osp	-1762
▁using	-1763
itted	-1764
roy	-1765
▁sum	-1766
▁program	-1767
▁sat	-1768
▁common	-1769
▁Gener	-1770
▁star	-1771
▁soon	-1772
▁ple	-1773
▁While	-1774
▁En	-1775
▁fall	-1776
aign	-1777
▁read	-1778
▁published	-1779
yn	-1780
▁white	-1781
▁compet	-1782
▁ships	-1783
ama	-1784
▁reported	-1785
▁service	-1786
▁sure	-1787
ensive	-1788
iment	-1789
▁business	-1790
▁followed	-1791
▁past	-1792
itions	-1793
▁produced	-1794
▁bar	-1795
bs	-1796
play	-1797
▁least	-1798
▁battle	-1799
itive	-1800
▁direct	-1801
▁hit	-1802
oved	-1803
▁According	-1804
oman	-1805
▁2006	-1806
▁fav	-1807
▁entire	-1808
▁office	-1809
oyal	-1810
fic	-1811
▁Sm	-1812
▁gen	-1813
ream	-1814
▁arms	-1815
▁Comp	-1816
ming	-1817
▁Ne	-1818
head	-1819
▁died	-1820
▁decided	-1821
aul	-1822
▁remained	-1823
▁include	-1824
▁moment	-1825
▁aircraft	-1826
▁performance	-1827
▁recorded	-1828
▁project	-1829
▁force	-1830
▁suff	-1831
▁forces	-1832
tain	-1833
▁28	-1834
▁larg	-1835
▁Tw	-1836
▁trav	-1837
▁author	-1838
oor	-1839
▁slow	-1840
▁kiss	-1841
ception	-1842
▁taking	-1843
iding	-1844
ended	-1845
▁Australia	-1846
▁mean	-1847
aces	-1848
ries	-1849
▁earl	-1850
▁popular	-1851
▁50	-1852
▁Go	-1853
▁These	-1854
▁present	-1855
▁Sw	-1856
ases	-1857
▁Rep	-1858
ument	-1859
▁27	-1860
eder	-1861
rought	-1862
ael	-1863
ration	-1864
▁fight	-1865
▁agre	-1866
▁military	-1867
▁-	-1868
▁field	-1869
▁always	-1870
▁Ste	-1871
▁quest	-1872
▁Ass	-1873
▁ca	-1874
▁Sec	-1875
▁anything	-1876
ination	-1877
ara	-1878
▁State	-1879
▁Ear	-1880
▁grow	-1881
▁introd	-1882
▁nort	-1883
▁cor	-1884
▁2013	-1885
▁produc	-1886
alt	-1887
bor	-1888
ency	-1889
▁critic	-1890
▁prob	-1891
urrican	-1892
ampionship	-1893
▁obs	-1894
▁coun	-1895
▁deep	-1896
dle	-1897
▁super	-1898
▁added	-1899
▁development	-1900
▁wife	-1901
▁40	-1902
▁minutes	-1903
▁Af	-1904
▁cut	-1905
▁189	-1906
dom	-1907
▁songs	-1908
▁Division	-1909
▁island	-1910
▁26	-1911
▁Par	-1912
▁League	-1913
ows	-1914
▁either	-1915
ids	-1916
▁fem	-1917
▁Dr	-1918
▁things	-1919
▁General	-1920
▁announced	-1921
▁done	-1922
▁elect	-1923
▁title	-1924
▁pul	-1925
▁campaign	-1926
idence	-1927
▁ap	-1928
ze	-1929
ought	-1930
▁proble	-1931
▁Gl	-1932
▁Army	-1933
▁national	-1934
medi	-1935
▁val	-1936
▁promot	-1937
aps	-1938
▁reason	-1939
ett	-1940
▁Pres	-1941
▁Bro	-1942
▁mouth	-1943
▁esc	-1944
▁arg	-1945
▁inside	-1946
▁ft	-1947
▁stay	-1948
▁party	-1949
▁hair	-1950
▁idea	-1951
▁Char	-1952
▁noted	-1953
▁Fin	-1954
▁must	-1955
▁dou	-1956
▁Japanese	-1957
sw	-1958
▁cost	-1959
▁signific	-1960
▁ball	-1961
▁developed	-1962
▁chart	-1963
fully	-1964
▁Jack	-1965
field	-1966
▁tro	-1967
▁pra	-1968
▁weeks	-1969
▁various	-1970
oke	-1971
▁created	-1972
▁brought	-1973
ality	-1974
▁working	-1975
▁characters	-1976
▁exc	-1977
▁fig	-1978
▁television	-1979
▁Ab	-1980
outhern	-1981
▁important	-1982
▁worked	-1983
▁free	-1984
eal	-1985
ization	-1986
▁intern	-1987
▁special	-1988
▁Pol	-1989
stand	-1990
urg	-1991
▁James	-1992
▁fell	-1993
▁rev	-1994
▁station	-1995
▁relationship	-1996
▁quickly	-1997
val	-1998
▁nothing	-1999
▁histor	-2000
▁stri	-2001
▁div	-2002
▁trying	-2003
▁rather	-2004
▁hor	-2005
▁non	-2006
abor	-2007
▁Mon	-2008
▁seven	-2009
▁accept	-2010
▁occur	-2011
▁enc	-2012
▁official	-2013
▁dro	-2014
lect	-2015
bed	-2016
▁Sy	-2017
▁aver	-2018
▁fle	-2019
▁break	-2020
ogn	-2021
▁Mor	-2022
▁cult	-2023
▁dark	-2024
▁talk	-2025
▁age	-2026
iff	-2027
▁County	-2028
▁coll	-2029
asing	-2030
▁reach	-2031
reg	-2032
▁becom	-2033
▁Street	-2034
▁America	-2035
▁appeared	-2036
▁vol	-2037
tended	-2038
▁towards	-2039
▁areas	-2040
▁destroy	-2041
ager	-2042
urricane	-2043
▁Russ	-2044
▁served	-2045
▁needed	-2046
▁hy	-2047
▁prim	-2048
ears	-2049
▁aud	-2050
imately	-2051
pected	-2052
read	-2053
▁2005	-2054
▁political	-2055
▁live	-2056
▁Mad	-2057
▁case	-2058
▁hours	-2059
▁Road	-2060
aves	-2061
enced	-2062
▁mot	-2063
aughter	-2064
▁process	-2065
▁killed	-2066
vent	-2067
men	-2068
▁Ser	-2069
▁ter	-2070
uff	-2071
▁circ	-2072
▁rock	-2073
▁features	-2074
bert	-2075
▁caused	-2076
ground	-2077
▁style	-2078
▁looking	-2079
▁breat	-2080
▁throughout	-2081
▁broad	-2082
▁leave	-2083
uce	-2084
▁29	-2085
▁performed	-2086
ster	-2087
cast	-2088
▁Rober	-2089
int	-2090
▁eventually	-2091
▁ident	-2092
ma	-2093
▁girl	-2094
▁George	-2095
ius	-2096
▁points	-2097
▁Rec	-2098
▁inform	-2099
▁players	-2100
rict	-2101
▁playing	-2102
orts	-2103
▁ve	-2104
▁words	-2105
lished	-2106
▁struct	-2107
▁race	-2108
▁miles	-2109
ashing	-2110
▁king	-2111
artment	-2112
▁’	-2113
ky	-2114
king	-2115
elling	-2116
▁hon	-2117
▁cat	-2118
▁Australian	-2119
▁lif	-2120
olution	-2121
▁techn	-2122
reek	-2123
▁writing	-2124
▁vot	-2125
▁bill	-2126
aid	-2127
▁news	-2128
▁activ	-2129
▁member	-2130
▁others	-2131
▁saying	-2132
▁big	-2133
ays	-2134
▁dev	-2135
▁established	-2136
▁To	-2137
▁significant	-2138
▁fif	-2139
▁route	-2140
off	-2141
▁Pe	-2142
▁finished	-2143
▁probably	-2144
alked	-2145
emy	-2146
▁impro	-2147
▁mer	-2148
▁mm	-2149
▁thing	-2150
▁sn	-2151
▁nov	-2152
aval	-2153
adron	-2154
pper	-2155
▁cy	-2156
▁heavy	-2157
▁2014	-2158
▁Bill	-2159
▁Part	-2160
omp	-2161
▁Sim	-2162
▁Em	-2163
▁interest	-2164
iron	-2165
▁foc	-2166
irt	-2167
aring	-2168
▁East	-2169
▁pract	-2170
▁placed	-2171
▁er	-2172
▁Hen	-2173
▁Island	-2174
▁mix	-2175
▁wall	-2176
▁coast	-2177
af	-2178
▁Ke	-2179
▁round	-2180
▁finally	-2181
▁Phil	-2182
ris	-2183
acing	-2184
▁comment	-2185
▁action	-2186
ficult	-2187
▁arch	-2188
cent	-2189
ament	-2190
ivil	-2191
▁range	-2192
▁change	-2193
▁tried	-2194
▁award	-2195
▁money	-2196
▁everything	-2197
ico	-2198
▁park	-2199
oring	-2200
▁difficult	-2201
ades	-2202
▁stop	-2203
▁formed	-2204
▁general	-2205
▁Squ	-2206
epend	-2207
▁creat	-2208
ators	-2209
▁shot	-2210
▁Royal	-2211
iers	-2212
▁crew	-2213
▁David	-2214
▁possible	-2215
anced	-2216
▁Reg	-2217
▁ce	-2218
▁Per	-2219
aper	-2220
▁188	-2221
▁immedi	-2222
aly	-2223
▁tropical	-2224
▁mater	-2225
▁lack	-2226
▁Qu	-2227
▁surv	-2228
ude	-2229
▁allowed	-2230
▁vill	-2231
odes	-2232
odd	-2233
▁Med	-2234
▁reve	-2235
▁stage	-2236
ceed	-2237
▁works	-2238
▁Sch	-2239
work	-2240
itar	-2241
urt	-2242
ivid	-2243
▁simp	-2244
▁loss	-2245
▁wid	-2246
cil	-2247
▁Bo	-2248
▁soft	-2249
▁abs	-2250
ample	-2251
▁smile	-2252
▁upon	-2253
▁located	-2254
room	-2255
▁base	-2256
▁kind	-2257
airs	-2258
▁course	-2259
conom	-2260
▁recogn	-2261
▁completed	-2262
▁priv	-2263
▁mount	-2264
▁separ	-2265
▁contract	-2266
▁bit	-2267
board	-2268
▁modern	-2269
▁House	-2270
ata	-2271
sc	-2272
ship	-2273
oph	-2274
▁appoin	-2275
▁fing	-2276
▁host	-2277
▁pulled	-2278
▁morning	-2279
amb	-2280
▁respect	-2281
▁doing	-2282
▁aut	-2283
▁engine	-2284
▁hot	-2285
▁mem	-2286
wood	-2287
oud	-2288
▁construction	-2289
▁proper	-2290
▁guns	-2291
▁Hist	-2292
▁pick	-2293
▁yet	-2294
▁Rich	-2295
▁outside	-2296
ishing	-2297
igned	-2298
pping	-2299
ule	-2300
▁complet	-2301
ected	-2302
▁profess	-2303
lin	-2304
anned	-2305
▁born	-2306
▁bomb	-2307
▁Indian	-2308
▁leading	-2309
unk	-2310
▁pred	-2311
ushed	-2312
▁typ	-2313
▁hop	-2314
uture	-2315
icated	-2316
▁scene	-2317
▁reb	-2318
▁Port	-2319
▁Intern	-2320
▁clear	-2321
stit	-2322
uel	-2323
▁scored	-2324
▁cal	-2325
of	-2326
ki	-2327
▁employ	-2328
▁voc	-2329
▁population	-2330
▁deal	-2331
ipped	-2332
▁invest	-2333
▁prot	-2334
▁Michael	-2335
▁inj	-2336
▁186	-2337
▁31	-2338
▁site	-2339
▁Other	-2340
▁Act	-2341
▁current	-2342
▁goal	-2343
▁cop	-2344
▁human	-2345
▁pie	-2346
▁Cr	-2347
osition	-2348
▁provided	-2349
overed	-2350
irst	-2351
▁pay	-2352
▁spent	-2353
ength	-2354
▁2004	-2355
antic	-2356
unt	-2357
ring	-2358
ps	-2359
▁forced	-2360
▁lear	-2361
ening	-2362
▁married	-2363
▁sle	-2364
▁mass	-2365
▁believed	-2366
▁Black	-2367
▁earlier	-2368
itc	-2369
ula	-2370
▁aw	-2371
urb	-2372
empor	-2373
iction	-2374
▁material	-2375
uation	-2376
iol	-2377
▁fourth	-2378
▁France	-2379
▁2015	-2380
▁unc	-2381
▁passed	-2382
▁rail	-2383
▁threat	-2384
su	-2385
▁step	-2386
▁ang	-2387
▁bur	-2388
▁bad	-2389
ask	-2390
▁My	-2391
imin	-2392
▁lo	-2393
▁Que	-2394
▁neg	-2395
▁opening	-2396
▁associ	-2397
▁peak	-2398
▁leaving	-2399
▁originally	-2400
▁avail	-2401
▁joined	-2402
▁certain	-2403
erous	-2404
chie	-2405
▁involved	-2406
▁mult	-2407
▁damage	-2408
hic	-2409
▁subsequ	-2410
arm	-2411
▁table	-2412
tered	-2413
▁ended	-2414
aled	-2415
ightly	-2416
angu	-2417
▁Red	-2418
▁laun	-2419
▁indust	-2420
▁swe	-2421
▁sour	-2422
▁School	-2423
▁tradition	-2424
azine	-2425
orpor	-2426
ological	-2427
▁phys	-2428
▁500	-2429
▁average	-2430
▁Washing	-2431
▁runs	-2432
▁surf	-2433
anch	-2434
▁Music	-2435
▁forward	-2436
rang	-2437
▁Paul	-2438
▁Mil	-2439
▁Some	-2440
▁mi	-2441
▁Colle	-2442
▁Washington	-2443
▁exec	-2444
oul	-2445
▁react	-2446
▁Best	-2447
ential	-2448
▁San	-2449
ray	-2450
▁troops	-2451
asion	-2452
▁rul	-2453
▁2000	-2454
▁President	-2455
▁answ	-2456
itte	-2457
ino	-2458
▁whole	-2459
▁featured	-2460
▁individ	-2461
▁Cour	-2462
▁Battle	-2463
▁Hill	-2464
▁Play	-2465
▁events	-2466
ander	-2467
▁ill	-2468
band	-2469
▁example	-2470
rief	-2471
▁Henry	-2472
▁army	-2473
▁Nor	-2474
▁walk	-2475
ena	-2476
▁beaut	-2477
oria	-2478
▁boy	-2479
istic	-2480
ey	-2481
rey	-2482
▁respons	-2483
▁sto	-2484
▁closed	-2485
▁nomin	-2486
▁victory	-2487
omas	-2488
▁generally	-2489
▁job	-2490
riage	-2491
ios	-2492
ding	-2493
aught	-2494
▁length	-2495
▁regular	-2496
sel	-2497
go	-2498
▁future	-2499
iously	-2500
▁gold	-2501
▁La	-2502
elled	-2503
▁despite	-2504
fe	-2505
▁test	-2506
▁touch	-2507
▁2003	-2508
▁court	-2509
▁Bel	-2510
▁longer	-2511
▁lik	-2512
▁critics	-2513
▁staff	-2514
▁Vir	-2515
omm	-2516
▁Robert	-2517
enes	-2518
▁estim	-2519
▁fund	-2520
joy	-2521
▁Cap	-2522
▁econom	-2523
▁designed	-2524
ville	-2525
▁food	-2526
▁president	-2527
▁bring	-2528
▁wond	-2529
▁ren	-2530
▁question	-2531
asc	-2532
▁social	-2533
rem	-2534
▁draw	-2535
▁Despite	-2536
▁187	-2537
▁replaced	-2538
▁Res	-2539
ference	-2540
▁onto	-2541
▁Follow	-2542
▁regard	-2543
▁heard	-2544
▁particip	-2545
antry	-2546
▁represent	-2547
▁lower	-2548
uke	-2549
▁inn	-2550
▁actually	-2551
osing	-2552
▁above	-2553
▁living	-2554
▁sele	-2555
▁yes	-2556
ublic	-2557
▁disp	-2558
ourn	-2559
▁successful	-2560
hib	-2561
fect	-2562
▁hom	-2563
utive	-2564
ights	-2565
▁toward	-2566
enty	-2567
itor	-2568
▁feeling	-2569
▁Met	-2570
▁sus	-2571
▁nat	-2572
▁particularly	-2573
inist	-2574
▁word	-2575
▁Scott	-2576
▁Ham	-2577
▁speed	-2578
▁Mal	-2579
▁Ber	-2580
▁Following	-2581
▁treat	-2582
▁walked	-2583
▁highway	-2584
asure	-2585
▁McC	-2586
▁phot	-2587
▁Lou	-2588
usion	-2589
▁ordered	-2590
▁running	-2591
aker	-2592
▁concern	-2593
ises	-2594
▁exist	-2595
▁Game	-2596
▁subject	-2597
onse	-2598
▁Hall	-2599
▁available	-2600
▁First	-2601
▁enjoy	-2602
▁surpr	-2603
gress	-2604
▁director	-2605
▁quar	-2606
▁Angel	-2607
▁pers	-2608
iation	-2609
ification	-2610
▁Star	-2611
▁region	-2612
▁score	-2613
▁kept	-2614
▁meant	-2615
▁mph	-2616
▁35	-2617
▁space	-2618
merc	-2619
▁Cup	-2620
ging	-2621
iber	-2622
▁appearance	-2623
▁insp	-2624
▁Championship	-2625
▁arrived	-2626
▁parent	-2627
ounded	-2628
▁pot	-2629
▁fac	-2630
ibility	-2631
▁initially	-2632
▁determ	-2633
▁Two	-2634
▁Mid	-2635
iful	-2636
mi	-2637
ago	-2638
▁discuss	-2639
▁demand	-2640
illed	-2641
ique	-2642
itch	-2643
▁Route	-2644
uk	-2645
▁immediately	-2646
▁Dan	-2647
▁grad	-2648
iforn	-2649
amer	-2650
▁rese	-2651
▁percent	-2652
▁Mary	-2653
▁account	-2654
▁coming	-2655
▁Val	-2656
▁compl	-2657
oid	-2658
▁novel	-2659
rong	-2660
▁European	-2661
▁Great	-2662
▁church	-2663
▁Hol	-2664
▁cru	-2665
▁contrib	-2666
▁Mag	-2667
cy	-2668
▁increased	-2669
apt	-2670
▁assist	-2671
▁someone	-2672
▁beginning	-2673
▁grand	-2674
▁nine	-2675
▁From	-2676
rian	-2677
▁Je	-2678
▁giving	-2679
▁Don	-2680
roat	-2681
key	-2682
fall	-2683
▁Sing	-2684
▁lay	-2685
▁Navy	-2686
for	-2687
lying	-2688
pecially	-2689
▁believe	-2690
ams	-2691
▁response	-2692
▁moving	-2693
▁Atl	-2694
▁highest	-2695
▁Kingdom	-2696
BC	-2697
▁training	-2698
ittee	-2699
▁educ	-2700
ume	-2701
arily	-2702
▁Mart	-2703
▁Mac	-2704
rated	-2705
▁largest	-2706
▁meeting	-2707
▁Off	-2708
▁Charles	-2709
▁ver	-2710
▁lot	-2711
ography	-2712
▁2001	-2713
west	-2714
▁signed	-2715
▁studio	-2716
ership	-2717
▁Ag	-2718
▁travel	-2719
ault	-2720
aint	-2721
fort	-2722
▁decision	-2723
▁streng	-2724
▁daughter	-2725
▁Roman	-2726
het	-2727
▁brief	-2728
▁friends	-2729
▁Church	-2730
▁getting	-2731
erved	-2732
▁sequ	-2733
▁Virgin	-2734
▁Cong	-2735
▁sometimes	-2736
ston	-2737
▁center	-2738
ateg	-2739
▁usually	-2740
▁especially	-2741
▁wide	-2742
▁langu	-2743
ilities	-2744
▁Ant	-2745
irth	-2746
▁central	-2747
▁den	-2748
raz	-2749
▁sym	-2750
▁breath	-2751
▁But	-2752
▁Wil	-2753
ocr	-2754
▁Alex	-2755
▁self	-2756
▁don	-2757
▁lips	-2758
▁tem	-2759
anks	-2760
rupt	-2761
▁achie	-2762
▁praised	-2763
▁attention	-2764
▁conn	-2765
▁poor	-2766
▁nearly	-2767
▁changed	-2768
▁Dep	-2769
ifornia	-2770
▁southern	-2771
▁agreed	-2772
▁doc	-2773
kn	-2774
▁Canada	-2775
▁2002	-2776
▁hous	-2777
▁personal	-2778
▁sister	-2779
▁entered	-2780
▁positive	-2781
▁stood	-2782
▁required	-2783
▁independ	-2784
aby	-2785
▁sal	-2786
▁Thomas	-2787
▁chap	-2788
▁relig	-2789
▁failed	-2790
▁consider	-2791
▁International	-2792
▁Bay	-2793
▁understand	-2794
▁surr	-2795
▁Brown	-2796
▁God	-2797
▁according	-2798
▁°	-2799
▁bow	-2800
heast	-2801
▁date	-2802
▁White	-2803
▁chair	-2804
▁else	-2805
▁today	-2806
▁cred	-2807
nel	-2808
▁complete	-2809
▁Mer	-2810
▁whose	-2811
iling	-2812
itz	-2813
▁Union	-2814
▁itself	-2815
▁floor	-2816
▁Ac	-2817
▁interview	-2818
lled	-2819
ession	-2820
teen	-2821
▁issue	-2822
▁summer	-2823
▁din	-2824
▁carried	-2825
▁viol	-2826
▁disapp	-2827
▁raised	-2828
▁cell	-2829
▁northern	-2830
▁previously	-2831
▁lines	-2832
▁shoot	-2833
▁Smith	-2834
▁alone	-2835
▁minute	-2836
erve	-2837
▁football	-2838
▁units	-2839
▁claimed	-2840
▁pen	-2841
antly	-2842
▁wood	-2843
▁favor	-2844
▁sea	-2845
▁Art	-2846
ability	-2847
▁Sl	-2848
▁Govern	-2849
▁Vict	-2850
aded	-2851
▁fort	-2852
▁commerc	-2853
▁section	-2854
▁Christian	-2855
▁whom	-2856
▁completely	-2857
alion	-2858
▁California	-2859
agon	-2860
▁Pri	-2861
▁Sov	-2862
▁female	-2863
igan	-2864
ension	-2865
▁blue	-2866
hers	-2867
▁wear	-2868
▁states	-2869
▁rain	-2870
▁attract	-2871
▁Jos	-2872
▁remember	-2873
▁Pat	-2874
ny	-2875
▁debut	-2876
▁Award	-2877
▁hurricane	-2878
hem	-2879
ully	-2880
▁parts	-2881
▁norm	-2882
▁election	-2883
▁Rock	-2884
▁directed	-2885
▁emer	-2886
▁winds	-2887
▁pull	-2888
▁Soviet	-2889
iser	-2890
▁seemed	-2891
icket	-2892
aph	-2893
▁Sam	-2894
▁Court	-2895
ida	-2896
▁1990	-2897
▁Tom	-2898
▁clim	-2899
▁key	-2900
▁hun	-2901
ift	-2902
▁bene	-2903
▁films	-2904
▁Stud	-2905
▁dead	-2906
▁Mark	-2907
▁coup	-2908
▁mur	-2909
▁transfer	-2910
▁ton	-2911
▁evidence	-2912
▁Up	-2913
ously	-2914
back	-2915
▁recording	-2916
▁Germany	-2917
▁matter	-2918
▁detail	-2919
▁suggested	-2920
▁occup	-2921
▁marriage	-2922
umn	-2923
▁Pal	-2924
mar	-2925
▁arrang	-2926
▁45	-2927
berg	-2928
▁elements	-2929
ites	-2930
▁emb	-2931
tr	-2932
atin	-2933
▁screen	-2934
▁Associ	-2935
▁Mill	-2936
▁185	-2937
▁police	-2938
▁specific	-2939
▁becoming	-2940
use	-2941
▁perfect	-2942
▁private	-2943
▁Frank	-2944
▁additional	-2945
▁appl	-2946
▁heav	-2947
▁sens	-2948
ken	-2949
▁60	-2950
▁hus	-2951
▁Kn	-2952
isl	-2953
▁UK	-2954
inct	-2955
▁max	-2956
arliam	-2957
▁Gold	-2958
selves	-2959
▁Peter	-2960
▁chest	-2961
▁study	-2962
▁experience	-2963
▁anti	-2964
▁phone	-2965
▁chall	-2966
▁introduced	-2967
iles	-2968
▁helped	-2969
aging	-2970
onna	-2971
▁Company	-2972
▁reviews	-2973
ha	-2974
▁jud	-2975
▁remain	-2976
▁Soc	-2977
▁Do	-2978
▁College	-2979
▁Sen	-2980
▁Grand	-2981
anish	-2982
▁surface	-2983
▁object	-2984
▁That	-2985
arliament	-2986
▁stopped	-2987
▁Ben	-2988
ani	-2989
ili	-2990
▁stra	-2991
▁cycl	-2992
▁planned	-2993
▁carry	-2994
▁net	-2995
▁amount	-2996
▁bridge	-2997
nes	-2998
▁Times	-2999
atory	-3000
edy	-3001
ores	-3002
▁blood	-3003
▁shook	-3004
alled	-3005
▁env	-3006
▁Richard	-3007
▁Force	-3008
ania	-3009
▁whether	-3010
▁league	-3011
▁groups	-3012
▁Film	-3013
▁Mount	-3014
▁flood	-3015
ulf	-3016
▁Pac	-3017
▁lab	-3018
owers	-3019
▁bi	-3020
▁Most	-3021
NA	-3022
▁movement	-3023
▁box	-3024
ospital	-3025
▁watched	-3026
ounds	-3027
▁mess	-3028
▁fast	-3029
▁dropped	-3030
▁access	-3031
asy	-3032
▁Awards	-3033
▁civil	-3034
▁type	-3035
▁standing	-3036
▁Dem	-3037
▁Western	-3038
nding	-3039
▁maybe	-3040
▁tow	-3041
▁acqu	-3042
▁fleet	-3043
▁frequ	-3044
▁plans	-3045
▁prison	-3046
ibly	-3047
▁makes	-3048
▁magazine	-3049
aned	-3050
▁smiled	-3051
agement	-3052
▁1970	-3053
▁Ir	-3054
▁gaz	-3055
▁slightly	-3056
▁intens	-3057
▁India	-3058
▁expected	-3059
enth	-3060
▁tar	-3061
▁media	-3062
▁secret	-3063
▁display	-3064
▁dress	-3065
▁offered	-3066
sec	-3067
▁larger	-3068
▁remaining	-3069
▁Rob	-3070
▁1980	-3071
▁Britain	-3072
▁visit	-3073
▁Fle	-3074
▁intended	-3075
sen	-3076
bour	-3077
eum	-3078
▁contr	-3079
sy	-3080
▁lyr	-3081
▁radio	-3082
▁international	-3083
▁bes	-3084
ruction	-3085
▁covered	-3086
▁Cast	-3087
▁students	-3088
ulated	-3089
▁god	-3090
emporary	-3091
▁32	-3092
▁weak	-3093
▁roy	-3094
▁ready	-3095
▁Mex	-3096
▁investig	-3097
▁Later	-3098
inent	-3099
▁minor	-3100
▁1999	-3101
oes	-3102
▁purp	-3103
▁teams	-3104
▁Virginia	-3105
ires	-3106
▁twenty	-3107
▁beautiful	-3108
▁liter	-3109
fact	-3110
▁Hot	-3111
▁pil	-3112
▁mel	-3113
▁mention	-3114
▁opt	-3115
▁focus	-3116
▁middle	-3117
izing	-3118
▁shows	-3119
▁market	-3120
▁Inf	-3121
▁size	-3122
▁changes	-3123
the	-3124
abeth	-3125
▁pressure	-3126
▁thr	-3127
▁Louis	-3128
▁Coun	-3129
ederal	-3130
iced	-3131
urity	-3132
▁husband	-3133
ibr	-3134
▁prior	-3135
ex	-3136
▁Im	-3137
▁try	-3138
▁Just	-3139
change	-3140
▁defeated	-3141
▁NY	-3142
▁purch	-3143
▁Franc	-3144
hester	-3145
▁higher	-3146
▁musical	-3147
▁estimated	-3148
▁parents	-3149
▁river	-3150
▁sett	-3151
▁exact	-3152
▁provide	-3153
▁board	-3154
▁sense	-3155
▁Over	-3156
▁winning	-3157
▁appointed	-3158
▁community	-3159
ication	-3160
▁slowly	-3161
▁guitar	-3162
▁western	-3163
▁themselves	-3164
atively	-3165
onst	-3166
▁transport	-3167
▁Second	-3168
ij	-3169
▁Kh	-3170
▁eastern	-3171
ros	-3172
▁temper	-3173
oint	-3174
▁rap	-3175
▁tax	-3176
▁gone	-3177
▁Party	-3178
hood	-3179
▁Early	-3180
▁Day	-3181
▁commercial	-3182
▁structure	-3183
▁und	-3184
▁counter	-3185
▁research	-3186
▁oh	-3187
▁latter	-3188
▁80	-3189
rd	-3190
▁limited	-3191
idents	-3192
vin	-3193
**	-3194
▁sud	-3195
▁36	-3196
▁information	-3197
tt	-3198
▁effects	-3199
orial	-3200
uter	-3201
▁Johnson	-3202
▁trib	-3203
zz	-3204
▁male	-3205
▁Mo	-3206
▁184	-3207
▁flight	-3208
aries	-3209
▁imm	-3210
itt	-3211
▁glass	-3212
▁unable	-3213
▁attend	-3214
▁mist	-3215
▁scenes	-3216
▁problems	-3217
▁ok	-3218
▁der	-3219
▁commission	-3220
icy	-3221
▁lived	-3222
icle	-3223
incip	-3224
ximately	-3225
iral	-3226
▁sudden	-3227
iant	-3228
▁destroyed	-3229
▁If	-3230
▁withd	-3231
▁writer	-3232
▁sor	-3233
AF	-3234
▁Los	-3235
▁rights	-3236
▁Cont	-3237
▁skin	-3238
▁manager	-3239
▁increasing	-3240
▁Tex	-3241
▁hear	-3242
▁fingers	-3243
▁300	-3244
icago	-3245
▁stars	-3246
isions	-3247
andon	-3248
▁cele	-3249
▁takes	-3250
ills	-3251
▁influence	-3252
▁gas	-3253
▁caught	-3254
▁straight	-3255
umed	-3256
▁supported	-3257
▁log	-3258
▁Green	-3259
well	-3260
▁emot	-3261
▁figure	-3262
ergy	-3263
▁rid	-3264
▁compared	-3265
kin	-3266
▁territ	-3267
▁proposed	-3268
▁establish	-3269
▁repe	-3270
▁lin	-3271
co	-3272
▁overall	-3273
▁Ev	-3274
▁dom	-3275
▁Sal	-3276
▁captured	-3277
▁ir	-3278
ournal	-3279
▁pal	-3280
▁birth	-3281
▁division	-3282
▁goals	-3283
▁hall	-3284
gen	-3285
▁Rh	-3286
▁Club	-3287
ocked	-3288
imum	-3289
▁Adm	-3290
▁wrong	-3291
▁seat	-3292
itation	-3293
▁Emp	-3294
ties	-3295
▁create	-3296
▁mostly	-3297
▁Super	-3298
▁script	-3299
▁Bet	-3300
▁doub	-3301
▁health	-3302
oo	-3303
wh	-3304
▁Flor	-3305
▁ago	-3306
ees	-3307
▁ult	-3308
orps	-3309
▁Squadron	-3310
arrow	-3311
een	-3312
gar	-3313
▁episodes	-3314
▁Kore	-3315
▁multip	-3316
▁cand	-3317
▁diss	-3318
▁rose	-3319
icted	-3320
▁Edward	-3321
▁natural	-3322
▁Spanish	-3323
vey	-3324
▁likely	-3325
▁related	-3326
▁village	-3327
mon	-3328
▁except	-3329
uge	-3330
▁professional	-3331
▁Song	-3332
▁simply	-3333
▁thinking	-3334
ellow	-3335
ga	-3336
more	-3337
▁cause	-3338
▁awarded	-3339
▁Enter	-3340
▁Congress	-3341
▁bird	-3342
undred	-3343
can	-3344
igade	-3345
▁pict	-3346
▁Many	-3347
▁di	-3348
▁cas	-3349
▁corn	-3350
olic	-3351
leg	-3352
ek	-3353
▁1960	-3354
▁canc	-3355
▁removed	-3356
▁depart	-3357
II	-3358
▁fans	-3359
aches	-3360
▁managed	-3361
▁situation	-3362
▁conclud	-3363
▁compan	-3364
▁holding	-3365
▁refused	-3366
▁suffered	-3367
▁hell	-3368
▁Pacific	-3369
▁Association	-3370
itect	-3371
▁kil	-3372
▁dig	-3373
▁true	-3374
inn	-3375
bury	-3376
▁complex	-3377
▁imag	-3378
ari	-3379
▁confir	-3380
▁Back	-3381
▁Ro	-3382
▁75	-3383
▁leader	-3384
etic	-3385
▁says	-3386
▁thick	-3387
▁approach	-3388
▁pair	-3389
▁prep	-3390
▁terms	-3391
tained	-3392
▁feature	-3393
arrison	-3394
▁Chicago	-3395
urs	-3396
▁tracks	-3397
▁battles	-3398
▁buildings	-3399
▁discovered	-3400
lor	-3401
▁defin	-3402
abit	-3403
▁okay	-3404
▁breed	-3405
▁Queen	-3406
bers	-3407
▁couple	-3408
▁language	-3409
▁deg	-3410
▁thus	-3411
▁problem	-3412
aily	-3413
▁legs	-3414
▁broadcast	-3415
▁dance	-3416
▁weap	-3417
▁Inter	-3418
▁extended	-3419
▁Scot	-3420
▁fifth	-3421
▁contact	-3422
▁Council	-3423
▁ge	-3424
▁protect	-3425
▁Not	-3426
▁experi	-3427
▁mach	-3428
▁coach	-3429
rica	-3430
▁Billboard	-3431
▁wed	-3432
▁Love	-3433
atives	-3434
▁sleep	-3435
aped	-3436
▁ign	-3437
▁70	-3438
▁flag	-3439
▁suggest	-3440
▁approximately	-3441
anted	-3442
▁nodd	-3443
▁Oper	-3444
▁financ	-3445
▁1998	-3446
▁fine	-3447
▁domin	-3448
▁Jackson	-3449
inese	-3450
venue	-3451
▁soldiers	-3452
▁direction	-3453
▁quarter	-3454
▁operations	-3455
▁Under	-3456
▁target	-3457
▁increase	-3458
▁ris	-3459
▁lyrics	-3460
▁App	-3461
▁Serv	-3462
▁baby	-3463
▁Big	-3464
light	-3465
ella	-3466
ograph	-3467
lymp	-3468
▁Lit	-3469
▁means	-3470
▁Sea	-3471
▁spot	-3472
▁mixed	-3473
▁horse	-3474
▁exam	-3475
▁History	-3476
▁remains	-3477
▁anyone	-3478
▁33	-3479
ify	-3480
▁spl	-3481
▁cm	-3482
iest	-3483
▁meth	-3484
▁Law	-3485
▁laugh	-3486
▁services	-3487
▁expand	-3488
▁occurred	-3489
▁producer	-3490
▁myself	-3491
cean	-3492
▁neck	-3493
ighter	-3494
▁initial	-3495
▁effort	-3496
ux	-3497
▁Olymp	-3498
▁letter	-3499
▁broke	-3500
ems	-3501
▁status	-3502
▁convers	-3503
▁revealed	-3504
▁capital	-3505
▁Rail	-3506
▁shown	-3507
▁fear	-3508
itude	-3509
lands	-3510
▁issues	-3511
▁chance	-3512
▁ring	-3513
▁Ital	-3514
▁double	-3515
▁crow	-3516
▁celebr	-3517
icip	-3518
down	-3519
▁ens	-3520
▁cold	-3521
hew	-3522
▁Fort	-3523
▁includes	-3524
▁issued	-3525
▁green	-3526
izabeth	-3527
▁183	-3528
astern	-3529
uments	-3530
▁nature	-3531
▁showed	-3532
▁adop	-3533
▁Chinese	-3534
▁wait	-3535
stant	-3536
▁Both	-3537
▁accomp	-3538
▁officers	-3539
▁drive	-3540
ughed	-3541
▁countries	-3542
aved	-3543
▁Since	-3544
▁sched	-3545
▁upper	-3546
▁Texas	-3547
▁cho	-3548
▁beat	-3549
▁confl	-3550
▁laughed	-3551
▁copies	-3552
▁Mont	-3553
▁amb	-3554
▁model	-3555
ini	-3556
▁III	-3557
▁dism	-3558
▁everyone	-3559
▁fighting	-3560
ette	-3561
▁Jew	-3562
▁Atlantic	-3563
▁continue	-3564
▁metal	-3565
▁location	-3566
order	-3567
▁respond	-3568
▁product	-3569
▁Trans	-3570
▁cry	-3571
▁appears	-3572
▁interse	-3573
▁Pet	-3574
▁1997	-3575
▁happy	-3576
vert	-3577
▁via	-3578
▁warm	-3579
▁majority	-3580
like	-3581
▁Dist	-3582
▁colon	-3583
omer	-3584
▁Central	-3585
▁sch	-3586
▁loved	-3587
▁distrib	-3588
▁whis	-3589
ounding	-3590
▁tons	-3591
▁Highway	-3592
▁Jim	-3593
▁Lord	-3594
▁newsp	-3595
▁Del	-3596
hold	-3597
▁Bur	-3598
▁Florida	-3599
▁attacked	-3600
▁cann	-3601
ements	-3602
ucted	-3603
▁coin	-3604
▁prec	-3605
▁defend	-3606
▁hundred	-3607
▁Old	-3608
▁starting	-3609
▁concept	-3610
▁train	-3611
▁Town	-3612
eph	-3613
oly	-3614
▁strugg	-3615
▁Mr	-3616
▁gre	-3617
▁suit	-3618
▁eye	-3619
▁composed	-3620
▁below	-3621
reme	-3622
▁Ol	-3623
burg	-3624
▁impact	-3625
ples	-3626
▁Wood	-3627
▁yards	-3628
▁altern	-3629
▁necess	-3630
▁37	-3631
ription	-3632
▁rout	-3633
adium	-3634
▁Another	-3635
▁Sun	-3636
gs	-3637
▁directly	-3638
▁Cam	-3639
▁subsequently	-3640
▁har	-3641
▁instr	-3642
▁smaller	-3643
▁pack	-3644
ech	-3645
▁anc	-3646
▁cer	-3647
▁explained	-3648
▁waiting	-3649
▁sen	-3650
ria	-3651
▁defeat	-3652
▁ranked	-3653
▁happened	-3654
▁Sir	-3655
▁mission	-3656
▁gaze	-3657
onic	-3658
lear	-3659
▁elected	-3660
▁plot	-3661
▁Empire	-3662
▁Tur	-3663
▁Rev	-3664
▁administ	-3665
odies	-3666
▁color	-3667
ironment	-3668
gn	-3669
▁consist	-3670
▁accepted	-3671
▁Dis	-3672
▁jake	-3673
▁Bow	-3674
▁attacks	-3675
▁eth	-3676
▁trust	-3677
▁90	-3678
osen	-3679
▁attempted	-3680
▁cab	-3681
▁Africa	-3682
uated	-3683
▁search	-3684
uries	-3685
▁Mel	-3686
▁presence	-3687
ands	-3688
▁Miss	-3689
▁distance	-3690
▁hope	-3691
de	-3692
▁Earth	-3693
▁Er	-3694
▁declared	-3695
▁Center	-3696
unity	-3697
▁launched	-3698
uing	-3699
rial	-3700
▁quite	-3701
▁energy	-3702
▁Canadian	-3703
▁turning	-3704
▁individual	-3705
▁conditions	-3706
lo	-3707
▁dut	-3708
▁Boy	-3709
▁earned	-3710
▁Lake	-3711
iance	-3712
▁sun	-3713
▁jack	-3714
uals	-3715
olk	-3716
▁damaged	-3717
ien	-3718
▁Tour	-3719
▁selected	-3720
▁commented	-3721
▁respectively	-3722
▁prevent	-3723
arn	-3724
▁Carol	-3725
oms	-3726
▁Its	-3727
▁trip	-3728
▁royal	-3729
▁nodded	-3730
▁1995	-3731
▁rom	-3732
▁indic	-3733
▁Russian	-3734
mit	-3735
▁Sever	-3736
▁qual	-3737
lement	-3738
▁numerous	-3739
▁plat	-3740
▁34	-3741
irty	-3742
▁referred	-3743
ka	-3744
ogue	-3745
▁offer	-3746
▁inspired	-3747
▁Camp	-3748
▁Bu	-3749
▁suc	-3750
rol	-3751
▁serious	-3752
▁princip	-3753
yond	-3754
▁books	-3755
▁college	-3756
atch	-3757
▁ability	-3758
▁associated	-3759
▁operation	-3760
▁crowd	-3761
▁movie	-3762
▁abandon	-3763
▁names	-3764
▁sales	-3765
▁Group	-3766
▁Wales	-3767
ruct	-3768
▁watch	-3769
ancing	-3770
▁piece	-3771
▁Penn	-3772
▁critical	-3773
▁concent	-3774
▁numbers	-3775
awn	-3776
▁seconds	-3777
▁traff	-3778
▁ice	-3779
▁inch	-3780
▁Michigan	-3781
▁contains	-3782
bre	-3783
▁calling	-3784
▁resulted	-3785
▁education	-3786
▁tur	-3787
▁industry	-3788
▁pun	-3789
▁share	-3790
▁Angeles	-3791
bridge	-3792
iny	-3793
▁active	-3794
▁traditional	-3795
chan	-3796
▁Rad	-3797
osaur	-3798
▁realized	-3799
right	-3800
▁38	-3801
aming	-3802
▁strength	-3803
▁spread	-3804
▁portray	-3805
imate	-3806
▁rare	-3807
▁improve	-3808
▁nearby	-3809
▁artist	-3810
pass	-3811
ror	-3812
▁audience	-3813
▁dang	-3814
enant	-3815
▁1950	-3816
ushing	-3817
▁1996	-3818
▁Out	-3819
▁Prod	-3820
estival	-3821
▁ahead	-3822
▁paid	-3823
▁cust	-3824
▁officer	-3825
▁method	-3826
▁reaching	-3827
aine	-3828
▁sides	-3829
▁assigned	-3830
▁Crit	-3831
▁TV	-3832
rier	-3833
▁Year	-3834
road	-3835
rec	-3836
tty	-3837
cle	-3838
▁deliver	-3839
othes	-3840
▁rapid	-3841
▁neigh	-3842
▁largely	-3843
cher	-3844
▁Kent	-3845
▁listed	-3846
rel	-3847
▁bank	-3848
▁architect	-3849
▁hospital	-3850
resh	-3851
▁wild	-3852
quar	-3853
udd	-3854
ils	-3855
▁meaning	-3856
▁singer	-3857
orses	-3858
▁Martin	-3859
▁Arch	-3860
▁notes	-3861
▁sevent	-3862
▁pit	-3863
▁apparent	-3864
▁burn	-3865
▁text	-3866
▁yard	-3867
▁standard	-3868
▁produce	-3869
▁trade	-3870
▁constit	-3871
▁scient	-3872
▁Minister	-3873
▁dra	-3874
▁primary	-3875
▁Tor	-3876
▁1994	-3877
▁closer	-3878
▁separate	-3879
▁tom	-3880
▁theat	-3881
▁opport	-3882
▁1940	-3883
▁expect	-3884
▁presented	-3885
▁DV	-3886
▁older	-3887
oper	-3888
ervation	-3889
▁rate	-3890
▁stories	-3891
ancy	-3892
▁chapter	-3893
▁records	-3894
▁plant	-3895
▁district	-3896
▁legisl	-3897
ansion	-3898
▁drum	-3899
▁ask	-3900
▁adult	-3901
▁China	-3902
claim	-3903
▁Democr	-3904
▁grab	-3905
▁sorry	-3906
▁Viet	-3907
▁laid	-3908
▁conflict	-3909
▁41	-3910
▁watching	-3911
aked	-3912
antasy	-3913
▁filled	-3914
▁Cath	-3915
▁2016	-3916
▁inches	-3917
▁Ter	-3918
▁vehic	-3919
▁jump	-3920
▁sexual	-3921
▁Test	-3922
ims	-3923
▁candid	-3924
▁highly	-3925
▁matches	-3926
win	-3927
astic	-3928
▁Infantry	-3929
aire	-3930
▁Step	-3931
▁competition	-3932
▁Italian	-3933
▁commander	-3934
iated	-3935
ellig	-3936
▁Acad	-3937
irit	-3938
▁180	-3939
▁rob	-3940
▁Republic	-3941
▁vocals	-3942
▁compos	-3943
arp	-3944
▁theme	-3945
isation	-3946
rate	-3947
oured	-3948
▁ending	-3949
▁Team	-3950
▁49	-3951
▁challen	-3952
ste	-3953
▁paper	-3954
▁settle	-3955
▁depression	-3956
che	-3957
▁legal	-3958
▁Madonna	-3959
▁reduced	-3960
▁Mic	-3961
▁bott	-3962
▁path	-3963
▁practice	-3964
▁brown	-3965
▁Mass	-3966
▁DVD	-3967
▁performances	-3968
▁responsible	-3969
▁stone	-3970
▁speak	-3971
▁powerful	-3972
▁constructed	-3973
▁evening	-3974
▁block	-3975
▁unit	-3976
ether	-3977
▁pan	-3978
orter	-3979
▁rough	-3980
▁efforts	-3981
▁religious	-3982
▁attended	-3983
utions	-3984
▁Carl	-3985
▁centre	-3986
▁Sar	-3987
oses	-3988
▁anal	-3989
▁whisper	-3990
▁400	-3991
▁kick	-3992
▁Corps	-3993
ym	-3994
▁property	-3995
▁News	-3996
▁answer	-3997
ares	-3998
▁Scotland	-3999
inet	-4000
house	-4001
▁combat	-4002
▁More	-4003
▁mut	-4004
▁1992	-4005
▁allowing	-4006
▁kilomet	-4007
fl	-4008
ado	-4009
▁levels	-4010
utch	-4011
▁thous	-4012
▁Greek	-4013
▁depend	-4014
cing	-4015
▁comes	-4016
▁rein	-4017
▁Nort	-4018
ceeded	-4019
▁Final	-4020
▁Tre	-4021
▁roll	-4022
▁exactly	-4023
▁Several	-4024
stitute	-4025
▁shoulders	-4026
▁advance	-4027
ona	-4028
▁pushed	-4029
▁firm	-4030
▁Major	-4031
▁Wal	-4032
▁chief	-4033
▁seeing	-4034
▁traffic	-4035
▁houses	-4036
▁Jones	-4037
▁hurt	-4038
haps	-4039
▁shoulder	-4040
▁Ox	-4041
ishop	-4042
gu	-4043
▁Bob	-4044
▁fair	-4045
olt	-4046
▁image	-4047
▁wedding	-4048
▁cerem	-4049
olf	-4050
▁Four	-4051
▁Ver	-4052
▁grin	-4053
▁nick	-4054
▁Matt	-4055
▁mis	-4056
▁suppl	-4057
iot	-4058
▁mine	-4059
illery	-4060
▁positions	-4061
▁controvers	-4062
mas	-4063
▁bal	-4064
▁Cons	-4065
▁annual	-4066
cles	-4067
▁Ty	-4068
ocks	-4069
▁marry	-4070
▁concert	-4071
anna	-4072
▁Chart	-4073
▁termin	-4074
▁recomm	-4075
▁stating	-4076
▁Hal	-4077
▁1930	-4078
▁begins	-4079
▁Sum	-4080
▁nuc	-4081
gl	-4082
▁Parliament	-4083
▁financial	-4084
▁Hel	-4085
▁Long	-4086
▁trail	-4087
▁network	-4088
▁throw	-4089
▁source	-4090
▁shut	-4091
eway	-4092
▁hers	-4093
▁encour	-4094
▁peace	-4095
▁Fox	-4096
▁acting	-4097
add	-4098
▁doll	-4099
▁1993	-4100
▁meas	-4101
▁narrow	-4102
▁Their	-4103
▁forest	-4104
▁wo	-4105
▁som	-4106
▁avoid	-4107
gypt	-4108
▁beyond	-4109
▁Chris	-4110
▁forms	-4111
▁resist	-4112
ulations	-4113
▁Care	-4114
ining	-4115
▁marked	-4116
nam	-4117
▁Georg	-4118
▁encoun	-4119
▁Time	-4120
▁rule	-4121
sych	-4122
▁Ma	-4123
▁Post	-4124
▁55	-4125
▁So	-4126
▁resulting	-4127
▁Gar	-4128
omen	-4129
ersey	-4130
▁culture	-4131
ieut	-4132
rip	-4133
rican	-4134
▁progress	-4135
▁symb	-4136
▁1991	-4137
▁cases	-4138
▁captain	-4139
▁Prince	-4140
▁write	-4141
▁lov	-4142
▁dinner	-4143
▁fit	-4144
▁arrest	-4145
orrow	-4146
▁Foot	-4147
▁owned	-4148
▁suddenly	-4149
itchen	-4150
▁animals	-4151
▁ur	-4152
▁thank	-4153
▁sort	-4154
▁tight	-4155
▁Cor	-4156
iring	-4157
▁continues	-4158
cause	-4159
▁Croat	-4160
▁choice	-4161
▁obv	-4162
emple	-4163
▁Three	-4164
▁Mexico	-4165
▁struck	-4166
▁squadron	-4167
▁bare	-4168
▁variety	-4169
▁Egypt	-4170
▁contrast	-4171
▁nation	-4172
▁Americ	-4173
▁weight	-4174
▁pretty	-4175
umber	-4176
▁Oh	-4177
▁elev	-4178
▁society	-4179
iqu	-4180
ped	-4181
▁cool	-4182
▁Committee	-4183
▁Creek	-4184
▁background	-4185
ider	-4186
▁182	-4187
▁talking	-4188
▁street	-4189
▁du	-4190
▁Kenn	-4191
▁physical	-4192
▁schol	-4193
▁dream	-4194
▁uses	-4195
▁headed	-4196
▁Fore	-4197
peror	-4198
▁African	-4199
▁wing	-4200
▁Zeal	-4201
▁181	-4202
▁Sat	-4203
▁Ire	-4204
ading	-4205
▁48	-4206
▁schools	-4207
MS	-4208
▁enemy	-4209
ledge	-4210
▁Department	-4211
▁Dou	-4212
▁edge	-4213
▁earth	-4214
wide	-4215
▁quality	-4216
▁picked	-4217
▁Society	-4218
inking	-4219
▁Cross	-4220
inem	-4221
▁horses	-4222
▁ded	-4223
ylv	-4224
ibrary	-4225
▁federal	-4226
▁desire	-4227
yer	-4228
track	-4229
ashed	-4230
▁wonder	-4231
arden	-4232
▁exhib	-4233
▁trial	-4234
▁39	-4235
▁reject	-4236
▁prin	-4237
▁Haw	-4238
▁causing	-4239
▁lives	-4240
▁please	-4241
▁reception	-4242
▁gro	-4243
isco	-4244
▁potential	-4245
ection	-4246
▁foreign	-4247
▁environment	-4248
▁castle	-4249
▁passing	-4250
▁edition	-4251
ieutenant	-4252
▁grew	-4253
▁charge	-4254
ih	-4255
illa	-4256
▁sand	-4257
▁square	-4258
mark	-4259
▁Zealand	-4260
▁mr	-4261
atever	-4262
istics	-4263
▁Service	-4264
▁scoring	-4265
▁42	-4266
▁rat	-4267
▁Secret	-4268
aling	-4269
▁heat	-4270
▁jul	-4271
▁Arab	-4272
▁normal	-4273
rett	-4274
▁reaction	-4275
▁Ap	-4276
▁ment	-4277
▁Records	-4278
▁security	-4279
min	-4280
▁tonight	-4281
orped	-4282
▁gather	-4283
load	-4284
under	-4285
▁Stone	-4286
▁179	-4287
▁tail	-4288
▁rang	-4289
▁weather	-4290
▁Paris	-4291
istry	-4292
▁supposed	-4293
▁relatively	-4294
▁incorpor	-4295
ols	-4296
ronic	-4297
▁twice	-4298
▁demonst	-4299
▁Spec	-4300
▁becomes	-4301
▁concluded	-4302
▁conducted	-4303
▁actions	-4304
▁content	-4305
▁bound	-4306
▁drop	-4307
thur	-4308
nds	-4309
bing	-4310
▁escape	-4311
iano	-4312
▁ut	-4313
▁quiet	-4314
▁determined	-4315
▁opin	-4316
▁Wee	-4317
▁fix	-4318
▁economic	-4319
▁lifted	-4320
ications	-4321
▁transferred	-4322
ours	-4323
▁adj	-4324
▁peaked	-4325
▁Jer	-4326
▁Sil	-4327
▁guard	-4328
rif	-4329
▁Stan	-4330
▁multiple	-4331
▁greater	-4332
▁Battalion	-4333
▁science	-4334
▁Leg	-4335
apers	-4336
▁extra	-4337
▁proved	-4338
▁tra	-4339
▁fresh	-4340
▁portion	-4341
annel	-4342
▁championship	-4343
▁Den	-4344
olved	-4345
▁wearing	-4346
▁attempts	-4347
▁winter	-4348
▁billion	-4349
illing	-4350
▁Swed	-4351
▁Admiral	-4352
▁setting	-4353
▁47	-4354
▁viewers	-4355
▁possibly	-4356
▁Fred	-4357
▁rank	-4358
▁broken	-4359
mond	-4360
▁results	-4361
▁1942	-4362
▁Book	-4363
ingu	-4364
writ	-4365
▁Stephen	-4366
▁fully	-4367
▁entr	-4368
▁64	-4369
▁feed	-4370
▁Chief	-4371
▁Dar	-4372
▁growing	-4373
▁Oxford	-4374
ya	-4375
▁Because	-4376
▁expression	-4377
ota	-4378
▁observed	-4379
▁gained	-4380
▁shortly	-4381
▁worth	-4382
▁activity	-4383
▁farm	-4384
▁65	-4385
▁vocal	-4386
▁accident	-4387
▁confirmed	-4388
▁Williams	-4389
▁combined	-4390
▁Wall	-4391
▁founded	-4392
▁behav	-4393
▁companies	-4394
▁featuring	-4395
▁Sur	-4396
▁chem	-4397
▁Latin	-4398
▁Dire	-4399
▁appeal	-4400
▁perhaps	-4401
▁sitting	-4402
▁battleship	-4403
▁terr	-4404
▁titled	-4405
▁distinct	-4406
▁trou	-4407
▁defense	-4408
arian	-4409
uous	-4410
▁Bost	-4411
▁iron	-4412
AS	-4413
▁camer	-4414
ns	-4415
▁truth	-4416
▁Ann	-4417
▁emph	-4418
▁Joseph	-4419
▁collection	-4420
▁kitchen	-4421
▁Che	-4422
▁magn	-4423
▁cyclone	-4424
ita	-4425
▁Tim	-4426
▁function	-4427
▁actor	-4428
▁Ray	-4429
▁walls	-4430
▁primarily	-4431
▁tall	-4432
yon	-4433
▁Win	-4434
▁sweet	-4435
▁losing	-4436
▁Commission	-4437
▁sought	-4438
▁journal	-4439
▁hotel	-4440
▁Sol	-4441
▁mechan	-4442
▁Max	-4443
▁pet	-4444
▁Hung	-4445
▁interp	-4446
▁46	-4447
▁Before	-4448
▁casual	-4449
omy	-4450
▁bud	-4451
clus	-4452
▁oil	-4453
▁transl	-4454
▁pilot	-4455
▁Pan	-4456
▁torped	-4457
▁designated	-4458
▁argued	-4459
▁heavily	-4460
perial	-4461
ners	-4462
ordan	-4463
▁Series	-4464
▁divided	-4465
▁repeated	-4466
unch	-4467
▁Like	-4468
▁surre	-4469
▁prefer	-4470
set	-4471
▁wit	-4472
▁tone	-4473
▁alongside	-4474
▁Bridge	-4475
▁innings	-4476
▁independent	-4477
▁Way	-4478
▁store	-4479
force	-4480
▁44	-4481
uled	-4482
▁ess	-4483
▁faced	-4484
▁Entertain	-4485
▁Luc	-4486
▁Fleet	-4487
oration	-4488
▁knowing	-4489
▁Fre	-4490
▁drew	-4491
▁vess	-4492
▁Little	-4493
▁selling	-4494
▁platform	-4495
▁recent	-4496
▁waters	-4497
iate	-4498
▁tal	-4499
▁prepar	-4500
aylor	-4501
known	-4502
▁plays	-4503
▁require	-4504
▁Hor	-4505
▁maximum	-4506
▁Fur	-4507
▁tells	-4508
▁simple	-4509
▁occasion	-4510
▁Class	-4511
ube	-4512
▁fired	-4513
▁bul	-4514
mitted	-4515
▁replied	-4516
ucky	-4517
▁Avenue	-4518
▁finish	-4519
▁Hurricane	-4520
▁mainly	-4521
▁lap	-4522
▁BBC	-4523
▁Middle	-4524
▁invasion	-4525
▁Life	-4526
▁shell	-4527
▁metres	-4528
▁dru	-4529
chest	-4530
ipping	-4531
▁dismiss	-4532
▁serve	-4533
▁silver	-4534
hi	-4535
▁150	-4536
▁Academy	-4537
▁reform	-4538
▁ultimately	-4539
▁43	-4540
▁telling	-4541
elve	-4542
▁Museum	-4543
▁pieces	-4544
▁remark	-4545
rig	-4546
nament	-4547
za	-4548
▁Jeff	-4549
▁hang	-4550
▁chosen	-4551
▁widely	-4552
▁webs	-4553
▁Victoria	-4554
▁Line	-4555
hell	-4556
▁1920	-4557
▁trees	-4558
▁batter	-4559
▁connect	-4560
▁matt	-4561
▁risk	-4562
ero	-4563
▁relief	-4564
ada	-4565
▁Southern	-4566
itiz	-4567
▁Cle	-4568
▁stepped	-4569
▁Manc	-4570
▁Young	-4571
▁premi	-4572
▁Mod	-4573
▁hero	-4574
aven	-4575
▁52	-4576
▁speech	-4577
isters	-4578
▁conver	-4579
▁equip	-4580
▁greatest	-4581
essed	-4582
▁Games	-4583
▁conne	-4584
▁sout	-4585
▁Entertainment	-4586
▁enter	-4587
▁influenced	-4588
▁corner	-4589
ruit	-4590
▁Gal	-4591
▁whatever	-4592
▁dise	-4593
▁Americans	-4594
▁returning	-4595
▁Pre	-4596
▁Columb	-4597
▁master	-4598
▁1944	-4599
▁Ry	-4600
▁Van	-4601
▁scale	-4602
phy	-4603
come	-4604
▁pregn	-4605
▁Bre	-4606
friend	-4607
▁student	-4608
▁promoted	-4609
▁Regiment	-4610
▁Mat	-4611
quarters	-4612
▁naval	-4613
▁wave	-4614
▁Form	-4615
▁guest	-4616
ety	-4617
▁easily	-4618
▁Captain	-4619
▁Ireland	-4620
▁appearances	-4621
▁saf	-4622
▁poll	-4623
▁document	-4624
▁coff	-4625
▁restaur	-4626
▁Boston	-4627
▁era	-4628
▁consec	-4629
▁university	-4630
while	-4631
▁residents	-4632
▁collect	-4633
▁tears	-4634
▁seg	-4635
▁1945	-4636
bit	-4637
▁Kr	-4638
▁bodies	-4639
▁propos	-4640
▁1941	-4641
▁murder	-4642
▁pattern	-4643
▁policy	-4644
▁Charl	-4645
▁collabor	-4646
▁negot	-4647
▁Arm	-4648
▁Str	-4649
▁seasons	-4650
▁Wind	-4651
▁load	-4652
▁county	-4653
▁thin	-4654
▁tree	-4655
bl	-4656
▁Av	-4657
▁writers	-4658
▁bottom	-4659
aga	-4660
▁Brigade	-4661
▁executive	-4662
▁chose	-4663
▁Joe	-4664
icient	-4665
▁51	-4666
omers	-4667
▁spoke	-4668
▁rating	-4669
▁sixth	-4670
uses	-4671
allow	-4672
▁nominated	-4673
▁officials	-4674
▁mo	-4675
antage	-4676
▁artists	-4677
▁nice	-4678
▁dry	-4679
▁medical	-4680
▁Dev	-4681
▁Saint	-4682
▁yellow	-4683
▁purpose	-4684
▁nerv	-4685
▁condition	-4686
pool	-4687
▁Ram	-4688
▁Sant	-4689
bur	-4690
▁northeast	-4691
▁sources	-4692
▁mentioned	-4693
▁disco	-4694
▁expressed	-4695
inson	-4696
onn	-4697
TV	-4698
▁brothers	-4699
▁computer	-4700
▁flying	-4701
▁tun	-4702
▁Tech	-4703
▁artillery	-4704
eper	-4705
▁versions	-4706
enger	-4707
▁sust	-4708
▁resc	-4709
▁Nin	-4710
▁Jul	-4711
▁represented	-4712
ugh	-4713
▁1989	-4714
▁Harrison	-4715
noon	-4716
▁sam	-4717
▁places	-4718
▁favour	-4719
▁BC	-4720
▁boat	-4721
unction	-4722
▁systems	-4723
▁leaves	-4724
▁orders	-4725
ano	-4726
mission	-4727
▁visited	-4728
ufact	-4729
▁electric	-4730
adel	-4731
▁Italy	-4732
▁capture	-4733
▁sight	-4734
▁equipment	-4735
AA	-4736
▁Di	-4737
▁kg	-4738
▁Live	-4739
acement	-4740
▁Roll	-4741
▁aware	-4742
ylvania	-4743
▁spring	-4744
▁Def	-4745
▁Production	-4746
cend	-4747
▁albums	-4748
▁figures	-4749
▁somew	-4750
▁Valley	-4751
▁Bat	-4752
▁surrounding	-4753
emic	-4754
▁cou	-4755
▁split	-4756
▁newspaper	-4757
ysis	-4758
ordin	-4759
▁Though	-4760
▁subsequent	-4761
▁affected	-4762
▁dim	-4763
stein	-4764
▁shif	-4765
ote	-4766
▁window	-4767
▁Ell	-4768
HL	-4769
▁organization	-4770
iro	-4771
ighth	-4772
▁Football	-4773
▁workers	-4774
▁activities	-4775
▁unp	-4776
ategory	-4777
▁walking	-4778
clusion	-4779
▁Taylor	-4780
▁Catholic	-4781
essions	-4782
▁prompt	-4783
▁Fe	-4784
▁Home	-4785
▁liked	-4786
▁instit	-4787
▁Spr	-4788
▁subs	-4789
acher	-4790
oles	-4791
▁eat	-4792
▁interested	-4793
alle	-4794
▁ideas	-4795
▁identified	-4796
▁Manchester	-4797
enna	-4798
▁luc	-4799
esh	-4800
▁clothes	-4801
▁Lee	-4802
▁Add	-4803
▁1943	-4804
▁satis	-4805
▁belong	-4806
▁stared	-4807
amber	-4808
ighed	-4809
▁psych	-4810
▁reports	-4811
▁weapons	-4812
ington	-4813
ivity	-4814
▁Daniel	-4815
▁prepared	-4816
acity	-4817
▁northwest	-4818
▁afternoon	-4819
▁officially	-4820
▁exped	-4821
▁Through	-4822
▁fought	-4823
▁border	-4824
▁achieve	-4825
▁reign	-4826
▁machine	-4827
▁draft	-4828
▁honor	-4829
▁wel	-4830
▁huge	-4831
tation	-4832
▁treatment	-4833
▁cities	-4834
▁emphas	-4835
uls	-4836
▁MD	-4837
isher	-4838
▁Good	-4839
▁briefly	-4840
ura	-4841
▁surprise	-4842
▁younger	-4843
ells	-4844
▁Jon	-4845
▁flat	-4846
▁Origin	-4847
▁consisted	-4848
▁phil	-4849
▁District	-4850
▁gar	-4851
▁Histor	-4852
▁Scottish	-4853
oma	-4854
▁dog	-4855
▁apartment	-4856
▁Ill	-4857
rick	-4858
▁stret	-4859
▁leaders	-4860
▁delay	-4861
▁extrem	-4862
▁Os	-4863
▁twelve	-4864
▁Mem	-4865
bon	-4866
▁therefore	-4867
▁missed	-4868
▁hoped	-4869
▁debuted	-4870
▁habit	-4871
▁aspect	-4872
▁Tro	-4873
▁kid	-4874
▁studies	-4875
la	-4876
▁tim	-4877
▁theory	-4878
▁Alexander	-4879
▁necessary	-4880
▁instrument	-4881
hire	-4882
lam	-4883
▁shared	-4884
▁Lu	-4885
▁whit	-4886
ifying	-4887
ici	-4888
▁uns	-4889
▁easy	-4890
▁apart	-4891
▁soundtrack	-4892
▁Sub	-4893
▁stom	-4894
▁agreement	-4895
▁contemporary	-4896
▁leaned	-4897
▁Andrew	-4898
▁intellig	-4899
▁Op	-4900
iday	-4901
▁turns	-4902
izes	-4903
▁newly	-4904
▁value	-4905
▁Show	-4906
▁express	-4907
azz	-4908
▁check	-4909
▁claims	-4910
ingly	-4911
▁Upon	-4912
▁maintained	-4913
▁Civil	-4914
▁ye	-4915
▁senior	-4916
▁rac	-4917
▁whispered	-4918
▁focused	-4919
rapped	-4920
▁wounded	-4921
▁nor	-4922
▁Dam	-4923
▁Tropical	-4924
▁poet	-4925
▁Government	-4926
▁Field	-4927
▁fan	-4928
▁Ott	-4929
▁hyd	-4930
▁Penns	-4931
▁injury	-4932
▁Conf	-4933
▁ends	-4934
▁accompan	-4935
isers	-4936
▁prominent	-4937
▁vo	-4938
▁note	-4939
▁adapt	-4940
▁motion	-4941
▁crossed	-4942
▁spect	-4943
▁Rod	-4944
ables	-4945
▁cert	-4946
ockey	-4947
▁reference	-4948
▁comfort	-4949
ias	-4950
▁contained	-4951
▁pleasure	-4952
enny	-4953
lers	-4954
▁Land	-4955
▁degree	-4956
▁strike	-4957
▁element	-4958
▁Carolina	-4959
▁ox	-4960
▁vote	-4961
▁unknown	-4962
▁animal	-4963
▁growth	-4964
aste	-4965
▁Men	-4966
▁53	-4967
kins	-4968
▁authority	-4969
▁Hy	-4970
ayer	-4971
▁narr	-4972
edom	-4973
ila	-4974
▁card	-4975
▁aired	-4976
ipl	-4977
▁regarded	-4978
▁territory	-4979
ev	-4980
▁Norm	-4981
▁Background	-4982
igg	-4983
▁inh	-4984
▁spirit	-4985
utation	-4986
▁entirely	-4987
▁Lo	-4988
aith	-4989
▁1988	-4990
▁Studios	-4991
▁Bus	-4992
▁save	-4993
▁Storm	-4994
▁finding	-4995
▁famous	-4996
▁basis	-4997
▁teeth	-4998
▁passes	-4999
arc	-5000
zen	-5001
▁Top	-5002
▁abandoned	-5003
embly	-5004
▁rub	-5005
▁surrender	-5006
▁budget	-5007
▁stations	-5008
▁Brad	-5009
▁stomach	-5010
▁600	-5011
urban	-5012
erc	-5013
▁Sn	-5014
▁1987	-5015
▁bass	-5016
ais	-5017
▁Light	-5018
ickets	-5019
▁Writ	-5020
▁Marsh	-5021
▁beside	-5022
▁opportunity	-5023
▁label	-5024
▁shirt	-5025
▁frequently	-5026
ilies	-5027
onents	-5028
▁Week	-5029
▁desk	-5030
▁sounds	-5031
rid	-5032
agn	-5033
itely	-5034
▁Allied	-5035
▁criticized	-5036
▁Albert	-5037
▁singles	-5038
▁showing	-5039
▁Bond	-5040
ket	-5041
▁Northern	-5042
▁Mu	-5043
▁follows	-5044
ala	-5045
▁rear	-5046
gian	-5047
▁Dutch	-5048
▁admitted	-5049
▁operated	-5050
▁railway	-5051
esse	-5052
▁landing	-5053
▁aid	-5054
eless	-5055
▁Lew	-5056
▁Senate	-5057
▁tournament	-5058
eness	-5059
▁none	-5060
▁What	-5061
▁enjoyed	-5062
pton	-5063
▁remind	-5064
▁assault	-5065
▁stro	-5066
▁tend	-5067
ublican	-5068
▁serving	-5069
stitution	-5070
fit	-5071
▁tong	-5072
▁settled	-5073
▁formation	-5074
▁rich	-5075
▁Ret	-5076
illy	-5077
▁shru	-5078
rical	-5079
▁severe	-5080
▁Eastern	-5081
▁Pop	-5082
▁Rog	-5083
eller	-5084
orters	-5085
▁worldwide	-5086
▁historian	-5087
orks	-5088
andy	-5089
▁mob	-5090
ashion	-5091
elly	-5092
▁creating	-5093
▁manufact	-5094
▁row	-5095
▁Girl	-5096
acks	-5097
dd	-5098
estic	-5099
▁extend	-5100
▁advantage	-5101
▁Det	-5102
▁flow	-5103
▁forg	-5104
▁Arthur	-5105
▁Governor	-5106
▁shooting	-5107
iverse	-5108
velopment	-5109
▁corre	-5110
▁picture	-5111
rael	-5112
▁calls	-5113
cé	-5114
igr	-5115
▁Blue	-5116
▁learned	-5117
▁opposed	-5118
▁offensive	-5119
▁Ash	-5120
▁wealth	-5121
icks	-5122
▁gent	-5123
▁kissed	-5124
▁97	-5125
▁looks	-5126
▁opposition	-5127
▁Operation	-5128
▁council	-5129
▁experienced	-5130
▁throat	-5131
▁WW	-5132
▁adopted	-5133
▁carrying	-5134
▁76	-5135
▁SS	-5136
▁birds	-5137
▁crossing	-5138
▁drawn	-5139
▁95	-5140
▁Short	-5141
▁vac	-5142
▁bath	-5143
iana	-5144
▁gives	-5145
▁Far	-5146
vy	-5147
▁dyn	-5148
▁brain	-5149
▁1986	-5150
▁clean	-5151
▁roof	-5152
▁Guard	-5153
▁website	-5154
uman	-5155
▁editor	-5156
▁mic	-5157
▁cook	-5158
▁Liber	-5159
▁Night	-5160
▁typically	-5161
ola	-5162
▁seems	-5163
▁Pennsylvania	-5164
ooth	-5165
▁mir	-5166
stone	-5167
▁Alb	-5168
inal	-5169
▁Holly	-5170
ocated	-5171
▁height	-5172
▁conference	-5173
▁Bul	-5174
▁System	-5175
▁intensity	-5176
▁Bor	-5177
▁Georgia	-5178
▁Cub	-5179
▁advanced	-5180
▁rival	-5181
▁Of	-5182
▁recently	-5183
▁bedroom	-5184
▁tower	-5185
▁sharp	-5186
▁weeke	-5187
▁fiction	-5188
▁Colon	-5189
▁goes	-5190
▁glanced	-5191
▁citiz	-5192
rich	-5193
▁failure	-5194
▁measure	-5195
▁Jersey	-5196
▁request	-5197
▁Cy	-5198
gged	-5199
▁fish	-5200
▁governor	-5201
▁consecutive	-5202
▁Ros	-5203
▁Inst	-5204
▁Israel	-5205
▁conversation	-5206
▁aim	-5207
▁fat	-5208
▁missing	-5209
▁opinion	-5210
▁ones	-5211
▁killing	-5212
▁Sa	-5213
▁perman	-5214
▁rejected	-5215
ava	-5216
▁Us	-5217
▁incident	-5218
▁sac	-5219
▁bought	-5220
▁effective	-5221
▁homes	-5222
anes	-5223
▁syn	-5224
▁coffee	-5225
▁85	-5226
▁sports	-5227
▁Hind	-5228
ports	-5229
▁Jud	-5230
▁ble	-5231
anda	-5232
▁ven	-5233
▁bright	-5234
▁safe	-5235
▁interact	-5236
isa	-5237
▁planet	-5238
▁receive	-5239
onent	-5240
▁54	-5241
▁Pen	-5242
▁ways	-5243
▁cannot	-5244
▁article	-5245
▁Each	-5246
uate	-5247
▁Exp	-5248
▁af	-5249
▁guy	-5250
▁Sound	-5251
▁message	-5252
▁cart	-5253
▁deck	-5254
▁participated	-5255
ira	-5256
▁contain	-5257
▁reasons	-5258
amm	-5259
▁Les	-5260
▁actors	-5261
▁RA	-5262
shire	-5263
▁Festival	-5264
▁bag	-5265
▁granted	-5266
▁committee	-5267
▁Mul	-5268
▁criticism	-5269
▁driving	-5270
ultural	-5271
▁column	-5272
rets	-5273
▁egg	-5274
▁core	-5275
▁Harry	-5276
▁Hard	-5277
▁Mike	-5278
▁compar	-5279
▁Bru	-5280
▁Ven	-5281
▁data	-5282
▁attrib	-5283
▁capacity	-5284
▁tele	-5285
▁native	-5286
ients	-5287
▁questions	-5288
osite	-5289
ropri	-5290
▁61	-5291
▁ru	-5292
▁Are	-5293
▁Dun	-5294
▁Fer	-5295
▁producers	-5296
FA	-5297
resp	-5298
▁ast	-5299
▁Chap	-5300
▁leadership	-5301
▁56	-5302
ati	-5303
ifications	-5304
▁memory	-5305
cul	-5306
▁ec	-5307
▁negative	-5308
▁pu	-5309
▁armed	-5310
▁fuel	-5311
▁historical	-5312
▁roles	-5313
▁achieved	-5314
uit	-5315
ishes	-5316
orted	-5317
▁breast	-5318
ption	-5319
▁teach	-5320
▁catch	-5321
ima	-5322
▁Sk	-5323
▁engaged	-5324
▁heads	-5325
▁Jac	-5326
▁Castle	-5327
▁retired	-5328
▁Tra	-5329
▁filmed	-5330
▁knowledge	-5331
▁Revolution	-5332
▁rainfall	-5333
BA	-5334
▁Mean	-5335
▁Sher	-5336
▁concerned	-5337
body	-5338
athan	-5339
▁deploy	-5340
▁didn	-5341
▁roads	-5342
▁Disney	-5343
▁1939	-5344
▁withdraw	-5345
▁Reception	-5346
outs	-5347
rows	-5348
▁Institute	-5349
▁chor	-5350
▁rise	-5351
iments	-5352
▁fellow	-5353
▁steel	-5354
▁feelings	-5355
▁Ohio	-5356
▁Liver	-5357
▁pointed	-5358
▁Christmas	-5359
▁controlled	-5360
▁torpedo	-5361
▁Lind	-5362
▁details	-5363
▁individuals	-5364
▁Beat	-5365
▁statement	-5366
▁Islands	-5367
▁Card	-5368
▁guess	-5369
▁supply	-5370
▁extremely	-5371
hens	-5372
▁diam	-5373
stream	-5374
▁types	-5375
▁singing	-5376
mosp	-5377
oty	-5378
SB	-5379
▁178	-5380
imet	-5381
▁occupied	-5382
▁sequence	-5383
▁expanded	-5384
▁unsu	-5385
▁interchange	-5386
▁Duke	-5387
▁Further	-5388
▁Heart	-5389
▁ath	-5390
water	-5391
▁recognized	-5392
▁filming	-5393
▁evac	-5394
▁Coast	-5395
▁doubt	-5396
amin	-5397
▁Board	-5398
ora	-5399
▁improved	-5400
ba	-5401
▁defensive	-5402
▁177	-5403
▁ceremony	-5404
▁gross	-5405
▁thirty	-5406
▁Pers	-5407
▁entrance	-5408
▁Ocean	-5409
▁damn	-5410
ampion	-5411
▁needs	-5412
▁unf	-5413
▁1968	-5414
cel	-5415
oted	-5416
▁conduct	-5417
▁vir	-5418
attle	-5419
▁Corn	-5420
▁advert	-5421
▁Lar	-5422
▁unus	-5423
▁arrival	-5424
▁expansion	-5425
▁Republican	-5426
▁coal	-5427
umes	-5428
▁flo	-5429
▁household	-5430
▁mile	-5431
ulture	-5432
▁yeah	-5433
▁protection	-5434
▁explos	-5435
war	-5436
▁Spe	-5437
▁pros	-5438
▁Prime	-5439
▁finds	-5440
▁tongue	-5441
▁Public	-5442
▁dial	-5443
▁approached	-5444
▁Clark	-5445
▁creation	-5446
▁kilometres	-5447
▁victoria	-5448
ker	-5449
▁Turn	-5450
▁wrest	-5451
wise	-5452
▁1985	-5453
▁happen	-5454
▁absol	-5455
▁disappear	-5456
▁acad	-5457
▁infantry	-5458
TC	-5459
▁Homer	-5460
▁closely	-5461
▁alex	-5462
▁genus	-5463
▁asking	-5464
▁pulling	-5465
time	-5466
▁lic	-5467
▁je	-5468
▁inte	-5469
▁planning	-5470
▁Jo	-5471
adelph	-5472
▁families	-5473
▁CD	-5474
iations	-5475
▁currently	-5476
▁responded	-5477
▁Never	-5478
▁Korean	-5479
▁Fantasy	-5480
▁handed	-5481
▁witness	-5482
▁lands	-5483
▁purchased	-5484
▁franch	-5485
▁opposite	-5486
▁74	-5487
asha	-5488
▁personnel	-5489
▁Fam	-5490
▁rhy	-5491
▁wine	-5492
▁trains	-5493
▁Square	-5494
▁specim	-5495
▁thoughts	-5496
eral	-5497
itan	-5498
▁Wilson	-5499
usted	-5500
▁neither	-5501
▁rules	-5502
▁management	-5503
gun	-5504
▁relax	-5505
▁containing	-5506
ef	-5507
▁amaz	-5508
▁painting	-5509
▁describes	-5510
▁Due	-5511
▁threw	-5512
▁Philadelph	-5513
▁successfully	-5514
▁Singap	-5515
▁Liverpool	-5516
ads	-5517
▁Cat	-5518
▁Ul	-5519
▁transform	-5520
▁1984	-5521
▁Irish	-5522
▁steam	-5523
▁ancient	-5524
▁keeping	-5525
▁Command	-5526
▁soul	-5527
▁drama	-5528
otic	-5529
▁Broad	-5530
▁Doctor	-5531
▁touchdown	-5532
▁Sup	-5533
▁gain	-5534
da	-5535
▁hired	-5536
▁1967	-5537
▁Serb	-5538
▁Mah	-5539
▁Even	-5540
▁disease	-5541
ii	-5542
▁harm	-5543
▁Elizabeth	-5544
▁accompanied	-5545
dney	-5546
▁Bra	-5547
▁Philadelphia	-5548
▁commissioned	-5549
eds	-5550
know	-5551
▁headquarters	-5552
oked	-5553
rell	-5554
▁impl	-5555
▁scheduled	-5556
▁unique	-5557
▁Germ	-5558
▁piano	-5559
▁desper	-5560
▁assistant	-5561
▁Spain	-5562
iter	-5563
▁solo	-5564
▁labor	-5565
eredith	-5566
rog	-5567
▁hur	-5568
▁Russia	-5569
iration	-5570
▁mounted	-5571
▁willing	-5572
▁Singapore	-5573
gent	-5574
roll	-5575
inity	-5576
▁reading	-5577
imal	-5578
▁contest	-5579
▁seventh	-5580
▁SR	-5581
yles	-5582
▁Bart	-5583
▁Davis	-5584
▁estate	-5585
ram	-5586
▁lose	-5587
▁falling	-5588
▁surprised	-5589
▁McG	-5590
▁angry	-5591
▁Cambridge	-5592
▁stayed	-5593
▁challenge	-5594
▁empt	-5595
▁wanting	-5596
ilton	-5597
▁Beyon	-5598
▁hunter	-5599
▁Gi	-5600
▁800	-5601
icked	-5602
▁snow	-5603
▁orchest	-5604
▁66	-5605
▁organized	-5606
▁paint	-5607
▁appoint	-5608
▁glob	-5609
▁powers	-5610
▁Gra	-5611
ulate	-5612
▁upgr	-5613
▁Nintend	-5614
▁extensive	-5615
andra	-5616
inger	-5617
▁acquired	-5618
▁reputation	-5619
▁plants	-5620
▁sed	-5621
avel	-5622
▁bat	-5623
▁Nintendo	-5624
▁Hun	-5625
itled	-5626
▁Meanwhile	-5627
▁shape	-5628
▁fly	-5629
▁Const	-5630
▁Wat	-5631
▁suggests	-5632
▁pin	-5633
▁Person	-5634
▁authorities	-5635
ipe	-5636
agan	-5637
▁alt	-5638
▁Secretary	-5639
▁Railway	-5640
▁Gib	-5641
▁islands	-5642
▁mountain	-5643
▁paralle	-5644
ali	-5645
box	-5646
worth	-5647
vention	-5648
▁depict	-5649
▁fashion	-5650
▁Mur	-5651
▁administration	-5652
▁1983	-5653
▁buried	-5654
▁contributed	-5655
▁flu	-5656
▁daily	-5657
▁elimin	-5658
▁neighbor	-5659
▁atmosp	-5660
▁Sund	-5661
▁decre	-5662
▁dedicated	-5663
▁dow	-5664
▁Office	-5665
▁Gre	-5666
▁People	-5667
▁defence	-5668
▁battalion	-5669
▁susp	-5670
ourney	-5671
▁motor	-5672
▁unl	-5673
▁shock	-5674
▁Beyoncé	-5675
20	-5676
▁themes	-5677
▁nuclear	-5678
oln	-5679
zy	-5680
▁Conference	-5681
▁apparently	-5682
▁UN	-5683
▁buy	-5684
▁experiment	-5685
▁bands	-5686
▁Ele	-5687
▁commonly	-5688
▁constant	-5689
▁performing	-5690
▁Hon	-5691
▁Mir	-5692
▁sky	-5693
▁Fall	-5694
sey	-5695
▁cup	-5696
▁Album	-5697
respond	-5698
▁address	-5699
▁weekend	-5700
▁ride	-5701
▁supporting	-5702
▁Addition	-5703
▁poem	-5704
▁awards	-5705
▁restaurant	-5706
▁session	-5707
ware	-5708
▁Once	-5709
▁sets	-5710
rence	-5711
▁cultural	-5712
▁Mos	-5713
iences	-5714
▁frust	-5715
avalry	-5716
▁Rel	-5717
▁apprec	-5718
▁protected	-5719
▁Radio	-5720
▁girls	-5721
▁convention	-5722
▁boats	-5723
ua	-5724
▁1969	-5725
▁shark	-5726
▁arranged	-5727
▁sport	-5728
▁flooding	-5729
▁wet	-5730
▁invited	-5731
▁expedition	-5732
▁studied	-5733
▁structures	-5734
▁Among	-5735
▁stock	-5736
▁safety	-5737
▁delivered	-5738
▁comedy	-5739
▁cam	-5740
▁1914	-5741
▁existing	-5742
ante	-5743
mann	-5744
unte	-5745
▁digital	-5746
▁1918	-5747
othing	-5748
iat	-5749
▁120	-5750
▁Linc	-5751
▁adding	-5752
wall	-5753
mouth	-5754
▁Asia	-5755
▁breaking	-5756
▁connected	-5757
▁basket	-5758
▁parties	-5759
cer	-5760
▁Ha	-5761
▁Francisco	-5762
▁Development	-5763
gend	-5764
▁casualties	-5765
▁1972	-5766
▁providing	-5767
▁cricket	-5768
▁lip	-5769
▁1964	-5770
▁letters	-5771
▁Rom	-5772
itors	-5773
▁Anderson	-5774
▁register	-5775
aren	-5776
▁Also	-5777
▁Musl	-5778
▁finger	-5779
▁illust	-5780
▁Ly	-5781
▁Lab	-5782
▁plane	-5783
▁bringing	-5784
verse	-5785
cript	-5786
break	-5787
rowned	-5788
▁titles	-5789
▁1966	-5790
▁worry	-5791
adow	-5792
gest	-5793
▁Mot	-5794
▁demanded	-5795
▁visual	-5796
sp	-5797
▁hal	-5798
▁Columbia	-5799
▁favorite	-5800
▁provides	-5801
icial	-5802
▁convin	-5803
▁van	-5804
▁involve	-5805
▁receiving	-5806
iable	-5807
▁Earl	-5808
▁Hart	-5809
▁liber	-5810
lie	-5811
▁Sus	-5812
▁locations	-5813
▁depth	-5814
▁wants	-5815
▁ban	-5816
▁centuries	-5817
▁Lincoln	-5818
ceived	-5819
▁conve	-5820
▁selection	-5821
raid	-5822
▁Wars	-5823
▁1965	-5824
▁moments	-5825
▁Po	-5826
▁purs	-5827
▁pressed	-5828
▁advent	-5829
ographer	-5830
▁Gro	-5831
unior	-5832
▁swim	-5833
▁rapidly	-5834
▁Balt	-5835
▁Wild	-5836
▁Ur	-5837
▁intention	-5838
▁Common	-5839
▁doctor	-5840
▁Att	-5841
▁definitely	-5842
▁Lewis	-5843
theless	-5844
▁speaking	-5845
where	-5846
▁Child	-5847
▁publication	-5848
▁occas	-5849
Station	-5850
▁Gulf	-5851
▁Lieutenant	-5852
▁HMS	-5853
▁consists	-5854
▁temperature	-5855
ader	-5856
▁anger	-5857
▁comic	-5858
▁PlayStation	-5859
▁correspond	-5860
senal	-5861
▁exerc	-5862
▁1971	-5863
▁Burn	-5864
aka	-5865
ossible	-5866
▁barely	-5867
▁shel	-5868
▁1979	-5869
▁58	-5870
▁Six	-5871
opher	-5872
▁57	-5873
lete	-5874
▁spend	-5875
▁gentle	-5876
▁Jean	-5877
▁Nap	-5878
▁1982	-5879
▁send	-5880
▁waist	-5881
▁philos	-5882
▁symbol	-5883
▁actress	-5884
iform	-5885
▁Braz	-5886
▁resident	-5887
▁submar	-5888
standing	-5889
▁End	-5890
cious	-5891
▁Between	-5892
▁myth	-5893
▁campus	-5894
▁reflect	-5895
30	-5896
▁Nick	-5897
▁1974	-5898
▁whitney	-5899
▁Vol	-5900
▁intersection	-5901
▁agent	-5902
▁scholars	-5903
inth	-5904
▁hyp	-5905
▁retire	-5906
▁tact	-5907
▁tank	-5908
razy	-5909
▁autom	-5910
▁cars	-5911
▁dram	-5912
▁slid	-5913
▁refle	-5914
▁acknow	-5915
▁industrial	-5916
no	-5917
▁introduction	-5918
▁belief	-5919
och	-5920
▁Review	-5921
▁camera	-5922
▁notable	-5923
▁Democratic	-5924
▁employed	-5925
▁Ta	-5926
▁reality	-5927
orge	-5928
▁putting	-5929
▁adap	-5930
▁grabbed	-5931
▁roughly	-5932
icate	-5933
▁beach	-5934
▁losses	-5935
▁viewed	-5936
▁analysis	-5937
▁Order	-5938
▁anticip	-5939
▁promise	-5940
va	-5941
eman	-5942
inary	-5943
▁extr	-5944
▁steps	-5945
▁projects	-5946
▁Pot	-5947
istol	-5948
▁launch	-5949
▁torn	-5950
ador	-5951
▁Steve	-5952
▁Jewish	-5953
▁defined	-5954
▁jer	-5955
▁sell	-5956
ulpt	-5957
▁77	-5958
▁sighed	-5959
▁smooth	-5960
▁assumed	-5961
▁emp	-5962
▁Ross	-5963
▁waited	-5964
iliar	-5965
▁soph	-5966
▁Pu	-5967
▁substant	-5968
ologist	-5969
▁instru	-5970
mes	-5971
▁Dark	-5972
▁Naz	-5973
iger	-5974
acter	-5975
▁injured	-5976
▁approved	-5977
▁lb	-5978
▁Bank	-5979
▁Polish	-5980
▁secure	-5981
▁explain	-5982
▁maintain	-5983
▁capable	-5984
etts	-5985
▁solid	-5986
▁graph	-5987
▁Prem	-5988
▁rated	-5989
▁obl	-5990
▁declined	-5991
▁eld	-5992
▁gall	-5993
▁Rome	-5994
▁branch	-5995
▁*	-5996
▁Who	-5997
▁exclus	-5998
▁resistance	-5999
▁Victor	-6000
▁concer	-6001
▁Conn	-6002
▁Carey	-6003
▁decor	-6004
▁noticed	-6005
▁Ten	-6006
▁sad	-6007
▁pool	-6008
▁charts	-6009
▁Lady	-6010
asty	-6011
▁Summer	-6012
▁franchise	-6013
▁1973	-6014
how	-6015
▁gently	-6016
▁Supreme	-6017
▁semi	-6018
then	-6019
▁facilities	-6020
▁threatened	-6021
▁spin	-6022
▁Jr	-6023
▁agree	-6024
▁die	-6025
▁Daily	-6026
▁secondary	-6027
avig	-6028
▁owner	-6029
▁plate	-6030
▁regarding	-6031
ignment	-6032
▁Germans	-6033
▁existence	-6034
▁storyline	-6035
▁proceed	-6036
heim	-6037
▁Brian	-6038
▁overl	-6039
▁significantly	-6040
lee	-6041
▁59	-6042
▁err	-6043
▁fer	-6044
▁Hit	-6045
▁mort	-6046
▁warning	-6047
kes	-6048
ordon	-6049
bound	-6050
using	-6051
▁collected	-6052
bell	-6053
▁volume	-6054
▁beneath	-6055
▁promotion	-6056
▁unsuccess	-6057
onym	-6058
▁dressed	-6059
eler	-6060
▁isol	-6061
osis	-6062
▁merch	-6063
▁youth	-6064
ato	-6065
▁Gall	-6066
▁consequ	-6067
▁drink	-6068
▁drove	-6069
gal	-6070
▁Moore	-6071
▁Bad	-6072
▁Point	-6073
▁softly	-6074
▁southeast	-6075
met	-6076
bro	-6077
▁1975	-6078
▁1976	-6079
▁Water	-6080
▁supplies	-6081
zant	-6082
istan	-6083
▁items	-6084
▁combination	-6085
hat	-6086
▁sole	-6087
▁sites	-6088
ilding	-6089
▁proposal	-6090
idden	-6091
▁shaped	-6092
▁Ca	-6093
▁rooms	-6094
▁economy	-6095
▁Independ	-6096
▁Base	-6097
ls	-6098
apes	-6099
▁vehicles	-6100
▁Hollywood	-6101
gers	-6102
omic	-6103
▁Hay	-6104
zer	-6105
▁Var	-6106
▁alle	-6107
▁NHL	-6108
pective	-6109
▁Only	-6110
▁Press	-6111
▁tomorrow	-6112
▁connection	-6113
▁remov	-6114
night	-6115
▁relie	-6116
▁62	-6117
▁neut	-6118
coming	-6119
▁images	-6120
▁exchange	-6121
▁remembered	-6122
▁increasingly	-6123
▁Fair	-6124
▁Theat	-6125
▁bot	-6126
▁moder	-6127
▁Byzant	-6128
▁silence	-6129
▁Imp	-6130
▁duty	-6131
▁agric	-6132
▁worst	-6133
ographic	-6134
▁Ep	-6135
▁Tod	-6136
▁Gree	-6137
hetic	-6138
▁rebu	-6139
itchell	-6140
▁replace	-6141
▁enl	-6142
▁hung	-6143
▁museum	-6144
▁underst	-6145
▁Run	-6146
▁equal	-6147
▁possibility	-6148
burgh	-6149
▁virt	-6150
▁cheek	-6151
bar	-6152
▁Prin	-6153
awa	-6154
▁passion	-6155
cts	-6156
▁cells	-6157
▁Brazil	-6158
▁developing	-6159
irk	-6160
▁Coll	-6161
▁description	-6162
▁allows	-6163
▁Die	-6164
▁freeway	-6165
▁mia	-6166
▁lean	-6167
engers	-6168
▁Arsenal	-6169
▁page	-6170
▁christ	-6171
▁circum	-6172
▁driver	-6173
▁stages	-6174
▁von	-6175
▁lasted	-6176
▁Dream	-6177
▁Mas	-6178
▁1981	-6179
▁applied	-6180
▁700	-6181
▁surrounded	-6182
▁1978	-6183
▁prem	-6184
▁Emperor	-6185
achus	-6186
▁learn	-6187
vis	-6188
ompl	-6189
erted	-6190
▁technology	-6191
▁composition	-6192
▁hydro	-6193
▁72	-6194
greg	-6195
▁undert	-6196
▁operating	-6197
▁spok	-6198
ubb	-6199
▁citizens	-6200
▁250	-6201
anger	-6202
earch	-6203
▁sculpt	-6204
▁retreat	-6205
▁wrapped	-6206
▁Brook	-6207
wen	-6208
▁IV	-6209
▁regions	-6210
▁Nat	-6211
▁bear	-6212
▁cloud	-6213
▁towns	-6214
▁Special	-6215
put	-6216
▁Indust	-6217
▁renamed	-6218
oir	-6219
▁99	-6220
▁sick	-6221
▁indicated	-6222
▁alternative	-6223
▁specifically	-6224
▁AC	-6225
▁yourself	-6226
▁succeeded	-6227
▁Ron	-6228
▁Sel	-6229
▁thanks	-6230
▁Ka	-6231
▁Station	-6232
▁manner	-6233
▁78	-6234
▁mad	-6235
▁humans	-6236
idd	-6237
▁dangerous	-6238
▁wish	-6239
▁accompl	-6240
▁designs	-6241
▁popularity	-6242
▁1917	-6243
▁Miller	-6244
▁limit	-6245
▁Head	-6246
▁knots	-6247
▁candidate	-6248
▁91	-6249
▁Vietnam	-6250
▁cited	-6251
father	-6252
▁distingu	-6253
aret	-6254
▁hol	-6255
▁emerg	-6256
▁1946	-6257
▁Walter	-6258
▁converted	-6259
osl	-6260
issance	-6261
▁Du	-6262
▁touched	-6263
▁96	-6264
atures	-6265
FL	-6266
osh	-6267
▁alc	-6268
▁afraid	-6269
▁baseball	-6270
▁windows	-6271
▁1977	-6272
▁Prov	-6273
▁views	-6274
vest	-6275
bourne	-6276
▁attached	-6277
▁independence	-6278
ician	-6279
▁hits	-6280
▁athlet	-6281
▁meredith	-6282
▁63	-6283
▁67	-6284
▁toss	-6285
eline	-6286
▁southwest	-6287
▁intense	-6288
unicip	-6289
▁formal	-6290
▁sustained	-6291
▁73	-6292
▁arc	-6293
▁producing	-6294
▁et	-6295
oard	-6296
▁Ast	-6297
▁Bas	-6298
▁tied	-6299
▁blake	-6300
▁acres	-6301
▁fal	-6302
achusetts	-6303
▁ham	-6304
▁models	-6305
▁Elect	-6306
ntown	-6307
▁Vill	-6308
▁drag	-6309
aware	-6310
▁gets	-6311
atically	-6312
thm	-6313
phoon	-6314
▁Main	-6315
▁stuff	-6316
▁hearing	-6317
▁clay	-6318
▁Songs	-6319
▁commit	-6320
▁scientific	-6321
▁entry	-6322
▁Women	-6323
▁otherwise	-6324
▁temple	-6325
▁constitution	-6326
ko	-6327
▁Tam	-6328
▁Norway	-6329
▁Imperial	-6330
▁programs	-6331
▁68	-6332
▁trouble	-6333
▁sections	-6334
▁1963	-6335
▁sid	-6336
ucing	-6337
▁frag	-6338
▁resour	-6339
▁literature	-6340
▁69	-6341
▁vent	-6342
▁lying	-6343
▁Golden	-6344
▁eleven	-6345
▁gameplay	-6346
▁retained	-6347
▁pow	-6348
uration	-6349
▁Colonel	-6350
▁Ken	-6351
▁price	-6352
li	-6353
▁Jay	-6354
▁rum	-6355
▁MTV	-6356
▁jaw	-6357
▁Sydney	-6358
▁affect	-6359
▁politics	-6360
ucks	-6361
▁smiling	-6362
▁recalled	-6363
lyn	-6364
▁laws	-6365
napped	-6366
▁domestic	-6367
▁Massachusetts	-6368
▁Airport	-6369
wich	-6370
▁fruit	-6371
▁pregnant	-6372
▁certainly	-6373
▁repair	-6374
▁task	-6375
orporation	-6376
▁1948	-6377
▁usual	-6378
claimed	-6379
▁Rem	-6380
enses	-6381
▁Down	-6382
▁crimin	-6383
▁160	-6384
▁ere	-6385
▁dated	-6386
▁opera	-6387
▁answered	-6388
▁Mulder	-6389
▁survived	-6390
▁violence	-6391
ji	-6392
▁consum	-6393
▁Shortly	-6394
▁impossible	-6395
▁loud	-6396
▁1919	-6397
hus	-6398
lan	-6399
▁doors	-6400
▁classes	-6401
▁Stand	-6402
▁journey	-6403
▁online	-6404
▁elizabeth	-6405
state	-6406
▁starts	-6407
tical	-6408
▁Sand	-6409
itated	-6410
▁Maryland	-6411
▁attracted	-6412
mun	-6413
wick	-6414
era	-6415
▁hip	-6416
▁wore	-6417
▁chuck	-6418
▁urban	-6419
▁univers	-6420
▁89	-6421
ulous	-6422
▁Your	-6423
▁airport	-6424
▁clearly	-6425
▁descend	-6426
▁About	-6427
▁Wrest	-6428
▁phase	-6429
▁hoping	-6430
▁settlement	-6431
onia	-6432
▁Net	-6433
▁Staff	-6434
▁armor	-6435
▁actual	-6436
▁credited	-6437
▁convinced	-6438
▁Bern	-6439
▁Bry	-6440
▁1915	-6441
▁Plan	-6442
▁lane	-6443
▁pure	-6444
▁library	-6445
otten	-6446
▁correct	-6447
▁gradually	-6448
iley	-6449
▁Init	-6450
▁raise	-6451
án	-6452
▁Arts	-6453
▁Ari	-6454
▁Bell	-6455
▁joint	-6456
▁decade	-6457
▁department	-6458
▁Nov	-6459
▁behavior	-6460
▁winner	-6461
▁promised	-6462
▁98	-6463
▁Let	-6464
ighters	-6465
▁engines	-6466
▁kingdom	-6467
▁responsibility	-6468
itter	-6469
▁Alan	-6470
▁freedom	-6471
▁lat	-6472
▁earliest	-6473
▁obviously	-6474
iques	-6475
▁Moon	-6476
▁listen	-6477
▁grounds	-6478
iversary	-6479
▁Hamilton	-6480
▁Ho	-6481
▁discover	-6482
▁reserve	-6483
math	-6484
▁71	-6485
▁conqu	-6486
▁jason	-6487
izations	-6488
▁entering	-6489
▁acts	-6490
▁ocean	-6491
▁Age	-6492
▁Kentucky	-6493
▁wished	-6494
▁hat	-6495
▁Anth	-6496
▁Kim	-6497
▁mand	-6498
▁teen	-6499
▁playoff	-6500
▁Naval	-6501
▁moves	-6502
▁noting	-6503
▁Whe	-6504
▁Scient	-6505
▁forget	-6506
▁notice	-6507
▁weakened	-6508
urring	-6509
▁coastal	-6510
▁Whit	-6511
▁offers	-6512
▁download	-6513
▁empty	-6514
▁voted	-6515
▁Commun	-6516
▁Constant	-6517
▁Roy	-6518
▁Here	-6519
▁Stadium	-6520
▁88	-6521
▁Pur	-6522
▁faith	-6523
▁arrested	-6524
▁genre	-6525
▁regiment	-6526
ylan	-6527
▁lie	-6528
ieval	-6529
▁stadium	-6530
▁Nic	-6531
▁Rhodes	-6532
▁Olympic	-6533
▁Fire	-6534
▁hill	-6535
▁Cape	-6536
itable	-6537
▁crime	-6538
gas	-6539
▁Pass	-6540
▁lob	-6541
▁Ottoman	-6542
▁Theatre	-6543
▁battery	-6544
icit	-6545
ails	-6546
▁install	-6547
rete	-6548
▁boss	-6549
▁FA	-6550
lines	-6551
▁acid	-6552
▁denied	-6553
ommod	-6554
cus	-6555
insula	-6556
▁anyway	-6557
after	-6558
▁importance	-6559
▁drawing	-6560
▁81	-6561
▁1916	-6562
akers	-6563
uting	-6564
▁sail	-6565
cription	-6566
▁typical	-6567
ervative	-6568
▁equipped	-6569
▁driven	-6570
▁honest	-6571
boy	-6572
▁impr	-6573
▁partner	-6574
▁hes	-6575
psons	-6576
▁concerns	-6577
▁commanded	-6578
▁boys	-6579
▁spons	-6580
▁breeding	-6581
▁Sav	-6582
▁entitled	-6583
elle	-6584
suit	-6585
▁prisoners	-6586
▁tie	-6587
▁shaking	-6588
ario	-6589
fted	-6590
ansas	-6591
▁survey	-6592
▁portrayed	-6593
▁begun	-6594
▁Simpsons	-6595
nic	-6596
▁rot	-6597
▁spr	-6598
▁Prof	-6599
▁identity	-6600
▁Bowl	-6601
▁inner	-6602
▁males	-6603
▁duties	-6604
▁reduce	-6605
▁charged	-6606
IA	-6607
▁ruled	-6608
▁equival	-6609
▁revolution	-6610
▁Inc	-6611
▁nest	-6612
▁committed	-6613
asp	-6614
don	-6615
▁Ok	-6616
iege	-6617
leton	-6618
▁dates	-6619
▁references	-6620
▁controversy	-6621
▁liqu	-6622
▁dating	-6623
▁nic	-6624
▁fold	-6625
▁investigation	-6626
▁Instead	-6627
▁Portug	-6628
▁Spring	-6629
▁overse	-6630
▁mart	-6631
▁79	-6632
issa	-6633
ja	-6634
▁cinem	-6635
▁movements	-6636
▁odd	-6637
▁staring	-6638
▁distribution	-6639
▁accur	-6640
atherine	-6641
▁wonderful	-6642
▁Stew	-6643
▁IG	-6644
▁Loc	-6645
▁Death	-6646
▁brand	-6647
▁accused	-6648
achel	-6649
▁82	-6650
▁Ob	-6651
▁sons	-6652
▁87	-6653
▁pill	-6654
▁persu	-6655
▁flew	-6656
▁passenger	-6657
▁Pict	-6658
▁Confeder	-6659
▁appropri	-6660
▁internal	-6661
▁romantic	-6662
▁parliament	-6663
▁wides	-6664
▁females	-6665
▁entertain	-6666
▁Maria	-6667
▁penal	-6668
▁integr	-6669
▁adapted	-6670
▁installed	-6671
▁Yan	-6672
▁thor	-6673
▁tanks	-6674
▁landfall	-6675
▁closing	-6676
▁synt	-6677
▁Gordon	-6678
▁Indiana	-6679
▁nomination	-6680
▁avo	-6681
▁oldest	-6682
▁id	-6683
▁finishing	-6684
▁basketball	-6685
▁routes	-6686
▁gray	-6687
▁nervous	-6688
▁minister	-6689
▁instantly	-6690
▁scr	-6691
▁Adam	-6692
▁1962	-6693
▁Ball	-6694
▁divor	-6695
attered	-6696
olis	-6697
inois	-6698
▁funds	-6699
▁worried	-6700
▁deaths	-6701
icious	-6702
cks	-6703
▁WWE	-6704
▁principal	-6705
aints	-6706
▁alcoh	-6707
▁shifted	-6708
▁Director	-6709
▁Alf	-6710
▁recovered	-6711
▁Ryan	-6712
▁drug	-6713
osaurus	-6714
▁incred	-6715
▁preced	-6716
entially	-6717
emies	-6718
▁glad	-6719
▁credit	-6720
▁thousands	-6721
itage	-6722
▁considerable	-6723
burn	-6724
▁helping	-6725
▁Thor	-6726
▁departure	-6727
▁ben	-6728
pread	-6729
▁purchase	-6730
▁landed	-6731
▁Philipp	-6732
▁permanent	-6733
▁Bir	-6734
▁massive	-6735
▁sigh	-6736
▁prey	-6737
▁Scully	-6738
▁NBA	-6739
AT	-6740
▁Bal	-6741
▁cous	-6742
▁fict	-6743
▁exception	-6744
▁eru	-6745
▁volunte	-6746
lets	-6747
▁rolled	-6748
▁dad	-6749
▁normally	-6750
▁seriously	-6751
olm	-6752
▁uncle	-6753
▁hide	-6754
▁writes	-6755
▁thousand	-6756
▁recognition	-6757
▁intelligence	-6758
▁pink	-6759
▁Justice	-6760
▁Singles	-6761
▁175	-6762
regon	-6763
▁Band	-6764
▁treated	-6765
▁Hug	-6766
▁pock	-6767
omot	-6768
▁resemb	-6769
icles	-6770
▁Power	-6771
▁absor	-6772
▁shots	-6773
▁accommod	-6774
▁san	-6775
▁Grant	-6776
▁posted	-6777
▁satisf	-6778
▁returns	-6779
▁interesting	-6780
▁implement	-6781
arrass	-6782
▁basic	-6783
▁AD	-6784
▁Today	-6785
stances	-6786
▁occasionally	-6787
▁margin	-6788
▁strongly	-6789
ela	-6790
▁Dougl	-6791
ructure	-6792
▁aspects	-6793
▁Howard	-6794
▁religion	-6795
▁1910	-6796
▁calm	-6797
▁extension	-6798
▁94	-6799
▁fro	-6800
▁Oregon	-6801
▁Science	-6802
heme	-6803
▁micro	-6804
▁informed	-6805
▁fil	-6806
▁valley	-6807
▁animated	-6808
▁Now	-6809
▁Olympics	-6810
▁Han	-6811
borne	-6812
▁letting	-6813
oyd	-6814
▁deliber	-6815
▁causes	-6816
▁colour	-6817
aza	-6818
urrent	-6819
▁Space	-6820
▁remainder	-6821
▁wheel	-6822
▁spending	-6823
▁julie	-6824
▁income	-6825
abe	-6826
utely	-6827
▁eighth	-6828
▁meters	-6829
▁push	-6830
▁Beach	-6831
▁emerged	-6832
▁autumn	-6833
▁observ	-6834
▁Robinson	-6835
▁photograph	-6836
▁mode	-6837
▁volcan	-6838
▁heading	-6839
▁recommended	-6840
▁Video	-6841
▁embarrass	-6842
▁Kar	-6843
▁Project	-6844
▁promote	-6845
▁1936	-6846
▁Circ	-6847
▁convoy	-6848
▁unusual	-6849
▁worse	-6850
▁dollars	-6851
▁composer	-6852
▁consisting	-6853
ierce	-6854
▁debate	-6855
▁effectively	-6856
▁replacement	-6857
▁Work	-6858
▁carefully	-6859
▁ash	-6860
anny	-6861
▁administr	-6862
▁1956	-6863
▁supporters	-6864
▁ridge	-6865
▁deleg	-6866
eld	-6867
▁Greg	-6868
▁aer	-6869
▁IGN	-6870
▁dub	-6871
▁Master	-6872
▁vul	-6873
▁Walk	-6874
▁Argent	-6875
▁Gil	-6876
▁emotional	-6877
▁handle	-6878
▁130	-6879
▁Mars	-6880
▁cris	-6881
▁grown	-6882
▁vessels	-6883
umin	-6884
rave	-6885
▁advice	-6886
wing	-6887
▁Tri	-6888
iller	-6889
▁decades	-6890
▁laughing	-6891
▁Kelly	-6892
▁fifteen	-6893
acked	-6894
▁Phill	-6895
BS	-6896
▁forcing	-6897
▁Critical	-6898
▁zone	-6899
▁84	-6900
▁DE	-6901
▁courts	-6902
▁Bos	-6903
rible	-6904
aug	-6905
emed	-6906
▁1961	-6907
▁Engine	-6908
▁products	-6909
▁passengers	-6910
oz	-6911
▁shore	-6912
una	-6913
encies	-6914
▁decline	-6915
▁Croatian	-6916
▁downtown	-6917
▁Plot	-6918
▁Hou	-6919
▁Feder	-6920
▁shall	-6921
▁Memorial	-6922
elsh	-6923
▁taste	-6924
▁excell	-6925
▁obtained	-6926
uthor	-6927
▁highlight	-6928
▁describing	-6929
▁mole	-6930
▁ISB	-6931
rupted	-6932
▁familiar	-6933
▁dismissed	-6934
▁Transport	-6935
▁demol	-6936
▁memorial	-6937
▁hug	-6938
▁chorus	-6939
icop	-6940
▁ISBN	-6941
▁fault	-6942
▁widespread	-6943
▁Jes	-6944
▁rural	-6945
▁Morris	-6946
oster	-6947
▁involving	-6948
▁Ve	-6949
emble	-6950
▁Gill	-6951
▁Rain	-6952
▁facing	-6953
▁charges	-6954
▁streets	-6955
▁transition	-6956
loe	-6957
▁1937	-6958
▁impressed	-6959
▁1938	-6960
▁remix	-6961
▁burst	-6962
▁belt	-6963
▁dipl	-6964
▁Military	-6965
▁eggs	-6966
▁Freder	-6967
aud	-6968
▁Treat	-6969
▁vision	-6970
▁NC	-6971
▁exha	-6972
▁assistance	-6973
▁scre	-6974
▁separated	-6975
umph	-6976
▁occurs	-6977
▁crazy	-6978
▁loyal	-6979
ras	-6980
▁grass	-6981
▁86	-6982
▁Barb	-6983
▁overw	-6984
▁fallen	-6985
▁somewhat	-6986
▁difference	-6987
▁properties	-6988
▁Morgan	-6989
▁atmosphere	-6990
▁Pear	-6991
▁badly	-6992
▁theatre	-6993
▁Magazine	-6994
▁Nether	-6995
▁Constitution	-6996
you	-6997
▁Leon	-6998
▁Weekly	-6999
▁ensure	-7000
▁Bristol	-7001
▁Research	-7002
▁shrugged	-7003
sew	-7004
anean	-7005
▁1947	-7006
▁Douglas	-7007
▁lies	-7008
▁Turk	-7009
▁cens	-7010
▁lady	-7011
▁Roger	-7012
▁sounded	-7013
▁interior	-7014
▁hips	-7015
▁Adams	-7016
▁Norwe	-7017
▁regularly	-7018
▁temporary	-7019
agues	-7020
▁sailed	-7021
aki	-7022
vens	-7023
▁Third	-7024
▁Ra	-7025
▁ille	-7026
▁Tar	-7027
▁calc	-7028
▁Andy	-7029
▁dancing	-7030
▁spark	-7031
ilation	-7032
▁Rolling	-7033
ige	-7034
▁110	-7035
▁Rose	-7036
▁Channel	-7037
▁VII	-7038
▁Educ	-7039
anth	-7040
▁Premier	-7041
▁intent	-7042
▁derived	-7043
▁pitch	-7044
▁battleships	-7045
▁Bon	-7046
▁hen	-7047
▁sessions	-7048
▁stun	-7049
hedral	-7050
▁Assembly	-7051
▁biggest	-7052
▁acknowled	-7053
▁employees	-7054
han	-7055
▁Kennedy	-7056
▁equivalent	-7057
char	-7058
olas	-7059
ensions	-7060
▁folk	-7061
▁blind	-7062
▁arrangement	-7063
▁ju	-7064
▁trem	-7065
▁Five	-7066
ache	-7067
▁Rele	-7068
▁preferred	-7069
▁cock	-7070
agu	-7071
uts	-7072
ture	-7073
▁justice	-7074
isms	-7075
▁Tony	-7076
▁reluct	-7077
eed	-7078
urday	-7079
▁fields	-7080
▁busy	-7081
▁cryst	-7082
▁certified	-7083
▁Throughout	-7084
▁tension	-7085
▁Recording	-7086
▁childhood	-7087
▁Web	-7088
▁cul	-7089
▁bond	-7090
▁grant	-7091
bled	-7092
riers	-7093
▁Welsh	-7094
▁protest	-7095
▁detect	-7096
▁absence	-7097
▁Conc	-7098
▁forming	-7099
▁ho	-7100
▁1957	-7101
▁inher	-7102
▁conclusion	-7103
▁Gen	-7104
▁discussed	-7105
▁destruction	-7106
▁Gun	-7107
abled	-7108
▁sequel	-7109
har	-7110
▁clubs	-7111
▁enemies	-7112
▁surviving	-7113
▁challeng	-7114
▁stick	-7115
▁understood	-7116
▁Row	-7117
▁afterwards	-7118
▁completion	-7119
oen	-7120
▁generation	-7121
▁Yanke	-7122
▁costs	-7123
▁materials	-7124
atinum	-7125
▁alive	-7126
oking	-7127
▁chemical	-7128
▁outbreak	-7129
▁tiny	-7130
▁Forest	-7131
▁1959	-7132
▁admit	-7133
▁vide	-7134
▁polic	-7135
▁distract	-7136
▁Low	-7137
▁suffering	-7138
▁Found	-7139
▁painted	-7140
▁understanding	-7141
▁DNA	-7142
▁Int	-7143
▁UTC	-7144
▁nose	-7145
▁poly	-7146
▁Media	-7147
▁Philip	-7148
▁colony	-7149
▁songwrit	-7150
▁Aut	-7151
▁1954	-7152
▁wickets	-7153
ye	-7154
▁serves	-7155
oslav	-7156
ilty	-7157
aniel	-7158
▁enthus	-7159
chang	-7160
▁accounts	-7161
▁technical	-7162
▁encouraged	-7163
▁argument	-7164
▁Ru	-7165
▁92	-7166
AC	-7167
▁hosted	-7168
▁stands	-7169
▁Az	-7170
▁judge	-7171
▁quant	-7172
▁racing	-7173
▁Federal	-7174
bey	-7175
ses	-7176
▁Poland	-7177
▁select	-7178
▁objects	-7179
uty	-7180
▁humor	-7181
▁patrol	-7182
▁segment	-7183
▁waves	-7184
▁strengthen	-7185
ivals	-7186
▁Mountain	-7187
yard	-7188
▁greatly	-7189
▁Cro	-7190
▁medal	-7191
▁votes	-7192
▁Family	-7193
▁electron	-7194
▁missions	-7195
uther	-7196
▁aboard	-7197
▁classic	-7198
▁covering	-7199
▁divisions	-7200
▁Raj	-7201
ctors	-7202
teenth	-7203
▁requested	-7204
aser	-7205
▁code	-7206
▁dissip	-7207
iva	-7208
▁Gram	-7209
▁Roberts	-7210
▁besides	-7211
▁Norwegian	-7212
ental	-7213
iterr	-7214
orney	-7215
▁1953	-7216
▁symp	-7217
▁brigade	-7218
▁announce	-7219
▁Dig	-7220
▁Mov	-7221
▁Islam	-7222
yes	-7223
▁ancest	-7224
▁methods	-7225
▁Ira	-7226
▁brid	-7227
sewhere	-7228
▁faster	-7229
▁Pope	-7230
▁crash	-7231
▁underw	-7232
heastern	-7233
▁populations	-7234
▁Sab	-7235
organ	-7236
prise	-7237
▁luke	-7238
▁strate	-7239
▁continuing	-7240
▁sher	-7241
▁weapon	-7242
▁Korea	-7243
▁regional	-7244
▁parallel	-7245
▁impress	-7246
▁fictional	-7247
▁differences	-7248
▁vel	-7249
▁scheme	-7250
▁strategy	-7251
▁musicians	-7252
▁uncertain	-7253
ami	-7254
▁outer	-7255
▁alleged	-7256
▁Construction	-7257
▁rising	-7258
▁skills	-7259
▁terminus	-7260
▁golden	-7261
▁fitted	-7262
▁establishment	-7263
pir	-7264
ban	-7265
western	-7266
▁renew	-7267
onto	-7268
▁gay	-7269
▁flash	-7270
utt	-7271
▁Ba	-7272
▁Halo	-7273
▁1958	-7274
urance	-7275
▁funny	-7276
▁Jordan	-7277
▁relative	-7278
riff	-7279
▁Sweden	-7280
▁garden	-7281
▁Es	-7282
▁Dog	-7283
▁kids	-7284
▁taught	-7285
▁Matthew	-7286
▁beauty	-7287
▁strateg	-7288
▁lunch	-7289
ogen	-7290
▁fled	-7291
▁discovery	-7292
▁insisted	-7293
▁interpret	-7294
aft	-7295
▁sale	-7296
iterranean	-7297
▁immediate	-7298
▁claiming	-7299
▁Around	-7300
▁Somers	-7301
▁Ak	-7302
▁Dean	-7303
▁Hell	-7304
▁coat	-7305
▁penalty	-7306
▁interests	-7307
▁milit	-7308
▁elections	-7309
▁93	-7310
▁mood	-7311
ione	-7312
going	-7313
▁holds	-7314
▁Indones	-7315
▁rej	-7316
▁sank	-7317
▁vehicle	-7318
▁palace	-7319
▁silent	-7320
▁literary	-7321
▁incorporated	-7322
▁Li	-7323
▁Budd	-7324
▁cancer	-7325
▁restored	-7326
imp	-7327
▁seats	-7328
▁praise	-7329
▁changing	-7330
▁Additionally	-7331
ca	-7332
cular	-7333
▁1900	-7334
▁Within	-7335
▁swallow	-7336
BI	-7337
icide	-7338
▁Kevin	-7339
▁tries	-7340
▁aside	-7341
▁guests	-7342
van	-7343
▁sees	-7344
▁historians	-7345
▁involvement	-7346
▁Last	-7347
▁anniversary	-7348
▁cro	-7349
works	-7350
▁Simon	-7351
book	-7352
▁Allen	-7353
▁exposed	-7354
▁difficulty	-7355
▁Bah	-7356
▁Harr	-7357
▁offering	-7358
▁reinforce	-7359
▁Cru	-7360
▁sexy	-7361
agonist	-7362
▁bother	-7363
▁Illinois	-7364
▁Hitler	-7365
▁wooden	-7366
▁determine	-7367
▁foss	-7368
▁races	-7369
▁flowers	-7370
▁sending	-7371
▁visible	-7372
▁Jenn	-7373
▁asks	-7374
▁leads	-7375
▁tub	-7376
▁1955	-7377
▁laure	-7378
▁Mexican	-7379
▁Prior	-7380
cho	-7381
▁rhythm	-7382
▁Stanley	-7383
▁Jews	-7384
▁Kong	-7385
▁Unlike	-7386
▁emotion	-7387
▁railroad	-7388
▁appearing	-7389
▁Sky	-7390
▁Lanc	-7391
▁injuries	-7392
▁circulation	-7393
▁giant	-7394
▁crosses	-7395
▁trained	-7396
▁Mediterranean	-7397
▁Cas	-7398
▁Labor	-7399
▁batting	-7400
▁funding	-7401
▁Nich	-7402
▁fuck	-7403
▁covers	-7404
▁superior	-7405
hr	-7406
▁raid	-7407
▁locomot	-7408
▁classification	-7409
▁176	-7410
rations	-7411
▁documentary	-7412
ophy	-7413
▁Anne	-7414
▁Bruce	-7415
aria	-7416
icken	-7417
▁Cart	-7418
▁Domin	-7419
▁medieval	-7420
▁Eric	-7421
▁Free	-7422
▁shop	-7423
▁friendly	-7424
je	-7425
▁adults	-7426
▁anymore	-7427
▁passage	-7428
▁rescue	-7429
gie	-7430
▁Bol	-7431
▁fighter	-7432
RA	-7433
▁Techn	-7434
▁monarch	-7435
ennis	-7436
▁prede	-7437
▁reserv	-7438
▁resign	-7439
▁Profess	-7440
▁authors	-7441
▁uncom	-7442
▁helicop	-7443
▁attributed	-7444
▁Jam	-7445
▁Sunday	-7446
▁blow	-7447
▁archae	-7448
▁delayed	-7449
mad	-7450
▁Nations	-7451
▁Television	-7452
▁Houston	-7453
▁existed	-7454
▁Netherlands	-7455
uly	-7456
▁Jane	-7457
▁recru	-7458
▁decide	-7459
▁perfectly	-7460
▁champion	-7461
▁lock	-7462
▁attacking	-7463
▁vary	-7464
▁Berlin	-7465
▁programme	-7466
agre	-7467
mate	-7468
▁Dom	-7469
▁Iron	-7470
▁cruiser	-7471
erto	-7472
▁USA	-7473
▁consult	-7474
▁earn	-7475
▁apolog	-7476
ito	-7477
▁feels	-7478
abil	-7479
▁academic	-7480
▁restrict	-7481
▁emergency	-7482
▁resources	-7483
▁grandfather	-7484
ogy	-7485
▁McK	-7486
▁ing	-7487
▁1935	-7488
▁pale	-7489
▁papers	-7490
▁carrier	-7491
▁province	-7492
▁Dri	-7493
anian	-7494
▁Wright	-7495
pes	-7496
▁knows	-7497
▁fasc	-7498
▁wondered	-7499
▁Cab	-7500
eled	-7501
scape	-7502
incent	-7503
▁association	-7504
▁ethan	-7505
▁Patrick	-7506
▁bombard	-7507
▁ori	-7508
▁tor	-7509
▁astron	-7510
▁Every	-7511
▁rarely	-7512
▁1952	-7513
▁crop	-7514
▁gotten	-7515
▁Trib	-7516
▁Armen	-7517
▁map	-7518
▁hook	-7519
▁expensive	-7520
▁Gh	-7521
▁Again	-7522
▁ignored	-7523
▁Bi	-7524
weight	-7525
▁Toronto	-7526
▁Est	-7527
▁bon	-7528
▁Bure	-7529
▁choose	-7530
▁snapped	-7531
▁overwhel	-7532
▁Similar	-7533
▁evolution	-7534
▁adaptation	-7535
▁Francis	-7536
▁Yug	-7537
osure	-7538
▁classified	-7539
▁Ever	-7540
▁Croatia	-7541
▁offices	-7542
acle	-7543
▁remn	-7544
▁Bulgar	-7545
▁standards	-7546
▁pace	-7547
▁rent	-7548
▁techniques	-7549
iece	-7550
▁Lenn	-7551
▁Beatles	-7552
▁Brother	-7553
▁1949	-7554
▁approval	-7555
▁accompany	-7556
esc	-7557
borough	-7558
▁deemed	-7559
▁Journal	-7560
▁retirement	-7561
▁1951	-7562
▁Somerset	-7563
▁lad	-7564
▁Jacob	-7565
▁collaps	-7566
▁considering	-7567
▁amazing	-7568
▁operate	-7569
▁Id	-7570
apse	-7571
▁Sports	-7572
▁stable	-7573
▁prove	-7574
▁tort	-7575
▁chain	-7576
▁engineer	-7577
▁appointment	-7578
ronze	-7579
▁bent	-7580
▁Hawai	-7581
▁slight	-7582
▁hunting	-7583
▁depos	-7584
▁cleared	-7585
▁Ath	-7586
▁forth	-7587
▁schedule	-7588
▁predecess	-7589
vet	-7590
▁thigh	-7591
▁inspiration	-7592
acent	-7593
▁displ	-7594
▁lights	-7595
▁colonial	-7596
▁learning	-7597
▁traveled	-7598
▁mal	-7599
▁relationships	-7600
▁gal	-7601
etime	-7602
aya	-7603
▁Pit	-7604
▁RAF	-7605
▁ske	-7606
▁Holy	-7607
ultane	-7608
▁Fame	-7609
▁criminal	-7610
▁Stock	-7611
▁longest	-7612
▁category	-7613
annah	-7614
▁lake	-7615
▁compr	-7616
bel	-7617
ixon	-7618
▁ninth	-7619
▁Yugoslav	-7620
▁wake	-7621
▁Byzantine	-7622
uv	-7623
▁obvious	-7624
roit	-7625
elson	-7626
▁Niel	-7627
▁alien	-7628
▁cavalry	-7629
▁absolutely	-7630
▁USS	-7631
ounced	-7632
▁municip	-7633
▁veter	-7634
▁global	-7635
▁Dick	-7636
▁balance	-7637
▁hundreds	-7638
ez	-7639
rait	-7640
▁Norman	-7641
▁pounds	-7642
▁uniform	-7643
▁pictures	-7644
▁fab	-7645
▁realize	-7646
real	-7647
▁secured	-7648
▁attempting	-7649
emor	-7650
▁1933	-7651
▁dar	-7652
oli	-7653
▁Glob	-7654
▁recommend	-7655
▁x	-7656
▁Der	-7657
uster	-7658
▁describe	-7659
opes	-7660
▁Story	-7661
▁tas	-7662
▁Iraq	-7663
▁frame	-7664
▁Muslim	-7665
▁excellent	-7666
iac	-7667
▁pap	-7668
▁Lisa	-7669
▁deeply	-7670
▁Late	-7671
▁poison	-7672
▁believes	-7673
▁resigned	-7674
ardens	-7675
▁option	-7676
▁surviv	-7677
▁forty	-7678
▁generated	-7679
▁Marine	-7680
▁AI	-7681
▁dens	-7682
▁truly	-7683
▁throne	-7684
eks	-7685
▁union	-7686
▁wins	-7687
▁Trip	-7688
▁Swedish	-7689
▁disappoin	-7690
▁meets	-7691
▁Bang	-7692
▁chairman	-7693
▁characteristics	-7694
▁Marg	-7695
▁fixed	-7696
▁presidential	-7697
ods	-7698
▁06	-7699
▁Get	-7700
▁Nob	-7701
itzer	-7702
▁inse	-7703
▁Design	-7704
▁explan	-7705
▁alcohol	-7706
▁engagement	-7707
wan	-7708
▁eyeb	-7709
▁linked	-7710
▁novels	-7711
▁unless	-7712
▁communities	-7713
▁thir	-7714
ifer	-7715
▁premiere	-7716
▁submarine	-7717
▁successor	-7718
rees	-7719
▁tear	-7720
▁permission	-7721
ois	-7722
▁PA	-7723
▁wings	-7724
▁somehow	-7725
▁meetings	-7726
zed	-7727
imore	-7728
aska	-7729
▁Education	-7730
▁rig	-7731
▁nickn	-7732
▁dominated	-7733
▁Tok	-7734
▁Color	-7735
▁truck	-7736
▁reviewer	-7737
▁tip	-7738
▁grade	-7739
▁naked	-7740
▁Kat	-7741
phone	-7742
▁twin	-7743
▁unex	-7744
▁partn	-7745
▁Front	-7746
▁vulner	-7747
▁ratings	-7748
athy	-7749
▁emma	-7750
▁veget	-7751
▁excess	-7752
fare	-7753
ashes	-7754
▁firing	-7755
inder	-7756
▁1927	-7757
▁premiered	-7758
▁Prot	-7759
olitan	-7760
▁knock	-7761
▁render	-7762
▁1913	-7763
▁visitors	-7764
▁bats	-7765
sea	-7766
▁pound	-7767
▁horror	-7768
▁Princess	-7769
▁Melbourne	-7770
▁1912	-7771
▁Santa	-7772
▁furn	-7773
▁bathroom	-7774
upid	-7775
▁clar	-7776
▁recover	-7777
▁CE	-7778
▁Thus	-7779
▁Social	-7780
▁modified	-7781
▁ray	-7782
▁Bishop	-7783
▁Commander	-7784
▁navig	-7785
▁Modern	-7786
▁Sax	-7787
▁stem	-7788
▁innoc	-7789
▁wondering	-7790
▁architecture	-7791
▁possess	-7792
▁Lin	-7793
veland	-7794
▁guilty	-7795
▁unsuccessful	-7796
▁unlike	-7797
▁classical	-7798
▁personality	-7799
▁maint	-7800
▁Pak	-7801
▁1934	-7802
▁Belg	-7803
▁Temple	-7804
▁channel	-7805
gery	-7806
eenth	-7807
▁fifty	-7808
▁synthes	-7809
▁defended	-7810
▁formally	-7811
arts	-7812
▁pushing	-7813
▁paus	-7814
▁confused	-7815
▁Cleveland	-7816
▁RAAF	-7817
▁Anthony	-7818
▁depicted	-7819
emet	-7820
agers	-7821
▁saved	-7822
dy	-7823
▁survive	-7824
igration	-7825
empl	-7826
xual	-7827
▁Tal	-7828
▁cousin	-7829
iy	-7830
▁Supp	-7831
▁Chamber	-7832
▁Library	-7833
▁starred	-7834
▁measures	-7835
▁animation	-7836
▁circumstances	-7837
▁fool	-7838
▁grav	-7839
▁instance	-7840
▁1926	-7841
▁Vice	-7842
▁legislation	-7843
onies	-7844
▁Giants	-7845
▁slipped	-7846
▁struggle	-7847
▁upset	-7848
▁Detroit	-7849
▁kate	-7850
▁Russell	-7851
▁distributed	-7852
▁audio	-7853
▁victims	-7854
▁comfortable	-7855
rum	-7856
▁controversial	-7857
▁140	-7858
▁jam	-7859
▁Atlant	-7860
▁birthday	-7861
resent	-7862
▁withdrew	-7863
owa	-7864
▁cir	-7865
▁1921	-7866
▁Xbox	-7867
▁cycle	-7868
▁crisis	-7869
▁gathered	-7870
▁prompted	-7871
▁Corporation	-7872
▁Cop	-7873
▁upd	-7874
▁feud	-7875
orious	-7876
iveness	-7877
▁tender	-7878
▁designer	-7879
▁secretary	-7880
sts	-7881
▁900	-7882
▁Along	-7883
pet	-7884
▁1932	-7885
▁patron	-7886
▁formerly	-7887
emetery	-7888
▁Arn	-7889
▁escaped	-7890
▁joining	-7891
▁Hospital	-7892
▁comments	-7893
leep	-7894
▁1911	-7895
▁Rand	-7896
▁Centre	-7897
▁Obs	-7898
▁Cook	-7899
anz	-7900
▁hated	-7901
▁facility	-7902
▁urg	-7903
formula	-7904
▁NFL	-7905
▁fung	-7906
wealth	-7907
ishment	-7908
▁Silver	-7909
▁conte	-7910
▁Spears	-7911
▁Express	-7912
▁acted	-7913
▁fill	-7914
▁liquid	-7915
▁rebell	-7916
▁graphics	-7917
▁laughter	-7918
▁Baltimore	-7919
▁influential	-7920
▁Bou	-7921
▁ped	-7922
tenance	-7923
▁solution	-7924
▁ML	-7925
▁Lad	-7926
aks	-7927
▁eating	-7928
▁disturb	-7929
imm	-7930
▁Malays	-7931
▁wal	-7932
▁Finn	-7933
ienna	-7934
▁chloe	-7935
▁technique	-7936
▁1922	-7937
▁logan	-7938
▁arrive	-7939
▁narrative	-7940
▁hidden	-7941
▁ic	-7942
▁experiences	-7943
▁participate	-7944
▁Trek	-7945
ternal	-7946
▁Cooper	-7947
▁drums	-7948
▁aggress	-7949
apping	-7950
urally	-7951
▁Police	-7952
▁affair	-7953
▁trials	-7954
eor	-7955
▁copy	-7956
▁prog	-7957
arring	-7958
▁Samuel	-7959
▁backed	-7960
▁remove	-7961
▁styles	-7962
▁knees	-7963
aron	-7964
▁clock	-7965
▁agents	-7966
▁mirror	-7967
▁delight	-7968
▁encountered	-7969
ran	-7970
▁reun	-7971
▁Track	-7972
▁dread	-7973
▁diplom	-7974
▁shr	-7975
asant	-7976
▁arriving	-7977
▁signs	-7978
▁grinned	-7979
▁kissing	-7980
▁cruisers	-7981
▁danc	-7982
▁habitat	-7983
eling	-7984
▁Organ	-7985
▁1931	-7986
▁Call	-7987
▁greet	-7988
▁displayed	-7989
▁confidence	-7990
▁simultane	-7991
crib	-7992
▁phr	-7993
▁vice	-7994
▁magic	-7995
▁08	-7996
▁siege	-7997
▁enters	-7998
▁legend	-7999
▁Hungarian	-8000
▁possession	-8001
▁representing	-8002
ski	-8003
▁swit	-8004
▁Parker	-8005
▁poetry	-8006
▁une	-8007
ogether	-8008
roid	-8009
▁mental	-8010
▁climate	-8011
▁thereafter	-8012
bie	-8013
udes	-8014
▁NBC	-8015
▁Bird	-8016
umbled	-8017
▁honey	-8018
▁cooper	-8019
▁Nielsen	-8020
▁deployed	-8021
▁opponents	-8022
DS	-8023
▁09	-8024
▁evil	-8025
▁Benn	-8026
▁journalist	-8027
▁Simp	-8028
▁videos	-8029
▁extreme	-8030
▁teacher	-8031
▁boil	-8032
▁Queens	-8033
bow	-8034
ricted	-8035
▁claire	-8036
▁reveals	-8037
▁executed	-8038
▁brill	-8039
▁prohib	-8040
▁prevented	-8041
rose	-8042
▁cheeks	-8043
▁turrets	-8044
▁departed	-8045
▁escort	-8046
ailed	-8047
▁1929	-8048
▁plus	-8049
endment	-8050
▁bypass	-8051
▁elabor	-8052
▁extent	-8053
▁muscles	-8054
▁negotiations	-8055
▁bella	-8056
▁Stewart	-8057
▁paintings	-8058
▁neighborhood	-8059
yo	-8060
unes	-8061
▁totally	-8062
▁Bed	-8063
▁link	-8064
icine	-8065
▁moon	-8066
▁partially	-8067
▁enh	-8068
▁exit	-8069
▁documents	-8070
▁CR	-8071
▁Well	-8072
▁myst	-8073
otton	-8074
▁Ford	-8075
▁Mort	-8076
▁falls	-8077
CA	-8078
but	-8079
▁Raw	-8080
hemat	-8081
▁medium	-8082
▁struggled	-8083
agle	-8084
mates	-8085
▁hockey	-8086
▁stupid	-8087
▁Turkish	-8088
▁Frederick	-8089
bra	-8090
▁Dor	-8091
▁specimens	-8092
▁83	-8093
▁Beck	-8094
▁Stevens	-8095
velt	-8096
▁Aud	-8097
▁Napole	-8098
▁thrust	-8099
▁testing	-8100
▁reviewers	-8101
▁temperatures	-8102
power	-8103
ships	-8104
▁Warner	-8105
▁vessel	-8106
▁raising	-8107
otes	-8108
▁Dave	-8109
urches	-8110
▁Winter	-8111
fast	-8112
▁Lyn	-8113
▁Indians	-8114
▁intercept	-8115
▁aged	-8116
▁influences	-8117
fire	-8118
andal	-8119
▁danger	-8120
▁reprod	-8121
oto	-8122
▁clin	-8123
▁FI	-8124
▁diet	-8125
▁reass	-8126
▁Palace	-8127
▁spotted	-8128
arsh	-8129
▁Mun	-8130
▁emperor	-8131
▁occasions	-8132
iami	-8133
▁seek	-8134
▁sisters	-8135
▁Roose	-8136
▁matters	-8137
▁engineering	-8138
▁Ark	-8139
▁Div	-8140
▁Heavy	-8141
▁junior	-8142
▁seeking	-8143
▁Category	-8144
▁disappeared	-8145
▁Nevertheless	-8146
oned	-8147
rant	-8148
▁Cry	-8149
▁detailed	-8150
▁garrison	-8151
▁releases	-8152
▁residential	-8153
▁Commonwealth	-8154
eu	-8155
fa	-8156
▁Rick	-8157
▁Advent	-8158
▁squad	-8159
▁Carter	-8160
▁talked	-8161
▁Anton	-8162
▁Austria	-8163
ta	-8164
▁terror	-8165
▁benefit	-8166
▁historic	-8167
▁Michel	-8168
▁guys	-8169
ompson	-8170
▁coins	-8171
▁Lennon	-8172
enh	-8173
▁Nelson	-8174
▁isolated	-8175
usic	-8176
▁analy	-8177
▁suspected	-8178
▁Foundation	-8179
oren	-8180
rified	-8181
▁radar	-8182
▁Player	-8183
▁lovely	-8184
▁Yankees	-8185
▁1890	-8186
▁violent	-8187
▁boot	-8188
▁embr	-8189
encing	-8190
▁foundation	-8191
iner	-8192
ester	-8193
▁ninet	-8194
▁lowest	-8195
▁relieved	-8196
▁MP	-8197
▁alter	-8198
▁Franklin	-8199
▁moderate	-8200
FC	-8201
▁Tenn	-8202
astian	-8203
▁eager	-8204
▁flank	-8205
▁tests	-8206
▁assass	-8207
▁diagn	-8208
▁jordan	-8209
▁tempor	-8210
▁inhabit	-8211
▁emotions	-8212
▁imprison	-8213
▁Hend	-8214
▁assemb	-8215
▁merely	-8216
▁creative	-8217
▁substantial	-8218
▁1928	-8219
▁Writing	-8220
▁confusion	-8221
▁bid	-8222
▁crown	-8223
▁carbon	-8224
▁diameter	-8225
▁encounter	-8226
usal	-8227
▁Lane	-8228
▁Network	-8229
▁staying	-8230
▁suspend	-8231
▁moral	-8232
▁strange	-8233
▁sav	-8234
▁1909	-8235
▁chin	-8236
▁controll	-8237
▁ax	-8238
▁Author	-8239
▁factor	-8240
▁Roosevelt	-8241
bean	-8242
▁footage	-8243
▁notably	-8244
▁periods	-8245
ugg	-8246
aisy	-8247
orage	-8248
icking	-8249
isd	-8250
▁ta	-8251
▁util	-8252
▁elder	-8253
▁riding	-8254
▁Ult	-8255
▁unw	-8256
▁blank	-8257
▁suitable	-8258
▁Health	-8259
ES	-8260
cked	-8261
▁shower	-8262
▁Release	-8263
▁fighters	-8264
10	-8265
▁1925	-8266
▁gest	-8267
▁phen	-8268
▁difficulties	-8269
▁goods	-8270
▁PC	-8271
▁Puerto	-8272
▁pitched	-8273
▁hull	-8274
▁gorge	-8275
▁Having	-8276
▁scream	-8277
▁proud	-8278
▁burned	-8279
▁memories	-8280
oded	-8281
fortun	-8282
▁swept	-8283
▁warned	-8284
▁founder	-8285
▁Lawrence	-8286
ilst	-8287
▁Adv	-8288
▁pump	-8289
▁Greece	-8290
▁compete	-8291
▁factors	-8292
▁zack	-8293
hips	-8294
▁partly	-8295
▁backing	-8296
oust	-8297
▁cried	-8298
▁tired	-8299
▁assists	-8300
▁placing	-8301
igs	-8302
uda	-8303
▁overs	-8304
▁easier	-8305
▁Miami	-8306
▁proced	-8307
▁monument	-8308
▁Ts	-8309
irts	-8310
▁Guy	-8311
▁craft	-8312
▁imagine	-8313
▁grey	-8314
fits	-8315
urray	-8316
▁explo	-8317
▁sympt	-8318
▁fantasy	-8319
▁Bh	-8320
▁jur	-8321
anium	-8322
eding	-8323
▁refuge	-8324
▁whereas	-8325
▁instruments	-8326
obi	-8327
▁05	-8328
olve	-8329
▁upgraded	-8330
▁locked	-8331
▁pleased	-8332
▁clothing	-8333
▁convection	-8334
icer	-8335
▁format	-8336
▁concrete	-8337
▁Ot	-8338
▁Snow	-8339
▁Horse	-8340
▁device	-8341
▁reportedly	-8342
▁burning	-8343
agger	-8344
anner	-8345
▁commemor	-8346
▁languages	-8347
cru	-8348
rating	-8349
▁Banks	-8350
▁Ah	-8351
▁Benj	-8352
▁organizations	-8353
pha	-8354
▁sunk	-8355
▁Apple	-8356
▁owners	-8357
▁rushed	-8358
yler	-8359
▁Charlie	-8360
▁doesn	-8361
▁verse	-8362
▁discussion	-8363
▁serial	-8364
▁festival	-8365
▁prosec	-8366
elli	-8367
▁Rab	-8368
▁Sym	-8369
▁deter	-8370
▁harder	-8371
▁honour	-8372
▁platinum	-8373
▁newspapers	-8374
▁Sin	-8375
▁1923	-8376
▁tack	-8377
▁suicide	-8378
pan	-8379
▁Merc	-8380
▁dogs	-8381
▁coordin	-8382
▁Marshall	-8383
▁sho	-8384
▁diff	-8385
icians	-8386
▁Polit	-8387
▁grace	-8388
▁Ministry	-8389
▁Thompson	-8390
▁alexandra	-8391
▁representative	-8392
▁tex	-8393
umble	-8394
▁Hans	-8395
▁finale	-8396
▁indicate	-8397
▁Anna	-8398
▁Khan	-8399
▁circle	-8400
▁criticised	-8401
▁Ern	-8402
▁Soon	-8403
ulating	-8404
acon	-8405
icing	-8406
▁Initially	-8407
▁stream	-8408
▁sufficient	-8409
▁Kl	-8410
essa	-8411
▁Hop	-8412
▁bases	-8413
▁Senator	-8414
▁Ec	-8415
▁sup	-8416
▁lord	-8417
▁disaster	-8418
ivated	-8419
▁advis	-8420
▁obser	-8421
place	-8422
▁minimum	-8423
▁proport	-8424
▁elsewhere	-8425
atus	-8426
▁inqu	-8427
▁inaug	-8428
▁bottle	-8429
▁gasped	-8430
▁Belgium	-8431
osa	-8432
▁Wing	-8433
▁hate	-8434
▁maintenance	-8435
▁false	-8436
▁lawyer	-8437
▁Country	-8438
▁opponent	-8439
ogan	-8440
otte	-8441
obile	-8442
alions	-8443
▁dialogue	-8444
▁excited	-8445
▁frequent	-8446
▁Harris	-8447
▁behavi	-8448
▁Laure	-8449
achment	-8450
▁custom	-8451
▁collapse	-8452
▁Wrestling	-8453
iders	-8454
otype	-8455
▁Crown	-8456
▁Tower	-8457
▁assess	-8458
▁travelled	-8459
▁territories	-8460
▁Cold	-8461
▁1924	-8462
▁Treaty	-8463
ques	-8464
▁Bush	-8465
▁behalf	-8466
▁Benjamin	-8467
▁tenth	-8468
▁refere	-8469
▁tunnel	-8470
▁mountains	-8471
▁Wy	-8472
oral	-8473
▁Comb	-8474
▁Od	-8475
▁Ext	-8476
imeter	-8477
▁entertainment	-8478
▁Lev	-8479
atched	-8480
▁shield	-8481
▁Represent	-8482
▁emily	-8483
▁reven	-8484
▁drinking	-8485
MA	-8486
▁jumped	-8487
ologists	-8488
▁registered	-8489
▁Shaw	-8490
▁Canal	-8491
▁Human	-8492
▁string	-8493
▁Oak	-8494
▁Then	-8495
▁Sarah	-8496
▁alleg	-8497
▁diver	-8498
▁Knight	-8499
nings	-8500
▁Hamp	-8501
▁lift	-8502
▁worn	-8503
face	-8504
ouri	-8505
▁Jason	-8506
▁Minnes	-8507
▁Univers	-8508
▁funeral	-8509
▁housing	-8510
▁prol	-8511
ibbean	-8512
▁anx	-8513
▁simpl	-8514
▁eliminated	-8515
case	-8516
olph	-8517
odore	-8518
▁Gaga	-8519
▁regret	-8520
▁degrees	-8521
▁Fried	-8522
▁bridges	-8523
▁teaching	-8524
▁candidates	-8525
imb	-8526
▁ian	-8527
▁handsome	-8528
▁confident	-8529
▁businesses	-8530
▁recordings	-8531
abri	-8532
reation	-8533
▁Clin	-8534
hroom	-8535
sole	-8536
ropolitan	-8537
▁mainstream	-8538
▁170	-8539
▁irrit	-8540
itement	-8541
▁environmental	-8542
▁squee	-8543
▁rounds	-8544
▁fishing	-8545
▁surge	-8546
▁Return	-8547
▁spoken	-8548
▁1908	-8549
▁turb	-8550
▁Jesus	-8551
▁adjacent	-8552
▁attitude	-8553
▁villages	-8554
▁reaches	-8555
▁universe	-8556
▁Minnesota	-8557
▁Ye	-8558
▁lac	-8559
▁tag	-8560
neath	-8561
sters	-8562
▁gang	-8563
▁remarked	-8564
alo	-8565
idae	-8566
uche	-8567
▁Ale	-8568
▁bay	-8569
ika	-8570
▁tent	-8571
▁Albums	-8572
▁Phoen	-8573
▁Batman	-8574
helm	-8575
▁rit	-8576
▁Much	-8577
▁Micro	-8578
▁ethnic	-8579
▁creator	-8580
utor	-8581
▁105	-8582
▁Bab	-8583
atern	-8584
▁affairs	-8585
bal	-8586
▁DC	-8587
active	-8588
▁lists	-8589
▁plain	-8590
▁bombers	-8591
▁signing	-8592
▁les	-8593
▁purposes	-8594
▁Nazi	-8595
uscript	-8596
▁stores	-8597
▁reflected	-8598
▁07	-8599
▁pocket	-8600
▁flights	-8601
▁illness	-8602
▁concerts	-8603
▁gate	-8604
▁Trust	-8605
aws	-8606
inction	-8607
▁neutral	-8608
▁quietly	-8609
▁reminded	-8610
▁destroyers	-8611
▁personally	-8612
owed	-8613
forced	-8614
▁leaning	-8615
▁Christopher	-8616
▁perspective	-8617
▁Iowa	-8618
▁cutting	-8619
▁dispute	-8620
▁functions	-8621
▁appropriate	-8622
▁designation	-8623
▁Asian	-8624
▁expert	-8625
▁Nar	-8626
▁canal	-8627
▁wider	-8628
▁powered	-8629
aver	-8630
▁Hills	-8631
▁prepare	-8632
▁queen	-8633
▁ramp	-8634
▁listing	-8635
▁examples	-8636
▁conscious	-8637
▁professor	-8638
▁ol	-8639
igen	-8640
ivia	-8641
▁1905	-8642
▁adam	-8643
▁summ	-8644
▁mistake	-8645
▁abilities	-8646
▁directors	-8647
▁victories	-8648
▁Building	-8649
▁chuckled	-8650
incial	-8651
▁misty	-8652
▁cu	-8653
▁dies	-8654
anches	-8655
▁weaken	-8656
▁wealthy	-8657
▁visiting	-8658
beat	-8659
oped	-8660
▁marsh	-8661
▁1907	-8662
inging	-8663
▁Hindu	-8664
▁Friend	-8665
▁superv	-8666
▁blocks	-8667
▁stress	-8668
▁resumed	-8669
▁anywhere	-8670
▁arts	-8671
▁multi	-8672
▁overt	-8673
▁refers	-8674
▁gap	-8675
▁grim	-8676
▁destro	-8677
▁Mess	-8678
▁sket	-8679
▁adopt	-8680
▁Aff	-8681
angers	-8682
▁rates	-8683
▁Record	-8684
▁Clar	-8685
▁Administ	-8686
sk	-8687
ibl	-8688
izz	-8689
thel	-8690
▁kings	-8691
▁oblig	-8692
▁Labour	-8693
▁intensified	-8694
▁Ian	-8695
▁Chel	-8696
▁maneu	-8697
▁thunder	-8698
▁Children	-8699
issipp	-8700
▁statue	-8701
ctic	-8702
▁shout	-8703
▁publicly	-8704
▁throwing	-8705
▁resolution	-8706
▁button	-8707
▁jobs	-8708
▁Chron	-8709
▁minimal	-8710
▁preserved	-8711
▁VI	-8712
▁Nag	-8713
▁convince	-8714
▁partnership	-8715
▁gift	-8716
▁slam	-8717
▁Native	-8718
▁Set	-8719
▁cow	-8720
▁Lucas	-8721
▁Ut	-8722
▁Area	-8723
▁Hand	-8724
▁repr	-8725
▁Dance	-8726
wa	-8727
▁Wol	-8728
▁excitement	-8729
▁Hero	-8730
▁erupt	-8731
▁jeans	-8732
rep	-8733
▁Mack	-8734
▁frig	-8735
▁stairs	-8736
▁Guardian	-8737
▁prospect	-8738
▁soil	-8739
▁competed	-8740
▁residence	-8741
▁rib	-8742
▁nucle	-8743
▁assisted	-8744
▁subjects	-8745
attan	-8746
▁loan	-8747
▁prime	-8748
▁shells	-8749
▁earthqu	-8750
dale	-8751
▁lect	-8752
lessly	-8753
▁horn	-8754
▁Blood	-8755
▁Simpson	-8756
▁Egyptian	-8757
idi	-8758
▁bones	-8759
▁finals	-8760
ivery	-8761
▁shit	-8762
▁flesh	-8763
▁policies	-8764
▁04	-8765
▁Mississipp	-8766
▁Alfred	-8767
▁parking	-8768
▁Ll	-8769
▁Disc	-8770
▁cream	-8771
▁Perform	-8772
ules	-8773
▁Magn	-8774
▁jenny	-8775
▁skull	-8776
▁alignment	-8777
▁suggesting	-8778
▁Championships	-8779
▁Anglo	-8780
▁aimed	-8781
▁Seattle	-8782
▁touching	-8783
asm	-8784
▁Rap	-8785
▁shift	-8786
▁ranking	-8787
▁reconst	-8788
▁1906	-8789
ista	-8790
rain	-8791
▁sung	-8792
▁divorce	-8793
▁sleeping	-8794
▁banks	-8795
▁hanging	-8796
▁Saturday	-8797
▁pron	-8798
▁forever	-8799
▁164	-8800
▁situated	-8801
▁submitted	-8802
▁joy	-8803
▁barr	-8804
▁dynam	-8805
▁faces	-8806
▁staffan	-8807
▁Mitchell	-8808
▁Real	-8809
arth	-8810
iens	-8811
▁Mach	-8812
▁Event	-8813
▁Township	-8814
▁occupation	-8815
inks	-8816
▁1880	-8817
okes	-8818
▁murd	-8819
▁puzz	-8820
▁rush	-8821
▁Evans	-8822
▁glance	-8823
▁believing	-8824
▁deeper	-8825
▁surgery	-8826
▁tribute	-8827
▁Brun	-8828
▁julian	-8829
▁voiced	-8830
▁listening	-8831
▁instrumental	-8832
▁Digital	-8833
▁Lam	-8834
▁ell	-8835
inals	-8836
▁riders	-8837
▁recognised	-8838
▁Bull	-8839
▁agricultural	-8840
▁AR	-8841
▁Tracy	-8842
▁Forces	-8843
▁Kansas	-8844
▁sla	-8845
ending	-8846
▁Dylan	-8847
▁construct	-8848
▁girlfriend	-8849
▁Hotel	-8850
▁dramatic	-8851
ographical	-8852
oga	-8853
enico	-8854
▁1904	-8855
▁vast	-8856
▁strict	-8857
▁guar	-8858
estyle	-8859
▁innov	-8860
tar	-8861
▁Ice	-8862
▁Horn	-8863
inental	-8864
▁satell	-8865
▁patterns	-8866
▁treaty	-8867
▁measured	-8868
▁orbit	-8869
▁recip	-8870
▁manuscript	-8871
▁underground	-8872
▁butt	-8873
▁domenico	-8874
pled	-8875
▁toll	-8876
▁advoc	-8877
▁Alab	-8878
▁Holl	-8879
uma	-8880
▁Kurt	-8881
▁Manh	-8882
▁salt	-8883
▁feather	-8884
▁decisions	-8885
▁pier	-8886
▁jacket	-8887
▁parish	-8888
▁confront	-8889
▁Shel	-8890
aughters	-8891
▁churches	-8892
away	-8893
tery	-8894
▁Kal	-8895
ensed	-8896
▁Legacy	-8897
▁storms	-8898
▁striking	-8899
▁scientists	-8900
▁unexpected	-8901
uable	-8902
▁knee	-8903
▁stiff	-8904
▁blond	-8905
▁pilots	-8906
ivan	-8907
▁Missouri	-8908
▁corpor	-8909
▁amounts	-8910
▁interpre	-8911
▁Fem	-8912
▁somewhere	-8913
▁Brig	-8914
▁Alabama	-8915
▁leather	-8916
▁survivors	-8917
fish	-8918
▁impression	-8919
▁stronger	-8920
acc	-8921
erk	-8922
onica	-8923
▁aunt	-8924
▁reco	-8925
▁Caribbean	-8926
uh	-8927
▁nations	-8928
▁Portland	-8929
▁indicating	-8930
▁Australians	-8931
▁reveal	-8932
▁repairs	-8933
▁challenged	-8934
▁restoration	-8935
▁Cob	-8936
▁afford	-8937
▁forehead	-8938
SP	-8939
▁recon	-8940
▁condem	-8941
empo	-8942
▁subt	-8943
ealous	-8944
▁Works	-8945
▁categ	-8946
▁ideal	-8947
▁manage	-8948
▁circuit	-8949
lah	-8950
▁anch	-8951
▁amongst	-8952
▁credits	-8953
▁Colorado	-8954
▁Mississippi	-8955
▁preparation	-8956
essee	-8957
▁ridic	-8958
▁imperial	-8959
oker	-8960
▁marks	-8961
▁devast	-8962
▁tribes	-8963
▁symptoms	-8964
▁battlecru	-8965
inter	-8966
bishop	-8967
▁Dead	-8968
orders	-8969
▁protagonist	-8970
ugby	-8971
▁horiz	-8972
ibilities	-8973
▁Louisiana	-8974
▁Ban	-8975
▁breakfast	-8976
▁breathing	-8977
▁Cole	-8978
▁Cred	-8979
▁Race	-8980
▁temporarily	-8981
reck	-8982
▁tiss	-8983
▁crews	-8984
eping	-8985
▁bowling	-8986
▁suspended	-8987
▁125	-8988
▁orb	-8989
icity	-8990
▁filed	-8991
▁McD	-8992
▁electronic	-8993
▁scrap	-8994
▁demands	-8995
▁illegal	-8996
▁targets	-8997
▁See	-8998
▁USD	-8999
▁saff	-9000
▁Kings	-9001
onymous	-9002
▁Palest	-9003
▁recall	-9004
▁Hungary	-9005
▁casting	-9006
▁01	-9007
names	-9008
▁Grammy	-9009
munition	-9010
▁Hud	-9011
mother	-9012
▁daniel	-9013
▁poorly	-9014
▁values	-9015
▁scholar	-9016
▁alliance	-9017
▁searching	-9018
▁Cov	-9019
▁Lim	-9020
▁flower	-9021
▁replacing	-9022
adi	-9023
rik	-9024
▁Garden	-9025
emen	-9026
▁Moh	-9027
▁Kirk	-9028
▁hitting	-9029
▁1870	-9030
▁bone	-9031
▁span	-9032
▁ly	-9033
▁Tit	-9034
stairs	-9035
▁Phoenix	-9036
▁flagship	-9037
▁Peninsula	-9038
iph	-9039
azines	-9040
▁layer	-9041
bles	-9042
ancell	-9043
▁harsh	-9044
▁initi	-9045
▁strip	-9046
▁lacked	-9047
▁Interstate	-9048
▁friendship	-9049
▁165	-9050
▁pup	-9051
▁Bros	-9052
▁desp	-9053
▁obst	-9054
▁protein	-9055
▁neighbour	-9056
▁announcement	-9057
▁mas	-9058
▁thrown	-9059
▁knocked	-9060
▁represents	-9061
rot	-9062
▁closest	-9063
▁colonies	-9064
olid	-9065
▁Ren	-9066
▁Buck	-9067
▁Edge	-9068
▁na	-9069
▁tug	-9070
▁print	-9071
▁Flight	-9072
▁signal	-9073
▁clayton	-9074
▁repeatedly	-9075
▁underneath	-9076
arked	-9077
▁fant	-9078
▁Medal	-9079
▁operational	-9080
do	-9081
▁armored	-9082
▁confron	-9083
▁concentration	-9084
▁citing	-9085
▁articles	-9086
▁delivery	-9087
▁mac	-9088
▁meat	-9089
▁paused	-9090
▁attendance	-9091
▁Dw	-9092
lain	-9093
▁Len	-9094
▁Lex	-9095
▁Athlet	-9096
▁decides	-9097
▁Industry	-9098
▁360	-9099
▁pride	-9100
▁Season	-9101
▁Critics	-9102
▁adventure	-9103
▁completing	-9104
orous	-9105
▁drunk	-9106
▁pages	-9107
▁shoes	-9108
▁pursue	-9109
uzz	-9110
gate	-9111
▁fate	-9112
▁Marie	-9113
▁explains	-9114
iped	-9115
▁armament	-9116
▁defeating	-9117
▁spiritual	-9118
▁lieutenant	-9119
▁Ple	-9120
▁Sony	-9121
▁sector	-9122
▁profile	-9123
▁relaxed	-9124
▁Josh	-9125
▁jet	-9126
▁Karl	-9127
uations	-9128
▁Campbell	-9129
TA	-9130
▁UE	-9131
▁wasn	-9132
▁agency	-9133
▁Connect	-9134
▁ownership	-9135
▁acknowledged	-9136
unc	-9137
inea	-9138
▁mobile	-9139
▁dreams	-9140
▁Near	-9141
▁navy	-9142
orer	-9143
vere	-9144
▁waste	-9145
osm	-9146
▁shear	-9147
▁precip	-9148
jo	-9149
▁vic	-9150
▁Gray	-9151
▁rivers	-9152
▁cancelled	-9153
agh	-9154
ocol	-9155
▁ears	-9156
▁lover	-9157
▁useful	-9158
▁multipl	-9159
▁rebuilt	-9160
▁conservative	-9161
keeper	-9162
▁Seven	-9163
▁mines	-9164
▁depending	-9165
▁percentage	-9166
ucked	-9167
▁retail	-9168
▁Program	-9169
▁pretend	-9170
▁rushing	-9171
▁remnants	-9172
▁swimming	-9173
▁restricted	-9174
▁Independent	-9175
isp	-9176
▁beating	-9177
▁coverage	-9178
ateur	-9179
ooking	-9180
▁Pier	-9181
▁genu	-9182
▁dollar	-9183
▁indeed	-9184
▁collapsed	-9185
gro	-9186
▁jew	-9187
▁creek	-9188
▁genetic	-9189
▁Da	-9190
▁Dal	-9191
▁Dur	-9192
▁Roc	-9193
▁hole	-9194
▁daisy	-9195
▁fatal	-9196
SA	-9197
▁rafe	-9198
▁intim	-9199
▁Margaret	-9200
▁Son	-9201
ipper	-9202
essica	-9203
▁saffi	-9204
▁Murray	-9205
▁firmly	-9206
▁ammunition	-9207
ffect	-9208
ellect	-9209
ruption	-9210
▁callie	-9211
▁simultaneously	-9212
lock	-9213
▁renov	-9214
▁bronze	-9215
▁sequences	-9216
CC	-9217
ghan	-9218
olen	-9219
▁mushroom	-9220
▁DS	-9221
▁bacter	-9222
irm	-9223
▁gear	-9224
▁Hockey	-9225
▁hiding	-9226
▁Blues	-9227
▁acceler	-9228
▁Cur	-9229
▁Billy	-9230
apolis	-9231
▁succeed	-9232
sex	-9233
oons	-9234
▁steady	-9235
▁Tennessee	-9236
▁deliberately	-9237
isons	-9238
▁boyfriend	-9239
▁Carr	-9240
▁Dragon	-9241
▁explosion	-9242
▁115	-9243
itively	-9244
▁severely	-9245
▁audiences	-9246
orship	-9247
▁drugs	-9248
▁loose	-9249
rates	-9250
suing	-9251
▁Nash	-9252
namese	-9253
▁cargo	-9254
▁Leslie	-9255
▁millimet	-9256
▁Vietnamese	-9257
ieties	-9258
▁dying	-9259
▁Wilhelm	-9260
formation	-9261
▁explanation	-9262
rob	-9263
rome	-9264
onder	-9265
▁Cuba	-9266
▁quarterback	-9267
olly	-9268
▁Born	-9269
▁bombs	-9270
▁coinc	-9271
▁Steven	-9272
▁predomin	-9273
▁angle	-9274
▁noise	-9275
▁Dest	-9276
▁Prom	-9277
▁heir	-9278
▁chapel	-9279
▁evident	-9280
▁studying	-9281
acre	-9282
phony	-9283
▁junction	-9284
rad	-9285
▁oxy	-9286
▁guide	-9287
▁Warren	-9288
▁furious	-9289
▁favorable	-9290
▁Key	-9291
▁fulf	-9292
aration	-9293
life	-9294
annon	-9295
▁Bureau	-9296
▁dynasty	-9297
▁typhoon	-9298
▁institution	-9299
erg	-9300
agen	-9301
▁bra	-9302
▁Mario	-9303
inations	-9304
▁carriers	-9305
mn	-9306
▁referring	-9307
▁yield	-9308
▁comparison	-9309
▁arrangements	-9310
storm	-9311
▁dict	-9312
▁movies	-9313
▁practices	-9314
▁sixteen	-9315
▁magazines	-9316
ée	-9317
sky	-9318
uese	-9319
▁Kane	-9320
▁thumb	-9321
▁empire	-9322
▁factory	-9323
elo	-9324
▁Vis	-9325
▁Anim	-9326
▁Craw	-9327
▁pant	-9328
▁excuse	-9329
▁retain	-9330
▁Baseball	-9331
▁demonstrated	-9332
ardo	-9333
orph	-9334
▁breasts	-9335
▁collaboration	-9336
▁Cyr	-9337
▁Hugh	-9338
▁anth	-9339
▁gust	-9340
ti	-9341
▁Grey	-9342
ethe	-9343
▁Files	-9344
▁Harvey	-9345
▁application	-9346
▁nominations	-9347
▁mamm	-9348
orable	-9349
▁subst	-9350
▁exclud	-9351
▁Manhattan	-9352
▁EP	-9353
odge	-9354
▁Ped	-9355
▁annoy	-9356
▁Canter	-9357
▁nights	-9358
▁earning	-9359
▁1903	-9360
▁shorter	-9361
▁exclusive	-9362
▁Ariz	-9363
▁Diego	-9364
▁stuck	-9365
▁distant	-9366
▁suspect	-9367
▁Business	-9368
▁Prize	-9369
▁battalions	-9370
▁bull	-9371
▁nurs	-9372
▁poems	-9373
▁bor	-9374
▁debt	-9375
▁forests	-9376
▁touring	-9377
▁artistic	-9378
▁Hem	-9379
▁Marc	-9380
▁Todd	-9381
▁scen	-9382
▁march	-9383
▁chamber	-9384
▁charity	-9385
▁Depression	-9386
▁101	-9387
▁Fal	-9388
▁1902	-9389
▁Hold	-9390
▁abund	-9391
▁Pil	-9392
▁1901	-9393
▁Small	-9394
▁seized	-9395
▁lowered	-9396
▁predict	-9397
▁welcome	-9398
▁Jonathan	-9399
▁administrative	-9400
▁masc	-9401
▁Alice	-9402
▁Indies	-9403
▁ceiling	-9404
▁disagre	-9405
▁printed	-9406
▁storage	-9407
▁playoffs	-9408
▁shipping	-9409
▁vulnerable	-9410
▁concentrated	-9411
▁Tag	-9412
▁abol	-9413
▁Delaware	-9414
rehens	-9415
▁Montreal	-9416
ught	-9417
angle	-9418
▁Maur	-9419
reated	-9420
▁jealous	-9421
ocy	-9422
▁Box	-9423
▁Bath	-9424
▁Impact	-9425
▁guards	-9426
▁fourteen	-9427
▁Tele	-9428
▁Players	-9429
▁context	-9430
▁disappointed	-9431
▁Know	-9432
▁intr	-9433
▁reply	-9434
▁paying	-9435
▁fastest	-9436
▁Historic	-9437
idency	-9438
lahoma	-9439
▁Muham	-9440
icut	-9441
▁sheep	-9442
▁compounds	-9443
▁Mik	-9444
▁Such	-9445
▁conce	-9446
▁ranch	-9447
▁approaching	-9448
▁Baker	-9449
▁assum	-9450
▁trick	-9451
▁Fleming	-9452
▁Hu	-9453
amped	-9454
▁handled	-9455
TW	-9456
▁Ferr	-9457
cribed	-9458
▁Arizona	-9459
▁intellect	-9460
▁Federation	-9461
▁exhibition	-9462
var	-9463
▁Tun	-9464
▁offense	-9465
▁inhabitants	-9466
▁McL	-9467
▁Non	-9468
▁suite	-9469
▁Clinton	-9470
▁opportun	-9471
fortunately	-9472
▁distinguished	-9473
▁jazz	-9474
▁silk	-9475
oddess	-9476
▁mayor	-9477
▁frustration	-9478
▁174	-9479
▁Buff	-9480
▁Publ	-9481
▁bonus	-9482
faction	-9483
▁incomp	-9484
▁photographs	-9485
▁109	-9486
▁Rat	-9487
uces	-9488
▁Walker	-9489
▁bearing	-9490
▁gorgeous	-9491
▁traveling	-9492
▁Philippines	-9493
▁168	-9494
▁bulk	-9495
▁frowned	-9496
▁desperate	-9497
▁cod	-9498
▁orange	-9499
▁dominant	-9500
▁aggressive	-9501
▁compilation	-9502
▁strengthened	-9503
▁Liz	-9504
▁Stat	-9505
▁Ward	-9506
▁console	-9507
▁reconna	-9508
▁controls	-9509
▁merchant	-9510
▁Portuguese	-9511
▁characterized	-9512
▁communication	-9513
itis	-9514
▁climb	-9515
odox	-9516
▁Cow	-9517
▁Inn	-9518
▁Sak	-9519
▁hem	-9520
▁loop	-9521
▁excav	-9522
▁armour	-9523
▁altered	-9524
▁ranging	-9525
imination	-9526
▁permitted	-9527
grad	-9528
omed	-9529
▁Fat	-9530
▁Wag	-9531
town	-9532
ensively	-9533
ele	-9534
issions	-9535
▁shocked	-9536
▁Oklahoma	-9537
▁surpass	-9538
iture	-9539
▁Camer	-9540
▁prize	-9541
mingham	-9542
▁inland	-9543
▁Bennett	-9544
▁perceived	-9545
▁Canterbury	-9546
▁interrupted	-9547
▁kW	-9548
▁blast	-9549
Ar	-9550
▁ease	-9551
▁infr	-9552
▁obtain	-9553
▁predicted	-9554
▁organisation	-9555
ni	-9556
▁NCAA	-9557
▁Shakes	-9558
▁myster	-9559
▁triple	-9560
▁visits	-9561
▁Enterprise	-9562
▁questioned	-9563
▁ma	-9564
soft	-9565
▁Abbey	-9566
▁stern	-9567
▁propag	-9568
sequently	-9569
▁essential	-9570
abs	-9571
anie	-9572
hous	-9573
▁similarly	-9574
▁reconnaissance	-9575
▁--	-9576
rawn	-9577
urer	-9578
▁glac	-9579
▁argues	-9580
▁revers	-9581
▁Original	-9582
▁households	-9583
▁insist	-9584
berry	-9585
▁Lang	-9586
pecies	-9587
▁enjoying	-9588
ori	-9589
▁Meg	-9590
▁Baby	-9591
▁tightly	-9592
▁dropping	-9593
▁thirteen	-9594
▁03	-9595
▁Jup	-9596
▁femin	-9597
▁ruling	-9598
▁NAS	-9599
▁Broadway	-9600
aux	-9601
▁murm	-9602
▁Bomb	-9603
▁Less	-9604
ullivan	-9605
▁legacy	-9606
▁preparing	-9607
▁stationed	-9608
▁distinctive	-9609
▁Nixon	-9610
▁profit	-9611
▁Muhammad	-9612
▁marketing	-9613
▁Mrs	-9614
▁plates	-9615
▁Persian	-9616
▁civilian	-9617
▁contributions	-9618
▁HD	-9619
▁attending	-9620
▁demolished	-9621
▁Ze	-9622
▁Dub	-9623
▁Pow	-9624
▁sear	-9625
▁accum	-9626
▁shaft	-9627
▁happening	-9628
▁Fif	-9629
▁Mand	-9630
▁enorm	-9631
▁allies	-9632
▁betray	-9633
▁Denmark	-9634
▁vertical	-9635
▁fract	-9636
▁oxygen	-9637
▁Napoleon	-9638
peare	-9639
▁bowl	-9640
▁Buddh	-9641
▁brick	-9642
▁engage	-9643
▁fabric	-9644
▁orchestra	-9645
▁sugar	-9646
▁landscape	-9647
▁Scientology	-9648
ova	-9649
▁wrestling	-9650
▁02	-9651
▁Prote	-9652
▁brilliant	-9653
▁Ral	-9654
▁Guide	-9655
▁Tokyo	-9656
▁voices	-9657
▁exercise	-9658
▁meal	-9659
▁seed	-9660
▁lanes	-9661
▁skill	-9662
▁talent	-9663
▁daughters	-9664
itals	-9665
▁reward	-9666
warf	-9667
hears	-9668
▁Swe	-9669
▁por	-9670
acles	-9671
▁judg	-9672
▁revol	-9673
▁comprom	-9674
▁revenue	-9675
▁alternate	-9676
▁sar	-9677
▁dear	-9678
▁dining	-9679
▁flooded	-9680
MI	-9681
appy	-9682
▁Kam	-9683
▁McM	-9684
▁beam	-9685
▁Chand	-9686
inister	-9687
▁Graham	-9688
▁jurisd	-9689
▁therap	-9690
▁identify	-9691
▁Birmingham	-9692
cott	-9693
▁ABC	-9694
▁Wolf	-9695
estone	-9696
▁Econom	-9697
▁armies	-9698
▁hardly	-9699
▁athletes	-9700
▁mathemat	-9701
▁thorough	-9702
uart	-9703
▁TNA	-9704
▁cad	-9705
▁compens	-9706
▁proof	-9707
▁ranks	-9708
▁artific	-9709
▁institutions	-9710
lu	-9711
▁Rub	-9712
▁subd	-9713
▁legit	-9714
OK	-9715
▁Mes	-9716
▁Sig	-9717
▁Wayne	-9718
▁Confederate	-9719
bec	-9720
▁Keith	-9721
▁polar	-9722
▁whilst	-9723
▁explore	-9724
▁Curt	-9725
▁ward	-9726
▁Bobby	-9727
▁Atlanta	-9728
▁militia	-9729
▁widened	-9730
▁youngest	-9731
▁attraction	-9732
ovi	-9733
▁echo	-9734
▁Tamil	-9735
▁manip	-9736
▁Shakespeare	-9737
▁Unt	-9738
▁ports	-9739
▁feeding	-9740
uan	-9741
▁Abd	-9742
aping	-9743
▁Justin	-9744
▁bombing	-9745
▁Internet	-9746
▁Railroad	-9747
hard	-9748
▁Hong	-9749
▁Open	-9750
▁victim	-9751
▁erected	-9752
▁evolved	-9753
▁disappoint	-9754
▁Rih	-9755
▁encl	-9756
agg	-9757
iko	-9758
rine	-9759
▁Nine	-9760
▁whenever	-9761
▁forgotten	-9762
LC	-9763
▁Opp	-9764
▁Girls	-9765
▁Celt	-9766
▁penet	-9767
imented	-9768
▁Clarke	-9769
▁identical	-9770
▁obsc	-9771
▁Jupiter	-9772
▁sang	-9773
▁Spart	-9774
▁connecting	-9775
▁profession	-9776
itate	-9777
▁peaking	-9778
▁desert	-9779
▁vs	-9780
bird	-9781
▁sem	-9782
▁Mission	-9783
▁emphasis	-9784
▁specimen	-9785
▁Tel	-9786
onomy	-9787
▁Arnold	-9788
▁Rihanna	-9789
▁continu	-9790
▁hallway	-9791
itzerland	-9792
▁counties	-9793
▁aftermath	-9794
▁membership	-9795
▁hey	-9796
▁caps	-9797
▁weigh	-9798
▁ticket	-9799
▁boundary	-9800
▁behaviour	-9801
▁definition	-9802
nik	-9803
anton	-9804
▁branches	-9805
▁Ches	-9806
▁Scout	-9807
▁colors	-9808
aro	-9809
▁Harv	-9810
▁settlers	-9811
inus	-9812
▁zoe	-9813
▁eleg	-9814
▁Davies	-9815
▁tactics	-9816
▁requires	-9817
▁employment	-9818
kh	-9819
rm	-9820
▁argue	-9821
▁extract	-9822
▁philosophy	-9823
uri	-9824
▁enthusi	-9825
▁Champions	-9826
ello	-9827
oming	-9828
▁Campaign	-9829
▁scattered	-9830
die	-9831
eton	-9832
▁liv	-9833
▁noble	-9834
▁roots	-9835
▁stall	-9836
▁Turner	-9837
▁diamond	-9838
▁sensitive	-9839
▁withdrawal	-9840
▁Morr	-9841
▁elig	-9842
▁butter	-9843
▁guitarist	-9844
▁northward	-9845
▁Amy	-9846
▁arguing	-9847
▁artwork	-9848
rina	-9849
▁Ins	-9850
▁chronic	-9851
▁CO	-9852
▁Ton	-9853
▁Vik	-9854
▁Mosc	-9855
▁fewer	-9856
▁stead	-9857
▁fairly	-9858
▁limits	-9859
▁worship	-9860
othy	-9861
▁Shak	-9862
▁pray	-9863
▁Trophy	-9864
▁ongoing	-9865
▁trapped	-9866
▁uranium	-9867
▁elevator	-9868
▁elevation	-9869
▁rebellion	-9870
▁publishing	-9871
▁tea	-9872
bling	-9873
▁Gene	-9874
▁bite	-9875
▁aggreg	-9876
▁wicket	-9877
▁Gilbert	-9878
▁sliding	-9879
▁qualified	-9880
▁ivy	-9881
▁defending	-9882
▁predecessor	-9883
▁cards	-9884
▁cabinet	-9885
▁Fel	-9886
▁grate	-9887
▁Mother	-9888
▁Chelsea	-9889
▁acclaim	-9890
▁dealing	-9891
▁darkness	-9892
▁proceeded	-9893
▁stops	-9894
▁acoust	-9895
▁organised	-9896
▁reduction	-9897
▁Rachel	-9898
▁discovers	-9899
▁mock	-9900
▁synd	-9901
▁marcus	-9902
▁options	-9903
▁ski	-9904
▁Juan	-9905
▁shake	-9906
▁virus	-9907
star	-9908
▁Dak	-9909
▁tossed	-9910
▁Ont	-9911
▁panel	-9912
▁tubes	-9913
▁failing	-9914
▁pregnancy	-9915
urd	-9916
oven	-9917
▁Las	-9918
▁rif	-9919
ultan	-9920
▁Cycl	-9921
▁joke	-9922
▁lighting	-9923
▁establishing	-9924
▁wr	-9925
▁Wii	-9926
▁democr	-9927
▁readers	-9928
▁supplied	-9929
▁celebrated	-9930
ple	-9931
▁sq	-9932
ieth	-9933
▁pitc	-9934
inated	-9935
▁Obama	-9936
▁Friday	-9937
▁defences	-9938
▁patients	-9939
▁Furthermore	-9940
oil	-9941
▁cub	-9942
inted	-9943
artney	-9944
▁radical	-9945
▁sentence	-9946
▁shopping	-9947
▁initiated	-9948
▁Switzerland	-9949
▁improvements	-9950
inda	-9951
▁gri	-9952
omber	-9953
▁Jerry	-9954
▁Jimmy	-9955
▁bitter	-9956
▁overseas	-9957
▁portions	-9958
▁signature	-9959
eland	-9960
usement	-9961
▁discont	-9962
▁exposure	-9963
▁UEFA	-9964
▁Merced	-9965
▁removal	-9966
▁Connecticut	-9967
equ	-9968
rage	-9969
▁Lat	-9970
▁Mend	-9971
terior	-9972
bastian	-9973
▁Johnny	-9974
▁advised	-9975
▁Malaysia	-9976
uz	-9977
▁173	-9978
▁cash	-9979
▁feared	-9980
▁rolling	-9981
▁dissipated	-9982
▁origins	-9983
▁surprising	-9984
▁publications	-9985
▁Hudson	-9986
▁graduated	-9987
bye	-9988
idal	-9989
▁voy	-9990
▁salv	-9991
▁Territ	-9992
▁helicopter	-9993
▁originated	-9994
ded	-9995
▁dubbed	-9996
▁Peace	-9997
▁raids	-9998
▁Foreign	-9999
▁arrives	-10000
▁planets	-10001
ean	-10002
addy	-10003
hand	-10004
▁Begin	-10005
▁rocks	-10006
▁attained	-10007
▁stopping	-10008
▁eval	-10009
▁legislature	-10010
▁Pad	-10011
▁opens	-10012
▁Moscow	-10013
▁donated	-10014
inge	-10015
▁Anc	-10016
utter	-10017
▁Cost	-10018
▁enlisted	-10019
▁advertising	-10020
folk	-10021
▁Lith	-10022
▁blame	-10023
▁venue	-10024
▁autobi	-10025
▁Eventually	-10026
▁163	-10027
▁scar	-10028
▁beats	-10029
▁discip	-10030
▁westward	-10031
▁Tol	-10032
▁rever	-10033
▁theater	-10034
▁pressing	-10035
▁execution	-10036
▁Originally	-10037
ifies	-10038
▁Patt	-10039
▁Lloyd	-10040
▁meter	-10041
▁assembly	-10042
▁audition	-10043
oa	-10044
arted	-10045
▁triumph	-10046
▁Prim	-10047
▁Ring	-10048
▁aerial	-10049
▁asleep	-10050
▁instinct	-10051
▁lux	-10052
▁Kate	-10053
▁increases	-10054
EC	-10055
▁Nik	-10056
▁nep	-10057
riffin	-10058
▁abuse	-10059
▁assured	-10060
▁doorway	-10061
▁volumes	-10062
▁Administration	-10063
▁lung	-10064
▁phrase	-10065
▁spaces	-10066
▁desperately	-10067
▁Ga	-10068
▁MS	-10069
iffs	-10070
▁rede	-10071
▁drivers	-10072
▁objective	-10073
▁reactions	-10074
aja	-10075
▁tab	-10076
▁Pruss	-10077
▁pione	-10078
osexual	-10079
▁affili	-10080
▁Mi	-10081
inding	-10082
▁travels	-10083
▁lifetime	-10084
▁constantly	-10085
aman	-10086
▁Our	-10087
▁sir	-10088
isive	-10089
▁Pearl	-10090
▁loving	-10091
▁turret	-10092
▁surrendered	-10093
rency	-10094
▁Bach	-10095
▁isot	-10096
▁Allies	-10097
andom	-10098
umped	-10099
▁Dale	-10100
▁decay	-10101
▁cannon	-10102
▁mature	-10103
OT	-10104
▁instant	-10105
▁demanding	-10106
▁destroying	-10107
▁brig	-10108
▁palm	-10109
▁rend	-10110
▁highways	-10111
▁Mountains	-10112
▁subspecies	-10113
▁Na	-10114
mund	-10115
▁Lost	-10116
▁persons	-10117
▁Apoll	-10118
▁ballad	-10119
▁markets	-10120
▁deterior	-10121
▁stretched	-10122
▁investigate	-10123
▁152	-10124
▁155	-10125
▁gown	-10126
▁Finland	-10127
ersed	-10128
▁solar	-10129
▁crashed	-10130
▁provincial	-10131
▁Ald	-10132
▁Lock	-10133
▁flee	-10134
▁wire	-10135
▁uncon	-10136
▁Charts	-10137
▁ceased	-10138
▁starring	-10139
lad	-10140
▁Maj	-10141
NC	-10142
▁UC	-10143
▁Beaut	-10144
▁releg	-10145
▁Edin	-10146
▁Gary	-10147
▁Community	-10148
feld	-10149
▁lou	-10150
urred	-10151
▁mail	-10152
▁Finally	-10153
▁courage	-10154
▁connections	-10155
not	-10156
▁forb	-10157
▁blocked	-10158
▁educational	-10159
▁Rico	-10160
▁champions	-10161
▁evacuated	-10162
▁da	-10163
colm	-10164
▁Nas	-10165
▁cuts	-10166
▁dock	-10167
▁municipal	-10168
▁succession	-10169
▁quad	-10170
▁regime	-10171
▁voting	-10172
▁trading	-10173
▁expecting	-10174
▁interpretation	-10175
▁pm	-10176
▁Laur	-10177
▁beer	-10178
▁dozen	-10179
▁smart	-10180
▁Liberal	-10181
autical	-10182
▁curved	-10183
▁forecast	-10184
▁Communist	-10185
▁threatening	-10186
uki	-10187
▁mate	-10188
▁Flying	-10189
▁Hughes	-10190
▁cha	-10191
ingham	-10192
▁mixture	-10193
▁stephen	-10194
▁conversion	-10195
▁cabin	-10196
▁campaigns	-10197
▁Tak	-10198
▁outl	-10199
▁corps	-10200
▁invent	-10201
▁satisfied	-10202
▁prince	-10203
▁sacrif	-10204
▁Som	-10205
▁List	-10206
▁satellite	-10207
▁cyl	-10208
onium	-10209
▁1899	-10210
▁file	-10211
▁Perry	-10212
▁observations	-10213
▁ow	-10214
rolled	-10215
rific	-10216
▁Nation	-10217
▁Defence	-10218
▁terrain	-10219
▁earthquake	-10220
run	-10221
aust	-10222
▁111	-10223
▁Type	-10224
▁stretch	-10225
▁Morrison	-10226
▁musician	-10227
▁Honor	-10228
▁accompanying	-10229
▁Tig	-10230
▁pel	-10231
graph	-10232
▁pants	-10233
▁Afghan	-10234
▁accord	-10235
▁latest	-10236
▁Cricket	-10237
▁charter	-10238
▁sailing	-10239
▁fortress	-10240
rous	-10241
urst	-10242
▁nod	-10243
owing	-10244
▁Mans	-10245
▁practical	-10246
▁colleagues	-10247
▁Ralph	-10248
▁Bernard	-10249
▁Edinburgh	-10250
fr	-10251
▁Lt	-10252
▁166	-10253
▁Sem	-10254
▁Cher	-10255
▁Prop	-10256
irates	-10257
ishers	-10258
▁Ridge	-10259
▁Gard	-10260
▁yours	-10261
▁sharing	-10262
▁Pakistan	-10263
▁hydrogen	-10264
▁reducing	-10265
▁requirements	-10266
▁AP	-10267
▁Isa	-10268
▁Pap	-10269
▁cartoon	-10270
▁Hampshire	-10271
▁strategic	-10272
▁Clay	-10273
itarian	-10274
▁Murphy	-10275
▁salary	-10276
▁108	-10277
aders	-10278
▁Guitar	-10279
▁Rights	-10280
▁soldier	-10281
atropical	-10282
▁Sullivan	-10283
yd	-10284
▁Eu	-10285
▁Stef	-10286
▁nipp	-10287
▁Alaska	-10288
▁Village	-10289
▁provision	-10290
▁underwent	-10291
born	-10292
▁Yam	-10293
▁1860	-10294
▁Marl	-10295
▁inhib	-10296
clock	-10297
ensis	-10298
▁sink	-10299
▁swift	-10300
▁conservation	-10301
ashi	-10302
▁tough	-10303
▁annually	-10304
rix	-10305
mers	-10306
arest	-10307
▁dust	-10308
▁Swift	-10309
▁shallow	-10310
▁watershed	-10311
▁representatives	-10312
▁Kap	-10313
▁tox	-10314
▁redes	-10315
▁Spirit	-10316
▁gender	-10317
▁Democrats	-10318
zing	-10319
▁stair	-10320
▁Outstanding	-10321
agne	-10322
▁Amb	-10323
▁Sud	-10324
▁Quest	-10325
▁sheet	-10326
▁kicked	-10327
▁Brothers	-10328
▁graduate	-10329
▁theatrical	-10330
▁Sox	-10331
uchess	-10332
▁Books	-10333
▁chase	-10334
▁Austrian	-10335
▁founding	-10336
gon	-10337
abriel	-10338
▁hopes	-10339
▁mainland	-10340
allas	-10341
▁1896	-10342
aching	-10343
▁Ontario	-10344
amps	-10345
▁Say	-10346
ouver	-10347
▁slide	-10348
pent	-10349
pert	-10350
roph	-10351
urse	-10352
▁Ted	-10353
▁fed	-10354
anche	-10355
▁jury	-10356
itudes	-10357
▁crack	-10358
▁crest	-10359
▁complained	-10360
▁1893	-10361
▁mini	-10362
▁tube	-10363
▁hosts	-10364
▁endors	-10365
▁Personal	-10366
▁counterp	-10367
▁Argentina	-10368
▁decorated	-10369
▁photo	-10370
▁ordinary	-10371
▁survival	-10372
▁Universal	-10373
elta	-10374
ennium	-10375
▁conspir	-10376
▁equally	-10377
▁Microsoft	-10378
▁edited	-10379
▁slaves	-10380
▁topped	-10381
▁Belgian	-10382
▁indicates	-10383
▁Pink	-10384
▁grip	-10385
▁unlik	-10386
▁imagery	-10387
▁duration	-10388
hu	-10389
onge	-10390
▁Ruth	-10391
▁strongest	-10392
▁promotional	-10393
▁Din	-10394
onsin	-10395
▁Soul	-10396
▁Those	-10397
▁urged	-10398
▁Dwight	-10399
▁borrow	-10400
▁output	-10401
▁parody	-10402
▁compound	-10403
IS	-10404
otal	-10405
▁169	-10406
▁Prix	-10407
▁couch	-10408
▁partial	-10409
▁explaining	-10410
▁basin	-10411
▁Kaiser	-10412
▁absent	-10413
▁shiver	-10414
▁rehears	-10415
▁CS	-10416
▁punk	-10417
ussion	-10418
▁conceived	-10419
▁opportunities	-10420
▁Beng	-10421
▁talks	-10422
▁stolen	-10423
ellation	-10424
▁exclusively	-10425
▁translation	-10426
oys	-10427
▁instructions	-10428
asa	-10429
▁CP	-10430
atis	-10431
illo	-10432
▁Tax	-10433
▁dawn	-10434
▁Years	-10435
▁comed	-10436
▁Darwin	-10437
▁assembled	-10438
▁competing	-10439
▁extratropical	-10440
din	-10441
▁gh	-10442
▁172	-10443
kward	-10444
▁Credits	-10445
▁reviewed	-10446
▁investment	-10447
▁electricity	-10448
▁Lion	-10449
▁Larry	-10450
▁1898	-10451
▁Goth	-10452
itting	-10453
▁users	-10454
▁bishop	-10455
▁1850	-10456
▁stroke	-10457
▁weekly	-10458
▁gardens	-10459
▁software	-10460
▁ranges	-10461
▁mystery	-10462
▁complicated	-10463
oda	-10464
adal	-10465
agasc	-10466
▁atomic	-10467
▁commanding	-10468
▁Bosn	-10469
▁parker	-10470
asts	-10471
orld	-10472
aiden	-10473
tes	-10474
uras	-10475
asket	-10476
▁Malcolm	-10477
▁elaborate	-10478
olds	-10479
aters	-10480
▁grave	-10481
▁smoke	-10482
▁seated	-10483
isconsin	-10484
▁awkward	-10485
▁Queensland	-10486
mith	-10487
▁Boe	-10488
▁Chile	-10489
▁toler	-10490
▁banned	-10491
▁density	-10492
▁samples	-10493
▁unclear	-10494
▁acoustic	-10495
inces	-10496
▁stare	-10497
▁Israeli	-10498
▁sinking	-10499
▁explicit	-10500
▁Inv	-10501
▁dani	-10502
▁gods	-10503
▁Barry	-10504
▁centers	-10505
▁eighteen	-10506
▁relatives	-10507
uto	-10508
▁350	-10509
▁migr	-10510
▁chore	-10511
ancouver	-10512
aze	-10513
riors	-10514
▁Natural	-10515
▁protests	-10516
▁Chronicle	-10517
ensus	-10518
▁impressive	-10519
▁Emer	-10520
▁Reich	-10521
▁james	-10522
▁mansion	-10523
▁Services	-10524
▁considers	-10525
▁radiation	-10526
▁artificial	-10527
hum	-10528
sor	-10529
adier	-10530
▁Exec	-10531
▁merc	-10532
achers	-10533
▁guilt	-10534
iciency	-10535
▁culmin	-10536
▁nephew	-10537
▁theore	-10538
▁duo	-10539
▁Mond	-10540
uctive	-10541
▁groaned	-10542
▁reverse	-10543
▁accurate	-10544
▁respective	-10545
▁contribution	-10546
mm	-10547
▁Tai	-10548
uating	-10549
▁exhausted	-10550
▁Islamic	-10551
▁avoided	-10552
▁camille	-10553
▁components	-10554
iti	-10555
▁tale	-10556
▁Wells	-10557
▁purse	-10558
▁Overall	-10559
▁Serbian	-10560
▁dancers	-10561
▁anticipated	-10562
▁Christianity	-10563
iry	-10564
▁Sid	-10565
▁Pars	-10566
▁tempt	-10567
▁disband	-10568
▁Ay	-10569
▁Boys	-10570
▁muttered	-10571
▁tightened	-10572
▁physically	-10573
eps	-10574
roc	-10575
▁garn	-10576
▁Drive	-10577
▁Susan	-10578
igenous	-10579
▁Peters	-10580
▁inning	-10581
▁medicine	-10582
▁translated	-10583
▁overwhelming	-10584
isle	-10585
▁dare	-10586
▁spir	-10587
▁displays	-10588
▁Victorian	-10589
▁portrayal	-10590
▁improvement	-10591
ds	-10592
affe	-10593
▁fee	-10594
▁tast	-10595
▁sings	-10596
▁Convention	-10597
▁Cena	-10598
▁slip	-10599
▁marine	-10600
▁commentary	-10601
▁conventional	-10602
▁pip	-10603
boards	-10604
lights	-10605
▁beaten	-10606
▁Vancouver	-10607
▁platforms	-10608
▁provinces	-10609
▁revealing	-10610
seud	-10611
adows	-10612
shore	-10613
▁Past	-10614
▁pupp	-10615
▁sofa	-10616
▁Meteor	-10617
▁traded	-10618
▁tickets	-10619
▁catal	-10620
▁hills	-10621
landers	-10622
▁amateur	-10623
▁belonged	-10624
immer	-10625
▁abrupt	-10626
▁extending	-10627
▁publisher	-10628
▁Diam	-10629
▁fest	-10630
herent	-10631
▁flows	-10632
▁taxes	-10633
▁melody	-10634
▁rebels	-10635
▁revolt	-10636
▁stones	-10637
▁tested	-10638
▁Collins	-10639
▁unlikely	-10640
▁reinforcements	-10641
nda	-10642
▁bab	-10643
▁mild	-10644
▁rings	-10645
▁ruler	-10646
▁breaks	-10647
▁shares	-10648
▁Edwards	-10649
▁statistics	-10650
Sp	-10651
▁Mix	-10652
▁bell	-10653
▁frown	-10654
▁valid	-10655
▁kisses	-10656
▁scared	-10657
▁escorted	-10658
▁maintaining	-10659
▁productions	-10660
eto	-10661
tha	-10662
▁Pam	-10663
▁Tob	-10664
▁web	-10665
▁Sign	-10666
▁surve	-10667
▁external	-10668
▁Wisconsin	-10669
zech	-10670
▁unh	-10671
▁gene	-10672
▁scent	-10673
▁intersects	-10674
rov	-10675
▁Next	-10676
▁Guinea	-10677
▁exists	-10678
▁mining	-10679
▁varied	-10680
▁addressed	-10681
▁destroyer	-10682
▁transported	-10683
▁Transportation	-10684
▁162	-10685
▁Neil	-10686
▁Potter	-10687
▁trough	-10688
▁Windows	-10689
▁enormous	-10690
▁Jar	-10691
▁Oslo	-10692
▁cruc	-10693
▁pairs	-10694
▁cotton	-10695
▁labour	-10696
▁tenure	-10697
▁airline	-10698
▁amusement	-10699
▁withdrawn	-10700
▁developers	-10701
▁1897	-10702
ampton	-10703
▁fright	-10704
▁laying	-10705
uez	-10706
▁insects	-10707
▁prisoner	-10708
▁streak	-10709
▁carries	-10710
▁devices	-10711
alia	-10712
avid	-10713
rode	-10714
▁167	-10715
▁Ent	-10716
▁holiday	-10717
▁liberal	-10718
▁communist	-10719
▁positively	-10720
▁accommodate	-10721
▁Eug	-10722
▁tape	-10723
▁Hearts	-10724
▁patient	-10725
agi	-10726
▁ages	-10727
▁Gallery	-10728
▁harbour	-10729
▁Madagasc	-10730
▁reinforced	-10731
▁Czech	-10732
▁Pitts	-10733
▁immigr	-10734
▁quarters	-10735
▁experiments	-10736
▁curve	-10737
▁spell	-10738
▁racial	-10739
▁toured	-10740
▁lifting	-10741
▁uncomfort	-10742
▁Joy	-10743
cules	-10744
▁Yorks	-10745
▁Rangers	-10746
▁confirm	-10747
▁architectural	-10748
▁McN	-10749
ulsion	-10750
▁Liter	-10751
▁cheer	-10752
▁Medical	-10753
gé	-10754
ayan	-10755
▁Bes	-10756
▁Vel	-10757
▁mud	-10758
▁Gate	-10759
▁flex	-10760
▁thinks	-10761
▁recovery	-10762
▁Tan	-10763
▁gif	-10764
▁vig	-10765
▁Where	-10766
▁chemistry	-10767
▁grandmother	-10768
▁hay	-10769
▁Orton	-10770
▁bench	-10771
ologies	-10772
▁insult	-10773
▁resolved	-10774
▁interpreted	-10775
idel	-10776
▁sne	-10777
▁Malt	-10778
▁stere	-10779
▁corrid	-10780
▁warfare	-10781
illes	-10782
lington	-10783
▁terrible	-10784
xim	-10785
▁darcy	-10786
▁muscle	-10787
osy	-10788
▁Abb	-10789
▁Rena	-10790
▁devoted	-10791
▁Heritage	-10792
▁Nicholas	-10793
▁121	-10794
leans	-10795
▁pole	-10796
▁Triple	-10797
▁Reserve	-10798
▁circles	-10799
▁dischar	-10800
▁Mercedes	-10801
AR	-10802
▁Osc	-10803
ubble	-10804
itious	-10805
▁reorgan	-10806
▁Yorkshire	-10807
▁customers	-10808
▁recognize	-10809
▁113	-10810
▁Thunder	-10811
▁Champion	-10812
▁sculpture	-10813
▁Pa	-10814
▁Deep	-10815
▁Fund	-10816
▁woods	-10817
▁courses	-10818
▁naturally	-10819
▁Cra	-10820
▁stir	-10821
▁Market	-10822
▁shadow	-10823
▁biographer	-10824
amas	-10825
roft	-10826
▁Phys	-10827
▁brings	-10828
▁advertis	-10829
▁component	-10830
▁attractive	-10831
▁Si	-10832
▁Fro	-10833
▁Pin	-10834
cester	-10835
▁trend	-10836
▁boilers	-10837
▁principles	-10838
▁Performance	-10839
▁governments	-10840
car	-10841
odium	-10842
amount	-10843
enesis	-10844
etheless	-10845
▁careful	-10846
▁rounded	-10847
▁messages	-10848
▁swallowed	-10849
▁Constantine	-10850
▁Hur	-10851
▁hind	-10852
▁Hawaii	-10853
iciently	-10854
▁anticipation	-10855
▁presentation	-10856
oves	-10857
▁chrom	-10858
▁Wallace	-10859
▁columns	-10860
▁scandal	-10861
▁mechanical	-10862
▁brows	-10863
▁liner	-10864
▁invitation	-10865
▁raw	-10866
otion	-10867
▁Move	-10868
▁amph	-10869
▁luck	-10870
acular	-10871
ivation	-10872
▁washed	-10873
▁Antonio	-10874
▁transportation	-10875
bes	-10876
▁Ku	-10877
icia	-10878
▁171	-10879
▁mrs	-10880
▁exceed	-10881
▁sovere	-10882
▁constitu	-10883
▁praising	-10884
brid	-10885
mont	-10886
stan	-10887
uded	-10888
▁Eth	-10889
▁Eight	-10890
▁Falls	-10891
▁killer	-10892
▁ignoring	-10893
▁Boat	-10894
▁Salt	-10895
▁marched	-10896
▁proposals	-10897
▁Madagascar	-10898
▁continuous	-10899
TWC	-10900
owski	-10901
▁JTWC	-10902
▁bears	-10903
▁Harbor	-10904
▁Protest	-10905
▁switched	-10906
▁Professor	-10907
▁practically	-10908
▁Ni	-10909
▁Sherman	-10910
▁nautical	-10911
▁intelligent	-10912
aku	-10913
ints	-10914
▁prel	-10915
wright	-10916
▁anime	-10917
▁slave	-10918
▁climbed	-10919
▁costume	-10920
▁nut	-10921
ambers	-10922
▁dimin	-10923
▁rivalry	-10924
urricanes	-10925
▁heritage	-10926
▁valuable	-10927
▁suggestion	-10928
▁Chamberlain	-10929
IV	-10930
she	-10931
▁Eis	-10932
agged	-10933
▁fare	-10934
▁nurse	-10935
▁switch	-10936
▁persuaded	-10937
▁releasing	-10938
▁representation	-10939
ulty	-10940
▁Pic	-10941
▁dual	-10942
▁Somet	-10943
▁Training	-10944
▁hypothes	-10945
▁commenced	-10946
oom	-10947
▁MI	-10948
▁keys	-10949
▁ties	-10950
▁balls	-10951
▁grossing	-10952
▁numbered	-10953
ohn	-10954
▁abd	-10955
merce	-10956
aneous	-10957
▁gaining	-10958
▁commanders	-10959
▁experimental	-10960
isk	-10961
▁lun	-10962
▁Luke	-10963
▁YouT	-10964
▁megan	-10965
▁utter	-10966
▁tonnes	-10967
▁competitive	-10968
▁Dec	-10969
amine	-10970
▁cott	-10971
▁Harvard	-10972
▁frequency	-10973
▁disappointment	-10974
quis	-10975
▁Crus	-10976
▁retrie	-10977
▁suspic	-10978
▁significance	-10979
iah	-10980
enburg	-10981
▁towers	-10982
▁Officer	-10983
▁properly	-10984
▁celebrate	-10985
▁aft	-10986
▁conj	-10987
▁steep	-10988
▁YouTube	-10989
▁elector	-10990
▁songwriter	-10991
embr	-10992
▁Blu	-10993
▁outd	-10994
▁helps	-10995
▁parks	-10996
▁sized	-10997
ocation	-10998
▁participation	-10999
▁sab	-11000
▁Days	-11001
▁texts	-11002
▁entert	-11003
▁Typhoon	-11004
▁Similarly	-11005
▁Local	-11006
▁Plant	-11007
▁walks	-11008
▁Turkey	-11009
▁relocated	-11010
▁checked	-11011
▁tu	-11012
▁104	-11013
▁Globe	-11014
▁bigger	-11015
▁crimes	-11016
▁restore	-11017
▁tornado	-11018
▁operates	-11019
▁highlighted	-11020
▁sharks	-11021
▁goddess	-11022
▁consistent	-11023
▁photography	-11024
quer	-11025
▁Aer	-11026
▁cave	-11027
▁Actress	-11028
▁innocent	-11029
▁portrait	-11030
▁companion	-11031
▁Dyn	-11032
▁nom	-11033
▁Tint	-11034
▁Bryan	-11035
▁Still	-11036
▁spite	-11037
▁cattle	-11038
▁promin	-11039
▁Norfolk	-11040
▁reporter	-11041
▁Cathedral	-11042
▁XII	-11043
▁cared	-11044
▁silly	-11045
▁Austin	-11046
▁prices	-11047
▁princess	-11048
iper	-11049
arded	-11050
imony	-11051
▁Grace	-11052
▁psychiat	-11053
▁travelling	-11054
▁doct	-11055
▁Andre	-11056
letcher	-11057
▁Marvel	-11058
▁tissue	-11059
▁telephone	-11060
▁commitment	-11061
▁programming	-11062
ilda	-11063
ouch	-11064
pler	-11065
▁Sug	-11066
▁panic	-11067
▁tempo	-11068
assador	-11069
▁burial	-11070
▁invaded	-11071
▁administer	-11072
▁Rest	-11073
▁Terr	-11074
▁inex	-11075
▁Burns	-11076
▁blues	-11077
▁camps	-11078
▁tooth	-11079
▁Donald	-11080
▁Newton	-11081
▁cinema	-11082
▁export	-11083
▁exciting	-11084
▁traditions	-11085
▁accomplished	-11086
▁Poe	-11087
ipher	-11088
onian	-11089
▁Must	-11090
▁rect	-11091
▁supern	-11092
ationally	-11093
▁benefits	-11094
▁substitute	-11095
▁anne	-11096
▁license	-11097
▁interviews	-11098
mented	-11099
▁Hunter	-11100
▁thighs	-11101
▁lasting	-11102
▁fundament	-11103
▁Constantin	-11104
▁constitutional	-11105
ét	-11106
▁Minor	-11107
▁yester	-11108
▁Defense	-11109
▁Vincent	-11110
▁Security	-11111
▁Indonesia	-11112
▁supplement	-11113
rien	-11114
▁nit	-11115
▁seas	-11116
▁helen	-11117
▁conced	-11118
▁introduce	-11119
▁yesterday	-11120
▁jurisdiction	-11121
ATO	-11122
▁Ax	-11123
venth	-11124
▁Crow	-11125
▁Ivan	-11126
▁moist	-11127
▁smell	-11128
▁grateful	-11129
astructure	-11130
▁Meth	-11131
▁wound	-11132
▁Fourth	-11133
▁revised	-11134
▁accidentally	-11135
▁Sout	-11136
▁Patri	-11137
▁vital	-11138
▁Junior	-11139
▁absorbed	-11140
▁attorney	-11141
▁intermedi	-11142
anim	-11143
▁Ori	-11144
▁Leices	-11145
▁102	-11146
▁Ali	-11147
▁Cer	-11148
▁Monte	-11149
▁crops	-11150
▁Chapel	-11151
▁sample	-11152
abilities	-11153
▁Greatest	-11154
▁Woman	-11155
umented	-11156
▁Princip	-11157
▁descent	-11158
▁qualifying	-11159
ierra	-11160
▁Angl	-11161
▁disg	-11162
▁kills	-11163
▁minority	-11164
▁displaced	-11165
▁inherited	-11166
▁Rio	-11167
▁milk	-11168
earing	-11169
▁Studio	-11170
▁contracts	-11171
rh	-11172
enos	-11173
istent	-11174
▁manga	-11175
▁Oliver	-11176
▁priest	-11177
▁congreg	-11178
▁enforce	-11179
▁congress	-11180
▁approaches	-11181
▁essentially	-11182
▁applications	-11183
▁161	-11184
▁kat	-11185
▁til	-11186
oline	-11187
▁Kyle	-11188
▁Vers	-11189
▁enabled	-11190
▁exchang	-11191
▁consolid	-11192
▁lor	-11193
▁suck	-11194
▁drain	-11195
▁colored	-11196
▁celebration	-11197
▁challenging	-11198
avia	-11199
▁dug	-11200
▁dwarf	-11201
▁paras	-11202
▁handling	-11203
▁Broadcast	-11204
▁advancing	-11205
▁proportion	-11206
yan	-11207
neys	-11208
▁fra	-11209
▁Fact	-11210
▁loves	-11211
▁nerve	-11212
▁Fighter	-11213
▁incredible	-11214
▁nevertheless	-11215
PA	-11216
bn	-11217
ocity	-11218
▁Emmy	-11219
ellers	-11220
▁Upper	-11221
amation	-11222
▁Apollo	-11223
▁drummer	-11224
▁murmured	-11225
aley	-11226
▁154	-11227
▁1895	-11228
▁dense	-11229
▁enact	-11230
▁Herald	-11231
▁Tintin	-11232
▁recurring	-11233
▁1894	-11234
▁Maya	-11235
▁Geoff	-11236
▁Orleans	-11237
▁absolute	-11238
▁weakness	-11239
▁Aftermath	-11240
▁Jefferson	-11241
▁industries	-11242
▁Description	-11243
▁FBI	-11244
▁Orange	-11245
▁garage	-11246
▁rivals	-11247
▁embarked	-11248
▁listened	-11249
▁multiplayer	-11250
ME	-11251
sa	-11252
▁240	-11253
▁ned	-11254
▁Poll	-11255
▁belly	-11256
▁tribe	-11257
▁learns	-11258
▁sponsored	-11259
▁MV	-11260
appa	-11261
▁Kir	-11262
▁Walt	-11263
▁Mayor	-11264
▁Tyler	-11265
▁Cultural	-11266
▁intimate	-11267
▁resignation	-11268
▁Kan	-11269
▁Airl	-11270
▁occasional	-11271
▁legislative	-11272
▁parliamentary	-11273
rin	-11274
child	-11275
▁bold	-11276
▁fame	-11277
▁Angle	-11278
▁Terry	-11279
▁petition	-11280
▁requiring	-11281
orf	-11282
▁AL	-11283
gins	-11284
▁Jama	-11285
▁sword	-11286
▁ignore	-11287
▁atop	-11288
▁slee	-11289
▁Actor	-11290
▁Stars	-11291
▁Trade	-11292
▁sasha	-11293
▁wreck	-11294
▁focusing	-11295
▁virtually	-11296
▁agriculture	-11297
held	-11298
▁renewed	-11299
pine	-11300
backs	-11301
▁waved	-11302
ressing	-11303
▁structural	-11304
cha	-11305
▁Sega	-11306
levard	-11307
▁Saxon	-11308
▁apply	-11309
sed	-11310
tic	-11311
▁Cad	-11312
▁Owen	-11313
▁buff	-11314
▁Villa	-11315
▁filmm	-11316
▁hostile	-11317
▁romance	-11318
▁threats	-11319
▁McCartney	-11320
▁Republicans	-11321
ometric	-11322
▁housed	-11323
▁saving	-11324
▁mitchell	-11325
cont	-11326
▁Poly	-11327
▁lots	-11328
▁physics	-11329
▁Richmond	-11330
▁warnings	-11331
és	-11332
▁Hig	-11333
▁Lib	-11334
▁1889	-11335
▁floors	-11336
▁airfield	-11337
▁cyclones	-11338
▁127	-11339
▁ram	-11340
▁1861	-11341
▁Mint	-11342
▁vamp	-11343
▁accus	-11344
▁monster	-11345
rus	-11346
acht	-11347
piece	-11348
▁FIFA	-11349
▁twist	-11350
▁fossil	-11351
▁warmth	-11352
▁Gy	-11353
yers	-11354
▁978	-11355
▁Gay	-11356
▁Branch	-11357
▁airing	-11358
▁merged	-11359
▁figured	-11360
▁challenges	-11361
▁speculation	-11362
gom	-11363
izer	-11364
▁wars	-11365
▁Sonic	-11366
▁random	-11367
ao	-11368
▁teasing	-11369
▁disorder	-11370
▁monaster	-11371
▁observation	-11372
haw	-11373
esty	-11374
▁Thr	-11375
ppers	-11376
▁Shep	-11377
▁epic	-11378
▁Yellow	-11379
▁funded	-11380
▁Cardiff	-11381
▁gathering	-11382
▁pig	-11383
▁Bald	-11384
archers	-11385
▁Symphony	-11386
▁circular	-11387
▁estimates	-11388
▁Conservation	-11389
▁117	-11390
▁Ric	-11391
▁1891	-11392
▁Mall	-11393
▁Harold	-11394
▁villain	-11395
▁Catherine	-11396
▁districts	-11397
▁predators	-11398
▁ridiculous	-11399
▁Independence	-11400
▁RP	-11401
aphic	-11402
▁Shiva	-11403
▁bills	-11404
▁loaded	-11405
▁Crawford	-11406
▁mythology	-11407
▁discussing	-11408
iven	-11409
▁Until	-11410
▁error	-11411
▁Report	-11412
▁Stuart	-11413
▁Picture	-11414
▁Formation	-11415
▁AT	-11416
aston	-11417
▁Sean	-11418
▁slept	-11419
▁struggling	-11420
▁satisfaction	-11421
▁AS	-11422
▁PS	-11423
▁verte	-11424
▁rejoin	-11425
▁strand	-11426
▁trailer	-11427
▁commenting	-11428
▁intervention	-11429
OS	-11430
▁Cass	-11431
▁pursuit	-11432
▁squadrons	-11433
▁locomotives	-11434
reep	-11435
▁Mong	-11436
▁Bible	-11437
▁fisher	-11438
▁teammate	-11439
▁Representatives	-11440
pike	-11441
▁Amaz	-11442
▁Hope	-11443
▁stim	-11444
▁revel	-11445
▁filling	-11446
idan	-11447
▁Term	-11448
▁Syria	-11449
▁royce	-11450
▁unaware	-11451
▁proteins	-11452
▁Mut	-11453
▁1885	-11454
asters	-11455
usalem	-11456
▁remote	-11457
▁Leonard	-11458
▁happens	-11459
▁Together	-11460
▁statements	-11461
alin	-11462
elin	-11463
▁Tru	-11464
▁Ages	-11465
▁Pant	-11466
▁Ship	-11467
▁gigg	-11468
▁fears	-11469
▁Legisl	-11470
▁Twitter	-11471
▁involves	-11472
▁capturing	-11473
▁potentially	-11474
axy	-11475
▁Gor	-11476
▁tel	-11477
▁Exper	-11478
▁crystal	-11479
▁examined	-11480
▁determination	-11481
▁Ran	-11482
▁Barnes	-11483
▁conven	-11484
▁hannah	-11485
▁Amendment	-11486
zes	-11487
▁jax	-11488
▁Bark	-11489
▁NATO	-11490
▁Stre	-11491
▁trunk	-11492
▁Gibral	-11493
▁crying	-11494
▁voyage	-11495
▁diplomatic	-11496
occ	-11497
▁Eve	-11498
▁Stra	-11499
▁fila	-11500
▁exhaust	-11501
▁characteristic	-11502
▁Howe	-11503
▁liam	-11504
▁Tourn	-11505
▁recept	-11506
▁pointing	-11507
▁engineers	-11508
▁researchers	-11509
▁1892	-11510
ortion	-11511
▁Manuel	-11512
▁boundaries	-11513
▁unfortunately	-11514
cca	-11515
etta	-11516
enson	-11517
▁1888	-11518
▁Icel	-11519
▁tours	-11520
▁removing	-11521
▁upcoming	-11522
cliff	-11523
▁sienna	-11524
▁reforms	-11525
▁servants	-11526
▁Beginning	-11527
▁volunteers	-11528
▁Fu	-11529
▁Link	-11530
▁Spider	-11531
▁cruise	-11532
▁heaven	-11533
▁Against	-11534
▁wishing	-11535
▁organisms	-11536
▁Laboratory	-11537
▁AM	-11538
avan	-11539
▁Leo	-11540
▁Burton	-11541
▁Planet	-11542
▁resort	-11543
▁Diamond	-11544
▁Johnston	-11545
▁Register	-11546
▁Jerusalem	-11547
quet	-11548
▁Scots	-11549
▁curves	-11550
▁surely	-11551
▁teased	-11552
▁painful	-11553
▁picking	-11554
▁frustrated	-11555
▁considerably	-11556
osph	-11557
▁nickname	-11558
▁Gibraltar	-11559
▁possessed	-11560
▁authorized	-11561
▁Cyrus	-11562
▁Agency	-11563
▁Fisher	-11564
▁envelop	-11565
▁educated	-11566
▁oriented	-11567
▁magnitude	-11568
gow	-11569
vor	-11570
▁Il	-11571
onald	-11572
▁summit	-11573
▁documented	-11574
▁screenplay	-11575
▁examination	-11576
▁ERA	-11577
▁Nev	-11578
▁arguments	-11579
▁interaction	-11580
rior	-11581
▁fru	-11582
▁Nova	-11583
▁Salv	-11584
▁tune	-11585
▁Sweet	-11586
▁Iceland	-11587
▁revenge	-11588
▁inclusion	-11589
▁reluctant	-11590
bery	-11591
oting	-11592
action	-11593
thodox	-11594
▁backst	-11595
▁comics	-11596
▁processes	-11597
▁tap	-11598
pered	-11599
▁bore	-11600
▁offs	-11601
▁incredibly	-11602
zh	-11603
▁Glas	-11604
▁choir	-11605
▁usage	-11606
▁Danish	-11607
▁voters	-11608
▁shelter	-11609
▁tracked	-11610
fly	-11611
uil	-11612
nels	-11613
▁106	-11614
▁Barr	-11615
▁Reed	-11616
▁Utah	-11617
▁Prest	-11618
▁heated	-11619
▁Classic	-11620
▁Freedom	-11621
▁Official	-11622
▁Executive	-11623
▁civilians	-11624
▁literally	-11625
▁electrical	-11626
▁ine	-11627
▁1865	-11628
▁deny	-11629
▁ghost	-11630
▁charted	-11631
▁stunned	-11632
▁rendered	-11633
▁progressed	-11634
▁concentrate	-11635
▁competitions	-11636
▁unn	-11637
▁incl	-11638
▁styl	-11639
▁ratio	-11640
▁plenty	-11641
▁Marines	-11642
▁garrett	-11643
▁lightly	-11644
▁recruited	-11645
▁weakening	-11646
▁Metropolitan	-11647
anga	-11648
▁Skin	-11649
▁Judge	-11650
▁tasha	-11651
angular	-11652
▁Serbia	-11653
▁nicole	-11654
▁Pictures	-11655
▁favourite	-11656
▁mysterious	-11657
▁communications	-11658
iffer	-11659
▁dreadn	-11660
▁diverse	-11661
▁principle	-11662
OC	-11663
bi	-11664
bu	-11665
▁lon	-11666
▁Marge	-11667
▁flown	-11668
▁Brooks	-11669
▁depicts	-11670
▁positioned	-11671
LA	-11672
▁Wa	-11673
▁Hob	-11674
▁separation	-11675
▁Rud	-11676
▁lucy	-11677
▁layers	-11678
▁cooking	-11679
▁glasses	-11680
▁jumping	-11681
▁segments	-11682
▁Management	-11683
gio	-11684
itic	-11685
▁Beh	-11686
▁Env	-11687
▁shy	-11688
inery	-11689
▁Half	-11690
▁Swiss	-11691
▁links	-11692
▁ladies	-11693
▁poured	-11694
▁Section	-11695
▁contacted	-11696
▁laboratory	-11697
▁manufacturing	-11698
▁precipitation	-11699
ho	-11700
▁Om	-11701
bach	-11702
▁Wed	-11703
▁laps	-11704
▁Lithu	-11705
▁Tommy	-11706
▁weird	-11707
▁pitcher	-11708
▁imagined	-11709
▁concerning	-11710
HS	-11711
▁114	-11712
▁tomb	-11713
▁makeup	-11714
▁Electric	-11715
▁politicians	-11716
ishn	-11717
▁Bud	-11718
▁liz	-11719
▁Krist	-11720
▁concurrent	-11721
▁Kit	-11722
▁Than	-11723
▁lesb	-11724
▁clouds	-11725
▁deputy	-11726
▁lighter	-11727
▁punishment	-11728
col	-11729
hor	-11730
dles	-11731
elia	-11732
▁Saf	-11733
▁aqu	-11734
▁Farm	-11735
▁sake	-11736
▁Nature	-11737
▁theories	-11738
▁directions	-11739
▁provisions	-11740
▁112	-11741
ocene	-11742
▁twisted	-11743
erts	-11744
▁1800	-11745
▁user	-11746
▁ritual	-11747
▁stored	-11748
▁universal	-11749
▁traditionally	-11750
▁Chad	-11751
▁demo	-11752
▁mant	-11753
▁Draft	-11754
▁Metro	-11755
▁Spect	-11756
▁lucky	-11757
▁scores	-11758
qual	-11759
what	-11760
▁sip	-11761
▁Vick	-11762
▁gran	-11763
▁Smack	-11764
▁Trail	-11765
▁infer	-11766
▁Living	-11767
▁Sultan	-11768
▁abroad	-11769
▁blamed	-11770
▁Cemetery	-11771
▁insurance	-11772
▁regardless	-11773
▁similarities	-11774
▁ari	-11775
oples	-11776
iating	-11777
▁manif	-11778
▁morph	-11779
▁Ernest	-11780
▁opposing	-11781
▁biological	-11782
▁1000	-11783
▁Shah	-11784
▁curt	-11785
▁bride	-11786
▁spine	-11787
▁rescued	-11788
▁phenomen	-11789
▁receives	-11790
▁corporate	-11791
▁situations	-11792
ieg	-11793
onso	-11794
urre	-11795
▁evan	-11796
▁Without	-11797
▁brushed	-11798
▁instructed	-11799
▁restrictions	-11800
ums	-11801
pless	-11802
▁Princ	-11803
▁encom	-11804
▁london	-11805
▁Attorney	-11806
▁humanity	-11807
▁volcanic	-11808
▁cats	-11809
▁maps	-11810
▁drafted	-11811
▁relation	-11812
▁SA	-11813
itol	-11814
ffield	-11815
▁rider	-11816
▁tasked	-11817
▁variation	-11818
cell	-11819
▁Glen	-11820
▁leaf	-11821
▁Legend	-11822
▁anarch	-11823
▁Edition	-11824
▁countered	-11825
▁extensively	-11826
▁Cre	-11827
▁holes	-11828
▁farmers	-11829
▁tourist	-11830
lend	-11831
▁rab	-11832
▁dece	-11833
▁census	-11834
▁folded	-11835
▁Alexand	-11836
▁Members	-11837
▁Province	-11838
▁rh	-11839
achute	-11840
▁boost	-11841
▁mixing	-11842
▁avoiding	-11843
▁Authority	-11844
▁battlecruisers	-11845
▁153	-11846
ucker	-11847
▁1840	-11848
▁José	-11849
▁extinct	-11850
▁uncomfortable	-11851
▁Alc	-11852
▁Sac	-11853
▁Nord	-11854
▁Scar	-11855
▁bast	-11856
riages	-11857
▁Brand	-11858
▁divers	-11859
▁locally	-11860
▁altitude	-11861
▁Charlotte	-11862
▁homosexual	-11863
▁collections	-11864
hill	-11865
imer	-11866
itri	-11867
eston	-11868
leted	-11869
▁Stri	-11870
▁Traff	-11871
▁desired	-11872
▁pursued	-11873
▁routine	-11874
▁garnered	-11875
▁warships	-11876
▁commercially	-11877
esp	-11878
▁156	-11879
▁Nak	-11880
▁Zone	-11881
arting	-11882
▁Chuck	-11883
▁batted	-11884
▁breeds	-11885
▁solely	-11886
▁hurried	-11887
▁witnessed	-11888
idia	-11889
▁Jun	-11890
▁MLB	-11891
ellar	-11892
eries	-11893
point	-11894
▁Aren	-11895
▁Alberta	-11896
▁doctors	-11897
▁135	-11898
▁Gon	-11899
arthy	-11900
▁Sport	-11901
▁formula	-11902
▁centered	-11903
▁creature	-11904
▁dependent	-11905
TS	-11906
abl	-11907
▁Py	-11908
▁fier	-11909
▁puts	-11910
▁Control	-11911
▁Sheffield	-11912
▁happiness	-11913
▁Pul	-11914
inian	-11915
▁Chair	-11916
▁Quebec	-11917
▁Saturn	-11918
▁hungry	-11919
▁contrad	-11920
▁lacking	-11921
▁defenders	-11922
▁Yugoslavia	-11923
▁Heavyweight	-11924
▁Tu	-11925
avor	-11926
▁Cinc	-11927
igious	-11928
▁Stein	-11929
▁tools	-11930
▁biography	-11931
▁descended	-11932
▁followers	-11933
▁implemented	-11934
auge	-11935
cour	-11936
hall	-11937
▁158	-11938
▁andre	-11939
▁naming	-11940
▁Cavalry	-11941
▁discontin	-11942
▁Lower	-11943
▁judges	-11944
▁surround	-11945
assy	-11946
▁Marx	-11947
▁quit	-11948
▁GameSp	-11949
▁damned	-11950
▁Tribune	-11951
▁eventual	-11952
▁sentenced	-11953
▁Pittsburgh	-11954
▁accomplish	-11955
▁settlements	-11956
▁consequences	-11957
ushes	-11958
ielder	-11959
▁Oscar	-11960
▁elite	-11961
▁patri	-11962
▁slavery	-11963
▁publicity	-11964
uters	-11965
▁grit	-11966
▁soap	-11967
▁eaten	-11968
▁gates	-11969
▁juven	-11970
▁Archae	-11971
▁matthew	-11972
▁feathers	-11973
▁ultimate	-11974
▁politician	-11975
▁DJ	-11976
▁CBS	-11977
▁bree	-11978
▁Fight	-11979
▁Truman	-11980
▁beliefs	-11981
▁Portugal	-11982
▁marrying	-11983
▁promoting	-11984
▁categories	-11985
▁universities	-11986
▁Constantinople	-11987
enz	-11988
▁ank	-11989
jection	-11990
▁midnight	-11991
▁NASA	-11992
▁topic	-11993
▁suffer	-11994
▁colours	-11995
▁awareness	-11996
hent	-11997
▁Ker	-11998
icism	-11999
▁Lords	-12000
▁hence	-12001
▁adjust	-12002
▁Friends	-12003
▁loyalty	-12004
▁thereby	-12005
▁veteran	-12006
▁asserted	-12007
▁conflicts	-12008
▁compositions	-12009
chi	-12010
▁Pel	-12011
▁Fitz	-12012
▁Rush	-12013
▁Danny	-12014
▁Bright	-12015
▁carved	-12016
▁fungus	-12017
▁slowed	-12018
▁answers	-12019
▁temples	-12020
▁appreciate	-12021
▁southeastern	-12022
▁Steam	-12023
▁execut	-12024
▁emerson	-12025
▁Tournament	-12026
▁imprisoned	-12027
▁variations	-12028
oub	-12029
▁Decl	-12030
enched	-12031
▁Mason	-12032
▁LS	-12033
▁450	-12034
▁1864	-12035
▁Youth	-12036
▁dragged	-12037
▁murdered	-12038
thal	-12039
▁Bowie	-12040
▁Boeing	-12041
▁exhibit	-12042
▁Garfield	-12043
▁fa	-12044
▁iP	-12045
▁Has	-12046
▁Heb	-12047
▁Pedro	-12048
▁transp	-12049
▁breathe	-12050
▁Athletic	-12051
alg	-12052
▁Brid	-12053
▁Floyd	-12054
▁arose	-12055
iminary	-12056
▁Montana	-12057
▁guarant	-12058
▁Airlines	-12059
▁witnesses	-12060
▁developments	-12061
elyn	-12062
ijin	-12063
yram	-12064
▁dun	-12065
▁Face	-12066
ichael	-12067
▁heels	-12068
▁Panzer	-12069
▁Thames	-12070
▁copper	-12071
▁chances	-12072
▁bombardment	-12073
atsu	-12074
▁Cox	-12075
▁Hom	-12076
▁Ref	-12077
▁Based	-12078
▁Isaac	-12079
▁packed	-12080
▁couldn	-12081
▁morgan	-12082
▁Cincinn	-12083
▁Support	-12084
▁eligible	-12085
▁decreased	-12086
▁retreated	-12087
arks	-12088
atty	-12089
adesh	-12090
osaurs	-12091
▁Craig	-12092
▁outcome	-12093
▁horrible	-12094
iga	-12095
Down	-12096
mans	-12097
rels	-12098
▁Got	-12099
▁bread	-12100
▁lobby	-12101
▁Comics	-12102
▁Julian	-12103
▁Canucks	-12104
▁Theodore	-12105
▁AA	-12106
▁132	-12107
▁Joint	-12108
▁prest	-12109
▁remin	-12110
▁fierce	-12111
▁unt	-12112
heric	-12113
▁Bapt	-12114
▁Evil	-12115
enberg	-12116
▁Miles	-12117
▁discr	-12118
▁neuro	-12119
umbered	-12120
▁Chester	-12121
▁conquest	-12122
▁narrowed	-12123
▁Continental	-12124
▁revolutionary	-12125
ER	-12126
▁Isab	-12127
▁sean	-12128
▁dressing	-12129
▁SmackDown	-12130
lected	-12131
▁intimid	-12132
found	-12133
▁brut	-12134
acking	-12135
▁spare	-12136
ampagne	-12137
▁sensation	-12138
▁constantijin	-12139
▁1862	-12140
▁Cinem	-12141
minster	-12142
▁Basket	-12143
▁embrace	-12144
▁Personnel	-12145
▁acceptance	-12146
ework	-12147
▁Drake	-12148
onation	-12149
▁subtle	-12150
▁canceled	-12151
▁rode	-12152
ailing	-12153
▁pseud	-12154
▁skirt	-12155
▁trace	-12156
▁Rodrig	-12157
▁assume	-12158
▁tables	-12159
▁steadily	-12160
▁consumption	-12161
unted	-12162
▁Side	-12163
▁Slav	-12164
▁dish	-12165
▁spawn	-12166
▁revival	-12167
▁produces	-12168
▁inaugural	-12169
▁infrastructure	-12170
geon	-12171
▁oct	-12172
ocolate	-12173
▁Action	-12174
▁Leicester	-12175
▁Archbishop	-12176
▁disturbance	-12177
scop	-12178
▁bol	-12179
▁Cort	-12180
▁Rear	-12181
▁tang	-12182
▁therm	-12183
attering	-12184
▁Muslims	-12185
▁Raymond	-12186
▁Regional	-12187
▁progressive	-12188
▁territorial	-12189
isan	-12190
▁131	-12191
▁exh	-12192
▁haz	-12193
▁clip	-12194
▁lana	-12195
▁lined	-12196
▁Father	-12197
▁Johann	-12198
▁Buffalo	-12199
▁lawsuit	-12200
▁mechanism	-12201
▁encounters	-12202
▁automatically	-12203
▁LP	-12204
▁XX	-12205
▁118	-12206
▁159	-12207
▁Fun	-12208
regular	-12209
▁acquis	-12210
▁Century	-12211
▁package	-12212
▁maneuver	-12213
▁supports	-12214
▁spacecraft	-12215
▁nik	-12216
▁Camb	-12217
▁laci	-12218
▁postp	-12219
▁fortune	-12220
▁overcome	-12221
▁preserve	-12222
▁searched	-12223
▁Bulgarian	-12224
mat	-12225
▁Eld	-12226
▁Had	-12227
▁Iran	-12228
▁Joan	-12229
artime	-12230
▁Voice	-12231
ancellor	-12232
▁lessons	-12233
▁marking	-12234
▁participants	-12235
sson	-12236
▁Neb	-12237
▁mol	-12238
irect	-12239
▁flour	-12240
▁jamie	-12241
▁Athens	-12242
▁wishes	-12243
▁tourists	-12244
▁Architect	-12245
▁sentiment	-12246
onial	-12247
▁Hunt	-12248
alling	-12249
▁twent	-12250
▁climax	-12251
▁accessible	-12252
▁Aub	-12253
▁Kin	-12254
▁unre	-12255
▁inhab	-12256
▁ashore	-12257
▁boring	-12258
▁matched	-12259
▁Boulevard	-12260
▁efficient	-12261
▁Environment	-12262
aha	-12263
▁RNA	-12264
▁Others	-12265
▁shorts	-12266
▁suited	-12267
ribution	-12268
▁Filming	-12269
▁writings	-12270
▁convicted	-12271
AP	-12272
▁122	-12273
▁Mull	-12274
▁Mult	-12275
▁unve	-12276
▁vibr	-12277
▁rains	-12278
▁convey	-12279
▁rested	-12280
▁Cincinnati	-12281
▁evacuation	-12282
umi	-12283
▁Lem	-12284
▁Sex	-12285
▁mes	-12286
ishops	-12287
▁submer	-12288
strong	-12289
▁realistic	-12290
hart	-12291
▁Haz	-12292
▁dealt	-12293
▁Minogue	-12294
▁healthy	-12295
▁undertaken	-12296
cht	-12297
▁cant	-12298
gomery	-12299
kinson	-12300
▁closet	-12301
▁cathedral	-12302
▁extraordin	-12303
eals	-12304
ettes	-12305
▁Tree	-12306
▁Winn	-12307
▁fart	-12308
▁Gates	-12309
▁whale	-12310
▁Dallas	-12311
▁keyboard	-12312
▁Friedrich	-12313
▁depicting	-12314
▁encompass	-12315
▁furniture	-12316
▁Meteorological	-12317
▁lib	-12318
▁acre	-12319
▁Pierre	-12320
▁Tigers	-12321
▁nearest	-12322
▁Armenian	-12323
▁Phillies	-12324
▁prototype	-12325
▁touchdowns	-12326
▁permanently	-12327
▁gle	-12328
▁perc	-12329
▁rachel	-12330
onscious	-12331
▁Ancient	-12332
▁Kenneth	-12333
▁Organization	-12334
sl	-12335
ennial	-12336
▁hyper	-12337
athetic	-12338
▁marble	-12339
▁whales	-12340
▁Cameron	-12341
▁horizont	-12342
▁Springfield	-12343
▁consideration	-12344
inked	-12345
rogen	-12346
▁Body	-12347
▁fake	-12348
rapping	-12349
▁Affairs	-12350
▁charlie	-12351
▁ministers	-12352
jan	-12353
▁Uk	-12354
vant	-12355
▁reh	-12356
▁Myst	-12357
▁vari	-12358
▁wand	-12359
▁medals	-12360
▁Reading	-12361
▁matching	-12362
▁rebounds	-12363
▁Technology	-12364
atra	-12365
▁Tir	-12366
▁Month	-12367
▁Wonder	-12368
▁imposed	-12369
▁sharply	-12370
▁batteries	-12371
▁indigenous	-12372
▁NW	-12373
▁lace	-12374
▁exile	-12375
▁worker	-12376
▁roadway	-12377
▁Brazilian	-12378
▁Basketball	-12379
DI	-12380
guard	-12381
▁Quar	-12382
▁genes	-12383
▁grows	-12384
▁finest	-12385
▁Studies	-12386
▁infection	-12387
▁intellectual	-12388
ahn	-12389
azed	-12390
▁leah	-12391
▁resid	-12392
▁Denver	-12393
▁resting	-12394
▁decisive	-12395
▁exterior	-12396
▁reporting	-12397
▁Christians	-12398
ido	-12399
▁1886	-12400
▁Code	-12401
▁Mind	-12402
▁Room	-12403
▁Movie	-12404
enedict	-12405
▁darker	-12406
▁privile	-12407
▁eyebrows	-12408
▁managing	-12409
▁expectations	-12410
ags	-12411
▁Ko	-12412
▁Saw	-12413
▁Hoff	-12414
▁Mile	-12415
omical	-12416
▁Parks	-12417
▁Baltic	-12418
▁Barbara	-12419
▁complimented	-12420
arus	-12421
▁Brah	-12422
escope	-12423
▁adequ	-12424
▁optim	-12425
▁deciding	-12426
▁employee	-12427
▁Kel	-12428
▁photos	-12429
▁Glasgow	-12430
▁heavier	-12431
▁McCarthy	-12432
▁bacteria	-12433
▁magnetic	-12434
▁opinions	-12435
▁stability	-12436
▁134	-12437
▁Ener	-12438
▁closure	-12439
▁Political	-12440
▁everywhere	-12441
iche	-12442
▁1863	-12443
ificent	-12444
▁recruit	-12445
▁rational	-12446
▁Palestine	-12447
▁irregular	-12448
▁116	-12449
▁145	-12450
▁Bri	-12451
▁Lud	-12452
▁Pay	-12453
▁buck	-12454
▁mask	-12455
▁agrees	-12456
▁chairs	-12457
▁Orchest	-12458
▁halfway	-12459
▁condemned	-12460
▁peninsula	-12461
ulum	-12462
▁Case	-12463
▁oxid	-12464
▁screw	-12465
▁mutual	-12466
▁shoved	-12467
▁greeted	-12468
▁Afghanistan	-12469
▁thunderstorm	-12470
ando	-12471
engu	-12472
▁Hav	-12473
▁Hok	-12474
inely	-12475
quest	-12476
▁Lamb	-12477
▁Take	-12478
▁lust	-12479
▁spun	-12480
▁fluor	-12481
▁melod	-12482
▁Future	-12483
▁Selena	-12484
▁lyrical	-12485
▁internet	-12486
ewise	-12487
▁filter	-12488
▁plastic	-12489
▁measuring	-12490
▁protecting	-12491
oba	-12492
▁ion	-12493
opard	-12494
▁Cool	-12495
▁Mann	-12496
▁Watch	-12497
▁Dakota	-12498
▁Parsons	-12499
▁blinked	-12500
▁superst	-12501
▁defenses	-12502
▁propaganda	-12503
that	-12504
▁rod	-12505
▁tense	-12506
▁Veronica	-12507
▁sacrifice	-12508
boat	-12509
izers	-12510
▁Duch	-12511
▁spots	-12512
▁Dennis	-12513
▁Taiwan	-12514
▁interf	-12515
▁mammals	-12516
▁armoured	-12517
▁eastward	-12518
▁expanding	-12519
▁hesitated	-12520
▁restaurants	-12521
ppy	-12522
▁Deb	-12523
▁haw	-12524
▁Invest	-12525
▁elderly	-12526
▁strikes	-12527
▁predominantly	-12528
▁119	-12529
▁Fern	-12530
▁tony	-12531
▁edges	-12532
▁McCain	-12533
issioned	-12534
▁payment	-12535
▁Grove	-12536
▁disgu	-12537
▁reflection	-12538
▁outstanding	-12539
▁Kes	-12540
▁Full	-12541
▁Bears	-12542
▁Hergé	-12543
▁Steel	-12544
▁Altern	-12545
▁refuses	-12546
▁Conservative	-12547
▁epit	-12548
▁hunt	-12549
▁reef	-12550
▁chron	-12551
▁focuses	-12552
▁corridor	-12553
gary	-12554
▁Bak	-12555
▁jett	-12556
▁wolf	-12557
▁Alpha	-12558
▁swing	-12559
▁needing	-12560
▁Protestant	-12561
▁129	-12562
▁Kil	-12563
▁blew	-12564
▁loos	-12565
▁mere	-12566
▁noah	-12567
season	-12568
▁Blair	-12569
▁Former	-12570
▁nerves	-12571
▁repeat	-12572
▁eyebrow	-12573
▁inherit	-12574
▁contempl	-12575
▁vicinity	-12576
▁Nam	-12577
▁mos	-12578
▁dign	-12579
▁Grade	-12580
▁cable	-12581
▁fever	-12582
▁Celtic	-12583
▁declan	-12584
▁guided	-12585
én	-12586
▁107	-12587
▁Lon	-12588
▁bin	-12589
▁sin	-12590
▁1884	-12591
▁Tang	-12592
errick	-12593
▁Paraly	-12594
▁drinks	-12595
▁detected	-12596
▁editions	-12597
▁velocity	-12598
▁preparations	-12599
gus	-12600
class	-12601
▁facil	-12602
▁timber	-12603
▁viewing	-12604
lett	-12605
▁Glou	-12606
▁katherine	-12607
CO	-12608
▁bik	-12609
ridge	-12610
▁1883	-12611
▁swung	-12612
▁amphib	-12613
▁lesser	-12614
▁103	-12615
▁Esc	-12616
usters	-12617
▁Magic	-12618
▁Place	-12619
▁Nathan	-12620
▁outfit	-12621
▁Hil	-12622
▁lam	-12623
▁Fifth	-12624
▁angel	-12625
▁restr	-12626
▁trips	-12627
▁Comedy	-12628
▁mounts	-12629
▁occurring	-12630
▁Indonesian	-12631
▁scholarship	-12632
edar	-12633
oric	-12634
▁Map	-12635
▁Toy	-12636
▁Percy	-12637
▁Rosen	-12638
▁Round	-12639
▁summon	-12640
▁expense	-12641
▁calculated	-12642
▁trio	-12643
▁arena	-12644
umberland	-12645
▁millions	-12646
▁Kerr	-12647
arians	-12648
▁airborne	-12649
▁priority	-12650
▁executives	-12651
bris	-12652
igger	-12653
▁inev	-12654
▁accent	-12655
▁buying	-12656
▁coaching	-12657
▁transformed	-12658
▁metre	-12659
▁sucked	-12660
▁Mercury	-12661
▁choices	-12662
▁favored	-12663
▁Paralymp	-12664
▁appreciated	-12665
▁embarrassed	-12666
rays	-12667
▁151	-12668
▁Dud	-12669
music	-12670
achelor	-12671
▁Circle	-12672
▁Curtis	-12673
▁insuff	-12674
▁Monster	-12675
▁cameras	-12676
▁gallery	-12677
▁genuine	-12678
▁grandson	-12679
▁Fab	-12680
▁Led	-12681
▁1887	-12682
▁Herm	-12683
▁Sche	-12684
▁monit	-12685
▁motif	-12686
atorial	-12687
▁Career	-12688
▁Herbert	-12689
▁winners	-12690
▁presents	-12691
▁regulations	-12692
▁interference	-12693
gric	-12694
osity	-12695
▁Abra	-12696
▁posts	-12697
▁vincent	-12698
▁prompting	-12699
▁Lov	-12700
▁isn	-12701
istical	-12702
▁peoples	-12703
udi	-12704
roke	-12705
urbed	-12706
▁penn	-12707
▁permit	-12708
▁verses	-12709
▁Soviets	-12710
▁faculty	-12711
▁finance	-12712
▁Computer	-12713
▁mentions	-12714
▁refusing	-12715
▁Montgomery	-12716
anas	-12717
core	-12718
▁Beth	-12719
▁carl	-12720
▁Shelley	-12721
▁varying	-12722
▁centimet	-12723
▁floating	-12724
▁corresponding	-12725
▁Kon	-12726
▁bapt	-12727
▁cosm	-12728
▁rico	-12729
▁zero	-12730
▁chess	-12731
▁Venice	-12732
▁preceding	-12733
▁initiative	-12734
inqu	-12735
▁Any	-12736
▁amid	-12737
▁sara	-12738
▁Ghost	-12739
▁sixty	-12740
▁admired	-12741
▁torture	-12742
▁machines	-12743
▁Princeton	-12744
▁locomotive	-12745
▁proclaimed	-12746
▁independently	-12747
▁Aber	-12748
▁Isle	-12749
▁curled	-12750
▁belonging	-12751
pit	-12752
▁Aaron	-12753
▁fires	-12754
▁assets	-12755
▁curious	-12756
▁muscular	-12757
▁directing	-12758
▁battlefield	-12759
▁consequence	-12760
rup	-12761
sis	-12762
olves	-12763
utton	-12764
▁width	-12765
▁intrig	-12766
▁suspension	-12767
▁Hey	-12768
▁Wis	-12769
▁Seas	-12770
▁radius	-12771
▁Bradley	-12772
▁decrease	-12773
▁submarines	-12774
angel	-12775
ospel	-12776
▁duke	-12777
▁quoted	-12778
▁coaches	-12779
▁studios	-12780
▁catching	-12781
▁particles	-12782
▁exploration	-12783
▁achievements	-12784
rosse	-12785
▁Helen	-12786
▁Mk	-12787
▁CEO	-12788
▁Berg	-12789
▁Hein	-12790
▁discour	-12791
▁explosive	-12792
▁regiments	-12793
hn	-12794
avis	-12795
▁ber	-12796
▁ferry	-12797
▁Morning	-12798
▁screens	-12799
▁accepting	-12800
▁kit	-12801
▁Beau	-12802
▁chlor	-12803
ensional	-12804
▁Liberty	-12805
▁martial	-12806
▁encourage	-12807
▁torpedoes	-12808
▁Kid	-12809
▁MVP	-12810
▁Malta	-12811
▁Vegas	-12812
▁Lauren	-12813
▁harbor	-12814
alid	-12815
▁157	-12816
▁Pete	-12817
acious	-12818
master	-12819
▁prosper	-12820
▁requirement	-12821
aco	-12822
endar	-12823
▁chann	-12824
▁kinds	-12825
▁rugby	-12826
▁client	-12827
▁genres	-12828
▁memoir	-12829
▁judicial	-12830
▁Collection	-12831
nton	-12832
ilogy	-12833
osion	-12834
▁plum	-12835
▁david	-12836
utonium	-12837
▁nipple	-12838
▁poster	-12839
▁sustain	-12840
▁affection	-12841
stad	-12842
▁Eddie	-12843
▁rebel	-12844
▁concepts	-12845
▁Historical	-12846
▁collaborated	-12847
asury	-12848
▁Fran	-12849
▁lion	-12850
▁Baron	-12851
▁anton	-12852
▁drift	-12853
▁raced	-12854
▁speeds	-12855
▁gesture	-12856
▁lengths	-12857
▁signals	-12858
▁venture	-12859
▁reserved	-12860
▁champagne	-12861
▁disbanded	-12862
▁exercises	-12863
▁SH	-12864
eded	-12865
▁Wel	-12866
ounce	-12867
▁Talk	-12868
▁Chang	-12869
▁shame	-12870
▁Foster	-12871
▁Mobile	-12872
▁intend	-12873
▁thread	-12874
▁explored	-12875
▁fantastic	-12876
▁consciousness	-12877
aba	-12878
▁Expl	-12879
▁reop	-12880
▁trap	-12881
ulates	-12882
▁Waters	-12883
▁Flanders	-12884
▁silently	-12885
wer	-12886
anka	-12887
▁Syn	-12888
itars	-12889
itime	-12890
▁Andr	-12891
▁arrog	-12892
▁awful	-12893
▁slower	-12894
▁stepping	-12895
▁compromise	-12896
abad	-12897
oken	-12898
▁Sri	-12899
▁VIII	-12900
▁fury	-12901
heimer	-12902
▁Tests	-12903
▁gauge	-12904
▁steal	-12905
▁unrel	-12906
▁Austro	-12907
▁roster	-12908
▁charming	-12909
▁molecules	-12910
▁fundamental	-12911
▁intermediate	-12912
ublin	-12913
▁aest	-12914
▁rice	-12915
▁Meyer	-12916
▁Milan	-12917
▁bomber	-12918
▁divine	-12919
▁openly	-12920
▁convinc	-12921
▁strings	-12922
▁Revolutionary	-12923
▁participating	-12924
▁Glee	-12925
▁lied	-12926
▁organic	-12927
▁elevated	-12928
▁Ord	-12929
▁mum	-12930
ritic	-12931
▁abst	-12932
▁caut	-12933
▁sulf	-12934
▁Guild	-12935
▁compiled	-12936
▁vacation	-12937
▁creatures	-12938
▁delicious	-12939
RC	-12940
gett	-12941
iors	-12942
zyme	-12943
▁Fil	-12944
▁1830	-12945
▁seal	-12946
▁alarm	-12947
▁Combat	-12948
▁Galile	-12949
▁bloody	-12950
▁consumed	-12951
▁preventing	-12952
▁protective	-12953
▁declaration	-12954
rium	-12955
▁versus	-12956
isticated	-12957
▁collecting	-12958
▁orchestral	-12959
▁fortifications	-12960
igo	-12961
▁Energy	-12962
▁Thorpe	-12963
▁surpassed	-12964
▁transmission	-12965
▁JG	-12966
▁202	-12967
▁Hus	-12968
castle	-12969
ambling	-12970
▁Edmund	-12971
▁Alliance	-12972
▁Junction	-12973
▁clenched	-12974
▁steering	-12975
di	-12976
ema	-12977
ylum	-12978
▁barn	-12979
▁lava	-12980
▁nate	-12981
ashire	-12982
▁input	-12983
▁Kepler	-12984
▁stance	-12985
▁corners	-12986
▁flashed	-12987
▁wartime	-12988
▁integrated	-12989
▁ah	-12990
riet	-12991
wind	-12992
▁Nad	-12993
ossip	-12994
otted	-12995
▁Coal	-12996
▁Rivers	-12997
▁glared	-12998
▁Daniels	-12999
▁Middles	-13000
▁chicken	-13001
▁counted	-13002
▁Armstrong	-13003
▁illustrated	-13004
esa	-13005
ggy	-13006
uka	-13007
▁Cryst	-13008
▁scout	-13009
▁monitor	-13010
▁inducted	-13011
▁lifestyle	-13012
▁intentions	-13013
▁championships	-13014
Hg	-13015
▁Rah	-13016
▁awa	-13017
▁Bass	-13018
▁urge	-13019
employ	-13020
▁grasp	-13021
▁unanim	-13022
▁custody	-13023
▁exploded	-13024
▁comparing	-13025
▁conducting	-13026
▁Daw	-13027
▁Sad	-13028
ounted	-13029
▁Delhi	-13030
▁aided	-13031
▁deals	-13032
▁therapy	-13033
▁weighed	-13034
▁Normandy	-13035
▁disabled	-13036
▁reminisc	-13037
▁Composition	-13038
agles	-13039
▁Barn	-13040
▁Heat	-13041
▁bars	-13042
▁alert	-13043
▁jerked	-13044
▁rumors	-13045
▁velvet	-13046
▁Manning	-13047
▁partners	-13048
▁Beautiful	-13049
▁delegates	-13050
▁ov	-13051
▁Chin	-13052
▁pour	-13053
▁Schum	-13054
▁landmark	-13055
▁incidents	-13056
iosity	-13057
▁jenna	-13058
▁tasks	-13059
▁planes	-13060
▁Bradman	-13061
▁Commons	-13062
▁Anat	-13063
▁Bent	-13064
▁barb	-13065
▁craw	-13066
▁Shield	-13067
▁debris	-13068
▁tended	-13069
▁connects	-13070
▁dissolved	-13071
▁XI	-13072
▁Hubb	-13073
▁Shar	-13074
▁Guadal	-13075
▁metals	-13076
▁Lindwall	-13077
▁networks	-13078
▁teachers	-13079
▁Additional	-13080
▁imagination	-13081
▁Occ	-13082
shine	-13083
▁1881	-13084
▁carn	-13085
▁irre	-13086
▁Rogers	-13087
▁caution	-13088
hop	-13089
iki	-13090
▁230	-13091
▁Wiz	-13092
▁tum	-13093
front	-13094
▁tore	-13095
▁Mills	-13096
▁Ports	-13097
restrial	-13098
▁barrier	-13099
▁qualities	-13100
▁submerged	-13101
▁Lancashire	-13102
▁formations	-13103
▁Phant	-13104
rically	-13105
▁seventeen	-13106
▁historically	-13107
oused	-13108
▁clut	-13109
▁elbow	-13110
▁recre	-13111
▁confer	-13112
▁landings	-13113
▁receiver	-13114
▁depiction	-13115
▁Professional	-13116
ugs	-13117
icus	-13118
imir	-13119
▁JNA	-13120
verty	-13121
▁Barrett	-13122
▁graphic	-13123
▁cemetery	-13124
▁terminal	-13125
.1	-13126
ovich	-13127
▁Nobel	-13128
▁knife	-13129
▁Ground	-13130
▁Watson	-13131
▁venues	-13132
▁fossils	-13133
▁Sciences	-13134
▁actively	-13135
▁targeted	-13136
▁consistently	-13137
▁Um	-13138
▁220	-13139
▁bob	-13140
▁sty	-13141
▁root	-13142
▁Hubbard	-13143
▁onwards	-13144
▁poverty	-13145
▁Movement	-13146
▁yd	-13147
▁gut	-13148
▁Soph	-13149
▁woke	-13150
▁enlar	-13151
▁sheer	-13152
jections	-13153
▁frigate	-13154
▁updated	-13155
▁damaging	-13156
▁enhanced	-13157
▁Westminster	-13158
rush	-13159
▁Burg	-13160
▁gasp	-13161
▁inHg	-13162
▁Ellen	-13163
▁Stage	-13164
▁convert	-13165
▁sounding	-13166
▁squeezed	-13167
▁stripped	-13168
▁seemingly	-13169
▁critically	-13170
eda	-13171
iasm	-13172
▁Pack	-13173
▁assert	-13174
▁bowled	-13175
▁estates	-13176
▁slammed	-13177
▁agencies	-13178
▁deposits	-13179
▁associate	-13180
lem	-13181
ulk	-13182
wig	-13183
encer	-13184
oping	-13185
▁Delta	-13186
▁fairy	-13187
▁opined	-13188
▁contents	-13189
▁deserved	-13190
▁Chem	-13191
▁Verm	-13192
▁adds	-13193
▁dylan	-13194
▁clergy	-13195
▁sailors	-13196
▁averaged	-13197
▁estimate	-13198
▁acclaimed	-13199
▁contribute	-13200
ulu	-13201
isch	-13202
▁Bog	-13203
▁Ply	-13204
▁Robin	-13205
▁charm	-13206
▁Louise	-13207
▁remake	-13208
▁batsman	-13209
▁extends	-13210
▁realizing	-13211
▁performers	-13212
▁phenomenon	-13213
▁contributing	-13214
vi	-13215
▁Cris	-13216
▁halt	-13217
▁keeps	-13218
▁sidew	-13219
▁Greater	-13220
▁theaters	-13221
▁Millennium	-13222
hl	-13223
▁Abu	-13224
▁ting	-13225
▁Effect	-13226
▁halted	-13227
▁gravity	-13228
▁Cornwall	-13229
▁blockade	-13230
osc	-13231
ampa	-13232
atts	-13233
▁gam	-13234
Music	-13235
anyon	-13236
▁Food	-13237
▁Kill	-13238
▁bout	-13239
istocr	-13240
▁config	-13241
▁staged	-13242
▁Marshal	-13243
▁jackson	-13244
▁Stanford	-13245
▁138	-13246
icular	-13247
▁Maxim	-13248
▁Wagner	-13249
▁routing	-13250
▁suppose	-13251
▁transit	-13252
▁HM	-13253
▁Dow	-13254
▁Raid	-13255
▁paul	-13256
alties	-13257
▁liver	-13258
▁lauren	-13259
▁complement	-13260
▁WWF	-13261
▁Luft	-13262
▁Zero	-13263
▁stab	-13264
▁Isles	-13265
▁insane	-13266
▁summar	-13267
▁welcom	-13268
▁Current	-13269
▁Cyclone	-13270
▁auction	-13271
▁counsel	-13272
▁clearing	-13273
▁costumes	-13274
▁delicate	-13275
▁privately	-13276
▁underwater	-13277
▁Bron	-13278
▁Chen	-13279
▁Mine	-13280
▁ling	-13281
▁pine	-13282
▁canon	-13283
▁hurry	-13284
▁likes	-13285
▁shops	-13286
▁Calgary	-13287
▁guitars	-13288
▁dispatched	-13289
▁Cou	-13290
▁Hat	-13291
▁que	-13292
odied	-13293
▁Gang	-13294
▁metall	-13295
▁resolve	-13296
▁subtropical	-13297
▁reconstruction	-13298
GB	-13299
orus	-13300
▁128	-13301
▁Berm	-13302
▁Holland	-13303
▁elegant	-13304
▁promising	-13305
▁gym	-13306
▁Hond	-13307
▁hast	-13308
▁Inside	-13309
▁Method	-13310
▁rubbed	-13311
▁ruined	-13312
▁kilometers	-13313
omes	-13314
quin	-13315
▁Voy	-13316
gging	-13317
▁spores	-13318
▁Intellig	-13319
▁indirect	-13320
▁complaints	-13321
▁internationally	-13322
roe	-13323
▁Dod	-13324
▁Gru	-13325
▁Wes	-13326
▁sic	-13327
▁amer	-13328
▁rook	-13329
▁cruel	-13330
▁gusts	-13331
▁rigid	-13332
▁Dudley	-13333
▁amused	-13334
▁arched	-13335
▁jessica	-13336
▁molecular	-13337
él	-13338
▁Mail	-13339
▁hosp	-13340
▁Janet	-13341
▁jokes	-13342
▁metaph	-13343
▁appealed	-13344
▁respected	-13345
▁unsuccessfully	-13346
AL	-13347
usc	-13348
▁Tas	-13349
▁Fish	-13350
▁Hood	-13351
ficial	-13352
▁Burger	-13353
▁advances	-13354
irmed	-13355
▁1882	-13356
▁Wald	-13357
▁pesh	-13358
achlan	-13359
unting	-13360
▁Aguil	-13361
▁Dublin	-13362
▁genera	-13363
▁dynamic	-13364
▁melanie	-13365
▁startled	-13366
▁percussion	-13367
▁spectators	-13368
▁126	-13369
▁Arc	-13370
▁Sor	-13371
▁Colin	-13372
▁Heath	-13373
▁Metal	-13374
igation	-13375
▁Carlos	-13376
▁serena	-13377
▁Madison	-13378
▁channels	-13379
▁choosing	-13380
▁rotation	-13381
▁chocolate	-13382
▁navigation	-13383
▁RI	-13384
▁Rav	-13385
▁Bert	-13386
▁Booth	-13387
▁cubic	-13388
▁widow	-13389
iblings	-13390
▁Stockh	-13391
▁tradem	-13392
▁castles	-13393
▁mistaken	-13394
▁Orchestra	-13395
▁procedure	-13396
▁contracted	-13397
iary	-13398
▁Rou	-13399
▁Maine	-13400
▁Manor	-13401
▁lakes	-13402
▁themed	-13403
▁Theater	-13404
▁borough	-13405
▁Aguilera	-13406
▁Brooklyn	-13407
▁Phillips	-13408
▁scientist	-13409
▁objectives	-13410
ylie	-13411
▁spo	-13412
▁Gonz	-13413
▁boxes	-13414
▁echoed	-13415
▁notion	-13416
ographed	-13417
▁neutron	-13418
▁aristocr	-13419
▁terrified	-13420
▁Vo	-13421
▁mall	-13422
orence	-13423
ountain	-13424
▁sketch	-13425
▁consent	-13426
▁disputed	-13427
▁gentleman	-13428
▁comprehens	-13429
▁dimensional	-13430
▁Dj	-13431
▁dh	-13432
▁Pra	-13433
▁fut	-13434
hurst	-13435
houses	-13436
▁Arena	-13437
▁Usher	-13438
▁Sponge	-13439
▁linear	-13440
▁comprised	-13441
▁improving	-13442
▁thickness	-13443
aund	-13444
atoes	-13445
▁erin	-13446
▁bored	-13447
▁dirty	-13448
▁miser	-13449
▁Conserv	-13450
▁Musical	-13451
▁borders	-13452
▁emerging	-13453
▁Telegraph	-13454
▁achievement	-13455
▁archaeological	-13456
▁Hum	-13457
▁Pas	-13458
▁mim	-13459
▁oak	-13460
istle	-13461
▁True	-13462
▁buzz	-13463
▁Agric	-13464
▁Leeds	-13465
▁drops	-13466
▁overd	-13467
▁eldest	-13468
▁improv	-13469
▁intact	-13470
▁runner	-13471
▁traced	-13472
▁tribut	-13473
▁helpless	-13474
▁Cardinals	-13475
▁Publishing	-13476
▁horsepower	-13477
acts	-13478
▁Shin	-13479
▁zach	-13480
onnell	-13481
▁boots	-13482
▁clare	-13483
▁descript	-13484
▁doctrine	-13485
▁py	-13486
▁mit	-13487
▁Glass	-13488
▁Total	-13489
▁Deputy	-13490
▁Holmes	-13491
▁phosph	-13492
▁michael	-13493
▁Bulgaria	-13494
▁abruptly	-13495
▁exhibited	-13496
armed	-13497
▁Vlad	-13498
▁Right	-13499
▁fluid	-13500
▁towel	-13501
▁gaming	-13502
Tunes	-13503
▁Hann	-13504
▁Till	-13505
▁jail	-13506
atural	-13507
▁chord	-13508
▁seeds	-13509
cending	-13510
▁modest	-13511
▁buttons	-13512
▁referee	-13513
▁physician	-13514
▁enthusiasm	-13515
▁Micha	-13516
▁freed	-13517
▁mandi	-13518
▁relay	-13519
▁troop	-13520
angered	-13521
▁proxim	-13522
▁sheets	-13523
▁judgment	-13524
▁offshore	-13525
▁presidency	-13526
▁distinguish	-13527
ogs	-13528
atar	-13529
cled	-13530
▁Flood	-13531
▁escal	-13532
▁Flames	-13533
▁Baptist	-13534
▁engaging	-13535
▁Robertson	-13536
▁allocated	-13537
▁compliment	-13538
ovo	-13539
nery	-13540
▁750	-13541
▁1867	-13542
isations	-13543
▁Frances	-13544
▁immigrants	-13545
▁Renaissance	-13546
aline	-13547
anked	-13548
▁Exped	-13549
▁imper	-13550
▁assign	-13551
▁safely	-13552
▁fitting	-13553
▁shipped	-13554
▁cultures	-13555
▁diversity	-13556
▁distinction	-13557
▁Using	-13558
▁varies	-13559
▁Article	-13560
▁lengthy	-13561
▁manages	-13562
▁diseases	-13563
▁assessment	-13564
▁conviction	-13565
arte	-13566
omon	-13567
▁149	-13568
▁Cand	-13569
▁Jets	-13570
▁McKin	-13571
▁cheap	-13572
▁trophy	-13573
▁magical	-13574
▁Henderson	-13575
▁corruption	-13576
▁northeastern	-13577
▁Chet	-13578
▁Cond	-13579
▁dive	-13580
▁icon	-13581
▁Opera	-13582
▁fights	-13583
▁strain	-13584
▁refugees	-13585
▁sexually	-13586
▁Territory	-13587
▁Headquarters	-13588
▁sophisticated	-13589
▁1869	-13590
ainted	-13591
▁Athen	-13592
▁gifts	-13593
▁strang	-13594
▁Hopkins	-13595
▁redesign	-13596
▁siblings	-13597
▁destination	-13598
RS	-13599
▁toes	-13600
▁reson	-13601
▁witch	-13602
itating	-13603
▁iTunes	-13604
▁roller	-13605
▁antonia	-13606
▁authent	-13607
▁variant	-13608
▁feminist	-13609
▁advocated	-13610
▁journalists	-13611
▁Put	-13612
▁coc	-13613
geant	-13614
unton	-13615
▁faded	-13616
▁Newman	-13617
▁collar	-13618
▁Culture	-13619
▁growled	-13620
▁revived	-13621
▁teenage	-13622
▁abundant	-13623
▁regained	-13624
▁christian	-13625
▁contempor	-13626
▁reasonable	-13627
▁assassination	-13628
opl	-13629
▁ni	-13630
▁Drag	-13631
▁Unit	-13632
▁pled	-13633
▁cameo	-13634
▁lucas	-13635
▁clients	-13636
▁Admiralty	-13637
▁proximity	-13638
iar	-13639
mill	-13640
▁1877	-13641
through	-13642
▁Shadow	-13643
▁leagues	-13644
▁ambitious	-13645
▁necessarily	-13646
▁preliminary	-13647
arse	-13648
▁Jose	-13649
▁pond	-13650
▁cloth	-13651
▁tessa	-13652
▁Cabinet	-13653
▁Various	-13654
ironments	-13655
▁stranger	-13656
▁unusually	-13657
▁ceremonies	-13658
▁speculated	-13659
wy	-13660
▁ms	-13661
▁outs	-13662
▁Money	-13663
▁henry	-13664
▁Ronald	-13665
▁Mam	-13666
▁Adri	-13667
▁Enix	-13668
▁Want	-13669
▁clan	-13670
▁Ferdin	-13671
graduate	-13672
▁Weather	-13673
▁disrupt	-13674
▁climbing	-13675
▁resemble	-13676
▁scenario	-13677
nut	-13678
tegr	-13679
▁Kaz	-13680
▁gra	-13681
heart	-13682
▁1868	-13683
▁Epis	-13684
▁Lead	-13685
▁Canyon	-13686
▁Single	-13687
▁honors	-13688
▁Florence	-13689
▁athletic	-13690
▁proceeds	-13691
▁secretly	-13692
▁settling	-13693
▁continental	-13694
iang	-13695
asper	-13696
shirt	-13697
uffed	-13698
▁riot	-13699
▁Cloud	-13700
▁Powell	-13701
▁Arkansas	-13702
▁interactions	-13703
rians	-13704
▁1873	-13705
▁keen	-13706
▁unst	-13707
▁wrap	-13708
▁param	-13709
▁Butler	-13710
▁Nevada	-13711
▁drifted	-13712
▁stunning	-13713
▁conspiracy	-13714
▁vegetation	-13715
▁cooperation	-13716
▁environments	-13717
zi	-13718
iev	-13719
eted	-13720
▁Gaz	-13721
▁pad	-13722
▁pub	-13723
▁fond	-13724
▁Priest	-13725
▁united	-13726
▁Gregory	-13727
▁Welling	-13728
▁editing	-13729
▁emphasized	-13730
▁fo	-13731
▁Range	-13732
▁acquire	-13733
▁farther	-13734
▁happily	-13735
▁teammates	-13736
▁comprising	-13737
▁southwestern	-13738
eta	-13739
▁cater	-13740
▁metab	-13741
▁stole	-13742
▁regist	-13743
▁relating	-13744
Pa	-13745
bot	-13746
rieved	-13747
▁telev	-13748
▁afterward	-13749
▁reluctantly	-13750
▁Pon	-13751
▁lem	-13752
liked	-13753
▁Serbs	-13754
▁virgin	-13755
▁Engineering	-13756
▁psychological	-13757
bone	-13758
▁124	-13759
▁Laf	-13760
aurus	-13761
▁Devil	-13762
▁Eagle	-13763
▁joins	-13764
pending	-13765
▁Chapman	-13766
▁outdoor	-13767
▁publish	-13768
▁tensions	-13769
▁mechanics	-13770
chers	-13771
▁Carn	-13772
aceous	-13773
▁brush	-13774
▁grief	-13775
▁Savage	-13776
▁mascul	-13777
▁termed	-13778
umps	-13779
▁Cut	-13780
▁ups	-13781
▁Abraham	-13782
▁Standard	-13783
▁detached	-13784
▁eliminate	-13785
▁distracted	-13786
▁controlling	-13787
▁interviewed	-13788
ht	-13789
ahl	-13790
▁Zh	-13791
aton	-13792
chev	-13793
opal	-13794
▁Sep	-13795
▁Sha	-13796
olith	-13797
range	-13798
▁sway	-13799
▁Shank	-13800
▁annex	-13801
▁fraud	-13802
▁tennis	-13803
▁slender	-13804
▁Jennings	-13805
▁disliked	-13806
▁autobiography	-13807
▁**	-13808
▁EC	-13809
grade	-13810
▁1866	-13811
▁1878	-13812
▁Pine	-13813
▁hier	-13814
▁lawyers	-13815
▁lesbian	-13816
▁declaring	-13817
▁manufactured	-13818
▁Ky	-13819
olia	-13820
▁Voc	-13821
heads	-13822
▁Caes	-13823
▁rage	-13824
fection	-13825
▁blonde	-13826
▁prayer	-13827
▁stabil	-13828
▁Stories	-13829
▁crucial	-13830
▁prohibited	-13831
▁pronounced	-13832
pic	-13833
asia	-13834
▁Wit	-13835
▁nam	-13836
▁Clif	-13837
elfare	-13838
▁Heaven	-13839
▁purple	-13840
▁Expedition	-13841
▁discipline	-13842
▁allegations	-13843
▁demographic	-13844
auc	-13845
ppe	-13846
aude	-13847
iots	-13848
just	-13849
▁Vul	-13850
▁ally	-13851
▁Urban	-13852
▁jersey	-13853
▁relied	-13854
▁cottage	-13855
▁ensuing	-13856
▁Plymouth	-13857
▁backwards	-13858
▁Adventures	-13859
▁IC	-13860
▁Bour	-13861
▁Yard	-13862
▁Films	-13863
▁Schol	-13864
▁repet	-13865
▁Capitol	-13866
▁Notable	-13867
▁chapters	-13868
▁reversed	-13869
▁turbines	-13870
▁Churchill	-13871
▁Southampton	-13872
▁demonstrate	-13873
▁extraordinary	-13874
alysis	-13875
▁Trent	-13876
▁orient	-13877
▁faction	-13878
▁carriage	-13879
▁machinery	-13880
▁plutonium	-13881
▁screening	-13882
▁assignment	-13883
▁encouraging	-13884
list	-13885
▁Sour	-13886
▁golf	-13887
▁till	-13888
▁perpet	-13889
▁Genesis	-13890
istically	-13891
▁repaired	-13892
▁consensus	-13893
▁descendants	-13894
ikh	-13895
drop	-13896
eria	-13897
lake	-13898
matic	-13899
▁1876	-13900
▁tracy	-13901
▁Armenia	-13902
▁shifting	-13903
▁welcomed	-13904
▁Operations	-13905
▁entertaining	-13906
▁enthusiastic	-13907
▁Belie	-13908
▁cease	-13909
▁tourism	-13910
▁operator	-13911
▁tactical	-13912
▁commentators	-13913
ovan	-13914
▁Mom	-13915
▁Why	-13916
▁hire	-13917
▁Strong	-13918
▁Parkway	-13919
▁confess	-13920
▁outrage	-13921
▁mentally	-13922
▁songwriting	-13923
PS	-13924
iop	-13925
▁CC	-13926
oshi	-13927
ungle	-13928
▁Kath	-13929
▁menu	-13930
resses	-13931
▁Hardy	-13932
▁wounds	-13933
▁Stefani	-13934
▁servant	-13935
▁speaker	-13936
▁sporting	-13937
▁coastline	-13938
▁deployment	-13939
▁straightened	-13940
vo	-13941
otto	-13942
xter	-13943
▁ted	-13944
urers	-13945
▁shed	-13946
▁rifle	-13947
▁sweat	-13948
▁Region	-13949
▁Commerc	-13950
▁SpongeB	-13951
▁shouted	-13952
cia	-13953
▁Lie	-13954
▁Nem	-13955
▁item	-13956
▁tara	-13957
▁flags	-13958
igrated	-13959
▁Adrian	-13960
▁bankrupt	-13961
ér	-13962
mare	-13963
▁1875	-13964
▁Surv	-13965
▁dorm	-13966
▁Busch	-13967
▁Metac	-13968
▁owing	-13969
▁wrist	-13970
▁nomine	-13971
▁unrest	-13972
▁undergo	-13973
ologically	-13974
▁screaming	-13975
▁undertook	-13976
▁IS	-13977
▁Lay	-13978
taker	-13979
▁Drum	-13980
▁drown	-13981
▁Gothic	-13982
▁Motion	-13983
▁allied	-13984
▁edward	-13985
▁conting	-13986
▁homeless	-13987
▁confronted	-13988
▁NL	-13989
▁Jen	-13990
▁Sic	-13991
actic	-13992
▁pref	-13993
irling	-13994
▁Bosnia	-13995
▁presum	-13996
▁reader	-13997
▁unemploy	-13998
▁electoral	-13999
▁twentieth	-14000
▁instrumentation	-14001
nor	-14002
rams	-14003
▁upr	-14004
cting	-14005
onnie	-14006
▁nost	-14007
▁hammer	-14008
▁creates	-14009
▁habitats	-14010
▁Northwest	-14011
▁spreading	-14012
oufl	-14013
▁Alt	-14014
utors	-14015
▁dull	-14016
▁sund	-14017
▁tool	-14018
▁crust	-14019
▁facts	-14020
thening	-14021
▁Desert	-14022
▁Sierra	-14023
▁pillow	-14024
▁unveiled	-14025
▁remembering	-14026
akh	-14027
bus	-14028
urbs	-14029
▁ruin	-14030
▁Olivia	-14031
▁hybrid	-14032
▁metric	-14033
▁symmet	-14034
▁nowhere	-14035
▁planted	-14036
▁posthum	-14037
▁enrolled	-14038
▁supporter	-14039
▁MC	-14040
ecil	-14041
▁Rus	-14042
▁Come	-14043
▁Pent	-14044
▁Appro	-14045
▁rally	-14046
▁Trinity	-14047
▁realizes	-14048
▁reserves	-14049
▁Portsmouth	-14050
▁MacL	-14051
▁mbar	-14052
erness	-14053
▁Crane	-14054
▁Devon	-14055
▁Spiel	-14056
▁Female	-14057
▁Webber	-14058
▁pounder	-14059
▁tracking	-14060
▁upstairs	-14061
▁thoroughly	-14062
▁confrontation	-14063
zo	-14064
dict	-14065
▁Otto	-14066
▁limbs	-14067
▁synth	-14068
▁worthy	-14069
▁Bermuda	-14070
▁vocalist	-14071
▁fragments	-14072
▁poisoning	-14073
▁administered	-14074
HC	-14075
gans	-14076
adoes	-14077
▁Solar	-14078
▁indie	-14079
▁crowds	-14080
▁generals	-14081
▁reminiscent	-14082
ikes	-14083
▁nob	-14084
eches	-14085
umbling	-14086
▁Choice	-14087
▁Screen	-14088
▁deserve	-14089
▁fratern	-14090
▁Newcastle	-14091
OL	-14092
▁Cu	-14093
bage	-14094
▁Tow	-14095
entric	-14096
▁suits	-14097
▁thomas	-14098
▁flowing	-14099
▁realised	-14100
▁substance	-14101
▁discussions	-14102
zig	-14103
▁nu	-14104
icker	-14105
woman	-14106
▁Panama	-14107
▁escapes	-14108
▁quantities	-14109
cker	-14110
icho	-14111
▁Yok	-14112
▁logo	-14113
ayette	-14114
▁consc	-14115
▁faint	-14116
▁Prison	-14117
▁frozen	-14118
▁Advance	-14119
▁honorary	-14120
▁playable	-14121
▁Metacritic	-14122
orre	-14123
zens	-14124
▁McA	-14125
▁Humph	-14126
▁Kenny	-14127
▁Recon	-14128
▁congr	-14129
▁Hispan	-14130
▁exagger	-14131
▁licensed	-14132
▁amendment	-14133
▁composers	-14134
▁processing	-14135
bin	-14136
▁um	-14137
lies	-14138
▁137	-14139
▁141	-14140
ocese	-14141
ormal	-14142
▁hint	-14143
▁Leban	-14144
▁fertil	-14145
▁horizontal	-14146
▁sympathetic	-14147
amy	-14148
▁ate	-14149
udder	-14150
▁Bast	-14151
▁Hous	-14152
▁Trad	-14153
▁bags	-14154
▁Disco	-14155
▁grain	-14156
▁pinned	-14157
▁Harding	-14158
▁imported	-14159
▁momentum	-14160
▁promises	-14161
▁contested	-14162
▁intersections	-14163
OR	-14164
▁CN	-14165
▁1848	-14166
▁tide	-14167
Arthur	-14168
▁damon	-14169
▁paved	-14170
▁hollow	-14171
▁Capital	-14172
▁Springs	-14173
▁Therefore	-14174
▁populated	-14175
▁unwilling	-14176
▁generations	-14177
▁Fly	-14178
▁Pok	-14179
Brien	-14180
▁Emma	-14181
▁Arabic	-14182
▁Koreans	-14183
▁Chairman	-14184
▁confined	-14185
▁currency	-14186
▁storylines	-14187
▁successive	-14188
ovak	-14189
▁Bot	-14190
elfth	-14191
irate	-14192
▁1871	-14193
▁grid	-14194
▁soci	-14195
▁Speed	-14196
▁realm	-14197
▁stubb	-14198
▁sherry	-14199
▁Windsor	-14200
▁anxiety	-14201
▁singers	-14202
▁rans	-14203
▁rely	-14204
▁Edwin	-14205
▁hello	-14206
▁trigg	-14207
ictions	-14208
▁Buddhist	-14209
▁Michaels	-14210
▁Michelle	-14211
▁contrary	-14212
▁editorial	-14213
nal	-14214
atum	-14215
tter	-14216
xide	-14217
▁Cos	-14218
▁ana	-14219
▁Bris	-14220
▁Winc	-14221
▁Turks	-14222
▁cliff	-14223
▁overh	-14224
▁Vienna	-14225
▁patrols	-14226
pat	-14227
pin	-14228
▁Ltd	-14229
▁Sle	-14230
▁Vic	-14231
gends	-14232
▁Jake	-14233
▁Apart	-14234
▁draws	-14235
▁solve	-14236
▁ensemble	-14237
▁freshman	-14238
▁grabbing	-14239
▁infected	-14240
▁securing	-14241
▁delegation	-14242
▁magnificent	-14243
olo	-14244
hero	-14245
▁Task	-14246
▁spur	-14247
▁Chall	-14248
▁Psych	-14249
▁Tales	-14250
▁bonds	-14251
naments	-14252
▁regain	-14253
▁farming	-14254
aired	-14255
uctor	-14256
▁Kens	-14257
▁duck	-14258
▁neat	-14259
▁sinc	-14260
▁york	-14261
▁Antar	-14262
▁essay	-14263
▁reiss	-14264
▁Blaine	-14265
▁Luther	-14266
▁anthem	-14267
▁backup	-14268
▁delays	-14269
▁proven	-14270
▁unhappy	-14271
▁honestly	-14272
▁SpongeBob	-14273
▁proceedings	-14274
▁spectacular	-14275
ju	-14276
dam	-14277
keley	-14278
throp	-14279
▁Gaza	-14280
▁dirt	-14281
irable	-14282
▁Cuban	-14283
▁jewel	-14284
▁lacks	-14285
▁twins	-14286
▁wiped	-14287
▁stubborn	-14288
▁Spielberg	-14289
▁Contemporary	-14290
rez	-14291
acer	-14292
▁McE	-14293
▁vit	-14294
▁Bear	-14295
▁Assist	-14296
▁panels	-14297
▁tucked	-14298
▁caliber	-14299
▁freight	-14300
▁Allmusic	-14301
▁eruption	-14302
▁Adventure	-14303
▁aggregate	-14304
▁curiosity	-14305
▁excessive	-14306
▁separately	-14307
▁acquisition	-14308
sing	-14309
▁simon	-14310
▁Metall	-14311
▁congrat	-14312
▁disgust	-14313
▁fucking	-14314
▁celebrity	-14315
▁counteratt	-14316
dan	-14317
alie	-14318
otus	-14319
▁Jur	-14320
▁RPG	-14321
▁blur	-14322
▁ware	-14323
▁Newark	-14324
▁Stalin	-14325
▁dishes	-14326
▁Aviation	-14327
▁instruction	-14328
▁Hyd	-14329
▁etc	-14330
▁Jacques	-14331
▁Knights	-14332
▁Wheeler	-14333
▁exceeded	-14334
▁uprising	-14335
▁diagnosed	-14336
▁guarantee	-14337
▁Lis	-14338
▁Rhode	-14339
▁wives	-14340
▁clever	-14341
▁sacred	-14342
▁Gabriel	-14343
▁spirits	-14344
▁glancing	-14345
▁helicopters	-14346
chw	-14347
▁123	-14348
▁Dart	-14349
▁Hass	-14350
▁pard	-14351
yright	-14352
▁genius	-14353
▁interv	-14354
▁grossed	-14355
▁disputes	-14356
▁massacre	-14357
▁monastery	-14358
▁Smy	-14359
▁Dawn	-14360
▁Hast	-14361
▁Motor	-14362
▁Regin	-14363
▁kilog	-14364
▁membr	-14365
▁Sunder	-14366
▁biting	-14367
▁freely	-14368
▁melting	-14369
▁Newfound	-14370
▁coloured	-14371
▁peaceful	-14372
▁developer	-14373
▁nicknamed	-14374
▁testimony	-14375
▁convincing	-14376
▁nineteenth	-14377
▁introducing	-14378
▁blown	-14379
▁opted	-14380
▁Member	-14381
▁heroes	-14382
▁automatic	-14383
ovsky	-14384
▁Anti	-14385
▁Lope	-14386
▁Hayes	-14387
▁Hutch	-14388
▁Online	-14389
▁decomm	-14390
▁goodbye	-14391
▁reacted	-14392
▁scrapped	-14393
▁progression	-14394
fold	-14395
waffe	-14396
▁pulse	-14397
▁fiance	-14398
▁Preston	-14399
▁motorway	-14400
▁subordin	-14401
ED	-14402
eli	-14403
erse	-14404
oints	-14405
▁1872	-14406
▁1879	-14407
▁Adult	-14408
▁Burke	-14409
▁farms	-14410
▁locate	-14411
▁Lancaster	-14412
▁remarkable	-14413
▁Consequently	-14414
▁sufficiently	-14415
cut	-14416
avour	-14417
▁Regard	-14418
▁enzyme	-14419
▁knight	-14420
▁invented	-14421
▁pleasant	-14422
▁printing	-14423
▁surfaces	-14424
▁hurricanes	-14425
▁adaptations	-14426
asses	-14427
▁Ellis	-14428
▁Plaza	-14429
▁digit	-14430
▁ballot	-14431
▁erupted	-14432
clamation	-14433
▁aviation	-14434
▁maturity	-14435
▁persuade	-14436
▁mathematics	-14437
nty	-14438
odg	-14439
ishi	-14440
mail	-14441
▁ros	-14442
▁1851	-14443
▁Hull	-14444
▁Pont	-14445
▁rays	-14446
jected	-14447
▁Essex	-14448
▁disappro	-14449
▁screamed	-14450
▁veterans	-14451
▁ba	-14452
▁tam	-14453
▁ump	-14454
▁Schw	-14455
▁Lopez	-14456
▁devil	-14457
▁gains	-14458
▁spont	-14459
▁Contin	-14460
▁luxury	-14461
▁Mounted	-14462
▁experts	-14463
▁computers	-14464
▁Va	-14465
mitt	-14466
▁Alam	-14467
▁mirr	-14468
▁Gross	-14469
▁monks	-14470
▁patch	-14471
▁punch	-14472
▁Franco	-14473
▁Khrush	-14474
▁rulers	-14475
▁secular	-14476
▁Brigadier	-14477
▁Newfoundland	-14478
▁.3	-14479
▁270	-14480
▁ESP	-14481
▁Ses	-14482
iolet	-14483
ugged	-14484
ogical	-14485
▁mobil	-14486
▁Forbes	-14487
▁submit	-14488
▁Romania	-14489
▁Orthodox	-14490
▁overlook	-14491
▁projected	-14492
lv	-14493
oft	-14494
oni	-14495
arms	-14496
▁146	-14497
▁Koh	-14498
▁Mak	-14499
elest	-14500
▁anat	-14501
▁Brock	-14502
▁mason	-14503
▁chains	-14504
▁grants	-14505
▁symbols	-14506
▁Luftwaffe	-14507
▁Richardson	-14508
aky	-14509
rah	-14510
orde	-14511
▁hab	-14512
▁cher	-14513
▁porch	-14514
▁ruins	-14515
▁Illust	-14516
▁caring	-14517
▁enable	-14518
▁rapper	-14519
▁subsidi	-14520
▁brigades	-14521
▁interven	-14522
▁Ferdinand	-14523
▁continent	-14524
▁Industrial	-14525
▁legitimate	-14526
yll	-14527
▁210	-14528
▁rav	-14529
▁Crash	-14530
▁Derby	-14531
▁pyram	-14532
instein	-14533
▁hugged	-14534
▁pupils	-14535
▁rocket	-14536
▁assessed	-14537
▁memorable	-14538
ibal	-14539
▁lav	-14540
▁sel	-14541
olics	-14542
usive	-14543
▁sage	-14544
ocaust	-14545
▁Franz	-14546
▁Arctic	-14547
▁Valent	-14548
▁everybody	-14549
▁Khrushchev	-14550
▁northwestern	-14551
zym	-14552
▁hi	-14553
agic	-14554
avil	-14555
flow	-14556
▁Brod	-14557
▁brow	-14558
anning	-14559
otypes	-14560
unning	-14561
▁Quinn	-14562
▁Truth	-14563
▁chaos	-14564
▁reapp	-14565
▁precise	-14566
idy	-14567
send	-14568
▁NOK	-14569
asive	-14570
chair	-14571
▁grat	-14572
▁pige	-14573
▁Tiger	-14574
▁drives	-14575
▁overth	-14576
▁citizen	-14577
▁rubbing	-14578
▁generate	-14579
▁rejection	-14580
▁functional	-14581
▁measurements	-14582
▁misc	-14583
▁palms	-14584
▁stunt	-14585
▁vault	-14586
▁Jeremy	-14587
▁Romans	-14588
▁compat	-14589
▁Masters	-14590
▁manifest	-14591
▁Schumacher	-14592
erek	-14593
▁jim	-14594
▁unne	-14595
taining	-14596
▁Monica	-14597
▁tribal	-14598
▁Warwick	-14599
▁answering	-14600
▁Electronic	-14601
▁damp	-14602
▁tips	-14603
▁groom	-14604
icating	-14605
▁cement	-14606
▁pedest	-14607
▁Adriatic	-14608
▁commands	-14609
▁volunteer	-14610
▁incomplete	-14611
beit	-14612
oning	-14613
▁Pitt	-14614
▁cord	-14615
▁demon	-14616
▁posed	-14617
▁Wolver	-14618
▁floods	-14619
▁crowned	-14620
▁crushed	-14621
▁forgive	-14622
▁trusted	-14623
▁hypothesis	-14624
▁holy	-14625
assium	-14626
▁Henri	-14627
▁disbel	-14628
▁diving	-14629
▁incons	-14630
▁Hoffman	-14631
▁damages	-14632
▁demonstration	-14633
▁Pix	-14634
▁aug	-14635
▁cute	-14636
▁drap	-14637
▁dharr	-14638
▁merger	-14639
▁nobody	-14640
iliation	-14641
▁honored	-14642
ci	-14643
ichi	-14644
▁Stoke	-14645
▁files	-14646
▁Colomb	-14647
▁rewrit	-14648
▁tipped	-14649
▁wouldn	-14650
▁discontinued	-14651
▁insufficient	-14652
▁investigated	-14653
etr	-14654
▁Fi	-14655
orne	-14656
ovic	-14657
▁Gat	-14658
▁Moz	-14659
▁meg	-14660
adequ	-14661
lings	-14662
opsis	-14663
▁View	-14664
▁Minne	-14665
▁blend	-14666
▁Tasman	-14667
▁wicked	-14668
▁worlds	-14669
▁volcano	-14670
▁basement	-14671
▁captivity	-14672
▁migration	-14673
▁Protection	-14674
▁comparable	-14675
▁uncertainty	-14676
▁Commissioner	-14677
50	-14678
nen	-14679
▁Rif	-14680
▁Pall	-14681
▁Senior	-14682
▁Surrey	-14683
▁farrell	-14684
▁stealing	-14685
oland	-14686
▁Fear	-14687
▁wool	-14688
▁minim	-14689
▁Tucker	-14690
▁infect	-14691
▁Crystal	-14692
▁depends	-14693
▁honours	-14694
▁GameSpot	-14695
▁Geoffrey	-14696
▁Starting	-14697
▁MacArthur	-14698
▁sexuality	-14699
▁Wellington	-14700
▁politically	-14701
iast	-14702
▁Lav	-14703
isely	-14704
▁corp	-14705
▁ruth	-14706
inating	-14707
▁Leader	-14708
▁Sharon	-14709
▁Nothing	-14710
▁speeches	-14711
▁FM	-14712
▁gig	-14713
▁sob	-14714
grily	-14715
▁Cruz	-14716
ursday	-14717
▁seize	-14718
rolling	-14719
▁Gerald	-14720
▁flames	-14721
▁hunger	-14722
▁Finnish	-14723
▁Jamaica	-14724
▁Skinner	-14725
▁prolong	-14726
▁Airborne	-14727
▁Artillery	-14728
▁ancestors	-14729
▁collision	-14730
▁hospitals	-14731
▁sebastian	-14732
▁Productions	-14733
inae	-14734
▁Beij	-14735
▁Brew	-14736
▁Cave	-14737
▁Look	-14738
▁Berry	-14739
▁lease	-14740
▁modes	-14741
▁suburb	-14742
▁heating	-14743
▁Progress	-14744
▁Character	-14745
▁fet	-14746
uxili	-14747
▁hect	-14748
▁Large	-14749
▁Marcus	-14750
▁coupled	-14751
▁affecting	-14752
▁neighbouring	-14753
aru	-14754
uns	-14755
▁Zel	-14756
umping	-14757
▁zones	-14758
▁Fraser	-14759
▁Holden	-14760
▁rookie	-14761
▁Manager	-14762
▁secrets	-14763
▁questioning	-14764
▁installation	-14765
tz	-14766
▁280	-14767
acker	-14768
uzzle	-14769
▁flaw	-14770
otilla	-14771
▁Blake	-14772
▁Obser	-14773
▁Timber	-14774
▁occupy	-14775
▁refuse	-14776
▁traits	-14777
▁Baldwin	-14778
▁Machine	-14779
▁profits	-14780
▁ordering	-14781
▁spinning	-14782
▁waterline	-14783
inate	-14784
▁Kiss	-14785
▁Reyn	-14786
▁lisa	-14787
nesday	-14788
orrect	-14789
▁pleas	-14790
▁readily	-14791
▁monarchy	-14792
▁Paramount	-14793
jud	-14794
oux	-14795
ripp	-14796
▁Ost	-14797
birds	-14798
▁Gent	-14799
▁pian	-14800
▁depths	-14801
▁ranged	-14802
▁Formula	-14803
▁senator	-14804
▁wrapping	-14805
▁persisted	-14806
▁reporters	-14807
▁dil	-14808
canal	-14809
▁chad	-14810
▁fork	-14811
▁array	-14812
▁orgas	-14813
pection	-14814
▁applic	-14815
▁Brandon	-14816
▁Turnpike	-14817
▁findings	-14818
▁meantime	-14819
▁admission	-14820
▁reflecting	-14821
▁businessman	-14822
▁compensation	-14823
atha	-14824
▁Aqu	-14825
▁RBI	-14826
raine	-14827
▁awake	-14828
▁nests	-14829
▁Greeks	-14830
▁Hammer	-14831
▁albeit	-14832
▁sophia	-14833
▁upgrade	-14834
▁Fletcher	-14835
▁hardware	-14836
▁relevant	-14837
▁unnecess	-14838
▁coalition	-14839
▁struggles	-14840
cod	-14841
iri	-14842
▁slo	-14843
isure	-14844
▁Buch	-14845
▁Mick	-14846
▁Wals	-14847
ensing	-14848
▁lungs	-14849
▁Hallow	-14850
▁Palmer	-14851
▁alumin	-14852
▁cheese	-14853
▁errors	-14854
▁parted	-14855
▁syndrome	-14856
▁Gardens	-14857
▁inspect	-14858
▁McKinley	-14859
▁laurelyn	-14860
▁Relations	-14861
▁acceptable	-14862
▁transformation	-14863
inos	-14864
▁Oil	-14865
▁Plat	-14866
ittees	-14867
▁Nancy	-14868
▁Store	-14869
▁ironcl	-14870
▁masses	-14871
▁expenses	-14872
▁basically	-14873
▁conquered	-14874
▁maintains	-14875
▁relegated	-14876
▁Spy	-14877
lance	-14878
▁Ober	-14879
▁fist	-14880
▁Wings	-14881
▁groan	-14882
▁Damage	-14883
▁Romney	-14884
▁decent	-14885
▁timing	-14886
▁Jennifer	-14887
▁boarding	-14888
▁detective	-14889
▁ambassador	-14890
▁modifications	-14891
cock	-14892
odia	-14893
omys	-14894
▁Dian	-14895
▁aust	-14896
thouse	-14897
▁Betty	-14898
▁reads	-14899
▁gossip	-14900
▁Beijing	-14901
▁accuracy	-14902
▁pitching	-14903
▁accounting	-14904
[...]
