<pad>	0
<unk>	0
<s>	0
</s>	0
he	-0
▁t	-1
▁a	-2
▁s	-3
in	-4
▁.	-5
▁w	-6
▁he	-7
ed	-8
▁,	-9
ou	-10
▁h	-11
▁the	-12
▁'	-13
▁b	-14
re	-15
▁i	-16
▁m	-17
ing	-18
▁o	-19
nd	-20
▁to	-21
▁f	-22
▁c	-23
er	-24
at	-25
▁d	-26
▁n	-27
is	-28
▁l	-29
▁th	-30
as	-31
▁her	-32
en	-33
▁and	-34
an	-35
▁p	-36
ll	-37
on	-38
▁''	-39
or	-40
▁she	-41
▁`	-42
▁``	-43
ar	-44
it	-45
▁in	-46
▁g	-47
▁y	-48
es	-49
▁of	-50
▁ha	-51
▁you	-52
▁e	-53
om	-54
▁was	-55
▁be	-56
ow	-57
id	-58
▁his	-59
ld	-60
ly	-61
le	-62
im	-63
ac	-64
gh	-65
ve	-66
▁it	-67
ot	-68
▁on	-69
▁that	-70
st	-71
▁st	-72
et	-73
ut	-74
ic	-75
▁wh	-76
ay	-77
▁re	-78
▁u	-79
ver	-80
▁as	-81
out	-82
▁r	-83
ith	-84
ould	-85
se	-86
▁with	-87
▁?	-88
ght	-89
ke	-90
▁for	-91
al	-92
ad	-93
oo	-94
▁him	-95
▁me	-96
ent	-97
▁we	-98
▁j	-99
▁k	-100
▁had	-101
▁at	-102
▁do	-103
▁an	-104
ir	-105
▁my	-106
ion	-107
ur	-108
▁li	-109
▁but	-110
▁sh	-111
her	-112
all	-113
am	-114
ant	-115
ked	-116
▁so	-117
ight	-118
▁se	-119
pp	-120
▁fr	-121
▁sa	-122
ro	-123
▁ne	-124
ce	-125
ter	-126
▁not	-127
hing	-128
ack	-129
▁out	-130
ore	-131
ain	-132
▁up	-133
ri	-134
el	-135
▁whe	-136
▁what	-137
il	-138
▁kn	-139
ust	-140
king	-141
▁did	-142
▁ch	-143
▁have	-144
us	-145
▁int	-146
▁could	-147
ch	-148
▁ab	-149
ill	-150
rou	-151
ome	-152
▁this	-153
▁said	-154
ab	-155
ct	-156
▁go	-157
▁would	-158
hed	-159
▁loo	-160
▁su	-161
ie	-162
one	-163
▁le	-164
ss	-165
▁all	-166
ard	-167
▁no	-168
▁back	-169
▁from	-170
ess	-171
▁want	-172
ind	-173
▁when	-174
own	-175
▁al	-176
ake	-177
▁de	-178
art	-179
▁is	-180
▁con	-181
au	-182
▁if	-183
▁ag	-184
▁fe	-185
▁ex	-186
ra	-187
▁into	-188
▁cl	-189
ge	-190
▁about	-191
▁wor	-192
▁just	-193
▁hand	-194
ry	-195
ast	-196
ul	-197
▁lo	-198
▁were	-199
ally	-200
▁like	-201
fe	-202
▁they	-203
▁one	-204
▁v	-205
ate	-206
and	-207
un	-208
ace	-209
▁ey	-210
qu	-211
▁ro	-212
lf	-213
▁your	-214
very	-215
▁any	-216
▁over	-217
ide	-218
▁been	-219
▁te	-220
ous	-221
ood	-222
way	-223
ep	-224
▁then	-225
▁sp	-226
ven	-227
▁there	-228
▁tim	-229
▁sm	-230
▁know	-231
▁down	-232
▁too	-233
▁again	-234
ist	-235
ck	-236
ong	-237
ers	-238
est	-239
▁get	-240
ation	-241
▁un	-242
▁eyes	-243
ft	-244
are	-245
our	-246
op	-247
▁man	-248
▁thou	-249
▁see	-250
ice	-251
▁time	-252
▁or	-253
▁mo	-254
▁pl	-255
▁off	-256
▁com	-257
▁ar	-258
self	-259
ive	-260
▁how	-261
▁them	-262
▁more	-263
▁bl	-264
▁head	-265
ull	-266
um	-267
other	-268
ame	-269
ned	-270
round	-271
▁now	-272
▁who	-273
▁bo	-274
▁co	-275
ig	-276
pped	-277
▁sl	-278
ink	-279
ving	-280
ile	-281
ered	-282
ved	-283
▁even	-284
▁are	-285
ine	-286
▁some	-287
pt	-288
os	-289
▁gr	-290
▁by	-291
▁going	-292
▁br	-293
▁qu	-294
▁..	-295
▁...	-296
▁!	-297
▁than	-298
▁af	-299
▁fl	-300
th	-301
iss	-302
ag	-303
▁every	-304
ick	-305
ting	-306
▁around	-307
led	-308
▁pre	-309
fore	-310
ure	-311
▁thought	-312
▁en	-313
▁before	-314
▁way	-315
nder	-316
ort	-317
ade	-318
▁pro	-319
▁need	-320
▁tw	-321
dd	-322
act	-323
ap	-324
ther	-325
▁feel	-326
ite	-327
▁tur	-328
▁po	-329
▁looked	-330
▁only	-331
reat	-332
thing	-333
ment	-334
▁exp	-335
▁bec	-336
▁their	-337
if	-338
▁mar	-339
ning	-340
▁gl	-341
ound	-342
▁tr	-343
▁should	-344
▁face	-345
▁kne	-346
▁right	-347
▁think	-348
▁wanted	-349
able	-350
▁let	-351
▁look	-352
▁wa	-353
ather	-354
ass	-355
ip	-356
▁ac	-357
▁after	-358
▁here	-359
▁can	-360
ak	-361
aking	-362
iz	-363
ire	-364
▁made	-365
ious	-366
▁away	-367
nt	-368
▁other	-369
▁som	-370
▁che	-371
ated	-372
rough	-373
▁through	-374
ect	-375
itt	-376
▁mu	-377
ened	-378
▁sc	-379
▁somet	-380
▁thing	-381
▁never	-382
▁wom	-383
▁asked	-384
▁good	-385
ach	-386
ress	-387
▁im	-388
▁em	-389
▁bet	-390
▁door	-391
ause	-392
▁arm	-393
▁say	-394
▁still	-395
dy	-396
ave	-397
▁us	-398
▁pr	-399
▁long	-400
we	-401
▁knew	-402
ward	-403
▁much	-404
ried	-405
ose	-406
▁ke	-407
ance	-408
▁why	-409
ady	-410
ity	-411
▁will	-412
▁make	-413
▁something	-414
▁car	-415
ched	-416
▁des	-417
ble	-418
ily	-419
▁hands	-420
ear	-421
▁love	-422
▁wat	-423
ue	-424
▁lau	-425
▁because	-426
elt	-427
▁pull	-428
▁wal	-429
▁day	-430
ff	-431
▁felt	-432
▁dis	-433
▁well	-434
▁fir	-435
▁room	-436
ol	-437
▁call	-438
▁comp	-439
▁am	-440
▁mom	-441
▁take	-442
▁op	-443
wn	-444
▁took	-445
▁cont	-446
age	-447
▁wo	-448
▁gu	-449
▁tell	-450
med	-451
▁happ	-452
oice	-453
▁ca	-454
▁two	-455
ough	-456
▁come	-457
ia	-458
▁against	-459
ged	-460
▁mind	-461
▁under	-462
▁where	-463
air	-464
▁night	-465
ies	-466
▁body	-467
te	-468
ree	-469
ittle	-470
▁rem	-471
▁el	-472
▁little	-473
▁bed	-474
▁start	-475
▁sure	-476
▁ins	-477
az	-478
▁woman	-479
▁hel	-480
▁kiss	-481
ich	-482
▁got	-483
▁try	-484
▁turned	-485
▁life	-486
anc	-487
de	-488
▁mat	-489
▁fo	-490
ase	-491
be	-492
ild	-493
▁voice	-494
▁moment	-495
▁pe	-496
ne	-497
ook	-498
▁first	-499
co	-500
ied	-501
▁herself	-502
▁fin	-503
▁really	-504
▁very	-505
ps	-506
ared	-507
▁wait	-508
lie	-509
ru	-510
▁hard	-511
▁ad	-512
ful	-513
▁app	-514
▁ho	-515
ek	-516
▁bot	-517
▁word	-518
row	-519
▁told	-520
ted	-521
▁last	-522
▁real	-523
ling	-524
▁being	-525
▁put	-526
▁per	-527
ens	-528
▁tal	-529
▁anything	-530
▁breat	-531
▁res	-532
▁while	-533
get	-534
ence	-535
▁another	-536
▁arms	-537
▁smile	-538
▁help	-539
▁part	-540
▁father	-541
▁smil	-542
ince	-543
▁ph	-544
▁heart	-545
ren	-546
outh	-547
▁sur	-548
▁own	-549
ber	-550
ouse	-551
sh	-552
ark	-553
▁unt	-554
▁inst	-555
▁ple	-556
ang	-557
▁care	-558
xt	-559
▁cou	-560
▁clos	-561
▁mouth	-562
▁jo	-563
▁our	-564
pl	-565
▁until	-566
mo	-567
▁dec	-568
ise	-569
▁came	-570
em	-571
▁sk	-572
ions	-573
ath	-574
▁hair	-575
▁spe	-576
igh	-577
gan	-578
ict	-579
▁fing	-580
▁left	-581
▁sw	-582
▁work	-583
ner	-584
▁act	-585
▁beh	-586
uck	-587
aring	-588
▁pulled	-589
ah	-590
ont	-591
▁year	-592
▁new	-593
ross	-594
▁enough	-595
per	-596
▁ever	-597
▁may	-598
▁find	-599
▁ste	-600
▁since	-601
▁nothing	-602
ty	-603
▁looking	-604
▁things	-605
▁house	-606
ching	-607
▁yes	-608
▁which	-609
▁ton	-610
ating	-611
▁might	-612
▁trying	-613
▁everything	-614
uc	-615
▁next	-616
▁keep	-617
▁feeling	-618
ves	-619
▁str	-620
▁fam	-621
ish	-622
ason	-623
▁ent	-624
▁end	-625
▁tou	-626
▁himself	-627
▁give	-628
dded	-629
ways	-630
▁gi	-631
▁home	-632
▁side	-633
▁rel	-634
▁bu	-635
▁few	-636
▁mother	-637
▁sat	-638
▁inside	-639
▁walked	-640
most	-641
▁behind	-642
▁bre	-643
▁wr	-644
▁cur	-645
ness	-646
▁gave	-647
▁lips	-648
ready	-649
ually	-650
▁deep	-651
▁show	-652
▁already	-653
▁both	-654
▁imp	-655
▁ear	-656
▁toward	-657
hes	-658
▁breath	-659
▁rest	-660
▁min	-661
▁set	-662
▁almost	-663
▁went	-664
iend	-665
▁always	-666
▁sit	-667
▁friend	-668
les	-669
▁though	-670
▁soft	-671
ans	-672
▁quick	-673
▁without	-674
▁mor	-675
pping	-676
▁sound	-677
▁sil	-678
▁open	-679
▁once	-680
ax	-681
▁hop	-682
ool	-683
▁z	-684
▁better	-685
▁war	-686
▁has	-687
▁those	-688
sw	-689
▁att	-690
▁bus	-691
ople	-692
▁sho	-693
▁ra	-694
used	-695
ped	-696
▁people	-697
▁sn	-698
▁dr	-699
▁cr	-700
▁sto	-701
▁answ	-702
▁front	-703
▁hold	-704
ately	-705
▁shook	-706
▁saw	-707
▁smiled	-708
ably	-709
ret	-710
gether	-711
fect	-712
less	-713
▁words	-714
ween	-715
▁ang	-716
▁each	-717
▁stand	-718
▁between	-719
av	-720
gn	-721
▁bit	-722
oy	-723
ord	-724
ised	-725
ully	-726
orm	-727
▁together	-728
gg	-729
▁does	-730
▁done	-731
▁place	-732
day	-733
▁stop	-734
ib	-735
▁stu	-736
iness	-737
▁-	-738
int	-739
ert	-740
ci	-741
ell	-742
▁ser	-743
▁most	-744
▁belie	-745
ail	-746
▁dri	-747
▁doing	-748
lo	-749
▁ass	-750
▁slow	-751
▁cle	-752
erson	-753
▁gaz	-754
▁maybe	-755
▁hu	-756
ream	-757
ently	-758
▁family	-759
ton	-760
aut	-761
▁oh	-762
▁started	-763
▁hur	-764
aught	-765
▁same	-766
▁reac	-767
▁minut	-768
▁far	-769
▁found	-770
▁dam	-771
ible	-772
ized	-773
▁needed	-774
▁sle	-775
▁ide	-776
ash	-777
▁table	-778
bed	-779
ushed	-780
to	-781
▁ok	-782
▁meet	-783
ever	-784
▁tried	-785
▁thank	-786
▁sex	-787
▁across	-788
ater	-789
▁years	-790
▁making	-791
▁dress	-792
ier	-793
▁swe	-794
red	-795
▁ob	-796
ense	-797
▁else	-798
▁child	-799
▁past	-800
inking	-801
▁beaut	-802
▁stay	-803
▁week	-804
▁fingers	-805
▁chest	-806
▁someone	-807
hen	-808
rent	-809
▁okay	-810
▁cons	-811
▁mean	-812
ars	-813
▁step	-814
ished	-815
▁phone	-816
aned	-817
▁old	-818
irt	-819
▁hun	-820
owed	-821
ian	-822
cked	-823
cept	-824
ange	-825
▁dark	-826
▁leg	-827
rew	-828
▁morning	-829
▁inc	-830
▁leave	-831
pr	-832
▁conf	-833
▁dro	-834
▁run	-835
▁acc	-836
ghed	-837
▁stood	-838
▁sig	-839
ced	-840
room	-841
▁taking	-842
▁moved	-843
ary	-844
▁bab	-845
▁sim	-846
fted	-847
▁underst	-848
▁laughed	-849
icked	-850
▁pain	-851
ering	-852
▁pass	-853
▁hour	-854
▁finally	-855
▁close	-856
▁dif	-857
pe	-858
▁remem	-859
▁soon	-860
fully	-861
▁quest	-862
ention	-863
mor	-864
▁hell	-865
▁heard	-866
▁jake	-867
▁idea	-868
▁ev	-869
▁light	-870
▁mon	-871
▁char	-872
gged	-873
▁sor	-874
▁cour	-875
iously	-876
▁men	-877
▁gaze	-878
▁getting	-879
▁exc	-880
▁having	-881
eth	-882
▁ap	-883
▁poss	-884
▁seemed	-885
▁nodded	-886
▁move	-887
ys	-888
▁gir	-889
aw	-890
ub	-891
▁talk	-892
▁best	-893
▁prob	-894
▁kind	-895
▁small	-896
aced	-897
▁del	-898
cond	-899
▁hot	-900
▁whis	-901
ured	-902
vers	-903
tered	-904
▁wonder	-905
▁comple	-906
itc	-907
▁supp	-908
▁held	-909
▁ret	-910
ple	-911
▁expl	-912
▁inv	-913
oney	-914
▁flo	-915
▁quickly	-916
▁second	-917
▁probably	-918
▁plan	-919
enn	-920
▁bes	-921
▁tight	-922
▁bur	-923
▁inte	-924
▁believe	-925
ding	-926
▁resp	-927
ined	-928
▁play	-929
▁myself	-930
▁dra	-931
▁miss	-932
rie	-933
ush	-934
▁eas	-935
▁laugh	-936
ained	-937
ipped	-938
▁three	-939
no	-940
▁beautif	-941
▁business	-942
▁fur	-943
▁surpr	-944
▁grin	-945
▁later	-946
▁press	-947
▁chair	-948
ond	-949
ided	-950
▁yet	-951
ix	-952
▁sorry	-953
ected	-954
▁thinking	-955
▁din	-956
▁big	-957
ither	-958
▁tra	-959
▁office	-960
so	-961
▁world	-962
▁person	-963
▁stopped	-964
▁reason	-965
▁girl	-966
▁reached	-967
▁je	-968
▁lot	-969
▁gone	-970
ph	-971
▁onto	-972
▁hor	-973
▁ready	-974
▁name	-975
▁pleas	-976
▁beautiful	-977
▁stra	-978
▁foll	-979
▁brother	-980
ead	-981
cus	-982
▁least	-983
iv	-984
▁perfect	-985
ual	-986
▁baby	-987
▁complete	-988
▁aw	-989
dden	-990
▁wind	-991
umb	-992
▁fact	-993
▁sudden	-994
▁opened	-995
▁actually	-996
▁instead	-997
▁hers	-998
ically	-999
rest	-1000
ank	-1001
ition	-1002
▁coming	-1003
▁mr	-1004
▁loved	-1005
▁jul	-1006
ower	-1007
▁along	-1008
▁bad	-1009
arent	-1010
▁understand	-1011
▁seen	-1012
up	-1013
▁sec	-1014
▁bar	-1015
▁touch	-1016
▁watched	-1017
▁glanc	-1018
▁great	-1019
▁diffe	-1020
▁slowly	-1021
ying	-1022
▁cor	-1023
ening	-1024
▁gra	-1025
▁adm	-1026
▁shoulders	-1027
▁sleep	-1028
▁wrong	-1029
▁grab	-1030
▁ask	-1031
▁minutes	-1032
▁women	-1033
vered	-1034
▁tonight	-1035
▁prom	-1036
▁hear	-1037
▁month	-1038
▁floor	-1039
ife	-1040
ply	-1041
vel	-1042
▁such	-1043
▁jack	-1044
▁contin	-1045
▁cheek	-1046
▁tak	-1047
iding	-1048
▁vict	-1049
▁dist	-1050
▁black	-1051
▁rose	-1052
ued	-1053
▁called	-1054
▁must	-1055
▁please	-1056
▁turn	-1057
▁glass	-1058
▁days	-1059
▁fall	-1060
here	-1061
▁hurt	-1062
▁course	-1063
▁many	-1064
antly	-1065
▁waiting	-1066
ney	-1067
▁ter	-1068
fort	-1069
▁began	-1070
cc	-1071
▁able	-1072
▁half	-1073
▁legs	-1074
▁ref	-1075
pered	-1076
ize	-1077
▁def	-1078
▁matter	-1079
▁eye	-1080
▁money	-1081
▁list	-1082
▁met	-1083
▁inter	-1084
▁god	-1085
▁top	-1086
▁gre	-1087
▁conc	-1088
ction	-1089
▁mus	-1090
▁bro	-1091
▁water	-1092
▁ago	-1093
ister	-1094
ten	-1095
▁feet	-1096
▁ed	-1097
▁pa	-1098
▁anyone	-1099
▁kept	-1100
▁air	-1101
owing	-1102
▁whole	-1103
▁closed	-1104
▁neck	-1105
▁ran	-1106
▁matt	-1107
ical	-1108
ips	-1109
▁near	-1110
▁happy	-1111
▁exact	-1112
▁alone	-1113
ows	-1114
▁victor	-1115
illed	-1116
▁repl	-1117
ertain	-1118
▁lea	-1119
▁realized	-1120
▁question	-1121
▁standing	-1122
ial	-1123
▁es	-1124
▁det	-1125
▁skin	-1126
▁its	-1127
▁sever	-1128
ms	-1129
ico	-1130
ons	-1131
mand	-1132
▁slight	-1133
lled	-1134
▁dan	-1135
▁also	-1136
▁consid	-1137
▁sens	-1138
▁stared	-1139
▁fine	-1140
nding	-1141
▁everyone	-1142
▁several	-1143
▁answer	-1144
ides	-1145
▁wife	-1146
ma	-1147
app	-1148
▁point	-1149
▁remember	-1150
gin	-1151
▁tre	-1152
ud	-1153
lt	-1154
▁happened	-1155
joy	-1156
▁wed	-1157
▁apart	-1158
▁whispered	-1159
▁different	-1160
▁shi	-1161
▁leaned	-1162
ract	-1163
▁used	-1164
▁ele	-1165
▁high	-1166
ory	-1167
▁warm	-1168
▁forward	-1169
lex	-1170
▁today	-1171
ene	-1172
▁shoulder	-1173
ger	-1174
▁enjoy	-1175
bb	-1176
uring	-1177
▁interest	-1178
ations	-1179
▁fore	-1180
▁pur	-1181
▁dinner	-1182
iet	-1183
▁squ	-1184
▁lifted	-1185
▁reg	-1186
ression	-1187
▁exactly	-1188
▁red	-1189
ings	-1190
ited	-1191
▁suddenly	-1192
▁unc	-1193
side	-1194
ored	-1195
▁mist	-1196
▁walk	-1197
▁pret	-1198
▁inf	-1199
▁dire	-1200
uth	-1201
der	-1202
▁job	-1203
▁either	-1204
▁married	-1205
▁dou	-1206
▁tears	-1207
itchen	-1208
▁kitchen	-1209
▁thro	-1210
▁completely	-1211
▁cra	-1212
▁read	-1213
gue	-1214
▁clot	-1215
▁wra	-1216
▁hus	-1217
▁spo	-1218
▁wall	-1219
▁pat	-1220
▁glanced	-1221
▁meant	-1222
▁contro	-1223
▁guess	-1224
▁full	-1225
▁retur	-1226
▁luc	-1227
▁kissed	-1228
head	-1229
br	-1230
▁break	-1231
▁ma	-1232
▁deal	-1233
▁stepped	-1234
▁white	-1235
▁straight	-1236
▁talking	-1237
▁seat	-1238
▁these	-1239
▁lu	-1240
▁bare	-1241
▁chap	-1242
▁knowing	-1243
▁holding	-1244
▁blue	-1245
osed	-1246
▁fig	-1247
ute	-1248
▁ye	-1249
abeth	-1250
oun	-1251
▁cam	-1252
▁giving	-1253
▁caught	-1254
▁hope	-1255
▁ind	-1256
▁ner	-1257
▁desk	-1258
▁closer	-1259
▁nice	-1260
lan	-1261
▁victoria	-1262
ult	-1263
▁fun	-1264
▁bell	-1265
▁alex	-1266
▁wedding	-1267
▁imag	-1268
▁pretty	-1269
mm	-1270
ased	-1271
ming	-1272
▁ign	-1273
▁taken	-1274
apped	-1275
▁pres	-1276
ship	-1277
▁abs	-1278
▁hours	-1279
▁watching	-1280
▁sweet	-1281
▁yeah	-1282
ken	-1283
any	-1284
▁chapter	-1285
▁obv	-1286
▁sister	-1287
▁stom	-1288
ffe	-1289
▁whatever	-1290
cy	-1291
ired	-1292
▁add	-1293
▁leaving	-1294
▁short	-1295
▁grand	-1296
▁strong	-1297
▁bott	-1298
▁whit	-1299
▁marry	-1300
▁friends	-1301
▁four	-1302
rought	-1303
▁beside	-1304
ject	-1305
▁sun	-1306
band	-1307
where	-1308
▁damn	-1309
use	-1310
▁clear	-1311
▁cold	-1312
▁chance	-1313
▁shru	-1314
ors	-1315
▁lar	-1316
▁shirt	-1317
ents	-1318
▁pleasure	-1319
riage	-1320
idd	-1321
▁coll	-1322
▁times	-1323
▁moving	-1324
▁vis	-1325
▁jenn	-1326
▁decided	-1327
▁change	-1328
▁pri	-1329
▁trust	-1330
▁certain	-1331
▁control	-1332
arr	-1333
▁tri	-1334
▁pushed	-1335
▁pap	-1336
▁low	-1337
▁quiet	-1338
▁brought	-1339
▁sitting	-1340
▁working	-1341
▁prot	-1342
▁gas	-1343
▁bring	-1344
▁sense	-1345
▁lost	-1346
▁expression	-1347
▁mine	-1348
airs	-1349
▁disapp	-1350
▁cla	-1351
▁stomach	-1352
▁ir	-1353
enty	-1354
▁youn	-1355
ina	-1356
▁rec	-1357
▁proble	-1358
▁replied	-1359
▁whitney	-1360
▁cal	-1361
io	-1362
▁hit	-1363
▁convers	-1364
▁gro	-1365
▁cat	-1366
▁coffe	-1367
▁living	-1368
itely	-1369
▁entire	-1370
▁longer	-1371
▁attention	-1372
ung	-1373
anged	-1374
▁stro	-1375
▁throat	-1376
▁sighed	-1377
more	-1378
▁five	-1379
▁gri	-1380
▁months	-1381
▁hall	-1382
▁known	-1383
rist	-1384
bt	-1385
nded	-1386
ann	-1387
▁sy	-1388
▁coffee	-1389
▁less	-1390
ount	-1391
▁slightly	-1392
▁eng	-1393
medi	-1394
▁immedi	-1395
▁seeing	-1396
▁dream	-1397
▁col	-1398
▁mag	-1399
▁parent	-1400
▁picked	-1401
▁sal	-1402
▁demand	-1403
▁slid	-1404
▁continued	-1405
▁bedroom	-1406
▁win	-1407
og	-1408
▁kid	-1409
▁turning	-1410
ures	-1411
▁given	-1412
▁husband	-1413
▁mess	-1414
▁dad	-1415
▁softly	-1416
▁clothes	-1417
iew	-1418
▁build	-1419
▁mia	-1420
▁dani	-1421
▁hunter	-1422
zy	-1423
ular	-1424
▁simply	-1425
▁fell	-1426
▁pulling	-1427
▁arri	-1428
▁saying	-1429
read	-1430
▁free	-1431
ump	-1432
▁rep	-1433
▁sent	-1434
eredith	-1435
▁meredith	-1436
▁weeks	-1437
▁outside	-1438
▁sch	-1439
▁blake	-1440
aff	-1441
▁par	-1442
▁tomor	-1443
wh	-1444
▁tomorrow	-1445
aged	-1446
▁pal	-1447
ets	-1448
▁grabbed	-1449
▁pict	-1450
inted	-1451
▁emot	-1452
▁ce	-1453
ushing	-1454
▁la	-1455
▁relie	-1456
▁waist	-1457
▁gently	-1458
▁meeting	-1459
▁son	-1460
ively	-1461
▁marriage	-1462
▁tem	-1463
▁tongue	-1464
▁immediately	-1465
isted	-1466
son	-1467
acing	-1468
▁worry	-1469
▁ni	-1470
izabeth	-1471
▁boy	-1472
▁dropped	-1473
by	-1474
ison	-1475
▁elizabeth	-1476
▁frown	-1477
ging	-1478
eri	-1479
ising	-1480
▁parents	-1481
▁appro	-1482
▁fire	-1483
action	-1484
▁truth	-1485
▁dom	-1486
▁accept	-1487
▁relax	-1488
▁hum	-1489
▁desire	-1490
▁thoughts	-1491
land	-1492
▁pos	-1493
cking	-1494
▁jason	-1495
▁walking	-1496
▁relation	-1497
▁conversation	-1498
man	-1499
▁large	-1500
▁musc	-1501
▁pol	-1502
▁telling	-1503
▁jam	-1504
▁memor	-1505
▁count	-1506
▁use	-1507
▁pay	-1508
ift	-1509
▁company	-1510
▁chuck	-1511
ana	-1512
oud	-1513
▁watch	-1514
▁christ	-1515
▁fre	-1516
▁shot	-1517
▁smiling	-1518
▁appear	-1519
▁filled	-1520
▁quite	-1521
▁ext	-1522
▁six	-1523
▁expect	-1524
▁av	-1525
▁fight	-1526
▁defin	-1527
▁evening	-1528
▁wanting	-1529
▁bra	-1530
▁possible	-1531
▁cut	-1532
▁towards	-1533
▁staff	-1534
▁late	-1535
ee	-1536
▁power	-1537
▁remind	-1538
orn	-1539
▁draw	-1540
▁tone	-1541
aps	-1542
▁guy	-1543
▁school	-1544
iced	-1545
▁added	-1546
ility	-1547
▁coun	-1548
▁finger	-1549
▁cry	-1550
▁raised	-1551
the	-1552
▁worked	-1553
ign	-1554
▁apartment	-1555
bo	-1556
▁heat	-1557
ager	-1558
een	-1559
ants	-1560
▁begin	-1561
▁waited	-1562
▁hon	-1563
▁julie	-1564
▁suit	-1565
itted	-1566
akes	-1567
▁liked	-1568
▁running	-1569
▁finished	-1570
▁drive	-1571
oth	-1572
▁staring	-1573
aked	-1574
▁priv	-1575
▁sigh	-1576
▁couple	-1577
▁cab	-1578
▁const	-1579
ought	-1580
▁lear	-1581
▁ann	-1582
▁drink	-1583
▁followed	-1584
▁shut	-1585
▁secret	-1586
oring	-1587
vous	-1588
▁max	-1589
▁opp	-1590
▁yourself	-1591
▁true	-1592
▁sign	-1593
inc	-1594
▁bill	-1595
▁fast	-1596
▁amaz	-1597
▁forg	-1598
me	-1599
▁esc	-1600
▁case	-1601
unch	-1602
▁breast	-1603
▁relationship	-1604
ery	-1605
▁shaking	-1606
▁ten	-1607
▁shrugged	-1608
▁definitely	-1609
▁fil	-1610
▁supposed	-1611
▁pressed	-1612
ara	-1613
▁gent	-1614
cial	-1615
▁dar	-1616
▁sett	-1617
anger	-1618
asha	-1619
▁dev	-1620
▁wrapped	-1621
▁jer	-1622
ndered	-1623
my	-1624
you	-1625
▁da	-1626
ident	-1627
▁gold	-1628
▁line	-1629
ision	-1630
uation	-1631
ibly	-1632
▁children	-1633
▁says	-1634
▁window	-1635
▁happen	-1636
acked	-1637
▁desper	-1638
▁bag	-1639
▁nick	-1640
▁ve	-1641
▁er	-1642
▁luke	-1643
▁cross	-1644
raid	-1645
▁mad	-1646
▁doubt	-1647
▁young	-1648
▁fut	-1649
▁hips	-1650
umped	-1651
ock	-1652
▁bene	-1653
▁experi	-1654
aning	-1655
▁desp	-1656
▁bright	-1657
▁sub	-1658
▁sort	-1659
▁touched	-1660
▁smo	-1661
unt	-1662
▁gen	-1663
▁conv	-1664
▁angry	-1665
▁lip	-1666
though	-1667
ony	-1668
ator	-1669
▁food	-1670
▁afraid	-1671
▁barely	-1672
▁anger	-1673
iny	-1674
▁silence	-1675
▁spent	-1676
ze	-1677
tic	-1678
▁looks	-1679
▁lay	-1680
▁ring	-1681
▁adv	-1682
▁reco	-1683
▁laughing	-1684
▁rele	-1685
▁during	-1686
▁figure	-1687
▁obviously	-1688
▁bel	-1689
▁live	-1690
▁twenty	-1691
▁pregn	-1692
▁foot	-1693
▁king	-1694
▁tast	-1695
▁stre	-1696
acy	-1697
▁surprise	-1698
▁rather	-1699
▁du	-1700
▁hung	-1701
▁thir	-1702
▁answered	-1703
▁concer	-1704
▁nervous	-1705
iff	-1706
▁rid	-1707
▁atte	-1708
▁anyway	-1709
rief	-1710
hel	-1711
▁town	-1712
ane	-1713
▁although	-1714
▁wine	-1715
▁news	-1716
▁import	-1717
▁wearing	-1718
ror	-1719
▁har	-1720
▁speak	-1721
▁comfort	-1722
aughter	-1723
▁norm	-1724
bing	-1725
noon	-1726
▁comm	-1727
att	-1728
how	-1729
▁sus	-1730
▁occ	-1731
▁earl	-1732
▁minute	-1733
als	-1734
sing	-1735
ashed	-1736
▁sing	-1737
▁ru	-1738
▁ball	-1739
▁problem	-1740
▁surprised	-1741
▁firm	-1742
▁blood	-1743
▁wide	-1744
▁afternoon	-1745
▁eat	-1746
▁direct	-1747
erm	-1748
▁bath	-1749
▁gar	-1750
▁gentle	-1751
ins	-1752
▁party	-1753
▁mis	-1754
aster	-1755
ape	-1756
ime	-1757
sit	-1758
▁rub	-1759
its	-1760
ates	-1761
▁situation	-1762
▁mur	-1763
▁toss	-1764
▁cho	-1765
▁terri	-1766
▁fear	-1767
▁instantly	-1768
▁easy	-1769
▁thr	-1770
▁green	-1771
▁huge	-1772
els	-1773
irc	-1774
▁emma	-1775
gth	-1776
ric	-1777
rupt	-1778
▁heav	-1779
▁ur	-1780
▁changed	-1781
▁letting	-1782
ments	-1783
▁future	-1784
▁rolled	-1785
amp	-1786
▁ground	-1787
▁pie	-1788
ustr	-1789
mb	-1790
ilt	-1791
ike	-1792
isf	-1793
▁susp	-1794
▁hesit	-1795
▁alexand	-1796
▁guest	-1797
ny	-1798
iting	-1799
▁kate	-1800
lic	-1801
aded	-1802
▁aut	-1803
▁within	-1804
▁spoke	-1805
ishing	-1806
▁emb	-1807
▁headed	-1808
▁clay	-1809
▁snapped	-1810
bered	-1811
loe	-1812
▁form	-1813
ards	-1814
but	-1815
▁pick	-1816
▁land	-1817
ities	-1818
▁become	-1819
▁chloe	-1820
▁logan	-1821
▁daughter	-1822
▁expected	-1823
ili	-1824
▁stru	-1825
▁forget	-1826
asing	-1827
▁mir	-1828
▁view	-1829
▁wonderful	-1830
▁safe	-1831
amed	-1832
▁spot	-1833
▁grinned	-1834
▁promise	-1835
▁building	-1836
▁discus	-1837
▁determ	-1838
▁glad	-1839
ield	-1840
ordan	-1841
▁crow	-1842
▁scream	-1843
▁wondered	-1844
▁sam	-1845
▁noticed	-1846
▁bother	-1847
eke	-1848
▁satisf	-1849
▁fav	-1850
▁bella	-1851
▁mention	-1852
▁thanks	-1853
▁sight	-1854
▁anymore	-1855
▁park	-1856
▁trou	-1857
▁claire	-1858
▁hang	-1859
▁besides	-1860
▁sear	-1861
▁serious	-1862
▁check	-1863
reed	-1864
iddle	-1865
olute	-1866
ces	-1867
▁willing	-1868
▁circ	-1869
sed	-1870
▁sky	-1871
▁ty	-1872
aces	-1873
▁self	-1874
uct	-1875
▁wondering	-1876
▁conn	-1877
▁nat	-1878
▁eyeb	-1879
▁jordan	-1880
▁explain	-1881
▁protect	-1882
lling	-1883
icking	-1884
▁box	-1885
▁tor	-1886
▁lim	-1887
uttered	-1888
ination	-1889
▁gotten	-1890
owled	-1891
▁prep	-1892
▁middle	-1893
res	-1894
▁zack	-1895
▁remembered	-1896
▁eth	-1897
rence	-1898
▁except	-1899
▁eff	-1900
aled	-1901
▁eyebrow	-1902
▁feelings	-1903
▁position	-1904
▁important	-1905
▁teeth	-1906
ggest	-1907
using	-1908
▁empt	-1909
▁suggest	-1910
▁hotel	-1911
▁crazy	-1912
▁deli	-1913
▁edge	-1914
vy	-1915
▁lift	-1916
▁alexandra	-1917
▁ord	-1918
▁lady	-1919
aur	-1920
▁cheeks	-1921
▁book	-1922
▁asking	-1923
▁thigh	-1924
ille	-1925
▁covered	-1926
▁tu	-1927
▁led	-1928
▁cent	-1929
▁gasped	-1930
▁nearly	-1931
ient	-1932
▁exh	-1933
▁soph	-1934
▁throw	-1935
▁emily	-1936
ring	-1937
▁sexy	-1938
▁worried	-1939
▁state	-1940
▁threw	-1941
esh	-1942
▁personal	-1943
ghter	-1944
▁restaur	-1945
▁laughter	-1946
▁lead	-1947
▁absolute	-1948
▁despite	-1949
▁date	-1950
▁seem	-1951
▁ian	-1952
▁calm	-1953
▁agree	-1954
▁hoped	-1955
▁ethan	-1956
▁incred	-1957
▁agreed	-1958
gging	-1959
haps	-1960
▁tiny	-1961
▁sounded	-1962
arrass	-1963
▁early	-1964
iled	-1965
▁cover	-1966
▁button	-1967
ails	-1968
ining	-1969
▁embarrass	-1970
iling	-1971
▁beneath	-1972
ctor	-1973
▁wild	-1974
▁chuckled	-1975
▁chin	-1976
▁summ	-1977
▁passed	-1978
ances	-1979
▁swall	-1980
▁placed	-1981
▁clim	-1982
orge	-1983
▁intim	-1984
olog	-1985
▁julian	-1986
▁pract	-1987
▁order	-1988
▁knees	-1989
ork	-1990
▁carefully	-1991
▁considered	-1992
▁mot	-1993
▁arrived	-1994
▁cool	-1995
▁misty	-1996
▁corner	-1997
▁bent	-1998
ove	-1999
aint	-2000
▁demanded	-2001
▁perhaps	-2002
pid	-2003
▁jenny	-2004
▁passion	-2005
▁cried	-2006
▁broke	-2007
▁staffan	-2008
▁brief	-2009
▁hoping	-2010
ative	-2011
▁crowd	-2012
▁avo	-2013
▁sad	-2014
cess	-2015
▁amazing	-2016
▁makes	-2017
▁relief	-2018
▁tot	-2019
▁id	-2020
isy	-2021
▁tens	-2022
▁bottom	-2023
▁kissing	-2024
▁lunch	-2025
▁di	-2026
▁pock	-2027
▁domen	-2028
▁somehow	-2029
alth	-2030
▁loud	-2031
▁domenico	-2032
▁reach	-2033
ital	-2034
▁frustr	-2035
▁however	-2036
izing	-2037
▁tall	-2038
▁earlier	-2039
▁shock	-2040
light	-2041
▁favor	-2042
▁slipped	-2043
▁hated	-2044
▁shar	-2045
▁private	-2046
▁dance	-2047
▁si	-2048
▁bathroom	-2049
ulous	-2050
▁admit	-2051
▁mer	-2052
▁returned	-2053
umber	-2054
ica	-2055
▁forced	-2056
▁steps	-2057
▁area	-2058
asc	-2059
ses	-2060
igg	-2061
ler	-2062
▁honest	-2063
▁carry	-2064
▁explained	-2065
▁putting	-2066
▁disappear	-2067
▁sand	-2068
▁doors	-2069
▁emotion	-2070
▁appre	-2071
▁bir	-2072
oe	-2073
cially	-2074
▁sounds	-2075
▁clayton	-2076
▁dog	-2077
issa	-2078
▁drew	-2079
▁danc	-2080
▁lovely	-2081
▁enc	-2082
▁inform	-2083
▁yell	-2084
▁picture	-2085
▁delic	-2086
▁arg	-2087
▁prof	-2088
let	-2089
▁und	-2090
▁rafe	-2091
▁stud	-2092
old	-2093
▁iss	-2094
▁cond	-2095
▁hide	-2096
▁restaurant	-2097
▁glance	-2098
▁managed	-2099
▁saff	-2100
▁pill	-2101
▁weeke	-2102
▁weekend	-2103
▁rob	-2104
▁reve	-2105
ession	-2106
▁eight	-2107
▁saffi	-2108
allen	-2109
▁spend	-2110
▁wants	-2111
▁callie	-2112
▁dead	-2113
▁flat	-2114
▁cup	-2115
▁questions	-2116
rit	-2117
zed	-2118
▁wid	-2119
▁adam	-2120
▁luck	-2121
▁daisy	-2122
▁den	-2123
▁store	-2124
▁empty	-2125
▁squee	-2126
▁pregnant	-2127
uff	-2128
▁sher	-2129
▁busy	-2130
▁stupid	-2131
▁shower	-2132
▁jeans	-2133
▁dep	-2134
▁spread	-2135
▁pet	-2136
illing	-2137
ressed	-2138
osp	-2139
onse	-2140
▁color	-2141
pecially	-2142
▁rock	-2143
▁force	-2144
▁mel	-2145
▁event	-2146
▁reaction	-2147
▁dim	-2148
▁challen	-2149
▁keeping	-2150
▁offer	-2151
▁further	-2152
ific	-2153
▁fift	-2154
▁leaning	-2155
la	-2156
▁wish	-2157
▁missed	-2158
oming	-2159
▁danger	-2160
▁worse	-2161
▁stuff	-2162
▁others	-2163
▁jess	-2164
▁response	-2165
oss	-2166
umbled	-2167
ancy	-2168
▁fit	-2169
▁grim	-2170
▁handsome	-2171
fer	-2172
▁choice	-2173
▁became	-2174
▁rom	-2175
▁daniel	-2176
▁handed	-2177
▁paused	-2178
hell	-2179
▁none	-2180
idence	-2181
▁roy	-2182
▁road	-2183
cing	-2184
▁story	-2185
rely	-2186
▁rich	-2187
▁brown	-2188
▁requ	-2189
come	-2190
arrow	-2191
▁deser	-2192
▁jaw	-2193
▁certainly	-2194
▁wet	-2195
▁effort	-2196
▁interested	-2197
▁burst	-2198
▁space	-2199
ters	-2200
▁wished	-2201
▁dressed	-2202
▁law	-2203
▁pour	-2204
▁eager	-2205
▁prete	-2206
▁phys	-2207
▁serv	-2208
ster	-2209
▁assum	-2210
▁forgot	-2211
▁street	-2212
orted	-2213
yle	-2214
▁lose	-2215
▁class	-2216
▁pointed	-2217
▁special	-2218
▁game	-2219
▁return	-2220
yes	-2221
▁worth	-2222
▁bri	-2223
▁beat	-2224
▁aware	-2225
ines	-2226
▁fix	-2227
▁fair	-2228
▁especially	-2229
fic	-2230
▁coo	-2231
ierce	-2232
▁attract	-2233
▁frowned	-2234
▁heavy	-2235
▁narrow	-2236
▁lie	-2237
urity	-2238
▁horse	-2239
umn	-2240
▁easily	-2241
▁pan	-2242
▁imagine	-2243
▁nor	-2244
▁gather	-2245
▁smell	-2246
wel	-2247
▁consider	-2248
▁treat	-2249
aining	-2250
▁sof	-2251
▁murm	-2252
▁wear	-2253
▁wood	-2254
▁sol	-2255
▁bey	-2256
▁repe	-2257
▁number	-2258
▁perfectly	-2259
fast	-2260
▁playing	-2261
▁beyond	-2262
▁aff	-2263
▁arr	-2264
▁fold	-2265
ask	-2266
▁lap	-2267
ls	-2268
▁lying	-2269
▁stret	-2270
▁thick	-2271
▁paper	-2272
▁handle	-2273
▁above	-2274
▁ahead	-2275
▁absolutely	-2276
gr	-2277
cious	-2278
▁marcus	-2279
▁zoe	-2280
usted	-2281
▁jet	-2282
ndred	-2283
▁direction	-2284
▁respond	-2285
rage	-2286
▁stun	-2287
▁lower	-2288
▁appreci	-2289
imes	-2290
▁moments	-2291
▁realize	-2292
▁apparent	-2293
what	-2294
▁information	-2295
ky	-2296
▁breasts	-2297
▁counter	-2298
▁older	-2299
▁crossed	-2300
▁reminded	-2301
▁single	-2302
▁quietly	-2303
ucked	-2304
▁unable	-2305
▁trouble	-2306
▁constant	-2307
▁prop	-2308
ices	-2309
▁ended	-2310
▁city	-2311
tering	-2312
▁silent	-2313
▁taste	-2314
▁security	-2315
▁cas	-2316
▁stephen	-2317
▁ris	-2318
▁entered	-2319
▁muscles	-2320
▁settled	-2321
▁plans	-2322
▁shifted	-2323
▁experience	-2324
▁med	-2325
▁kids	-2326
ude	-2327
▁ivy	-2328
stairs	-2329
▁memory	-2330
▁threat	-2331
▁hundred	-2332
ches	-2333
▁stairs	-2334
▁excite	-2335
▁fly	-2336
▁pack	-2337
▁wel	-2338
▁catch	-2339
ached	-2340
▁proper	-2341
▁doctor	-2342
▁recogn	-2343
▁brain	-2344
▁horri	-2345
▁naked	-2346
▁blond	-2347
▁guys	-2348
ope	-2349
usion	-2350
mpt	-2351
▁pound	-2352
▁stare	-2353
▁pink	-2354
▁shit	-2355
▁fresh	-2356
▁summer	-2357
▁drove	-2358
▁determined	-2359
rett	-2360
▁hosp	-2361
▁excitement	-2362
ior	-2363
▁bal	-2364
▁sick	-2365
▁laid	-2366
▁visit	-2367
orgeous	-2368
▁incl	-2369
▁forehead	-2370
▁cell	-2371
▁lord	-2372
▁antic	-2373
▁une	-2374
▁prov	-2375
▁normal	-2376
era	-2377
for	-2378
▁died	-2379
▁hallway	-2380
▁gorgeous	-2381
▁weak	-2382
▁jumped	-2383
▁fool	-2384
▁present	-2385
▁decision	-2386
aling	-2387
▁tess	-2388
▁accom	-2389
ames	-2390
▁surround	-2391
▁comfortable	-2392
sion	-2393
▁pushing	-2394
▁slam	-2395
▁reaching	-2396
lew	-2397
zz	-2398
▁listen	-2399
miss	-2400
oint	-2401
▁test	-2402
▁offered	-2403
set	-2404
▁buy	-2405
▁death	-2406
▁contact	-2407
unk	-2408
inct	-2409
▁parker	-2410
ists	-2411
▁clen	-2412
▁prev	-2413
▁ell	-2414
▁stri	-2415
▁invol	-2416
▁bottle	-2417
ploy	-2418
▁golden	-2419
hew	-2420
pper	-2421
reen	-2422
▁phot	-2423
▁breakfast	-2424
▁beginning	-2425
▁tension	-2426
▁lit	-2427
▁sir	-2428
cent	-2429
▁hey	-2430
▁elev	-2431
▁irrit	-2432
▁james	-2433
▁camille	-2434
riend	-2435
ipping	-2436
▁groaned	-2437
▁hospital	-2438
▁sar	-2439
▁capt	-2440
▁oppos	-2441
lock	-2442
▁succ	-2443
▁music	-2444
▁tossed	-2445
▁cre	-2446
▁excuse	-2447
▁note	-2448
▁push	-2449
do	-2450
like	-2451
▁tired	-2452
▁brothers	-2453
▁starting	-2454
▁mov	-2455
▁disc	-2456
▁yours	-2457
na	-2458
▁pu	-2459
ault	-2460
▁dry	-2461
▁mil	-2462
▁ride	-2463
▁partic	-2464
▁simple	-2465
▁storm	-2466
oc	-2467
▁showed	-2468
▁needs	-2469
ping	-2470
▁muttered	-2471
▁nose	-2472
▁blank	-2473
cted	-2474
▁harder	-2475
▁apolog	-2476
▁allowed	-2477
▁calling	-2478
▁relaxed	-2479
ues	-2480
achel	-2481
▁sou	-2482
▁aside	-2483
▁distance	-2484
aped	-2485
▁tab	-2486
▁compl	-2487
▁feat	-2488
▁hate	-2489
▁--	-2490
▁share	-2491
▁trans	-2492
▁autumn	-2493
▁strange	-2494
▁promised	-2495
▁mirror	-2496
itive	-2497
▁trip	-2498
▁talked	-2499
▁sometimes	-2500
▁cu	-2501
▁odd	-2502
▁darcy	-2503
▁nod	-2504
▁employ	-2505
▁guests	-2506
▁usually	-2507
▁cook	-2508
▁gener	-2509
▁sliding	-2510
▁helped	-2511
▁touching	-2512
▁flow	-2513
▁nipp	-2514
▁ari	-2515
▁thumb	-2516
ots	-2517
▁anticip	-2518
▁seconds	-2519
▁regret	-2520
lves	-2521
▁comes	-2522
▁stone	-2523
▁breathing	-2524
cei	-2525
▁mrs	-2526
▁birth	-2527
▁greet	-2528
▁piece	-2529
▁ranch	-2530
inked	-2531
▁hea	-2532
astian	-2533
▁smooth	-2534
▁apparently	-2535
ffect	-2536
▁somewhere	-2537
▁pub	-2538
▁dear	-2539
▁tru	-2540
itch	-2541
▁div	-2542
▁megan	-2543
▁loc	-2544
▁aunt	-2545
▁gray	-2546
▁falling	-2547
kes	-2548
▁boss	-2549
▁spl	-2550
▁grou	-2551
▁jacket	-2552
▁dare	-2553
▁helen	-2554
ibility	-2555
ages	-2556
ones	-2557
▁sofa	-2558
erg	-2559
▁finding	-2560
▁admitted	-2561
▁tightened	-2562
▁pant	-2563
▁center	-2564
▁driving	-2565
▁doll	-2566
▁jud	-2567
que	-2568
▁pool	-2569
▁creat	-2570
▁follow	-2571
▁interrupt	-2572
▁knows	-2573
▁forever	-2574
▁sed	-2575
▁whether	-2576
ndon	-2577
▁broken	-2578
▁pair	-2579
▁carried	-2580
annah	-2581
▁caress	-2582
▁strugg	-2583
▁attempt	-2584
ij	-2585
rod	-2586
▁focus	-2587
▁diffic	-2588
▁notice	-2589
▁fuck	-2590
▁locked	-2591
▁clearly	-2592
▁sleeping	-2593
oof	-2594
▁male	-2595
▁furious	-2596
▁path	-2597
▁disco	-2598
▁opposite	-2599
▁ned	-2600
fied	-2601
itchell	-2602
▁subject	-2603
▁murmured	-2604
▁anim	-2605
▁lived	-2606
▁sasha	-2607
▁doorway	-2608
▁mass	-2609
▁excited	-2610
imed	-2611
father	-2612
▁remained	-2613
▁shout	-2614
▁fab	-2615
▁mill	-2616
▁mitchell	-2617
▁clean	-2618
▁tender	-2619
enna	-2620
line	-2621
roud	-2622
▁mand	-2623
▁thrust	-2624
▁delight	-2625
▁tightly	-2626
▁understood	-2627
asm	-2628
▁mid	-2629
▁main	-2630
▁dy	-2631
▁ignored	-2632
▁dav	-2633
▁totally	-2634
▁couch	-2635
▁beach	-2636
▁comment	-2637
sts	-2638
▁shoes	-2639
▁country	-2640
▁don	-2641
▁pot	-2642
▁wip	-2643
lessly	-2644
▁pride	-2645
▁royce	-2646
▁pocket	-2647
▁nur	-2648
iliar	-2649
▁grace	-2650
▁grate	-2651
▁desperately	-2652
▁neither	-2653
iance	-2654
▁uncle	-2655
▁hannah	-2656
▁thirty	-2657
▁concern	-2658
▁jax	-2659
▁emotions	-2660
▁intense	-2661
▁opening	-2662
▁fila	-2663
▁fro	-2664
▁liam	-2665
▁mood	-2666
▁stayed	-2667
▁thighs	-2668
▁respons	-2669
▁imposs	-2670
leep	-2671
▁truck	-2672
▁following	-2673
▁sid	-2674
▁kill	-2675
▁purse	-2676
▁send	-2677
▁enjoying	-2678
entr	-2679
▁lac	-2680
▁round	-2681
▁whisper	-2682
▁concentr	-2683
ayed	-2684
reme	-2685
▁ones	-2686
▁sienna	-2687
▁girls	-2688
▁usual	-2689
▁sexual	-2690
ience	-2691
▁shake	-2692
▁announ	-2693
▁distract	-2694
▁planned	-2695
▁pun	-2696
▁study	-2697
min	-2698
▁nico	-2699
▁stiff	-2700
▁allow	-2701
▁proud	-2702
▁means	-2703
▁ice	-2704
▁garrett	-2705
ises	-2706
▁gard	-2707
▁tasha	-2708
▁nicole	-2709
▁wake	-2710
▁extra	-2711
▁swallowed	-2712
gie	-2713
▁sharp	-2714
alous	-2715
go	-2716
val	-2717
▁lucy	-2718
▁len	-2719
▁finish	-2720
▁appeared	-2721
▁difficult	-2722
aul	-2723
▁ben	-2724
▁kat	-2725
pect	-2726
▁gown	-2727
▁truly	-2728
▁fail	-2729
clock	-2730
▁mart	-2731
▁possibly	-2732
not	-2733
▁confused	-2734
aming	-2735
▁asleep	-2736
▁art	-2737
▁shad	-2738
▁wore	-2739
fortun	-2740
▁loving	-2741
▁pen	-2742
▁evan	-2743
▁driver	-2744
▁angel	-2745
▁ill	-2746
▁london	-2747
▁gest	-2748
▁ow	-2749
▁beauty	-2750
▁upon	-2751
▁scr	-2752
astic	-2753
ency	-2754
▁yester	-2755
▁gigg	-2756
▁yesterday	-2757
▁effect	-2758
▁island	-2759
bs	-2760
▁sip	-2761
▁stren	-2762
cri	-2763
illy	-2764
▁favorite	-2765
▁presence	-2766
▁betr	-2767
▁drop	-2768
▁teasing	-2769
▁cast	-2770
▁memories	-2771
sy	-2772
ries	-2773
▁waved	-2774
▁andre	-2775
▁using	-2776
port	-2777
▁matthew	-2778
▁obvious	-2779
col	-2780
antic	-2781
▁seven	-2782
▁honey	-2783
▁anywhere	-2784
▁suite	-2785
▁lives	-2786
▁emerson	-2787
▁unfortun	-2788
▁frustration	-2789
▁uns	-2790
▁prepared	-2791
selves	-2792
▁concerned	-2793
▁meal	-2794
▁bought	-2795
▁jim	-2796
tt	-2797
▁caused	-2798
▁particular	-2799
ief	-2800
▁mark	-2801
▁often	-2802
▁windows	-2803
▁features	-2804
▁fant	-2805
vering	-2806
▁constantij	-2807
▁est	-2808
▁kno	-2809
▁sean	-2810
▁silk	-2811
▁guard	-2812
▁plate	-2813
▁staying	-2814
ley	-2815
▁scared	-2816
▁constantijin	-2817
▁na	-2818
ented	-2819
▁lana	-2820
▁pants	-2821
acks	-2822
▁exha	-2823
▁reply	-2824
▁team	-2825
▁introd	-2826
▁prefer	-2827
▁command	-2828
▁elevator	-2829
▁laci	-2830
▁group	-2831
ference	-2832
▁comput	-2833
▁firmly	-2834
▁kisses	-2835
▁seriously	-2836
ously	-2837
▁fault	-2838
▁hig	-2839
▁star	-2840
▁jamie	-2841
▁takes	-2842
▁morgan	-2843
▁inno	-2844
par	-2845
uce	-2846
▁pin	-2847
▁palm	-2848
ucking	-2849
cl	-2850
▁paid	-2851
▁skirt	-2852
▁jealous	-2853
▁hen	-2854
▁strength	-2855
▁nik	-2856
▁rachel	-2857
▁refused	-2858
▁believed	-2859
▁repeated	-2860
▁corre	-2861
▁learn	-2862
▁support	-2863
▁jump	-2864
▁spark	-2865
▁tremb	-2866
▁charlie	-2867
▁learned	-2868
atherine	-2869
▁hanging	-2870
▁showing	-2871
▁impossible	-2872
ept	-2873
▁plane	-2874
▁extreme	-2875
bert	-2876
▁instinct	-2877
▁assist	-2878
▁grew	-2879
▁amuse	-2880
▁teased	-2881
▁contract	-2882
▁leah	-2883
▁happening	-2884
▁cru	-2885
▁rico	-2886
ety	-2887
▁belong	-2888
unity	-2889
▁cock	-2890
right	-2891
▁join	-2892
▁image	-2893
▁level	-2894
▁disappeared	-2895
▁obs	-2896
body	-2897
▁grow	-2898
▁rush	-2899
▁coat	-2900
▁heading	-2901
rell	-2902
ified	-2903
▁purp	-2904
▁blinked	-2905
lly	-2906
oned	-2907
that	-2908
▁hug	-2909
▁tony	-2910
▁message	-2911
gant	-2912
ensive	-2913
▁board	-2914
hood	-2915
tern	-2916
▁invest	-2917
asy	-2918
▁bite	-2919
▁rushed	-2920
yed	-2921
ading	-2922
oose	-2923
▁noah	-2924
▁declan	-2925
▁connect	-2926
inging	-2927
▁thri	-2928
▁public	-2929
▁seems	-2930
▁success	-2931
▁katherine	-2932
▁grandfather	-2933
▁grip	-2934
ik	-2935
▁risk	-2936
▁cream	-2937
▁tan	-2938
▁band	-2939
▁ways	-2940
omfort	-2941
▁shared	-2942
▁growing	-2943
▁cap	-2944
incent	-2945
▁pressing	-2946
▁unfortunately	-2947
▁avoid	-2948
▁deeply	-2949
▁enjoyed	-2950
▁vincent	-2951
yer	-2952
ott	-2953
pted	-2954
▁ri	-2955
▁anx	-2956
▁mich	-2957
▁hol	-2958
▁carl	-2959
▁shop	-2960
▁thor	-2961
▁dest	-2962
▁continue	-2963
▁scent	-2964
▁sara	-2965
▁amusement	-2966
▁seren	-2967
▁walls	-2968
▁lifting	-2969
▁pers	-2970
▁deeper	-2971
▁grateful	-2972
▁hardly	-2973
▁lights	-2974
▁screen	-2975
▁widened	-2976
▁recei	-2977
▁computer	-2978
▁damned	-2979
ners	-2980
ashing	-2981
▁dreams	-2982
▁warmth	-2983
▁mistake	-2984
▁age	-2985
▁elb	-2986
neath	-2987
▁curt	-2988
▁tour	-2989
▁whenever	-2990
uing	-2991
▁ears	-2992
▁lowered	-2993
men	-2994
▁tele	-2995
▁blind	-2996
▁wealth	-2997
▁ignoring	-2998
▁underneath	-2999
nday	-3000
wards	-3001
▁cous	-3002
▁regard	-3003
bel	-3004
▁bow	-3005
utter	-3006
▁played	-3007
▁shoved	-3008
▁colle	-3009
▁shall	-3010
▁expecting	-3011
▁ver	-3012
▁stor	-3013
▁david	-3014
▁drawing	-3015
▁respect	-3016
▁fighting	-3017
▁anton	-3018
▁broad	-3019
▁cared	-3020
▁ry	-3021
▁brows	-3022
▁shocked	-3023
▁boys	-3024
▁card	-3025
ives	-3026
▁escape	-3027
ael	-3028
itude	-3029
ousand	-3030
▁closing	-3031
▁eventually	-3032
▁bod	-3033
▁nate	-3034
ini	-3035
▁lad	-3036
▁affect	-3037
▁released	-3038
▁inch	-3039
▁glared	-3040
▁resist	-3041
▁hearing	-3042
▁blur	-3043
▁ordered	-3044
▁ment	-3045
▁familiar	-3046
ains	-3047
▁spec	-3048
night	-3049
▁melan	-3050
iculous	-3051
▁release	-3052
▁desperate	-3053
▁spr	-3054
▁jenna	-3055
▁relieved	-3056
▁weight	-3057
▁bank	-3058
▁champ	-3059
▁instru	-3060
▁entr	-3061
▁super	-3062
▁losing	-3063
▁leather	-3064
▁reading	-3065
▁papers	-3066
▁lou	-3067
▁experien	-3068
▁pale	-3069
▁tear	-3070
▁shoot	-3071
▁dancing	-3072
▁current	-3073
▁disg	-3074
▁swept	-3075
▁vill	-3076
▁funny	-3077
▁natur	-3078
▁purpose	-3079
amb	-3080
atic	-3081
▁lace	-3082
▁movie	-3083
▁jerked	-3084
▁hesitated	-3085
▁figured	-3086
▁clenched	-3087
▁dylan	-3088
▁react	-3089
▁surely	-3090
▁welcome	-3091
▁eyebrows	-3092
vet	-3093
▁soul	-3094
▁stuck	-3095
ote	-3096
▁surf	-3097
▁jackson	-3098
▁forgotten	-3099
▁pul	-3100
▁roll	-3101
▁clare	-3102
▁lauren	-3103
▁opport	-3104
shirt	-3105
▁nipple	-3106
▁stunned	-3107
mon	-3108
▁gle	-3109
▁thin	-3110
▁cleared	-3111
ointment	-3112
▁involved	-3113
▁fasc	-3114
▁brushed	-3115
▁powerful	-3116
▁curled	-3117
▁jessica	-3118
ale	-3119
ern	-3120
asion	-3121
▁pictures	-3122
▁problems	-3123
▁thousand	-3124
▁lat	-3125
istic	-3126
▁alive	-3127
▁slept	-3128
▁suspected	-3129
▁non	-3130
▁elect	-3131
▁flowers	-3132
▁melanie	-3133
▁challenge	-3134
▁slide	-3135
▁carrying	-3136
view	-3137
▁pesh	-3138
▁serena	-3139
▁fierce	-3140
▁tree	-3141
▁incre	-3142
▁letter	-3143
▁accepted	-3144
anna	-3145
▁bat	-3146
▁suff	-3147
▁wave	-3148
▁flight	-3149
▁poor	-3150
▁issue	-3151
ception	-3152
▁details	-3153
▁foc	-3154
▁pleased	-3155
▁jett	-3156
▁zach	-3157
▁narrowed	-3158
▁fallen	-3159
▁length	-3160
▁michael	-3161
▁cost	-3162
▁explo	-3163
▁equ	-3164
▁heels	-3165
▁mandi	-3166
▁flashed	-3167
izz	-3168
vin	-3169
▁mount	-3170
▁shift	-3171
▁ignore	-3172
▁setting	-3173
▁focused	-3174
erv	-3175
▁hurried	-3176
▁places	-3177
▁practically	-3178
por	-3179
arth	-3180
▁tea	-3181
▁erin	-3182
▁thom	-3183
▁sending	-3184
▁listening	-3185
eless	-3186
ument	-3187
▁gras	-3188
▁antonia	-3189
▁instant	-3190
atically	-3191
ded	-3192
▁snow	-3193
▁chang	-3194
▁hiding	-3195
▁lucas	-3196
▁accident	-3197
▁tessa	-3198
▁sucked	-3199
▁vel	-3200
▁towel	-3201
▁upset	-3202
▁interesting	-3203
vis	-3204
▁key	-3205
▁temper	-3206
▁protest	-3207
▁breaking	-3208
▁silly	-3209
▁sweat	-3210
▁college	-3211
▁christian	-3212
ooked	-3213
▁growled	-3214
▁helping	-3215
▁boat	-3216
▁annoy	-3217
▁poured	-3218
▁beck	-3219
▁chur	-3220
▁fully	-3221
▁dangerous	-3222
▁ridiculous	-3223
time	-3224
▁rang	-3225
▁henry	-3226
▁breathe	-3227
▁bringing	-3228
▁satisfaction	-3229
liv	-3230
udd	-3231
▁crying	-3232
▁joy	-3233
▁descri	-3234
arm	-3235
aging	-3236
▁defe	-3237
▁badly	-3238
▁dining	-3239
▁account	-3240
▁justice	-3241
ila	-3242
orce	-3243
idden	-3244
▁discuss	-3245
▁ah	-3246
▁steady	-3247
▁fifteen	-3248
ption	-3249
▁rubbed	-3250
▁scene	-3251
▁til	-3252
▁bear	-3253
▁delicious	-3254
eled	-3255
▁tent	-3256
▁separ	-3257
▁sides	-3258
▁fu	-3259
ante	-3260
▁host	-3261
mer	-3262
she	-3263
▁gun	-3264
▁paul	-3265
▁sched	-3266
▁easier	-3267
▁hal	-3268
▁suggested	-3269
agne	-3270
▁vac	-3271
anted	-3272
▁tracy	-3273
▁hungry	-3274
▁possess	-3275
▁bas	-3276
▁higher	-3277
▁flesh	-3278
▁decide	-3279
▁reality	-3280
▁woke	-3281
▁overw	-3282
▁wishing	-3283
bye	-3284
▁cand	-3285
▁checked	-3286
▁extremely	-3287
fit	-3288
▁dismiss	-3289
▁silently	-3290
lli	-3291
▁lack	-3292
▁swim	-3293
▁champagne	-3294
idan	-3295
ledge	-3296
▁tara	-3297
stem	-3298
itched	-3299
▁edward	-3300
▁sav	-3301
house	-3302
▁soot	-3303
▁field	-3304
▁squeezed	-3305
▁ms	-3306
▁gets	-3307
▁gift	-3308
▁indic	-3309
▁deliber	-3310
▁mentioned	-3311
▁jes	-3312
▁speaking	-3313
▁convince	-3314
itten	-3315
▁peace	-3316
▁rough	-3317
▁horses	-3318
▁twisted	-3319
▁knowledge	-3320
▁beg	-3321
▁glasses	-3322
▁sensation	-3323
▁exam	-3324
▁parking	-3325
ston	-3326
▁ana	-3327
▁eating	-3328
▁thomas	-3329
aire	-3330
teen	-3331
▁swung	-3332
▁ju	-3333
▁closet	-3334
▁physical	-3335
▁magn	-3336
▁damon	-3337
▁startled	-3338
▁cabin	-3339
▁flash	-3340
▁system	-3341
▁project	-3342
inda	-3343
omed	-3344
▁neg	-3345
▁var	-3346
▁knock	-3347
▁worst	-3348
▁directly	-3349
▁insisted	-3350
▁stretched	-3351
▁incredible	-3352
▁acqu	-3353
▁reass	-3354
▁fabric	-3355
▁warning	-3356
▁clut	-3357
▁opin	-3358
▁rain	-3359
▁save	-3360
▁trees	-3361
▁nights	-3362
uced	-3363
▁van	-3364
kward	-3365
▁type	-3366
▁marsh	-3367
▁garden	-3368
▁uncomfort	-3369
▁val	-3370
▁simon	-3371
▁reluct	-3372
▁unf	-3373
▁intent	-3374
▁arrange	-3375
▁listened	-3376
▁awkward	-3377
isa	-3378
▁appe	-3379
mother	-3380
▁final	-3381
▁tie	-3382
▁decl	-3383
▁slammed	-3384
ges	-3385
board	-3386
▁stir	-3387
▁hello	-3388
▁trave	-3389
▁fury	-3390
▁assured	-3391
▁gab	-3392
▁fren	-3393
zen	-3394
ially	-3395
▁stick	-3396
▁warned	-3397
well	-3398
work	-3399
▁velvet	-3400
▁considering	-3401
▁sherry	-3402
▁lock	-3403
▁pop	-3404
▁horrible	-3405
▁opportunity	-3406
ics	-3407
ura	-3408
ffin	-3409
ique	-3410
just	-3411
▁cow	-3412
▁swift	-3413
▁action	-3414
▁silver	-3415
▁billion	-3416
▁confusion	-3417
rick	-3418
▁imagined	-3419
▁amused	-3420
itri	-3421
▁oce	-3422
bbie	-3423
▁faster	-3424
lebr	-3425
▁refle	-3426
▁anticipation	-3427
▁fort	-3428
▁york	-3429
▁princ	-3430
▁urge	-3431
▁shudd	-3432
▁unless	-3433
▁lucky	-3434
▁celebr	-3435
iday	-3436
▁ting	-3437
▁calls	-3438
harr	-3439
▁vir	-3440
▁careful	-3441
eping	-3442
▁dharr	-3443
▁hurry	-3444
▁depart	-3445
▁glancing	-3446
▁overwhel	-3447
eline	-3448
▁ocean	-3449
▁embarrassed	-3450
▁batt	-3451
bastian	-3452
▁blo	-3453
▁court	-3454
▁explan	-3455
▁farrell	-3456
▁previous	-3457
osity	-3458
▁embr	-3459
▁third	-3460
▁entrance	-3461
▁tick	-3462
▁blame	-3463
▁built	-3464
▁intens	-3465
form	-3466
▁million	-3467
▁sebastian	-3468
▁ease	-3469
▁chairs	-3470
une	-3471
▁vol	-3472
male	-3473
▁fought	-3474
▁missing	-3475
▁younger	-3476
ashes	-3477
▁forth	-3478
▁lisa	-3479
▁sink	-3480
itation	-3481
▁searching	-3482
▁club	-3483
relyn	-3484
▁sophia	-3485
▁tucked	-3486
▁vi	-3487
▁die	-3488
▁wound	-3489
hn	-3490
▁chad	-3491
▁panic	-3492
▁twice	-3493
▁laurelyn	-3494
▁incredibly	-3495
▁shak	-3496
▁earth	-3497
▁request	-3498
▁statement	-3499
▁themselves	-3500
▁prove	-3501
▁confidence	-3502
che	-3503
cho	-3504
▁ine	-3505
▁grown	-3506
▁waves	-3507
▁profession	-3508
nds	-3509
▁motion	-3510
▁process	-3511
inting	-3512
▁amount	-3513
uit	-3514
iently	-3515
▁female	-3516
▁hugged	-3517
▁furn	-3518
▁pillow	-3519
ilar	-3520
alled	-3521
▁clar	-3522
▁enter	-3523
▁intended	-3524
▁straightened	-3525
heart	-3526
▁elissa	-3527
▁seated	-3528
▁painful	-3529
▁appreciate	-3530
igned	-3531
under	-3532
▁flew	-3533
▁understanding	-3534
ceed	-3535
▁lied	-3536
▁rooms	-3537
▁joined	-3538
▁becoming	-3539
▁hi	-3540
▁rh	-3541
▁duke	-3542
▁stopping	-3543
▁dig	-3544
▁amer	-3545
▁guilt	-3546
irty	-3547
uous	-3548
idge	-3549
▁remo	-3550
▁flying	-3551
▁rising	-3552
▁social	-3553
▁gathered	-3554
▁gina	-3555
▁contem	-3556
▁cousin	-3557
▁marabeth	-3558
▁confident	-3559
▁suspic	-3560
▁loose	-3561
▁terrified	-3562
▁below	-3563
attered	-3564
▁choose	-3565
▁double	-3566
▁fiance	-3567
▁dollars	-3568
▁report	-3569
▁gut	-3570
▁born	-3571
▁planning	-3572
bl	-3573
▁necess	-3574
▁police	-3575
wise	-3576
arily	-3577
▁goes	-3578
▁ling	-3579
bor	-3580
▁fill	-3581
▁lean	-3582
▁interrupted	-3583
▁core	-3584
▁john	-3585
▁decor	-3586
▁chocol	-3587
▁pressure	-3588
boy	-3589
▁sake	-3590
▁climbed	-3591
bby	-3592
lish	-3593
▁mod	-3594
▁spine	-3595
gio	-3596
▁moon	-3597
▁rome	-3598
vision	-3599
▁heaven	-3600
▁screamed	-3601
ama	-3602
▁sank	-3603
▁fright	-3604
▁normally	-3605
▁rolling	-3606
▁satisfied	-3607
rap	-3608
▁inde	-3609
▁prod	-3610
friend	-3611
▁belly	-3612
▁occur	-3613
▁happiness	-3614
off	-3615
▁nine	-3616
ooking	-3617
▁assistant	-3618
ume	-3619
▁mal	-3620
▁spir	-3621
▁domin	-3622
▁speed	-3623
▁silken	-3624
▁stab	-3625
▁suppose	-3626
▁spending	-3627
▁griffin	-3628
▁approached	-3629
dding	-3630
▁among	-3631
agement	-3632
▁tugged	-3633
▁hy	-3634
▁lust	-3635
▁sergio	-3636
▁darkness	-3637
▁comb	-3638
▁harsh	-3639
▁reasons	-3640
▁intimate	-3641
ug	-3642
pri	-3643
▁sne	-3644
▁impat	-3645
▁countered	-3646
▁song	-3647
▁feels	-3648
▁palace	-3649
▁burning	-3650
▁ge	-3651
▁emph	-3652
▁energ	-3653
▁cred	-3654
▁charge	-3655
▁compan	-3656
▁plenty	-3657
▁tip	-3658
▁cust	-3659
▁dana	-3660
▁wand	-3661
ground	-3662
▁meaning	-3663
iring	-3664
ution	-3665
▁neigh	-3666
▁folded	-3667
▁moaned	-3668
▁picking	-3669
▁occasion	-3670
ule	-3671
▁uh	-3672
▁post	-3673
▁bride	-3674
▁assumed	-3675
▁contr	-3676
▁hayes	-3677
▁birthday	-3678
▁marshall	-3679
▁ere	-3680
▁propos	-3681
ilities	-3682
▁humili	-3683
▁master	-3684
iot	-3685
▁ack	-3686
▁urg	-3687
▁grabbing	-3688
▁needing	-3689
eling	-3690
ients	-3691
▁scar	-3692
▁lab	-3693
▁rul	-3694
aying	-3695
▁encou	-3696
▁grinning	-3697
ashion	-3698
nowled	-3699
▁opinion	-3700
zing	-3701
▁tense	-3702
▁spoken	-3703
▁billionaire	-3704
▁remembering	-3705
▁mum	-3706
▁surv	-3707
▁marrying	-3708
▁acknowled	-3709
▁beer	-3710
▁kyle	-3711
▁carol	-3712
▁curious	-3713
▁property	-3714
aren	-3715
▁skye	-3716
▁stranger	-3717
▁rad	-3718
▁init	-3719
▁text	-3720
▁awful	-3721
▁satur	-3722
uding	-3723
▁dante	-3724
▁riding	-3725
▁mary	-3726
▁secretary	-3727
ury	-3728
ette	-3729
▁won	-3730
▁ideas	-3731
▁upstairs	-3732
ron	-3733
▁aching	-3734
▁rubbing	-3735
▁abrupt	-3736
▁stepping	-3737
▁base	-3738
▁loss	-3739
▁slip	-3740
ctions	-3741
▁intern	-3742
▁ens	-3743
▁maj	-3744
▁experienced	-3745
cie	-3746
mas	-3747
▁cy	-3748
cher	-3749
iest	-3750
▁pretend	-3751
▁chat	-3752
▁tray	-3753
▁invited	-3754
▁offering	-3755
▁trembling	-3756
▁lif	-3757
▁org	-3758
▁katie	-3759
▁smart	-3760
▁throwing	-3761
▁bitter	-3762
▁casual	-3763
▁studied	-3764
oh	-3765
▁gall	-3766
▁port	-3767
▁racing	-3768
▁divorce	-3769
▁lux	-3770
▁bast	-3771
▁airport	-3772
▁dimitri	-3773
▁uncomfortable	-3774
▁ridge	-3775
▁honestly	-3776
▁shy	-3777
▁bull	-3778
▁numb	-3779
▁offic	-3780
▁whose	-3781
▁exhausted	-3782
▁arou	-3783
▁holl	-3784
▁trick	-3785
▁nerves	-3786
▁remain	-3787
mp	-3788
athan	-3789
▁ladies	-3790
▁exce	-3791
▁tore	-3792
▁whir	-3793
▁blonde	-3794
▁entirely	-3795
▁surrounded	-3796
icing	-3797
bted	-3798
▁burned	-3799
ids	-3800
erial	-3801
▁palms	-3802
▁gus	-3803
▁lang	-3804
▁bodies	-3805
▁design	-3806
▁correct	-3807
▁tempt	-3808
▁arched	-3809
▁christmas	-3810
▁reception	-3811
▁attend	-3812
▁disbel	-3813
▁sophie	-3814
▁stream	-3815
iam	-3816
▁claim	-3817
▁courage	-3818
ills	-3819
▁dave	-3820
▁embrace	-3821
▁material	-3822
▁pregnancy	-3823
▁afford	-3824
▁lightly	-3825
▁saturday	-3826
ird	-3827
▁aud	-3828
bbing	-3829
▁gazed	-3830
▁travis	-3831
▁arro	-3832
▁buck	-3833
▁farm	-3834
▁west	-3835
▁robbie	-3836
▁forcing	-3837
▁sea	-3838
▁gripped	-3839
▁shopping	-3840
bit	-3841
▁inh	-3842
▁pace	-3843
▁viol	-3844
▁trent	-3845
▁acting	-3846
▁energy	-3847
▁covering	-3848
▁cause	-3849
▁dut	-3850
▁vib	-3851
▁humor	-3852
▁christop	-3853
▁brow	-3854
▁dragged	-3855
▁happily	-3856
▁movement	-3857
▁likely	-3858
▁spun	-3859
▁maggie	-3860
▁pieces	-3861
▁explanation	-3862
ointed	-3863
▁peter	-3864
▁chocolate	-3865
▁robe	-3866
▁struck	-3867
▁breathed	-3868
▁rese	-3869
▁spin	-3870
▁whom	-3871
▁career	-3872
▁guards	-3873
▁grandmother	-3874
pap	-3875
velop	-3876
▁pure	-3877
▁idiot	-3878
▁surre	-3879
▁health	-3880
▁downstairs	-3881
cut	-3882
case	-3883
▁hat	-3884
▁deliberately	-3885
icia	-3886
▁liv	-3887
▁ros	-3888
▁raced	-3889
▁stubb	-3890
▁toes	-3891
▁leading	-3892
ki	-3893
mit	-3894
▁echo	-3895
▁tang	-3896
▁human	-3897
▁miser	-3898
▁briefly	-3899
▁discovered	-3900
▁size	-3901
▁cheer	-3902
▁chose	-3903
▁stubborn	-3904
▁wrapping	-3905
▁amy	-3906
▁awake	-3907
▁attack	-3908
▁killed	-3909
bell	-3910
▁lover	-3911
▁turns	-3912
▁yellow	-3913
▁terrible	-3914
imp	-3915
beat	-3916
amped	-3917
▁deny	-3918
▁gasp	-3919
▁alana	-3920
▁bound	-3921
ational	-3922
▁confir	-3923
inary	-3924
▁keys	-3925
iosity	-3926
atively	-3927
▁dating	-3928
▁settle	-3929
▁travel	-3930
▁muscular	-3931
▁searched	-3932
azed	-3933
antage	-3934
▁addie	-3935
▁panties	-3936
iment	-3937
▁liqu	-3938
▁vibr	-3939
apping	-3940
▁flick	-3941
▁der	-3942
▁duc	-3943
▁unw	-3944
pected	-3945
▁displ	-3946
▁kicked	-3947
▁curiosity	-3948
▁tort	-3949
▁cloud	-3950
▁crack	-3951
▁advice	-3952
▁fascin	-3953
alk	-3954
▁compet	-3955
▁liz	-3956
gress	-3957
▁smiles	-3958
▁innocent	-3959
▁issues	-3960
▁princess	-3961
▁ted	-3962
inced	-3963
▁argue	-3964
▁froze	-3965
▁insist	-3966
▁deserve	-3967
▁convinced	-3968
▁otherwise	-3969
▁huh	-3970
▁nic	-3971
▁diam	-3972
▁battle	-3973
▁hint	-3974
▁jeff	-3975
▁sway	-3976
▁teac	-3977
▁trail	-3978
▁bastard	-3979
▁filling	-3980
▁conference	-3981
▁difference	-3982
▁wow	-3983
▁genu	-3984
▁suck	-3985
▁lines	-3986
▁excell	-3987
▁everywhere	-3988
of	-3989
▁books	-3990
▁knight	-3991
▁photog	-3992
▁professional	-3993
▁accompl	-3994
▁possibility	-3995
▁por	-3996
ormed	-3997
▁rare	-3998
▁magaz	-3999
▁strode	-4000
▁genuine	-4001
▁romantic	-4002
ibb	-4003
▁ident	-4004
▁nurse	-4005
▁surface	-4006
agged	-4007
▁inner	-4008
▁various	-4009
▁ash	-4010
▁announced	-4011
▁papa	-4012
▁rested	-4013
▁virgin	-4014
▁diamond	-4015
▁joke	-4016
▁snat	-4017
▁shame	-4018
▁alicia	-4019
▁ceiling	-4020
▁nodding	-4021
ani	-4022
itor	-4023
eness	-4024
▁stage	-4025
▁vo	-4026
uded	-4027
▁tow	-4028
othed	-4029
▁unex	-4030
▁fixed	-4031
▁hast	-4032
▁madd	-4033
▁noise	-4034
▁hidden	-4035
▁itself	-4036
▁object	-4037
▁causing	-4038
▁christopher	-4039
ooke	-4040
▁utter	-4041
▁driveway	-4042
ilty	-4043
osen	-4044
▁terms	-4045
▁twist	-4046
lv	-4047
▁lots	-4048
▁rash	-4049
priate	-4050
▁chick	-4051
▁loves	-4052
▁pierce	-4053
▁pounding	-4054
▁connection	-4055
▁hip	-4056
▁rum	-4057
▁kevin	-4058
▁allison	-4059
▁grimaced	-4060
ese	-4061
iley	-4062
▁feed	-4063
▁guilty	-4064
▁yelled	-4065
▁disbelief	-4066
▁ec	-4067
▁ble	-4068
▁piss	-4069
▁placing	-4070
▁shouted	-4071
gu	-4072
hess	-4073
▁clock	-4074
▁karen	-4075
ization	-4076
▁chosen	-4077
▁height	-4078
▁result	-4079
▁duchess	-4080
pth	-4081
▁fist	-4082
▁depth	-4083
▁drake	-4084
▁dread	-4085
▁wiped	-4086
▁french	-4087
▁answering	-4088
▁log	-4089
▁worn	-4090
▁carlo	-4091
▁lecie	-4092
▁thinks	-4093
▁buttons	-4094
olas	-4095
cer	-4096
ature	-4097
▁answers	-4098
▁cooking	-4099
▁appearance	-4100
▁goss	-4101
▁hist	-4102
▁jesse	-4103
▁roman	-4104
▁parted	-4105
▁wicked	-4106
▁expensive	-4107
ism	-4108
roft	-4109
▁ate	-4110
▁symp	-4111
ancroft	-4112
looking	-4113
▁doc	-4114
▁scan	-4115
▁faced	-4116
▁occup	-4117
▁butter	-4118
▁limous	-4119
▁stroked	-4120
▁bancroft	-4121
▁boyfriend	-4122
resa	-4123
▁nap	-4124
▁devon	-4125
▁drawn	-4126
▁financ	-4127
▁excellent	-4128
hus	-4129
▁bree	-4130
▁faces	-4131
▁common	-4132
▁paying	-4133
▁teresa	-4134
▁fucking	-4135
▁agreement	-4136
▁intensity	-4137
▁knee	-4138
▁biting	-4139
▁goodbye	-4140
▁realizing	-4141
lyn	-4142
▁ori	-4143
▁belt	-4144
▁gesture	-4145
▁knocked	-4146
▁demanding	-4147
pet	-4148
▁address	-4149
▁drunk	-4150
▁lobby	-4151
▁stock	-4152
▁choked	-4153
▁engine	-4154
▁quin	-4155
▁ward	-4156
▁marco	-4157
▁stated	-4158
▁tables	-4159
▁flushed	-4160
▁impress	-4161
ague	-4162
erald	-4163
▁file	-4164
▁nervously	-4165
fl	-4166
▁honor	-4167
▁circum	-4168
▁drinks	-4169
bbed	-4170
▁autom	-4171
▁accord	-4172
▁charming	-4173
▁imm	-4174
▁sylv	-4175
▁nathan	-4176
▁forgive	-4177
▁raising	-4178
▁stories	-4179
▁including	-4180
▁vul	-4181
▁twel	-4182
▁groan	-4183
▁caring	-4184
▁intell	-4185
▁celine	-4186
▁credit	-4187
▁wit	-4188
▁match	-4189
▁brilli	-4190
▁spring	-4191
▁shivered	-4192
gar	-4193
place	-4194
▁failed	-4195
▁upper	-4196
▁argued	-4197
▁received	-4198
▁apologize	-4199
li	-4200
▁neat	-4201
▁local	-4202
▁access	-4203
▁facing	-4204
▁surprising	-4205
oted	-4206
▁jerk	-4207
▁masc	-4208
lfriend	-4209
▁horror	-4210
▁makeup	-4211
▁tilted	-4212
ula	-4213
reek	-4214
▁holt	-4215
▁impl	-4216
▁weird	-4217
▁shining	-4218
can	-4219
otic	-4220
▁blew	-4221
▁william	-4222
dney	-4223
▁penn	-4224
▁toby	-4225
▁becky	-4226
▁newspap	-4227
▁pockets	-4228
▁argument	-4229
▁background	-4230
▁shrug	-4231
▁advantage	-4232
arah	-4233
▁mix	-4234
▁elbow	-4235
▁flood	-4236
▁carter	-4237
▁twelve	-4238
▁necessary	-4239
rem	-4240
iture	-4241
▁crew	-4242
▁race	-4243
▁zarah	-4244
▁sydney	-4245
▁deserved	-4246
ples	-4247
▁grad	-4248
▁marty	-4249
▁sooner	-4250
▁elegant	-4251
▁limousine	-4252
▁buried	-4253
▁orgasm	-4254
▁polite	-4255
▁depe	-4256
▁brush	-4257
▁pulse	-4258
▁emotional	-4259
▁recognized	-4260
▁gary	-4261
▁popped	-4262
▁robert	-4263
▁television	-4264
▁ban	-4265
▁gentleman	-4266
▁cute	-4267
▁glare	-4268
▁charles	-4269
▁disgust	-4270
▁painting	-4271
▁furniture	-4272
▁stern	-4273
▁boring	-4274
▁service	-4275
ey	-4276
bly	-4277
iety	-4278
▁tail	-4279
▁faded	-4280
▁rashid	-4281
▁intention	-4282
▁boun	-4283
▁rent	-4284
▁frame	-4285
▁inches	-4286
▁insane	-4287
▁passen	-4288
▁camp	-4289
▁block	-4290
▁bored	-4291
▁vision	-4292
▁dressing	-4293
▁dropping	-4294
▁mic	-4295
▁rhy	-4296
▁craw	-4297
▁whim	-4298
▁blush	-4299
▁solid	-4300
▁events	-4301
▁happens	-4302
riel	-4303
▁tit	-4304
▁connor	-4305
▁strang	-4306
▁heartbeat	-4307
▁throughout	-4308
ov	-4309
ball	-4310
▁loun	-4311
▁daddy	-4312
▁animal	-4313
▁church	-4314
▁eleven	-4315
▁formal	-4316
▁vulner	-4317
▁trailed	-4318
▁due	-4319
stand	-4320
▁blow	-4321
▁heated	-4322
▁escaped	-4323
▁fashion	-4324
▁natural	-4325
▁slapped	-4326
▁unexpected	-4327
▁gossip	-4328
▁irritated	-4329
▁screaming	-4330
▁sensitive	-4331
af	-4332
▁pad	-4333
▁chew	-4334
▁raise	-4335
▁erection	-4336
▁responded	-4337
▁embarrassment	-4338
rily	-4339
▁clas	-4340
▁pred	-4341
umbling	-4342
▁friday	-4343
▁gabriel	-4344
▁impressed	-4345
ront	-4346
▁exch	-4347
▁behav	-4348
▁sandw	-4349
▁track	-4350
▁resting	-4351
iod	-4352
▁deb	-4353
▁glo	-4354
▁mut	-4355
▁served	-4356
▁darling	-4357
▁greeted	-4358
wear	-4359
▁meg	-4360
essed	-4361
▁glow	-4362
▁trey	-4363
▁brand	-4364
▁style	-4365
▁girlfriend	-4366
▁sev	-4367
▁ache	-4368
jected	-4369
▁sally	-4370
▁estate	-4371
▁lawyer	-4372
▁maddie	-4373
str	-4374
▁jol	-4375
▁ult	-4376
▁sage	-4377
▁bloody	-4378
▁guessed	-4379
▁haw	-4380
▁bigger	-4381
▁period	-4382
▁chuckle	-4383
▁bothered	-4384
▁circumst	-4385
▁painfully	-4386
iven	-4387
▁spee	-4388
▁organ	-4389
▁mostly	-4390
▁intimid	-4391
▁engagement	-4392
▁amb	-4393
▁wis	-4394
▁maint	-4395
▁steel	-4396
key	-4397
▁stat	-4398
▁alarm	-4399
▁passing	-4400
▁disappointed	-4401
▁enorm	-4402
▁search	-4403
▁shorts	-4404
▁uncertain	-4405
chie	-4406
ences	-4407
▁refer	-4408
▁treated	-4409
omb	-4410
▁pit	-4411
▁wry	-4412
▁task	-4413
▁ryder	-4414
▁tossing	-4415
▁invitation	-4416
five	-4417
▁slee	-4418
▁aband	-4419
▁dying	-4420
▁merely	-4421
▁drifted	-4422
step	-4423
asper	-4424
coming	-4425
▁thrown	-4426
▁waiter	-4427
▁attraction	-4428
▁distracted	-4429
vert	-4430
▁wrist	-4431
▁sensual	-4432
▁sweater	-4433
▁schedule	-4434
cil	-4435
▁fal	-4436
▁fat	-4437
▁porch	-4438
▁rhyth	-4439
▁shown	-4440
▁custom	-4441
▁occurred	-4442
gl	-4443
azz	-4444
ifer	-4445
year	-4446
▁dug	-4447
▁arch	-4448
▁backed	-4449
▁manage	-4450
▁attitude	-4451
iction	-4452
▁cupped	-4453
▁abruptly	-4454
▁magnific	-4455
po	-4456
▁kim	-4457
▁bask	-4458
▁prec	-4459
▁major	-4460
▁babies	-4461
▁informed	-4462
▁glit	-4463
▁destro	-4464
▁written	-4465
▁changing	-4466
ooped	-4467
▁rage	-4468
▁resol	-4469
▁screw	-4470
▁total	-4471
▁prince	-4472
▁rev	-4473
▁saf	-4474
▁heavily	-4475
▁hopefully	-4476
race	-4477
aping	-4478
▁rout	-4479
▁fists	-4480
▁sunday	-4481
▁tipped	-4482
▁blanket	-4483
livia	-4484
▁colt	-4485
▁fish	-4486
▁avail	-4487
▁cards	-4488
▁condition	-4489
lot	-4490
keep	-4491
▁jade	-4492
▁reput	-4493
▁riley	-4494
▁olivia	-4495
▁packed	-4496
▁blushed	-4497
▁arranged	-4498
▁evidence	-4499
▁vacation	-4500
uments	-4501
▁gritted	-4502
▁dun	-4503
▁unp	-4504
▁wrap	-4505
▁activ	-4506
▁stair	-4507
▁rhythm	-4508
▁nowhere	-4509
▁delicate	-4510
arked	-4511
▁kick	-4512
▁meas	-4513
▁nerve	-4514
▁brilliant	-4515
▁disappointment	-4516
kn	-4517
remy	-4518
▁arie	-4519
▁auth	-4520
▁page	-4521
▁rans	-4522
▁sheet	-4523
▁origin	-4524
▁english	-4525
▁struggled	-4526
▁thankfully	-4527
▁anya	-4528
▁balc	-4529
▁exist	-4530
▁jeremy	-4531
▁giggled	-4532
▁history	-4533
▁village	-4534
▁ly	-4535
mber	-4536
▁iron	-4537
▁pent	-4538
uction	-4539
▁casey	-4540
▁danced	-4541
▁halfway	-4542
▁jennifer	-4543
▁san	-4544
▁reed	-4545
▁smir	-4546
▁langu	-4547
▁lately	-4548
▁england	-4549
▁perform	-4550
▁determination	-4551
sc	-4552
kin	-4553
ole	-4554
▁concl	-4555
▁sheets	-4556
▁spotted	-4557
▁checking	-4558
raw	-4559
▁bud	-4560
▁tech	-4561
▁curls	-4562
▁train	-4563
▁complic	-4564
▁rushing	-4565
▁friendly	-4566
▁interview	-4567
elle	-4568
uled	-4569
▁wheel	-4570
▁record	-4571
▁washed	-4572
▁meetings	-4573
▁thorough	-4574
▁moan	-4575
▁speech	-4576
▁created	-4577
ify	-4578
▁cale	-4579
▁disp	-4580
▁pity	-4581
▁seduct	-4582
▁stroke	-4583
▁emerald	-4584
▁sheridan	-4585
tti	-4586
▁ant	-4587
field	-4588
▁bitch	-4589
▁nikki	-4590
▁pause	-4591
▁shiver	-4592
▁fingert	-4593
▁helpless	-4594
▁stunning	-4595
▁conscious	-4596
▁ransom	-4597
▁gon	-4598
▁rap	-4599
acter	-4600
▁qual	-4601
▁swear	-4602
▁laying	-4603
▁intellig	-4604
▁rus	-4605
▁faint	-4606
▁sheer	-4607
▁parked	-4608
▁beating	-4609
gest	-4610
husi	-4611
raph	-4612
▁cop	-4613
▁fork	-4614
▁lung	-4615
▁grasp	-4616
▁politely	-4617
▁circumstances	-4618
▁fac	-4619
▁opt	-4620
▁sha	-4621
▁author	-4622
▁muscle	-4623
▁nature	-4624
▁taught	-4625
ibilities	-4626
▁recognize	-4627
▁um	-4628
▁rise	-4629
▁grief	-4630
▁catching	-4631
▁frustrated	-4632
▁fa	-4633
▁mont	-4634
▁sell	-4635
▁sque	-4636
▁sniff	-4637
▁express	-4638
ella	-4639
▁bold	-4640
▁tied	-4641
▁boots	-4642
▁kidding	-4643
▁sharply	-4644
▁pretending	-4645
ppy	-4646
▁eva	-4647
▁prim	-4648
▁ached	-4649
▁senses	-4650
▁ya	-4651
ingly	-4652
▁lone	-4653
achlan	-4654
▁coach	-4655
▁dirty	-4656
▁write	-4657
▁sensed	-4658
itions	-4659
itting	-4660
▁sharing	-4661
▁concentrate	-4662
ican	-4663
igid	-4664
▁exe	-4665
▁cher	-4666
▁infl	-4667
▁miles	-4668
▁amazed	-4669
▁camera	-4670
▁detail	-4671
▁unlike	-4672
▁magnificent	-4673
dom	-4674
sty	-4675
▁mach	-4676
▁names	-4677
▁tempor	-4678
▁balcony	-4679
▁ram	-4680
▁asks	-4681
▁bags	-4682
▁penny	-4683
▁rules	-4684
▁billie	-4685
▁collar	-4686
▁prison	-4687
▁partner	-4688
▁slipping	-4689
ffic	-4690
▁phil	-4691
▁shooting	-4692
▁teen	-4693
urance	-4694
▁jewel	-4695
▁begged	-4696
▁pillows	-4697
▁snorted	-4698
▁thrilled	-4699
▁financial	-4700
alian	-4701
▁drag	-4702
umping	-4703
▁stars	-4704
▁impression	-4705
▁reluctantly	-4706
▁sarc	-4707
▁wash	-4708
▁judge	-4709
▁expert	-4710
▁tanner	-4711
▁enthusi	-4712
▁behavior	-4713
▁neighbor	-4714
agg	-4715
▁obl	-4716
▁harm	-4717
▁stal	-4718
▁patted	-4719
▁engaged	-4720
▁station	-4721
▁sweetheart	-4722
▁dru	-4723
▁item	-4724
▁lore	-4725
▁licked	-4726
▁begging	-4727
brina	-4728
▁cake	-4729
▁damp	-4730
▁drown	-4731
▁balance	-4732
▁sabrina	-4733
▁frowning	-4734
▁available	-4735
▁aid	-4736
hetic	-4737
▁crad	-4738
▁fate	-4739
▁femin	-4740
▁shape	-4741
▁landed	-4742
▁leaves	-4743
▁luca	-4744
▁purs	-4745
▁roof	-4746
ulated	-4747
▁freed	-4748
▁circle	-4749
▁bastian	-4750
▁content	-4751
▁drinking	-4752
ald	-4753
▁swir	-4754
▁stall	-4755
itha	-4756
over	-4757
▁raw	-4758
▁exte	-4759
▁mort	-4760
▁north	-4761
▁latest	-4762
▁tabitha	-4763
▁underwear	-4764
▁automatically	-4765
▁tro	-4766
erved	-4767
ggled	-4768
ential	-4769
▁orders	-4770
▁massive	-4771
▁removed	-4772
▁clarissa	-4773
lotte	-4774
▁charm	-4775
▁repor	-4776
▁accomp	-4777
▁margie	-4778
▁safety	-4779
▁charlotte	-4780
▁attractive	-4781
▁responsibility	-4782
▁cha	-4783
▁cott	-4784
▁inqu	-4785
▁purch	-4786
▁traffic	-4787
▁brightly	-4788
▁delivered	-4789
imin	-4790
shine	-4791
▁glor	-4792
laimed	-4793
▁satin	-4794
▁squir	-4795
▁lashes	-4796
▁actions	-4797
▁melinda	-4798
▁fiercely	-4799
▁investig	-4800
▁particularly	-4801
▁quar	-4802
▁notes	-4803
▁spect	-4804
▁liquid	-4805
▁attached	-4806
▁exciting	-4807
▁stiffened	-4808
ander	-4809
▁heads	-4810
▁magic	-4811
▁surve	-4812
▁sarila	-4813
▁stroking	-4814
▁cro	-4815
▁cole	-4816
aret	-4817
▁inj	-4818
▁sidra	-4819
▁condom	-4820
▁wildly	-4821
▁clients	-4822
▁reputation	-4823
law	-4824
▁slo	-4825
ville	-4826
▁ship	-4827
▁hired	-4828
antically	-4829
▁instructions	-4830
why	-4831
athy	-4832
▁absor	-4833
▁rosie	-4834
▁covers	-4835
▁winked	-4836
▁deck	-4837
ability	-4838
▁angelo	-4839
▁secrets	-4840
▁trusted	-4841
▁mentally	-4842
▁pointing	-4843
hic	-4844
ulf	-4845
▁fle	-4846
▁lani	-4847
▁libr	-4848
▁plus	-4849
▁teach	-4850
▁flipped	-4851
▁allowing	-4852
▁bothering	-4853
ees	-4854
▁blaz	-4855
▁dick	-4856
▁trace	-4857
▁cutting	-4858
▁develop	-4859
▁exploded	-4860
▁preferred	-4861
▁returning	-4862
iter	-4863
▁lur	-4864
▁eyed	-4865
▁myst	-4866
essert	-4867
▁butler	-4868
▁reject	-4869
▁animals	-4870
▁ais	-4871
▁tam	-4872
▁cash	-4873
▁decis	-4874
▁devil	-4875
▁fifty	-4876
▁owner	-4877
▁monday	-4878
▁studying	-4879
umph	-4880
phone	-4881
▁forty	-4882
▁pleasant	-4883
▁tom	-4884
▁tub	-4885
▁curve	-4886
▁desce	-4887
▁distur	-4888
▁dessert	-4889
▁handing	-4890
▁mattered	-4891
▁sunshine	-4892
hol	-4893
alil	-4894
▁yan	-4895
▁fired	-4896
▁woods	-4897
▁shadow	-4898
▁discussion	-4899
▁appropriate	-4900
ira	-4901
icho	-4902
raged	-4903
▁fare	-4904
▁moves	-4905
ulation	-4906
▁dipped	-4907
▁stress	-4908
▁mansion	-4909
▁privacy	-4910
tw	-4911
ptop	-4912
imate	-4913
▁square	-4914
▁ballroom	-4915
▁instinctively	-4916
aly	-4917
lei	-4918
umed	-4919
▁nope	-4920
▁sole	-4921
▁arrive	-4922
▁laptop	-4923
▁mental	-4924
▁lorelei	-4925
▁swiftly	-4926
▁passenger	-4927
▁diss	-4928
▁role	-4929
▁soci	-4930
▁tula	-4931
▁vers	-4932
▁suitc	-4933
▁melted	-4934
▁weather	-4935
▁miserable	-4936
▁fingertips	-4937
hand	-4938
▁dean	-4939
▁ella	-4940
▁queen	-4941
▁techn	-4942
▁curved	-4943
wood	-4944
▁bla	-4945
▁burn	-4946
▁inher	-4947
▁carpet	-4948
▁slacks	-4949
▁witness	-4950
▁enormous	-4951
ato	-4952
▁scen	-4953
velope	-4954
▁triumph	-4955
▁envelope	-4956
▁mountain	-4957
end	-4958
▁isab	-4959
▁maid	-4960
▁blast	-4961
▁cheese	-4962
cons	-4963
▁fan	-4964
▁bubb	-4965
keeper	-4966
▁saved	-4967
▁cocked	-4968
▁wooden	-4969
▁capable	-4970
▁arrogant	-4971
▁casually	-4972
▁lungs	-4973
▁blaize	-4974
▁exasper	-4975
▁clothing	-4976
▁realization	-4977
▁ven	-4978
▁plun	-4979
inkled	-4980
▁brett	-4981
▁eased	-4982
▁legal	-4983
▁chicken	-4984
▁brushing	-4985
▁frantically	-4986
▁ruth	-4987
▁sour	-4988
remony	-4989
▁damage	-4990
▁similar	-4991
▁approval	-4992
▁ceremony	-4993
▁goodness	-4994
▁matching	-4995
▁according	-4996
ache	-4997
four	-4998
▁oper	-4999
▁brave	-5000
▁plain	-5001
▁solie	-5002
▁tyler	-5003
▁signed	-5004
▁jericho	-5005
▁eighteen	-5006
▁servants	-5007
ob	-5008
bur	-5009
ford	-5010
▁driven	-5011
▁resear	-5012
▁declared	-5013
▁proposal	-5014
▁hesitation	-5015
▁bul	-5016
▁myk	-5017
▁vehic	-5018
▁client	-5019
▁emphas	-5020
▁encoun	-5021
▁market	-5022
▁shortly	-5023
▁slender	-5024
▁egg	-5025
▁affair	-5026
▁pissed	-5027
▁heather	-5028
▁mykolas	-5029
▁torment	-5030
▁caroline	-5031
mbers	-5032
▁games	-5033
▁hunger	-5034
▁anxious	-5035
▁avoiding	-5036
rel	-5037
▁cot	-5038
▁caut	-5039
▁pros	-5040
▁sold	-5041
▁clung	-5042
▁groom	-5043
▁twins	-5044
▁members	-5045
▁contempl	-5046
▁stronger	-5047
▁lies	-5048
▁commit	-5049
▁nearby	-5050
com	-5051
▁sen	-5052
▁cars	-5053
▁dial	-5054
▁restr	-5055
▁threatened	-5056
ago	-5057
back	-5058
▁camer	-5059
itional	-5060
▁formed	-5061
▁squeeze	-5062
▁jefferson	-5063
▁hole	-5064
▁torn	-5065
▁employees	-5066
▁laz	-5067
▁grass	-5068
▁garage	-5069
▁magazine	-5070
▁newspaper	-5071
acle	-5072
▁price	-5073
▁withd	-5074
letcher	-5075
▁appeal	-5076
▁execut	-5077
▁isabella	-5078
▁bowl	-5079
▁chic	-5080
▁likes	-5081
▁named	-5082
▁suave	-5083
iration	-5084
▁ability	-5085
▁bending	-5086
▁dominic	-5087
▁foolish	-5088
▁outrage	-5089
▁crossing	-5090
tail	-5091
▁ank	-5092
ators	-5093
▁alco	-5094
▁barn	-5095
▁rude	-5096
▁lonely	-5097
▁remark	-5098
▁ripped	-5099
▁pee	-5100
▁ryan	-5101
itable	-5102
▁breeze	-5103
▁reflection	-5104
▁successful	-5105
gram	-5106
walk	-5107
▁nud	-5108
▁heck	-5109
▁tough	-5110
idently	-5111
▁buying	-5112
▁climax	-5113
▁peered	-5114
▁tasted	-5115
▁thunder	-5116
▁ale	-5117
▁resc	-5118
▁aisle	-5119
▁works	-5120
▁matters	-5121
▁proceed	-5122
▁fletcher	-5123
▁attracted	-5124
▁ep	-5125
orne	-5126
▁qui	-5127
▁heel	-5128
▁nibb	-5129
▁nails	-5130
▁owned	-5131
▁sport	-5132
▁library	-5133
▁jealousy	-5134
▁julianna	-5135
▁stumbled	-5136
ddy	-5137
ases	-5138
▁aston	-5139
▁famil	-5140
▁proof	-5141
▁toast	-5142
▁waving	-5143
▁appointment	-5144
▁overwhelming	-5145
ral	-5146
zzled	-5147
▁bened	-5148
ishment	-5149
iveness	-5150
▁george	-5151
▁pouring	-5152
▁retreat	-5153
▁increased	-5154
dri	-5155
▁menu	-5156
▁unlo	-5157
▁provided	-5158
▁strolled	-5159
▁constantly	-5160
oti	-5161
rom	-5162
▁unh	-5163
▁buzz	-5164
▁nancy	-5165
▁tighter	-5166
▁refusing	-5167
▁protection	-5168
▁vic	-5169
iving	-5170
▁math	-5171
▁scra	-5172
▁stole	-5173
▁mystery	-5174
idly	-5175
▁eur	-5176
▁accent	-5177
▁patient	-5178
▁regular	-5179
▁shadows	-5180
▁benedict	-5181
▁penthouse	-5182
▁struggling	-5183
oot	-5184
asar	-5185
rose	-5186
▁joe	-5187
▁tex	-5188
inged	-5189
▁appl	-5190
▁artic	-5191
▁cottage	-5192
▁guessing	-5193
▁positive	-5194
▁swo	-5195
▁lawn	-5196
▁nightm	-5197
▁contain	-5198
▁electric	-5199
▁breathless	-5200
nton	-5201
▁waste	-5202
▁basket	-5203
▁recall	-5204
▁italian	-5205
▁character	-5206
▁entertain	-5207
▁department	-5208
olo	-5209
▁dated	-5210
▁foyer	-5211
▁gives	-5212
▁mascul	-5213
▁thornton	-5214
▁waitress	-5215
▁rib	-5216
▁dish	-5217
▁dozen	-5218
▁mitch	-5219
▁indeed	-5220
▁writing	-5221
▁surrounding	-5222
cks	-5223
▁gy	-5224
▁bun	-5225
▁collect	-5226
▁dresses	-5227
▁mistress	-5228
ades	-5229
arse	-5230
▁zay	-5231
otted	-5232
▁duty	-5233
▁pile	-5234
▁adding	-5235
▁outfit	-5236
▁sisters	-5237
▁spilled	-5238
▁wealthy	-5239
▁sandwich	-5240
▁introduced	-5241
▁ky	-5242
▁fer	-5243
agger	-5244
▁adult	-5245
▁manner	-5246
▁secure	-5247
▁tapped	-5248
▁warren	-5249
usive	-5250
▁bench	-5251
mission	-5252
▁shifting	-5253
▁smoothed	-5254
▁frightened	-5255
▁vulnerable	-5256
alia	-5257
ateg	-5258
aunt	-5259
▁pow	-5260
unted	-5261
▁zayn	-5262
▁sophistic	-5263
▁nu	-5264
erly	-5265
rier	-5266
▁hmm	-5267
iforn	-5268
▁hamm	-5269
▁balls	-5270
▁flung	-5271
▁drawer	-5272
▁blurted	-5273
▁californ	-5274
▁delighted	-5275
icop	-5276
▁bren	-5277
▁loos	-5278
▁eaten	-5279
ulating	-5280
▁echoed	-5281
▁plates	-5282
▁helicop	-5283
▁teacher	-5284
▁approach	-5285
▁feminine	-5286
▁childhood	-5287
▁naturally	-5288
▁kir	-5289
▁hook	-5290
▁sele	-5291
▁rigid	-5292
▁flower	-5293
▁marble	-5294
▁thread	-5295
▁announce	-5296
▁practice	-5297
▁nightmare	-5298
aud	-5299
▁row	-5300
▁pear	-5301
gs	-5302
alie	-5303
▁hom	-5304
cture	-5305
immed	-5306
▁scrat	-5307
▁depths	-5308
▁biggest	-5309
▁efforts	-5310
▁manager	-5311
▁american	-5312
▁lor	-5313
verse	-5314
▁pier	-5315
▁plat	-5316
▁rode	-5317
▁wolf	-5318
▁split	-5319
▁fantasy	-5320
▁hurting	-5321
▁trapped	-5322
▁whoever	-5323
▁replaced	-5324
▁snatched	-5325
▁fireplace	-5326
▁revealing	-5327
pes	-5328
▁snu	-5329
ardon	-5330
▁indul	-5331
▁keira	-5332
▁shaky	-5333
▁surge	-5334
▁highly	-5335
▁sloane	-5336
▁charity	-5337
▁society	-5338
▁soothing	-5339
gly	-5340
▁fed	-5341
▁tar	-5342
uated	-5343
▁dart	-5344
▁salad	-5345
▁orange	-5346
▁glaring	-5347
▁affection	-5348
▁discussed	-5349
aware	-5350
garet	-5351
▁guar	-5352
▁suits	-5353
▁hissed	-5354
▁invite	-5355
▁perman	-5356
▁belonged	-5357
▁captured	-5358
▁iv	-5359
grat	-5360
anced	-5361
▁yard	-5362
▁ending	-5363
▁inviting	-5364
▁passionate	-5365
quis	-5366
uses	-5367
▁heir	-5368
▁conven	-5369
▁mumbled	-5370
▁richard	-5371
▁sighing	-5372
▁margaret	-5373
▁required	-5374
▁wandered	-5375
ium	-5376
rig	-5377
aired	-5378
▁cart	-5379
▁cush	-5380
▁media	-5381
▁cotton	-5382
▁resort	-5383
▁congrat	-5384
▁swallow	-5385
▁families	-5386
▁progress	-5387
rina	-5388
yard	-5389
▁devast	-5390
▁katrina	-5391
▁stirred	-5392
▁california	-5393
▁tax	-5394
▁ripp	-5395
▁giant	-5396
▁patio	-5397
▁points	-5398
▁unb	-5399
▁crit	-5400
▁hous	-5401
▁jour	-5402
▁scow	-5403
▁maura	-5404
▁roses	-5405
▁daring	-5406
▁brianna	-5407
▁flicked	-5408
▁freedom	-5409
▁midnight	-5410
▁softened	-5411
▁fantastic	-5412
ham	-5413
ires	-5414
mail	-5415
▁icy	-5416
▁ecst	-5417
▁pulls	-5418
▁silky	-5419
▁negoti	-5420
▁ashamed	-5421
▁dreamed	-5422
▁marissa	-5423
▁revealed	-5424
▁responsible	-5425
▁mail	-5426
▁mike	-5427
▁oblig	-5428
▁polit	-5429
▁anxiety	-5430
▁exposed	-5431
▁smelled	-5432
▁tearing	-5433
▁recently	-5434
▁sounding	-5435
▁exclaimed	-5436
▁friendship	-5437
▁bob	-5438
▁loy	-5439
▁punch	-5440
▁topic	-5441
▁europe	-5442
▁option	-5443
▁staircase	-5444
ipper	-5445
pical	-5446
▁clue	-5447
▁scru	-5448
acious	-5449
▁emerg	-5450
▁grant	-5451
▁altern	-5452
▁braced	-5453
rid	-5454
▁frag	-5455
▁ugly	-5456
▁brian	-5457
▁indie	-5458
▁liter	-5459
▁curves	-5460
▁images	-5461
▁joking	-5462
▁colleen	-5463
▁unaware	-5464
▁sunlight	-5465
▁commanded	-5466
▁gathering	-5467
▁horrified	-5468
▁mac	-5469
ulate	-5470
▁member	-5471
▁movies	-5472
▁collaps	-5473
▁constru	-5474
▁jumping	-5475
▁moretti	-5476
▁program	-5477
▁confront	-5478
▁thoughtful	-5479
ho	-5480
▁tv	-5481
▁deg	-5482
▁uni	-5483
▁bird	-5484
▁dumb	-5485
▁exit	-5486
▁mason	-5487
▁dishes	-5488
▁angrily	-5489
▁circles	-5490
▁movements	-5491
▁seductive	-5492
▁dem	-5493
▁godd	-5494
▁grat	-5495
▁huff	-5496
▁ruin	-5497
▁husky	-5498
▁kasar	-5499
▁alcohol	-5500
▁fiancee	-5501
▁hardened	-5502
▁physically	-5503
urs	-5504
this	-5505
▁bik	-5506
▁eld	-5507
▁nav	-5508
oning	-5509
▁south	-5510
▁addison	-5511
▁arielle	-5512
▁closely	-5513
erie	-5514
stal	-5515
▁butt	-5516
▁gate	-5517
▁bowed	-5518
▁noted	-5519
▁seats	-5520
▁changes	-5521
▁corners	-5522
▁washing	-5523
▁spinning	-5524
▁stif	-5525
▁innoc	-5526
▁impact	-5527
▁lorrie	-5528
▁misery	-5529
▁natalie	-5530
▁smaller	-5531
▁suitcase	-5532
▁photograph	-5533
▁housekeeper	-5534
ament	-5535
iated	-5536
▁bliss	-5537
▁email	-5538
▁precious	-5539
ex	-5540
▁sac	-5541
there	-5542
▁goal	-5543
▁wigg	-5544
▁joked	-5545
▁tammy	-5546
▁veins	-5547
▁exhaust	-5548
▁provide	-5549
▁ringing	-5550
▁whipped	-5551
lina	-5552
▁excl	-5553
▁sail	-5554
▁impro	-5555
▁loyal	-5556
▁dealing	-5557
▁fortune	-5558
▁personally	-5559
ige	-5560
▁dust	-5561
making	-5562
▁aiden	-5563
▁lined	-5564
▁trunk	-5565
▁elbows	-5566
▁photos	-5567
▁reveal	-5568
▁exhaled	-5569
▁explore	-5570
▁holland	-5571
▁medical	-5572
▁introduce	-5573
▁fascinated	-5574
rowed	-5575
▁fart	-5576
▁snap	-5577
▁creek	-5578
▁luxur	-5579
▁persu	-5580
▁colors	-5581
▁stable	-5582
▁breaths	-5583
▁insides	-5584
▁propped	-5585
▁sadness	-5586
▁mi	-5587
umps	-5588
▁paint	-5589
▁yanna	-5590
▁classes	-5591
▁display	-5592
▁survive	-5593
▁compliment	-5594
▁helicopter	-5595
dle	-5596
book	-5597
moon	-5598
▁gul	-5599
▁influ	-5600
▁kinds	-5601
▁neckl	-5602
▁bridge	-5603
▁winter	-5604
▁chicago	-5605
▁crowded	-5606
▁scanned	-5607
▁wherever	-5608
▁threatening	-5609
nda	-5610
bble	-5611
▁ador	-5612
▁mult	-5613
▁habit	-5614
▁moist	-5615
▁blouse	-5616
▁slowed	-5617
bled	-5618
▁adop	-5619
▁offe	-5620
▁subt	-5621
▁royal	-5622
▁urgent	-5623
▁digging	-5624
▁selfish	-5625
▁learning	-5626
▁settling	-5627
▁traveled	-5628
▁temporary	-5629
▁ske	-5630
▁clit	-5631
▁dirt	-5632
▁irre	-5633
▁taut	-5634
▁zeke	-5635
▁assume	-5636
▁betray	-5637
▁comfor	-5638
▁distant	-5639
▁doubted	-5640
▁switched	-5641
▁trembled	-5642
▁yep	-5643
thank	-5644
▁fancy	-5645
▁accepting	-5646
▁backwards	-5647
▁env	-5648
▁cris	-5649
▁caleb	-5650
▁paris	-5651
▁lesson	-5652
▁cookies	-5653
▁nipples	-5654
▁cleaning	-5655
▁flashing	-5656
▁gestured	-5657
▁corrected	-5658
mod	-5659
iece	-5660
llen	-5661
ores	-5662
▁isla	-5663
▁sore	-5664
▁daily	-5665
▁imper	-5666
▁fabulous	-5667
ker	-5668
▁hid	-5669
▁buff	-5670
▁spare	-5671
▁loudly	-5672
▁caressed	-5673
▁clutched	-5674
▁gripping	-5675
nes	-5676
▁psy	-5677
▁model	-5678
▁ensure	-5679
▁larger	-5680
▁resent	-5681
ipp	-5682
abor	-5683
▁enem	-5684
▁flin	-5685
▁till	-5686
button	-5687
▁fruit	-5688
▁krist	-5689
▁advent	-5690
▁duncan	-5691
▁machine	-5692
▁vehicle	-5693
▁remarked	-5694
▁honeymoon	-5695
▁throbbing	-5696
▁nut	-5697
▁crap	-5698
▁evil	-5699
▁items	-5700
▁photo	-5701
▁river	-5702
▁wrote	-5703
▁draped	-5704
▁famous	-5705
▁intend	-5706
▁ruined	-5707
▁claimed	-5708
▁streets	-5709
▁shuddered	-5710
icy	-5711
ival	-5712
ffled	-5713
glass	-5714
▁gear	-5715
▁theo	-5716
▁wink	-5717
acting	-5718
▁jules	-5719
▁steve	-5720
▁greeting	-5721
nic	-5722
aste	-5723
hold	-5724
▁owe	-5725
fying	-5726
▁earn	-5727
▁mama	-5728
▁pray	-5729
▁sylvie	-5730
▁worrying	-5731
▁companion	-5732
▁regardless	-5733
bec	-5734
▁adj	-5735
▁ratt	-5736
▁spell	-5737
▁stuffed	-5738
▁terrace	-5739
▁intimacy	-5740
▁smoothly	-5741
▁swimming	-5742
etr	-5743
▁jac	-5744
etime	-5745
ounce	-5746
ribut	-5747
▁exer	-5748
▁melt	-5749
▁aidan	-5750
▁season	-5751
ulations	-5752
▁parties	-5753
▁irritation	-5754
▁thoroughly	-5755
nn	-5756
▁hay	-5757
▁barg	-5758
▁eyel	-5759
▁alert	-5760
▁ought	-5761
▁stalked	-5762
▁relaxing	-5763
see	-5764
pass	-5765
▁bone	-5766
▁pizz	-5767
essing	-5768
▁annoyed	-5769
▁eagerly	-5770
▁patience	-5771
▁referring	-5772
cco	-5773
stick	-5774
▁emer	-5775
▁scot	-5776
▁bread	-5777
▁sneak	-5778
▁straw	-5779
▁rarely	-5780
▁relent	-5781
▁landing	-5782
▁mocking	-5783
▁torture	-5784
▁decisions	-5785
▁arrangement	-5786
ks	-5787
▁eru	-5788
▁gain	-5789
▁hire	-5790
▁effic	-5791
▁signs	-5792
▁exquis	-5793
▁unsure	-5794
▁interior	-5795
▁research	-5796
▁surrender	-5797
▁embarrassing	-5798
od	-5799
▁wy	-5800
sequ	-5801
▁bew	-5802
▁anne	-5803
▁parts	-5804
▁shade	-5805
▁dumped	-5806
▁murder	-5807
▁nobody	-5808
▁plastic	-5809
▁seeming	-5810
▁generous	-5811
▁necklace	-5812
▁tightening	-5813
▁acknowledge	-5814
down	-5815
▁pil	-5816
ships	-5817
▁curl	-5818
▁ends	-5819
▁rick	-5820
▁achie	-5821
▁acted	-5822
▁faith	-5823
▁haley	-5824
▁hopes	-5825
▁knife	-5826
▁march	-5827
▁sugar	-5828
▁arrival	-5829
▁frances	-5830
▁options	-5831
▁punched	-5832
▁clearing	-5833
▁terribly	-5834
▁caressing	-5835
▁conversations	-5836
con	-5837
ider	-5838
enses	-5839
▁clin	-5840
▁puts	-5841
▁hoarse	-5842
▁indust	-5843
▁terror	-5844
▁yanked	-5845
moreland	-5846
▁apology	-5847
▁merlina	-5848
▁pounded	-5849
▁rounded	-5850
▁deciding	-5851
▁confirmed	-5852
▁pretended	-5853
▁westmoreland	-5854
▁angu	-5855
▁quit	-5856
▁siri	-5857
▁bones	-5858
▁vague	-5859
▁traced	-5860
▁hitting	-5861
▁prospect	-5862
▁sentence	-5863
mble	-5864
steps	-5865
▁intrig	-5866
▁neatly	-5867
▁rocked	-5868
▁skills	-5869
▁longing	-5870
▁suspect	-5871
▁properly	-5872
▁imagination	-5873
▁sophisticated	-5874
eday	-5875
▁eggs	-5876
▁halt	-5877
▁drift	-5878
▁stool	-5879
▁hastily	-5880
▁someday	-5881
▁whirled	-5882
▁employee	-5883
▁moonlight	-5884
▁ras	-5885
▁mask	-5886
▁owen	-5887
haired	-5888
▁begun	-5889
▁metal	-5890
ressing	-5891
▁fareed	-5892
▁flames	-5893
▁giggle	-5894
▁jewelry	-5895
▁spectac	-5896
▁slightest	-5897
met	-5898
▁kh	-5899
▁bru	-5900
▁rue	-5901
▁dign	-5902
▁fake	-5903
▁inev	-5904
▁tatt	-5905
▁manip	-5906
▁swing	-5907
▁noting	-5908
▁somewhat	-5909
▁clutching	-5910
▁masculine	-5911
▁flir	-5912
anging	-5913
▁distr	-5914
▁rocco	-5915
▁suppl	-5916
▁brooke	-5917
▁guided	-5918
▁ragged	-5919
▁describe	-5920
▁separate	-5921
▁unbutton	-5922
▁connected	-5923
▁shattered	-5924
▁complicated	-5925
mie	-5926
elia	-5927
▁milk	-5928
▁fears	-5929
▁malik	-5930
▁obliv	-5931
▁former	-5932
▁repeat	-5933
▁defense	-5934
▁sidewalk	-5935
▁footsteps	-5936
▁reminding	-5937
▁traveling	-5938
ha	-5939
▁viv	-5940
▁wary	-5941
▁flirt	-5942
▁kylie	-5943
▁mission	-5944
▁lys	-5945
▁mild	-5946
▁cance	-5947
▁knuck	-5948
▁tease	-5949
▁gazing	-5950
▁sucking	-5951
▁directed	-5952
▁reassuring	-5953
▁tenderness	-5954
▁humiliation	-5955
den	-5956
may	-5957
▁hem	-5958
▁sons	-5959
▁tips	-5960
▁vide	-5961
▁grave	-5962
▁title	-5963
▁dammit	-5964
▁saving	-5965
astically	-5966
mist	-5967
icted	-5968
impse	-5969
▁lick	-5970
▁twin	-5971
▁sadly	-5972
▁glimpse	-5973
▁swollen	-5974
▁dragging	-5975
▁messages	-5976
lene	-5977
▁slap	-5978
▁unre	-5979
▁appet	-5980
▁brenna	-5981
▁calmly	-5982
▁daniela	-5983
▁general	-5984
▁numbers	-5985
▁shoving	-5986
eyed	-5987
mering	-5988
orting	-5989
▁hector	-5990
▁luxury	-5991
▁closest	-5992
▁bay	-5993
▁jon	-5994
▁fond	-5995
▁fulf	-5996
▁hill	-5997
▁neare	-5998
▁remote	-5999
▁america	-6000
▁utterly	-6001
▁lifetime	-6002
▁reasonable	-6003
ado	-6004
▁mere	-6005
▁vent	-6006
▁desig	-6007
▁winced	-6008
attering	-6009
▁inhaled	-6010
▁sympathy	-6011
▁evidently	-6012
▁preparing	-6013
▁distraction	-6014
osure	-6015
▁dogs	-6016
▁bills	-6017
▁reven	-6018
▁maintain	-6019
▁emergency	-6020
▁overwhelmed	-6021
▁conce	-6022
▁kalil	-6023
ication	-6024
▁flared	-6025
▁carriage	-6026
▁deepened	-6027
▁discover	-6028
wor	-6029
▁gym	-6030
awned	-6031
▁sorab	-6032
▁spite	-6033
▁victim	-6034
▁waking	-6035
▁arguing	-6036
▁farther	-6037
▁sinking	-6038
▁fourteen	-6039
▁occupied	-6040
▁genuinely	-6041
xed	-6042
etch	-6043
ista	-6044
▁asia	-6045
▁debt	-6046
▁educ	-6047
▁fund	-6048
▁climb	-6049
▁scramb	-6050
▁target	-6051
ignation	-6052
▁endless	-6053
▁reacted	-6054
▁singing	-6055
▁discussing	-6056
▁protective	-6057
ooq	-6058
und	-6059
sell	-6060
▁bon	-6061
▁prior	-6062
▁farooq	-6063
▁frozen	-6064
▁inward	-6065
▁refuse	-6066
▁stands	-6067
▁existed	-6068
▁doorbell	-6069
▁mattress	-6070
▁spreading	-6071
tle	-6072
tur	-6073
was	-6074
fits	-6075
ived	-6076
arded	-6077
▁knocking	-6078
▁furiously	-6079
▁literally	-6080
then	-6081
▁lun	-6082
lying	-6083
otion	-6084
▁flush	-6085
▁hopped	-6086
▁review	-6087
▁frantic	-6088
▁pleaded	-6089
▁sensations	-6090
cle	-6091
▁sem	-6092
ontro	-6093
▁jobs	-6094
▁lush	-6095
aching	-6096
acking	-6097
▁accus	-6098
▁pizza	-6099
▁shell	-6100
retched	-6101
▁insult	-6102
▁loaded	-6103
▁winning	-6104
▁compared	-6105
▁solution	-6106
▁basically	-6107
▁intentions	-6108
▁babe	-6109
▁mock	-6110
▁gover	-6111
▁elabor	-6112
▁lounge	-6113
▁sipped	-6114
▁voices	-6115
▁tempted	-6116
ius	-6117
taking	-6118
▁cruel	-6119
▁sports	-6120
▁status	-6121
▁avoided	-6122
▁crashed	-6123
▁prepare	-6124
▁require	-6125
▁admiring	-6126
▁claymore	-6127
iqu	-6128
lin	-6129
▁aly	-6130
▁lin	-6131
▁grey	-6132
▁dryly	-6133
▁fence	-6134
▁castle	-6135
▁spirit	-6136
▁drained	-6137
▁healthy	-6138
▁contempt	-6139
▁collapsed	-6140
▁personality	-6141
ai	-6142
▁mes	-6143
▁oil	-6144
gment	-6145
xture	-6146
▁horiz	-6147
▁juice	-6148
▁tells	-6149
▁kirsty	-6150
▁surged	-6151
▁tattoo	-6152
▁thumbs	-6153
▁letters	-6154
▁extended	-6155
▁gleaming	-6156
▁lysander	-6157
oci	-6158
with	-6159
uther	-6160
▁bart	-6161
▁pout	-6162
oubted	-6163
▁dared	-6164
▁cracked	-6165
▁affected	-6166
▁language	-6167
▁pleading	-6168
▁dismissed	-6169
▁challenged	-6170
▁civ	-6171
atory	-6172
▁dang	-6173
▁lazy	-6174
▁shim	-6175
▁trad	-6176
▁scare	-6177
▁skill	-6178
▁trash	-6179
▁wyatt	-6180
▁liking	-6181
▁states	-6182
▁counted	-6183
▁results	-6184
▁russell	-6185
▁clinging	-6186
your	-6187
▁rot	-6188
▁laura	-6189
▁bikini	-6190
▁cowboy	-6191
▁devour	-6192
▁sevent	-6193
▁descended	-6194
urd	-6195
▁dawn	-6196
▁smug	-6197
▁files	-6198
oubtedly	-6199
quet	-6200
rous	-6201
▁flu	-6202
umble	-6203
▁holy	-6204
▁knot	-6205
▁frank	-6206
▁explos	-6207
▁floors	-6208
▁jimmie	-6209
▁pinned	-6210
▁comments	-6211
▁darkened	-6212
▁designed	-6213
▁mathison	-6214
▁currently	-6215
osing	-6216
▁pony	-6217
ologet	-6218
▁associ	-6219
▁brandy	-6220
▁conced	-6221
▁sherbr	-6222
▁benefit	-6223
▁consequ	-6224
▁crushed	-6225
▁scowled	-6226
▁believing	-6227
▁impressive	-6228
▁pra	-6229
▁cruz	-6230
▁inex	-6231
▁laun	-6232
▁vine	-6233
▁blunt	-6234
▁dazed	-6235
▁motor	-6236
▁sales	-6237
▁adjust	-6238
▁escort	-6239
▁heaved	-6240
▁proved	-6241
▁crystal	-6242
▁matched	-6243
▁strained	-6244
▁sparkling	-6245
▁intelligent	-6246
nah	-6247
aken	-6248
▁dip	-6249
▁nin	-6250
▁hero	-6251
▁slim	-6252
▁salon	-6253
▁zipper	-6254
▁drawled	-6255
▁softness	-6256
▁undoubtedly	-6257
sal	-6258
aston	-6259
epend	-6260
mered	-6261
▁rate	-6262
▁boxes	-6263
▁impul	-6264
▁uneasy	-6265
▁electra	-6266
▁hugging	-6267
▁tangled	-6268
▁fascination	-6269
ageo	-6270
inge	-6271
▁pus	-6272
amber	-6273
▁reck	-6274
▁whist	-6275
▁fantas	-6276
▁tensed	-6277
▁glowing	-6278
▁showered	-6279
▁possibilities	-6280
ata	-6281
ggy	-6282
▁rais	-6283
▁sier	-6284
▁barry	-6285
▁meals	-6286
▁admire	-6287
▁commun	-6288
▁gaston	-6289
▁function	-6290
▁included	-6291
▁finishing	-6292
berry	-6293
▁bend	-6294
▁tend	-6295
▁haven	-6296
▁twink	-6297
▁absurd	-6298
▁tugging	-6299
▁designer	-6300
▁contained	-6301
eral	-6302
▁unkn	-6303
▁wren	-6304
▁aloud	-6305
▁cursed	-6306
▁endure	-6307
▁tanned	-6308
▁warmed	-6309
▁journey	-6310
▁percent	-6311
▁servant	-6312
▁sixteen	-6313
▁challenging	-6314
▁spectacular	-6315
▁occasionally	-6316
bal	-6317
▁tug	-6318
esome	-6319
▁dram	-6320
▁lion	-6321
▁lump	-6322
▁tina	-6323
▁unus	-6324
▁based	-6325
▁trous	-6326
▁mennah	-6327
▁savage	-6328
▁shield	-6329
▁sierra	-6330
▁admired	-6331
▁clicked	-6332
▁backward	-6333
▁independ	-6334
▁original	-6335
▁sweeping	-6336
▁weakness	-6337
▁curiously	-6338
▁documents	-6339
▁exception	-6340
sa	-6341
▁inn	-6342
▁tant	-6343
parent	-6344
▁painted	-6345
▁section	-6346
▁stretch	-6347
▁glorious	-6348
▁lingering	-6349
▁telephone	-6350
▁instructed	-6351
▁combination	-6352
▁haz	-6353
agers	-6354
antee	-6355
▁wise	-6356
▁austr	-6357
▁stops	-6358
▁zageo	-6359
▁feather	-6360
▁regarded	-6361
▁abandoned	-6362
▁annoyance	-6363
▁gentlemen	-6364
▁guarantee	-6365
▁perfection	-6366
isc	-6367
aker	-6368
▁pic	-6369
elled	-6370
gance	-6371
▁claw	-6372
▁arousal	-6373
▁aroused	-6374
▁deliver	-6375
▁slumped	-6376
▁ordinary	-6377
▁admiration	-6378
ari	-6379
len	-6380
erik	-6381
▁suc	-6382
thorne	-6383
▁dates	-6384
▁malek	-6385
▁sacri	-6386
▁hyster	-6387
▁thrill	-6388
▁inherit	-6389
▁strateg	-6390
▁succeed	-6391
▁version	-6392
▁lipstick	-6393
▁suggestion	-6394
▁ta	-6395
▁dow	-6396
▁tact	-6397
▁chill	-6398
▁keeps	-6399
▁nicki	-6400
▁urged	-6401
▁myster	-6402
▁bedside	-6403
▁derrick	-6404
▁exquisite	-6405
▁afterwards	-6406
▁increasing	-6407
hu	-6408
▁awe	-6409
ooled	-6410
▁chef	-6411
▁flex	-6412
▁rings	-6413
▁stack	-6414
▁corpor	-6415
▁starts	-6416
▁anytime	-6417
▁reaches	-6418
▁scooped	-6419
▁absently	-6420
▁slamming	-6421
▁hawthorne	-6422
▁scheduled	-6423
hab	-6424
ien	-6425
riger	-6426
▁tack	-6427
assion	-6428
▁stead	-6429
▁decent	-6430
▁feared	-6431
▁wrists	-6432
▁captain	-6433
▁accompan	-6434
▁acquaint	-6435
▁internet	-6436
▁refriger	-6437
▁sensible	-6438
▁tempting	-6439
▁ourselves	-6440
▁commitment	-6441
aks	-6442
aze	-6443
omet	-6444
▁boo	-6445
▁jan	-6446
child	-6447
▁bust	-6448
▁jolt	-6449
▁stan	-6450
agging	-6451
▁horizon	-6452
▁marched	-6453
▁mixture	-6454
▁revenge	-6455
▁knuckles	-6456
▁swinging	-6457
▁potential	-6458
▁permission	-6459
▁ing	-6460
▁wil	-6461
ucing	-6462
icated	-6463
▁exerc	-6464
▁prevent	-6465
▁reports	-6466
▁questioning	-6467
▁construction	-6468
they	-6469
▁bor	-6470
▁sob	-6471
▁unst	-6472
ounded	-6473
▁serve	-6474
▁spill	-6475
▁wiping	-6476
▁chances	-6477
▁hostess	-6478
▁precise	-6479
▁noticing	-6480
▁companies	-6481
▁squeezing	-6482
▁accomplish	-6483
▁resistance	-6484
▁stretching	-6485
good	-6486
ites	-6487
▁bid	-6488
▁lake	-6489
▁andrew	-6490
▁create	-6491
▁absence	-6492
▁clamped	-6493
▁initial	-6494
▁polished	-6495
▁patiently	-6496
dge	-6497
esy	-6498
lect	-6499
pers	-6500
▁nape	-6501
▁assure	-6502
▁clouds	-6503
▁cooper	-6504
▁mesmer	-6505
▁reward	-6506
▁sleeve	-6507
▁clasped	-6508
▁denying	-6509
▁elderly	-6510
▁package	-6511
▁routine	-6512
▁creating	-6513
▁entering	-6514
▁minister	-6515
▁sherbrooke	-6516
bre	-6517
▁hood	-6518
▁kitt	-6519
▁rear	-6520
▁booth	-6521
▁opera	-6522
▁steal	-6523
▁defend	-6524
▁france	-6525
▁cleaned	-6526
▁accommod	-6527
▁escorted	-6528
▁continuing	-6529
add	-6530
zzy	-6531
▁ba	-6532
uffed	-6533
▁film	-6534
atives	-6535
▁chain	-6536
▁moder	-6537
▁kicking	-6538
▁worries	-6539
▁twisting	-6540
▁rejection	-6541
▁desperation	-6542
▁impatiently	-6543
▁bomb	-6544
▁erik	-6545
▁bunch	-6546
▁entry	-6547
▁holly	-6548
▁candle	-6549
▁houses	-6550
▁bargain	-6551
▁highway	-6552
▁pathetic	-6553
▁chuckling	-6554
▁controlled	-6555
▁refrigerator	-6556
oop	-6557
rup	-6558
asty	-6559
unte	-6560
wart	-6561
▁jem	-6562
eding	-6563
iable	-6564
▁forb	-6565
▁kall	-6566
ission	-6567
▁mommy	-6568
▁shaft	-6569
▁article	-6570
▁backing	-6571
▁cabinet	-6572
▁choices	-6573
▁explode	-6574
▁killing	-6575
▁volunte	-6576
▁hopeless	-6577
▁kallista	-6578
▁snuggled	-6579
▁fluttered	-6580
▁scattered	-6581
▁conclusion	-6582
lor	-6583
▁tun	-6584
which	-6585
▁aris	-6586
▁inse	-6587
▁rand	-6588
▁rule	-6589
▁wipe	-6590
ifying	-6591
▁sleepy	-6592
▁audience	-6593
▁instincts	-6594
top	-6595
iating	-6596
▁cheap	-6597
▁cloth	-6598
▁drank	-6599
▁shiny	-6600
▁carmen	-6601
▁complex	-6602
▁gasping	-6603
▁betrayal	-6604
▁climbing	-6605
▁commented	-6606
▁impatient	-6607
▁directions	-6608
mn	-6609
robe	-6610
▁eve	-6611
▁jay	-6612
▁nest	-6613
▁irres	-6614
▁shone	-6615
▁purple	-6616
▁cheerful	-6617
▁imagining	-6618
▁activities	-6619
▁cautiously	-6620
ipe	-6621
▁obe	-6622
chief	-6623
▁span	-6624
▁maddy	-6625
▁mused	-6626
▁spraw	-6627
▁clinic	-6628
▁switch	-6629
▁uncons	-6630
▁recover	-6631
▁assuming	-6632
▁fascinating	-6633
two	-6634
wed	-6635
▁alec	-6636
▁code	-6637
▁unif	-6638
▁coast	-6639
▁shore	-6640
▁erotic	-6641
▁measure	-6642
▁packing	-6643
▁smother	-6644
▁tasting	-6645
▁curtains	-6646
▁flirting	-6647
▁indicating	-6648
▁anticipated	-6649
▁beautifully	-6650
▁arrangements	-6651
nie	-6652
foot	-6653
▁gau	-6654
▁limo	-6655
▁amelia	-6656
▁brings	-6657
▁napkin	-6658
▁subtle	-6659
▁convinc	-6660
▁madelyn	-6661
▁retorted	-6662
▁specific	-6663
▁visiting	-6664
▁decorated	-6665
▁disgusted	-6666
▁explaining	-6667
▁acknowledged	-6668
ats	-6669
yers	-6670
▁tid	-6671
armed	-6672
▁twir	-6673
raging	-6674
▁huffed	-6675
▁sought	-6676
▁colored	-6677
▁disappro	-6678
▁prompted	-6679
▁struggle	-6680
▁intending	-6681
▁luxurious	-6682
▁president	-6683
▁releasing	-6684
▁swallowing	-6685
▁appreciated	-6686
▁announcement	-6687
long	-6688
▁emp	-6689
▁mmm	-6690
▁liar	-6691
▁ross	-6692
▁sple	-6693
▁recom	-6694
▁studio	-6695
▁stilled	-6696
▁apologet	-6697
▁official	-6698
▁encourage	-6699
▁executive	-6700
▁photograp	-6701
▁questioned	-6702
▁mob	-6703
lings	-6704
▁cult	-6705
▁perf	-6706
▁leigh	-6707
▁soren	-6708
▁veget	-6709
colored	-6710
▁swayed	-6711
▁judging	-6712
▁merrick	-6713
▁exchange	-6714
▁grumbled	-6715
▁suspicion	-6716
agan	-6717
mend	-6718
▁net	-6719
▁corn	-6720
▁flav	-6721
▁paced	-6722
▁scary	-6723
▁stagg	-6724
▁fairly	-6725
▁goddam	-6726
▁hooked	-6727
▁laughs	-6728
▁stores	-6729
ifically	-6730
uttering	-6731
▁lachlan	-6732
▁product	-6733
▁disaster	-6734
▁hesitate	-6735
▁hundreds	-6736
▁reminder	-6737
▁afterward	-6738
▁encounter	-6739
▁francesco	-6740
pre	-6741
iant	-6742
▁cord	-6743
▁drug	-6744
▁sche	-6745
▁beast	-6746
▁crept	-6747
▁rodri	-6748
▁wryly	-6749
ciously	-6750
▁tracks	-6751
▁cupping	-6752
▁licking	-6753
▁pattern	-6754
▁romance	-6755
▁shivers	-6756
▁betrayed	-6757
▁twitched	-6758
illa	-6759
▁aim	-6760
▁navy	-6761
▁quir	-6762
▁term	-6763
▁holds	-6764
▁shows	-6765
▁begins	-6766
▁potato	-6767
▁rescue	-6768
▁alright	-6769
▁forming	-6770
▁handled	-6771
▁kristen	-6772
▁thanked	-6773
▁grandson	-6774
▁lighting	-6775
▁remaining	-6776
▁enthusiasm	-6777
▁relationships	-6778
▁jos	-6779
inity	-6780
▁barb	-6781
▁areas	-6782
▁blink	-6783
▁chase	-6784
▁growl	-6785
▁gruff	-6786
▁novel	-6787
▁bodygu	-6788
▁string	-6789
▁bearing	-6790
▁melting	-6791
▁inwardly	-6792
▁judgment	-6793
▁starving	-6794
▁influence	-6795
▁separated	-6796
▁strangely	-6797
eg	-6798
his	-6799
▁ti	-6800
anor	-6801
ilet	-6802
iron	-6803
▁lav	-6804
▁stam	-6805
▁virt	-6806
▁chaos	-6807
▁claud	-6808
▁greed	-6809
because	-6810
▁arrest	-6811
▁martin	-6812
▁contest	-6813
▁joining	-6814
▁rocking	-6815
▁spilling	-6816
▁surveyed	-6817
▁glittering	-6818
▁specifically	-6819
bag	-6820
nde	-6821
▁gw	-6822
belie	-6823
ddled	-6824
▁greg	-6825
▁luce	-6826
▁ribs	-6827
▁shel	-6828
anting	-6829
▁ellen	-6830
▁prick	-6831
hearted	-6832
ustered	-6833
▁flatly	-6834
▁modern	-6835
▁overhe	-6836
▁playboy	-6837
▁concentrated	-6838
oke	-6839
ceive	-6840
▁aver	-6841
▁kent	-6842
▁trap	-6843
▁coward	-6844
▁cringed	-6845
▁nearest	-6846
▁romanov	-6847
▁stormed	-6848
▁claudette	-6849
▁gratitude	-6850
▁lovemaking	-6851
veled	-6852
▁gwen	-6853
▁mane	-6854
▁site	-6855
▁lacey	-6856
▁newly	-6857
▁radio	-6858
▁steam	-6859
▁denied	-6860
▁ducked	-6861
▁louder	-6862
▁flowing	-6863
▁foreign	-6864
▁puzzled	-6865
▁sniffed	-6866
▁visited	-6867
▁distinct	-6868
▁overhead	-6869
▁presented	-6870
▁irritating	-6871
▁terrifying	-6872
▁performance	-6873
made	-6874
▁las	-6875
▁wri	-6876
itary	-6877
ology	-6878
▁mick	-6879
▁insul	-6880
▁walks	-6881
▁bachel	-6882
▁grimly	-6883
▁solemn	-6884
▁splend	-6885
▁grounds	-6886
▁holiday	-6887
▁director	-6888
▁knightly	-6889
▁services	-6890
▁signific	-6891
▁celebrate	-6892
rer	-6893
hens	-6894
when	-6895
sized	-6896
▁jane	-6897
▁vast	-6898
▁crown	-6899
▁drops	-6900
▁jesus	-6901
▁lucia	-6902
▁sarah	-6903
▁usher	-6904
▁hating	-6905
▁prompt	-6906
▁raging	-6907
▁awesome	-6908
▁lessons	-6909
▁planted	-6910
▁possession	-6911
nam	-6912
omy	-6913
▁fi	-6914
away	-6915
▁mcl	-6916
▁sin	-6917
alley	-6918
uming	-6919
▁bord	-6920
▁cara	-6921
▁fier	-6922
▁stol	-6923
▁enemy	-6924
▁infur	-6925
istered	-6926
▁bewild	-6927
▁defeat	-6928
▁detect	-6929
▁dollar	-6930
▁praying	-6931
▁identity	-6932
▁exploring	-6933
aun	-6934
appy	-6935
▁tap	-6936
▁cave	-6937
▁sees	-6938
▁folds	-6939
▁picnic	-6940
▁equally	-6941
▁erupted	-6942
▁perched	-6943
▁profile	-6944
▁rodrigo	-6945
▁trained	-6946
▁arriving	-6947
▁location	-6948
▁authority	-6949
▁existence	-6950
▁reluctant	-6951
▁treatment	-6952
▁surprisingly	-6953
ros	-6954
pleas	-6955
▁soup	-6956
▁dried	-6957
▁gleam	-6958
▁opens	-6959
▁sweep	-6960
▁video	-6961
▁expand	-6962
▁barring	-6963
▁curling	-6964
▁pausing	-6965
▁tenderly	-6966
▁unlocked	-6967
▁elaborate	-6968
▁convincing	-6969
▁neighborhood	-6970
gas	-6971
▁cyn	-6972
▁ego	-6973
▁gabe	-6974
▁shed	-6975
▁snar	-6976
▁nause	-6977
▁strip	-6978
▁beamed	-6979
▁naught	-6980
▁worthy	-6981
▁ecstasy	-6982
▁blushing	-6983
▁oblivious	-6984
▁tentatively	-6985
ts	-6986
anny	-6987
hest	-6988
riff	-6989
uffy	-6990
▁army	-6991
▁brid	-6992
▁tank	-6993
ancing	-6994
▁false	-6995
▁scowl	-6996
conscious	-6997
▁contents	-6998
▁stealing	-6999
▁supplies	-7000
▁possessed	-7001
ils	-7002
ales	-7003
zens	-7004
ishly	-7005
▁bond	-7006
▁taxi	-7007
headed	-7008
▁civil	-7009
▁crush	-7010
▁kelly	-7011
▁actual	-7012
▁dialed	-7013
▁folder	-7014
▁dignity	-7015
▁resolve	-7016
▁sleeves	-7017
▁ultimate	-7018
▁confessed	-7019
▁shivering	-7020
▁concentration	-7021
cast	-7022
▁sale	-7023
▁demon	-7024
▁lemon	-7025
▁dozens	-7026
▁stolen	-7027
▁sympat	-7028
▁blowing	-7029
▁couples	-7030
▁floating	-7031
▁steering	-7032
▁trousers	-7033
zzle	-7034
▁ded	-7035
▁naz	-7036
▁suv	-7037
▁flor	-7038
▁mixed	-7039
▁sheep	-7040
aration	-7041
covered	-7042
▁camila	-7043
▁doubts	-7044
▁lovers	-7045
▁repres	-7046
▁candles	-7047
▁panting	-7048
▁plunged	-7049
▁rapidly	-7050
ification	-7051
▁crashing	-7052
▁training	-7053
▁thrusting	-7054
▁inevitable	-7055
▁whispering	-7056
pir	-7057
▁sib	-7058
▁coax	-7059
▁curb	-7060
irable	-7061
▁italy	-7062
▁revel	-7063
▁colour	-7064
▁messed	-7065
▁neighb	-7066
▁confirm	-7067
▁honesty	-7068
▁lawyers	-7069
▁mclachlan	-7070
▁additional	-7071
▁breathtaking	-7072
stri	-7073
▁los	-7074
▁mas	-7075
▁brun	-7076
▁choo	-7077
rences	-7078
▁amaze	-7079
▁crash	-7080
▁guide	-7081
▁psych	-7082
▁flooded	-7083
▁gardens	-7084
▁railing	-7085
▁skipped	-7086
▁employer	-7087
▁highness	-7088
▁promises	-7089
▁adventure	-7090
▁momentarily	-7091
▁congratulations	-7092
▁sty	-7093
ctors	-7094
▁cozy	-7095
▁load	-7096
▁nuts	-7097
▁rein	-7098
▁abdom	-7099
▁grind	-7100
▁sorts	-7101
▁stove	-7102
▁pounds	-7103
▁roared	-7104
▁toilet	-7105
▁handful	-7106
▁happier	-7107
▁replace	-7108
▁fielding	-7109
▁recalled	-7110
▁rejected	-7111
▁ruthless	-7112
▁customers	-7113
▁generally	-7114
▁initially	-7115
▁suffering	-7116
▁thousands	-7117
▁willingly	-7118
▁differently	-7119
▁appreciation	-7120
▁consequences	-7121
▁mug	-7122
aries	-7123
▁shri	-7124
ainted	-7125
lights	-7126
▁click	-7127
▁scand	-7128
▁trial	-7129
glasses	-7130
▁monster	-7131
▁counting	-7132
▁hardness	-7133
▁misunder	-7134
▁et	-7135
eter	-7136
▁ger	-7137
▁gho	-7138
comed	-7139
▁atop	-7140
▁amber	-7141
▁swore	-7142
▁bucket	-7143
▁scarce	-7144
▁despair	-7145
▁parting	-7146
▁screwed	-7147
▁shallow	-7148
▁spirits	-7149
▁tremble	-7150
▁yelling	-7151
▁incident	-7152
▁lingered	-7153
▁transfer	-7154
▁vanished	-7155
▁awareness	-7156
▁clenching	-7157
▁education	-7158
▁permanent	-7159
▁welcoming	-7160
▁accomplished	-7161
ums	-7162
▁nep	-7163
ennis	-7164
▁cups	-7165
▁mile	-7166
▁weap	-7167
vement	-7168
▁edges	-7169
▁slick	-7170
▁vegas	-7171
▁corrid	-7172
▁fridge	-7173
▁nudged	-7174
▁wallet	-7175
▁callagan	-7176
▁register	-7177
▁strangers	-7178
char	-7179
▁toe	-7180
▁dict	-7181
▁obst	-7182
▁naive	-7183
▁nazar	-7184
▁fourth	-7185
▁poison	-7186
▁safely	-7187
▁seized	-7188
▁taller	-7189
▁kittens	-7190
▁strokes	-7191
▁dripping	-7192
▁sticking	-7193
▁described	-7194
▁reflected	-7195
ino	-7196
erve	-7197
gers	-7198
hern	-7199
▁bou	-7200
orney	-7201
▁agony	-7202
▁labor	-7203
▁medic	-7204
▁rever	-7205
▁wider	-7206
▁degree	-7207
▁desert	-7208
▁forest	-7209
▁wishes	-7210
▁actress	-7211
▁blazing	-7212
▁cousins	-7213
▁exagger	-7214
▁fitting	-7215
▁gallery	-7216
▁nibbled	-7217
▁unknown	-7218
▁attorney	-7219
▁consumed	-7220
▁contrast	-7221
▁welcomed	-7222
▁destroyed	-7223
▁practical	-7224
▁unwilling	-7225
▁encouraging	-7226
mate	-7227
▁dor	-7228
▁gin	-7229
bbled	-7230
▁anth	-7231
▁dazz	-7232
▁flag	-7233
▁warn	-7234
formed	-7235
▁overl	-7236
▁serge	-7237
▁shove	-7238
▁wives	-7239
versity	-7240
▁consci	-7241
▁emerged	-7242
▁funeral	-7243
▁upright	-7244
▁urgency	-7245
▁mountains	-7246
▁seventeen	-7247
iana	-7248
tery	-7249
▁ade	-7250
▁phr	-7251
▁muse	-7252
▁ramp	-7253
▁dealt	-7254
▁hazel	-7255
▁poked	-7256
▁shark	-7257
▁spoon	-7258
▁betroth	-7259
▁patrick	-7260
▁shudder	-7261
▁sipping	-7262
▁adorable	-7263
▁students	-7264
▁committed	-7265
▁immediate	-7266
▁protecting	-7267
▁temptation	-7268
▁competition	-7269
ok	-7270
▁bury	-7271
thirty	-7272
▁cliff	-7273
▁creep	-7274
▁sheik	-7275
itching	-7276
▁remove	-7277
▁lucinda	-7278
▁manners	-7279
▁popular	-7280
▁quality	-7281
▁absorbed	-7282
▁sideways	-7283
▁buildings	-7284
▁protested	-7285
▁recovered	-7286
▁therefore	-7287
▁barrington	-7288
▁comforting	-7289
hip	-7290
iar	-7291
thy	-7292
▁mc	-7293
some	-7294
▁rav	-7295
▁tee	-7296
▁owed	-7297
▁runs	-7298
▁sobs	-7299
▁groin	-7300
▁nasty	-7301
▁bodice	-7302
▁dowager	-7303
▁laurent	-7304
▁activity	-7305
▁dreaming	-7306
cr	-7307
▁clo	-7308
▁wre	-7309
▁meat	-7310
▁ming	-7311
▁seve	-7312
▁sped	-7313
▁disag	-7314
▁pilot	-7315
▁flowed	-7316
▁warily	-7317
▁bathing	-7318
▁demands	-7319
▁lurched	-7320
▁smirked	-7321
▁offended	-7322
▁innocence	-7323
▁relatively	-7324
▁sunglasses	-7325
rey	-7326
ril	-7327
inte	-7328
▁oven	-7329
ceived	-7330
ounced	-7331
▁fever	-7332
▁intru	-7333
▁pages	-7334
▁shuff	-7335
▁stung	-7336
▁villa	-7337
▁overly	-7338
▁stance	-7339
▁stuart	-7340
▁bracing	-7341
▁charged	-7342
▁doctors	-7343
▁proudly	-7344
▁distress	-7345
▁sparkled	-7346
▁stocking	-7347
▁thirteen	-7348
▁emphatically	-7349
▁surroundings	-7350
ivity	-7351
▁beau	-7352
▁idly	-7353
▁rust	-7354
▁stee	-7355
believ	-7356
elling	-7357
▁gloss	-7358
▁jemma	-7359
▁leapt	-7360
▁veron	-7361
amiliar	-7362
▁burden	-7363
▁penetr	-7364
▁seduce	-7365
▁territ	-7366
▁enterpr	-7367
▁exhilar	-7368
▁granted	-7369
▁violent	-7370
▁lowering	-7371
▁teenager	-7372
▁startling	-7373
▁resignation	-7374
▁uncertainty	-7375
did	-7376
gen	-7377
fall	-7378
▁atm	-7379
▁ess	-7380
erted	-7381
▁bout	-7382
▁dull	-7383
othing	-7384
umpled	-7385
▁angle	-7386
▁slipp	-7387
▁woken	-7388
osphere	-7389
▁ankles	-7390
▁belief	-7391
▁convul	-7392
▁abdomen	-7393
▁amusing	-7394
▁anybody	-7395
▁footman	-7396
▁grimace	-7397
▁muffled	-7398
▁motioned	-7399
▁suitable	-7400
▁intensely	-7401
▁paintings	-7402
▁scrambled	-7403
▁compassion	-7404
who	-7405
orous	-7406
▁clam	-7407
▁crou	-7408
▁impr	-7409
▁mall	-7410
▁tiss	-7411
▁yach	-7412
▁avery	-7413
▁mandy	-7414
itively	-7415
▁column	-7416
▁cooked	-7417
▁sardon	-7418
▁source	-7419
▁strike	-7420
▁upward	-7421
▁cheated	-7422
▁dresser	-7423
▁selling	-7424
▁spoiled	-7425
▁touches	-7426
▁panicked	-7427
▁intrigued	-7428
▁ada	-7429
lined	-7430
▁calc	-7431
▁hass	-7432
▁loan	-7433
▁mini	-7434
▁spur	-7435
▁vehe	-7436
▁piled	-7437
▁govern	-7438
▁lasted	-7439
▁retrie	-7440
▁sorrow	-7441
▁beaming	-7442
▁destroy	-7443
▁glances	-7444
▁serving	-7445
▁vaguely	-7446
▁combined	-7447
▁partners	-7448
▁ponytail	-7449
▁reassure	-7450
▁flickered	-7451
▁protected	-7452
▁grandchild	-7453
▁emotionally	-7454
▁receptionist	-7455
sey	-7456
acon	-7457
rant	-7458
appro	-7459
ordin	-7460
▁boot	-7461
▁flip	-7462
▁impe	-7463
▁sang	-7464
▁undo	-7465
▁franc	-7466
▁smirk	-7467
▁mathes	-7468
▁strict	-7469
▁wasted	-7470
▁offices	-7471
▁student	-7472
▁diamonds	-7473
▁headache	-7474
▁hovering	-7475
▁stripped	-7476
▁reporters	-7477
▁helplessly	-7478
▁hyp	-7479
▁kay	-7480
▁ped	-7481
rings	-7482
▁assh	-7483
▁leap	-7484
▁lycc	-7485
akable	-7486
▁crisp	-7487
ounting	-7488
▁nephew	-7489
▁prayed	-7490
▁supper	-7491
▁anthony	-7492
▁failure	-7493
▁soothed	-7494
▁tighten	-7495
▁furrowed	-7496
▁striking	-7497
▁trusting	-7498
▁exclusive	-7499
▁encouraged	-7500
▁exhaustion	-7501
▁washington	-7502
▁description	-7503
▁exasperation	-7504
ka	-7505
rop	-7506
cery	-7507
faced	-7508
ooling	-7509
▁fairy	-7510
▁greek	-7511
▁homes	-7512
▁kings	-7513
▁scree	-7514
▁reserv	-7515
▁soothe	-7516
▁walter	-7517
▁comprom	-7518
▁environ	-7519
▁grasped	-7520
▁sandals	-7521
▁corridor	-7522
▁mistakes	-7523
▁reporter	-7524
▁tingling	-7525
▁betrothal	-7526
▁exchanged	-7527
▁registered	-7528
▁speechless	-7529
▁photographer	-7530
itty	-7531
acher	-7532
three	-7533
▁glim	-7534
▁sixt	-7535
▁gates	-7536
▁hurts	-7537
▁notion	-7538
▁bounced	-7539
▁cameras	-7540
▁fragile	-7541
▁miracle	-7542
▁rattled	-7543
▁smacked	-7544
▁stables	-7545
▁overcome	-7546
▁community	-7547
▁everybody	-7548
▁regretted	-7549
▁whimpered	-7550
▁responding	-7551
hur	-7552
sham	-7553
▁chau	-7554
▁deme	-7555
▁didn	-7556
▁mirr	-7557
▁scri	-7558
▁wool	-7559
▁acute	-7560
▁crawl	-7561
▁cries	-7562
▁danny	-7563
▁shrie	-7564
▁swell	-7565
onsense	-7566
▁oldest	-7567
▁suited	-7568
▁ticket	-7569
▁duville	-7570
▁feeding	-7571
▁grocery	-7572
▁haunted	-7573
▁located	-7574
▁sensing	-7575
▁drowning	-7576
▁atmosphere	-7577
▁conscience	-7578
▁suspicious	-7579
▁temperature	-7580
othy	-7581
shot	-7582
umin	-7583
▁upd	-7584
somet	-7585
▁gran	-7586
▁omin	-7587
▁soap	-7588
▁accur	-7589
▁brace	-7590
▁frequ	-7591
▁fitted	-7592
▁foster	-7593
▁humming	-7594
▁unusual	-7595
▁delivery	-7596
▁intently	-7597
▁somebody	-7598
▁trailing	-7599
▁amazement	-7600
▁correctly	-7601
ef	-7602
ays	-7603
occ	-7604
agon	-7605
ables	-7606
flies	-7607
poken	-7608
▁lame	-7609
▁peek	-7610
▁vows	-7611
ursday	-7612
▁basis	-7613
▁etern	-7614
▁recent	-7615
▁rumors	-7616
▁sacrif	-7617
▁inspect	-7618
▁loyalty	-7619
▁wiggled	-7620
▁flinched	-7621
▁matthews	-7622
▁strongly	-7623
▁thursday	-7624
▁intimidating	-7625
arms	-7626
fact	-7627
ware	-7628
olded	-7629
uries	-7630
▁mant	-7631
asions	-7632
istent	-7633
▁ankle	-7634
▁depos	-7635
▁elana	-7636
▁estab	-7637
▁sleek	-7638
▁spoil	-7639
▁youth	-7640
▁clever	-7641
▁depend	-7642
▁gloves	-7643
▁blocked	-7644
▁dharran	-7645
▁swelled	-7646
▁annoying	-7647
▁blocking	-7648
▁courtesy	-7649
▁particip	-7650
▁shutting	-7651
▁whispers	-7652
▁lightning	-7653
▁environment	-7654
▁va	-7655
blue	-7656
ural	-7657
▁ast	-7658
ggage	-7659
▁curly	-7660
▁curse	-7661
▁indif	-7662
▁outdo	-7663
▁phill	-7664
▁treas	-7665
▁value	-7666
▁hollow	-7667
▁tantal	-7668
▁aggress	-7669
▁designs	-7670
▁luggage	-7671
▁privile	-7672
▁sarcasm	-7673
▁tapping	-7674
▁useless	-7675
▁visible	-7676
▁freezing	-7677
▁shouting	-7678
▁unbeliev	-7679
▁withdrew	-7680
▁appealing	-7681
▁attending	-7682
▁flustered	-7683
▁promising	-7684
▁indication	-7685
rees	-7686
cient	-7687
▁arab	-7688
▁flaw	-7689
▁noon	-7690
▁peak	-7691
▁spat	-7692
athing	-7693
▁apple	-7694
▁scoff	-7695
▁slice	-7696
▁coldly	-7697
▁mutual	-7698
▁rights	-7699
▁selene	-7700
standing	-7701
▁thrusts	-7702
▁crushing	-7703
▁exercise	-7704
▁focusing	-7705
▁proposed	-7706
▁restless	-7707
▁indicated	-7708
▁proceeded	-7709
▁intimidated	-7710
fire	-7711
▁rip	-7712
loved	-7713
▁brut	-7714
▁ribb	-7715
▁brick	-7716
▁conqu	-7717
▁ellis	-7718
▁chewed	-7719
▁darted	-7720
▁eyeing	-7721
▁fortun	-7722
▁philip	-7723
▁straps	-7724
▁surger	-7725
▁brunette	-7726
▁irresist	-7727
▁siblings	-7728
▁apologetic	-7729
▁positioned	-7730
▁exasperated	-7731
vor	-7732
enth	-7733
resh	-7734
▁cig	-7735
▁toy	-7736
▁sout	-7737
▁buddy	-7738
▁fling	-7739
▁gaped	-7740
▁hills	-7741
▁linen	-7742
▁route	-7743
▁smoke	-7744
▁snort	-7745
▁uncon	-7746
▁earned	-7747
▁provoc	-7748
▁applied	-7749
▁blindly	-7750
▁bottles	-7751
▁pinched	-7752
▁receiver	-7753
▁scarcely	-7754
▁shocking	-7755
▁striding	-7756
▁teaching	-7757
▁australia	-7758
▁christina	-7759
▁completed	-7760
▁alternative	-7761
▁approaching	-7762
▁nervousness	-7763
▁overlooking	-7764
ati	-7765
oon	-7766
rib	-7767
cily	-7768
istr	-7769
▁beha	-7770
▁bore	-7771
▁gang	-7772
▁jean	-7773
▁glist	-7774
▁framed	-7775
▁trevor	-7776
▁approve	-7777
▁complim	-7778
▁mischie	-7779
▁springs	-7780
▁wounded	-7781
▁bitterly	-7782
▁increase	-7783
▁reserved	-7784
▁wardrobe	-7785
▁magazines	-7786
▁occasions	-7787
▁paperwork	-7788
▁expressions	-7789
▁restaurants	-7790
tr	-7791
vant	-7792
▁awa	-7793
▁lam	-7794
aches	-7795
▁blat	-7796
▁mate	-7797
▁plas	-7798
▁seed	-7799
▁sizz	-7800
▁skip	-7801
▁illeg	-7802
▁toler	-7803
hension	-7804
▁artist	-7805
▁crimin	-7806
▁therap	-7807
▁abandon	-7808
▁ancient	-7809
▁desired	-7810
▁naughty	-7811
▁perfume	-7812
▁seeking	-7813
▁sweetly	-7814
▁uniform	-7815
▁hesitant	-7816
▁stirring	-7817
▁suffered	-7818
▁elevators	-7819
▁streaming	-7820
▁mischievous	-7821
alf	-7822
car	-7823
even	-7824
ians	-7825
▁tag	-7826
occup	-7827
▁fest	-7828
▁josh	-7829
▁nail	-7830
▁valet	-7831
▁curtly	-7832
▁mocked	-7833
▁sanity	-7834
▁chasing	-7835
▁floated	-7836
▁sheriff	-7837
▁typical	-7838
▁concerns	-7839
▁pictured	-7840
▁rational	-7841
▁wrinkled	-7842
▁regarding	-7843
▁resentment	-7844
isk	-7845
shit	-7846
ummy	-7847
▁cul	-7848
▁hou	-7849
acity	-7850
bones	-7851
▁lass	-7852
▁rive	-7853
▁scor	-7854
▁shoe	-7855
▁birds	-7856
▁scott	-7857
▁boxers	-7858
▁budget	-7859
▁peeked	-7860
▁sergei	-7861
▁smells	-7862
▁urging	-7863
▁accused	-7864
▁houston	-7865
▁hunting	-7866
▁receive	-7867
▁sailing	-7868
▁tucking	-7869
▁attended	-7870
▁demonstr	-7871
▁tailored	-7872
▁departure	-7873
▁forgetting	-7874
▁mysterious	-7875
▁positively	-7876
▁shuddering	-7877
▁confrontation	-7878
▁ut	-7879
anda	-7880
▁ceo	-7881
▁shr	-7882
ician	-7883
▁lamp	-7884
▁lanc	-7885
▁wing	-7886
itated	-7887
▁equal	-7888
▁facts	-7889
▁oddly	-7890
▁raked	-7891
▁revol	-7892
▁exited	-7893
▁hearts	-7894
▁jessie	-7895
▁owners	-7896
▁portra	-7897
▁caution	-7898
▁freshly	-7899
▁sternly	-7900
▁cushions	-7901
▁loosened	-7902
▁accompany	-7903
▁waistband	-7904
▁destination	-7905
▁intelligence	-7906
lle	-7907
itar	-7908
▁ber	-7909
renal	-7910
▁aust	-7911
imming	-7912
ington	-7913
▁analy	-7914
▁lifts	-7915
▁ounce	-7916
▁behave	-7917
▁carved	-7918
▁dawned	-7919
▁shaken	-7920
▁sliced	-7921
▁stradd	-7922
▁strand	-7923
▁suffer	-7924
▁adrenal	-7925
▁confron	-7926
▁flutter	-7927
▁adjusted	-7928
▁bedrooms	-7929
▁blinking	-7930
▁enticing	-7931
▁snapping	-7932
▁composure	-7933
▁smoothing	-7934
mar	-7935
▁ol	-7936
iped	-7937
hurst	-7938
▁horm	-7939
▁cares	-7940
▁gowns	-7941
▁range	-7942
▁trigg	-7943
aunting	-7944
theless	-7945
▁aspect	-7946
▁critic	-7947
▁series	-7948
▁unique	-7949
▁earnest	-7950
▁immense	-7951
▁tumbled	-7952
▁defeated	-7953
▁amazingly	-7954
▁awkwardly	-7955
▁briefcase	-7956
▁precisely	-7957
▁impatience	-7958
nal	-7959
iful	-7960
▁bol	-7961
▁heal	-7962
▁outs	-7963
▁jimmy	-7964
parents	-7965
▁attent	-7966
▁sobbed	-7967
▁anguish	-7968
▁clapped	-7969
▁crooked	-7970
▁officer	-7971
▁senator	-7972
▁alexander	-7973
▁fantasies	-7974
▁interests	-7975
▁overnight	-7976
▁possessive	-7977
▁university	-7978
ody	-7979
pph	-7980
outs	-7981
▁cage	-7982
▁harb	-7983
▁roar	-7984
▁fiery	-7985
▁grunt	-7986
▁intox	-7987
▁ivory	-7988
▁logic	-7989
▁porce	-7990
▁rocks	-7991
▁rolls	-7992
▁sapph	-7993
▁yacht	-7994
▁crawled	-7995
▁ushered	-7996
▁victory	-7997
▁admitting	-7998
▁anxiously	-7999
▁lancaster	-8000
▁miserably	-8001
▁respected	-8002
▁outrageous	-8003
▁unfamiliar	-8004
▁nevertheless	-8005
nat	-8006
izzy	-8007
▁oak	-8008
amble	-8009
asted	-8010
cloth	-8011
▁awak	-8012
▁kath	-8013
▁toys	-8014
▁davis	-8015
▁divor	-8016
▁jerry	-8017
▁limbs	-8018
▁sighs	-8019
▁craved	-8020
▁gained	-8021
▁hauled	-8022
▁pained	-8023
▁curtain	-8024
▁muscled	-8025
▁replies	-8026
▁strides	-8027
▁creative	-8028
▁inquired	-8029
▁secretly	-8030
ca	-8031
gra	-8032
▁ga	-8033
while	-8034
▁mold	-8035
▁maneu	-8036
▁shots	-8037
▁sworn	-8038
▁tuxed	-8039
▁shehab	-8040
▁heaving	-8041
▁scratch	-8042
▁choosing	-8043
▁earrings	-8044
▁treating	-8045
▁twinkling	-8046
piece	-8047
▁bolt	-8048
▁dall	-8049
▁eman	-8050
▁pitch	-8051
▁texas	-8052
▁cruise	-8053
▁resemb	-8054
▁cradled	-8055
▁example	-8056
▁quarter	-8057
▁whimper	-8058
▁addition	-8059
▁chatting	-8060
▁desirable	-8061
▁purchased	-8062
▁originally	-8063
lit	-8064
arin	-8065
iser	-8066
ovan	-8067
thal	-8068
▁les	-8069
▁map	-8070
▁tay	-8071
leine	-8072
▁bump	-8073
▁drum	-8074
▁gamb	-8075
▁pist	-8076
▁pron	-8077
▁rene	-8078
▁scul	-8079
▁swam	-8080
anches	-8081
▁equip	-8082
▁insec	-8083
▁knelt	-8084
pective	-8085
▁linked	-8086
▁magnet	-8087
▁envelop	-8088
▁grunted	-8089
▁harshly	-8090
▁neighbors	-8091
▁witnessed	-8092
▁accompanied	-8093
▁enterprises	-8094
▁concentrating	-8095
iano	-8096
cting	-8097
eared	-8098
▁jail	-8099
▁nods	-8100
▁ambul	-8101
▁sauce	-8102
▁player	-8103
▁taylor	-8104
▁choking	-8105
▁donovan	-8106
▁skimmed	-8107
▁bachelor	-8108
▁emphasis	-8109
▁swirling	-8110
▁plastered	-8111
▁punishment	-8112
▁satisfying	-8113
▁accidentally	-8114
had	-8115
ocr	-8116
ssa	-8117
▁bi	-8118
free	-8119
plic	-8120
▁reb	-8121
▁east	-8122
▁harr	-8123
▁insp	-8124
▁rack	-8125
▁seam	-8126
▁clasp	-8127
▁manic	-8128
▁fisted	-8129
▁nicely	-8130
▁plants	-8131
▁sylvia	-8132
▁gleamed	-8133
▁outcome	-8134
▁stifled	-8135
▁document	-8136
▁stockton	-8137
▁arguments	-8138
▁madeleine	-8139
▁delightful	-8140
▁foundation	-8141
▁grandparents	-8142
rog	-8143
eped	-8144
iate	-8145
eight	-8146
▁jeep	-8147
▁loft	-8148
▁irony	-8149
▁uneas	-8150
▁booked	-8151
▁dashed	-8152
▁discon	-8153
▁dissol	-8154
▁killer	-8155
▁mobile	-8156
▁retire	-8157
▁conserv	-8158
▁goddamn	-8159
▁granite	-8160
▁greater	-8161
▁satisfy	-8162
▁surgery	-8163
▁sweetie	-8164
▁testing	-8165
▁backyard	-8166
▁thankful	-8167
▁equipment	-8168
▁acceptance	-8169
▁unbuttoned	-8170
▁incredulous	-8171
jo	-8172
▁cub	-8173
▁glen	-8174
▁nurs	-8175
▁rehe	-8176
▁salv	-8177
▁todd	-8178
ggling	-8179
nesday	-8180
▁adopt	-8181
▁backs	-8182
▁bloom	-8183
▁jacob	-8184
▁minim	-8185
▁outst	-8186
▁sting	-8187
▁alyssa	-8188
▁barrier	-8189
▁contrad	-8190
▁cushion	-8191
▁deserted	-8192
▁graceful	-8193
▁uncontro	-8194
▁vineyard	-8195
▁betrothed	-8196
▁requested	-8197
▁acceptable	-8198
▁management	-8199
▁mesmerized	-8200
▁nightstand	-8201
▁frightening	-8202
▁suspiciously	-8203
chal	-8204
▁rat	-8205
ordon	-8206
▁anna	-8207
▁bald	-8208
▁saun	-8209
uously	-8210
▁bacon	-8211
▁bland	-8212
▁goose	-8213
▁compre	-8214
▁pacing	-8215
▁pursue	-8216
▁refres	-8217
▁tingle	-8218
▁beloved	-8219
▁element	-8220
▁bleeding	-8221
▁colorado	-8222
▁greatest	-8223
▁purchase	-8224
▁discarded	-8225
▁confession	-8226
▁perspective	-8227
▁irresistible	-8228
▁consciousness	-8229
da	-8230
xy	-8231
ties	-8232
uits	-8233
▁dub	-8234
▁unz	-8235
▁bang	-8236
▁fans	-8237
▁haul	-8238
▁meth	-8239
▁mode	-8240
erving	-8241
▁ginny	-8242
▁stray	-8243
▁vivid	-8244
▁fooled	-8245
▁hatred	-8246
▁kitten	-8247
▁luther	-8248
▁saddle	-8249
▁tremor	-8250
▁hopeful	-8251
▁zachary	-8252
▁dramatic	-8253
▁inclined	-8254
▁medicine	-8255
▁preoccup	-8256
▁territory	-8257
▁inheritance	-8258
▁outstretched	-8259
irl	-8260
enced	-8261
rella	-8262
▁beds	-8263
▁disd	-8264
▁dock	-8265
▁dove	-8266
▁econ	-8267
▁husk	-8268
▁pose	-8269
filled	-8270
ooping	-8271
▁limit	-8272
▁smith	-8273
▁wings	-8274
▁bubble	-8275
▁bullet	-8276
daughter	-8277
▁burying	-8278
▁nursery	-8279
▁peering	-8280
▁playful	-8281
▁strands	-8282
something	-8283
▁southern	-8284
▁defensive	-8285
▁household	-8286
▁wednesday	-8287
▁adrenaline	-8288
▁cheerfully	-8289
▁convenient	-8290
▁butterflies	-8291
▁celebration	-8292
▁devastating	-8293
▁sympathetic	-8294
▁interrupting	-8295
oph	-8296
chair	-8297
erity	-8298
▁bund	-8299
▁huss	-8300
▁rows	-8301
▁finds	-8302
▁fount	-8303
▁genie	-8304
▁ghost	-8305
▁agenda	-8306
▁method	-8307
▁resour	-8308
▁rueful	-8309
▁arching	-8310
▁blankly	-8311
▁custody	-8312
▁handbag	-8313
▁monitor	-8314
▁reeling	-8315
▁vicious	-8316
▁appetite	-8317
▁bursting	-8318
▁mistaken	-8319
▁piercing	-8320
▁projects	-8321
▁withdraw	-8322
▁sweetness	-8323
ye	-8324
uel	-8325
essa	-8326
▁gal	-8327
urely	-8328
▁maur	-8329
▁sits	-8330
▁april	-8331
▁gifts	-8332
▁knots	-8333
▁solic	-8334
▁steph	-8335
▁tooth	-8336
▁wrath	-8337
▁agency	-8338
▁signal	-8339
▁stride	-8340
▁ticked	-8341
▁achieve	-8342
▁massage	-8343
▁blankets	-8344
▁football	-8345
▁groaning	-8346
▁managing	-8347
▁observed	-8348
▁resisted	-8349
▁resolved	-8350
▁displayed	-8351
▁straightening	-8352
bar	-8353
anut	-8354
▁mex	-8355
inger	-8356
▁bert	-8357
▁cass	-8358
▁clad	-8359
▁lane	-8360
▁plant	-8361
▁puppy	-8362
▁torso	-8363
▁whitt	-8364
▁carson	-8365
▁exotic	-8366
▁gallop	-8367
▁gordon	-8368
▁lifest	-8369
▁peanut	-8370
▁skirts	-8371
▁valley	-8372
▁warmly	-8373
aughters	-8374
▁cynical	-8375
▁stabbed	-8376
▁accounts	-8377
▁conceded	-8378
▁criminal	-8379
▁giggling	-8380
▁nibbling	-8381
▁bodyguard	-8382
▁discomfort	-8383
▁humiliating	-8384
wr	-8385
nel	-8386
bone	-8387
▁pry	-8388
▁tut	-8389
after	-8390
asive	-8391
▁pole	-8392
▁rasp	-8393
▁admon	-8394
▁liber	-8395
▁maria	-8396
▁prize	-8397
▁whirl	-8398
▁adults	-8399
▁empire	-8400
▁kindly	-8401
▁paraly	-8402
▁tuxedo	-8403
▁appears	-8404
▁guiding	-8405
▁logical	-8406
▁sobbing	-8407
▁stiffly	-8408
▁tracing	-8409
▁demeanor	-8410
▁squirmed	-8411
▁strategy	-8412
▁ambulance	-8413
▁uncontroll	-8414
▁consideration	-8415
sl	-8416
wing	-8417
▁alt	-8418
▁fus	-8419
▁rab	-8420
▁umm	-8421
▁aure	-8422
▁stim	-8423
length	-8424
mitted	-8425
▁chann	-8426
▁crime	-8427
▁flown	-8428
▁freak	-8429
▁shyly	-8430
▁hesham	-8431
▁hussan	-8432
▁termin	-8433
▁transl	-8434
▁chauffe	-8435
▁evident	-8436
▁fulfill	-8437
▁inappro	-8438
▁injured	-8439
▁propose	-8440
▁roughly	-8441
▁scraped	-8442
▁tipping	-8443
▁northrup	-8444
▁peaceful	-8445
▁virginia	-8446
▁daughters	-8447
▁lifestyle	-8448
▁accusation	-8449
▁astonished	-8450
▁deliberate	-8451
▁hesitantly	-8452
▁suppressed	-8453
ev	-8454
cor	-8455
ris	-8456
ddle	-8457
▁ame	-8458
▁ham	-8459
▁sly	-8460
atter	-8461
burst	-8462
▁ench	-8463
▁spit	-8464
▁tops	-8465
arming	-8466
giving	-8467
▁aback	-8468
▁angie	-8469
▁brisk	-8470
▁brist	-8471
▁ideal	-8472
▁momma	-8473
▁solve	-8474
▁elimin	-8475
▁longed	-8476
▁slides	-8477
▁strain	-8478
▁cameron	-8479
▁invaded	-8480
▁nonchal	-8481
▁seduction	-8482
▁shrugging	-8483
▁violently	-8484
▁suggesting	-8485
eh	-8486
six	-8487
ouch	-8488
ester	-8489
▁arik	-8490
▁odds	-8491
▁tipt	-8492
▁agent	-8493
▁bedch	-8494
▁jokes	-8495
▁recon	-8496
▁shine	-8497
▁sixty	-8498
▁strap	-8499
icating	-8500
▁chimed	-8501
▁pushes	-8502
▁shades	-8503
▁shirts	-8504
▁timing	-8505
▁archite	-8506
▁belated	-8507
▁bouquet	-8508
▁capture	-8509
▁disdain	-8510
▁accusing	-8511
▁acquired	-8512
▁flipping	-8513
▁industry	-8514
▁military	-8515
▁sexually	-8516
▁squealed	-8517
▁admission	-8518
▁persisted	-8519
▁reactions	-8520
▁wandering	-8521
▁disturbing	-8522
▁thoughtfully	-8523
ryn	-8524
moil	-8525
going	-8526
▁alan	-8527
▁bars	-8528
▁dash	-8529
▁limp	-8530
▁plot	-8531
▁writ	-8532
usions	-8533
▁cases	-8534
▁dizzy	-8535
▁leans	-8536
▁maxim	-8537
▁messy	-8538
▁skept	-8539
▁sketch	-8540
▁temple	-8541
▁advised	-8542
▁confess	-8543
▁hovered	-8544
▁kathryn	-8545
▁outfits	-8546
▁turmoil	-8547
▁attempts	-8548
▁meantime	-8549
▁negative	-8550
▁selected	-8551
▁sprawled	-8552
▁certainty	-8553
▁recommend	-8554
quar	-8555
▁gaw	-8556
▁pam	-8557
green	-8558
▁dece	-8559
▁glam	-8560
▁sunk	-8561
▁grins	-8562
▁handy	-8563
▁madly	-8564
▁mercy	-8565
▁minds	-8566
▁mirth	-8567
▁motel	-8568
ictable	-8569
▁blocks	-8570
▁brides	-8571
▁genius	-8572
▁landsc	-8573
▁rugged	-8574
▁excused	-8575
▁impulse	-8576
▁locking	-8577
▁luckily	-8578
▁related	-8579
▁scandal	-8580
▁swirled	-8581
▁uttered	-8582
▁bullshit	-8583
▁cheating	-8584
▁cocktail	-8585
▁removing	-8586
▁sensuous	-8587
▁yearning	-8588
▁arrogance	-8589
▁conviction	-8590
▁encouragement	-8591
zes	-8592
bles	-8593
hope	-8594
▁cue	-8595
▁sco	-8596
▁thu	-8597
▁wan	-8598
sided	-8599
▁lacy	-8600
▁shor	-8601
outhed	-8602
▁blown	-8603
▁elise	-8604
▁rapid	-8605
▁score	-8606
▁scrap	-8607
▁trade	-8608
▁cancel	-8609
▁powder	-8610
▁shakes	-8611
▁charise	-8612
▁jerking	-8613
▁magical	-8614
▁scoffed	-8615
▁steered	-8616
▁swaying	-8617
▁unhappy	-8618
▁churning	-8619
▁millions	-8620
▁quarters	-8621
▁shrieked	-8622
▁tropical	-8623
▁violence	-8624
▁insurance	-8625
▁signature	-8626
▁stockings	-8627
▁surprises	-8628
▁fluttering	-8629
▁sarcastically	-8630
bi	-8631
fly	-8632
mont	-8633
oked	-8634
oman	-8635
town	-8636
▁goo	-8637
▁ire	-8638
▁lic	-8639
▁agon	-8640
▁lets	-8641
▁mush	-8642
▁sinc	-8643
▁noble	-8644
▁barked	-8645
▁fluffy	-8646
▁halted	-8647
▁ironic	-8648
▁multip	-8649
▁openly	-8650
▁thalia	-8651
▁united	-8652
▁weakly	-8653
▁casting	-8654
▁curving	-8655
▁excuses	-8656
▁eyelids	-8657
▁fingern	-8658
▁fishing	-8659
▁montana	-8660
▁motorcy	-8661
▁rehears	-8662
▁whiskey	-8663
▁promptly	-8664
▁sometime	-8665
▁attempted	-8666
▁excitedly	-8667
▁quivering	-8668
▁sacrifice	-8669
▁government	-8670
▁contemplated	-8671
gy	-8672
ita	-8673
lad	-8674
omes	-8675
uate	-8676
▁dil	-8677
▁nad	-8678
ender	-8679
matic	-8680
▁brus	-8681
▁cler	-8682
▁lave	-8683
earing	-8684
▁minor	-8685
▁plush	-8686
▁shelf	-8687
▁shops	-8688
▁swive	-8689
▁creamy	-8690
▁levels	-8691
▁pencil	-8692
▁skinny	-8693
together	-8694
▁nestled	-8695
▁shelter	-8696
▁arrested	-8697
▁bouncing	-8698
▁circling	-8699
▁downward	-8700
▁handling	-8701
▁youngest	-8702
▁corporate	-8703
▁insistent	-8704
▁relentless	-8705
▁electricity	-8706
ode	-8707
ram	-8708
▁lid	-8709
▁spi	-8710
▁sue	-8711
icomb	-8712
▁cafe	-8713
▁dism	-8714
▁obsc	-8715
▁tune	-8716
▁veil	-8717
▁babys	-8718
▁bells	-8719
▁cheat	-8720
▁cough	-8721
▁mound	-8722
▁overt	-8723
▁safer	-8724
▁breaks	-8725
▁clench	-8726
▁guitar	-8727
▁upside	-8728
▁affairs	-8729
▁clipped	-8730
▁dorothy	-8731
▁redhead	-8732
▁tourist	-8733
▁reckless	-8734
▁weekends	-8735
▁brightened	-8736
▁humiliated	-8737
▁whitticomb	-8738
chan	-8739
izes	-8740
kins	-8741
mind	-8742
▁yel	-8743
leton	-8744
▁ages	-8745
▁elle	-8746
▁fled	-8747
▁sire	-8748
▁whoa	-8749
▁ellie	-8750
▁locks	-8751
▁smack	-8752
▁venge	-8753
▁weigh	-8754
▁darlin	-8755
▁jolted	-8756
▁tended	-8757
▁costume	-8758
▁include	-8759
▁mascara	-8760
▁attacked	-8761
▁extraord	-8762
▁kneeling	-8763
▁neckline	-8764
▁intimately	-8765
ario	-8766
▁bic	-8767
▁bry	-8768
▁que	-8769
▁casc	-8770
▁cleo	-8771
▁clip	-8772
▁walt	-8773
▁campa	-8774
▁conve	-8775
▁depri	-8776
▁exhib	-8777
▁grade	-8778
▁marve	-8779
▁moans	-8780
▁sober	-8781
racelli	-8782
ustomed	-8783
▁dallas	-8784
▁online	-8785
▁alarmed	-8786
▁asshole	-8787
▁chemist	-8788
▁desires	-8789
▁expense	-8790
▁haymore	-8791
▁colorful	-8792
▁widening	-8793
▁relatives	-8794
▁cheekbones	-8795
▁vegetables	-8796
▁photographs	-8797
▁wonderfully	-8798
▁expectations	-8799
box	-8800
enc	-8801
xim	-8802
isha	-8803
orse	-8804
zzed	-8805
▁dab	-8806
▁dot	-8807
▁mim	-8808
▁plo	-8809
anter	-8810
athed	-8811
celer	-8812
ehren	-8813
eries	-8814
issol	-8815
▁dorm	-8816
▁glee	-8817
▁pang	-8818
▁pupp	-8819
▁salt	-8820
▁unin	-8821
▁aimed	-8822
▁emory	-8823
▁grove	-8824
▁tests	-8825
renched	-8826
▁cecily	-8827
▁dispos	-8828
▁freeze	-8829
▁ladder	-8830
▁regain	-8831
▁soaked	-8832
▁townse	-8833
▁welled	-8834
▁acceler	-8835
▁quirked	-8836
▁shakily	-8837
▁stephan	-8838
▁strings	-8839
▁tickled	-8840
▁cautious	-8841
▁hurrying	-8842
▁potatoes	-8843
ano	-8844
ops	-8845
llar	-8846
look	-8847
sive	-8848
▁fid	-8849
▁paj	-8850
▁rit	-8851
▁vig	-8852
▁brit	-8853
▁gulp	-8854
▁kidn	-8855
▁leis	-8856
▁link	-8857
▁sham	-8858
aneous	-8859
idents	-8860
please	-8861
▁byron	-8862
▁escal	-8863
▁gazes	-8864
▁scrut	-8865
▁taunt	-8866
▁behalf	-8867
▁brutal	-8868
▁nurses	-8869
▁pistol	-8870
▁rebell	-8871
aneously	-8872
▁craving	-8873
▁pumping	-8874
ehrenthal	-8875
▁physique	-8876
▁vehement	-8877
▁veronica	-8878
▁butterfly	-8879
▁flattered	-8880
▁shattering	-8881
▁independent	-8882
aa	-8883
byn	-8884
lom	-8885
upt	-8886
▁ai	-8887
wels	-8888
▁err	-8889
retti	-8890
water	-8891
▁dude	-8892
ignant	-8893
resses	-8894
ulsion	-8895
▁gentl	-8896
▁helps	-8897
▁kayla	-8898
▁robyn	-8899
▁sandy	-8900
▁trips	-8901
▁undid	-8902
▁union	-8903
▁buzzed	-8904
▁denial	-8905
▁diplom	-8906
▁futile	-8907
▁mildly	-8908
▁theirs	-8909
▁advance	-8910
▁dipping	-8911
▁folding	-8912
▁visibly	-8913
▁workers	-8914
▁boarding	-8915
▁disagree	-8916
▁fountain	-8917
▁kindness	-8918
▁matheson	-8919
▁steaming	-8920
▁chauffeur	-8921
▁chemistry	-8922
▁explosion	-8923
▁partially	-8924
▁seemingly	-8925
▁attracelli	-8926
▁significant	-8927
▁breathlessly	-8928
now	-8929
asms	-8930
suit	-8931
▁jun	-8932
▁mah	-8933
iches	-8934
ipher	-8935
▁beth	-8936
▁guts	-8937
▁haze	-8938
▁jell	-8939
▁rebe	-8940
▁thud	-8941
▁wist	-8942
▁gasps	-8943
▁jonas	-8944
▁nadia	-8945
▁niece	-8946
▁unpre	-8947
▁austin	-8948
▁chores	-8949
▁discre	-8950
▁hassan	-8951
▁hotels	-8952
▁stroll	-8953
▁suffoc	-8954
▁becomes	-8955
▁captive	-8956
▁chissol	-8957
▁motives	-8958
▁peeking	-8959
▁probing	-8960
▁scooted	-8961
▁creeping	-8962
▁relative	-8963
▁scotland	-8964
▁unspoken	-8965
▁sincerity	-8966
▁gratefully	-8967
▁disappearing	-8968
gown	-8969
▁fol	-8970
▁orn	-8971
▁encl	-8972
▁izzy	-8973
▁mour	-8974
ension	-8975
igible	-8976
▁chips	-8977
▁diner	-8978
▁marie	-8979
▁pasta	-8980
▁savor	-8981
▁sunny	-8982
▁lyccan	-8983
▁museum	-8984
▁purred	-8985
▁tennis	-8986
▁texted	-8987
▁amongst	-8988
▁bubbles	-8989
▁buzzing	-8990
▁limited	-8991
▁winding	-8992
▁dangling	-8993
▁deserves	-8994
▁divorced	-8995
▁husbands	-8996
▁superior	-8997
▁survived	-8998
▁blackmail	-8999
▁efficient	-9000
▁stammered	-9001
▁strangled	-9002
▁strawberry	-9003
▁recognition	-9004
ero	-9005
voc	-9006
azzi	-9007
dged	-9008
face	-9009
have	-9010
uffs	-9011
ories	-9012
▁copy	-9013
▁fidd	-9014
▁hunt	-9015
▁mare	-9016
▁neut	-9017
▁orph	-9018
▁ties	-9019
gantly	-9020
strils	-9021
terior	-9022
▁bicep	-9023
▁bloss	-9024
▁costs	-9025
▁dimly	-9026
▁falls	-9027
▁nanny	-9028
▁plung	-9029
▁spots	-9030
▁terse	-9031
fashion	-9032
▁calend	-9033
▁league	-9034
▁modest	-9035
▁ramsey	-9036
▁salary	-9037
▁scheme	-9038
▁weapon	-9039
▁gliding	-9040
▁hitched	-9041
▁shelves	-9042
▁stomped	-9043
▁tickets	-9044
▁upwards	-9045
▁vanessa	-9046
▁weeping	-9047
▁chissolm	-9048
▁drifting	-9049
▁flooding	-9050
▁forearms	-9051
▁hormones	-9052
▁nostrils	-9053
▁splendid	-9054
▁squinted	-9055
▁eagerness	-9056
▁playfully	-9057
▁staggered	-9058
▁experiencing	-9059
ida	-9060
inor	-9061
lets	-9062
umes	-9063
will	-9064
▁gig	-9065
▁grie	-9066
▁guns	-9067
▁plea	-9068
▁tilt	-9069
▁quizz	-9070
▁slung	-9071
nothing	-9072
▁advert	-9073
▁darker	-9074
▁deadly	-9075
▁elinor	-9076
▁favour	-9077
▁grocer	-9078
▁infect	-9079
▁jewels	-9080
▁undone	-9081
▁moaning	-9082
▁popping	-9083
▁stewart	-9084
▁tilting	-9085
▁wasting	-9086
▁blessing	-9087
▁contrary	-9088
▁moisture	-9089
▁outburst	-9090
▁slapping	-9091
▁simmering	-9092
▁bedchamber	-9093
▁traditional	-9094
▁entertaining	-9095
▁extraordinary	-9096
▁inappropriate	-9097
▁international	-9098
aine	-9099
▁jen	-9100
▁lon	-9101
point	-9102
▁dive	-9103
▁ours	-9104
▁sets	-9105
▁socks	-9106
uations	-9107
▁assess	-9108
▁beaten	-9109
▁diving	-9110
▁indulg	-9111
▁layers	-9112
▁mechan	-9113
▁pursed	-9114
▁scotch	-9115
▁severe	-9116
▁wanton	-9117
ological	-9118
▁antique	-9119
▁flicker	-9120
▁grayson	-9121
▁ominous	-9122
▁vibrant	-9123
▁examined	-9124
▁hoarsely	-9125
▁nonsense	-9126
▁scenario	-9127
▁splashed	-9128
▁receiving	-9129
▁havenhurst	-9130
▁previously	-9131
▁connections	-9132
▁effectively	-9133
▁permanently	-9134
▁preoccupied	-9135
reg	-9136
bele	-9137
name	-9138
pack	-9139
quate	-9140
▁bike	-9141
▁brad	-9142
▁sere	-9143
▁choke	-9144
▁delay	-9145
▁glint	-9146
▁prime	-9147
▁splin	-9148
▁cybele	-9149
▁freely	-9150
▁gladly	-9151
▁observ	-9152
▁sagged	-9153
▁stares	-9154
▁talent	-9155
▁tissue	-9156
▁unmist	-9157
▁circled	-9158
▁disturb	-9159
▁francis	-9160
▁shorter	-9161
▁tingled	-9162
▁faltered	-9163
▁fraction	-9164
▁notebook	-9165
▁sapphire	-9166
▁stanhope	-9167
▁whirling	-9168
▁bartender	-9169
▁goodnight	-9170
▁groceries	-9171
▁restraint	-9172
▁complained	-9173
▁importance	-9174
▁dangerously	-9175
▁forgiveness	-9176
▁negotiations	-9177
▁vulnerability	-9178
pow	-9179
aves	-9180
gins	-9181
hour	-9182
neil	-9183
uire	-9184
▁bak	-9185
helle	-9186
▁data	-9187
▁seet	-9188
▁vice	-9189
arazzi	-9190
ithing	-9191
necess	-9192
▁invis	-9193
▁layer	-9194
▁louis	-9195
ounding	-9196
▁assign	-9197
▁chewie	-9198
▁limits	-9199
▁unbear	-9200
▁macneil	-9201
▁madness	-9202
▁maguire	-9203
▁payment	-9204
▁session	-9205
▁storage	-9206
▁dazzling	-9207
▁writhing	-9208
▁effective	-9209
▁functions	-9210
▁tentative	-9211
▁accustomed	-9212
▁newspapers	-9213
▁separating	-9214
▁uncomfortably	-9215
ett	-9216
het	-9217
anne	-9218
gage	-9219
icit	-9220
▁abd	-9221
▁apr	-9222
▁bum	-9223
▁cad	-9224
▁dee	-9225
anaan	-9226
front	-9227
idual	-9228
white	-9229
▁rope	-9230
▁seal	-9231
▁tale	-9232
rently	-9233
▁admin	-9234
▁apply	-9235
▁cling	-9236
▁flatt	-9237
▁pearl	-9238
▁punct	-9239
▁vital	-9240
▁bumped	-9241
▁compar	-9242
▁dissip	-9243
▁fuckin	-9244
▁fundra	-9245
▁phrase	-9246
▁sprang	-9247
▁kingdom	-9248
▁calendar	-9249
▁campaign	-9250
▁complain	-9251
▁resigned	-9252
▁scanning	-9253
▁scrubbed	-9254
▁glittered	-9255
▁paparazzi	-9256
▁smothered	-9257
▁bewildered	-9258
▁devastated	-9259
▁convenience	-9260
▁declaration	-9261
▁suggestions	-9262
chy	-9263
sor	-9264
amas	-9265
anch	-9266
wind	-9267
ampoo	-9268
▁duel	-9269
▁slut	-9270
▁stem	-9271
▁subd	-9272
▁sund	-9273
astein	-9274
▁flame	-9275
▁glued	-9276
▁micro	-9277
▁sword	-9278
▁tries	-9279
▁vowed	-9280
▁boston	-9281
▁donnie	-9282
▁hammer	-9283
▁leaped	-9284
▁puzzle	-9285
▁squirm	-9286
▁sweaty	-9287
▁compare	-9288
▁echoing	-9289
▁figures	-9290
▁martini	-9291
▁ripping	-9292
▁shampoo	-9293
▁sincere	-9294
▁theresa	-9295
▁tripped	-9296
▁eternity	-9297
▁visitors	-9298
▁organized	-9299
▁overheard	-9300
▁resources	-9301
▁sincerely	-9302
▁wakefield	-9303
▁motorcycle	-9304
▁overlooked	-9305
▁proposition	-9306
nox	-9307
▁eh	-9308
▁jab	-9309
arian	-9310
▁lena	-9311
▁lily	-9312
▁trau	-9313
▁frost	-9314
▁ninet	-9315
▁obnox	-9316
▁roddy	-9317
▁songs	-9318
▁cattle	-9319
▁easing	-9320
▁liquor	-9321
▁prayer	-9322
▁resume	-9323
ensively	-9324
▁adopted	-9325
▁profess	-9326
▁prolong	-9327
▁agreeing	-9328
▁branches	-9329
▁crouched	-9330
▁plunging	-9331
▁swelling	-9332
▁developed	-9333
▁pointedly	-9334
▁aehrenthal	-9335
▁assistance	-9336
▁expectantly	-9337
pro	-9338
hard	-9339
idra	-9340
rons	-9341
▁gid	-9342
▁lus	-9343
▁mau	-9344
athom	-9345
iques	-9346
itors	-9347
unken	-9348
▁envy	-9349
▁sult	-9350
lished	-9351
▁crest	-9352
▁hitch	-9353
▁irish	-9354
▁scorn	-9355
▁cancer	-9356
▁cookie	-9357
▁deidra	-9358
▁models	-9359
▁patron	-9360
▁stones	-9361
▁wander	-9362
kerchief	-9363
▁culture	-9364
▁huskily	-9365
▁illumin	-9366
▁insight	-9367
▁kastein	-9368
ointments	-9369
▁approved	-9370
▁cradling	-9371
▁doorstep	-9372
▁harrison	-9373
▁michelle	-9374
▁rewarded	-9375
▁sneaking	-9376
▁unnecess	-9377
▁straining	-9378
▁structure	-9379
▁conditions	-9380
▁delicately	-9381
▁disgusting	-9382
▁officially	-9383
▁businessman	-9384
▁distracting	-9385
▁anticipating	-9386
▁handkerchief	-9387
▁reservations	-9388
▁contemplating	-9389
ada	-9390
aid	-9391
zer	-9392
onda	-9393
vity	-9394
▁biz	-9395
lance	-9396
would	-9397
▁bush	-9398
▁ferv	-9399
▁reun	-9400
▁sant	-9401
riages	-9402
rossed	-9403
soever	-9404
▁farah	-9405
▁fifth	-9406
▁giddy	-9407
▁yards	-9408
▁yield	-9409
▁coolly	-9410
▁injury	-9411
▁leader	-9412
▁marked	-9413
▁random	-9414
▁concert	-9415
▁mothers	-9416
▁princip	-9417
▁outright	-9418
▁tourists	-9419
▁providing	-9420
▁apologized	-9421
▁whatsoever	-9422
▁reassurance	-9423
sm	-9424
nut	-9425
usal	-9426
ailed	-9427
woman	-9428
▁lege	-9429
▁whip	-9430
▁brass	-9431
▁brynn	-9432
▁candy	-9433
▁haste	-9434
▁incon	-9435
▁piano	-9436
▁realm	-9437
▁subst	-9438
▁vicar	-9439
▁adored	-9440
▁blamed	-9441
▁cooler	-9442
▁debbie	-9443
▁duties	-9444
▁facade	-9445
▁rhonda	-9446
▁stored	-9447
▁bluntly	-9448
▁blurred	-9449
▁drunken	-9450
▁stained	-9451
▁teenage	-9452
▁heartbre	-9453
▁langford	-9454
▁luscious	-9455
▁politics	-9456
▁uncaring	-9457
▁emptiness	-9458
▁inherited	-9459
▁aggressive	-9460
▁shimmering	-9461
▁tantalizing	-9462
▁acquaintances	-9463
belt	-9464
vent	-9465
ibble	-9466
▁colo	-9467
▁tiff	-9468
handed	-9469
ortion	-9470
▁alexa	-9471
▁cater	-9472
▁exper	-9473
▁fleet	-9474
▁optim	-9475
▁shred	-9476
▁spray	-9477
▁bakery	-9478
▁candid	-9479
▁khalil	-9480
▁monica	-9481
▁sparks	-9482
▁sunset	-9483
▁illegal	-9484
▁neutral	-9485
▁coursing	-9486
▁crumpled	-9487
▁exposing	-9488
▁grasping	-9489
▁ruefully	-9490
▁steadily	-9491
▁tortured	-9492
▁contribut	-9493
▁hollywood	-9494
▁invisible	-9495
▁represent	-9496
▁hysterical	-9497
▁investment	-9498
▁occasional	-9499
bot	-9500
umer	-9501
▁spy	-9502
dream	-9503
▁abby	-9504
▁andy	-9505
▁bind	-9506
▁cuts	-9507
▁duck	-9508
▁dump	-9509
▁fade	-9510
▁obed	-9511
▁russ	-9512
ciless	-9513
shaped	-9514
▁altar	-9515
▁basic	-9516
▁china	-9517
▁feast	-9518
▁hairs	-9519
▁indiv	-9520
▁print	-9521
▁quilt	-9522
▁bushes	-9523
▁campus	-9524
▁darkly	-9525
▁fixing	-9526
▁justin	-9527
▁offers	-9528
▁streak	-9529
▁twinge	-9530
▁visits	-9531
▁snarled	-9532
▁sparkle	-9533
▁baseball	-9534
▁critical	-9535
▁fastened	-9536
▁lassiter	-9537
▁wickedly	-9538
▁wriggled	-9539
▁deepening	-9540
▁merciless	-9541
▁practiced	-9542
▁exaggerated	-9543
▁intensified	-9544
▁unconscious	-9545
▁presentation	-9546
za	-9547
huh	-9548
arre	-9549
bits	-9550
seat	-9551
vard	-9552
▁ati	-9553
▁gay	-9554
leigh	-9555
▁deaf	-9556
▁dele	-9557
▁hawk	-9558
▁seek	-9559
▁stef	-9560
ptions	-9561
▁drama	-9562
▁fatig	-9563
▁floss	-9564
▁motiv	-9565
▁recip	-9566
▁attire	-9567
▁gulped	-9568
▁padded	-9569
▁sealed	-9570
▁unfair	-9571
▁classic	-9572
▁frankly	-9573
▁nursing	-9574
▁nuzzled	-9575
fashioned	-9576
▁discreet	-9577
▁expenses	-9578
▁injuries	-9579
▁reacting	-9580
▁reported	-9581
▁agitation	-9582
▁confusing	-9583
▁obsession	-9584
▁positions	-9585
▁technically	-9586
▁explanations	-9587
ns	-9588
apes	-9589
▁fem	-9590
▁obt	-9591
esday	-9592
every	-9593
▁beam	-9594
amping	-9595
mented	-9596
▁bleak	-9597
▁dynam	-9598
▁jelly	-9599
▁snake	-9600
▁verge	-9601
▁wrest	-9602
▁evelyn	-9603
▁plunge	-9604
▁bizarre	-9605
▁calming	-9606
▁century	-9607
▁conduct	-9608
▁pulsing	-9609
▁stacked	-9610
▁tuesday	-9611
▁variety	-9612
▁envision	-9613
▁produced	-9614
▁closeness	-9615
▁collected	-9616
▁physician	-9617
▁pointless	-9618
▁sauntered	-9619
▁succeeded	-9620
▁considerate	-9621
▁acquaintance	-9622
lee	-9623
oms	-9624
ups	-9625
bean	-9626
ggle	-9627
imer	-9628
▁ric	-9629
▁sum	-9630
▁knob	-9631
▁whoo	-9632
▁wobb	-9633
arring	-9634
iantly	-9635
ibbean	-9636
▁apron	-9637
▁drugs	-9638
▁flare	-9639
▁gross	-9640
▁steak	-9641
▁wager	-9642
istedes	-9643
▁absent	-9644
▁arabic	-9645
▁calmed	-9646
▁dagger	-9647
▁dismay	-9648
▁gaping	-9649
▁glazed	-9650
▁harass	-9651
▁nibble	-9652
▁petite	-9653
▁proven	-9654
▁rented	-9655
▁scenes	-9656
▁serene	-9657
▁steven	-9658
▁blasted	-9659
▁endured	-9660
▁failing	-9661
▁flossie	-9662
▁guarded	-9663
▁reinfor	-9664
▁sevarin	-9665
▁visitor	-9666
▁carolson	-9667
▁involunt	-9668
▁ordering	-9669
▁savagely	-9670
▁savoring	-9671
▁tumbling	-9672
▁belatedly	-9673
▁caribbean	-9674
▁disturbed	-9675
▁privately	-9676
▁standards	-9677
▁bitterness	-9678
▁complaining	-9679
▁fingernails	-9680
▁surrendered	-9681
▁appointments	-9682
▁astonishment	-9683
ilo	-9684
pret	-9685
rete	-9686
udge	-9687
ught	-9688
▁pig	-9689
bling	-9690
dened	-9691
inent	-9692
▁epis	-9693
▁hack	-9694
▁tong	-9695
▁cecil	-9696
▁crook	-9697
▁dimin	-9698
▁earlo	-9699
▁grabs	-9700
▁index	-9701
▁outer	-9702
▁prett	-9703
▁stark	-9704
▁ballet	-9705
▁blazed	-9706
▁buffet	-9707
▁delect	-9708
▁janaan	-9709
▁legend	-9710
▁pardon	-9711
▁senior	-9712
▁females	-9713
▁soaking	-9714
▁spanish	-9715
▁davidoff	-9716
▁eligible	-9717
▁hungrily	-9718
▁profound	-9719
▁realised	-9720
▁scowling	-9721
▁universe	-9722
▁alongside	-9723
▁aristedes	-9724
▁detective	-9725
▁gentleness	-9726
▁gracefully	-9727
list	-9728
▁ugh	-9729
atern	-9730
▁bits	-9731
▁fang	-9732
▁jets	-9733
▁pine	-9734
▁rosy	-9735
unning	-9736
▁aloof	-9737
▁delir	-9738
▁laced	-9739
▁reins	-9740
▁roads	-9741
▁ultim	-9742
▁nausea	-9743
▁newest	-9744
▁potent	-9745
▁pumped	-9746
▁waters	-9747
▁pierced	-9748
▁plopped	-9749
▁sexiest	-9750
▁squared	-9751
▁unpleas	-9752
▁alluring	-9753
▁concrete	-9754
▁creature	-9755
▁gritting	-9756
▁persuade	-9757
▁rippling	-9758
▁appearing	-9759
▁operation	-9760
▁tightness	-9761
▁refreshing	-9762
▁repeatedly	-9763
▁disapproval	-9764
▁passionately	-9765
mark	-9766
stru	-9767
uary	-9768
▁voc	-9769
icken	-9770
▁afgh	-9771
▁chip	-9772
▁craz	-9773
▁darn	-9774
▁murd	-9775
▁rail	-9776
▁scal	-9777
▁vlad	-9778
seeing	-9779
▁label	-9780
▁midst	-9781
▁scarf	-9782
uctions	-9783
▁branch	-9784
▁briefs	-9785
▁inquir	-9786
▁leslie	-9787
▁pepper	-9788
▁predic	-9789
▁rasped	-9790
▁sticky	-9791
▁acutely	-9792
▁adamant	-9793
▁angeles	-9794
▁callous	-9795
▁license	-9796
▁plucked	-9797
▁assigned	-9798
▁benefits	-9799
▁bridesma	-9800
▁escaping	-9801
▁freaking	-9802
▁launched	-9803
▁contacted	-9804
▁countless	-9805
▁deception	-9806
▁highlight	-9807
▁obnoxious	-9808
▁commanding	-9809
▁sandwiches	-9810
▁straighten	-9811
▁apprehension	-9812
▁grandchildren	-9813
ads	-9814
pher	-9815
▁web	-9816
power	-9817
▁emad	-9818
▁garn	-9819
▁hits	-9820
▁merc	-9821
▁nude	-9822
▁prem	-9823
▁reno	-9824
▁sauc	-9825
levant	-9826
minded	-9827
▁abuse	-9828
▁acres	-9829
▁billy	-9830
▁craig	-9831
▁disgu	-9832
▁laund	-9833
▁thong	-9834
▁whore	-9835
▁wreck	-9836
▁absorb	-9837
▁bounce	-9838
▁decade	-9839
▁fidget	-9840
▁flexed	-9841
▁mouths	-9842
▁server	-9843
▁auction	-9844
▁barbara	-9845
▁british	-9846
▁patting	-9847
▁printed	-9848
▁appalled	-9849
▁opinions	-9850
▁sardonic	-9851
▁treacher	-9852
▁urgently	-9853
▁wretched	-9854
▁discovery	-9855
▁political	-9856
▁reference	-9857
▁businesses	-9858
▁collection	-9859
▁delectable	-9860
▁individual	-9861
▁triumphant	-9862
too	-9863
vag	-9864
▁kev	-9865
▁umb	-9866
acles	-9867
▁cane	-9868
▁tide	-9869
▁alien	-9870
▁appra	-9871
▁filed	-9872
▁instr	-9873
▁tablo	-9874
▁theat	-9875
▁unner	-9876
▁fields	-9877
▁haught	-9878
▁ingred	-9879
▁poised	-9880
▁preced	-9881
▁somber	-9882
▁tracey	-9883
▁tricks	-9884
▁charges	-9885
▁chewing	-9886
▁gruffly	-9887
▁maurice	-9888
▁peretti	-9889
▁reminds	-9890
▁riveted	-9891
▁tiffany	-9892
▁accurate	-9893
▁customer	-9894
▁horribly	-9895
▁mindless	-9896
▁platform	-9897
▁stallion	-9898
▁troubled	-9899
▁hurriedly	-9900
▁nightgown	-9901
▁quickened	-9902
▁hopelessly	-9903
▁accommodate	-9904
▁controlling	-9905
▁importantly	-9906
▁entertainment	-9907
quo	-9908
stop	-9909
▁dur	-9910
▁gap	-9911
▁vet	-9912
▁chis	-9913
▁flee	-9914
▁gust	-9915
▁obey	-9916
illion	-9917
▁boxer	-9918
▁mayor	-9919
▁notch	-9920
▁scalp	-9921
▁tiles	-9922
▁conner	-9923
▁dancer	-9924
▁glossy	-9925
▁greedy	-9926
▁invent	-9927
▁loosen	-9928
▁mighty	-9929
▁muster	-9930
▁ritual	-9931
▁softer	-9932
▁stefan	-9933
▁unread	-9934
▁lecture	-9935
▁portion	-9936
▁downtown	-9937
▁extravag	-9938
▁portrait	-9939
▁stricken	-9940
▁complaint	-9941
▁depressed	-9942
▁examining	-9943
▁scratched	-9944
▁confronted	-9945
▁flattering	-9946
▁infuriated	-9947
▁situations	-9948
▁provocative	-9949
▁intoxicating	-9950
▁unmistakable	-9951
oul	-9952
iers	-9953
onym	-9954
▁ren	-9955
maybe	-9956
pless	-9957
▁beef	-9958
▁dizz	-9959
▁lure	-9960
▁pert	-9961
▁vamp	-9962
▁yawn	-9963
▁zero	-9964
dollar	-9965
▁coinc	-9966
▁goals	-9967
▁legit	-9968
▁snuck	-9969
▁types	-9970
ulative	-9971
▁alight	-9972
▁excess	-9973
▁firing	-9974
▁intric	-9975
▁nipped	-9976
▁simult	-9977
▁knights	-9978
▁temples	-9979
▁twirled	-9980
▁wetness	-9981
▁agitated	-9982
▁imprison	-9983
▁insulted	-9984
▁invasion	-9985
▁lingerie	-9986
▁lounging	-9987
▁semester	-9988
▁emanating	-9989
▁identical	-9990
▁narrowing	-9991
▁retreated	-9992
▁accountant	-9993
▁compromise	-9994
▁containing	-9995
▁disappoint	-9996
▁emphasized	-9997
▁irrelevant	-9998
▁unpleasant	-9999
▁contentment	-10000
▁conservative	-10001
put	-10002
born	-10003
only	-10004
▁pac	-10005
ighed	-10006
▁cody	-10007
▁gull	-10008
▁maho	-10009
▁ranc	-10010
▁tire	-10011
▁incom	-10012
▁reapp	-10013
▁tower	-10014
▁border	-10015
▁chased	-10016
▁etched	-10017
▁gravel	-10018
▁grazed	-10019
▁harbor	-10020
▁panted	-10021
▁towels	-10022
▁chamber	-10023
▁drowned	-10024
▁earlobe	-10025
▁awakened	-10026
▁composed	-10027
▁daydream	-10028
▁defiance	-10029
▁depended	-10030
▁spacious	-10031
▁stalking	-10032
▁clarified	-10033
▁comforter	-10034
▁determine	-10035
▁headboard	-10036
▁exhausting	-10037
▁industries	-10038
▁volunteered	-10039
mob	-10040
▁az	-10041
gany	-10042
imir	-10043
mbol	-10044
▁awh	-10045
oting	-10046
umbed	-10047
▁cind	-10048
▁diap	-10049
▁vann	-10050
igning	-10051
wright	-10052
▁deris	-10053
▁diana	-10054
▁leads	-10055
▁lonel	-10056
▁merry	-10057
▁oppon	-10058
▁facial	-10059
▁grated	-10060
▁latter	-10061
▁launch	-10062
▁pearls	-10063
▁planet	-10064
▁proced	-10065
▁rental	-10066
▁ribbon	-10067
▁angrier	-10068
▁blessed	-10069
▁offense	-10070
▁chiseled	-10071
▁claiming	-10072
▁confided	-10073
▁instance	-10074
▁mahogany	-10075
▁multiple	-10076
▁shuffled	-10077
▁assurance	-10078
▁repeating	-10079
▁comparison	-10080
▁dismissing	-10081
anse	-10082
real	-10083
▁lil	-10084
▁mud	-10085
▁nah	-10086
▁spa	-10087
▁suz	-10088
▁tir	-10089
udged	-10090
ulent	-10091
▁bark	-10092
▁hart	-10093
▁owns	-10094
▁pins	-10095
▁wept	-10096
passed	-10097
unched	-10098
▁chart	-10099
▁flour	-10100
▁joint	-10101
▁peggy	-10102
▁rumor	-10103
▁spicy	-10104
▁sucks	-10105
▁wrink	-10106
brother	-10107
▁applic	-10108
▁bolted	-10109
▁commer	-10110
▁extent	-10111
▁frenzy	-10112
▁hurric	-10113
▁income	-10114
▁shaped	-10115
▁supply	-10116
▁symbol	-10117
▁tomato	-10118
▁assault	-10119
▁churned	-10120
▁cursing	-10121
▁dislike	-10122
▁expanse	-10123
▁fatigue	-10124
▁forearm	-10125
▁heating	-10126
▁laundry	-10127
▁motions	-10128
▁searing	-10129
▁suzanne	-10130
▁tongues	-10131
▁warming	-10132
▁barefoot	-10133
▁referred	-10134
▁treasure	-10135
▁vladimir	-10136
▁wrenched	-10137
▁gradually	-10138
▁marketing	-10139
▁townsende	-10140
▁flashlight	-10141
▁compliments	-10142
▁temporarily	-10143
hh	-10144
▁iy	-10145
apse	-10146
enne	-10147
fold	-10148
okay	-10149
tale	-10150
▁fee	-10151
▁pec	-10152
▁tes	-10153
being	-10154
chool	-10155
inable	-10156
▁arrow	-10157
▁buffy	-10158
▁iyana	-10159
▁parad	-10160
▁raven	-10161
onsider	-10162
respect	-10163
▁awhile	-10164
▁bridal	-10165
▁repair	-10166
▁blatant	-10167
▁capital	-10168
▁dinners	-10169
▁harbour	-10170
▁stamped	-10171
▁worship	-10172
▁backseat	-10173
▁basement	-10174
▁evenings	-10175
▁flicking	-10176
▁presents	-10177
▁seatbelt	-10178
▁teachers	-10179
▁upcoming	-10180
▁hammering	-10181
▁heartless	-10182
▁insulting	-10183
▁massaging	-10184
▁teasingly	-10185
▁connecting	-10186
fir	-10187
gne	-10188
girl	-10189
▁oxy	-10190
▁ski	-10191
▁yup	-10192
idded	-10193
lines	-10194
seven	-10195
storm	-10196
think	-10197
▁alyx	-10198
▁anch	-10199
▁deft	-10200
▁keen	-10201
contro	-10202
▁budge	-10203
▁glory	-10204
▁ignor	-10205
▁immac	-10206
▁mouse	-10207
▁glowed	-10208
▁keisha	-10209
▁lavish	-10210
▁lining	-10211
▁swiped	-10212
▁blinded	-10213
▁conspir	-10214
▁depends	-10215
▁disinte	-10216
▁fumbled	-10217
▁implied	-10218
▁remorse	-10219
▁threats	-10220
▁burleton	-10221
▁childish	-10222
▁countess	-10223
▁explored	-10224
▁friction	-10225
▁obsessed	-10226
▁throbbed	-10227
▁vibrated	-10228
▁transform	-10229
▁virtually	-10230
▁apologizing	-10231
▁involvement	-10232
▁predicament	-10233
▁exhilarating	-10234
▁independence	-10235
lio	-10236
oqu	-10237
▁gn	-10238
aton	-10239
term	-10240
urry	-10241
▁rim	-10242
iency	-10243
istan	-10244
stood	-10245
▁baff	-10246
▁entw	-10247
▁geor	-10248
▁vitt	-10249
▁zone	-10250
icious	-10251
urable	-10252
▁chief	-10253
▁heath	-10254
▁renov	-10255
▁tires	-10256
▁courty	-10257
▁glimps	-10258
▁impass	-10259
▁profit	-10260
▁puddle	-10261
▁throne	-10262
▁bellige	-10263
▁cologne	-10264
▁leaping	-10265
▁grinding	-10266
▁inconven	-10267
▁reveling	-10268
▁towering	-10269
▁weddings	-10270
▁dismissal	-10271
▁eyelashes	-10272
▁punishing	-10273
▁tradition	-10274
▁vibrating	-10275
▁assumption	-10276
▁graduation	-10277
▁differences	-10278
▁enthusiastic	-10279
▁indifference	-10280
▁bug	-10281
▁fbi	-10282
▁sup	-10283
anity	-10284
arten	-10285
ested	-10286
▁chir	-10287
▁lamb	-10288
▁lois	-10289
▁pard	-10290
▁semi	-10291
▁troy	-10292
▁actor	-10293
▁baked	-10294
▁brook	-10295
▁hates	-10296
▁olive	-10297
▁retal	-10298
▁assert	-10299
▁corral	-10300
▁crisis	-10301
▁engulf	-10302
▁flinch	-10303
▁murmur	-10304
▁poking	-10305
▁rumble	-10306
▁sights	-10307
▁steely	-10308
▁tastes	-10309
▁unison	-10310
▁produce	-10311
▁remains	-10312
▁schools	-10313
▁signing	-10314
▁blissful	-10315
▁bubbling	-10316
▁drenched	-10317
▁elegance	-10318
▁gracious	-10319
▁hallways	-10320
▁national	-10321
▁paradise	-10322
▁patients	-10323
▁smelling	-10324
▁standard	-10325
▁twinkled	-10326
▁uneasily	-10327
▁whipping	-10328
▁concluded	-10329
▁countries	-10330
▁depending	-10331
▁hurricane	-10332
▁impending	-10333
▁manicured	-10334
▁thundered	-10335
▁vengeance	-10336
▁unexpectedly	-10337
sel	-10338
cott	-10339
laim	-10340
▁irr	-10341
▁nub	-10342
▁ron	-10343
▁zac	-10344
▁bron	-10345
▁enig	-10346
▁kara	-10347
▁lobe	-10348
▁mull	-10349
▁peer	-10350
▁renn	-10351
▁repr	-10352
▁ware	-10353
boards	-10354
idable	-10355
imeter	-10356
verted	-10357
zzling	-10358
▁categ	-10359
▁debut	-10360
▁disgr	-10361
▁fiber	-10362
▁smold	-10363
▁sofas	-10364
▁borrow	-10365
▁chided	-10366
▁glided	-10367
▁implac	-10368
▁integr	-10369
▁oxygen	-10370
▁praise	-10371
▁slower	-10372
▁soared	-10373
▁trunks	-10374
▁viewed	-10375
▁winner	-10376
itations	-10377
▁arrives	-10378
▁devoted	-10379
▁tactics	-10380
▁crawling	-10381
▁cupboard	-10382
▁lavender	-10383
▁moreover	-10384
▁sculpted	-10385
▁sundress	-10386
▁gesturing	-10387
▁strolling	-10388
▁virginity	-10389
▁altogether	-10390
▁glistening	-10391
▁maintained	-10392
▁retreating	-10393
▁furthermore	-10394
▁ingredients	-10395
▁unconsciously	-10396
umm	-10397
▁og	-10398
apor	-10399
inqu	-10400
lain	-10401
▁jar	-10402
stone	-10403
▁aven	-10404
▁clan	-10405
▁khak	-10406
▁tous	-10407
awning	-10408
ilogue	-10409
▁cocky	-10410
▁fuzzy	-10411
▁marqu	-10412
▁patch	-10413
▁poker	-10414
▁slack	-10415
▁witch	-10416
▁buckle	-10417
▁flavor	-10418
▁needle	-10419
▁partly	-10420
▁soften	-10421
▁volupt	-10422
▁wounds	-10423
▁aurelio	-10424
▁babysit	-10425
▁belongs	-10426
▁flashes	-10427
▁flopped	-10428
▁heavens	-10429
▁improve	-10430
▁pardini	-10431
▁regrets	-10432
▁rennata	-10433
▁returns	-10434
▁seduced	-10435
▁trailer	-10436
▁billions	-10437
▁blinding	-10438
▁clapping	-10439
▁employed	-10440
▁ensuring	-10441
▁epilogue	-10442
▁imperson	-10443
▁interrog	-10444
▁opportun	-10445
▁outdoors	-10446
▁unlikely	-10447
▁contracts	-10448
▁residence	-10449
▁transport	-10450
▁forcefully	-10451
▁encountered	-10452
▁fortunately	-10453
▁seductively	-10454
oro	-10455
▁dm	-10456
mond	-10457
udes	-10458
▁ava	-10459
▁cit	-10460
angle	-10461
▁bisc	-10462
▁herd	-10463
▁vend	-10464
bridge	-10465
▁arist	-10466
▁berta	-10467
▁bumps	-10468
▁knick	-10469
▁nonno	-10470
▁anonym	-10471
▁carlos	-10472
▁expans	-10473
▁fellow	-10474
▁forbid	-10475
▁hypnot	-10476
▁raking	-10477
▁relish	-10478
▁bruises	-10479
▁lighter	-10480
▁proving	-10481
▁secured	-10482
▁therapy	-10483
▁applause	-10484
▁borrowed	-10485
▁cabinets	-10486
▁constric	-10487
▁cracking	-10488
▁draining	-10489
▁phillips	-10490
▁punching	-10491
▁slippers	-10492
▁adjusting	-10493
▁flattened	-10494
▁insisting	-10495
▁reassured	-10496
▁sarcastic	-10497
▁frequently	-10498
▁intriguing	-10499
▁unreadable	-10500
▁celebrating	-10501
▁simultaneously	-10502
agr	-10503
bey	-10504
hot	-10505
oma	-10506
aude	-10507
dell	-10508
eady	-10509
ench	-10510
pert	-10511
star	-10512
▁hic	-10513
▁lee	-10514
▁mcc	-10515
▁tig	-10516
first	-10517
opard	-10518
▁cats	-10519
▁deed	-10520
▁lars	-10521
▁proc	-10522
apable	-10523
▁bites	-10524
▁clerk	-10525
▁linda	-10526
▁lodge	-10527
▁overd	-10528
▁spont	-10529
▁widen	-10530
versary	-10531
▁acquis	-10532
▁afghan	-10533
▁claude	-10534
▁dmitri	-10535
▁immune	-10536
▁policy	-10537
▁reared	-10538
▁stormy	-10539
▁tesoro	-10540
▁unfast	-10541
▁verbal	-10542
▁drawers	-10543
▁murmurs	-10544
▁pinning	-10545
▁platter	-10546
▁sparked	-10547
▁careless	-10548
▁dreadful	-10549
▁mornings	-10550
▁pursuing	-10551
▁weighing	-10552
▁addressed	-10553
▁explosive	-10554
▁sentiment	-10555
▁supposedly	-10556
▁suspicions	-10557
▁defensively	-10558
▁unbelievable	-10559
acc	-10560
bri	-10561
iche	-10562
sett	-10563
▁yog	-10564
▁carr	-10565
▁cunt	-10566
▁fret	-10567
▁bluff	-10568
▁fetch	-10569
▁sanct	-10570
▁weary	-10571
▁bowing	-10572
▁boyish	-10573
▁destru	-10574
▁drives	-10575
▁eighty	-10576
▁encirc	-10577
▁orphan	-10578
▁packet	-10579
▁worlds	-10580
cedented	-10581
▁columns	-10582
▁concept	-10583
▁examine	-10584
▁ignited	-10585
▁rippled	-10586
▁battered	-10587
▁brighter	-10588
▁circular	-10589
▁distaste	-10590
▁nineteen	-10591
▁quivered	-10592
▁recovery	-10593
▁courtyard	-10594
▁porcelain	-10595
▁purposely	-10596
▁commercial	-10597
▁furnishing	-10598
▁recovering	-10599
▁vehemently	-10600
▁authorities	-10601
▁discovering	-10602
igr	-10603
ras	-10604
load	-10605
roll	-10606
take	-10607
▁bem	-10608
▁fog	-10609
▁una	-10610
ignon	-10611
uable	-10612
▁aura	-10613
▁crim	-10614
▁defl	-10615
▁plum	-10616
▁prey	-10617
▁tidy	-10618
▁tuck	-10619
▁wits	-10620
▁brood	-10621
▁confl	-10622
▁craft	-10623
▁overr	-10624
▁stake	-10625
▁stalk	-10626
▁tones	-10627
ceptive	-10628
control	-10629
welcome	-10630
▁bundle	-10631
▁sensit	-10632
▁sheikh	-10633
▁splash	-10634
▁caveman	-10635
▁condoms	-10636
▁heights	-10637
▁helpful	-10638
▁obliged	-10639
▁renewed	-10640
▁slanted	-10641
▁brokenly	-10642
▁indicate	-10643
▁priority	-10644
▁sickness	-10645
▁suppress	-10646
▁tickling	-10647
▁unreason	-10648
▁attendant	-10649
▁forbidden	-10650
▁sickening	-10651
▁loneliness	-10652
▁speculation	-10653
▁x	-10654
iac	-10655
from	-10656
wife	-10657
▁unl	-10658
ppers	-10659
style	-10660
▁dile	-10661
▁hanc	-10662
itches	-10663
screen	-10664
▁afric	-10665
▁awoke	-10666
▁barre	-10667
▁eloqu	-10668
▁friar	-10669
▁hawai	-10670
▁molly	-10671
▁numer	-10672
▁petty	-10673
▁sidel	-10674
▁stain	-10675
▁uncom	-10676
▁waltz	-10677
olation	-10678
urities	-10679
▁coaxed	-10680
▁convey	-10681
▁inched	-10682
▁obeyed	-10683
▁punish	-10684
▁script	-10685
▁snatch	-10686
▁tackle	-10687
▁theory	-10688
▁catches	-10689
▁chatter	-10690
▁convert	-10691
▁hancock	-10692
▁interfe	-10693
▁musical	-10694
▁overpow	-10695
▁posture	-10696
▁resumed	-10697
▁sobered	-10698
▁writhed	-10699
▁articles	-10700
▁identify	-10701
▁mischief	-10702
▁unsteady	-10703
▁elsewhere	-10704
▁leisurely	-10705
▁privilege	-10706
▁steadying	-10707
▁thrilling	-10708
▁depression	-10709
▁meaningful	-10710
▁passengers	-10711
▁experiences	-10712
▁interruption	-10713
▁introduction	-10714
▁communication	-10715
▁disappearance	-10716
▁unprecedented	-10717
bes	-10718
ena	-10719
got	-10720
amel	-10721
lige	-10722
mers	-10723
ousy	-10724
▁ard	-10725
▁enh	-10726
▁leo	-10727
shire	-10728
▁conj	-10729
▁grac	-10730
encies	-10731
▁beans	-10732
▁bucks	-10733
▁denim	-10734
▁drain	-10735
▁heady	-10736
▁holes	-10737
▁madam	-10738
▁pills	-10739
▁plump	-10740
▁veter	-10741
▁emails	-10742
▁fading	-10743
▁janice	-10744
▁larson	-10745
▁reconc	-10746
▁winery	-10747
quarters	-10748
▁crimson	-10749
▁damaged	-10750
▁darting	-10751
▁degrees	-10752
▁garnier	-10753
▁lighten	-10754
▁reunion	-10755
▁ruffled	-10756
▁screams	-10757
▁waiters	-10758
▁weighed	-10759
▁banished	-10760
▁collapse	-10761
▁deadline	-10762
▁declined	-10763
▁defenses	-10764
▁finality	-10765
▁forgiven	-10766
▁keyboard	-10767
▁mirrored	-10768
▁prescott	-10769
▁stinging	-10770
▁stuffing	-10771
▁unwanted	-10772
▁architect	-10773
▁expertise	-10774
▁heartache	-10775
▁nakedness	-10776
▁professor	-10777
▁revulsion	-10778
▁supported	-10779
▁belongings	-10780
▁compelling	-10781
▁countertop	-10782
▁innocently	-10783
▁supporting	-10784
▁voluptuous	-10785
▁expectation	-10786
hi	-10787
▁zo	-10788
ease	-10789
size	-10790
vial	-10791
▁mcd	-10792
▁oct	-10793
urous	-10794
▁adri	-10795
▁brom	-10796
▁chor	-10797
▁daze	-10798
▁erra	-10799
▁hiss	-10800
▁inad	-10801
▁webs	-10802
▁yank	-10803
uating	-10804
▁fried	-10805
▁infin	-10806
▁murde	-10807
▁peach	-10808
▁postp	-10809
▁reced	-10810
▁ronny	-10811
blowing	-10812
▁banged	-10813
▁captiv	-10814
▁centre	-10815
▁evapor	-10816
▁fucked	-10817
▁majest	-10818
▁neared	-10819
▁watson	-10820
▁ambrose	-10821
▁behaved	-10822
▁bubbled	-10823
▁coordin	-10824
▁coursed	-10825
▁croaked	-10826
▁fiddled	-10827
▁goddess	-10828
▁highest	-10829
▁huddled	-10830
▁rumbled	-10831
▁tattoos	-10832
▁devoured	-10833
▁ecstatic	-10834
▁figuring	-10835
▁mortimer	-10836
▁cherished	-10837
▁expressed	-10838
▁nightmares	-10839
▁reasonably	-10840
▁transferred	-10841
▁confirmation	-10842
fy	-10843
sp	-10844
wa	-10845
fol	-10846
gro	-10847
word	-10848
▁alb	-10849
▁jut	-10850
▁wea	-10851
eenth	-10852
grand	-10853
works	-10854
▁arse	-10855
▁aval	-10856
▁cops	-10857
▁hugh	-10858
▁melo	-10859
▁pric	-10860
▁sket	-10861
▁slit	-10862
▁trim	-10863
ulting	-10864
▁agnes	-10865
▁armor	-10866
▁beard	-10867
▁bison	-10868
▁chess	-10869
▁embro	-10870
▁gauge	-10871
▁hilar	-10872
▁mummy	-10873
▁muted	-10874
▁risks	-10875
ffected	-10876
passing	-10877
▁ashton	-10878
▁blazer	-10879
▁county	-10880
▁fathom	-10881
▁filing	-10882
▁martha	-10883
▁peeled	-10884
▁salmon	-10885
ferences	-10886
▁bulging	-10887
▁decades	-10888
▁dreaded	-10889
▁gravity	-10890
▁manhood	-10891
▁slowing	-10892
▁supreme	-10893
▁applying	-10894
▁inexplic	-10895
▁internal	-10896
▁reverber	-10897
▁trapping	-10898
▁ventured	-10899
▁administr	-10900
▁agonizing	-10901
▁hostility	-10902
▁irritably	-10903
▁materials	-10904
▁primitive	-10905
▁basketball	-10906
▁reluctance	-10907
▁sensuality	-10908
▁sweatshirt	-10909
▁purposefully	-10910
▁introductions	-10911
▁investigation	-10912
arf	-10913
mma	-10914
pad	-10915
llis	-10916
▁bye	-10917
▁fel	-10918
▁gil	-10919
▁hoo	-10920
blood	-10921
inter	-10922
▁haun	-10923
▁rank	-10924
▁secl	-10925
▁wond	-10926
ifully	-10927
▁betty	-10928
▁chand	-10929
▁erect	-10930
▁folks	-10931
▁foref	-10932
▁funds	-10933
▁orche	-10934
▁spock	-10935
▁active	-10936
▁angles	-10937
▁cradle	-10938
▁dimple	-10939
▁indian	-10940
▁miscar	-10941
▁permit	-10942
▁recoll	-10943
▁sultry	-10944
aternity	-10945
▁amended	-10946
▁barking	-10947
▁belrose	-10948
▁caramel	-10949
▁central	-10950
▁emptied	-10951
▁gaining	-10952
▁honored	-10953
▁patrons	-10954
▁roaring	-10955
▁slumber	-10956
▁tousled	-10957
▁traitor	-10958
▁sprinted	-10959
▁unzipped	-10960
▁bromleigh	-10961
▁contented	-10962
▁priceless	-10963
▁publicity	-10964
▁stripping	-10965
▁executives	-10966
▁technology	-10967
▁unaffected	-10968
▁invitations	-10969
▁unnecessary	-10970
▁dramatically	-10971
▁granddaughter	-10972
eav	-10973
net	-10974
ste	-10975
▁bom	-10976
▁rou	-10977
▁tas	-10978
▁cade	-10979
▁hugs	-10980
▁iced	-10981
▁intr	-10982
▁rumm	-10983
istine	-10984
thanks	-10985
udging	-10986
▁chagr	-10987
▁cubic	-10988
▁dwell	-10989
▁encom	-10990
▁entit	-10991
▁judar	-10992
▁lyall	-10993
▁throb	-10994
▁tying	-10995
▁unfor	-10996
▁views	-10997
ndering	-10998
▁assets	-10999
▁clutch	-11000
▁define	-11001
▁lively	-11002
▁passes	-11003
▁planes	-11004
▁purely	-11005
▁revers	-11006
▁rotten	-11007
▁tangle	-11008
▁aftersh	-11009
▁bruised	-11010
▁doubled	-11011
▁hardest	-11012
▁relinqu	-11013
▁remarks	-11014
▁tersely	-11015
▁wheeled	-11016
▁winking	-11017
▁anderson	-11018
▁animated	-11019
▁aristocr	-11020
▁guarante	-11021
▁inadvert	-11022
▁lovingly	-11023
▁murderer	-11024
▁numerous	-11025
▁skimming	-11026
▁summoned	-11027
▁anguished	-11028
▁assessing	-11029
▁downright	-11030
▁installed	-11031
▁interfere	-11032
▁collarbone	-11033
▁companions	-11034
▁heightened	-11035
▁insistence	-11036
▁revelation	-11037
▁separation	-11038
▁stepfather	-11039
▁accusations	-11040
▁furnishings	-11041
▁possessively	-11042
▁uncontrollable	-11043
urb	-11044
boat	-11045
orio	-11046
▁gur	-11047
▁pup	-11048
▁rug	-11049
▁vio	-11050
about	-11051
▁adjo	-11052
▁canv	-11053
▁hush	-11054
▁nina	-11055
▁tart	-11056
ficial	-11057
▁colin	-11058
▁curvy	-11059
▁feroc	-11060
▁monst	-11061
▁paled	-11062
▁picks	-11063
▁roast	-11064
▁stacy	-11065
▁talks	-11066
▁typed	-11067
founded	-11068
▁caller	-11069
▁endeav	-11070
▁gushed	-11071
▁interl	-11072
▁lazily	-11073
▁petals	-11074
▁quiver	-11075
▁runway	-11076
▁yawned	-11077
pleasure	-11078
▁boiling	-11079
▁chilled	-11080
▁dilemma	-11081
▁hostile	-11082
▁messing	-11083
▁reduced	-11084
▁caresses	-11085
▁gambling	-11086
▁relented	-11087
▁slippery	-11088
▁smallest	-11089
▁container	-11090
▁marriages	-11091
▁paralyzed	-11092
▁subjected	-11093
▁comfortably	-11094
▁deliciously	-11095
▁dismissively	-11096
▁unreasonable	-11097
hor	-11098
mat	-11099
uge	-11100
kind	-11101
pson	-11102
▁fet	-11103
▁ink	-11104
▁zip	-11105
dress	-11106
itute	-11107
riers	-11108
stage	-11109
▁hind	-11110
▁lids	-11111
▁polo	-11112
▁prog	-11113
angled	-11114
▁bully	-11115
▁freck	-11116
▁incor	-11117
▁raged	-11118
▁snick	-11119
ielding	-11120
version	-11121
▁biceps	-11122
▁calvin	-11123
▁groans	-11124
▁harden	-11125
▁hotter	-11126
▁mexico	-11127
▁steele	-11128
▁unsett	-11129
▁consult	-11130
▁cramped	-11131
▁dancers	-11132
▁flaring	-11133
▁healing	-11134
▁stating	-11135
▁theater	-11136
▁valerie	-11137
▁carefree	-11138
▁commands	-11139
▁conflict	-11140
▁formally	-11141
▁holidays	-11142
▁passport	-11143
▁situated	-11144
▁vittorio	-11145
▁westland	-11146
▁celebrity	-11147
▁glamorous	-11148
▁occupants	-11149
▁screeched	-11150
▁selection	-11151
▁torturing	-11152
▁attempting	-11153
▁envisioned	-11154
▁efficiently	-11155
▁uncertainly	-11156
ndy	-11157
hill	-11158
olar	-11159
rise	-11160
▁lob	-11161
▁mol	-11162
drive	-11163
ember	-11164
▁awed	-11165
▁heap	-11166
▁orde	-11167
▁rosa	-11168
▁uses	-11169
▁vase	-11170
▁advis	-11171
▁debts	-11172
▁drawl	-11173
▁fires	-11174
▁humid	-11175
▁scoot	-11176
▁tipto	-11177
reshold	-11178
ulously	-11179
▁boomed	-11180
▁device	-11181
▁listed	-11182
▁lunche	-11183
▁philos	-11184
▁pickup	-11185
▁shriek	-11186
▁valent	-11187
▁appetiz	-11188
▁awfully	-11189
▁camilla	-11190
▁channel	-11191
▁compete	-11192
▁coughed	-11193
▁defined	-11194
▁dynamic	-11195
▁enemies	-11196
▁overall	-11197
▁passage	-11198
▁prodded	-11199
▁refusal	-11200
▁savored	-11201
▁seventy	-11202
▁subdued	-11203
▁surging	-11204
▁website	-11205
▁adequate	-11206
▁swimsuit	-11207
▁troubles	-11208
▁betraying	-11209
▁graduated	-11210
▁threshold	-11211
▁worriedly	-11212
▁forefinger	-11213
▁fundraiser	-11214
▁preferring	-11215
▁straddling	-11216
▁unbearable	-11217
pa	-11218
des	-11219
▁aj	-11220
▁jc	-11221
rawn	-11222
▁bin	-11223
berto	-11224
imony	-11225
▁amid	-11226
▁braz	-11227
▁cupc	-11228
▁dent	-11229
▁fuss	-11230
▁hicc	-11231
▁lull	-11232
▁pend	-11233
▁rede	-11234
▁rice	-11235
▁sack	-11236
▁thus	-11237
▁unit	-11238
▁vain	-11239
▁wagg	-11240
▁wire	-11241
herent	-11242
iselle	-11243
ximity	-11244
▁award	-11245
▁broch	-11246
▁condo	-11247
▁draft	-11248
▁harry	-11249
▁haunt	-11250
▁infat	-11251
▁inhib	-11252
▁marks	-11253
▁thief	-11254
ictions	-11255
lington	-11256
▁amanda	-11257
▁cheers	-11258
▁fights	-11259
▁helmet	-11260
▁keaton	-11261
▁motive	-11262
▁noises	-11263
▁ornate	-11264
▁sailed	-11265
▁willed	-11266
▁average	-11267
▁consent	-11268
▁garment	-11269
▁marvell	-11270
▁mounted	-11271
▁speaker	-11272
▁stubble	-11273
▁advanced	-11274
▁complied	-11275
▁daylight	-11276
▁outraged	-11277
▁retrieve	-11278
▁attentive	-11279
▁dedicated	-11280
▁enveloped	-11281
▁momentary	-11282
▁muttering	-11283
▁proximity	-11284
▁regularly	-11285
▁tormented	-11286
▁waterfall	-11287
consciously	-11288
▁accounting	-11289
▁impossibly	-11290
▁corporation	-11291
▁frustrating	-11292
▁maintaining	-11293
▁obligations	-11294
▁replacement	-11295
▁treacherous	-11296
uh	-11297
gic	-11298
anky	-11299
ctic	-11300
held	-11301
iner	-11302
nine	-11303
▁ath	-11304
brush	-11305
imand	-11306
mates	-11307
▁crib	-11308
▁enth	-11309
▁pets	-11310
▁stip	-11311
▁tape	-11312
turned	-11313
▁bunny	-11314
▁deals	-11315
▁jaunt	-11316
▁reign	-11317
▁slave	-11318
atement	-11319
ciating	-11320
▁cringe	-11321
▁crowds	-11322
▁finest	-11323
▁hummed	-11324
▁microw	-11325
▁region	-11326
▁unlock	-11327
▁useful	-11328
▁wailed	-11329
▁zipped	-11330
▁banging	-11331
▁brandon	-11332
▁doorman	-11333
▁indulge	-11334
▁orgasms	-11335
▁outward	-11336
▁ruining	-11337
▁stiffen	-11338
▁tingles	-11339
▁flawless	-11340
▁ignition	-11341
▁insanity	-11342
▁luncheon	-11343
▁measured	-11344
▁pristine	-11345
▁remotely	-11346
▁thanking	-11347
▁umbrella	-11348
▁radiating	-11349
▁recalling	-11350
▁reprimand	-11351
▁stupidity	-11352
▁challenges	-11353
▁dismissive	-11354
▁employment	-11355
▁staggering	-11356
▁dumbfounded	-11357
▁investigate	-11358
▁appreciative	-11359
▁misunderstood	-11360
▁opportunities	-11361
cca	-11362
uca	-11363
▁oo	-11364
▁ze	-11365
coon	-11366
ffle	-11367
oles	-11368
ulted	-11369
▁godf	-11370
▁lola	-11371
sively	-11372
▁blaze	-11373
▁boats	-11374
▁cloak	-11375
▁khaki	-11376
▁pumps	-11377
▁ropes	-11378
▁snack	-11379
▁discou	-11380
▁divine	-11381
▁ninety	-11382
▁posted	-11383
▁priest	-11384
▁shouts	-11385
▁yelped	-11386
▁bidding	-11387
▁clouded	-11388
▁episode	-11389
▁faintly	-11390
▁grandma	-11391
▁gregory	-11392
▁haughty	-11393
▁higgins	-11394
▁johnson	-11395
▁rebecca	-11396
▁sneered	-11397
▁contacts	-11398
▁doubtful	-11399
▁entitled	-11400
▁expelled	-11401
▁expertly	-11402
▁exterior	-11403
▁invested	-11404
▁momentum	-11405
▁propping	-11406
▁scraping	-11407
▁solemnly	-11408
▁classroom	-11409
▁dissolved	-11410
▁exploding	-11411
▁extending	-11412
▁landscape	-11413
▁solicitor	-11414
▁assignment	-11415
▁formidable	-11416
▁convertible	-11417
▁infuriating	-11418
▁pleasurable	-11419
dro	-11420
sis	-11421
illo	-11422
ours	-11423
part	-11424
uted	-11425
▁rag	-11426
beard	-11427
roken	-11428
▁elli	-11429
worthy	-11430
▁adele	-11431
▁bowls	-11432
▁notep	-11433
▁sails	-11434
▁valid	-11435
berries	-11436
fitting	-11437
husband	-11438
▁brazil	-11439
▁chorus	-11440
▁frigid	-11441
▁hadley	-11442
▁healed	-11443
▁sharks	-11444
▁solely	-11445
▁titles	-11446
▁unease	-11447
▁wheels	-11448
▁wobbly	-11449
ribution	-11450
▁cordell	-11451
▁cuddled	-11452
▁debated	-11453
▁giggles	-11454
▁jeopard	-11455
▁lurking	-11456
▁quaking	-11457
▁rescued	-11458
▁swooped	-11459
▁tresses	-11460
▁awaiting	-11461
▁backpack	-11462
▁barriers	-11463
▁entwined	-11464
▁forceful	-11465
▁gigantic	-11466
▁hardwood	-11467
▁opponent	-11468
▁radiated	-11469
▁scathing	-11470
▁stifling	-11471
▁strictly	-11472
▁tangling	-11473
▁taunting	-11474
▁whistled	-11475
▁establish	-11476
▁paternity	-11477
▁skeptical	-11478
▁stephanie	-11479
▁commission	-11480
▁intimidate	-11481
▁development	-11482
▁protectively	-11483
▁inadvertently	-11484
mes	-11485
obs	-11486
life	-11487
weet	-11488
▁cin	-11489
atisf	-11490
icate	-11491
▁carm	-11492
▁fanc	-11493
▁ramb	-11494
▁raul	-11495
▁weep	-11496
itably	-11497
ouched	-11498
▁accum	-11499
▁debra	-11500
▁drily	-11501
▁excru	-11502
▁notor	-11503
▁prose	-11504
▁ruler	-11505
▁scars	-11506
▁steep	-11507
▁twent	-11508
elessly	-11509
oration	-11510
▁banter	-11511
▁chilly	-11512
▁condem	-11513
▁engage	-11514
▁hearth	-11515
▁impecc	-11516
▁infant	-11517
▁intake	-11518
▁lamely	-11519
▁linger	-11520
▁miller	-11521
▁powell	-11522
▁tested	-11523
ertained	-11524
▁chatted	-11525
▁concede	-11526
▁dumping	-11527
▁obliter	-11528
▁pathway	-11529
▁realise	-11530
▁refresh	-11531
▁relieve	-11532
▁roberto	-11533
▁scholar	-11534
▁surreal	-11535
▁venture	-11536
▁yanking	-11537
▁european	-11538
▁intercom	-11539
▁jonathan	-11540
▁nearness	-11541
▁prisoner	-11542
▁squeaked	-11543
▁talented	-11544
▁tolerate	-11545
▁valuable	-11546
▁belonging	-11547
▁continues	-11548
▁disconcer	-11549
▁francisco	-11550
▁mortified	-11551
▁observing	-11552
▁performed	-11553
▁retrieved	-11554
▁stillness	-11555
▁flickering	-11556
▁marvellous	-11557
▁smoldering	-11558
▁coincidence	-11559
▁necessarily	-11560
▁transformed	-11561
▁excruciating	-11562
rs	-11563
fin	-11564
kno	-11565
byes	-11566
jack	-11567
pres	-11568
umpy	-11569
▁pir	-11570
▁vin	-11571
▁vom	-11572
antos	-11573
ourse	-11574
sions	-11575
▁cork	-11576
▁guid	-11577
▁heed	-11578
▁leth	-11579
▁plac	-11580
▁unde	-11581
atious	-11582
rowing	-11583
▁ample	-11584
▁fluid	-11585
▁gawin	-11586
▁livid	-11587
▁slips	-11588
▁unden	-11589
▁antics	-11590
▁blades	-11591
▁deluca	-11592
▁propri	-11593
▁reflex	-11594
▁retort	-11595
▁risked	-11596
▁broadly	-11597
▁cheered	-11598
▁dimples	-11599
▁faeries	-11600
▁indiana	-11601
▁largest	-11602
▁pajamas	-11603
▁smashed	-11604
▁steward	-11605
▁ticking	-11606
▁twinkle	-11607
▁undoing	-11608
▁bracelet	-11609
▁comprehe	-11610
▁glowered	-11611
▁invading	-11612
▁regained	-11613
▁subjects	-11614
▁survival	-11615
▁directors	-11616
▁enjoyable	-11617
▁malicious	-11618
▁predicted	-11619
▁proposing	-11620
▁softening	-11621
▁sputtered	-11622
▁surveying	-11623
▁admonished	-11624
▁burlington	-11625
▁distressed	-11626
▁confidently	-11627
▁displeasure	-11628
▁considerable	-11629
ga	-11630
uch	-11631
ocks	-11632
▁gee	-11633
black	-11634
brown	-11635
dging	-11636
▁bure	-11637
▁foil	-11638
▁garb	-11639
▁golf	-11640
▁hazy	-11641
▁pave	-11642
▁sequ	-11643
▁ster	-11644
▁sust	-11645
▁vint	-11646
▁vote	-11647
cerned	-11648
ferent	-11649
minute	-11650
▁ambit	-11651
▁beats	-11652
▁float	-11653
▁handc	-11654
▁horny	-11655
▁initi	-11656
▁steer	-11657
achment	-11658
ariably	-11659
astrous	-11660
napping	-11661
▁matern	-11662
▁pedest	-11663
▁phoned	-11664
▁reprie	-11665
▁salute	-11666
▁tinted	-11667
▁unpred	-11668
▁wisdom	-11669
▁buckled	-11670
▁florida	-11671
▁justine	-11672
▁longest	-11673
▁reveled	-11674
▁scarlet	-11675
▁splayed	-11676
▁disguise	-11677
▁fleeting	-11678
▁glinting	-11679
▁happiest	-11680
▁sarantos	-11681
▁skipping	-11682
▁threaded	-11683
▁apologies	-11684
▁deposited	-11685
▁devouring	-11686
▁dominated	-11687
▁impercept	-11688
▁objection	-11689
▁twitching	-11690
▁unwelcome	-11691
▁depressing	-11692
▁disastrous	-11693
▁mentioning	-11694
▁pronounced	-11695
▁restrained	-11696
▁richardson	-11697
▁stubbornly	-11698
▁unfortunate	-11699
▁thanksgiving	-11700
▁unbelievably	-11701
▁understatement	-11702
dg	-11703
bab	-11704
irm	-11705
bred	-11706
igan	-11707
nold	-11708
olic	-11709
play	-11710
slee	-11711
yeah	-11712
▁kit	-11713
▁nun	-11714
▁roo	-11715
▁twe	-11716
still	-11717
▁acid	-11718
▁cate	-11719
▁eval	-11720
▁maze	-11721
▁panc	-11722
▁suic	-11723
▁trem	-11724
orneys	-11725
rained	-11726
stream	-11727
▁alter	-11728
▁athle	-11729
▁bombs	-11730
▁claws	-11731
▁grape	-11732
▁kathy	-11733
▁leash	-11734
▁navig	-11735
▁saint	-11736
▁truce	-11737
▁baking	-11738
▁bathed	-11739
▁cement	-11740
▁chapel	-11741
▁handwr	-11742
▁hurled	-11743
▁jasper	-11744
▁locate	-11745
▁pantry	-11746
▁snaked	-11747
▁spared	-11748
▁stifle	-11749
▁traces	-11750
▁trepid	-11751
▁unfold	-11752
ications	-11753
▁banquet	-11754
▁bemused	-11755
▁chinese	-11756
▁culbert	-11757
▁disrupt	-11758
▁elation	-11759
▁hunched	-11760
▁pricked	-11761
▁reserve	-11762
▁retired	-11763
▁sandini	-11764
▁scaring	-11765
▁scenery	-11766
▁shyness	-11767
▁soaring	-11768
▁striped	-11769
▁stumble	-11770
▁surfing	-11771
▁texture	-11772
▁wavered	-11773
▁wearily	-11774
hetically	-11775
▁capacity	-11776
▁explains	-11777
▁reprieve	-11778
▁securely	-11779
▁suspense	-11780
▁attorneys	-11781
▁competent	-11782
▁perimeter	-11783
▁wrenching	-11784
▁blackbeard	-11785
▁cartwright	-11786
▁invariably	-11787
▁indignation	-11788
▁investments	-11789
▁trepidation	-11790
▁unconcerned	-11791
lla	-11792
ckey	-11793
comm	-11794
give	-11795
▁atl	-11796
▁cum	-11797
cedes	-11798
never	-11799
rimin	-11800
▁bunk	-11801
▁ging	-11802
▁laws	-11803
▁lila	-11804
▁peck	-11805
▁popp	-11806
▁quer	-11807
▁skit	-11808
▁terr	-11809
▁womb	-11810
ifting	-11811
▁alike	-11812
▁arose	-11813
▁bared	-11814
▁capit	-11815
▁cheri	-11816
▁chord	-11817
▁edged	-11818
▁moral	-11819
▁paige	-11820
▁ships	-11821
▁sixth	-11822
▁wince	-11823
▁albert	-11824
▁ceased	-11825
▁factor	-11826
▁insign	-11827
▁ordeal	-11828
▁phones	-11829
▁ripple	-11830
▁sorted	-11831
▁visual	-11832
arations	-11833
▁brusque	-11834
▁bunched	-11835
▁caterer	-11836
▁chaotic	-11837
▁enraged	-11838
▁latched	-11839
▁phillip	-11840
▁shapely	-11841
▁taunted	-11842
▁theatre	-11843
▁trigger	-11844
▁attribut	-11845
▁backside	-11846
▁boutique	-11847
▁disposal	-11848
▁imposing	-11849
▁lawrence	-11850
▁mercedes	-11851
▁streaked	-11852
▁subsided	-11853
▁twirling	-11854
▁essential	-11855
▁interpret	-11856
▁microwave	-11857
▁rebellion	-11858
▁senseless	-11859
▁stumbling	-11860
▁displaying	-11861
▁experiment	-11862
▁impersonal	-11863
▁reconsider	-11864
▁candlelight	-11865
▁conspirator	-11866
▁entertained	-11867
▁determinedly	-11868
▁headquarters	-11869
▁investigator	-11870
dka	-11871
anni	-11872
edge	-11873
fuck	-11874
uild	-11875
▁woo	-11876
▁cert	-11877
▁sash	-11878
abouts	-11879
▁bless	-11880
▁chast	-11881
▁chris	-11882
▁chunk	-11883
▁eaves	-11884
▁fleur	-11885
▁fraud	-11886
▁skull	-11887
▁thorn	-11888
▁vodka	-11889
itating	-11890
▁brains	-11891
▁cities	-11892
▁classy	-11893
▁coiled	-11894
▁deceit	-11895
▁lunged	-11896
▁shrugs	-11897
▁spiked	-11898
▁blaming	-11899
▁clarity	-11900
▁compens	-11901
▁defiant	-11902
▁elliott	-11903
▁filbert	-11904
▁glitter	-11905
▁inquiry	-11906
▁mingled	-11907
▁presses	-11908
▁risking	-11909
▁royalty	-11910
▁seating	-11911
▁trotted	-11912
▁catering	-11913
▁cheering	-11914
▁clasping	-11915
▁coachman	-11916
▁definite	-11917
▁hammered	-11918
▁pretense	-11919
▁reasoned	-11920
▁relished	-11921
▁roommate	-11922
▁speeding	-11923
▁streamed	-11924
▁sweetest	-11925
▁criticism	-11926
▁elegantly	-11927
▁qualities	-11928
▁scorching	-11929
▁strapless	-11930
▁convention	-11931
▁guaranteed	-11932
▁persistent	-11933
▁straighter	-11934
▁tormenting	-11935
▁assumptions	-11936
▁represented	-11937
▁resemblance	-11938
▁interference	-11939
fr	-11940
va	-11941
err	-11942
ios	-11943
omp	-11944
ova	-11945
areq	-11946
eous	-11947
high	-11948
ijah	-11949
impy	-11950
irez	-11951
knob	-11952
otch	-11953
▁aqu	-11954
▁dus	-11955
▁raz	-11956
▁rig	-11957
▁yer	-11958
ouses	-11959
▁july	-11960
▁leaf	-11961
▁swat	-11962
▁tool	-11963
▁turb	-11964
▁wavy	-11965
ailing	-11966
erment	-11967
shield	-11968
▁acade	-11969
▁boost	-11970
▁butto	-11971
▁canop	-11972
▁cynic	-11973
▁grill	-11974
▁jayme	-11975
▁paths	-11976
▁spain	-11977
▁swirl	-11978
▁venom	-11979
▁witty	-11980
▁calves	-11981
▁chaise	-11982
▁chaper	-11983
▁darcie	-11984
▁dimmed	-11985
▁elijah	-11986
▁graver	-11987
▁groups	-11988
▁habits	-11989
▁hushed	-11990
▁juices	-11991
▁lacked	-11992
▁mantel	-11993
▁mature	-11994
▁mixing	-11995
▁racked	-11996
▁raises	-11997
▁squeak	-11998
▁tirade	-11999
▁twitch	-12000
▁typing	-12001
▁boarded	-12002
▁effects	-12003
▁loosely	-12004
▁pursuit	-12005
▁ramirez	-12006
▁achieved	-12007
▁armchair	-12008
▁inhaling	-12009
▁seething	-12010
▁sizzling	-12011
▁strapped	-12012
▁stressed	-12013
▁capturing	-12014
▁impassive	-12015
▁inability	-12016
▁recollect	-12017
▁revelling	-12018
▁irrational	-12019
▁scrambling	-12020
▁travelling	-12021
▁established	-12022
▁respectable	-12023
▁effortlessly	-12024
▁ridiculously	-12025
▁sardonically	-12026
lim	-12027
aryl	-12028
cest	-12029
corn	-12030
prot	-12031
ubby	-12032
▁riv	-12033
anton	-12034
awing	-12035
maker	-12036
oured	-12037
rance	-12038
yllis	-12039
▁bern	-12040
▁budd	-12041
▁edna	-12042
▁gree	-12043
▁plag	-12044
▁pots	-12045
▁root	-12046
▁slur	-12047
▁swig	-12048
▁topp	-12049
alling	-12050
arillo	-12051
ribute	-12052
▁armed	-12053
▁bands	-12054
▁britt	-12055
▁daryl	-12056
▁decad	-12057
▁demol	-12058
▁prost	-12059
▁rainb	-12060
▁regal	-12061
▁repay	-12062
▁tareq	-12063
▁tools	-12064
▁boldly	-12065
▁claims	-12066
▁entice	-12067
▁fanned	-12068
▁itched	-12069
▁kristi	-12070
▁mantle	-12071
▁roamed	-12072
▁shaved	-12073
▁solved	-12074
▁tablet	-12075
▁topped	-12076
▁update	-12077
▁versus	-12078
▁volume	-12079
▁averted	-12080
▁breakup	-12081
▁charmed	-12082
▁cunning	-12083
▁embroid	-12084
▁extract	-12085
▁funding	-12086
▁grilled	-12087
▁inexper	-12088
▁lengths	-12089
▁tremors	-12090
▁whistle	-12091
▁achingly	-12092
▁cornered	-12093
▁heavenly	-12094
▁homework	-12095
▁menacing	-12096
▁nickname	-12097
▁nuzzling	-12098
▁oblivion	-12099
▁terminal	-12100
▁vehicles	-12101
▁abilities	-12102
▁enigmatic	-12103
▁favorites	-12104
▁hardening	-12105
▁integrity	-12106
▁judgement	-12107
▁procedure	-12108
▁rehearsal	-12109
▁reviewing	-12110
▁snatching	-12111
▁villagers	-12112
▁apartments	-12113
▁decorating	-12114
▁delivering	-12115
▁performing	-12116
▁reflecting	-12117
▁thundering	-12118
▁windshield	-12119
▁observation	-12120
▁whereabouts	-12121
▁bewilderment	-12122
▁meaningfully	-12123
▁unpredictable	-12124
▁expressionless	-12125
fa	-12126
bid	-12127
oid	-12128
rus	-12129
vol	-12130
▁ll	-12131
hara	-12132
pent	-12133
▁coy	-12134
▁dna	-12135
▁pel	-12136
anked	-12137
ensed	-12138
found	-12139
until	-12140
▁anni	-12141
▁aria	-12142
▁asse	-12143
▁diag	-12144
▁indo	-12145
▁loop	-12146
▁meek	-12147
▁mute	-12148
▁rejo	-12149
▁shan	-12150
▁teet	-12151
▁unem	-12152
▁wasn	-12153
except	-12154
lement	-12155
rolled	-12156
umbing	-12157
▁abbey	-12158
▁bulge	-12159
▁citiz	-12160
▁glide	-12161
▁hedge	-12162
▁rearr	-12163
▁roots	-12164
▁suspe	-12165
▁tasks	-12166
▁bronze	-12167
▁dreamy	-12168
▁econom	-12169
▁endear	-12170
▁greece	-12171
▁pasted	-12172
▁rupert	-12173
▁ruther	-12174
▁violet	-12175
▁walker	-12176
▁battles	-12177
▁betting	-12178
▁economy	-12179
▁fifties	-12180
▁lobster	-12181
▁newport	-12182
▁phyllis	-12183
▁puppies	-12184
▁recomme	-12185
▁records	-12186
▁roaming	-12187
▁russian	-12188
▁swamped	-12189
▁tensing	-12190
▁watches	-12191
▁despised	-12192
▁detailed	-12193
▁doorknob	-12194
▁gingerly	-12195
▁kitchens	-12196
▁mingling	-12197
▁restroom	-12198
▁seducing	-12199
▁thumping	-12200
▁worthing	-12201
▁deafening	-12202
▁fireworks	-12203
▁graverley	-12204
▁grimacing	-12205
▁incapable	-12206
▁kidnapped	-12207
▁meanwhile	-12208
▁offensive	-12209
▁overdrive	-12210
▁responses	-12211
▁straddled	-12212
▁announcing	-12213
▁headlights	-12214
▁splintered	-12215
▁conclusions	-12216
▁manipulated	-12217
▁participate	-12218
▁preparation	-12219
▁overpowering	-12220
bon	-12221
dog	-12222
eds	-12223
god	-12224
ndo	-12225
roc	-12226
spe	-12227
club	-12228
gold	-12229
▁alm	-12230
▁fau	-12231
dling	-12232
▁cope	-12233
▁cram	-12234
▁dine	-12235
▁gare	-12236
▁hunk	-12237
▁leon	-12238
▁manh	-12239
▁peas	-12240
▁ploy	-12241
▁prow	-12242
▁sane	-12243
▁soda	-12244
▁tits	-12245
▁upro	-12246
▁vest	-12247
▁vile	-12248
amalyn	-12249
orient	-12250
vation	-12251
▁baron	-12252
▁beige	-12253
▁bulky	-12254
▁clubs	-12255
▁erupt	-12256
▁exert	-12257
▁havoc	-12258
▁juicy	-12259
▁loser	-12260
▁multi	-12261
▁siren	-12262
▁sized	-12263
▁ultra	-12264
▁warri	-12265
▁advise	-12266
▁busted	-12267
▁condes	-12268
▁couldn	-12269
▁counts	-12270
▁cowork	-12271
▁editor	-12272
▁evoked	-12273
▁hiring	-12274
▁histor	-12275
▁judged	-12276
▁mickey	-12277
▁molten	-12278
▁rabbit	-12279
▁rubber	-12280
▁sample	-12281
▁statue	-12282
▁ultras	-12283
▁vinnie	-12284
▁wiggle	-12285
▁audible	-12286
▁chagrin	-12287
▁chandel	-12288
▁conceal	-12289
▁disconn	-12290
▁flights	-12291
▁footmen	-12292
▁gilbert	-12293
▁halting	-12294
▁looming	-12295
▁monthly	-12296
▁mouthed	-12297
▁notepad	-12298
▁persist	-12299
▁rossini	-12300
▁seeping	-12301
▁suitors	-12302
▁unstead	-12303
▁whereas	-12304
▁behaving	-12305
▁category	-12306
▁coloring	-12307
▁departed	-12308
▁deprived	-12309
▁entryway	-12310
▁interact	-12311
▁perverse	-12312
▁scrutiny	-12313
▁solitude	-12314
▁swiveled	-12315
especially	-12316
▁apprehens	-12317
▁approving	-12318
▁defending	-12319
▁immensely	-12320
▁reasoning	-12321
▁spotlight	-12322
▁vacations	-12323
▁warehouse	-12324
▁assessment	-12325
▁evaporated	-12326
▁expressive	-12327
▁graciously	-12328
▁instrument	-12329
▁rutherford	-12330
▁extravagant	-12331
▁successfully	-12332
▁possessiveness	-12333
agu	-12334
bud	-12335
ola	-12336
whe	-12337
arer	-12338
coat	-12339
este	-12340
fine	-12341
ints	-12342
osis	-12343
plan	-12344
pons	-12345
ptit	-12346
ulty	-12347
▁cav	-12348
▁vow	-12349
ainty	-12350
▁boil	-12351
▁nash	-12352
▁palp	-12353
▁soak	-12354
▁void	-12355
estern	-12356
lected	-12357
quoise	-12358
struck	-12359
urried	-12360
▁bonus	-12361
▁kinda	-12362
▁levin	-12363
▁lists	-12364
▁pairs	-12365
▁posed	-12366
▁sites	-12367
▁vigor	-12368
▁vocal	-12369
▁whims	-12370
mouthed	-12371
▁boiled	-12372
▁dainty	-12373
▁debate	-12374
▁discip	-12375
▁donate	-12376
▁drying	-12377
▁humans	-12378
▁merger	-12379
▁pouted	-12380
▁sexier	-12381
▁trauma	-12382
▁willie	-12383
▁baggage	-12384
▁council	-12385
▁decline	-12386
▁despise	-12387
▁glinted	-12388
▁hostage	-12389
▁minimum	-12390
▁pendant	-12391
▁pitiful	-12392
▁scented	-12393
▁surgeon	-12394
▁amarillo	-12395
▁decipher	-12396
▁majority	-12397
▁massaged	-12398
▁associate	-12399
▁engrossed	-12400
▁formality	-12401
▁intellect	-12402
▁oversized	-12403
▁philosoph	-12404
▁sprawling	-12405
▁turquoise	-12406
▁associates	-12407
▁distinctly	-12408
▁inevitably	-12409
▁infectious	-12410
▁instructor	-12411
▁succession	-12412
▁ultrasound	-12413
▁advertising	-12414
▁contemplate	-12415
▁reassuringly	-12416
dr	-12417
hem	-12418
pan	-12419
inis	-12420
ndan	-12421
utes	-12422
vern	-12423
zied	-12424
celyn	-12425
ielle	-12426
olate	-12427
remon	-12428
story	-12429
uliar	-12430
worth	-12431
▁hike	-12432
▁hust	-12433
▁pops	-12434
▁rect	-12435
▁tile	-12436
retion	-12437
shirts	-12438
▁dined	-12439
▁disli	-12440
▁merch	-12441
▁noisy	-12442
▁pools	-12443
▁wines	-12444
pitched	-12445
▁agents	-12446
▁beaded	-12447
▁blurry	-12448
▁bobbed	-12449
▁closes	-12450
▁gareth	-12451
▁junior	-12452
▁loomed	-12453
▁subtly	-12454
▁transp	-12455
▁unders	-12456
▁vanity	-12457
▁briskly	-12458
▁creased	-12459
▁easiest	-12460
▁godfrey	-12461
▁hideous	-12462
▁jocelyn	-12463
▁natasha	-12464
▁nudging	-12465
▁portfol	-12466
ationally	-12467
▁appealed	-12468
▁confines	-12469
▁conquest	-12470
▁danielle	-12471
▁embraced	-12472
▁everyday	-12473
▁feathers	-12474
▁levinson	-12475
▁mourning	-12476
▁resented	-12477
▁shanelle	-12478
▁strangle	-12479
▁conceived	-12480
▁directing	-12481
▁governess	-12482
▁personnel	-12483
▁relishing	-12484
▁succumbed	-12485
▁suitcases	-12486
▁surreptit	-12487
▁valentine	-12488
▁destroying	-12489
▁efficiency	-12490
▁fatherhood	-12491
▁initiative	-12492
▁unsteadily	-12493
▁afghanistan	-12494
▁calculating	-12495
▁fashionable	-12496
▁meaningless	-12497
▁transparent	-12498
▁accompanying	-12499
▁mortification	-12500
cra	-12501
uph	-12502
▁ny	-12503
awed	-12504
food	-12505
ivan	-12506
orie	-12507
stra	-12508
▁arc	-12509
▁via	-12510
cript	-12511
pture	-12512
sorry	-12513
▁cape	-12514
▁coma	-12515
▁kenn	-12516
▁kens	-12517
▁puls	-12518
▁ruby	-12519
▁tube	-12520
▁unle	-12521
broken	-12522
encing	-12523
fiance	-12524
iality	-12525
igious	-12526
inated	-12527
istics	-12528
licted	-12529
▁arian	-12530
▁bould	-12531
▁hotly	-12532
▁indec	-12533
▁manly	-12534
▁plead	-12535
▁sated	-12536
▁shave	-12537
▁skeff	-12538
▁wiser	-12539
▁addict	-12540
▁bucked	-12541
▁burger	-12542
▁darrel	-12543
▁diaper	-12544
▁evenly	-12545
▁favors	-12546
▁floral	-12547
▁gamble	-12548
▁grooms	-12549
▁interf	-12550
▁minded	-12551
▁shitty	-12552
▁talbot	-12553
▁transf	-12554
▁triple	-12555
▁utmost	-12556
▁armrest	-12557
▁cooling	-12558
▁deepest	-12559
▁estates	-12560
▁fooling	-12561
▁harvard	-12562
▁primary	-12563
▁toddler	-12564
▁undress	-12565
▁wayward	-12566
▁wistful	-12567
▁wobbled	-12568
▁workout	-12569
▁adoption	-12570
▁brittany	-12571
▁detached	-12572
▁harmless	-12573
▁lordship	-12574
▁pavement	-12575
▁peculiar	-12576
▁poignant	-12577
▁resolute	-12578
▁absorbing	-12579
▁allowance	-12580
▁glowering	-12581
▁teenagers	-12582
▁unusually	-12583
▁acquainted	-12584
▁bodyguards	-12585
▁contracted	-12586
▁distraught	-12587
▁inspection	-12588
▁kidnapping	-12589
▁progressed	-12590
▁retirement	-12591
▁supportive	-12592
▁truthfully	-12593
▁introducing	-12594
▁skeffington	-12595
▁understands	-12596
▁preparations	-12597
..	-12598
asa	-12599
ixed	-12600
oped	-12601
uber	-12602
umsy	-12603
▁caf	-12604
▁pav	-12605
▁pip	-12606
avage	-12607
check	-12608
count	-12609
press	-12610
vable	-12611
▁alea	-12612
▁ivan	-12613
aulted	-12614
▁alley	-12615
▁crist	-12616
▁herit	-12617
▁manor	-12618
▁nicer	-12619
▁pussy	-12620
▁trays	-12621
sleeved	-12622
▁ancest	-12623
▁cereal	-12624
▁charli	-12625
▁clumsy	-12626
▁expose	-12627
▁harper	-12628
▁hawaii	-12629
▁hooded	-12630
▁insens	-12631
▁jammed	-12632
▁legacy	-12633
▁presum	-12634
▁pulsed	-12635
▁robbed	-12636
▁shifts	-12637
▁traged	-12638
▁unchar	-12639
▁weekly	-12640
▁writer	-12641
priately	-12642
▁aspects	-12643
▁bentner	-12644
▁brendan	-12645
▁buddies	-12646
▁descent	-12647
▁dripped	-12648
▁encased	-12649
▁essence	-12650
▁feature	-12651
▁flaming	-12652
▁involve	-12653
▁nagging	-12654
▁outdoor	-12655
▁reverse	-12656
▁shatter	-12657
▁slashed	-12658
▁stocked	-12659
▁sunrise	-12660
▁victims	-12661
▁welling	-12662
▁believes	-12663
▁bristled	-12664
▁buttoned	-12665
▁clicking	-12666
▁expanded	-12667
▁illusion	-12668
▁managers	-12669
▁marching	-12670
▁pleasing	-12671
▁porcelli	-12672
▁ravenous	-12673
▁reversed	-12674
▁squeezes	-12675
▁commotion	-12676
▁computers	-12677
▁consuming	-12678
▁intricate	-12679
▁nashville	-12680
▁nightclub	-12681
▁permitted	-12682
▁undressed	-12683
▁aftershave	-12684
▁boundaries	-12685
▁generosity	-12686
▁kensington	-12687
▁legitimate	-12688
▁microphone	-12689
▁pleasantly	-12690
▁practicing	-12691
▁properties	-12692
▁regretting	-12693
▁stunningly	-12694
▁undressing	-12695
▁wheelchair	-12696
▁countryside	-12697
▁destruction	-12698
▁inclination	-12699
▁instinctive	-12700
▁predictable	-12701
▁organization	-12702
abe	-12703
gle	-12704
urt	-12705
▁ax	-12706
atch	-12707
ayer	-12708
fish	-12709
hers	-12710
hoor	-12711
oard	-12712
▁aal	-12713
▁gio	-12714
▁pla	-12715
oused	-12716
▁epit	-12717
▁jasm	-12718
▁jung	-12719
▁pond	-12720
▁puff	-12721
▁rely	-12722
▁scam	-12723
▁snug	-12724
should	-12725
unders	-12726
▁aspir	-12727
▁asset	-12728
▁azale	-12729
▁badge	-12730
▁becka	-12731
▁cigar	-12732
▁dishe	-12733
▁forms	-12734
▁lurch	-12735
▁skies	-12736
▁winds	-12737
workers	-12738
▁anyhow	-12739
▁balled	-12740
▁barbec	-12741
▁checks	-12742
▁gianni	-12743
▁molded	-12744
▁oblige	-12745
▁powers	-12746
▁primal	-12747
▁prying	-12748
▁puffed	-12749
▁seeped	-12750
▁smugly	-12751
▁trance	-12752
▁trucks	-12753
▁wither	-12754
▁antagon	-12755
▁consume	-12756
▁damhoor	-12757
▁earning	-12758
▁eleanor	-12759
▁ireland	-12760
▁readily	-12761
▁rollins	-12762
▁shepher	-12763
▁starved	-12764
▁weapons	-12765
condition	-12766
▁arousing	-12767
▁cleavage	-12768
▁coughing	-12769
▁decadent	-12770
▁derision	-12771
▁facility	-12772
▁heritage	-12773
▁maneuver	-12774
▁mounting	-12775
▁pampered	-12776
▁patterns	-12777
▁secluded	-12778
▁signaled	-12779
▁splendor	-12780
▁underest	-12781
▁blatantly	-12782
▁darkening	-12783
▁miniature	-12784
▁portfolio	-12785
▁promotion	-12786
▁qualified	-12787
▁resisting	-12788
▁sanctuary	-12789
▁australian	-12790
▁chocolates	-12791
▁difficulty	-12792
▁greenhouse	-12793
▁hesitating	-12794
▁laughingly	-12795
▁nonchalant	-12796
▁objections	-12797
▁restlessly	-12798
▁acquisition	-12799
▁constricted	-12800
▁generations	-12801
▁masculinity	-12802
▁seriousness	-12803
▁suffocating	-12804
▁unbuttoning	-12805
▁complimented	-12806
▁disapproving	-12807
▁insecurities	-12808
▁complications	-12809
sk	-12810
uv	-12811
abs	-12812
blo	-12813
cel	-12814
cha	-12815
ria	-12816
aghe	-12817
corp	-12818
tell	-12819
▁ooh	-12820
▁ray	-12821
▁tum	-12822
angel	-12823
iders	-12824
jorie	-12825
rical	-12826
world	-12827
▁bait	-12828
▁foul	-12829
▁goof	-12830
▁maya	-12831
▁nave	-12832
▁nigg	-12833
▁piqu	-12834
▁riot	-12835
▁uncl	-12836
▁yoga	-12837
iation	-12838
imated	-12839
ivable	-12840
ounted	-12841
ouring	-12842
ourmet	-12843
▁blend	-12844
▁erase	-12845
▁hyper	-12846
▁loans	-12847
▁nudge	-12848
▁panel	-12849
▁prest	-12850
▁riasa	-12851
▁ruled	-12852
▁sheen	-12853
▁stony	-12854
▁thump	-12855
▁wraps	-12856
▁wrung	-12857
section	-12858
▁annual	-12859
▁athens	-12860
▁azalea	-12861
▁banker	-12862
▁breach	-12863
▁cherry	-12864
▁chubby	-12865
▁cruelt	-12866
▁deftly	-12867
▁dennis	-12868
▁filthy	-12869
▁hearty	-12870
▁hockey	-12871
▁polish	-12872
▁scents	-12873
▁seared	-12874
▁sprink	-12875
▁tactic	-12876
▁thrott	-12877
▁tunnel	-12878
▁worker	-12879
▁boredom	-12880
▁confide	-12881
▁gravely	-12882
▁jasmine	-12883
▁leaders	-12884
▁mockery	-12885
▁nipping	-12886
▁outline	-12887
▁plummet	-12888
▁quicker	-12889
▁ribbons	-12890
▁throaty	-12891
▁tremend	-12892
▁vanilla	-12893
▁visions	-12894
▁alarming	-12895
▁balanced	-12896
▁crinkled	-12897
▁deflated	-12898
▁faithful	-12899
▁frenzied	-12900
▁freshman	-12901
▁graduate	-12902
▁marjorie	-12903
▁murdered	-12904
▁publicly	-12905
▁sheepish	-12906
▁threaten	-12907
▁concealed	-12908
▁eliminate	-12909
▁imaginary	-12910
▁intercorp	-12911
▁lightened	-12912
▁remainder	-12913
▁squirming	-12914
▁triggered	-12915
▁appetizers	-12916
▁culbertson	-12917
▁dissipated	-12918
▁generation	-12919
▁maneuvered	-12920
▁obediently	-12921
▁resolution	-12922
▁penetrating	-12923
▁sentimental	-12924
▁suppressing	-12925
▁triumphantly	-12926
▁professionally	-12927
wo	-12928
gun	-12929
nen	-12930
urn	-12931
▁mm	-12932
abby	-12933
bish	-12934
irie	-12935
love	-12936
olai	-12937
wall	-12938
▁hud	-12939
▁ome	-12940
▁sis	-12941
dgkin	-12942
ishes	-12943
uster	-12944
▁coup	-12945
▁fits	-12946
▁lain	-12947
▁limb	-12948
▁onsl	-12949
▁pans	-12950
▁shir	-12951
▁twil	-12952
antial	-12953
liness	-12954
▁batch	-12955
▁caffe	-12956
▁edith	-12957
▁immin	-12958
▁lease	-12959
▁maids	-12960
▁marky	-12961
▁salty	-12962
▁tread	-12963
▁troph	-12964
artment	-12965
▁avalon	-12966
▁boards	-12967
▁bruise	-12968
▁demons	-12969
▁dishon	-12970
▁elated	-12971
▁flurry	-12972
▁hinted	-12973
▁horrid	-12974
▁issued	-12975
▁mainly	-12976
▁mating	-12977
▁overfl	-12978
▁perpet	-12979
▁poorly	-12980
▁seamst	-12981
▁superv	-12982
▁tumble	-12983
▁wilder	-12984
▁brennen	-12985
▁closure	-12986
▁disease	-12987
▁factory	-12988
▁feigned	-12989
▁gourmet	-12990
▁illness	-12991
▁journal	-12992
▁lacking	-12993
▁lasting	-12994
▁legally	-12995
▁manhatt	-12996
▁matches	-12997
▁opposed	-12998
▁prairie	-12999
▁stealth	-13000
▁trimmed	-13001
▁walkway	-13002
▁deceived	-13003
▁destined	-13004
▁devotion	-13005
▁enclosed	-13006
▁rumbling	-13007
▁secondly	-13008
▁storming	-13009
▁terrific	-13010
▁twenties	-13011
▁twilight	-13012
▁vibrator	-13013
▁adamantly	-13014
▁adjoining	-13015
▁automatic	-13016
▁carstairs	-13017
▁indulging	-13018
▁onslaught	-13019
▁orphanage	-13020
▁pleasures	-13021
▁quizzical	-13022
▁resembled	-13023
▁sexuality	-13024
▁volunteer	-13025
▁wistfully	-13026
▁comprehend	-13027
▁immaculate	-13028
▁implacable	-13029
▁insignific	-13030
▁flirtatious	-13031
▁heartbroken	-13032
▁requirements	-13033
fus	-13034
hib	-13035
sex	-13036
ccer	-13037
chen	-13038
iver	-13039
sons	-13040
tion	-13041
▁asp	-13042
▁cos	-13043
▁vip	-13044
andra	-13045
ieces	-13046
overs	-13047
rique	-13048
tight	-13049
ugged	-13050
▁brew	-13051
▁cove	-13052
▁cres	-13053
▁dagg	-13054
▁diet	-13055
▁ding	-13056
▁gret	-13057
▁kyra	-13058
▁laps	-13059
▁migr	-13060
▁muff	-13061
▁sall	-13062
▁unim	-13063
ienced	-13064
mobile	-13065
ulence	-13066
verage	-13067
▁banks	-13068
▁brant	-13069
▁cabot	-13070
▁caval	-13071
▁chore	-13072
▁coats	-13073
▁dilig	-13074
▁eerie	-13075
▁feist	-13076
▁grain	-13077
▁menus	-13078
▁norma	-13079
▁races	-13080
▁razor	-13081
▁rides	-13082
▁shrew	-13083
▁slate	-13084
▁tiger	-13085
▁tourn	-13086
▁tummy	-13087
aghetti	-13088
essions	-13089
natured	-13090
▁crotch	-13091
▁devoid	-13092
▁disney	-13093
▁envied	-13094
▁forces	-13095
▁joyous	-13096
▁marvel	-13097
▁overst	-13098
▁shares	-13099
▁soccer	-13100
▁spaces	-13101
▁throws	-13102
▁unbuck	-13103
▁vacant	-13104
▁widely	-13105
▁adoring	-13106
▁baffled	-13107
▁coaxing	-13108
▁committ	-13109
▁daggers	-13110
▁dashing	-13111
▁descend	-13112
▁discard	-13113
▁dischar	-13114
▁drivers	-13115
▁electri	-13116
▁gallant	-13117
▁grandpa	-13118
▁greatly	-13119
▁hodgkin	-13120
▁hopping	-13121
▁pitched	-13122
▁players	-13123
▁profits	-13124
▁pursued	-13125
▁radiant	-13126
▁rumpled	-13127
▁scrutin	-13128
▁species	-13129
▁thinned	-13130
▁threads	-13131
▁torrent	-13132
▁vintage	-13133
▁warrior	-13134
▁centered	-13135
▁devilish	-13136
▁gardener	-13137
▁glimpsed	-13138
▁gullible	-13139
▁inserted	-13140
▁officers	-13141
▁selfless	-13142
▁steadied	-13143
▁tabloids	-13144
everything	-13145
▁defiantly	-13146
▁enjoyment	-13147
▁expanding	-13148
▁manhattan	-13149
▁measuring	-13150
▁preschool	-13151
▁showering	-13152
▁spaghetti	-13153
▁therapist	-13154
▁anticipate	-13155
▁disheveled	-13156
▁imperative	-13157
▁persuasive	-13158
▁relaxation	-13159
▁suggestive	-13160
▁financially	-13161
▁illuminated	-13162
▁contradicted	-13163
ba	-13164
acha	-13165
answ	-13166
clad	-13167
drop	-13168
eded	-13169
open	-13170
orth	-13171
tone	-13172
ules	-13173
▁aye	-13174
▁gag	-13175
▁rin	-13176
avros	-13177
ctive	-13178
sight	-13179
▁brav	-13180
▁itch	-13181
▁pomp	-13182
▁pump	-13183
▁rays	-13184
▁vacu	-13185
icient	-13186
irties	-13187
▁blade	-13188
▁blows	-13189
▁brink	-13190
▁cooed	-13191
▁dough	-13192
▁halls	-13193
▁hasty	-13194
▁lousy	-13195
▁param	-13196
▁perks	-13197
▁stays	-13198
forward	-13199
fucking	-13200
usively	-13201
▁accuse	-13202
▁africa	-13203
▁dotted	-13204
▁fueled	-13205
▁jerome	-13206
▁locker	-13207
▁parade	-13208
▁poppet	-13209
▁refuge	-13210
▁skimpy	-13211
▁squeal	-13212
▁untied	-13213
▁wafted	-13214
bringing	-13215
▁bottoms	-13216
▁cherish	-13217
▁clawing	-13218
▁cruelty	-13219
▁cubicle	-13220
▁edwards	-13221
▁fearful	-13222
▁fighter	-13223
▁observe	-13224
▁payback	-13225
▁plaster	-13226
▁popcorn	-13227
▁quipped	-13228
▁beckoned	-13229
▁brimming	-13230
▁buttocks	-13231
▁charging	-13232
▁collided	-13233
▁cynicism	-13234
▁endeavor	-13235
▁feverish	-13236
▁grudging	-13237
▁knickers	-13238
▁planting	-13239
▁reciproc	-13240
▁reviewed	-13241
▁richmond	-13242
▁sporting	-13243
▁stalling	-13244
▁unfolded	-13245
▁wariness	-13246
▁arranging	-13247
▁disorient	-13248
▁furnished	-13249
▁indignant	-13250
▁replacing	-13251
▁whirlwind	-13252
▁disrespect	-13253
▁heartbreak	-13254
▁meticulous	-13255
▁priorities	-13256
▁presentable	-13257
▁increasingly	-13258
hmm	-13259
pic	-13260
anim	-13261
hift	-13262
inky	-13263
lers	-13264
mere	-13265
▁mop	-13266
▁mou	-13267
▁rey	-13268
bably	-13269
class	-13270
hello	-13271
month	-13272
moral	-13273
oster	-13274
riere	-13275
strom	-13276
table	-13277
▁calf	-13278
▁fred	-13279
▁gosh	-13280
▁horn	-13281
▁mint	-13282
▁unra	-13283
▁wilt	-13284
accept	-13285
arette	-13286
factly	-13287
phones	-13288
really	-13289
rician	-13290
utable	-13291
▁carey	-13292
▁matte	-13293
▁navel	-13294
▁rufus	-13295
▁teams	-13296
▁unatt	-13297
▁unnot	-13298
unching	-13299
▁canvas	-13300
▁chains	-13301
▁dances	-13302
▁downed	-13303
▁handsh	-13304
▁marian	-13305
▁mashed	-13306
▁piling	-13307
▁revved	-13308
▁ridden	-13309
▁tinged	-13310
▁tricky	-13311
▁twists	-13312
▁unreal	-13313
▁unshed	-13314
▁valued	-13315
▁wrench	-13316
atisfied	-13317
gression	-13318
▁angered	-13319
▁balloon	-13320
▁decency	-13321
▁enrique	-13322
▁fathers	-13323
▁finance	-13324
▁garbage	-13325
▁melissa	-13326
▁methods	-13327
▁rampant	-13328
▁reynold	-13329
▁science	-13330
▁tragedy	-13331
▁carolina	-13332
▁flinging	-13333
▁fragrant	-13334
▁guidance	-13335
▁imminent	-13336
▁mouthful	-13337
▁newfound	-13338
▁pancakes	-13339
▁recoiled	-13340
▁saunders	-13341
▁shipping	-13342
▁stabbing	-13343
▁tripping	-13344
▁animosity	-13345
▁cigarette	-13346
▁compelled	-13347
▁coworkers	-13348
▁entranced	-13349
▁francesca	-13350
▁intrusion	-13351
▁persuaded	-13352
▁unnoticed	-13353
▁willpower	-13354
▁attendance	-13355
▁optimistic	-13356
▁productive	-13357
▁settlement	-13358
▁ultimately	-13359
▁patronizing	-13360
▁contractions	-13361
▁acknowledging	-13362
new	-13363
adys	-13364
anqu	-13365
hole	-13366
lley	-13367
oses	-13368
rend	-13369
wide	-13370
▁faw	-13371
▁kar	-13372
▁shh	-13373
erate	-13374
onald	-13375
▁fert	-13376
▁fitz	-13377
▁hilt	-13378
▁hmmm	-13379
▁scre	-13380
▁tons	-13381
▁unse	-13382
eteria	-13383
pering	-13384
▁abdul	-13385
▁ardor	-13386
▁goods	-13387
▁irate	-13388
▁needy	-13389
▁risky	-13390
▁sperm	-13391
▁tents	-13392
▁widow	-13393
ainable	-13394
cussion	-13395
parable	-13396
▁angled	-13397
▁baring	-13398
▁camden	-13399
▁demure	-13400
▁fawkes	-13401
▁grades	-13402
▁jungle	-13403
▁medium	-13404
▁nearer	-13405
▁novels	-13406
▁primly	-13407
▁sheath	-13408
▁slices	-13409
▁speaks	-13410
▁stalls	-13411
renching	-13412
yielding	-13413
▁endings	-13414
▁maureen	-13415
▁mirrors	-13416
▁persona	-13417
▁suicide	-13418
▁tamalyn	-13419
▁abortion	-13420
▁addicted	-13421
▁advances	-13422
▁canceled	-13423
▁daunting	-13424
▁derisive	-13425
▁derriere	-13426
▁farewell	-13427
▁freckles	-13428
▁fullness	-13429
▁gretchen	-13430
▁growling	-13431
▁mcdonald	-13432
▁monitors	-13433
▁obstacle	-13434
▁palpable	-13435
▁sneakers	-13436
▁speakers	-13437
▁stanford	-13438
▁cafeteria	-13439
▁crackling	-13440
▁creatures	-13441
▁glistened	-13442
▁makeshift	-13443
▁scrunched	-13444
▁sharpened	-13445
▁bridesmaid	-13446
▁descending	-13447
▁accelerated	-13448
▁astonishing	-13449
▁handwriting	-13450
▁indifferent	-13451
▁inhibitions	-13452
▁recommended	-13453
▁uncharacter	-13454
▁businesslike	-13455
▁disconcerting	-13456
▁instantaneous	-13457
▁transformation	-13458
ima	-13459
rah	-13460
bird	-13461
inum	-13462
udic	-13463
▁aug	-13464
addle	-13465
cibly	-13466
elity	-13467
erior	-13468
fting	-13469
naked	-13470
plete	-13471
rison	-13472
yards	-13473
▁barr	-13474
▁chet	-13475
▁euph	-13476
▁grit	-13477
▁mell	-13478
▁neon	-13479
▁nich	-13480
▁reid	-13481
▁temp	-13482
▁trot	-13483
▁unsc	-13484
before	-13485
▁discl	-13486
▁dusty	-13487
▁foods	-13488
▁lawns	-13489
▁mindy	-13490
▁penis	-13491
▁perse	-13492
▁radar	-13493
▁stamp	-13494
▁sympt	-13495
▁vines	-13496
▁anchor	-13497
▁backup	-13498
▁banish	-13499
▁barged	-13500
▁canopy	-13501
▁cellar	-13502
▁charms	-13503
▁fondly	-13504
▁grapes	-13505
▁lodged	-13506
▁occupy	-13507
▁pounce	-13508
▁stacks	-13509
▁swings	-13510
▁thayer	-13511
▁tiptoe	-13512
▁tranqu	-13513
▁zoomed	-13514
▁boasted	-13515
▁couches	-13516
▁delayed	-13517
▁heavier	-13518
▁islands	-13519
▁knotted	-13520
▁mexican	-13521
▁newborn	-13522
▁pearson	-13523
▁richest	-13524
▁seizing	-13525
▁shaving	-13526
▁thickly	-13527
▁accented	-13528
▁asserted	-13529
▁bustling	-13530
▁caffeine	-13531
▁cashmere	-13532
▁chilling	-13533
▁desserts	-13534
▁dreading	-13535
▁ferocity	-13536
▁forcibly	-13537
▁haunting	-13538
▁kneading	-13539
▁lemonade	-13540
▁morrison	-13541
▁organize	-13542
▁platinum	-13543
▁reynolds	-13544
▁rhythmic	-13545
▁silenced	-13546
▁smacking	-13547
▁sniffing	-13548
▁trickled	-13549
acceptable	-13550
▁appointed	-13551
▁backstage	-13552
▁childress	-13553
▁firsthand	-13554
▁picturing	-13555
▁stationed	-13556
▁technique	-13557
▁associated	-13558
▁complaints	-13559
▁manipulate	-13560
▁population	-13561
▁submission	-13562
▁unyielding	-13563
▁wordlessly	-13564
▁compartment	-13565
▁girlfriends	-13566
▁inspiration	-13567
▁photographers	-13568
▁uncontrollably	-13569
bat	-13570
dad	-13571
ete	-13572
hey	-13573
rad	-13574
etic	-13575
llah	-13576
urie	-13577
▁aub	-13578
▁cir	-13579
▁dio	-13580
▁gem	-13581
▁gps	-13582
▁rac	-13583
could	-13584
paper	-13585
tural	-13586
vious	-13587
yenne	-13588
▁bour	-13589
▁brat	-13590
▁clou	-13591
▁dusk	-13592
▁gene	-13593
▁hott	-13594
▁idle	-13595
▁marc	-13596
▁rake	-13597
▁reef	-13598
▁spar	-13599
▁stew	-13600
ieving	-13601
malley	-13602
vember	-13603
▁bossy	-13604
▁brute	-13605
▁exped	-13606
▁inhab	-13607
▁ludic	-13608
▁paces	-13609
▁poppy	-13610
▁rehab	-13611
▁rival	-13612
▁sacha	-13613
▁santa	-13614
▁stout	-13615
▁terry	-13616
▁theme	-13617
▁ullah	-13618
▁unnat	-13619
▁vomit	-13620
▁wagga	-13621
cending	-13622
▁august	-13623
▁barrel	-13624
▁crazed	-13625
▁curtsy	-13626
▁euphor	-13627
▁extend	-13628
▁exuber	-13629
▁gerald	-13630
▁gladys	-13631
▁growth	-13632
▁interv	-13633
▁lashed	-13634
▁laurie	-13635
▁outlet	-13636
▁shrill	-13637
▁sprung	-13638
▁styled	-13639
▁watery	-13640
▁alerted	-13641
▁charade	-13642
▁drastic	-13643
▁drooped	-13644
▁framing	-13645
▁grazing	-13646
▁hooking	-13647
▁irrevoc	-13648
▁jawline	-13649
▁needles	-13650
▁neglect	-13651
▁peeling	-13652
▁rainbow	-13653
▁seafood	-13654
▁shelley	-13655
▁stylish	-13656
▁tissues	-13657
▁tricked	-13658
▁whisked	-13659
▁besotted	-13660
▁diverted	-13661
▁emphatic	-13662
▁products	-13663
▁rattling	-13664
▁sacrific	-13665
▁sleepily	-13666
▁solitary	-13667
▁swearing	-13668
▁viscount	-13669
▁wringing	-13670
▁ambitious	-13671
▁anonymous	-13672
▁clipboard	-13673
▁dignified	-13674
▁gardening	-13675
▁grumbling	-13676
▁ignorance	-13677
▁languages	-13678
▁ludicrous	-13679
▁murmuring	-13680
▁portraits	-13681
▁sunscreen	-13682
▁untouched	-13683
▁boyfriends	-13684
▁contradict	-13685
▁definition	-13686
▁exhibition	-13687
▁femininity	-13688
▁privileged	-13689
▁upbringing	-13690
▁involuntary	-13691
▁billionaires	-13692
▁outrageously	-13693
▁stubbornness	-13694
▁exceptionally	-13695
▁insignificant	-13696
▁interrogation	-13697
ota	-13698
ray	-13699
sen	-13700
tem	-13701
win	-13702
alog	-13703
fift	-13704
gled	-13705
ingu	-13706
phic	-13707
▁edm	-13708
bella	-13709
store	-13710
▁crop	-13711
▁drow	-13712
▁ferr	-13713
▁joan	-13714
▁lend	-13715
▁lops	-13716
▁remn	-13717
▁saus	-13718
▁sept	-13719
▁tame	-13720
▁ungr	-13721
ocused	-13722
stered	-13723
uccess	-13724
▁abund	-13725
▁album	-13726
▁aless	-13727
▁aroma	-13728
▁aunts	-13729
▁braid	-13730
▁cycle	-13731
▁deter	-13732
▁diary	-13733
▁ditch	-13734
▁elite	-13735
▁films	-13736
▁flats	-13737
▁grips	-13738
▁insin	-13739
▁piles	-13740
▁pinch	-13741
▁repul	-13742
▁seize	-13743
▁sends	-13744
▁tempo	-13745
▁venue	-13746
avering	-13747
committ	-13748
ointing	-13749
▁assemb	-13750
▁brakes	-13751
▁bubbly	-13752
▁deepen	-13753
▁everly	-13754
▁feeble	-13755
▁feisty	-13756
▁fished	-13757
▁gerard	-13758
▁gloria	-13759
▁hectic	-13760
▁maiden	-13761
▁overre	-13762
▁parano	-13763
▁prices	-13764
▁produc	-13765
▁reduce	-13766
▁scrape	-13767
▁seaton	-13768
▁uproar	-13769
▁bounded	-13770
▁brewing	-13771
▁console	-13772
▁freezer	-13773
▁insults	-13774
▁liberty	-13775
▁molding	-13776
▁prayers	-13777
▁predict	-13778
▁reverie	-13779
▁stanton	-13780
▁systems	-13781
▁wrought	-13782
▁cheyenne	-13783
▁chopping	-13784
▁conjured	-13785
▁grieving	-13786
▁guttural	-13787
▁implying	-13788
▁indulged	-13789
▁interpre	-13790
▁lopsided	-13791
▁reddened	-13792
▁requests	-13793
▁scooping	-13794
▁shadowed	-13795
▁shepherd	-13796
▁squarely	-13797
▁agreeable	-13798
▁centuries	-13799
▁civilized	-13800
▁clamoring	-13801
▁committee	-13802
▁generated	-13803
▁inventory	-13804
▁knowingly	-13805
▁legendary	-13806
▁neglected	-13807
▁notorious	-13808
▁righteous	-13809
▁switching	-13810
▁captivated	-13811
▁completion	-13812
▁concussion	-13813
▁obligation	-13814
▁penetrated	-13815
▁undeniable	-13816
▁celebrities	-13817
▁confronting	-13818
▁exploration	-13819
▁speculative	-13820
▁affectionate	-13821
▁distractedly	-13822
▁implications	-13823
▁inexplicable	-13824
▁relentlessly	-13825
▁surrendering	-13826
▁involuntarily	-13827
oom	-13828
beit	-13829
gthe	-13830
inch	-13831
ller	-13832
nice	-13833
oeuv	-13834
▁cel	-13835
▁gum	-13836
▁nam	-13837
amous	-13838
eters	-13839
iffon	-13840
itals	-13841
▁bail	-13842
▁cali	-13843
▁caps	-13844
▁cure	-13845
▁dose	-13846
▁exec	-13847
▁intu	-13848
▁isol	-13849
▁lect	-13850
▁mack	-13851
▁neur	-13852
▁nola	-13853
▁ouch	-13854
▁pors	-13855
▁rory	-13856
▁sock	-13857
▁ther	-13858
backed	-13859
called	-13860
enance	-13861
rapped	-13862
umbles	-13863
▁error	-13864
▁inade	-13865
▁jacqu	-13866
▁licks	-13867
▁mirac	-13868
▁monty	-13869
▁persp	-13870
▁rider	-13871
▁sedan	-13872
ainting	-13873
fulness	-13874
ingwood	-13875
tenance	-13876
thought	-13877
▁abused	-13878
▁aiming	-13879
▁beeped	-13880
▁behavi	-13881
▁bounds	-13882
▁busily	-13883
▁casino	-13884
▁darned	-13885
▁emerge	-13886
▁exceed	-13887
▁hiking	-13888
▁jogged	-13889
▁learnt	-13890
▁mutter	-13891
▁nostal	-13892
▁precar	-13893
▁pupils	-13894
▁rocket	-13895
▁scares	-13896
▁shovel	-13897
▁submit	-13898
▁tumult	-13899
▁vastly	-13900
▁warmer	-13901
anything	-13902
ponsible	-13903
▁acquire	-13904
▁battery	-13905
▁bottled	-13906
▁chiffon	-13907
▁dubious	-13908
▁festive	-13909
▁footing	-13910
▁hauling	-13911
▁labored	-13912
▁penrose	-13913
▁signals	-13914
▁silvery	-13915
▁slicing	-13916
▁sommers	-13917
▁stalled	-13918
▁summons	-13919
▁bellowed	-13920
▁billings	-13921
▁brooding	-13922
▁climaxed	-13923
▁division	-13924
▁improved	-13925
▁marquess	-13926
▁merchand	-13927
▁partying	-13928
▁peripher	-13929
▁smirking	-13930
▁spitting	-13931
▁supplied	-13932
▁vampires	-13933
▁weakened	-13934
▁headlines	-13935
▁hilarious	-13936
▁impulsive	-13937
▁mockingly	-13938
▁overwhelm	-13939
▁ownership	-13940
▁sidelines	-13941
▁suspended	-13942
▁vineyards	-13943
▁weathered	-13944
▁calculated	-13945
▁carelessly	-13946
▁developing	-13947
▁motivation	-13948
▁preference	-13949
▁screeching	-13950
▁transition	-13951
▁belligerent	-13952
▁brilliantly	-13953
▁collingwood	-13954
▁forthcoming	-13955
▁fulfillment	-13956
▁highlighted	-13957
▁improvement	-13958
▁miscarriage	-13959
▁scholarship	-13960
▁superficial	-13961
▁unacceptable	-13962
▁incredulously	-13963
▁investigators	-13964
mw	-13965
mph	-13966
sto	-13967
aron	-13968
augh	-13969
berg	-13970
colm	-13971
does	-13972
ober	-13973
rust	-13974
were	-13975
wick	-13976
▁blu	-13977
▁bmw	-13978
▁pau	-13979
▁rod	-13980
▁tad	-13981
▁vag	-13982
andah	-13983
athon	-13984
atile	-13985
bable	-13986
blake	-13987
blown	-13988
ersed	-13989
great	-13990
namon	-13991
owned	-13992
proof	-13993
▁bake	-13994
▁blit	-13995
▁bugs	-13996
▁coer	-13997
▁embo	-13998
▁fero	-13999
▁khan	-14000
▁matr	-14001
▁recl	-14002
▁rubs	-14003
▁sull	-14004
course	-14005
lidded	-14006
rimmed	-14007
▁beams	-14008
▁boobs	-14009
▁comed	-14010
▁conco	-14011
▁glove	-14012
▁laden	-14013
▁lamps	-14014
▁lands	-14015
▁paren	-14016
▁plays	-14017
▁remed	-14018
▁scale	-14019
▁slope	-14020
▁tales	-14021
▁texts	-14022
▁tinge	-14023
▁trump	-14024
blooded	-14025
licting	-14026
▁apples	-14027
▁avenue	-14028
▁bonnet	-14029
▁carrot	-14030
▁causes	-14031
▁clawed	-14032
▁dabbed	-14033
▁domain	-14034
▁doomed	-14035
▁dusted	-14036
▁farmer	-14037
▁garlic	-14038
▁grumpy	-14039
▁housed	-14040
▁impart	-14041
▁lapels	-14042
▁pajama	-14043
▁recipe	-14044
▁shoots	-14045
▁strung	-14046
▁turkey	-14047
▁unclen	-14048
▁waived	-14049
▁whined	-14050
▁altered	-14051
▁clearer	-14052
▁destiny	-14053
▁ferrari	-14054
▁flexing	-14055
▁flirted	-14056
▁flowery	-14057
▁jamison	-14058
▁linking	-14059
▁october	-14060
▁porsche	-14061
▁refined	-14062
▁savings	-14063
▁smoking	-14064
▁viewing	-14065
▁audacity	-14066
▁chestnut	-14067
▁cinnamon	-14068
▁coherent	-14069
▁contours	-14070
▁dictated	-14071
▁eloquent	-14072
▁festival	-14073
▁insecure	-14074
▁measures	-14075
▁mushroom	-14076
▁outlined	-14077
▁rearview	-14078
▁reliable	-14079
▁screwing	-14080
▁takeover	-14081
▁wiggling	-14082
▁contorted	-14083
▁dependent	-14084
▁disagreed	-14085
▁ferocious	-14086
▁interlude	-14087
▁motioning	-14088
▁murderous	-14089
▁realising	-14090
▁sentences	-14091
▁splashing	-14092
▁tremulous	-14093
▁blissfully	-14094
▁enchanting	-14095
▁interviews	-14096
▁shockingly	-14097
▁smothering	-14098
▁tournament	-14099
▁millionaire	-14100
▁recognizing	-14101
▁reservation	-14102
▁strawberries	-14103
▁appropriately	-14104
ez	-14105
flo	-14106
opp	-14107
ski	-14108
ugs	-14109
▁eb	-14110
card	-14111
inks	-14112
kill	-14113
rics	-14114
sent	-14115
▁dol	-14116
▁pew	-14117
agues	-14118
antha	-14119
tails	-14120
▁amen	-14121
▁bass	-14122
▁cerv	-14123
▁fuel	-14124
▁june	-14125
▁loaf	-14126
▁mait	-14127
▁peel	-14128
▁peep	-14129
▁pitc	-14130
▁slot	-14131
▁unsh	-14132
▁upgr	-14133
angelo	-14134
erritt	-14135
folded	-14136
izable	-14137
washer	-14138
▁aggra	-14139
▁cinde	-14140
▁clive	-14141
▁colon	-14142
▁diagn	-14143
▁farce	-14144
▁gloom	-14145
▁goble	-14146
▁hence	-14147
▁jessy	-14148
▁puffy	-14149
▁raspy	-14150
▁scoop	-14151
▁snowy	-14152
▁solar	-14153
▁timid	-14154
▁wagon	-14155
hibited	-14156
▁chills	-14157
▁howled	-14158
▁humble	-14159
▁julius	-14160
▁lotion	-14161
▁marsha	-14162
▁perked	-14163
▁rammed	-14164
▁rudely	-14165
▁sucker	-14166
▁survey	-14167
▁topics	-14168
▁treats	-14169
▁acquies	-14170
▁adorned	-14171
▁cashier	-14172
▁conquer	-14173
▁enlight	-14174
▁glimmer	-14175
▁inching	-14176
▁intrude	-14177
▁precaut	-14178
▁queried	-14179
▁streaks	-14180
▁talents	-14181
▁thirsty	-14182
▁vacated	-14183
▁yearned	-14184
▁biscuits	-14185
▁crackers	-14186
▁cristolo	-14187
▁donation	-14188
▁humorous	-14189
▁inspired	-14190
▁isolated	-14191
▁pinching	-14192
▁reckoned	-14193
▁replying	-14194
▁riveting	-14195
▁simmered	-14196
▁skerritt	-14197
▁symptoms	-14198
▁verandah	-14199
▁warnings	-14200
▁watering	-14201
▁williams	-14202
▁blossomed	-14203
▁fashioned	-14204
▁handcuffs	-14205
▁handshake	-14206
▁investors	-14207
▁mistaking	-14208
▁musicians	-14209
▁objective	-14210
▁prevented	-14211
▁rejecting	-14212
▁signaling	-14213
▁uniformed	-14214
▁vegetable	-14215
▁complexion	-14216
▁confirming	-14217
▁dishwasher	-14218
▁huntington	-14219
▁motionless	-14220
▁playground	-14221
▁reappeared	-14222
▁responsive	-14223
▁sheepishly	-14224
▁uneasiness	-14225
▁unsettling	-14226
▁anniversary	-14227
▁maintenance	-14228
▁retribution	-14229
▁stimulation	-14230
▁hysterically	-14231
ja	-14232
ta	-14233
ala	-14234
def	-14235
dis	-14236
ptu	-14237
▁py	-14238
bery	-14239
dled	-14240
gent	-14241
greg	-14242
ieth	-14243
iles	-14244
mama	-14245
quer	-14246
rils	-14247
sels	-14248
uity	-14249
▁cem	-14250
bound	-14251
brook	-14252
edged	-14253
plane	-14254
quest	-14255
▁alph	-14256
▁cuff	-14257
▁ipad	-14258
▁mead	-14259
▁pall	-14260
▁puck	-14261
▁rung	-14262
▁verd	-14263
agious	-14264
romptu	-14265
▁crowe	-14266
▁dislo	-14267
▁drill	-14268
▁edgar	-14269
▁flipp	-14270
▁fries	-14271
▁gaily	-14272
▁infer	-14273
▁meets	-14274
▁pavil	-14275
▁reson	-14276
▁romeo	-14277
▁rossi	-14278
▁shack	-14279
▁swipe	-14280
▁tutor	-14281
▁wharf	-14282
amental	-14283
bearing	-14284
ceiling	-14285
married	-14286
through	-14287
▁aboard	-14288
▁bailey	-14289
▁clammy	-14290
▁ginger	-14291
▁growls	-14292
▁hacker	-14293
▁inquis	-14294
▁intact	-14295
▁jacobs	-14296
▁locals	-14297
▁matteo	-14298
▁mccabe	-14299
▁messen	-14300
▁offend	-14301
▁piqued	-14302
▁pooled	-14303
▁recess	-14304
▁reeled	-14305
▁relate	-14306
▁roller	-14307
▁rooted	-14308
▁sharon	-14309
▁singer	-14310
▁uninte	-14311
▁volcan	-14312
inations	-14313
▁academy	-14314
▁analyze	-14315
▁appease	-14316
▁boulder	-14317
▁cowboys	-14318
▁flitted	-14319
▁hurtled	-14320
▁itching	-14321
▁justify	-14322
▁malcolm	-14323
▁markets	-14324
▁milling	-14325
▁rampage	-14326
▁redecor	-14327
▁resched	-14328
▁snagged	-14329
▁trivial	-14330
▁veterin	-14331
▁ambition	-14332
▁athletic	-14333
▁cavalier	-14334
▁certific	-14335
▁featured	-14336
▁goodbyes	-14337
▁holdings	-14338
▁magnetic	-14339
▁november	-14340
▁packages	-14341
▁remnants	-14342
▁samantha	-14343
▁severely	-14344
▁software	-14345
▁spoiling	-14346
▁tendrils	-14347
▁throttle	-14348
▁unpacked	-14349
▁upturned	-14350
▁addiction	-14351
▁balancing	-14352
▁disintegr	-14353
▁escorting	-14354
▁fortunate	-14355
▁honorable	-14356
▁impromptu	-14357
▁magnetism	-14358
▁offending	-14359
▁shimmered	-14360
▁shuffling	-14361
▁thrashing	-14362
▁unnerving	-14363
▁unsuccess	-14364
▁veronique	-14365
▁withstand	-14366
▁biological	-14367
▁contagious	-14368
▁designated	-14369
▁operations	-14370
▁perception	-14371
▁production	-14372
▁transfixed	-14373
▁contraction	-14374
▁discussions	-14375
▁functioning	-14376
▁gentlemanly	-14377
▁considerably	-14378
▁companionship	-14379
▁irresponsible	-14380
▁surreptitiously	-14381
▁'-	-14382
burg	-14383
burn	-14384
coal	-14385
erge	-14386
icky	-14387
izer	-14388
ocol	-14389
olis	-14390
rect	-14391
▁bef	-14392
▁mam	-14393
▁tux	-14394
▁wee	-14395
etery	-14396
heard	-14397
inate	-14398
▁acts	-14399
▁bere	-14400
▁chem	-14401
▁coil	-14402
▁fend	-14403
▁jaws	-14404
▁juan	-14405
▁shoo	-14406
▁snor	-14407
▁subl	-14408
▁twit	-14409
▁unmo	-14410
ambers	-14411
idious	-14412
illian	-14413
utions	-14414
▁beads	-14415
▁brady	-14416
▁clues	-14417
▁cuffs	-14418
▁donna	-14419
▁frail	-14420
▁mates	-14421
▁remod	-14422
▁scant	-14423
▁tenth	-14424
▁toned	-14425
angling	-14426
▁brazen	-14427
▁dearly	-14428
▁divert	-14429
▁domest	-14430
▁drapes	-14431
▁groped	-14432
▁mercen	-14433
▁perple	-14434
▁quaint	-14435
▁spider	-14436
▁strewn	-14437
▁stuffy	-14438
▁cocking	-14439
▁comical	-14440
▁damning	-14441
▁deposit	-14442
▁draping	-14443
▁eastern	-14444
▁elusive	-14445
▁epitome	-14446
▁errands	-14447
▁kinderg	-14448
[...]
