<pad>	0
<unk>	0
<s>	0
</s>	0
▁t	-0
he	-1
▁a	-2
in	-3
▁the	-4
re	-5
on	-6
er	-7
▁s	-8
▁w	-9
at	-10
▁o	-11
en	-12
▁c	-13
ed	-14
it	-15
an	-16
or	-17
is	-18
▁b	-19
▁f	-20
es	-21
ing	-22
▁p	-23
▁an	-24
ou	-25
ar	-26
▁of	-27
al	-28
▁in	-29
▁to	-30
▁m	-31
as	-32
▁h	-33
▁d	-34
▁and	-35
▁,	-36
ic	-37
le	-38
▁.	-39
▁th	-40
om	-41
ion	-42
il	-43
▁n	-44
▁re	-45
ent	-46
▁l	-47
▁T	-48
st	-49
ro	-50
▁e	-51
ve	-52
id	-53
ly	-54
▁be	-55
▁g	-56
▁A	-57
▁S	-58
ac	-59
ut	-60
ad	-61
▁on	-62
▁I	-63
ot	-64
am	-65
im	-66
ow	-67
▁C	-68
et	-69
▁that	-70
▁"	-71
▁for	-72
ay	-73
ig	-74
ol	-75
▁he	-76
us	-77
ver	-78
ur	-79
ct	-80
▁is	-81
el	-82
▁M	-83
▁st	-84
un	-85
ir	-86
▁The	-87
▁was	-88
▁B	-89
▁it	-90
▁y	-91
ation	-92
ith	-93
ter	-94
▁1	-95
▁wh	-96
▁as	-97
ce	-98
▁with	-99
ch	-100
▁P	-101
▁'	-102
▁al	-103
se	-104
▁H	-105
ul	-106
▁we	-107
ld	-108
▁W	-109
▁=	-110
▁con	-111
▁at	-112
ill	-113
▁r	-114
ers	-115
▁D	-116
her	-117
ag	-118
em	-119
▁R	-120
▁you	-121
▁fr	-122
ain	-123
▁F	-124
▁2	-125
if	-126
th	-127
and	-128
▁pro	-129
ke	-130
op	-131
▁by	-132
▁com	-133
est	-134
ist	-135
▁se	-136
ore	-137
oun	-138
ate	-139
od	-140
ri	-141
▁N	-142
▁de	-143
um	-144
▁G	-145
pp	-146
▁@	-147
▁(	-148
igh	-149
00	-150
ew	-151
▁ha	-152
res	-153
▁L	-154
▁are	-155
▁from	-156
▁v	-157
ab	-158
▁su	-159
os	-160
▁ex	-161
ort	-162
red	-163
▁E	-164
▁or	-165
ess	-166
▁O	-167
ould	-168
▁not	-169
ant	-170
▁his	-171
▁sh	-172
▁J	-173
art	-174
ive	-175
ity	-176
ment	-177
qu	-178
ap	-179
oc	-180
all	-181
ies	-182
▁have	-183
▁@-	-184
▁@-@	-185
▁ch	-186
ight	-187
▁In	-188
ear	-189
out	-190
▁sa	-191
gh	-192
▁un	-193
▁le	-194
ack	-195
ard	-196
end	-197
▁U	-198
ust	-199
▁this	-200
iv	-201
ect	-202
up	-203
ud	-204
our	-205
ast	-206
ich	-207
▁k	-208
▁ab	-209
▁us	-210
ost	-211
▁sp	-212
ally	-213
ra	-214
▁pl	-215
ell	-216
ong	-217
▁were	-218
▁but	-219
ome	-220
ak	-221
ough	-222
▁j	-223
ge	-224
▁has	-225
▁had	-226
ide	-227
▁wor	-228
▁said	-229
ound	-230
ber	-231
ok	-232
ren	-233
▁int	-234
▁19	-235
ated	-236
▁whe	-237
▁they	-238
ine	-239
ther	-240
og	-241
ame	-242
▁tr	-243
▁ar	-244
▁go	-245
▁comp	-246
▁)	-247
ial	-248
pt	-249
▁which	-250
▁do	-251
▁can	-252
ff	-253
ous	-254
▁all	-255
▁her	-256
ip	-257
▁who	-258
ice	-259
▁their	-260
▁out	-261
▁ad	-262
ure	-263
ec	-264
age	-265
ans	-266
▁K	-267
▁me	-268
▁up	-269
▁St	-270
ions	-271
one	-272
ia	-273
ub	-274
ary	-275
▁cl	-276
cc	-277
▁i	-278
▁Th	-279
ie	-280
▁one	-281
▁cont	-282
▁more	-283
▁ne	-284
ind	-285
▁will	-286
act	-287
ep	-288
so	-289
cl	-290
der	-291
▁about	-292
▁been	-293
ign	-294
ime	-295
▁would	-296
▁en	-297
▁she	-298
▁im	-299
own	-300
▁ag	-301
▁so	-302
▁off	-303
ite	-304
ike	-305
pl	-306
mer	-307
ry	-308
▁its	-309
▁200	-310
ord	-311
ire	-312
ass	-313
per	-314
av	-315
ue	-316
iz	-317
ile	-318
ail	-319
ake	-320
▁res	-321
ace	-322
▁per	-323
ook	-324
orm	-325
fter	-326
▁sc	-327
ical	-328
▁year	-329
▁3	-330
ian	-331
▁other	-332
▁dis	-333
ress	-334
▁man	-335
▁over	-336
ts	-337
▁app	-338
ks	-339
▁Ch	-340
able	-341
ib	-342
are	-343
rit	-344
▁V	-345
uc	-346
▁also	-347
▁ev	-348
▁new	-349
hed	-350
irst	-351
▁tw	-352
ations	-353
ase	-354
ond	-355
▁bec	-356
▁pr	-357
ence	-358
▁rec	-359
very	-360
▁te	-361
ose	-362
▁Y	-363
ll	-364
▁An	-365
▁kn	-366
ree	-367
▁than	-368
▁my	-369
▁It	-370
▁pe	-371
ish	-372
ays	-373
ction	-374
▁part	-375
▁He	-376
ach	-377
▁some	-378
ove	-379
▁gr	-380
▁into	-381
port	-382
ater	-383
▁like	-384
▁when	-385
ance	-386
."	-387
▁them	-388
ick	-389
te	-390
▁first	-391
▁time	-392
oll	-393
ang	-394
▁ro	-395
▁your	-396
aus	-397
ount	-398
▁there	-399
ult	-400
▁qu	-401
vers	-402
,"	-403
ory	-404
▁`	-405
▁him	-406
ens	-407
▁``	-408
vel	-409
ru	-410
ates	-411
▁''	-412
▁two	-413
ark	-414
lic	-415
▁any	-416
▁what	-417
▁-	-418
ade	-419
wn	-420
int	-421
▁ser	-422
ition	-423
▁pre	-424
▁after	-425
ople	-426
ors	-427
ings	-428
▁att	-429
▁no	-430
▁if	-431
ved	-432
..	-433
ents	-434
▁Un	-435
old	-436
▁work	-437
ft	-438
▁could	-439
urn	-440
▁des	-441
reat	-442
▁bl	-443
ons	-444
▁4	-445
ious	-446
▁people	-447
amp	-448
▁just	-449
ob	-450
▁acc	-451
fe	-452
ink	-453
clud	-454
form	-455
ild	-456
▁–	-457
▁only	-458
we	-459
tern	-460
▁5	-461
▁comm	-462
ident	-463
▁20	-464
▁get	-465
ood	-466
aw	-467
man	-468
ict	-469
▁bet	-470
ne	-471
iss	-472
▁fe	-473
ause	-474
rough	-475
oy	-476
▁how	-477
▁sec	-478
rent	-479
▁fl	-480
▁most	-481
ased	-482
▁includ	-483
▁act	-484
▁This	-485
▁again	-486
ied	-487
▁did	-488
uring	-489
▁back	-490
▁cons	-491
▁am	-492
anc	-493
gr	-494
▁under	-495
▁co	-496
hing	-497
du	-498
fore	-499
▁po	-500
day	-501
ited	-502
▁rem	-503
meric	-504
les	-505
ward	-506
▁bu	-507
ning	-508
rib	-509
▁pol	-510
ual	-511
▁then	-512
▁call	-513
lect	-514
▁inv	-515
itt	-516
▁ind	-517
▁Americ	-518
▁down	-519
▁years	-520
▁now	-521
▁supp	-522
▁add	-523
▁:	-524
▁Wh	-525
▁our	-526
ating	-527
▁As	-528
▁play	-529
▁inc	-530
ov	-531
pe	-532
ational	-533
▁sy	-534
iew	-535
ject	-536
▁want	-537
▁;	-538
▁exp	-539
ublic	-540
▁New	-541
▁$	-542
▁through	-543
▁where	-544
land	-545
ath	-546
▁br	-547
oss	-548
▁Al	-549
▁use	-550
▁6	-551
ix	-552
enc	-553
ock	-554
▁may	-555
▁pres	-556
row	-557
▁rel	-558
▁know	-559
▁because	-560
▁look	-561
▁sm	-562
▁before	-563
▁em	-564
ics	-565
other	-566
▁dec	-567
ont	-568
ful	-569
olog	-570
oup	-571
oth	-572
ener	-573
uch	-574
ise	-575
▁ph	-576
vern	-577
▁sur	-578
▁18	-579
▁made	-580
▁end	-581
▁even	-582
▁reg	-583
▁ear	-584
▁such	-585
way	-586
▁being	-587
gan	-588
000	-589
▁mon	-590
▁show	-591
▁these	-592
elf	-593
▁We	-594
▁see	-595
arch	-596
▁need	-597
▁fin	-598
ular	-599
ific	-600
ug	-601
▁make	-602
▁sub	-603
ters	-604
▁long	-605
xt	-606
▁many	-607
ween	-608
▁car	-609
als	-610
hen	-611
▁Ar	-612
ower	-613
ble	-614
▁Re	-615
▁num	-616
▁Com	-617
led	-618
▁war	-619
▁But	-620
ince	-621
▁imp	-622
aking	-623
ms	-624
▁ac	-625
▁7	-626
▁well	-627
▁ass	-628
▁Se	-629
▁report	-630
ollow	-631
arg	-632
▁bel	-633
▁while	-634
▁between	-635
▁say	-636
ily	-637
▁used	-638
▁way	-639
▁found	-640
▁stud	-641
▁201	-642
ife	-643
ork	-644
ank	-645
ouse	-646
▁inst	-647
▁?	-648
com	-649
▁right	-650
velop	-651
illion	-652
▁inter	-653
▁fil	-654
ative	-655
▁every	-656
ists	-657
ting	-658
▁dif	-659
ures	-660
▁should	-661
▁ret	-662
ph	-663
▁high	-664
ments	-665
▁last	-666
stem	-667
ric	-668
▁ke	-669
hes	-670
▁ent	-671
any	-672
▁col	-673
ert	-674
ros	-675
▁three	-676
▁En	-677
▁rele	-678
ered	-679
ty	-680
▁set	-681
ven	-682
▁spec	-683
▁much	-684
▁own	-685
ode	-686
ton	-687
▁though	-688
▁And	-689
▁8	-690
its	-691
▁str	-692
ities	-693
▁ob	-694
ason	-695
oh	-696
ible	-697
air	-698
ually	-699
io	-700
▁9	-701
omet	-702
▁op	-703
▁De	-704
rest	-705
▁On	-706
ange	-707
▁during	-708
▁eff	-709
ys	-710
ever	-711
.@	-712
▁@.@	-713
▁against	-714
▁govern	-715
▁sim	-716
ines	-717
▁hel	-718
▁hand	-719
ier	-720
▁cent	-721
▁fun	-722
ient	-723
▁count	-724
att	-725
▁cr	-726
▁gu	-727
▁lead	-728
▁think	-729
▁sl	-730
ek	-731
▁prov	-732
▁offic	-733
ution	-734
▁Fr	-735
▁follow	-736
▁those	-737
ool	-738
ues	-739
imes	-740
▁very	-741
▁world	-742
ah	-743
pr	-744
orn	-745
▁develop	-746
ather	-747
ision	-748
▁run	-749
ving	-750
ement	-751
erson	-752
ten	-753
▁start	-754
ave	-755
▁around	-756
▁min	-757
ale	-758
hip	-759
az	-760
▁mem	-761
▁def	-762
▁ins	-763
▁help	-764
ars	-765
▁10	-766
▁US	-767
ished	-768
▁Cl	-769
ax	-770
ames	-771
,@	-772
▁@,@	-773
▁ter	-774
▁game	-775
ush	-776
ull	-777
▁system	-778
▁—	-779
▁resp	-780
▁does	-781
cept	-782
ility	-783
▁ext	-784
▁cre	-785
ared	-786
atch	-787
irect	-788
▁Sh	-789
alk	-790
▁disc	-791
▁don	-792
▁sign	-793
read	-794
ivers	-795
med	-796
duc	-797
▁same	-798
▁still	-799
ages	-800
▁For	-801
▁At	-802
▁met	-803
▁Le	-804
▁day	-805
iel	-806
▁second	-807
outh	-808
orth	-809
▁det	-810
The	-811
cent	-812
▁both	-813
▁rep	-814
ained	-815
ins	-816
uth	-817
▁good	-818
ording	-819
gg	-820
au	-821
▁head	-822
▁find	-823
▁char	-824
▁mil	-825
▁take	-826
▁Mr	-827
▁Sc	-828
min	-829
▁support	-830
▁later	-831
▁group	-832
▁government	-833
▁number	-834
aj	-835
ces	-836
▁law	-837
ross	-838
ted	-839
▁cour	-840
▁gener	-841
▁here	-842
▁loc	-843
▁199	-844
▁inf	-845
ern	-846
gram	-847
ives	-848
ying	-849
ets	-850
ced	-851
▁bro	-852
ised	-853
ds	-854
▁Is	-855
▁month	-856
ral	-857
▁writ	-858
▁cap	-859
ann	-860
ired	-861
▁produ	-862
ices	-863
▁pass	-864
▁open	-865
▁four	-866
ves	-867
▁contin	-868
rop	-869
▁read	-870
iet	-871
▁Ad	-872
▁If	-873
▁art	-874
▁che	-875
▁trans	-876
▁going	-877
▁mod	-878
ck	-879
ized	-880
▁They	-881
▁fam	-882
▁American	-883
▁public	-884
▁somet	-885
▁cur	-886
▁dep	-887
▁says	-888
▁diffe	-889
▁including	-890
ane	-891
▁turn	-892
▁team	-893
ama	-894
▁called	-895
ience	-896
▁since	-897
▁dist	-898
▁You	-899
▁[	-900
view	-901
osed	-902
▁conf	-903
▁bo	-904
▁real	-905
chn	-906
▁How	-907
▁million	-908
▁United	-909
▁med	-910
▁expl	-911
ute	-912
ohn	-913
▁comple	-914
▁ref	-915
▁direct	-916
▁mus	-917
oad	-918
ism	-919
▁few	-920
▁record	-921
bers	-922
▁Pro	-923
▁pop	-924
▁iss	-925
chool	-926
ash	-927
▁ask	-928
▁belie	-929
▁air	-930
ron	-931
ene	-932
son	-933
ik	-934
ially	-935
▁main	-936
veral	-937
▁near	-938
▁leg	-939
vice	-940
▁prot	-941
▁requ	-942
▁another	-943
con	-944
▁program	-945
ention	-946
ody	-947
▁person	-948
▁rese	-949
▁exper	-950
▁form	-951
ex	-952
▁John	-953
▁ed	-954
▁inte	-955
get	-956
uss	-957
▁each	-958
▁too	-959
lear	-960
▁mark	-961
arge	-962
ically	-963
▁Mc	-964
ected	-965
▁state	-966
til	-967
▁av	-968
ived	-969
akes	-970
▁0	-971
▁week	-972
▁allow	-973
ury	-974
▁gl	-975
▁attack	-976
ret	-977
▁Sp	-978
uck	-979
▁design	-980
▁small	-981
rat	-982
▁life	-983
gy	-984
ains	-985
▁Bl	-986
mber	-987
ense	-988
ided	-989
▁let	-990
ner	-991
oot	-992
▁child	-993
▁tri	-994
ants	-995
rap	-996
self	-997
▁home	-998
▁told	-999
▁poss	-1000
▁camp	-1001
ittle	-1002
▁Rep	-1003
▁tra	-1004
▁--	-1005
▁ann	-1006
▁prev	-1007
els	-1008
▁post	-1009
cess	-1010
▁Z	-1011
▁12	-1012
iver	-1013
▁fact	-1014
▁inform	-1015
▁power	-1016
▁dem	-1017
▁Go	-1018
alth	-1019
▁wom	-1020
▁next	-1021
▁using	-1022
ology	-1023
▁Ind	-1024
ately	-1025
▁oper	-1026
).	-1027
▁contro	-1028
▁put	-1029
▁spe	-1030
▁build	-1031
▁There	-1032
▁song	-1033
▁incre	-1034
inal	-1035
ling	-1036
▁list	-1037
▁dr	-1038
▁until	-1039
ina	-1040
▁proble	-1041
ajor	-1042
line	-1043
▁never	-1044
▁sing	-1045
▁hum	-1046
▁...	-1047
▁She	-1048
▁Brit	-1049
▁rece	-1050
▁/	-1051
▁several	-1052
enn	-1053
▁without	-1054
▁far	-1055
▁point	-1056
ured	-1057
ature	-1058
▁partic	-1059
ata	-1060
▁known	-1061
▁kill	-1062
ize	-1063
raq	-1064
▁vide	-1065
ger	-1066
iversity	-1067
▁15	-1068
,000	-1069
aim	-1070
▁Iraq	-1071
▁After	-1072
▁Ob	-1073
ined	-1074
▁company	-1075
ember	-1076
▁adv	-1077
ued	-1078
▁elect	-1079
▁ty	-1080
▁really	-1081
▁rest	-1082
▁percent	-1083
▁Con	-1084
▁return	-1085
▁beh	-1086
iness	-1087
ital	-1088
▁happ	-1089
▁large	-1090
less	-1091
▁est	-1092
ruct	-1093
▁desc	-1094
▁book	-1095
reen	-1096
▁top	-1097
▁took	-1098
ract	-1099
▁might	-1100
▁stand	-1101
▁care	-1102
▁prom	-1103
ober	-1104
▁won	-1105
▁little	-1106
▁Be	-1107
▁vers	-1108
▁old	-1109
▁left	-1110
▁test	-1111
▁States	-1112
▁pos	-1113
▁something	-1114
▁orig	-1115
ley	-1116
▁quest	-1117
▁vot	-1118
▁11	-1119
▁pri	-1120
▁perform	-1121
pped	-1122
my	-1123
▁Q	-1124
ubl	-1125
ently	-1126
une	-1127
▁seem	-1128
▁place	-1129
ration	-1130
▁web	-1131
▁techn	-1132
▁film	-1133
though	-1134
▁bus	-1135
▁news	-1136
▁plan	-1137
▁class	-1138
▁best	-1139
▁different	-1140
ney	-1141
▁Comm	-1142
tt	-1143
▁stat	-1144
▁vis	-1145
ness	-1146
ield	-1147
▁Eng	-1148
▁17	-1149
ission	-1150
▁interest	-1151
▁invest	-1152
arc	-1153
▁polit	-1154
aining	-1155
ird	-1156
ides	-1157
▁All	-1158
▁less	-1159
oney	-1160
thing	-1161
▁ele	-1162
me	-1163
▁great	-1164
ably	-1165
▁ep	-1166
▁import	-1167
▁So	-1168
▁season	-1169
▁cor	-1170
▁Ph	-1171
▁var	-1172
▁eas	-1173
▁el	-1174
▁Bush	-1175
▁official	-1176
ged	-1177
▁effect	-1178
▁Br	-1179
▁bre	-1180
ccess	-1181
▁hard	-1182
iam	-1183
▁ide	-1184
ium	-1185
▁appear	-1186
▁water	-1187
iving	-1188
be	-1189
▁major	-1190
ator	-1191
▁May	-1192
ended	-1193
▁crit	-1194
▁const	-1195
rence	-1196
▁pat	-1197
▁charac	-1198
▁sol	-1199
▁information	-1200
ency	-1201
▁milit	-1202
▁away	-1203
▁name	-1204
▁come	-1205
▁along	-1206
▁early	-1207
▁appro	-1208
ware	-1209
...	-1210
▁big	-1211
ww	-1212
▁mar	-1213
▁got	-1214
ified	-1215
und	-1216
▁dri	-1217
▁opp	-1218
▁When	-1219
▁school	-1220
uthor	-1221
▁keep	-1222
ox	-1223
▁Pl	-1224
erv	-1225
▁series	-1226
▁men	-1227
▁hist	-1228
ians	-1229
▁site	-1230
conom	-1231
▁sk	-1232
▁view	-1233
▁country	-1234
▁16	-1235
▁land	-1236
▁Col	-1237
▁commun	-1238
ript	-1239
▁Tr	-1240
ales	-1241
▁case	-1242
▁Gr	-1243
iend	-1244
ison	-1245
▁president	-1246
▁That	-1247
▁occ	-1248
atter	-1249
bum	-1250
ead	-1251
alf	-1252
augh	-1253
gin	-1254
aign	-1255
▁Pres	-1256
▁five	-1257
▁eng	-1258
▁pur	-1259
▁sit	-1260
▁friend	-1261
▁began	-1262
▁became	-1263
▁video	-1264
▁released	-1265
ases	-1266
ering	-1267
▁music	-1268
ony	-1269
orld	-1270
uro	-1271
▁days	-1272
ched	-1273
ising	-1274
▁conc	-1275
▁Chr	-1276
▁win	-1277
ural	-1278
▁del	-1279
▁fore	-1280
▁Obama	-1281
▁prof	-1282
▁University	-1283
▁process	-1284
urity	-1285
aced	-1286
▁Dem	-1287
▁project	-1288
▁free	-1289
eb	-1290
ior	-1291
ional	-1292
▁Car	-1293
▁198	-1294
amed	-1295
▁claim	-1296
to	-1297
▁War	-1298
▁following	-1299
▁organ	-1300
▁thought	-1301
▁000	-1302
▁came	-1303
▁short	-1304
▁York	-1305
▁*	-1306
▁better	-1307
▁sw	-1308
▁mo	-1309
aken	-1310
▁Pr	-1311
),	-1312
by	-1313
▁things	-1314
▁light	-1315
▁tell	-1316
empt	-1317
▁However	-1318
▁why	-1319
iven	-1320
▁sugg	-1321
▁suggest	-1322
wards	-1323
app	-1324
▁ey	-1325
▁2008	-1326
ope	-1327
ots	-1328
the	-1329
▁level	-1330
▁success	-1331
▁six	-1332
ready	-1333
▁story	-1334
▁la	-1335
esp	-1336
▁result	-1337
▁Te	-1338
▁campaign	-1339
ott	-1340
▁par	-1341
▁move	-1342
▁family	-1343
ways	-1344
▁album	-1345
ocrat	-1346
▁deb	-1347
▁city	-1348
▁Ge	-1349
▁line	-1350
ple	-1351
▁describ	-1352
ored	-1353
oci	-1354
▁epis	-1355
▁current	-1356
duced	-1357
▁Can	-1358
ards	-1359
▁chang	-1360
ror	-1361
▁Ger	-1362
ending	-1363
aring	-1364
▁already	-1365
iqu	-1366
▁enough	-1367
▁Or	-1368
▁based	-1369
▁pay	-1370
▁feat	-1371
▁econom	-1372
ops	-1373
▁money	-1374
▁press	-1375
▁X	-1376
▁cost	-1377
▁Aust	-1378
▁aff	-1379
ploy	-1380
▁data	-1381
▁hour	-1382
▁making	-1383
▁Sen	-1384
▁able	-1385
▁intern	-1386
▁area	-1387
▁least	-1388
here	-1389
aged	-1390
▁30	-1391
uly	-1392
▁House	-1393
▁President	-1394
▁wr	-1395
sh	-1396
▁val	-1397
▁By	-1398
▁World	-1399
▁Fl	-1400
ertain	-1401
idd	-1402
vert	-1403
▁business	-1404
▁2007	-1405
ilar	-1406
▁publ	-1407
▁death	-1408
▁Sept	-1409
▁military	-1410
▁One	-1411
▁former	-1412
ister	-1413
ats	-1414
ource	-1415
hers	-1416
▁avail	-1417
▁asked	-1418
▁prop	-1419
ming	-1420
▁13	-1421
▁mov	-1422
▁today	-1423
ened	-1424
▁feel	-1425
most	-1426
side	-1427
inc	-1428
▁ve	-1429
▁sent	-1430
▁author	-1431
ample	-1432
▁197	-1433
▁version	-1434
▁soc	-1435
▁grow	-1436
sc	-1437
▁become	-1438
▁Intern	-1439
urther	-1440
▁single	-1441
ilt	-1442
▁British	-1443
▁ship	-1444
ergy	-1445
br	-1446
eng	-1447
ider	-1448
▁Republic	-1449
▁children	-1450
eder	-1451
▁14	-1452
▁event	-1453
acy	-1454
ograp	-1455
rew	-1456
▁ra	-1457
▁Ex	-1458
icle	-1459
por	-1460
hern	-1461
▁change	-1462
▁dam	-1463
▁side	-1464
raft	-1465
▁times	-1466
▁Democrat	-1467
▁invol	-1468
pect	-1469
iting	-1470
ries	-1471
▁McC	-1472
ows	-1473
aper	-1474
▁must	-1475
oint	-1476
▁give	-1477
▁Euro	-1478
▁night	-1479
ither	-1480
▁within	-1481
▁To	-1482
▁stop	-1483
▁seen	-1484
We	-1485
▁order	-1486
▁equ	-1487
used	-1488
ument	-1489
arn	-1490
▁194	-1491
aster	-1492
▁pa	-1493
▁wind	-1494
▁full	-1495
▁Jan	-1496
▁months	-1497
▁Aug	-1498
ee	-1499
▁North	-1500
▁track	-1501
▁often	-1502
▁important	-1503
ster	-1504
▁past	-1505
stand	-1506
ulation	-1507
▁study	-1508
▁market	-1509
▁thing	-1510
load	-1511
▁talk	-1512
▁available	-1513
▁No	-1514
▁Ir	-1515
▁having	-1516
iously	-1517
▁Gu	-1518
50	-1519
leg	-1520
▁September	-1521
▁Ed	-1522
▁ever	-1523
▁Mar	-1524
aps	-1525
▁among	-1526
▁members	-1527
work	-1528
▁lot	-1529
▁fail	-1530
▁National	-1531
iron	-1532
▁police	-1533
▁went	-1534
▁Am	-1535
▁ant	-1536
▁bas	-1537
▁control	-1538
▁repl	-1539
idence	-1540
▁sold	-1541
ump	-1542
▁clear	-1543
ones	-1544
artment	-1545
▁comput	-1546
▁human	-1547
▁across	-1548
ogle	-1549
rote	-1550
▁196	-1551
▁Cal	-1552
▁received	-1553
▁reported	-1554
▁release	-1555
▁house	-1556
▁Ab	-1557
ief	-1558
▁according	-1559
▁Europe	-1560
itions	-1561
▁health	-1562
minist	-1563
▁low	-1564
ourn	-1565
▁half	-1566
ream	-1567
elt	-1568
irl	-1569
▁hold	-1570
▁August	-1571
▁meet	-1572
ried	-1573
▁announ	-1574
▁June	-1575
yn	-1576
▁sure	-1577
▁caus	-1578
▁Sec	-1579
▁With	-1580
ories	-1581
oice	-1582
▁women	-1583
lish	-1584
▁present	-1585
▁working	-1586
▁wrote	-1587
▁mag	-1588
itive	-1589
▁Christ	-1590
▁attempt	-1591
▁addition	-1592
▁body	-1593
▁Cent	-1594
▁cop	-1595
▁similar	-1596
▁Oct	-1597
▁net	-1598
ttp	-1599
▁hig	-1600
▁port	-1601
let	-1602
ached	-1603
urs	-1604
osp	-1605
▁episode	-1606
ults	-1607
rown	-1608
▁phot	-1609
attle	-1610
ances	-1611
▁Af	-1612
▁What	-1613
▁given	-1614
▁Har	-1615
▁service	-1616
▁due	-1617
ape	-1618
▁sound	-1619
▁close	-1620
▁once	-1621
//	-1622
▁fre	-1623
▁local	-1624
▁March	-1625
▁product	-1626
pril	-1627
▁America	-1628
▁character	-1629
▁face	-1630
▁German	-1631
▁Dr	-1632
raw	-1633
▁Austral	-1634
ef	-1635
▁research	-1636
uary	-1637
▁cond	-1638
▁Tw	-1639
▁strong	-1640
aff	-1641
▁lim	-1642
▁youn	-1643
://	-1644
▁cell	-1645
▁cut	-1646
▁July	-1647
reet	-1648
▁Cong	-1649
angu	-1650
▁added	-1651
▁arg	-1652
iol	-1653
▁April	-1654
▁possible	-1655
ery	-1656
▁question	-1657
▁held	-1658
▁South	-1659
▁others	-1660
ai	-1661
utes	-1662
omb	-1663
▁Bar	-1664
co	-1665
▁problem	-1666
ality	-1667
ashing	-1668
▁activ	-1669
▁job	-1670
▁prob	-1671
ands	-1672
▁App	-1673
▁actually	-1674
▁particular	-1675
uff	-1676
▁political	-1677
▁&	-1678
▁done	-1679
▁always	-1680
▁Ear	-1681
resent	-1682
▁Acc	-1683
yl	-1684
▁Nove	-1685
▁example	-1686
▁whether	-1687
omin	-1688
oo	-1689
▁further	-1690
▁Min	-1691
BC	-1692
overed	-1693
▁dest	-1694
▁third	-1695
▁Google	-1696
aces	-1697
▁100	-1698
▁almost	-1699
▁tele	-1700
▁mean	-1701
▁!	-1702
▁kind	-1703
▁indust	-1704
▁soft	-1705
▁however	-1706
ote	-1707
▁red	-1708
▁er	-1709
▁jo	-1710
▁taken	-1711
▁conv	-1712
▁trad	-1713
ization	-1714
▁code	-1715
iber	-1716
▁non	-1717
▁course	-1718
▁larg	-1719
▁tot	-1720
▁idea	-1721
iety	-1722
iod	-1723
apan	-1724
▁polic	-1725
▁complete	-1726
ring	-1727
▁decl	-1728
▁ste	-1729
__	-1730
aul	-1731
ference	-1732
ask	-1733
▁didn	-1734
▁Will	-1735
▁October	-1736
▁behind	-1737
▁appe	-1738
▁black	-1739
ails	-1740
▁Ne	-1741
mb	-1742
▁sex	-1743
▁led	-1744
verage	-1745
▁priv	-1746
▁Geor	-1747
▁started	-1748
▁issue	-1749
▁late	-1750
▁security	-1751
It	-1752
▁November	-1753
▁Me	-1754
▁25	-1755
ection	-1756
▁wanted	-1757
▁Dav	-1758
esc	-1759
▁Japan	-1760
ser	-1761
▁fire	-1762
ffic	-1763
▁bill	-1764
for	-1765
▁lo	-1766
▁final	-1767
mp	-1768
▁saying	-1769
▁energy	-1770
▁gen	-1771
▁Man	-1772
▁January	-1773
▁review	-1774
▁deal	-1775
bo	-1776
▁opt	-1777
▁ident	-1778
▁miss	-1779
▁fall	-1780
ograph	-1781
ids	-1782
▁century	-1783
▁infl	-1784
uted	-1785
par	-1786
▁rad	-1787
▁Co	-1788
▁north	-1789
irc	-1790
▁access	-1791
▁oil	-1792
▁room	-1793
▁games	-1794
▁init	-1795
olution	-1796
▁tem	-1797
▁Dep	-1798
▁ago	-1799
▁investig	-1800
sel	-1801
▁mess	-1802
yr	-1803
▁gun	-1804
20	-1805
▁While	-1806
▁fut	-1807
ederal	-1808
▁likely	-1809
▁2006	-1810
▁believe	-1811
▁doc	-1812
▁yet	-1813
▁quick	-1814
idge	-1815
ively	-1816
ators	-1817
▁Congress	-1818
ints	-1819
imate	-1820
▁compan	-1821
▁built	-1822
▁court	-1823
ball	-1824
▁Mich	-1825
▁comb	-1826
▁included	-1827
▁tax	-1828
▁impro	-1829
▁certain	-1830
▁colle	-1831
▁His	-1832
icro	-1833
duct	-1834
gress	-1835
rug	-1836
▁toget	-1837
▁together	-1838
▁ple	-1839
▁original	-1840
▁Res	-1841
▁history	-1842
▁scient	-1843
▁tit	-1844
▁doing	-1845
▁doesn	-1846
".	-1847
inton	-1848
▁development	-1849
umb	-1850
▁published	-1851
vices	-1852
▁killed	-1853
stit	-1854
avy	-1855
▁langu	-1856
ivid	-1857
▁effort	-1858
▁viol	-1859
▁entire	-1860
▁2009	-1861
viron	-1862
▁food	-1863
▁front	-1864
ivil	-1865
▁Med	-1866
ler	-1867
▁Mus	-1868
▁pot	-1869
▁common	-1870
▁include	-1871
▁bar	-1872
▁$1	-1873
▁wa	-1874
itted	-1875
▁mor	-1876
▁period	-1877
▁trying	-1878
fer	-1879
▁reason	-1880
▁rul	-1881
▁national	-1882
ustom	-1883
▁threat	-1884
cember	-1885
▁z	-1886
urch	-1887
▁lost	-1888
▁#	-1889
▁http	-1890
▁conn	-1891
▁ren	-1892
▁capt	-1893
▁Par	-1894
▁command	-1895
uel	-1896
cast	-1897
▁Per	-1898
▁mom	-1899
▁vict	-1900
▁December	-1901
ential	-1902
aly	-1903
▁bad	-1904
▁sum	-1905
▁ris	-1906
▁makes	-1907
▁Pol	-1908
anks	-1909
▁compet	-1910
Th	-1911
▁Sun	-1912
▁These	-1913
fic	-1914
▁Some	-1915
▁fav	-1916
▁popular	-1917
▁gave	-1918
▁fight	-1919
itor	-1920
▁Feb	-1921
ague	-1922
▁White	-1923
▁coun	-1924
▁described	-1925
▁Canad	-1926
▁live	-1927
▁enc	-1928
▁sus	-1929
▁Her	-1930
▁fig	-1931
▁rather	-1932
▁aut	-1933
ences	-1934
▁administ	-1935
▁cand	-1936
▁probably	-1937
▁exec	-1938
▁ground	-1939
ung	-1940
ana	-1941
▁bit	-1942
▁young	-1943
▁tro	-1944
▁future	-1945
▁According	-1946
▁super	-1947
unch	-1948
ashington	-1949
▁begin	-1950
▁love	-1951
▁town	-1952
▁km	-1953
▁Clinton	-1954
asing	-1955
▁looking	-1956
▁eyes	-1957
hod	-1958
lier	-1959
▁himself	-1960
▁News	-1961
▁hours	-1962
▁50	-1963
▁typ	-1964
▁24	-1965
ches	-1966
▁anything	-1967
ival	-1968
▁hy	-1969
of	-1970
▁special	-1971
▁companies	-1972
aterial	-1973
▁although	-1974
▁Che	-1975
▁applic	-1976
▁building	-1977
▁webs	-1978
head	-1979
▁Washington	-1980
▁anim	-1981
▁either	-1982
ruction	-1983
ipp	-1984
▁employ	-1985
▁understand	-1986
▁2010	-1987
ability	-1988
▁role	-1989
▁media	-1990
▁played	-1991
▁Ser	-1992
▁pain	-1993
▁signific	-1994
▁King	-1995
vision	-1996
▁road	-1997
itte	-1998
eter	-1999
▁officials	-2000
▁instead	-2001
▁ce	-2002
▁key	-2003
▁saw	-2004
▁turned	-2005
▁general	-2006
▁named	-2007
rench	-2008
vironment	-2009
▁taking	-2010
▁%	-2011
ule	-2012
▁agre	-2013
AS	-2014
▁office	-2015
▁lab	-2016
rael	-2017
▁dou	-2018
▁position	-2019
ps	-2020
▁broad	-2021
rict	-2022
▁21	-2023
ensive	-2024
iter	-2025
▁My	-2026
eks	-2027
▁works	-2028
atic	-2029
▁concern	-2030
▁sn	-2031
arm	-2032
ese	-2033
▁State	-2034
▁means	-2035
▁foot	-2036
▁Iran	-2037
ham	-2038
▁manag	-2039
▁comment	-2040
af	-2041
apt	-2042
sw	-2043
▁species	-2044
▁south	-2045
▁meas	-2046
▁written	-2047
▁193	-2048
▁recent	-2049
▁ord	-2050
▁McCain	-2051
oon	-2052
▁nothing	-2053
▁Ass	-2054
▁felt	-2055
▁represent	-2056
▁proper	-2057
▁search	-2058
▁hit	-2059
▁West	-2060
ruary	-2061
▁host	-2062
▁creat	-2063
▁object	-2064
▁material	-2065
ned	-2066
▁online	-2067
go	-2068
▁]	-2069
▁prim	-2070
▁users	-2071
▁div	-2072
lement	-2073
▁mass	-2074
▁Comp	-2075
nes	-2076
ournal	-2077
▁someone	-2078
idered	-2079
▁getting	-2080
▁fund	-2081
▁Israel	-2082
▁pract	-2083
▁February	-2084
▁II	-2085
▁During	-2086
iding	-2087
▁girl	-2088
▁squ	-2089
▁exist	-2090
iment	-2091
ividual	-2092
▁Russ	-2093
▁total	-2094
▁Count	-2095
▁foc	-2096
yle	-2097
▁Gener	-2098
▁above	-2099
▁install	-2100
▁exc	-2101
▁stri	-2102
▁custom	-2103
▁consum	-2104
▁researc	-2105
▁soon	-2106
▁mind	-2107
▁created	-2108
irt	-2109
▁fac	-2110
▁profess	-2111
▁estab	-2112
▁Calif	-2113
▁party	-2114
ply	-2115
▁bene	-2116
▁mult	-2117
▁force	-2118
▁provide	-2119
ources	-2120
ressed	-2121
▁moved	-2122
▁step	-2123
▁Just	-2124
▁City	-2125
ortun	-2126
▁discuss	-2127
play	-2128
▁mot	-2129
▁blog	-2130
▁break	-2131
▁continued	-2132
▁engine	-2133
▁considered	-2134
de	-2135
▁production	-2136
ogn	-2137
▁significant	-2138
▁cred	-2139
mail	-2140
▁problems	-2141
▁vol	-2142
▁evidence	-2143
▁sat	-2144
▁candid	-2145
▁action	-2146
▁treat	-2147
ole	-2148
▁191	-2149
▁nec	-2150
▁try	-2151
▁Ke	-2152
omes	-2153
▁Paul	-2154
ondon	-2155
▁coll	-2156
▁else	-2157
ination	-2158
▁running	-2159
wh	-2160
▁intro	-2161
val	-2162
ficult	-2163
ibility	-2164
iers	-2165
not	-2166
selves	-2167
ray	-2168
▁French	-2169
▁weeks	-2170
▁features	-2171
▁Act	-2172
▁community	-2173
▁forces	-2174
▁individual	-2175
medi	-2176
▁father	-2177
▁drug	-2178
face	-2179
▁difficult	-2180
ittee	-2181
▁sell	-2182
▁decided	-2183
over	-2184
iddle	-2185
▁source	-2186
▁Part	-2187
oman	-2188
▁band	-2189
▁mother	-2190
▁computer	-2191
rem	-2192
▁software	-2193
▁respons	-2194
▁create	-2195
estern	-2196
▁age	-2197
▁fir	-2198
▁Cor	-2199
urb	-2200
▁London	-2201
▁Now	-2202
▁page	-2203
▁learn	-2204
ging	-2205
reg	-2206
▁star	-2207
▁billion	-2208
▁function	-2209
▁Sy	-2210
ify	-2211
▁interview	-2212
▁shows	-2213
▁195	-2214
ped	-2215
▁relations	-2216
▁hur	-2217
ael	-2218
▁cle	-2219
amer	-2220
▁arri	-2221
▁industry	-2222
▁Sw	-2223
▁space	-2224
▁pred	-2225
unt	-2226
▁link	-2227
▁woman	-2228
epend	-2229
▁white	-2230
▁2005	-2231
▁40	-2232
ression	-2233
▁file	-2234
▁check	-2235
▁announced	-2236
fully	-2237
reme	-2238
like	-2239
▁China	-2240
▁rout	-2241
▁decision	-2242
▁results	-2243
▁comes	-2244
▁David	-2245
ude	-2246
▁Californ	-2247
▁23	-2248
▁Pe	-2249
ze	-2250
▁deter	-2251
itch	-2252
▁Im	-2253
su	-2254
aut	-2255
▁watch	-2256
▁looked	-2257
▁circ	-2258
▁aud	-2259
▁gas	-2260
▁Air	-2261
oe	-2262
sec	-2263
▁social	-2264
▁influ	-2265
ening	-2266
year	-2267
▁bring	-2268
▁mach	-2269
▁Not	-2270
istan	-2271
▁deep	-2272
▁article	-2273
▁walk	-2274
▁spok	-2275
ER	-2276
iff	-2277
oid	-2278
▁ap	-2279
▁El	-2280
▁eight	-2281
den	-2282
▁Department	-2283
▁reve	-2284
▁George	-2285
▁California	-2286
ends	-2287
▁pack	-2288
▁Ste	-2289
▁whole	-2290
▁earlier	-2291
▁storm	-2292
▁words	-2293
osing	-2294
ips	-2295
▁mat	-2296
ique	-2297
▁William	-2298
book	-2299
▁pret	-2300
oph	-2301
▁seems	-2302
▁rights	-2303
obal	-2304
ift	-2305
▁areas	-2306
▁civil	-2307
str	-2308
ought	-2309
▁wide	-2310
ades	-2311
▁Although	-2312
▁matter	-2313
▁minutes	-2314
▁critic	-2315
ux	-2316
▁22	-2317
▁needed	-2318
▁account	-2319
▁technology	-2320
▁outside	-2321
▁cross	-2322
▁itself	-2323
uation	-2324
▁cal	-2325
▁points	-2326
▁match	-2327
▁hands	-2328
▁Sm	-2329
▁longer	-2330
ald	-2331
▁neg	-2332
▁type	-2333
roy	-2334
▁phys	-2335
aving	-2336
▁Gl	-2337
▁involved	-2338
▁ball	-2339
▁language	-2340
ij	-2341
▁states	-2342
▁environment	-2343
▁General	-2344
▁stay	-2345
▁cult	-2346
▁heart	-2347
▁jud	-2348
▁Americans	-2349
▁ill	-2350
omm	-2351
ological	-2352
▁Pal	-2353
na	-2354
▁dead	-2355
org	-2356
▁English	-2357
▁friends	-2358
▁countries	-2359
▁fell	-2360
▁Ang	-2361
▁accept	-2362
oor	-2363
iday	-2364
▁policy	-2365
▁website	-2366
rought	-2367
▁performance	-2368
▁legal	-2369
▁yes	-2370
▁Char	-2371
▁died	-2372
sequ	-2373
▁experience	-2374
▁sil	-2375
▁charg	-2376
unk	-2377
▁Republican	-2378
use	-2379
▁targ	-2380
▁average	-2381
▁hope	-2382
rup	-2383
▁Here	-2384
▁network	-2385
▁previous	-2386
▁specific	-2387
hel	-2388
▁Hill	-2389
aph	-2390
▁inside	-2391
▁personal	-2392
▁financ	-2393
▁developed	-2394
▁groups	-2395
soft	-2396
istic	-2397
off	-2398
▁ten	-2399
▁field	-2400
onse	-2401
▁slow	-2402
10	-2403
ON	-2404
▁pict	-2405
uk	-2406
▁England	-2407
atural	-2408
▁nearly	-2409
▁struct	-2410
ateg	-2411
ibr	-2412
▁tou	-2413
▁Micro	-2414
▁Rober	-2415
ights	-2416
▁contrib	-2417
▁poll	-2418
▁higher	-2419
ault	-2420
▁issues	-2421
▁Sim	-2422
▁produc	-2423
▁Afric	-2424
▁associ	-2425
ites	-2426
▁simply	-2427
▁arch	-2428
▁Don	-2429
ground	-2430
▁nuc	-2431
▁paper	-2432
back	-2433
▁federal	-2434
▁Mac	-2435
▁feet	-2436
bor	-2437
isc	-2438
▁player	-2439
IN	-2440
ecially	-2441
▁administration	-2442
▁doll	-2443
▁member	-2444
cil	-2445
ires	-2446
rel	-2447
itting	-2448
▁cover	-2449
▁troops	-2450
▁changes	-2451
▁origin	-2452
▁reached	-2453
anger	-2454
▁below	-2455
▁protect	-2456
▁content	-2457
ellig	-2458
▁knew	-2459
▁Rich	-2460
ceed	-2461
pro	-2462
▁abs	-2463
▁den	-2464
▁Internet	-2465
▁hop	-2466
▁various	-2467
▁imm	-2468
▁suff	-2469
▁phone	-2470
uge	-2471
bit	-2472
▁esp	-2473
▁speed	-2474
eth	-2475
▁students	-2476
▁coming	-2477
▁Web	-2478
alt	-2479
▁terror	-2480
▁themselves	-2481
▁indic	-2482
AT	-2483
▁risk	-2484
▁method	-2485
▁log	-2486
**	-2487
▁sett	-2488
▁writing	-2489
▁miles	-2490
▁produced	-2491
▁relig	-2492
▁researchers	-2493
oke	-2494
▁answ	-2495
▁worked	-2496
urg	-2497
▁adm	-2498
▁request	-2499
▁coup	-2500
▁word	-2501
▁reach	-2502
▁bi	-2503
▁bomb	-2504
▁rock	-2505
▁tried	-2506
▁bir	-2507
▁surpr	-2508
▁Bill	-2509
inks	-2510
oud	-2511
▁contract	-2512
▁base	-2513
lex	-2514
ae	-2515
▁Rec	-2516
▁27	-2517
uments	-2518
▁consider	-2519
▁Wind	-2520
▁sen	-2521
▁everything	-2522
▁isn	-2523
ford	-2524
vent	-2525
▁share	-2526
rents	-2527
▁immedi	-2528
▁boy	-2529
▁Cour	-2530
▁2004	-2531
▁loss	-2532
arent	-2533
bed	-2534
ception	-2535
▁quite	-2536
▁simple	-2537
▁Park	-2538
utive	-2539
▁cast	-2540
▁cy	-2541
▁Qu	-2542
▁quickly	-2543
▁separ	-2544
▁continue	-2545
▁High	-2546
▁anyone	-2547
▁Do	-2548
▁subject	-2549
▁services	-2550
icles	-2551
▁seven	-2552
▁director	-2553
▁rate	-2554
ients	-2555
▁fem	-2556
▁tour	-2557
▁statement	-2558
hest	-2559
ores	-2560
▁pick	-2561
▁expected	-2562
▁blood	-2563
▁1.	-2564
▁upd	-2565
aled	-2566
▁caused	-2567
▁bank	-2568
▁tre	-2569
▁Black	-2570
▁travel	-2571
▁Times	-2572
▁recently	-2573
ilities	-2574
▁arm	-2575
▁recogn	-2576
aur	-2577
ino	-2578
▁career	-2579
outhern	-2580
▁weap	-2581
▁allowed	-2582
▁expect	-2583
vil	-2584
▁San	-2585
sy	-2586
▁26	-2587
▁Ag	-2588
▁download	-2589
▁Microsoft	-2590
▁More	-2591
▁leaders	-2592
ees	-2593
▁visit	-2594
▁inj	-2595
▁collect	-2596
▁image	-2597
▁brought	-2598
▁rev	-2599
▁wrong	-2600
▁lower	-2601
▁nation	-2602
▁response	-2603
upp	-2604
IA	-2605
▁lat	-2606
▁educ	-2607
▁leave	-2608
▁conduct	-2609
▁population	-2610
ica	-2611
▁price	-2612
aves	-2613
▁increase	-2614
▁son	-2615
▁Cont	-2616
11	-2617
▁Post	-2618
▁Sup	-2619
▁reports	-2620
nd	-2621
ett	-2622
▁heard	-2623
vey	-2624
▁size	-2625
--	-2626
▁County	-2627
▁UK	-2628
▁lack	-2629
▁Other	-2630
▁compl	-2631
▁television	-2632
▁true	-2633
atives	-2634
▁dig	-2635
▁door	-2636
▁28	-2637
▁plans	-2638
▁Red	-2639
▁especially	-2640
isl	-2641
ament	-2642
iled	-2643
▁range	-2644
▁moment	-2645
▁leading	-2646
sp	-2647
ma	-2648
▁wall	-2649
▁occur	-2650
▁returned	-2651
omp	-2652
▁canc	-2653
▁text	-2654
▁East	-2655
▁chall	-2656
▁private	-2657
▁self	-2658
aries	-2659
▁easy	-2660
▁Street	-2661
cript	-2662
▁whose	-2663
▁norm	-2664
▁James	-2665
iction	-2666
▁followed	-2667
▁vote	-2668
▁battle	-2669
▁hon	-2670
▁First	-2671
vertis	-2672
▁mid	-2673
oming	-2674
▁round	-2675
haps	-2676
▁Democratic	-2677
▁tool	-2678
▁Michael	-2679
lying	-2680
clus	-2681
atory	-2682
▁bor	-2683
▁international	-2684
▁Earth	-2685
kn	-2686
board	-2687
▁respect	-2688
▁voice	-2689
aker	-2690
▁Mon	-2691
▁appeared	-2692
▁designed	-2693
▁surv	-2694
undred	-2695
anned	-2696
ctions	-2697
▁election	-2698
▁buy	-2699
▁relationship	-2700
amb	-2701
▁thous	-2702
▁benef	-2703
▁Associ	-2704
▁favor	-2705
▁lay	-2706
▁Bro	-2707
▁pretty	-2708
imately	-2709
▁TV	-2710
▁hor	-2711
▁2.	-2712
▁shot	-2713
▁amount	-2714
▁Army	-2715
▁document	-2716
▁cause	-2717
▁From	-2718
▁forward	-2719
▁spent	-2720
▁Sch	-2721
▁dark	-2722
▁dro	-2723
www	-2724
▁secret	-2725
▁everyone	-2726
▁living	-2727
▁prices	-2728
▁gre	-2729
▁passed	-2730
craft	-2731
aily	-2732
▁particip	-2733
▁attacks	-2734
▁players	-2735
erc	-2736
ropical	-2737
▁exam	-2738
▁regular	-2739
▁provided	-2740
orthern	-2741
▁desp	-2742
▁address	-2743
▁Australia	-2744
▁station	-2745
▁Jack	-2746
▁race	-2747
▁wife	-2748
▁noted	-2749
▁esc	-2750
▁offer	-2751
iation	-2752
▁prevent	-2753
ining	-2754
▁via	-2755
ube	-2756
oms	-2757
▁hot	-2758
▁modern	-2759
▁sites	-2760
▁tradition	-2761
▁upon	-2762
▁numbers	-2763
▁playing	-2764
▁demand	-2765
▁exact	-2766
aint	-2767
▁comments	-2768
tr	-2769
▁Mor	-2770
▁inn	-2771
▁Pat	-2772
This	-2773
net	-2774
ctor	-2775
ises	-2776
▁needs	-2777
▁nuclear	-2778
enced	-2779
chie	-2780
.)	-2781
▁largest	-2782
merc	-2783
ishing	-2784
▁Bo	-2785
▁mix	-2786
joy	-2787
▁emer	-2788
▁destroy	-2789
men	-2790
fect	-2791
agon	-2792
▁staff	-2793
▁famil	-2794
▁Reg	-2795
▁Cr	-2796
▁screen	-2797
▁anti	-2798
itter	-2799
osition	-2800
ification	-2801
▁region	-2802
▁meeting	-2803
▁brain	-2804
▁Up	-2805
▁questions	-2806
▁veh	-2807
ession	-2808
iece	-2809
▁systems	-2810
iant	-2811
action	-2812
▁2003	-2813
▁west	-2814
▁spokes	-2815
▁contact	-2816
▁arrest	-2817
▁global	-2818
▁distrib	-2819
▁events	-2820
aging	-2821
utions	-2822
ech	-2823
▁attention	-2824
In	-2825
ara	-2826
ky	-2827
▁opened	-2828
▁throughout	-2829
tain	-2830
▁regard	-2831
▁science	-2832
▁defe	-2833
▁sense	-2834
▁respond	-2835
▁block	-2836
▁demon	-2837
▁stated	-2838
▁prison	-2839
▁European	-2840
▁title	-2841
abor	-2842
key	-2843
ume	-2844
oyal	-2845
▁takes	-2846
▁Court	-2847
▁focus	-2848
▁estim	-2849
▁Mark	-2850
▁value	-2851
▁club	-2852
▁Phil	-2853
▁cases	-2854
▁independ	-2855
dom	-2856
rog	-2857
▁confir	-2858
▁write	-2859
rect	-2860
▁required	-2861
▁recorded	-2862
anced	-2863
▁Je	-2864
▁susp	-2865
▁International	-2866
▁histor	-2867
▁couple	-2868
▁financial	-2869
▁hear	-2870
iles	-2871
▁morning	-2872
▁finally	-2873
isted	-2874
▁user	-2875
▁Most	-2876
ico	-2877
▁necess	-2878
NN	-2879
aught	-2880
arr	-2881
▁29	-2882
",	-2883
▁Senate	-2884
▁select	-2885
▁hundred	-2886
▁east	-2887
▁latest	-2888
ears	-2889
▁River	-2890
elligence	-2891
▁cho	-2892
imin	-2893
arily	-2894
▁improve	-2895
▁impact	-2896
▁eventually	-2897
▁fix	-2898
▁increasing	-2899
▁parts	-2900
▁di	-2901
▁60	-2902
ny	-2903
▁Apple	-2904
▁reb	-2905
▁economic	-2906
▁sort	-2907
▁sales	-2908
▁target	-2909
▁unc	-2910
▁model	-2911
light	-2912
▁poor	-2913
▁showed	-2914
airs	-2915
▁Center	-2916
ges	-2917
▁anal	-2918
▁particularly	-2919
▁levels	-2920
izing	-2921
asons	-2922
▁quar	-2923
▁towards	-2924
▁chief	-2925
▁foreign	-2926
uesday	-2927
▁Mond	-2928
▁brother	-2929
▁192	-2930
▁economy	-2931
▁require	-2932
▁message	-2933
▁images	-2934
▁hous	-2935
▁sle	-2936
▁2011	-2937
▁damage	-2938
▁bott	-2939
▁scientists	-2940
▁bur	-2941
lands	-2942
ples	-2943
▁potential	-2944
body	-2945
rief	-2946
idents	-2947
▁School	-2948
▁behav	-2949
ida	-2950
▁God	-2951
azine	-2952
▁draw	-2953
▁fast	-2954
▁Friday	-2955
▁aircraft	-2956
▁serious	-2957
▁mount	-2958
▁Robert	-2959
▁iP	-2960
▁disp	-2961
king	-2962
▁Tuesday	-2963
aud	-2964
inese	-2965
▁Op	-2966
▁aw	-2967
▁Indian	-2968
▁believed	-2969
mercial	-2970
▁pers	-2971
▁Many	-2972
▁increased	-2973
▁usually	-2974
.,	-2975
▁letter	-2976
▁mention	-2977
down	-2978
▁dom	-2979
▁failed	-2980
▁uses	-2981
▁ways	-2982
hib	-2983
zz	-2984
ength	-2985
▁prep	-2986
▁wat	-2987
uf	-2988
▁approach	-2989
▁Wed	-2990
▁cat	-2991
mar	-2992
duction	-2993
▁date	-2994
oul	-2995
tered	-2996
▁songs	-2997
▁enjoy	-2998
▁2012	-2999
▁carry	-3000
▁Bec	-3001
▁Soc	-3002
▁mis	-3003
▁worth	-3004
▁Windows	-3005
▁Two	-3006
lled	-3007
30	-3008
▁products	-3009
anch	-3010
▁Off	-3011
OR	-3012
▁pressure	-3013
ills	-3014
▁served	-3015
▁Chinese	-3016
▁goal	-3017
ams	-3018
▁cannot	-3019
▁achie	-3020
ously	-3021
▁journal	-3022
▁characters	-3023
ari	-3024
▁appears	-3025
iple	-3026
▁heavy	-3027
▁green	-3028
▁clos	-3029
▁ability	-3030
ully	-3031
raz	-3032
▁Face	-3033
bon	-3034
▁natural	-3035
ospital	-3036
▁terms	-3037
ements	-3038
▁despite	-3039
▁forced	-3040
▁rank	-3041
▁remained	-3042
erve	-3043
▁Wil	-3044
emy	-3045
▁Canada	-3046
▁plat	-3047
▁cells	-3048
▁purch	-3049
▁situation	-3050
▁toward	-3051
▁box	-3052
where	-3053
▁term	-3054
mark	-3055
ricane	-3056
▁legisl	-3057
▁standard	-3058
▁dise	-3059
▁related	-3060
▁style	-3061
▁bed	-3062
▁looks	-3063
itiz	-3064
▁giving	-3065
▁Japanese	-3066
▁drive	-3067
▁Monday	-3068
ibly	-3069
▁Ham	-3070
▁electric	-3071
▁Tex	-3072
orters	-3073
ims	-3074
▁board	-3075
oring	-3076
▁completely	-3077
▁Since	-3078
60	-3079
time	-3080
▁Resear	-3081
duce	-3082
▁details	-3083
▁chart	-3084
ounded	-3085
che	-3086
▁sometimes	-3087
ava	-3088
▁2000	-3089
▁doub	-3090
▁currently	-3091
▁promot	-3092
▁France	-3093
ners	-3094
wood	-3095
▁stage	-3096
fl	-3097
▁emb	-3098
▁parents	-3099
▁remain	-3100
orks	-3101
▁BBC	-3102
▁Mex	-3103
▁sens	-3104
▁Govern	-3105
▁camer	-3106
▁Richard	-3107
▁lives	-3108
▁discovered	-3109
▁fuel	-3110
lin	-3111
ounts	-3112
▁award	-3113
aked	-3114
▁refer	-3115
NA	-3116
ampions	-3117
aughter	-3118
berg	-3119
▁positive	-3120
▁additional	-3121
antic	-3122
igned	-3123
▁Vir	-3124
▁ur	-3125
obile	-3126
▁answer	-3127
▁pen	-3128
nesday	-3129
ovel	-3130
mon	-3131
▁burn	-3132
▁pan	-3133
asion	-3134
lished	-3135
▁includes	-3136
▁happened	-3137
▁grad	-3138
ris	-3139
▁lines	-3140
ursday	-3141
▁fair	-3142
▁2001	-3143
▁central	-3144
▁calls	-3145
▁mill	-3146
▁complex	-3147
▁31	-3148
▁please	-3149
based	-3150
▁center	-3151
▁disapp	-3152
▁effects	-3153
▁Fin	-3154
▁Em	-3155
ulated	-3156
ipped	-3157
▁clean	-3158
atur	-3159
▁leader	-3160
▁feature	-3161
▁repe	-3162
▁shown	-3163
▁Wednesday	-3164
200	-3165
▁goes	-3166
▁capital	-3167
▁radio	-3168
band	-3169
cy	-3170
add	-3171
ems	-3172
rom	-3173
▁medical	-3174
ests	-3175
bl	-3176
asc	-3177
▁Port	-3178
▁changed	-3179
▁interesting	-3180
itz	-3181
▁190	-3182
bert	-3183
▁Coun	-3184
▁ships	-3185
itar	-3186
▁training	-3187
▁Of	-3188
?"	-3189
▁Thursday	-3190
▁Democrats	-3191
▁pul	-3192
2.	-3193
stitute	-3194
yth	-3195
▁firm	-3196
▁huge	-3197
▁progress	-3198
▁claims	-3199
▁previously	-3200
▁feed	-3201
▁Facebook	-3202
▁Play	-3203
illed	-3204
ords	-3205
ender	-3206
▁safe	-3207
rian	-3208
nt	-3209
▁touch	-3210
▁attract	-3211
▁Angel	-3212
▁Ber	-3213
▁immediately	-3214
▁placed	-3215
▁extra	-3216
ties	-3217
▁swe	-3218
▁coast	-3219
▁lif	-3220
▁Cons	-3221
▁brief	-3222
edy	-3223
ares	-3224
▁dev	-3225
ety	-3226
▁surface	-3227
enty	-3228
▁meant	-3229
▁summer	-3230
▁runs	-3231
▁files	-3232
▁presidential	-3233
sych	-3234
▁directly	-3235
ES	-3236
▁implement	-3237
▁India	-3238
AR	-3239
hood	-3240
▁commercial	-3241
▁contr	-3242
▁figure	-3243
▁beginning	-3244
igg	-3245
▁plant	-3246
cle	-3247
▁established	-3248
▁Mart	-3249
▁gold	-3250
▁purp	-3251
▁Sl	-3252
▁Div	-3253
▁shoot	-3254
▁quality	-3255
▁generally	-3256
▁apparent	-3257
oved	-3258
▁soldiers	-3259
▁Gold	-3260
lection	-3261
▁compared	-3262
▁credit	-3263
▁fle	-3264
akers	-3265
reng	-3266
▁table	-3267
▁movie	-3268
iny	-3269
▁ver	-3270
astic	-3271
ago	-3272
▁born	-3273
▁laun	-3274
▁+	-3275
▁recomm	-3276
wide	-3277
▁remains	-3278
▁Party	-3279
rences	-3280
▁operations	-3281
oses	-3282
▁alone	-3283
▁vill	-3284
▁wants	-3285
▁moving	-3286
acing	-3287
▁successful	-3288
▁beg	-3289
▁crew	-3290
room	-3291
▁assist	-3292
▁larger	-3293
▁piece	-3294
▁opportun	-3295
put	-3296
▁insp	-3297
▁chance	-3298
▁maybe	-3299
▁located	-3300
ledge	-3301
▁Even	-3302
▁church	-3303
isions	-3304
▁Over	-3305
▁danger	-3306
▁names	-3307
▁novel	-3308
omas	-3309
▁pra	-3310
▁display	-3311
hold	-3312
oes	-3313
▁construction	-3314
▁Met	-3315
ension	-3316
▁Val	-3317
▁communic	-3318
▁Green	-3319
▁efforts	-3320
▁mur	-3321
▁hair	-3322
▁relative	-3323
▁neigh	-3324
ounds	-3325
▁Well	-3326
▁talking	-3327
▁traffic	-3328
▁middle	-3329
ables	-3330
▁Committee	-3331
▁Dan	-3332
▁Day	-3333
hem	-3334
▁books	-3335
mit	-3336
field	-3337
▁x	-3338
▁agreed	-3339
▁Lin	-3340
ston	-3341
▁Net	-3342
▁rap	-3343
vertisement	-3344
▁frequ	-3345
▁ang	-3346
▁Int	-3347
▁raised	-3348
▁mer	-3349
▁Last	-3350
▁spread	-3351
▁Flor	-3352
▁temper	-3353
uters	-3354
▁send	-3355
rupt	-3356
▁scene	-3357
▁majority	-3358
▁produce	-3359
▁Bay	-3360
▁defin	-3361
▁officers	-3362
▁Christian	-3363
▁growing	-3364
▁primary	-3365
ysis	-3366
▁newsp	-3367
ula	-3368
▁ice	-3369
▁ult	-3370
▁paid	-3371
▁Bel	-3372
▁altern	-3373
yond	-3374
rol	-3375
▁il	-3376
▁Texas	-3377
▁rules	-3378
rugg	-3379
▁cool	-3380
▁weapons	-3381
▁obser	-3382
▁perfect	-3383
▁ended	-3384
lease	-3385
▁army	-3386
▁imag	-3387
▁closed	-3388
▁500	-3389
▁growth	-3390
▁helped	-3391
▁stra	-3392
oper	-3393
▁Hol	-3394
▁card	-3395
ulf	-3396
▁prior	-3397
▁Virgin	-3398
▁Britain	-3399
▁extreme	-3400
▁suggested	-3401
imum	-3402
▁perhaps	-3403
▁chem	-3404
▁ens	-3405
▁kept	-3406
▁highest	-3407
▁nomin	-3408
eed	-3409
▁wonder	-3410
▁ess	-3411
▁formed	-3412
▁length	-3413
▁Nor	-3414
come	-3415
IS	-3416
▁deg	-3417
hat	-3418
imb	-3419
uit	-3420
▁Desp	-3421
▁Australian	-3422
▁thousands	-3423
▁Star	-3424
▁trade	-3425
▁counter	-3426
▁rob	-3427
▁female	-3428
owers	-3429
▁ran	-3430
AN	-3431
▁onto	-3432
▁Union	-3433
▁machine	-3434
▁leaving	-3435
ius	-3436
▁signed	-3437
▁lic	-3438
▁streng	-3439
-1	-3440
Re	-3441
▁fing	-3442
▁Brown	-3443
▁application	-3444
▁80	-3445
▁script	-3446
▁candidate	-3447
▁opening	-3448
▁sun	-3449
▁sal	-3450
▁Mo	-3451
▁exactly	-3452
ibrary	-3453
▁conference	-3454
▁fif	-3455
▁originally	-3456
▁prec	-3457
▁limited	-3458
▁brow	-3459
▁park	-3460
▁189	-3461
▁citiz	-3462
▁illeg	-3463
▁connect	-3464
▁Hen	-3465
force	-3466
aby	-3467
▁route	-3468
▁sequ	-3469
▁broadcast	-3470
ocks	-3471
▁Miss	-3472
▁performed	-3473
▁gets	-3474
▁autom	-3475
▁completed	-3476
▁email	-3477
ki	-3478
change	-3479
80	-3480
▁Also	-3481
terday	-3482
▁debate	-3483
▁ft	-3484
▁Read	-3485
▁Road	-3486
▁slight	-3487
ography	-3488
icted	-3489
▁sched	-3490
ushed	-3491
▁speech	-3492
▁thinking	-3493
umn	-3494
▁Atl	-3495
▁Mag	-3496
▁ir	-3497
▁League	-3498
▁2002	-3499
uing	-3500
orney	-3501
▁2013	-3502
▁Prof	-3503
▁liter	-3504
▁workers	-3505
▁gone	-3506
▁spokesman	-3507
nel	-3508
▁costs	-3509
▁section	-3510
St	-3511
▁conditions	-3512
▁becoming	-3513
▁conserv	-3514
▁ign	-3515
rs	-3516
ocked	-3517
▁store	-3518
▁Inst	-3519
▁finished	-3520
▁experi	-3521
▁king	-3522
▁batt	-3523
▁ca	-3524
▁offered	-3525
▁ones	-3526
▁har	-3527
▁Us	-3528
▁claimed	-3529
house	-3530
▁Florida	-3531
▁encour	-3532
▁quarter	-3533
ags	-3534
▁wood	-3535
▁Despite	-3536
▁choice	-3537
▁memory	-3538
▁nine	-3539
▁guy	-3540
ville	-3541
▁path	-3542
▁Tom	-3543
▁dog	-3544
istry	-3545
▁corn	-3546
▁convers	-3547
▁seemed	-3548
gest	-3549
▁executive	-3550
▁concept	-3551
ander	-3552
▁ordered	-3553
▁detail	-3554
▁arms	-3555
▁floor	-3556
.0	-3557
▁island	-3558
odes	-3559
▁agency	-3560
▁charge	-3561
orter	-3562
ancy	-3563
▁Peter	-3564
▁carried	-3565
iced	-3566
▁activity	-3567
ampionship	-3568
ken	-3569
▁tal	-3570
rec	-3571
▁Squ	-3572
▁Church	-3573
▁stuff	-3574
▁Dis	-3575
▁obv	-3576
▁spot	-3577
▁Sunday	-3578
vere	-3579
▁reading	-3580
▁peace	-3581
ha	-3582
ghan	-3583
▁drop	-3584
▁chair	-3585
▁investigation	-3586
▁god	-3587
▁Association	-3588
ded	-3589
▁mist	-3590
▁measure	-3591
▁officer	-3592
▁sources	-3593
▁southern	-3594
▁bud	-3595
▁Royal	-3596
▁fear	-3597
____	-3598
iate	-3599
▁Hist	-3600
▁Stud	-3601
▁Tod	-3602
▁About	-3603
▁programs	-3604
▁Jud	-3605
▁ready	-3606
▁records	-3607
ufact	-3608
▁princ	-3609
liam	-3610
▁Law	-3611
chan	-3612
▁Ter	-3613
riage	-3614
▁Roman	-3615
▁graph	-3616
yer	-3617
▁jump	-3618
▁Council	-3619
▁surr	-3620
▁Ac	-3621
rial	-3622
rang	-3623
▁joined	-3624
▁et	-3625
▁ge	-3626
▁whom	-3627
▁highly	-3628
alled	-3629
▁victory	-3630
▁Germany	-3631
▁trou	-3632
▁print	-3633
aling	-3634
▁appoint	-3635
▁avoid	-3636
▁Def	-3637
▁studies	-3638
▁mission	-3639
▁elements	-3640
▁save	-3641
▁fine	-3642
▁proposed	-3643
▁Thomas	-3644
lam	-3645
.1	-3646
uses	-3647
▁senior	-3648
▁education	-3649
▁intelligence	-3650
liament	-3651
▁powerful	-3652
fort	-3653
▁Step	-3654
orial	-3655
▁starting	-3656
.5	-3657
▁cele	-3658
▁except	-3659
▁Del	-3660
▁Lou	-3661
▁customers	-3662
roll	-3663
▁Advertisement	-3664
ania	-3665
ils	-3666
▁sport	-3667
inary	-3668
▁movement	-3669
▁fourth	-3670
▁constit	-3671
▁Great	-3672
▁Let	-3673
▁Another	-3674
▁Mad	-3675
right	-3676
uty	-3677
▁Like	-3678
▁acqu	-3679
▁Art	-3680
▁liber	-3681
▁Down	-3682
▁breat	-3683
▁hol	-3684
▁easily	-3685
▁sleep	-3686
▁mouth	-3687
▁opin	-3688
inct	-3689
▁Jer	-3690
▁Pri	-3691
▁scen	-3692
set	-3693
▁minor	-3694
▁35	-3695
▁rare	-3696
▁mort	-3697
▁religious	-3698
rend	-3699
▁grand	-3700
▁prem	-3701
▁stories	-3702
▁stars	-3703
▁calling	-3704
▁unf	-3705
▁commission	-3706
▁und	-3707
▁shut	-3708
▁pull	-3709
▁introduced	-3710
▁estimated	-3711
▁Mary	-3712
▁issued	-3713
▁Mil	-3714
▁happen	-3715
▁notes	-3716
▁allows	-3717
▁sea	-3718
ronic	-3719
▁Division	-3720
▁Institute	-3721
▁Afghan	-3722
▁birth	-3723
ulations	-3724
▁straight	-3725
25	-3726
olf	-3727
▁fol	-3728
▁tropical	-3729
▁responsible	-3730
▁launch	-3731
▁conclud	-3732
▁Then	-3733
aval	-3734
▁ahead	-3735
▁launched	-3736
▁70	-3737
elled	-3738
▁normal	-3739
▁structure	-3740
igan	-3741
▁PC	-3742
▁intended	-3743
▁planet	-3744
▁platform	-3745
sey	-3746
▁guns	-3747
aches	-3748
▁Iraqi	-3749
▁expand	-3750
▁Carol	-3751
▁Bu	-3752
yright	-3753
▁nature	-3754
▁Secret	-3755
wise	-3756
▁heav	-3757
het	-3758
▁beyond	-3759
40	-3760
▁bul	-3761
▁applications	-3762
▁analy	-3763
▁Follow	-3764
iable	-3765
▁www	-3766
▁solar	-3767
▁nice	-3768
▁wasn	-3769
▁drink	-3770
▁cancer	-3771
▁eye	-3772
▁fat	-3773
▁withd	-3774
▁occup	-3775
▁magazine	-3776
que	-3777
itude	-3778
▁Office	-3779
ios	-3780
▁ut	-3781
▁northern	-3782
If	-3783
tar	-3784
omen	-3785
ste	-3786
▁hom	-3787
edom	-3788
▁Your	-3789
▁rain	-3790
itation	-3791
▁Franc	-3792
igr	-3793
▁lik	-3794
▁male	-3795
▁remember	-3796
▁authorities	-3797
▁der	-3798
▁Research	-3799
icket	-3800
olic	-3801
▁Ben	-3802
▁survey	-3803
entially	-3804
▁critics	-3805
iar	-3806
ping	-3807
well	-3808
▁myself	-3809
reek	-3810
▁arrived	-3811
ulate	-3812
▁disease	-3813
▁transfer	-3814
▁challen	-3815
miss	-3816
▁Kore	-3817
▁gives	-3818
etic	-3819
▁Under	-3820
▁Pet	-3821
west	-3822
▁device	-3823
▁manager	-3824
▁NY	-3825
ropri	-3826
▁dire	-3827
▁Mount	-3828
▁>	-3829
▁Ol	-3830
▁Tur	-3831
iling	-3832
▁Sing	-3833
fall	-3834
resp	-3835
▁necessary	-3836
aded	-3837
▁Att	-3838
▁practice	-3839
▁crow	-3840
▁mostly	-3841
▁click	-3842
▁Mur	-3843
▁overall	-3844
overy	-3845
▁gra	-3846
VD	-3847
▁Add	-3848
▁pattern	-3849
▁tor	-3850
▁transport	-3851
amm	-3852
▁replaced	-3853
▁sud	-3854
▁smaller	-3855
▁climate	-3856
icks	-3857
▁Because	-3858
more	-3859
▁Java	-3860
▁som	-3861
▁fighting	-3862
▁Ver	-3863
iders	-3864
▁manufact	-3865
▁theory	-3866
▁picture	-3867
▁supported	-3868
lege	-3869
ews	-3870
▁beaut	-3871
eal	-3872
ental	-3873
▁Inter	-3874
▁Science	-3875
▁greater	-3876
▁student	-3877
▁revealed	-3878
▁Game	-3879
ipl	-3880
▁Fire	-3881
▁Frank	-3882
▁Scott	-3883
▁Minister	-3884
▁Oh	-3885
▁reasons	-3886
▁provides	-3887
▁posted	-3888
▁hospital	-3889
▁trial	-3890
vin	-3891
▁Dist	-3892
▁rule	-3893
▁Penn	-3894
▁laws	-3895
▁subsequ	-3896
▁mm	-3897
▁conflic	-3898
antly	-3899
▁schools	-3900
▁Press	-3901
▁meaning	-3902
▁appearance	-3903
▁speak	-3904
▁Los	-3905
▁Alex	-3906
▁Republicans	-3907
▁Arab	-3908
▁removed	-3909
cean	-3910
lymp	-3911
▁reflect	-3912
▁daughter	-3913
▁Why	-3914
▁note	-3915
▁Kn	-3916
semb	-3917
▁Ev	-3918
▁saf	-3919
▁psych	-3920
▁demonstr	-3921
▁happy	-3922
▁corpor	-3923
▁internet	-3924
▁caught	-3925
▁fans	-3926
tained	-3927
▁voters	-3928
ID	-3929
iest	-3930
▁Open	-3931
▁Hall	-3932
stitution	-3933
▁consist	-3934
▁treatment	-3935
▁difference	-3936
▁weight	-3937
▁determin	-3938
▁Linux	-3939
▁location	-3940
▁Smith	-3941
▁associated	-3942
▁Hum	-3943
▁planned	-3944
▁Pak	-3945
▁status	-3946
▁yesterday	-3947
▁rail	-3948
▁skin	-3949
▁critical	-3950
▁violence	-3951
▁load	-3952
▁rise	-3953
▁analysis	-3954
▁traditional	-3955
▁Trans	-3956
▁prosec	-3957
osh	-3958
iser	-3959
isis	-3960
▁blue	-3961
▁correct	-3962
▁Africa	-3963
▁Cle	-3964
▁flight	-3965
stant	-3966
venue	-3967
▁Tor	-3968
▁Jim	-3969
▁initial	-3970
▁anc	-3971
▁Des	-3972
itness	-3973
▁1990	-3974
atever	-3975
▁influence	-3976
▁advant	-3977
ED	-3978
▁carbon	-3979
eum	-3980
▁90	-3981
▁Mars	-3982
▁flood	-3983
▁Olymp	-3984
▁Fore	-3985
▁property	-3986
▁Virginia	-3987
▁actions	-3988
▁double	-3989
▁dropped	-3990
▁adop	-3991
pects	-3992
andon	-3993
▁max	-3994
▁Island	-3995
▁tow	-3996
▁voc	-3997
▁editor	-3998
▁wild	-3999
▁Company	-4000
▁Sur	-4001
▁Western	-4002
▁Security	-4003
▁pun	-4004
▁ideas	-4005
▁vir	-4006
▁strugg	-4007
serv	-4008
▁wait	-4009
▁certainly	-4010
▁sem	-4011
.'	-4012
▁ast	-4013
▁reject	-4014
iminal	-4015
▁incident	-4016
▁Fe	-4017
▁alle	-4018
▁appl	-4019
▁La	-4020
▁rates	-4021
▁trust	-4022
▁pet	-4023
▁Sam	-4024
▁homes	-4025
▁animals	-4026
▁Book	-4027
SP	-4028
▁fully	-4029
▁pil	-4030
▁stopped	-4031
illa	-4032
icago	-4033
▁Music	-4034
▁multiple	-4035
▁Fox	-4036
▁biggest	-4037
rie	-4038
▁separate	-4039
▁Que	-4040
▁Pakistan	-4041
▁construct	-4042
▁controvers	-4043
▁units	-4044
▁Best	-4045
▁Canadian	-4046
▁effic	-4047
▁dollars	-4048
ivity	-4049
▁annual	-4050
ona	-4051
resh	-4052
annel	-4053
▁thus	-4054
rey	-4055
▁Rob	-4056
▁knowledge	-4057
aming	-4058
▁featured	-4059
can	-4060
▁College	-4061
There	-4062
itect	-4063
▁Mal	-4064
▁fort	-4065
▁eth	-4066
▁suit	-4067
▁continues	-4068
▁perm	-4069
▁virt	-4070
▁Mexico	-4071
▁direction	-4072
▁spir	-4073
▁charges	-4074
▁contains	-4075
▁society	-4076
▁rat	-4077
ption	-4078
▁earth	-4079
cing	-4080
▁Senator	-4081
▁Sol	-4082
▁active	-4083
▁covered	-4084
estic	-4085
▁sexual	-4086
▁supposed	-4087
▁interested	-4088
▁spl	-4089
▁initially	-4090
▁45	-4091
▁experiment	-4092
▁operation	-4093
▁Super	-4094
AC	-4095
▁Henry	-4096
▁safety	-4097
reak	-4098
▁Twitter	-4099
▁types	-4100
hone	-4101
▁CNN	-4102
▁color	-4103
iverse	-4104
ero	-4105
ented	-4106
▁grant	-4107
vest	-4108
pping	-4109
while	-4110
▁remaining	-4111
▁cars	-4112
▁2014	-4113
aine	-4114
▁mechan	-4115
▁organization	-4116
▁professional	-4117
▁DVD	-4118
▁college	-4119
▁pulled	-4120
▁suggests	-4121
oly	-4122
▁Bank	-4123
urance	-4124
essor	-4125
▁minute	-4126
▁score	-4127
▁ban	-4128
▁establish	-4129
iring	-4130
uries	-4131
ING	-4132
▁humans	-4133
win	-4134
▁trib	-4135
odies	-4136
▁Wall	-4137
▁independent	-4138
▁Group	-4139
ounding	-4140
▁illegal	-4141
▁Chicago	-4142
▁bal	-4143
elling	-4144
▁places	-4145
▁propos	-4146
▁families	-4147
▁integr	-4148
▁Both	-4149
apers	-4150
iated	-4151
▁football	-4152
▁projects	-4153
▁refused	-4154
▁farm	-4155
▁explained	-4156
▁receive	-4157
▁Our	-4158
▁truth	-4159
▁amb	-4160
ython	-4161
▁Justice	-4162
▁Mass	-4163
▁spending	-4164
▁approx	-4165
▁fa	-4166
▁Back	-4167
▁bow	-4168
▁lived	-4169
▁Pre	-4170
▁AP	-4171
ager	-4172
▁Rad	-4173
IC	-4174
▁Russian	-4175
iance	-4176
▁emot	-4177
▁allowing	-4178
ota	-4179
▁beat	-4180
encies	-4181
▁Force	-4182
▁cycl	-4183
▁hus	-4184
▁contain	-4185
▁crime	-4186
▁holding	-4187
▁yourself	-4188
▁cold	-4189
▁Commission	-4190
▁domin	-4191
▁showing	-4192
▁throw	-4193
▁highway	-4194
▁territ	-4195
▁useful	-4196
sts	-4197
▁enter	-4198
bs	-4199
▁destroyed	-4200
▁finding	-4201
▁Second	-4202
▁Mont	-4203
erous	-4204
▁older	-4205
▁Charles	-4206
▁Barack	-4207
▁Er	-4208
▁winning	-4209
▁street	-4210
gl	-4211
▁Camp	-4212
▁documents	-4213
part	-4214
▁reduce	-4215
atab	-4216
▁See	-4217
uby	-4218
▁restrict	-4219
illing	-4220
▁Wal	-4221
▁crisis	-4222
ML	-4223
oted	-4224
▁Scient	-4225
▁confirmed	-4226
▁herself	-4227
▁slightly	-4228
▁People	-4229
▁managed	-4230
▁newspaper	-4231
▁kids	-4232
▁basic	-4233
IT	-4234
iec	-4235
▁Rel	-4236
▁window	-4237
▁Russia	-4238
bour	-4239
▁Lat	-4240
ria	-4241
▁Inc	-4242
▁rapid	-4243
ym	-4244
box	-4245
ifying	-4246
onents	-4247
▁Sub	-4248
▁spend	-4249
▁citizens	-4250
▁individuals	-4251
▁pages	-4252
asy	-4253
▁Kh	-4254
▁creating	-4255
▁Following	-4256
lim	-4257
▁adding	-4258
isp	-4259
ields	-4260
▁background	-4261
99	-4262
▁somew	-4263
▁Their	-4264
▁presented	-4265
▁cas	-4266
▁UN	-4267
▁feeling	-4268
▁Bur	-4269
▁Tre	-4270
▁border	-4271
▁marriage	-4272
▁affect	-4273
▁2015	-4274
icated	-4275
▁entered	-4276
▁digital	-4277
▁opportunity	-4278
▁unique	-4279
▁audience	-4280
▁unit	-4281
mine	-4282
▁seconds	-4283
atically	-4284
▁activities	-4285
70	-4286
ady	-4287
▁Oper	-4288
ga	-4289
▁variety	-4290
▁competition	-4291
▁aim	-4292
▁drugs	-4293
▁ton	-4294
▁tort	-4295
gar	-4296
osure	-4297
▁roll	-4298
▁clearly	-4299
▁Rock	-4300
▁shar	-4301
▁directed	-4302
▁calc	-4303
▁vac	-4304
▁impl	-4305
porary	-4306
▁married	-4307
▁aren	-4308
▁Police	-4309
▁condition	-4310
▁Big	-4311
▁rough	-4312
▁apparently	-4313
▁supply	-4314
ado	-4315
▁solution	-4316
▁selling	-4317
ena	-4318
nam	-4319
▁jobs	-4320
aped	-4321
▁conducted	-4322
▁management	-4323
▁shop	-4324
▁Service	-4325
▁Out	-4326
▁guess	-4327
istics	-4328
▁advert	-4329
▁largely	-4330
▁300	-4331
▁Du	-4332
gu	-4333
▁Old	-4334
▁standing	-4335
▁hundreds	-4336
▁physical	-4337
▁patients	-4338
You	-4339
▁1980	-4340
▁daily	-4341
▁instit	-4342
▁bottom	-4343
▁sudden	-4344
▁occurred	-4345
usion	-4346
▁arrested	-4347
ka	-4348
icious	-4349
▁harm	-4350
▁buildings	-4351
▁Once	-4352
▁Its	-4353
▁owners	-4354
▁Angeles	-4355
uct	-4356
▁suppl	-4357
▁writer	-4358
▁collection	-4359
▁chap	-4360
▁Every	-4361
▁batter	-4362
▁iPhone	-4363
▁Today	-4364
▁culture	-4365
unic	-4366
▁join	-4367
ET	-4368
▁camera	-4369
▁accused	-4370
ustr	-4371
▁basis	-4372
▁learned	-4373
▁scored	-4374
▁effective	-4375
▁asking	-4376
riend	-4377
▁seeing	-4378
▁operating	-4379
▁Francis	-4380
▁Islam	-4381
▁Hel	-4382
▁kil	-4383
▁willing	-4384
▁System	-4385
▁alleged	-4386
▁announce	-4387
olute	-4388
▁react	-4389
cher	-4390
▁presence	-4391
see	-4392
▁plants	-4393
oto	-4394
▁NAS	-4395
▁hurricane	-4396
▁copy	-4397
▁unable	-4398
▁Afghanistan	-4399
ev	-4400
▁transl	-4401
▁scientific	-4402
▁Navy	-4403
▁assum	-4404
uana	-4405
▁hearing	-4406
▁behavior	-4407
▁Cap	-4408
▁Direct	-4409
▁candidates	-4410
▁eat	-4411
▁Techn	-4412
ien	-4413
▁Enter	-4414
▁defense	-4415
aching	-4416
▁concerns	-4417
▁1970	-4418
▁Cast	-4419
▁Kenn	-4420
▁Get	-4421
▁coal	-4422
ya	-4423
▁western	-4424
▁Pac	-4425
▁32	-4426
agues	-4427
▁Ha	-4428
▁nar	-4429
▁Health	-4430
▁glass	-4431
▁Vict	-4432
▁Gi	-4433
▁Sal	-4434
▁pair	-4435
▁ded	-4436
▁Satur	-4437
suit	-4438
▁mph	-4439
gen	-4440
AA	-4441
▁hun	-4442
He	-4443
▁Grand	-4444
BS	-4445
known	-4446
▁Louis	-4447
▁Good	-4448
▁Hillary	-4449
▁Media	-4450
pre	-4451
▁Michigan	-4452
▁Battle	-4453
iful	-4454
ding	-4455
▁Matt	-4456
▁combat	-4457
▁tests	-4458
▁bridge	-4459
▁1,	-4460
▁African	-4461
OS	-4462
▁driving	-4463
▁negative	-4464
▁arrang	-4465
▁agreement	-4466
teen	-4467
ss	-4468
hens	-4469
how	-4470
▁cry	-4471
ighter	-4472
▁photos	-4473
▁employees	-4474
▁Fil	-4475
▁recording	-4476
▁developing	-4477
DA	-4478
ules	-4479
▁forms	-4480
agh	-4481
▁adj	-4482
▁Federal	-4483
ategy	-4484
date	-4485
▁protection	-4486
▁Ma	-4487
▁Viet	-4488
▁husband	-4489
▁possibly	-4490
▁clot	-4491
▁explain	-4492
▁judge	-4493
▁Cup	-4494
▁catch	-4495
▁stock	-4496
▁explos	-4497
▁committee	-4498
▁relatively	-4499
▁becomes	-4500
▁teams	-4501
▁Bet	-4502
▁offers	-4503
▁server	-4504
▁task	-4505
▁twice	-4506
▁repeated	-4507
eless	-4508
▁actual	-4509
▁choose	-4510
▁scale	-4511
▁advantage	-4512
mas	-4513
▁TH	-4514
▁serve	-4515
oom	-4516
▁core	-4517
▁river	-4518
▁stood	-4519
▁budget	-4520
▁figures	-4521
▁mi	-4522
▁versions	-4523
▁whatever	-4524
▁Saturday	-4525
▁Middle	-4526
▁programming	-4527
OT	-4528
▁legislation	-4529
OM	-4530
ijuana	-4531
▁convention	-4532
▁eastern	-4533
▁hall	-4534
ription	-4535
▁thr	-4536
▁Mill	-4537
▁qual	-4538
▁library	-4539
▁wel	-4540
▁agree	-4541
▁turns	-4542
▁express	-4543
quar	-4544
▁diss	-4545
atures	-4546
lor	-4547
▁metal	-4548
▁kick	-4549
▁Home	-4550
▁Rom	-4551
▁Spec	-4552
▁categ	-4553
▁purpose	-4554
▁equip	-4555
▁worse	-4556
osen	-4557
▁broke	-4558
▁Hur	-4559
▁fal	-4560
▁Journal	-4561
▁1999	-4562
works	-4563
▁knows	-4564
.2	-4565
▁Cur	-4566
▁Time	-4567
ading	-4568
▁option	-4569
▁weak	-4570
▁vehicles	-4571
ht	-4572
war	-4573
ieces	-4574
▁CD	-4575
▁existing	-4576
▁resources	-4577
12	-4578
▁Martin	-4579
▁unlike	-4580
▁Are	-4581
▁watching	-4582
▁Israeli	-4583
▁opinion	-4584
▁benefits	-4585
▁missing	-4586
ype	-4587
heast	-4588
▁captured	-4589
rison	-4590
▁tools	-4591
▁devices	-4592
BI	-4593
▁winds	-4594
▁identified	-4595
ada	-4596
ias	-4597
ylv	-4598
▁Instead	-4599
▁waiting	-4600
sen	-4601
EN	-4602
▁heat	-4603
anging	-4604
▁Ms	-4605
▁Leg	-4606
▁sam	-4607
adron	-4608
▁Gen	-4609
▁negot	-4610
▁prote	-4611
EC	-4612
▁Please	-4613
▁professor	-4614
▁views	-4615
▁providing	-4616
verse	-4617
▁od	-4618
▁Secretary	-4619
▁Central	-4620
phone	-4621
▁criminal	-4622
▁concerned	-4623
▁chemical	-4624
AL	-4625
utch	-4626
▁reform	-4627
▁regist	-4628
▁princip	-4629
▁Carolina	-4630
▁bug	-4631
▁animal	-4632
▁mobile	-4633
▁architect	-4634
▁36	-4635
isation	-4636
uled	-4637
OP	-4638
acity	-4639
▁186	-4640
▁train	-4641
▁links	-4642
▁188	-4643
▁hell	-4644
▁Chris	-4645
▁killing	-4646
▁tim	-4647
ipping	-4648
▁photo	-4649
▁Kingdom	-4650
▁strength	-4651
▁girls	-4652
▁approximately	-4653
▁Ill	-4654
▁widely	-4655
och	-4656
▁Ron	-4657
▁cru	-4658
▁bac	-4659
▁gall	-4660
▁defend	-4661
▁easier	-4662
rd	-4663
▁prefer	-4664
▁etc	-4665
▁rich	-4666
▁severe	-4667
▁reality	-4668
road	-4669
▁column	-4670
eds	-4671
udd	-4672
la	-4673
vant	-4674
▁celebr	-4675
▁Palest	-4676
▁millions	-4677
azing	-4678
▁sides	-4679
respond	-4680
▁evolution	-4681
▁tend	-4682
▁planning	-4683
▁75	-4684
▁Mer	-4685
ushing	-4686
▁accident	-4687
gency	-4688
▁Kar	-4689
izes	-4690
▁listed	-4691
▁strategy	-4692
▁33	-4693
ayer	-4694
▁Tim	-4695
▁massive	-4696
▁extended	-4697
▁baby	-4698
▁doubt	-4699
▁Spe	-4700
▁fresh	-4701
mosp	-4702
alian	-4703
▁Dar	-4704
▁limit	-4705
aren	-4706
▁residents	-4707
▁faster	-4708
▁reviews	-4709
▁copies	-4710
ashed	-4711
▁Bus	-4712
isf	-4713
▁Jeff	-4714
emic	-4715
▁vehicle	-4716
▁suffered	-4717
▁sch	-4718
▁Print	-4719
iot	-4720
▁Fort	-4721
▁Mike	-4722
▁income	-4723
za	-4724
▁dollar	-4725
▁equipment	-4726
▁Mem	-4727
water	-4728
obe	-4729
alle	-4730
▁exerc	-4731
▁pictures	-4732
onym	-4733
▁challenge	-4734
▁Win	-4735
ctors	-4736
▁cities	-4737
▁plot	-4738
▁distance	-4739
▁fish	-4740
itors	-4741
▁thick	-4742
▁termin	-4743
astern	-4744
▁attend	-4745
rier	-4746
alion	-4747
ipe	-4748
▁compar	-4749
▁decades	-4750
▁RE	-4751
▁department	-4752
ucky	-4753
yers	-4754
▁tun	-4755
▁environmental	-4756
ship	-4757
▁resist	-4758
▁Tra	-4759
▁datab	-4760
▁ring	-4761
▁Liber	-4762
▁Government	-4763
▁charged	-4764
lec	-4765
▁tracks	-4766
ropriate	-4767
▁alternative	-4768
CC	-4769
ront	-4770
▁Any	-4771
using	-4772
▁ensure	-4773
▁deploy	-4774
▁seat	-4775
▁stream	-4776
They	-4777
ologist	-4778
▁hyd	-4779
▁telling	-4780
▁Bob	-4781
▁sister	-4782
▁extremely	-4783
kin	-4784
▁teac	-4785
▁broken	-4786
▁failure	-4787
▁Fre	-4788
▁prompt	-4789
▁Johnson	-4790
▁nor	-4791
▁suc	-4792
▁dangerous	-4793
▁$3	-4794
▁Sil	-4795
▁dream	-4796
▁affected	-4797
▁films	-4798
top	-4799
▁concent	-4800
icit	-4801
eda	-4802
SS	-4803
know	-4804
▁wire	-4805
▁Public	-4806
gn	-4807
▁NASA	-4808
▁Jones	-4809
formation	-4810
▁declared	-4811
▁kid	-4812
▁elected	-4813
rawn	-4814
▁praised	-4815
▁protest	-4816
▁items	-4817
▁die	-4818
▁reduced	-4819
▁achieve	-4820
▁Arch	-4821
ums	-4822
▁politics	-4823
▁symb	-4824
▁attacked	-4825
▁syn	-4826
▁Pacific	-4827
▁raise	-4828
▁setting	-4829
ml	-4830
▁Haw	-4831
▁favorite	-4832
ext	-4833
▁fan	-4834
itely	-4835
▁developers	-4836
▁abandon	-4837
zen	-4838
ih	-4839
▁AT	-4840
▁gar	-4841
▁map	-4842
▁sust	-4843
▁Rev	-4844
▁lose	-4845
▁giant	-4846
▁readers	-4847
▁neighbor	-4848
);	-4849
oston	-4850
▁1998	-4851
issions	-4852
▁recon	-4853
vention	-4854
antry	-4855
ellow	-4856
▁mine	-4857
▁Dou	-4858
unction	-4859
▁Society	-4860
▁bodies	-4861
po	-4862
▁banks	-4863
▁Rout	-4864
awn	-4865
▁aid	-4866
▁latter	-4867
▁letters	-4868
▁Str	-4869
▁findings	-4870
anche	-4871
▁Love	-4872
▁$2	-4873
▁numerous	-4874
.3	-4875
▁tree	-4876
▁Wood	-4877
▁Elect	-4878
▁square	-4879
▁wouldn	-4880
▁Sn	-4881
amin	-4882
▁instr	-4883
▁(1	-4884
▁incor	-4885
▁tight	-4886
ortunately	-4887
▁tons	-4888
▁minister	-4889
▁mixed	-4890
▁tells	-4891
▁nearby	-4892
upper	-4893
▁Found	-4894
ran	-4895
▁entirely	-4896
irty	-4897
▁USA	-4898
▁mel	-4899
▁pal	-4900
▁bought	-4901
▁pit	-4902
unte	-4903
▁mentioned	-4904
▁studio	-4905
▁damaged	-4906
▁ox	-4907
ours	-4908
▁none	-4909
▁peak	-4910
icy	-4911
anta	-4912
ala	-4913
SA	-4914
▁cou	-4915
▁Atlantic	-4916
▁Hot	-4917
▁Yes	-4918
▁goals	-4919
izations	-4920
igation	-4921
▁brand	-4922
▁filed	-4923
▁Jose	-4924
reland	-4925
stein	-4926
eler	-4927
▁mut	-4928
▁fired	-4929
▁pieces	-4930
▁instruct	-4931
▁Ann	-4932
▁flow	-4933
▁worst	-4934
▁causing	-4935
▁Chief	-4936
▁advance	-4937
olved	-4938
▁experts	-4939
▁expressed	-4940
▁1960	-4941
▁absolute	-4942
):	-4943
▁instance	-4944
▁auth	-4945
▁Victor	-4946
▁Fed	-4947
▁Inf	-4948
▁Later	-4949
▁hero	-4950
▁benefit	-4951
▁Publ	-4952
▁accur	-4953
▁colon	-4954
▁Jackson	-4955
▁consumers	-4956
ports	-4957
▁desk	-4958
▁Joe	-4959
▁connection	-4960
▁Cop	-4961
▁Steve	-4962
!"	-4963
▁depart	-4964
anish	-4965
▁methods	-4966
▁cash	-4967
▁opposition	-4968
▁Ireland	-4969
met	-4970
uate	-4971
▁markets	-4972
▁atmosp	-4973
roat	-4974
▁spect	-4975
ban	-4976
aste	-4977
▁selected	-4978
▁losing	-4979
oking	-4980
▁stick	-4981
bar	-4982
▁Jon	-4983
▁rein	-4984
▁guys	-4985
acks	-4986
under	-4987
apping	-4988
▁Develop	-4989
▁rac	-4990
▁notice	-4991
▁pros	-4992
▁strike	-4993
▁pointed	-4994
idden	-4995
writ	-4996
▁mail	-4997
▁intens	-4998
▁options	-4999
▁sounds	-5000
▁error	-5001
▁dismiss	-5002
▁contrast	-5003
Tube	-5004
▁resc	-5005
▁Three	-5006
but	-5007
▁weather	-5008
▁Professor	-5009
illy	-5010
▁medic	-5011
▁village	-5012
▁domestic	-5013
▁MP	-5014
▁push	-5015
uated	-5016
edia	-5017
▁couldn	-5018
▁witness	-5019
friend	-5020
▁upper	-5021
▁Long	-5022
▁Prot	-5023
▁cook	-5024
▁guard	-5025
▁observ	-5026
▁History	-5027
▁Route	-5028
enth	-5029
▁Life	-5030
▁plug	-5031
▁authority	-5032
▁draft	-5033
ylvania	-5034
ita	-5035
▁din	-5036
▁birds	-5037
▁colleagues	-5038
MS	-5039
▁centre	-5040
vis	-5041
igade	-5042
▁awarded	-5043
▁keeping	-5044
▁attempts	-5045
▁sand	-5046
▁labor	-5047
icians	-5048
▁District	-5049
▁conflict	-5050
▁believes	-5051
▁therefore	-5052
▁Hom	-5053
▁steps	-5054
▁belief	-5055
pass	-5056
▁positions	-5057
aza	-5058
▁slowly	-5059
▁visual	-5060
▁Championship	-5061
▁copyright	-5062
isher	-5063
▁cart	-5064
▁advoc	-5065
▁models	-5066
▁lob	-5067
▁aware	-5068
▁referred	-5069
==	-5070
erved	-5071
▁flu	-5072
▁refe	-5073
▁Watch	-5074
500	-5075
▁Early	-5076
▁proceed	-5077
ahoo	-5078
▁wish	-5079
▁installed	-5080
▁Cath	-5081
▁Scot	-5082
▁passing	-5083
▁correspond	-5084
▁Mod	-5085
▁funds	-5086
▁conver	-5087
▁promin	-5088
▁functions	-5089
▁increasingly	-5090
▁closer	-5091
▁computers	-5092
▁spoke	-5093
EO	-5094
ulian	-5095
iler	-5096
▁accepted	-5097
▁kiss	-5098
▁uns	-5099
Reuters	-5100
icon	-5101
▁putting	-5102
gypt	-5103
▁stre	-5104
▁detect	-5105
▁reference	-5106
▁commit	-5107
▁testing	-5108
▁watched	-5109
▁appointed	-5110
anda	-5111
▁requires	-5112
▁marijuana	-5113
▁Award	-5114
▁votes	-5115
uzz	-5116
ocol	-5117
▁freedom	-5118
TV	-5119
▁Carl	-5120
▁unus	-5121
▁happens	-5122
▁episodes	-5123
▁Daily	-5124
clusion	-5125
▁fellow	-5126
▁struck	-5127
▁38	-5128
▁Lake	-5129
▁division	-5130
▁supporters	-5131
▁Free	-5132
▁Columb	-5133
kay	-5134
▁Cheney	-5135
▁objects	-5136
▁turning	-5137
ache	-5138
▁scr	-5139
▁Penns	-5140
▁wounded	-5141
▁generation	-5142
▁wid	-5143
iary	-5144
ologies	-5145
▁videos	-5146
rist	-5147
uting	-5148
▁Care	-5149
coming	-5150
▁187	-5151
▁funding	-5152
▁prepared	-5153
ashion	-5154
▁enemy	-5155
▁consult	-5156
▁standards	-5157
iger	-5158
▁trip	-5159
▁accomp	-5160
▁Rem	-5161
▁strateg	-5162
▁Mean	-5163
▁fifth	-5164
▁walked	-5165
▁Boy	-5166
▁twenty	-5167
▁houses	-5168
▁shape	-5169
▁driver	-5170
ideo	-5171
▁concluded	-5172
uous	-5173
▁understanding	-5174
een	-5175
▁Det	-5176
▁remove	-5177
▁Each	-5178
▁murder	-5179
▁argument	-5180
▁warm	-5181
▁bound	-5182
▁determined	-5183
▁circum	-5184
▁possibility	-5185
▁Sir	-5186
▁musical	-5187
▁thanks	-5188
▁policies	-5189
▁Song	-5190
▁narrow	-5191
▁update	-5192
▁plane	-5193
mann	-5194
▁browser	-5195
anes	-5196
▁fly	-5197
▁defeated	-5198
▁Boston	-5199
▁league	-5200
▁withdraw	-5201
ansion	-5202
▁DNA	-5203
ani	-5204
▁Town	-5205
▁artist	-5206
▁Jew	-5207
lines	-5208
stream	-5209
ossible	-5210
onent	-5211
▁Several	-5212
▁greatest	-5213
iques	-5214
▁Only	-5215
▁writes	-5216
▁distribution	-5217
▁yards	-5218
▁leaves	-5219
▁faith	-5220
icide	-5221
▁id	-5222
▁YouTube	-5223
▁Bow	-5224
gment	-5225
▁Brad	-5226
▁Egypt	-5227
▁delay	-5228
▁interact	-5229
▁Sea	-5230
▁grab	-5231
▁Download	-5232
coh	-5233
▁secure	-5234
▁tur	-5235
▁Games	-5236
▁investment	-5237
imal	-5238
.4	-5239
▁sale	-5240
▁tail	-5241
▁micro	-5242
▁theme	-5243
▁famous	-5244
▁worldwide	-5245
▁coff	-5246
▁false	-5247
▁resulting	-5248
▁Den	-5249
▁trees	-5250
hered	-5251
▁Before	-5252
▁Cross	-5253
▁quiet	-5254
▁acknow	-5255
▁begins	-5256
▁package	-5257
▁inspired	-5258
▁Sov	-5259
▁trouble	-5260
▁egg	-5261
▁partners	-5262
▁37	-5263
▁hack	-5264
▁subsc	-5265
▁hurt	-5266
▁haven	-5267
▁opposed	-5268
▁insurance	-5269
▁fit	-5270
▁otherwise	-5271
ronom	-5272
▁Live	-5273
kes	-5274
▁gay	-5275
▁Swed	-5276
hab	-5277
andom	-5278
▁sought	-5279
▁Project	-5280
▁Administ	-5281
oles	-5282
▁heavily	-5283
▁weekend	-5284
▁observed	-5285
phas	-5286
▁horse	-5287
▁machines	-5288
▁Club	-5289
▁challeng	-5290
▁producer	-5291
achment	-5292
▁warning	-5293
▁crowd	-5294
▁filled	-5295
▁materials	-5296
yan	-5297
▁focused	-5298
▁speaking	-5299
orry	-5300
▁Ari	-5301
▁Sum	-5302
90	-5303
▁accounts	-5304
TC	-5305
▁dyn	-5306
▁rid	-5307
▁attrib	-5308
▁linked	-5309
quarters	-5310
▁wearing	-5311
▁attempted	-5312
▁OS	-5313
▁consequ	-5314
▁Pennsylvania	-5315
▁element	-5316
▁parties	-5317
▁commander	-5318
▁guitar	-5319
▁bright	-5320
▁1997	-5321
▁entry	-5322
▁capacity	-5323
▁expensive	-5324
▁Acad	-5325
▁Show	-5326
▁surve	-5327
▁argued	-5328
gage	-5329
▁Cub	-5330
▁shel	-5331
▁combined	-5332
tion	-5333
▁grew	-5334
iences	-5335
▁scenes	-5336
ingu	-5337
▁Kent	-5338
▁determine	-5339
▁comfort	-5340
▁34	-5341
▁Ant	-5342
RE	-5343
▁sets	-5344
▁recommend	-5345
▁depend	-5346
▁debt	-5347
▁expert	-5348
▁involve	-5349
▁encoun	-5350
▁collabor	-5351
ogue	-5352
▁earned	-5353
▁messages	-5354
▁Major	-5355
▁label	-5356
▁Italian	-5357
▁worry	-5358
▁degree	-5359
▁edition	-5360
▁creation	-5361
▁decade	-5362
▁alleg	-5363
▁belong	-5364
▁decide	-5365
▁university	-5366
▁400	-5367
▁Cam	-5368
arning	-5369
ora	-5370
▁succeed	-5371
aid	-5372
▁Andrew	-5373
cont	-5374
ocr	-5375
▁Jo	-5376
▁internal	-5377
▁Francisco	-5378
pir	-5379
aser	-5380
▁Space	-5381
▁maintain	-5382
hew	-5383
▁typically	-5384
▁remark	-5385
▁surprise	-5386
▁gal	-5387
▁gain	-5388
eah	-5389
▁owner	-5390
▁familiar	-5391
But	-5392
dit	-5393
rant	-5394
▁mir	-5395
▁Fred	-5396
▁maximum	-5397
▁CIA	-5398
▁cab	-5399
▁tom	-5400
ducing	-5401
▁wealth	-5402
▁perman	-5403
▁Williams	-5404
agn	-5405
▁Batt	-5406
▁deleg	-5407
oration	-5408
ini	-5409
▁acting	-5410
▁spirit	-5411
▁approved	-5412
▁depression	-5413
▁Who	-5414
urban	-5415
▁measures	-5416
eding	-5417
▁Those	-5418
▁remind	-5419
▁Southern	-5420
15	-5421
term	-5422
▁edge	-5423
bridge	-5424
▁deliver	-5425
▁mal	-5426
ingly	-5427
▁powers	-5428
▁housing	-5429
▁declined	-5430
/11	-5431
▁phil	-5432
ns	-5433
▁vul	-5434
▁Crit	-5435
▁shared	-5436
▁lie	-5437
II	-5438
word	-5439
▁owned	-5440
▁Source	-5441
▁denied	-5442
▁follows	-5443
isters	-5444
▁deaths	-5445
▁teen	-5446
▁yard	-5447
arks	-5448
▁Mos	-5449
▁Vol	-5450
▁Gall	-5451
▁district	-5452
eline	-5453
▁ending	-5454
▁flying	-5455
▁debut	-5456
▁Spanish	-5457
▁lyr	-5458
▁unless	-5459
ker	-5460
▁contest	-5461
▁coverage	-5462
mitted	-5463
▁nod	-5464
▁Georg	-5465
▁rose	-5466
▁values	-5467
▁languages	-5468
▁Pent	-5469
▁obvious	-5470
outs	-5471
▁marg	-5472
▁conservative	-5473
▁dram	-5474
▁motor	-5475
▁Zeal	-5476
agement	-5477
▁satell	-5478
▁switch	-5479
▁Whe	-5480
arant	-5481
▁authors	-5482
▁helping	-5483
▁Gal	-5484
▁Land	-5485
▁Year	-5486
▁appeal	-5487
▁scheduled	-5488
▁bat	-5489
▁monitor	-5490
▁185	-5491
▁quant	-5492
▁roy	-5493
orse	-5494
▁Though	-5495
rick	-5496
▁Top	-5497
▁ranked	-5498
▁committed	-5499
▁solid	-5500
▁torture	-5501
▁updated	-5502
▁Spr	-5503
▁advertising	-5504
▁rising	-5505
▁offering	-5506
▁discussion	-5507
▁electricity	-5508
▁format	-5509
▁learning	-5510
▁apart	-5511
▁victims	-5512
▁Awards	-5513
▁mere	-5514
roid	-5515
▁smart	-5516
▁defeat	-5517
▁attorney	-5518
unity	-5519
rical	-5520
▁1995	-5521
ey	-5522
rep	-5523
no	-5524
oving	-5525
▁admitted	-5526
going	-5527
osite	-5528
estival	-5529
▁Python	-5530
▁database	-5531
▁religion	-5532
▁00	-5533
▁row	-5534
▁Supreme	-5535
▁MS	-5536
▁Yahoo	-5537
▁crack	-5538
▁kilomet	-5539
▁sitting	-5540
▁motion	-5541
▁Constitution	-5542
UT	-5543
tle	-5544
▁1996	-5545
▁invasion	-5546
▁ultimately	-5547
.6	-5548
▁Palestin	-5549
▁Lab	-5550
▁Test	-5551
▁Four	-5552
▁shell	-5553
▁volunte	-5554
▁beautiful	-5555
▁Zealand	-5556
▁Wi	-5557
▁walls	-5558
▁enforce	-5559
▁Mel	-5560
sembly	-5561
▁corner	-5562
aints	-5563
PD	-5564
otic	-5565
▁san	-5566
▁Email	-5567
▁constitution	-5568
ican	-5569
mond	-5570
▁neck	-5571
RA	-5572
▁Edward	-5573
▁assess	-5574
▁Tech	-5575
▁renew	-5576
▁advanced	-5577
▁iron	-5578
▁habit	-5579
look	-5580
igration	-5581
idering	-5582
▁winter	-5583
▁proposal	-5584
PA	-5585
▁Jes	-5586
iments	-5587
▁artists	-5588
ancing	-5589
owered	-5590
▁shall	-5591
▁Av	-5592
▁ancient	-5593
▁proced	-5594
▁Meanwhile	-5595
▁conversation	-5596
asure	-5597
▁wing	-5598
bur	-5599
▁armed	-5600
▁ruling	-5601
▁Foundation	-5602
ordin	-5603
▁advice	-5604
aeda	-5605
gers	-5606
▁talks	-5607
▁regarding	-5608
▁technical	-5609
da	-5610
lo	-5611
apes	-5612
▁acad	-5613
▁consumer	-5614
▁resolution	-5615
▁master	-5616
▁orders	-5617
enger	-5618
▁upgr	-5619
heme	-5620
▁Guard	-5621
▁temperature	-5622
▁paying	-5623
▁significantly	-5624
▁dial	-5625
▁fleet	-5626
▁leadership	-5627
fox	-5628
chen	-5629
▁Christmas	-5630
inn	-5631
.9	-5632
▁breath	-5633
kins	-5634
ucks	-5635
▁Fer	-5636
▁III	-5637
▁Paris	-5638
▁responsibility	-5639
yp	-5640
▁64	-5641
▁Bas	-5642
▁brown	-5643
▁closely	-5644
▁seeking	-5645
▁Stan	-5646
▁sky	-5647
enses	-5648
▁faced	-5649
▁univers	-5650
▁hyp	-5651
▁laugh	-5652
▁Image	-5653
▁47	-5654
▁Cred	-5655
▁contem	-5656
▁listen	-5657
▁starts	-5658
▁governor	-5659
▁resulted	-5660
-2	-5661
▁tact	-5662
arden	-5663
▁stone	-5664
Sp	-5665
▁tiny	-5666
▁Stephen	-5667
acement	-5668
▁picked	-5669
▁Youn	-5670
▁button	-5671
▁Child	-5672
▁Dec	-5673
ta	-5674
ader	-5675
▁ST	-5676
rich	-5677
▁Pan	-5678
orage	-5679
▁flat	-5680
▁Capt	-5681
▁aggress	-5682
▁reaction	-5683
dad	-5684
▁vice	-5685
▁voted	-5686
▁dry	-5687
▁county	-5688
▁Soviet	-5689
▁lawyer	-5690
US	-5691
▁Gra	-5692
▁marked	-5693
iplom	-5694
▁Energy	-5695
,'	-5696
▁mainly	-5697
▁household	-5698
▁marketing	-5699
▁supporting	-5700
oz	-5701
▁satisf	-5702
▁assigned	-5703
▁Mot	-5704
▁protected	-5705
▁discovery	-5706
▁Gulf	-5707
uster	-5708
▁Tele	-5709
▁molec	-5710
▁emphas	-5711
▁experienced	-5712
▁Offic	-5713
lets	-5714
▁rub	-5715
▁evening	-5716
▁AC	-5717
cohol	-5718
▁1950	-5719
iations	-5720
▁bare	-5721
▁causes	-5722
▁distinct	-5723
▁Conn	-5724
▁Wilson	-5725
▁emergency	-5726
▁Ruby	-5727
▁inches	-5728
▁surrounding	-5729
▁vo	-5730
▁Engine	-5731
▁symbol	-5732
▁neut	-5733
▁flag	-5734
▁photograph	-5735
rees	-5736
▁chosen	-5737
▁cerem	-5738
▁purchase	-5739
▁Lord	-5740
▁reaching	-5741
▁responded	-5742
▁RA	-5743
ette	-5744
fficient	-5745
oured	-5746
▁cert	-5747
▁spring	-5748
▁pushed	-5749
▁dress	-5750
▁techniques	-5751
▁150	-5752
▁bes	-5753
▁sym	-5754
▁corporate	-5755
burg	-5756
▁Lee	-5757
rogen	-5758
▁innov	-5759
▁impossible	-5760
▁oh	-5761
▁Som	-5762
▁era	-5763
▁Wales	-5764
▁handle	-5765
unes	-5766
▁contained	-5767
▁Mrs	-5768
▁42	-5769
▁warned	-5770
▁serving	-5771
onn	-5772
▁Fle	-5773
▁Mat	-5774
Ch	-5775
▁writers	-5776
▁substant	-5777
ulture	-5778
▁council	-5779
idel	-5780
IV	-5781
▁roughly	-5782
▁streets	-5783
▁improved	-5784
▁Human	-5785
▁smile	-5786
▁thoughts	-5787
▁elections	-5788
▁elimin	-5789
▁Among	-5790
▁explan	-5791
rid	-5792
▁pilot	-5793
▁truly	-5794
hy	-5795
▁viewers	-5796
press	-5797
▁equival	-5798
▁Administration	-5799
▁49	-5800
▁suddenly	-5801
▁plays	-5802
▁branch	-5803
▁Corps	-5804
▁carrying	-5805
▁Water	-5806
▁chest	-5807
▁injured	-5808
▁seriously	-5809
ola	-5810
▁changing	-5811
▁rejected	-5812
ua	-5813
ador	-5814
▁exchange	-5815
noon	-5816
▁stret	-5817
▁native	-5818
▁chairman	-5819
▁Prime	-5820
▁adult	-5821
etts	-5822
▁Korea	-5823
▁abuse	-5824
▁stations	-5825
▁Fam	-5826
▁vulner	-5827
▁neither	-5828
itary	-5829
▁exclus	-5830
▁businesses	-5831
▁officially	-5832
▁Civil	-5833
▁Northern	-5834
▁Parliament	-5835
▁FBI	-5836
standing	-5837
▁frequently	-5838
uan	-5839
▁rum	-5840
azon	-5841
▁amazing	-5842
RL	-5843
cks	-5844
isms	-5845
▁rot	-5846
lywood	-5847
▁attended	-5848
va	-5849
▁Norm	-5850
▁Light	-5851
▁session	-5852
owed	-5853
▁ends	-5854
▁escape	-5855
▁Writ	-5856
▁Ott	-5857
▁48	-5858
▁Way	-5859
▁leads	-5860
▁split	-5861
▁kit	-5862
▁Work	-5863
▁laid	-5864
▁thank	-5865
▁warming	-5866
alty	-5867
▁Ohio	-5868
▁tall	-5869
▁doctor	-5870
abled	-5871
-0	-5872
eland	-5873
▁guest	-5874
▁Van	-5875
reens	-5876
ocking	-5877
▁replace	-5878
▁detailed	-5879
▁expression	-5880
▁HT	-5881
▁Expl	-5882
▁technique	-5883
▁shortly	-5884
▁panel	-5885
▁Further	-5886
anna	-5887
▁van	-5888
▁signs	-5889
▁behavi	-5890
▁surprised	-5891
▁heads	-5892
▁criticism	-5893
▁Dun	-5894
state	-5895
▁Power	-5896
▁retail	-5897
BA	-5898
▁39	-5899
ooth	-5900
▁Sar	-5901
▁1994	-5902
▁spin	-5903
▁fashion	-5904
▁exhib	-5905
▁string	-5906
ram	-5907
▁voting	-5908
ivered	-5909
▁decline	-5910
▁thin	-5911
▁capture	-5912
▁interse	-5913
▁respectively	-5914
▁Os	-5915
▁rating	-5916
razy	-5917
▁appropriate	-5918
MA	-5919
ato	-5920
▁jack	-5921
▁unknown	-5922
▁bringing	-5923
.7	-5924
▁proved	-5925
▁Wik	-5926
▁flo	-5927
▁predict	-5928
▁contributed	-5929
▁44	-5930
▁waste	-5931
▁legs	-5932
▁emissions	-5933
▁Lie	-5934
▁wave	-5935
aghdad	-5936
▁height	-5937
▁territory	-5938
▁threatened	-5939
▁noticed	-5940
adel	-5941
▁casual	-5942
▁Ox	-5943
▁ing	-5944
rer	-5945
allel	-5946
▁rival	-5947
▁Ell	-5948
▁occasion	-5949
town	-5950
arian	-5951
▁sports	-5952
▁connected	-5953
lers	-5954
▁client	-5955
▁faces	-5956
▁Kennedy	-5957
▁BC	-5958
▁decre	-5959
▁sending	-5960
▁restaur	-5961
▁shooting	-5962
▁vess	-5963
▁portion	-5964
▁differences	-5965
real	-5966
▁assault	-5967
adium	-5968
▁Conf	-5969
▁partner	-5970
▁efficient	-5971
uts	-5972
▁liqu	-5973
▁prove	-5974
essions	-5975
▁adults	-5976
▁diplom	-5977
▁privacy	-5978
▁dedicated	-5979
▁Latin	-5980
▁articles	-5981
▁nomination	-5982
▁classes	-5983
▁honor	-5984
▁55	-5985
▁Muslim	-5986
ano	-5987
hips	-5988
▁Baghdad	-5989
▁Mic	-5990
▁ben	-5991
▁controlled	-5992
▁interests	-5993
▁Dutch	-5994
▁Jewish	-5995
▁lawsuit	-5996
▁pure	-5997
▁losses	-5998
▁reporting	-5999
illance	-6000
▁primarily	-6001
▁Italy	-6002
ensions	-6003
▁schol	-6004
▁headed	-6005
▁stress	-6006
▁movies	-6007
order	-6008
▁apprec	-6009
▁Program	-6010
pective	-6011
▁relief	-6012
▁myster	-6013
▁license	-6014
▁realized	-6015
askell	-6016
▁Class	-6017
▁capable	-6018
▁vast	-6019
Script	-6020
▁founded	-6021
inet	-6022
▁Tour	-6023
▁afternoon	-6024
enture	-6025
▁identity	-6026
▁Rail	-6027
related	-6028
▁containing	-6029
▁Die	-6030
chers	-6031
ishes	-6032
▁Social	-6033
▁matches	-6034
▁apply	-6035
▁examples	-6036
ugh	-6037
▁forg	-6038
▁Irish	-6039
▁Team	-6040
▁Update	-6041
▁applied	-6042
▁spons	-6043
▁manufacture	-6044
awa	-6045
shire	-6046
▁coffee	-6047
▁considering	-6048
▁earn	-6049
▁jail	-6050
pty	-6051
▁recru	-6052
▁Director	-6053
aze	-6054
▁ID	-6055
ructure	-6056
▁Ve	-6057
▁lyrics	-6058
▁Ret	-6059
▁Manche	-6060
▁Thanks	-6061
▁Hy	-6062
What	-6063
▁Young	-6064
▁IP	-6065
▁Ram	-6066
▁tank	-6067
upid	-6068
▁shif	-6069
▁chose	-6070
▁imagine	-6071
▁Ken	-6072
▁Lu	-6073
oked	-6074
▁taxes	-6075
▁metres	-6076
▁default	-6077
▁Manchester	-6078
▁constructed	-6079
point	-6080
▁facing	-6081
▁visited	-6082
▁weapon	-6083
▁Academy	-6084
▁65	-6085
▁Mah	-6086
▁reporters	-6087
▁electronic	-6088
tic	-6089
▁index	-6090
thur	-6091
▁ABC	-6092
ocracy	-6093
▁guarant	-6094
▁Firefox	-6095
▁sweet	-6096
run	-6097
▁9/11	-6098
xual	-6099
▁Hard	-6100
▁equal	-6101
▁waters	-6102
▁falling	-6103
▁Supp	-6104
▁2008.	-6105
▁atmosphere	-6106
▁finish	-6107
▁fingers	-6108
ologists	-6109
▁silver	-6110
▁Catholic	-6111
24	-6112
▁snow	-6113
▁Luc	-6114
umber	-6115
▁networks	-6116
▁nort	-6117
endment	-6118
▁regions	-6119
35	-6120
alls	-6121
apse	-6122
▁fant	-6123
uration	-6124
▁favour	-6125
▁specifically	-6126
orrow	-6127
▁agent	-6128
▁supplies	-6129
achus	-6130
▁crop	-6131
▁gather	-6132
▁decisions	-6133
uls	-6134
▁sac	-6135
athan	-6136
▁lapt	-6137
▁Pentagon	-6138
1,	-6139
▁$4	-6140
▁180	-6141
▁Blue	-6142
LE	-6143
ads	-6144
ups	-6145
usted	-6146
▁Bell	-6147
▁Board	-6148
ishop	-6149
▁random	-6150
▁Scotland	-6151
▁WAS	-6152
▁indeed	-6153
▁Defense	-6154
▁trick	-6155
▁incorpor	-6156
▁Pop	-6157
▁profit	-6158
▁disappoint	-6159
▁suicide	-6160
▁prominent	-6161
▁ath	-6162
▁Next	-6163
▁Hurricane	-6164
▁Rog	-6165
intend	-6166
iana	-6167
mers	-6168
▁1993	-6169
agan	-6170
▁Braz	-6171
▁Marc	-6172
▁finger	-6173
▁Bern	-6174
track	-6175
▁percentage	-6176
▁remote	-6177
▁boost	-6178
TON	-6179
▁okay	-6180
▁unusual	-6181
▁Digg	-6182
▁displ	-6183
▁agents	-6184
.8	-6185
ista	-6186
▁afford	-6187
▁bag	-6188
▁chapter	-6189
▁describes	-6190
2,	-6191
▁Di	-6192
▁complic	-6193
▁Dam	-6194
▁newly	-6195
ompl	-6196
▁portray	-6197
▁subsequently	-6198
aire	-6199
▁poly	-6200
▁drawn	-6201
▁identify	-6202
lie	-6203
▁boys	-6204
▁Video	-6205
▁tested	-6206
▁alcohol	-6207
▁universe	-6208
For	-6209
▁pregn	-6210
▁commented	-6211
▁genetic	-6212
▁lit	-6213
▁veter	-6214
▁Museum	-6215
▁buying	-6216
▁receiving	-6217
▁Max	-6218
▁Plan	-6219
▁mode	-6220
▁optim	-6221
▁sequence	-6222
▁equivalent	-6223
▁combination	-6224
▁communities	-6225
▁barrel	-6226
▁Tem	-6227
▁younger	-6228
aylor	-6229
▁factors	-6230
▁terrorist	-6231
PS	-6232
achusetts	-6233
▁output	-6234
life	-6235
▁Highway	-6236
▁surprising	-6237
▁Su	-6238
▁lots	-6239
▁sight	-6240
▁IS	-6241
▁philos	-6242
▁defined	-6243
▁industrial	-6244
inois	-6245
owing	-6246
▁treated	-6247
▁represented	-6248
ait	-6249
▁cm	-6250
▁mountain	-6251
▁organizations	-6252
OL	-6253
▁Turn	-6254
stances	-6255
▁Daniel	-6256
▁justice	-6257
greg	-6258
▁discover	-6259
▁Arm	-6260
▁Sony	-6261
▁bird	-6262
▁successfully	-6263
▁roof	-6264
▁forest	-6265
pan	-6266
▁seek	-6267
▁Radio	-6268
▁fixed	-6269
▁helps	-6270
▁af	-6271
untu	-6272
▁Valley	-6273
▁sevent	-6274
▁composed	-6275
▁Asia	-6276
▁publication	-6277
▁sick	-6278
wing	-6279
▁cards	-6280
▁delivered	-6281
onic	-6282
▁Little	-6283
▁pool	-6284
icip	-6285
▁enh	-6286
▁obl	-6287
netic	-6288
▁breaking	-6289
▁returning	-6290
▁fundament	-6291
▁facilities	-6292
▁properties	-6293
cles	-6294
onom	-6295
▁Color	-6296
▁Loc	-6297
zer	-6298
▁Gil	-6299
▁Agency	-6300
▁gained	-6301
▁stores	-6302
▁structures	-6303
▁Massachusetts	-6304
ilty	-6305
list	-6306
▁impe	-6307
▁initi	-6308
▁congress	-6309
▁effectively	-6310
▁hopes	-6311
▁tip	-6312
▁Week	-6313
ington	-6314
▁gro	-6315
▁Governor	-6316
bury	-6317
night	-6318
▁existence	-6319
▁sav	-6320
▁Labor	-6321
▁injury	-6322
▁singer	-6323
▁balance	-6324
▁ec	-6325
Ar	-6326
▁rapidly	-6327
▁Orig	-6328
▁fields	-6329
▁paint	-6330
engers	-6331
struction	-6332
▁Attorney	-6333
▁Illinois	-6334
host	-6335
▁mile	-6336
▁strange	-6337
▁Click	-6338
▁ruled	-6339
▁Through	-6340
▁battles	-6341
▁hardware	-6342
vard	-6343
▁bra	-6344
▁ads	-6345
▁battery	-6346
▁doctors	-6347
▁stem	-6348
▁potentially	-6349
▁stating	-6350
▁Form	-6351
▁Men	-6352
asters	-6353
▁sorry	-6354
▁skills	-6355
▁Brazil	-6356
▁criticized	-6357
▁Emp	-6358
▁sad	-6359
▁discl	-6360
utation	-6361
▁definitely	-6362
▁AM	-6363
▁wed	-6364
▁acknowled	-6365
▁Stew	-6366
▁explo	-6367
▁finds	-6368
▁Conserv	-6369
▁walking	-6370
▁ske	-6371
▁joint	-6372
▁accompl	-6373
▁usual	-6374
▁nations	-6375
▁announcement	-6376
woman	-6377
▁isol	-6378
▁Brian	-6379
▁actor	-6380
▁Joseph	-6381
▁cooper	-6382
▁domain	-6383
▁prime	-6384
▁cuts	-6385
▁posts	-6386
ifications	-6387
asty	-6388
▁diet	-6389
▁maintained	-6390
▁Queen	-6391
▁tourn	-6392
cious	-6393
▁coach	-6394
▁ocean	-6395
▁Published	-6396
rip	-6397
▁parliament	-6398
onds	-6399
▁bacter	-6400
HING	-6401
▁vision	-6402
▁granted	-6403
ca	-6404
▁41	-6405
▁pir	-6406
utors	-6407
▁moon	-6408
exp	-6409
arsh	-6410
▁subs	-6411
rast	-6412
▁CEO	-6413
ourney	-6414
▁anyway	-6415
▁honest	-6416
▁Nations	-6417
▁opposite	-6418
▁lean	-6419
▁2,	-6420
▁nom	-6421
▁holds	-6422
▁offensive	-6423
▁43	-6424
▁shr	-6425
▁typical	-6426
▁selection	-6427
▁importance	-6428
▁plus	-6429
▁forget	-6430
▁satellite	-6431
▁Wild	-6432
▁extensive	-6433
▁theat	-6434
▁fiction	-6435
▁Ast	-6436
▁Vice	-6437
▁missed	-6438
▁stands	-6439
▁exercise	-6440
▁Card	-6441
▁hate	-6442
makers	-6443
▁excell	-6444
ATE	-6445
▁volume	-6446
▁channel	-6447
▁Aut	-6448
▁synt	-6449
▁explains	-6450
▁dim	-6451
erves	-6452
▁Prince	-6453
▁Hal	-6454
▁promote	-6455
eway	-6456
▁bear	-6457
▁Review	-6458
▁concentr	-6459
▁alongside	-6460
▁highlight	-6461
▁Iranian	-6462
http	-6463
▁inch	-6464
▁personnel	-6465
▁hole	-6466
▁Amazon	-6467
▁victim	-6468
ulating	-6469
osa	-6470
▁wear	-6471
▁Organ	-6472
▁teeth	-6473
resents	-6474
▁End	-6475
▁Tal	-6476
▁Report	-6477
▁immediate	-6478
▁intention	-6479
bing	-6480
▁stim	-6481
▁classic	-6482
▁approval	-6483
aven	-6484
▁expansion	-6485
▁diam	-6486
▁underst	-6487
▁Columbia	-6488
which	-6489
▁config	-6490
OU	-6491
▁terr	-6492
▁Edwards	-6493
ycl	-6494
▁foss	-6495
▁titled	-6496
▁Ap	-6497
▁moder	-6498
▁captain	-6499
="	-6500
▁prisoners	-6501
rete	-6502
uten	-6503
▁virus	-6504
▁simpl	-6505
▁mental	-6506
▁Vietnam	-6507
▁adopted	-6508
▁drag	-6509
▁grown	-6510
▁strongly	-6511
▁involving	-6512
▁boat	-6513
▁thinks	-6514
▁wides	-6515
▁Olympic	-6516
▁divided	-6517
▁transferred	-6518
▁headquarters	-6519
▁controversial	-6520
iat	-6521
umble	-6522
As	-6523
eck	-6524
▁46	-6525
pread	-6526
▁frag	-6527
▁flash	-6528
▁parent	-6529
iency	-6530
▁programme	-6531
▁recognized	-6532
()	-6533
heim	-6534
oral	-6535
▁Still	-6536
▁storage	-6537
▁lies	-6538
▁guilty	-6539
▁studied	-6540
▁facility	-6541
▁Development	-6542
45	-6543
▁extension	-6544
rig	-6545
▁Rod	-6546
▁1992	-6547
▁incred	-6548
▁collected	-6549
▁2016	-6550
ba	-6551
▁locations	-6552
▁statements	-6553
▁featuring	-6554
▁Kat	-6555
▁Ariz	-6556
▁interface	-6557
▁represents	-6558
orses	-6559
ultural	-6560
▁thread	-6561
▁producing	-6562
And	-6563
itan	-6564
▁desire	-6565
▁du	-6566
▁1930	-6567
▁parallel	-6568
eller	-6569
▁Foot	-6570
▁permission	-6571
do	-6572
aks	-6573
▁Look	-6574
ribe	-6575
▁1991	-6576
▁crimes	-6577
ographic	-6578
▁achieved	-6579
▁organized	-6580
phy	-6581
▁1940	-6582
▁drew	-6583
▁Battalion	-6584
▁neighborhood	-6585
▁Ul	-6586
sole	-6587
▁mic	-6588
▁purs	-6589
▁bigger	-6590
▁manner	-6591
ician	-6592
▁climb	-6593
▁Econom	-6594
▁concert	-6595
▁estate	-6596
▁Squadron	-6597
19	-6598
▁grass	-6599
IL	-6600
ERS	-6601
ctic	-6602
▁begun	-6603
▁abandoned	-6604
utor	-6605
ceived	-6606
▁Never	-6607
▁Spain	-6608
▁depth	-6609
▁Jenn	-6610
▁exposed	-6611
rors	-6612
▁Far	-6613
▁cited	-6614
▁audio	-6615
▁retired	-6616
ordan	-6617
▁valid	-6618
stone	-6619
▁acts	-6620
▁weaken	-6621
▁resident	-6622
▁alt	-6623
▁Special	-6624
html	-6625
▁description	-6626
inter	-6627
▁historical	-6628
▁whis	-6629
▁hoping	-6630
▁obtained	-6631
itled	-6632
▁replied	-6633
▁Billboard	-6634
▁generated	-6635
aska	-6636
▁Lew	-6637
▁surge	-6638
ulous	-6639
EL	-6640
urt	-6641
▁dynam	-6642
▁stupid	-6643
▁Addition	-6644
▁600	-6645
▁Brook	-6646
comm	-6647
ickets	-6648
▁trend	-6649
▁passes	-6650
▁cultural	-6651
▁obviously	-6652
▁terrorism	-6653
dy	-6654
▁lips	-6655
▁eating	-6656
▁revenue	-6657
▁entr	-6658
▁viewed	-6659
▁realize	-6660
ocket	-6661
▁meat	-6662
entions	-6663
▁purchased	-6664
ura	-6665
▁nick	-6666
▁Common	-6667
▁automatically	-6668
hus	-6669
▁scheme	-6670
acle	-6671
iform	-6672
▁Head	-6673
▁returns	-6674
abilities	-6675
azz	-6676
▁pump	-6677
▁prohib	-6678
▁Technology	-6679
▁Six	-6680
▁tough	-6681
▁tower	-6682
iro	-6683
▁adapt	-6684
▁loved	-6685
▁sharp	-6686
▁union	-6687
▁healthy	-6688
▁agencies	-6689
▁drinking	-6690
▁Bol	-6691
▁factor	-6692
AP	-6693
▁Dick	-6694
▁Taylor	-6695
▁absolutely	-6696
▁subsequent	-6697
rehens	-6698
▁cheap	-6699
▁formation	-6700
ework	-6701
▁websites	-6702
▁Burn	-6703
▁sentence	-6704
iano	-6705
▁Nick	-6706
▁advis	-6707
erry	-6708
place	-6709
▁Harry	-6710
▁Stand	-6711
▁fought	-6712
▁hoped	-6713
▁chain	-6714
▁normally	-6715
▁destruction	-6716
▁Ah	-6717
That	-6718
▁impress	-6719
owa	-6720
▁suffering	-6721
▁revolution	-6722
▁shift	-6723
▁yellow	-6724
▁suspect	-6725
▁Sa	-6726
▁bon	-6727
▁courts	-6728
▁customer	-6729
▁engineering	-6730
▁agric	-6731
▁stead	-6732
▁sharing	-6733
▁widespread	-6734
▁Ray	-6735
▁Film	-6736
▁beer	-6737
HINGTON	-6738
▁pig	-6739
▁funny	-6740
▁lists	-6741
▁somewhat	-6742
▁continuing	-6743
fire	-6744
iner	-6745
▁sole	-6746
▁adds	-6747
▁clin	-6748
▁galax	-6749
▁hotel	-6750
▁context	-6751
iki	-6752
rets	-6753
▁titles	-6754
with	-6755
cer	-6756
▁fill	-6757
perial	-6758
▁Person	-6759
▁Arizona	-6760
▁JavaScript	-6761
uter	-6762
▁comic	-6763
▁retire	-6764
▁WASHINGTON	-6765
ighth	-6766
▁dont	-6767
▁cens	-6768
▁fairly	-6769
▁thousand	-6770
▁Hollywood	-6771
pret	-6772
▁GOP	-6773
▁THE	-6774
▁elev	-6775
▁eval	-6776
▁phen	-6777
▁Georgia	-6778
▁engines	-6779
▁Independ	-6780
▁vocal	-6781
▁shoulder	-6782
▁rom	-6783
▁Ocean	-6784
▁exception	-6785
▁Ro	-6786
oves	-6787
ilding	-6788
▁genes	-6789
▁Network	-6790
▁Information	-6791
▁fraud	-6792
▁confront	-6793
32	-6794
▁Gar	-6795
ternal	-6796
16	-6797
onymous	-6798
▁controll	-6799
itzer	-6800
▁trig	-6801
▁fruit	-6802
▁generate	-6803
▁mortgage	-6804
▁Ep	-6805
prof	-6806
▁Sand	-6807
▁cann	-6808
▁confident	-6809
▁alg	-6810
▁indicated	-6811
asts	-6812
▁Eastern	-6813
col	-6814
isa	-6815
umin	-6816
log	-6817
▁pin	-6818
amber	-6819
▁plastic	-6820
▁registered	-6821
ighters	-6822
iti	-6823
▁Ash	-6824
▁bid	-6825
▁matters	-6826
▁patient	-6827
▁supports	-6828
▁Sk	-6829
▁Tib	-6830
▁explanation	-6831
▁Bra	-6832
▁magn	-6833
________	-6834
▁amounts	-6835
iy	-6836
uh	-6837
▁Ca	-6838
pper	-6839
▁confirm	-6840
▁disturb	-6841
/0	-6842
▁Short	-6843
osit	-6844
▁Sat	-6845
▁Greek	-6846
▁$5	-6847
oline	-6848
▁dance	-6849
▁violent	-6850
▁permanent	-6851
▁surveillance	-6852
aden	-6853
▁fur	-6854
▁ride	-6855
38	-6856
mir	-6857
pool	-6858
▁Use	-6859
▁expanded	-6860
elve	-6861
orted	-6862
▁enjoyed	-6863
IM	-6864
▁dust	-6865
▁crash	-6866
▁52	-6867
mans	-6868
▁moves	-6869
▁hidden	-6870
▁landing	-6871
▁publicly	-6872
ked	-6873
oln	-6874
▁EU	-6875
▁alive	-6876
▁cycle	-6877
▁purposes	-6878
3,	-6879
▁aimed	-6880
▁windows	-6881
▁royal	-6882
▁engaged	-6883
oen	-6884
▁nav	-6885
▁Roll	-6886
▁Captain	-6887
▁airport	-6888
rible	-6889
▁steel	-6890
▁Credit	-6891
▁happening	-6892
▁Sus	-6893
erted	-6894
▁folks	-6895
▁worried	-6896
hire	-6897
▁Corpor	-6898
osaur	-6899
▁innoc	-6900
▁Nic	-6901
▁enforcement	-6902
▁proof	-6903
▁roads	-6904
▁urban	-6905
!!	-6906
weight	-6907
▁instrument	-6908
ova	-6909
▁totally	-6910
▁Stone	-6911
▁Author	-6912
▁Intel	-6913
▁illustr	-6914
▁inqu	-6915
▁Saint	-6916
▁clothes	-6917
▁Dig	-6918
▁clients	-6919
▁Greg	-6920
▁knowing	-6921
▁transform	-6922
don	-6923
▁Girl	-6924
▁describe	-6925
▁soul	-6926
▁convin	-6927
▁Yet	-6928
anged	-6929
ampion	-6930
ordon	-6931
▁boss	-6932
▁Indust	-6933
▁Romney	-6934
▁Medical	-6935
▁astronom	-6936
equ	-6937
▁Oxford	-6938
▁120	-6939
▁URL	-6940
prise	-6941
▁museum	-6942
▁graphics	-6943
▁increases	-6944
pet	-6945
▁Lind	-6946
▁Records	-6947
▁technologies	-6948
▁drivers	-6949
▁commonly	-6950
64	-6951
OW	-6952
▁minimum	-6953
▁mistake	-6954
raid	-6955
hand	-6956
▁veget	-6957
▁assistant	-6958
page	-6959
anges	-6960
▁Again	-6961
▁performances	-6962
▁3.	-6963
▁empty	-6964
▁exped	-6965
▁mathem	-6966
▁claiming	-6967
osis	-6968
▁borrow	-6969
▁2007.	-6970
75	-6971
gas	-6972
onna	-6973
angers	-6974
▁youth	-6975
▁winner	-6976
▁Coast	-6977
▁producers	-6978
▁Conference	-6979
FL	-6980
imony	-6981
adelph	-6982
▁tag	-6983
▁passengers	-6984
▁Bi	-6985
▁temperatures	-6986
▁View	-6987
orders	-6988
▁multi	-6989
▁cutting	-6990
▁defence	-6991
▁Pir	-6992
▁reportedly	-6993
▁Bre	-6994
vy	-6995
obs	-6996
▁Cre	-6997
▁Medic	-6998
rell	-6999
▁lights	-7000
▁sector	-7001
▁entertain	-7002
▁driven	-7003
▁promise	-7004
▁reputation	-7005
▁unp	-7006
▁behaviour	-7007
▁secretary	-7008
▁governments	-7009
▁Real	-7010
inger	-7011
incoln	-7012
▁Creek	-7013
▁manage	-7014
▁practices	-7015
AD	-7016
ether	-7017
▁lawyers	-7018
▁regularly	-7019
orne	-7020
▁Bon	-7021
▁degrees	-7022
14	-7023
law	-7024
▁Cra	-7025
ennis	-7026
▁Check	-7027
▁fewer	-7028
▁attached	-7029
▁promised	-7030
▁excellent	-7031
rot	-7032
▁Foreign	-7033
▁virtual	-7034
▁anywhere	-7035
fortunately	-7036
ubble	-7037
▁Marsh	-7038
▁truck	-7039
▁telephone	-7040
▁handed	-7041
▁Represent	-7042
....	-7043
▁ble	-7044
▁Jersey	-7045
▁targets	-7046
▁Arg	-7047
▁asks	-7048
adelphia	-7049
esh	-7050
▁ven	-7051
▁Empire	-7052
▁aspects	-7053
irds	-7054
▁Pit	-7055
▁Using	-7056
ifer	-7057
▁Pen	-7058
break	-7059
▁visible	-7060
rum	-7061
▁Ross	-7062
▁occas	-7063
▁Id	-7064
▁bath	-7065
▁surf	-7066
▁repro	-7067
▁Entertain	-7068
oma	-7069
ophy	-7070
▁Iowa	-7071
▁Run	-7072
iveness	-7073
▁Jordan	-7074
▁Lo	-7075
free	-7076
▁Wars	-7077
▁pounds	-7078
gery	-7079
intendo	-7080
▁Business	-7081
han	-7082
▁angry	-7083
▁Brigade	-7084
▁sufficient	-7085
▁Ub	-7086
▁Hay	-7087
▁Note	-7088
▁hired	-7089
▁designated	-7090
▁recommended	-7091
▁poet	-7092
ls	-7093
▁NE	-7094
▁arguments	-7095
▁confidence	-7096
ST	-7097
▁Gre	-7098
bles	-7099
olve	-7100
orrent	-7101
▁cod	-7102
enders	-7103
onz	-7104
▁eld	-7105
▁duty	-7106
uations	-7107
▁collapse	-7108
▁Call	-7109
▁Series	-7110
▁visitors	-7111
claim	-7112
▁Chart	-7113
▁Howard	-7114
▁magic	-7115
ye	-7116
otype	-7117
▁Command	-7118
▁discussed	-7119
elly	-7120
▁Saud	-7121
▁category	-7122
▁Somet	-7123
▁argue	-7124
▁papers	-7125
▁Coll	-7126
▁fuck	-7127
▁95	-7128
▁mart	-7129
▁elsewhere	-7130
▁communication	-7131
▁pitch	-7132
▁topic	-7133
▁centuries	-7134
▁TO	-7135
anny	-7136
▁formal	-7137
▁province	-7138
erts	-7139
▁Bridge	-7140
▁essential	-7141
▁influenced	-7142
▁consumption	-7143
▁Serv	-7144
▁aside	-7145
▁buried	-7146
▁unlikely	-7147
▁distributed	-7148
▁communications	-7149
ouch	-7150
▁mad	-7151
imp	-7152
▁mand	-7153
▁Photo	-7154
▁Design	-7155
▁Nintendo	-7156
▁operated	-7157
mm	-7158
▁legit	-7159
▁disaster	-7160
▁investors	-7161
▁Ins	-7162
abeth	-7163
power	-7164
▁forth	-7165
▁trading	-7166
▁feels	-7167
▁Philadelphia	-7168
▁extent	-7169
uable	-7170
▁Have	-7171
▁evil	-7172
▁tied	-7173
▁disag	-7174
▁guide	-7175
▁Colorado	-7176
ogen	-7177
tering	-7178
▁Tibet	-7179
▁Lincoln	-7180
▁hits	-7181
▁lying	-7182
▁classified	-7183
▁Islamic	-7184
▁personally	-7185
osm	-7186
rons	-7187
umes	-7188
apped	-7189
▁liquid	-7190
▁developer	-7191
▁innings	-7192
aret	-7193
otes	-7194
▁Ra	-7195
long	-7196
▁Contin	-7197
▁Maybe	-7198
18	-7199
▁Sky	-7200
inity	-7201
asa	-7202
ansas	-7203
burgh	-7204
▁Women	-7205
▁politicians	-7206
▁800	-7207
Tunes	-7208
▁Davis	-7209
▁crazy	-7210
▁signal	-7211
eping	-7212
▁excess	-7213
active	-7214
▁Kevin	-7215
▁motiv	-7216
▁fallen	-7217
▁championship	-7218
▁184	-7219
ruption	-7220
▁offices	-7221
▁Nob	-7222
▁yeah	-7223
sm	-7224
▁Ly	-7225
name	-7226
▁Vis	-7227
▁phr	-7228
▁cable	-7229
▁overw	-7230
▁cameras	-7231
▁popularity	-7232
mission	-7233
▁plenty	-7234
37	-7235
▁NBC	-7236
▁Take	-7237
▁swim	-7238
▁searc	-7239
▁trave	-7240
▁welcome	-7241
▁releases	-7242
ella	-7243
icing	-7244
▁profile	-7245
▁entitled	-7246
▁Prov	-7247
▁drawing	-7248
▁assistance	-7249
adow	-7250
▁invited	-7251
▁threats	-7252
▁injuries	-7253
rastructure	-7254
rett	-7255
▁Ext	-7256
▁Gro	-7257
▁Bart	-7258
▁stayed	-7259
▁Jac	-7260
▁exposure	-7261
▁warn	-7262
▁punish	-7263
▁therap	-7264
▁emerged	-7265
▁trail	-7266
▁suspected	-7267
utenant	-7268
▁Victoria	-7269
asp	-7270
▁reception	-7271
▁Entertainment	-7272
▁je	-7273
bered	-7274
uliani	-7275
▁Ven	-7276
▁zero	-7277
▁acceler	-7278
▁patterns	-7279
▁sout	-7280
▁stepped	-7281
▁survive	-7282
▁civilian	-7283
▁indicate	-7284
▁inflation	-7285
Up	-7286
mad	-7287
When	-7288
▁Field	-7289
▁SS	-7290
ouri	-7291
worth	-7292
▁gene	-7293
▁harder	-7294
▁reveal	-7295
eld	-7296
▁cup	-7297
▁fold	-7298
▁Final	-7299
oric	-7300
▁Hon	-7301
jo	-7302
▁extract	-7303
▁promoted	-7304
▁inspect	-7305
orer	-7306
▁campus	-7307
rapped	-7308
▁Colon	-7309
andal	-7310
▁hide	-7311
▁loan	-7312
inking	-7313
▁friendly	-7314
▁requests	-7315
asks	-7316
▁Lyn	-7317
▁hat	-7318
▁shares	-7319
▁interrog	-7320
CA	-7321
▁ju	-7322
▁Indiana	-7323
▁Invest	-7324
▁controversy	-7325
▁54	-7326
ilton	-7327
▁Rome	-7328
▁acid	-7329
▁smoke	-7330
▁nodded	-7331
▁raising	-7332
▁unn	-7333
▁briefly	-7334
▁ceremony	-7335
▁somewhere	-7336
▁Hit	-7337
▁Kir	-7338
▁sees	-7339
▁encourage	-7340
▁Revolution	-7341
▁definition	-7342
▁Palestinian	-7343
mal	-7344
▁vs	-7345
inding	-7346
▁compos	-7347
▁intense	-7348
▁accompan	-7349
▁informed	-7350
▁NH	-7351
eman	-7352
▁males	-7353
spec	-7354
▁Cat	-7355
▁nut	-7356
ket	-7357
▁manip	-7358
▁sixth	-7359
▁HD	-7360
inson	-7361
▁tone	-7362
▁Naz	-7363
▁settlement	-7364
bec	-7365
organ	-7366
▁Tony	-7367
▁zone	-7368
▁taste	-7369
▁athlet	-7370
▁overse	-7371
▁sample	-7372
▁tab	-7373
▁Sher	-7374
▁facts	-7375
▁phenomen	-7376
illery	-7377
▁journey	-7378
▁teacher	-7379
▁castle	-7380
▁stable	-7381
▁Giuliani	-7382
▁acquired	-7383
▁ru	-7384
▁Pot	-7385
▁Wat	-7386
etime	-7387
liest	-7388
▁absor	-7389
ni	-7390
▁rescue	-7391
▁warrant	-7392
▁Rights	-7393
gian	-7394
▁250	-7395
▁blow	-7396
▁immigr	-7397
▁phones	-7398
▁compens	-7399
iox	-7400
lyn	-7401
▁approached	-7402
1.	-7403
▁convinced	-7404
class	-7405
▁Gaza	-7406
▁afraid	-7407
▁Anderson	-7408
cho	-7409
▁CO	-7410
▁Jr	-7411
icken	-7412
▁fram	-7413
esters	-7414
▁didnt	-7415
▁horses	-7416
▁CP	-7417
▁comparison	-7418
▁Eric	-7419
iration	-7420
▁limits	-7421
▁introduction	-7422
▁GM	-7423
pton	-7424
▁constant	-7425
▁scoring	-7426
▁requirements	-7427
sex	-7428
essed	-7429
▁Reuters	-7430
▁cyclone	-7431
▁Environment	-7432
peror	-7433
uction	-7434
▁covers	-7435
ygen	-7436
orough	-7437
▁Olympics	-7438
▁Cambridge	-7439
▁understood	-7440
▁56	-7441
called	-7442
elesc	-7443
then	-7444
▁Where	-7445
▁goods	-7446
▁Food	-7447
▁hook	-7448
▁Staff	-7449
▁Roberts	-7450
▁repeatedly	-7451
Is	-7452
▁MD	-7453
▁PR	-7454
▁Put	-7455
▁literature	-7456
▁tournament	-7457
▁85	-7458
▁Night	-7459
▁clim	-7460
▁lock	-7461
▁terrorists	-7462
nic	-7463
▁shock	-7464
uties	-7465
▁proud	-7466
▁regarded	-7467
▁Code	-7468
▁wake	-7469
▁tack	-7470
encing	-7471
▁founder	-7472
▁crossed	-7473
▁Associated	-7474
▁Rh	-7475
mont	-7476
▁aer	-7477
▁twe	-7478
▁Walk	-7479
▁operate	-7480
▁somehow	-7481
▁resistance	-7482
▁Jul	-7483
▁reporter	-7484
ylan	-7485
▁Qaeda	-7486
▁Indones	-7487
aka	-7488
▁inner	-7489
▁maint	-7490
▁estimates	-7491
CNN	-7492
▁DC	-7493
▁Deb	-7494
▁unw	-7495
▁Corn	-7496
▁Hawai	-7497
▁Judge	-7498
▁shook	-7499
▁avo	-7500
riers	-7501
▁liked	-7502
',	-7503
▁loud	-7504
▁aired	-7505
▁Posted	-7506
▁distingu	-7507
rad	-7508
▁Imp	-7509
▁Mid	-7510
arrass	-7511
▁relationships	-7512
bn	-7513
emies	-7514
ffect	-7515
▁roles	-7516
▁lands	-7517
▁1945	-7518
▁Moore	-7519
▁reader	-7520
▁Fair	-7521
▁layer	-7522
▁talked	-7523
▁protests	-7524
▁emotional	-7525
▁phase	-7526
▁merely	-7527
ashes	-7528
▁soldier	-7529
▁Maryland	-7530
▁sympt	-7531
▁iTunes	-7532
▁electron	-7533
86	-7534
eral	-7535
▁Saf	-7536
▁eggs	-7537
▁preced	-7538
▁designs	-7539
▁blame	-7540
▁Miller	-7541
▁blocks	-7542
▁Android	-7543
▁anticip	-7544
▁Tenn	-7545
▁overs	-7546
oster	-7547
ipedia	-7548
▁enthus	-7549
▁Gib	-7550
▁sty	-7551
▁Rove	-7552
▁Chair	-7553
athered	-7554
IP	-7555
hi	-7556
aki	-7557
▁AN	-7558
▁Polit	-7559
▁albums	-7560
▁ongoing	-7561
▁entering	-7562
▁essentially	-7563
▁involvement	-7564
▁Sign	-7565
regon	-7566
▁root	-7567
▁Dream	-7568
usal	-7569
▁Storm	-7570
▁cloud	-7571
▁towns	-7572
▁implementation	-7573
▁spr	-7574
ching	-7575
▁desper	-7576
▁51	-7577
▁dub	-7578
▁1989	-7579
earing	-7580
▁circumstances	-7581
rosc	-7582
employ	-7583
▁pushing	-7584
▁Link	-7585
Wh	-7586
▁kitchen	-7587
▁properly	-7588
▁experiences	-7589
omic	-7590
▁Ten	-7591
▁Rose	-7592
▁Family	-7593
▁uniform	-7594
▁tox	-7595
▁baseball	-7596
▁Prem	-7597
▁soil	-7598
▁settled	-7599
▁gap	-7600
▁Make	-7601
▁dogs	-7602
▁condem	-7603
▁participants	-7604
▁1920	-7605
▁fasc	-7606
▁smooth	-7607
▁creative	-7608
▁conclusion	-7609
▁contemporary	-7610
li	-7611
▁Clean	-7612
▁persu	-7613
▁collaps	-7614
▁dealing	-7615
▁protein	-7616
▁Tri	-7617
▁odd	-7618
▁Gordon	-7619
▁Ubuntu	-7620
wered	-7621
▁components	-7622
▁Moh	-7623
▁Avenue	-7624
▁fundamental	-7625
▁consequences	-7626
****	-7627
▁ash	-7628
▁Broad	-7629
▁PS	-7630
ivery	-7631
▁Alan	-7632
▁seasons	-7633
▁civilians	-7634
OC	-7635
aware	-7636
▁plate	-7637
▁spokeswoman	-7638
▁Mu	-7639
itable	-7640
▁Jesus	-7641
▁threw	-7642
Station	-7643
▁trained	-7644
▁dismissed	-7645
tons	-7646
dered	-7647
▁Haskell	-7648
▁overwhel	-7649
terest	-7650
▁banned	-7651
▁Ministry	-7652
▁Unfortunately	-7653
▁Educ	-7654
▁Lewis	-7655
▁Stewart	-7656
▁arrival	-7657
▁accurate	-7658
car	-7659
▁Po	-7660
bits	-7661
▁vocals	-7662
▁mainstream	-7663
gov	-7664
▁dozen	-7665
▁firms	-7666
ographer	-7667
▁functional	-7668
Cl	-7669
wan	-7670
lements	-7671
▁quoted	-7672
▁taught	-7673
▁Channel	-7674
rage	-7675
▁diagn	-7676
▁loans	-7677
zy	-7678
bel	-7679
▁Dj	-7680
▁shots	-7681
▁Hospital	-7682
▁Services	-7683
22	-7684
33	-7685
dney	-7686
▁hal	-7687
opher	-7688
▁Fant	-7689
▁Adv	-7690
▁Such	-7691
rator	-7692
▁precise	-7693
No	-7694
▁2007,	-7695
▁affil	-7696
▁bills	-7697
▁apartment	-7698
▁appearances	-7699
▁conventional	-7700
▁nan	-7701
etary	-7702
▁cruc	-7703
▁rebu	-7704
▁waves	-7705
▁burning	-7706
▁controls	-7707
▁myth	-7708
▁rural	-7709
▁consec	-7710
17	-7711
TS	-7712
ureau	-7713
▁wond	-7714
▁Oregon	-7715
▁comprom	-7716
▁challenges	-7717
▁bin	-7718
▁premie	-7719
urd	-7720
▁hasn	-7721
▁tomorrow	-7722
bu	-7723
▁awards	-7724
▁DE	-7725
ango	-7726
apore	-7727
ras	-7728
▁Bit	-7729
hesis	-7730
▁Marine	-7731
▁peaked	-7732
▁passenger	-7733
▁Mir	-7734
▁RIA	-7735
▁merch	-7736
▁regional	-7737
▁Ryan	-7738
▁evac	-7739
▁ticket	-7740
▁Perhaps	-7741
boy	-7742
▁Pict	-7743
▁Albert	-7744
▁meters	-7745
▁meetings	-7746
▁infrastructure	-7747
▁dates	-7748
▁behalf	-7749
▁nomine	-7750
ials	-7751
▁Bat	-7752
print	-7753
▁Bru	-7754
▁bom	-7755
▁1988	-7756
▁brings	-7757
▁Regiment	-7758
▁academic	-7759
▁institutions	-7760
inem	-7761
▁fro	-7762
▁keeps	-7763
▁saved	-7764
▁assume	-7765
▁desktop	-7766
▁liberal	-7767
▁updates	-7768
▁embarrass	-7769
▁temporary	-7770
yes	-7771
ione	-7772
▁Anth	-7773
▁stages	-7774
▁teaching	-7775
▁Liver	-7776
▁occurs	-7777
▁subsid	-7778
▁brothers	-7779
▁sensitive	-7780
▁Ut	-7781
▁Barb	-7782
▁deliber	-7783
▁schedule	-7784
▁HTML	-7785
▁sugar	-7786
▁conven	-7787
▁dinner	-7788
▁strict	-7789
▁mamm	-7790
IG	-7791
▁Saudi	-7792
izabeth	-7793
▁Centre	-7794
▁laptop	-7795
▁suggesting	-7796
RM	-7797
▁footage	-7798
▁PlayStation	-7799
acked	-7800
▁rear	-7801
▁northwest	-7802
▁enable	-7803
▁Matthew	-7804
▁Alexander	-7805
▁Craig	-7806
▁Football	-7807
▁Infantry	-7808
▁replacement	-7809
▁1987	-7810
▁Chap	-7811
▁oxygen	-7812
▁patent	-7813
▁senator	-7814
▁1944	-7815
▁reign	-7816
▁tonight	-7817
▁Intelligence	-7818
born	-7819
▁puzz	-7820
▁Singapore	-7821
▁performing	-7822
sters	-7823
▁Minnes	-7824
▁torped	-7825
bell	-7826
▁backed	-7827
▁noting	-7828
▁servers	-7829
▁interpret	-7830
▁impeachment	-7831
▁survived	-7832
rency	-7833
▁stun	-7834
▁Unlike	-7835
yo	-7836
▁Line	-7837
▁nest	-7838
▁vary	-7839
▁solve	-7840
▁teach	-7841
▁subjects	-7842
'.	-7843
bro	-7844
▁porn	-7845
▁assass	-7846
▁exceed	-7847
▁invent	-7848
▁resign	-7849
▁2.0	-7850
▁Soft	-7851
▁Square	-7852
▁apolog	-7853
iversary	-7854
▁ratings	-7855
raf	-7856
▁Ford	-7857
ellect	-7858
▁northeast	-7859
▁2006,	-7860
▁gotten	-7861
▁smiled	-7862
ugg	-7863
▁Low	-7864
▁rig	-7865
▁noise	-7866
osexual	-7867
▁carefully	-7868
▁processes	-7869
▁rooms	-7870
▁employed	-7871
▁rh	-7872
anner	-7873
▁Sound	-7874
▁blind	-7875
idelines	-7876
▁samples	-7877
orith	-7878
▁turb	-7879
▁Korean	-7880
▁crossing	-7881
▁feelings	-7882
aws	-7883
▁helic	-7884
▁penalty	-7885
▁Missouri	-7886
py	-7887
▁57	-7888
▁Ba	-7889
hetic	-7890
▁execut	-7891
▁Circ	-7892
▁Main	-7893
▁Pers	-7894
▁blank	-7895
▁clock	-7896
▁rarely	-7897
▁Rac	-7898
▁basically	-7899
▁grav	-7900
▁targeted	-7901
lan	-7902
brid	-7903
▁gasoline	-7904
▁hes	-7905
▁Upon	-7906
bre	-7907
anted	-7908
▁Wright	-7909
▁dating	-7910
▁reducing	-7911
tes	-7912
▁pip	-7913
▁Hamp	-7914
Americ	-7915
▁plain	-7916
izon	-7917
▁Ban	-7918
▁assumed	-7919
▁association	-7920
▁Base	-7921
▁anymore	-7922
▁screens	-7923
▁independence	-7924
▁AD	-7925
▁1986	-7926
▁Gonz	-7927
▁700	-7928
▁Phot	-7929
▁serves	-7930
▁stronger	-7931
▁requested	-7932
▁transition	-7933
▁Five	-7934
▁Hind	-7935
▁routine	-7936
▁suspects	-7937
▁iPod	-7938
▁bunch	-7939
▁naval	-7940
26	-7941
▁infring	-7942
▁explosion	-7943
away	-7944
▁hung	-7945
▁frame	-7946
▁investigate	-7947
def	-7948
oard	-7949
▁Diego	-7950
▁moral	-7951
▁recip	-7952
▁moments	-7953
Don	-7954
▁Beat	-7955
▁Duke	-7956
ounced	-7957
▁nominated	-7958
▁spark	-7959
▁comedy	-7960
▁participated	-7961
that	-7962
▁wet	-7963
▁toll	-7964
ogether	-7965
▁hosted	-7966
▁holiday	-7967
▁ped	-7968
▁smell	-7969
▁stuck	-7970
▁answers	-7971
unications	-7972
okes	-7973
▁1941	-7974
▁gang	-7975
▁margin	-7976
RC	-7977
▁Wolf	-7978
▁wine	-7979
▁upload	-7980
▁populations	-7981
▁themes	-7982
▁bacteria	-7983
▁doors	-7984
▁predicted	-7985
▁Jane	-7986
▁Moon	-7987
▁kinds	-7988
▁Patrick	-7989
▁Reserve	-7990
▁restaurant	-7991
▁McG	-7992
▁Tok	-7993
▁bombs	-7994
▁hydrogen	-7995
▁adap	-7996
▁grounds	-7997
▁upcoming	-7998
ickr	-7999
▁poem	-8000
▁stom	-8001
13	-8002
▁CBS	-8003
▁nose	-8004
▁perspective	-8005
erm	-8006
ulus	-8007
▁Flash	-8008
elle	-8009
▁Dylan	-8010
▁mac	-8011
ijing	-8012
▁helicop	-8013
Our	-8014
eor	-8015
▁76	-8016
udes	-8017
▁Han	-8018
▁Heart	-8019
▁Vista	-8020
▁covering	-8021
ima	-8022
iva	-8023
▁Les	-8024
▁soph	-8025
▁solutions	-8026
▁Hell	-8027
▁Thus	-8028
▁semi	-8029
▁decor	-8030
▁strip	-8031
▁females	-8032
▁puts	-8033
▁upset	-8034
▁gathered	-8035
▁principal	-8036
arry	-8037
▁Ren	-8038
▁flex	-8039
▁polls	-8040
▁modified	-8041
AM	-8042
GB	-8043
scape	-8044
▁barely	-8045
▁bot	-8046
Torrent	-8047
▁instructions	-8048
On	-8049
▁sed	-8050
icate	-8051
▁vamp	-8052
▁surgery	-8053
▁Dri	-8054
abama	-8055
▁hang	-8056
▁weekly	-8057
▁Harvard	-8058
▁visiting	-8059
▁intensity	-8060
iac	-8061
▁loyal	-8062
▁casualties	-8063
▁Right	-8064
▁Mexican	-8065
zed	-8066
▁99	-8067
▁IV	-8068
▁libr	-8069
▁Magazine	-8070
aved	-8071
▁undert	-8072
▁Airport	-8073
ses	-8074
▁actress	-8075
▁neutral	-8076
inth	-8077
struct	-8078
▁Start	-8079
▁entrance	-8080
▁participate	-8081
▁recognition	-8082
▁179	-8083
▁RIAA	-8084
▁tries	-8085
▁flooding	-8086
▁recovery	-8087
▁busy	-8088
▁enemies	-8089
▁Carey	-8090
▁PD	-8091
▁Rud	-8092
▁1942	-8093
▁Phys	-8094
▁Homer	-8095
▁lowest	-8096
▁Kentucky	-8097
28	-8098
umer	-8099
▁falls	-8100
▁usage	-8101
▁specim	-8102
▁kg	-8103
▁Data	-8104
▁pled	-8105
▁gross	-8106
you	-8107
▁drum	-8108
▁wheel	-8109
▁actors	-8110
▁Alabama	-8111
▁engineer	-8112
▁Operation	-8113
▁converted	-8114
isan	-8115
▁concrete	-8116
▁comprehens	-8117
%.	-8118
ION	-8119
oval	-8120
▁overt	-8121
▁improvements	-8122
▁Sydney	-8123
▁consists	-8124
▁relevant	-8125
itals	-8126
▁Cuba	-8127
ja	-8128
▁substantial	-8129
27	-8130
abe	-8131
▁$10	-8132
▁Pass	-8133
▁Beijing	-8134
TA	-8135
TP	-8136
inf	-8137
iami	-8138
▁Bang	-8139
▁drama	-8140
▁Bh	-8141
▁Li	-8142
▁Ok	-8143
rene	-8144
▁Var	-8145
aturally	-8146
▁->	-8147
orous	-8148
▁Xbox	-8149
▁item	-8150
36	-8151
aga	-8152
raph	-8153
ammed	-8154
▁Exper	-8155
▁deeply	-8156
▁Finally	-8157
▁farmers	-8158
▁Scientists	-8159
▁entertainment	-8160
FA	-8161
Sh	-8162
▁spac	-8163
▁anger	-8164
▁uncom	-8165
▁Carter	-8166
▁Tropical	-8167
▁66	-8168
andy	-8169
outube	-8170
▁urged	-8171
▁intellect	-8172
agger	-8173
▁jury	-8174
assador	-8175
▁allegations	-8176
ati	-8177
eared	-8178
▁Santa	-8179
▁compr	-8180
▁compete	-8181
▁processing	-8182
▁Minnesota	-8183
QL	-8184
acc	-8185
▁Turk	-8186
▁gift	-8187
▁blast	-8188
▁accompanied	-8189
++	-8190
yon	-8191
▁Due	-8192
▁Transport	-8193
Un	-8194
▁Palin	-8195
ignment	-8196
▁Liverpool	-8197
▁Asian	-8198
▁Nature	-8199
▁journalist	-8200
▁Hun	-8201
▁Kim	-8202
▁lets	-8203
▁stro	-8204
▁annoy	-8205
▁Mountain	-8206
▁searching	-8207
cts	-8208
/200	-8209
▁Ros	-8210
ommod	-8211
▁risks	-8212
▁partly	-8213
▁Golden	-8214
▁register	-8215
▁input	-8216
tenance	-8217
▁forecast	-8218
▁Hamas	-8219
▁passage	-8220
▁employee	-8221
▁delegates	-8222
▁FA	-8223
appy	-8224
▁scientist	-8225
▁Oil	-8226
▁remem	-8227
▁trials	-8228
▁Nov	-8229
▁shit	-8230
▁sustain	-8231
▁Page	-8232
▁deputy	-8233
▁practical	-8234
▁researcher	-8235
Te	-8236
▁3,	-8237
▁1984	-8238
▁colour	-8239
▁prepar	-8240
▁reward	-8241
▁occupied	-8242
▁Blog	-8243
▁bull	-8244
▁vari	-8245
▁fault	-8246
▁regul	-8247
▁Murray	-8248
▁shouldn	-8249
▁algorith	-8250
▁recession	-8251
▁complaint	-8252
3.	-8253
▁Bal	-8254
▁Hung	-8255
▁recover	-8256
ko	-8257
▁Sud	-8258
▁Croat	-8259
theless	-8260
▁valuable	-8261
▁democracy	-8262
▁dad	-8263
▁presum	-8264
▁demands	-8265
▁symptoms	-8266
pm	-8267
▁Front	-8268
▁inhab	-8269
▁marks	-8270
▁medicine	-8271
▁1985	-8272
▁firing	-8273
▁oldest	-8274
▁smoking	-8275
olt	-8276
icts	-8277
▁Hou	-8278
inder	-8279
▁Adam	-8280
▁missions	-8281
▁tiss	-8282
stance	-8283
▁shirt	-8284
▁extend	-8285
▁insisted	-8286
▁Bul	-8287
▁ori	-8288
▁Sarah	-8289
▁sections	-8290
mes	-8291
▁Aff	-8292
▁Talk	-8293
▁proport	-8294
▁assets	-8295
▁questioned	-8296
▁Bond	-8297
▁greatly	-8298
▁displayed	-8299
rently	-8300
▁organic	-8301
▁representative	-8302
ille	-8303
ouds	-8304
▁McK	-8305
▁hip	-8306
▁Phoen	-8307
▁obtain	-8308
▁beneath	-8309
▁mounted	-8310
▁encouraged	-8311
▁cul	-8312
▁fake	-8313
▁Nether	-8314
▁ancest	-8315
▁rainfall	-8316
uels	-8317
▁Spring	-8318
▁exists	-8319
▁illness	-8320
▁Harrison	-8321
▁artillery	-8322
▁historian	-8323
rav	-8324
▁beach	-8325
▁twelve	-8326
▁perfectly	-8327
▁attempting	-8328
▁vulnerable	-8329
Le	-8330
▁IN	-8331
▁List	-8332
▁Norway	-8333
▁submitted	-8334
▁mob	-8335
▁aged	-8336
▁icon	-8337
▁craft	-8338
▁enorm	-8339
▁Miami	-8340
▁flights	-8341
▁Education	-8342
onto	-8343
▁Dave	-8344
▁shout	-8345
▁coordin	-8346
▁excited	-8347
▁WW	-8348
▁Perl	-8349
▁steam	-8350
▁campaigns	-8351
una	-8352
ockey	-8353
idency	-8354
▁allegedly	-8355
▁pod	-8356
▁closing	-8357
ibilities	-8358
▁Military	-8359
▁wireless	-8360
▁depending	-8361
▁representing	-8362
roph	-8363
▁Marg	-8364
▁stab	-8365
iciary	-8366
▁delivery	-8367
▁struggle	-8368
▁preferred	-8369
▁experiments	-8370
care	-8371
▁refuge	-8372
▁wedding	-8373
▁aggressive	-8374
abet	-8375
▁Dark	-8376
▁Assembly	-8377
▁Bir	-8378
▁mayor	-8379
▁detain	-8380
▁handling	-8381
▁Pel	-8382
▁rocket	-8383
▁restrictions	-8384
ario	-8385
lete	-8386
▁weren	-8387
▁measured	-8388
▁connections	-8389
jan	-8390
opes	-8391
zens	-8392
▁tie	-8393
▁97	-8394
quest	-8395
▁licens	-8396
▁regime	-8397
So	-8398
▁param	-8399
▁passion	-8400
▁Wikipedia	-8401
▁statistics	-8402
▁Corporation	-8403
▁demonstrated	-8404
▁Ball	-8405
▁Balt	-8406
▁milk	-8407
▁ridic	-8408
imination	-8409
▁touchdown	-8410
39	-8411
▁flew	-8412
alling	-8413
▁ignored	-8414
▁consisted	-8415
▁convicted	-8416
▁Jay	-8417
entle	-8418
▁Lady	-8419
▁Stat	-8420
▁profession	-8421
▁4.	-8422
ulpt	-8423
▁arc	-8424
after	-8425
▁fossil	-8426
▁segment	-8427
▁secondary	-8428
▁electrical	-8429
▁damn	-8430
▁tips	-8431
▁stomach	-8432
▁Festival	-8433
▁magnetic	-8434
▁Background	-8435
▁references	-8436
My	-8437
▁deck	-8438
▁dies	-8439
▁Hug	-8440
▁ans	-8441
PDATE	-8442
▁breast	-8443
▁affairs	-8444
▁promotion	-8445
▁implemented	-8446
lock	-8447
▁Corp	-8448
▁embr	-8449
▁Admir	-8450
▁lobby	-8451
▁fears	-8452
))	-8453
▁remarks	-8454
▁mathemat	-8455
▁Hampshire	-8456
rate	-8457
▁clar	-8458
▁brows	-8459
▁landed	-8460
▁Station	-8461
uman	-8462
UTERS	-8463
bound	-8464
▁abst	-8465
ultane	-8466
▁boats	-8467
▁repair	-8468
▁efficiency	-8469
roit	-8470
▁charts	-8471
▁Library	-8472
▁singing	-8473
▁Ever	-8474
▁mice	-8475
▁gradually	-8476
▁recognize	-8477
▁explore	-8478
▁journalists	-8479
oir	-8480
agers	-8481
piracy	-8482
▁outer	-8483
▁wooden	-8484
▁opponents	-8485
▁soundtrack	-8486
rane	-8487
▁ham	-8488
▁Related	-8489
▁scholars	-8490
▁Copyright	-8491
olph	-8492
istol	-8493
▁artific	-8494
▁physics	-8495
▁badly	-8496
▁Scottish	-8497
▁interviews	-8498
▁medium	-8499
▁islands	-8500
▁powered	-8501
▁architecture	-8502
▁occasionally	-8503
ifies	-8504
▁Simon	-8505
▁PM	-8506
▁Abu	-8507
anium	-8508
▁Gree	-8509
▁Point	-8510
▁nobody	-8511
34	-8512
rupted	-8513
▁ideal	-8514
▁throat	-8515
▁interpre	-8516
▁prompted	-8517
▁anniversary	-8518
▁consecutive	-8519
▁fool	-8520
▁teachers	-8521
▁attracted	-8522
▁complicated	-8523
izer	-8524
oded	-8525
rows	-8526
▁Rhod	-8527
expected	-8528
▁dramatic	-8529
▁tracking	-8530
▁virtually	-8531
▁negotiations	-8532
aha	-8533
▁Jam	-8534
▁answered	-8535
▁activists	-8536
▁58	-8537
ilation	-8538
▁revers	-8539
▁railway	-8540
▁consistent	-8541
▁160	-8542
▁Bad	-8543
▁Princ	-8544
▁accommod	-8545
▁Elizabeth	-8546
▁fab	-8547
ichol	-8548
ompson	-8549
▁Death	-8550
▁immigration	-8551
▁Dal	-8552
level	-8553
▁patch	-8554
▁archae	-8555
▁sustained	-8556
▁Moz	-8557
▁Tro	-8558
▁alien	-8559
▁weigh	-8560
▁Castle	-8561
▁franch	-8562
▁opportunities	-8563
▁Zh	-8564
iley	-8565
ortion	-8566
▁arranged	-8567
▁Age	-8568
▁ISP	-8569
▁tanks	-8570
▁uncertain	-8571
▁Aud	-8572
▁Iron	-8573
▁thirty	-8574
▁admit	-8575
▁burned	-8576
▁diseases	-8577
▁Jean	-8578
▁dump	-8579
▁fled	-8580
▁wins	-8581
▁forgot	-8582
▁Karl	-8583
▁Leban	-8584
▁listening	-8585
hot	-8586
cover	-8587
▁hypot	-8588
▁Market	-8589
▁Summer	-8590
▁REUTERS	-8591
▁failing	-8592
▁explicit	-8593
▁reasonable	-8594
▁IT	-8595
▁SP	-8596
rome	-8597
▁exciting	-8598
FC	-8599
ixon	-8600
▁wal	-8601
▁module	-8602
olis	-8603
▁lect	-8604
▁defensive	-8605
▁particles	-8606
▁acknowledged	-8607
ipal	-8608
▁tea	-8609
▁Connect	-8610
▁radical	-8611
▁describing	-8612
▁Prop	-8613
▁lake	-8614
▁basket	-8615
▁inquir	-8616
▁demanded	-8617
ucin	-8618
▁Log	-8619
asury	-8620
rative	-8621
▁$100	-8622
▁exit	-8623
▁gate	-8624
▁Hor	-8625
▁bail	-8626
▁Share	-8627
▁resemb	-8628
▁seventh	-8629
▁Pay	-8630
▁emp	-8631
attan	-8632
▁Dougl	-8633
▁Argent	-8634
▁Islands	-8635
bi	-8636
▁inject	-8637
▁planets	-8638
▁reveals	-8639
▁foundation	-8640
▁Netherlands	-8641
ami	-8642
▁67	-8643
mary	-8644
▁enl	-8645
esome	-8646
▁Jews	-8647
▁mouse	-8648
▁framework	-8649
▁difficulty	-8650
▁commissioned	-8651
▁vacc	-8652
▁piano	-8653
▁Global	-8654
▁payments	-8655
▁Ur	-8656
case	-8657
cons	-8658
ilit	-8659
▁pace	-8660
letter	-8661
▁relax	-8662
▁filming	-8663
▁tape	-8664
▁patrol	-8665
▁Hart	-8666
ferences	-8667
▁directory	-8668
▁designer	-8669
▁earliest	-8670
▁newspapers	-8671
▁Fund	-8672
ication	-8673
▁lifted	-8674
▁finance	-8675
FF	-8676
news	-8677
▁Rice	-8678
▁drove	-8679
▁loose	-8680
▁reven	-8681
▁seats	-8682
▁tasks	-8683
▁Michel	-8684
▁Walter	-8685
▁nominee	-8686
▁complaints	-8687
▁underground	-8688
eled	-8689
▁inse	-8690
▁unsu	-8691
▁rally	-8692
-4	-8693
▁Blu	-8694
graph	-8695
▁mini	-8696
▁2008,	-8697
▁Creat	-8698
▁proteins	-8699
▁unemploy	-8700
▁radiation	-8701
fare	-8702
▁Non	-8703
▁Cher	-8704
▁Full	-8705
▁forcing	-8706
▁ordinary	-8707
▁360	-8708
▁fees	-8709
▁orbit	-8710
▁Having	-8711
▁estimate	-8712
▁succeeded	-8713
▁expedition	-8714
bled	-8715
stal	-8716
▁jet	-8717
▁Shar	-8718
▁devast	-8719
▁Similar	-8720
▁demonst	-8721
▁Phill	-8722
▁adjust	-8723
▁observations	-8724
▁59	-8725
mate	-8726
▁Univers	-8727
▁singles	-8728
▁downtown	-8729
bal	-8730
ture	-8731
▁2006.	-8732
▁Exec	-8733
▁pleased	-8734
▁interior	-8735
▁kilometres	-8736
▁silence	-8737
▁Software	-8738
▁executed	-8739
29	-8740
▁solo	-8741
▁scream	-8742
▁transp	-8743
▁dispute	-8744
▁champion	-8745
▁reduction	-8746
▁NC	-8747
▁feedback	-8748
▁referring	-8749
▁initiative	-8750
▁Additionally	-8751
mo	-8752
▁torn	-8753
▁divor	-8754
▁Silver	-8755
▁Thompson	-8756
▁recalled	-8757
▁tired	-8758
▁documentation	-8759
▁constitutional	-8760
iban	-8761
▁Der	-8762
unior	-8763
▁recovered	-8764
avor	-8765
olen	-8766
isers	-8767
▁reverse	-8768
ji	-8769
▁gam	-8770
▁1975	-8771
▁wars	-8772
▁composition	-8773
▁documentary	-8774
▁Andy	-8775
▁salt	-8776
▁util	-8777
▁notable	-8778
▁suspended	-8779
▁comfortable	-8780
▁genus	-8781
▁robot	-8782
▁Rhodes	-8783
▁wonderful	-8784
▁principles	-8785
▁pulling	-8786
▁settings	-8787
LA	-8788
irts	-8789
▁Fut	-8790
▁Polish	-8791
▁console	-8792
▁Chairman	-8793
▁deployed	-8794
Al	-8795
▁Bos	-8796
ierce	-8797
▁Manh	-8798
▁Simp	-8799
▁sacr	-8800
lights	-8801
▁coinc	-8802
attered	-8803
▁hitting	-8804
▁competitive	-8805
ighed	-8806
olves	-8807
▁Merc	-8808
▁poison	-8809
▁tactics	-8810
ivan	-8811
▁bab	-8812
itage	-8813
▁1968	-8814
▁bond	-8815
▁migr	-8816
▁blogs	-8817
▁circle	-8818
▁Express	-8819
uce	-8820
▁API	-8821
▁lib	-8822
▁toler	-8823
▁surrounded	-8824
▁gray	-8825
▁convoy	-8826
▁movements	-8827
▁volunteers	-8828
ira	-8829
just	-8830
plete	-8831
▁1979	-8832
▁joke	-8833
▁rape	-8834
▁suck	-8835
▁Beach	-8836
▁Detroit	-8837
▁bombing	-8838
▁stored	-8839
▁volcan	-8840
▁necessarily	-8841
▁Poll	-8842
▁array	-8843
itarian	-8844
▁painting	-8845
wen	-8846
ivals	-8847
icking	-8848
▁shopping	-8849
▁apps	-8850
▁loop	-8851
▁symp	-8852
▁Album	-8853
▁Antar	-8854
▁Chron	-8855
▁dying	-8856
▁Sweden	-8857
▁shaped	-8858
▁missile	-8859
▁prepare	-8860
iden	-8861
math	-8862
▁erup	-8863
▁rated	-8864
▁Simpson	-8865
▁mechanism	-8866
▁installation	-8867
ela	-8868
▁nic	-8869
▁bass	-8870
▁belt	-8871
▁careful	-8872
▁sail	-8873
▁Nancy	-8874
▁propag	-8875
▁photographs	-8876
ecess	-8877
▁fert	-8878
▁scar	-8879
▁Allen	-8880
▁Norman	-8881
▁beauty	-8882
▁sessions	-8883
▁routes	-8884
▁Ka	-8885
▁keys	-8886
▁Small	-8887
▁maintenance	-8888
oop	-8889
▁SR	-8890
iller	-8891
▁Tower	-8892
utorial	-8893
IR	-8894
anth	-8895
emed	-8896
▁Cro	-8897
▁Hero	-8898
▁Solar	-8899
▁Alaska	-8900
▁crucial	-8901
▁everybody	-8902
▁testimony	-8903
▁impressive	-8904
▁presentation	-8905
mun	-8906
▁Buff	-8907
▁bugs	-8908
ioxide	-8909
▁Order	-8910
▁bench	-8911
▁errors	-8912
▁locked	-8913
▁profits	-8914
▁literally	-8915
▁principle	-8916
▁fict	-8917
western	-8918
▁53	-8919
riends	-8920
▁Policy	-8921
▁engineers	-8922
▁simultane	-8923
▁considerable	-8924
▁lin	-8925
▁urg	-8926
▁Snow	-8927
▁suffer	-8928
ecraft	-8929
▁vital	-8930
▁Seattle	-8931
▁withdrawal	-8932
▁luc	-8933
▁Toronto	-8934
▁distract	-8935
▁Amendment	-8936
▁HIV	-8937
youtube	-8938
▁breeding	-8939
▁frequent	-8940
▁Trib	-8941
▁exha	-8942
▁colors	-8943
▁appearing	-8944
▁Ali	-8945
▁Nap	-8946
▁Roy	-8947
▁fee	-8948
ederation	-8949
oli	-8950
▁Row	-8951
▁hed	-8952
angel	-8953
▁Between	-8954
▁exclusive	-8955
wall	-8956
gered	-8957
▁discr	-8958
▁Disney	-8959
▁reserve	-8960
▁commitment	-8961
amo	-8962
inction	-8963
▁Within	-8964
▁Freedom	-8965
▁Swedish	-8966
▁charity	-8967
▁Children	-8968
▁libraries	-8969
▁77	-8970
▁hen	-8971
ensus	-8972
▁sculpt	-8973
▁Without	-8974
▁striking	-8975
▁addresses	-8976
▁88	-8977
hess	-8978
nest	-8979
ystem	-8980
▁involves	-8981
▁1,000	-8982
▁Production	-8983
▁contribute	-8984
post	-8985
▁Gun	-8986
▁Ult	-8987
▁pressed	-8988
▁password	-8989
▁neighbour	-8990
FP	-8991
pa	-8992
mod	-8993
otal	-8994
▁Did	-8995
▁NEW	-8996
▁Budd	-8997
▁dict	-8998
▁Anton	-8999
▁Computer	-9000
21	-9001
core	-9002
lims	-9003
▁calm	-9004
▁Bruce	-9005
▁filmed	-9006
▁everywhere	-9007
mates	-9008
▁tech	-9009
▁Digital	-9010
▁Phoenix	-9011
▁blocked	-9012
▁historic	-9013
▁dens	-9014
▁acres	-9015
illiant	-9016
▁engage	-9017
▁occupation	-9018
▁Band	-9019
▁saving	-9020
tw	-9021
ayers	-9022
▁seed	-9023
▁derived	-9024
▁separated	-9025
ali	-9026
acon	-9027
▁1964	-9028
▁Fleet	-9029
▁Douglas	-9030
▁forever	-9031
▁equipped	-9032
▁coc	-9033
▁raid	-9034
▁argues	-9035
▁phrase	-9036
▁Studios	-9037
▁Louisiana	-9038
uine	-9039
▁Does	-9040
▁bone	-9041
▁letting	-9042
▁external	-9043
▁BitTorrent	-9044
▁retirement	-9045
rite	-9046
▁cow	-9047
elson	-9048
ribed	-9049
▁crops	-9050
▁toxic	-9051
▁infect	-9052
▁analysts	-9053
▁1974	-9054
orship	-9055
▁guards	-9056
▁innocent	-9057
▁1969	-9058
avalry	-9059
▁allies	-9060
▁gaming	-9061
▁lasted	-9062
▁attacking	-9063
▁constantly	-9064
LC	-9065
▁WH	-9066
▁clip	-9067
▁Researchers	-9068
isons	-9069
▁hosting	-9070
▁hunting	-9071
▁counsel	-9072
▁attractive	-9073
▁sheet	-9074
▁compat	-9075
▁submar	-9076
▁Ho	-9077
orneys	-9078
▁Roger	-9079
▁possession	-9080
▁backing	-9081
▁establishment	-9082
ng	-9083
▁NBA	-9084
chest	-9085
LU	-9086
erg	-9087
weet	-9088
zing	-9089
▁Key	-9090
▁bio	-9091
▁Cond	-9092
▁thrown	-9093
▁vessels	-9094
▁enormous	-9095
▁component	-9096
▁contracts	-9097
▁Independent	-9098
▁regulations	-9099
▁Alb	-9100
▁boot	-9101
▁nerv	-9102
PC	-9103
▁Pa	-9104
oned	-9105
▁Lib	-9106
▁1967	-9107
▁cock	-9108
▁auction	-9109
▁debuted	-9110
▁confused	-9111
▁Manhattan	-9112
DE	-9113
▁bell	-9114
▁lady	-9115
author	-9116
orus	-9117
elescope	-9118
pers	-9119
▁1943	-9120
▁wings	-9121
▁breaks	-9122
▁OK	-9123
====	-9124
▁Dean	-9125
▁Word	-9126
▁Jason	-9127
▁deals	-9128
▁weird	-9129
▁garden	-9130
▁insurg	-9131
▁overseas	-9132
▁protecting	-9133
▁Hus	-9134
To	-9135
▁Oliv	-9136
▁ethnic	-9137
▁frustr	-9138
▁seized	-9139
▁choices	-9140
▁pill	-9141
▁marry	-9142
▁threatening	-9143
hell	-9144
▁Bowl	-9145
▁luck	-9146
▁merc	-9147
▁heading	-9148
▁Guardian	-9149
▁advertis	-9150
▁interchange	-9151
▁mit	-9152
world	-9153
▁privile	-9154
▁stadium	-9155
▁shipping	-9156
▁62	-9157
enez	-9158
▁Tokyo	-9159
areness	-9160
▁Arthur	-9161
▁dioxide	-9162
▁ourselves	-9163
▁Cry	-9164
▁lap	-9165
ancer	-9166
▁lung	-9167
▁celeb	-9168
▁Colonel	-9169
▁2005,	-9170
▁Guant	-9171
▁Bureau	-9172
▁delayed	-9173
▁scandal	-9174
▁Trust	-9175
cluding	-9176
▁studying	-9177
dering	-9178
▁pound	-9179
▁Lt	-9180
▁Om	-9181
▁menu	-9182
▁drunk	-9183
▁pocket	-9184
▁existed	-9185
▁childhood	-9186
▁intellectual	-9187
essee	-9188
▁Story	-9189
▁flags	-9190
▁Online	-9191
▁signing	-9192
▁protesters	-9193
die	-9194
era	-9195
wich	-9196
▁anx	-9197
▁dozens	-9198
▁funded	-9199
▁investigating	-9200
▁$6	-9201
enda	-9202
earch	-9203
▁Morgan	-9204
▁Philip	-9205
▁clothing	-9206
▁contributions	-9207
athy	-9208
▁Clark	-9209
▁Until	-9210
▁130	-9211
ughed	-9212
▁Od	-9213
▁pale	-9214
istent	-9215
▁assemb	-9216
pha	-9217
▁//	-9218
▁78	-9219
▁decent	-9220
▁reddit	-9221
▁freeway	-9222
▁congressional	-9223
rae	-9224
▁5.	-9225
▁ol	-9226
merce	-9227
▁strengthen	-9228
NET	-9229
plate	-9230
▁mood	-9231
▁rent	-9232
umbled	-9233
▁grade	-9234
▁Turkey	-9235
▁pleasure	-9236
▁institution	-9237
rain	-9238
▁Leon	-9239
▁tong	-9240
▁parking	-9241
▁biological	-9242
▁executives	-9243
▁greenhouse	-9244
PL	-9245
hol	-9246
▁Tax	-9247
aping	-9248
▁Gates	-9249
▁74	-9250
▁gameplay	-9251
▁Lenn	-9252
▁duties	-9253
▁laughed	-9254
")	-9255
▁68	-9256
mble	-9257
▁dated	-9258
▁march	-9259
issance	-9260
▁mirror	-9261
▁Muslims	-9262
▁embed	-9263
▁pointing	-9264
amps	-9265
▁Bear	-9266
▁echo	-9267
▁hosp	-9268
▁lunch	-9269
ocolate	-9270
▁Anthony	-9271
▁attributed	-9272
----	-9273
▁Control	-9274
▁payment	-9275
▁cig	-9276
▁Camer	-9277
▁crude	-9278
▁birthday	-9279
▁Mit	-9280
leton	-9281
▁ties	-9282
▁spell	-9283
▁Steven	-9284
▁export	-9285
▁tunnel	-9286
▁produces	-9287
▁unexpected	-9288
grad	-9289
▁1976	-9290
▁drives	-9291
elligent	-9292
▁execution	-9293
▁Roc	-9294
▁glad	-9295
▁bands	-9296
▁periods	-9297
▁provision	-9298
▁characteristics	-9299
▁cub	-9300
▁aver	-9301
▁tears	-9302
▁ignore	-9303
▁Management	-9304
izz	-9305
agen	-9306
▁arrive	-9307
▁72	-9308
▁raw	-9309
▁holes	-9310
▁dynamic	-9311
ustration	-9312
▁98	-9313
held	-9314
▁tum	-9315
▁ease	-9316
▁checked	-9317
▁contacted	-9318
▁Congressional	-9319
urches	-9320
▁somebody	-9321
▁introduce	-9322
▁Ty	-9323
▁110	-9324
▁absence	-9325
▁cricket	-9326
▁Tennessee	-9327
▁$7	-9328
▁Portug	-9329
▁pregnant	-9330
via	-9331
▁rif	-9332
▁Brother	-9333
▁Commons	-9334
All	-9335
▁Ce	-9336
▁jer	-9337
▁disk	-9338
▁posting	-9339
▁ranking	-9340
::	-9341
▁Much	-9342
▁hill	-9343
▁narr	-9344
▁speeds	-9345
▁throwing	-9346
▁PH	-9347
offs	-9348
vens	-9349
icked	-9350
▁vert	-9351
▁UPDATE	-9352
▁hardly	-9353
▁tempor	-9354
▁Support	-9355
df	-9356
aug	-9357
abis	-9358
acent	-9359
▁Near	-9360
▁sons	-9361
rators	-9362
rolled	-9363
▁depos	-9364
▁beside	-9365
▁treaty	-9366
▁earthqu	-9367
▁proposals	-9368
▁1939	-9369
▁aspect	-9370
▁Fantasy	-9371
▁petition	-9372
▁procedure	-9373
▁cents	-9374
▁Contact	-9375
▁Houston	-9376
▁packages	-9377
▁Scientology	-9378
▁Ku	-9379
alia	-9380
▁Arts	-9381
▁Gard	-9382
▁Event	-9383
▁superior	-9384
▁beta	-9385
▁outs	-9386
▁Turkish	-9387
▁analyst	-9388
▁Gonzales	-9389
▁cha	-9390
▁2020	-9391
▁logo	-9392
ii	-9393
▁1965	-9394
ranean	-9395
▁ingred	-9396
▁Given	-9397
▁cargo	-9398
▁diver	-9399
▁gender	-9400
▁pursue	-9401
cription	-9402
▁Mississ	-9403
▁fighters	-9404
▁indicates	-9405
▁transportation	-9406
▁cosm	-9407
▁obsc	-9408
▁Trade	-9409
▁signals	-9410
▁Community	-9411
may	-9412
▁Cru	-9413
pered	-9414
itched	-9415
▁Sciences	-9416
▁squadron	-9417
▁NOT	-9418
words	-9419
▁Rick	-9420
▁Rails	-9421
▁grabbed	-9422
▁isolated	-9423
▁69	-9424
▁monthly	-9425
▁keyboard	-9426
▁impressed	-9427
▁ax	-9428
▁Mach	-9429
▁shoes	-9430
▁silent	-9431
▁unsuccess	-9432
▁improvement	-9433
One	-9434
annels	-9435
▁bones	-9436
▁Reception	-9437
▁inspiration	-9438
▁elder	-9439
▁dressed	-9440
▁unclear	-9441
asant	-9442
eries	-9443
▁bottle	-9444
▁spotted	-9445
burn	-9446
▁vit	-9447
▁inher	-9448
▁Judiciary	-9449
▁immigrants	-9450
▁situations	-9451
▁comprehensive	-9452
ippi	-9453
ught	-9454
▁taxp	-9455
▁hanging	-9456
ieties	-9457
▁cust	-9458
▁gest	-9459
▁prey	-9460
▁Allied	-9461
▁creator	-9462
▁printed	-9463
▁Hu	-9464
pled	-9465
verty	-9466
▁Kong	-9467
▁serv	-9468
▁convert	-9469
▁creates	-9470
▁infected	-9471
▁legitimate	-9472
▁AL	-9473
▁anth	-9474
▁citing	-9475
▁citizen	-9476
▁Treasury	-9477
▁variable	-9478
▁naturally	-9479
These	-9480
▁Cooper	-9481
▁Master	-9482
▁moderate	-9483
▁preparing	-9484
▁Cape	-9485
▁Lisa	-9486
▁arguing	-9487
▁poverty	-9488
▁torpedo	-9489
▁Marshall	-9490
▁strategic	-9491
cé	-9492
▁da	-9493
imet	-9494
▁Dod	-9495
▁squad	-9496
hedral	-9497
incess	-9498
▁breed	-9499
▁Railway	-9500
▁cleared	-9501
▁complained	-9502
▁tub	-9503
▁yield	-9504
abs	-9505
▁rely	-9506
▁Poland	-9507
▁hybrid	-9508
▁worker	-9509
▁Imperial	-9510
▁coalition	-9511
BM	-9512
▁Init	-9513
▁rice	-9514
▁equally	-9515
▁households	-9516
leep	-9517
acher	-9518
▁Load	-9519
▁cant	-9520
lessly	-9521
▁Nichol	-9522
▁collapsed	-9523
How	-9524
▁Ta	-9525
olds	-9526
▁Dog	-9527
▁cir	-9528
▁Forest	-9529
▁Earlier	-9530
▁minimal	-9531
▁outbreak	-9532
Rep	-9533
▁acted	-9534
▁summit	-9535
▁airline	-9536
▁evolved	-9537
▁uranium	-9538
▁minority	-9539
rait	-9540
▁Resp	-9541
estyle	-9542
▁Harris	-9543
▁reluct	-9544
▁genuine	-9545
▁DS	-9546
▁Es	-9547
▁vig	-9548
▁Thank	-9549
▁Philipp	-9550
▁painted	-9551
▁memories	-9552
NC	-9553
▁Barn	-9554
▁tens	-9555
▁surviv	-9556
inations	-9557
▁coastal	-9558
▁instant	-9559
▁Constant	-9560
▁credited	-9561
NBC	-9562
lings	-9563
ocial	-9564
▁endorse	-9565
▁attitude	-9566
▁conscious	-9567
▁platforms	-9568
▁spacecraft	-9569
▁educational	-9570
▁Keep	-9571
▁alter	-9572
▁quote	-9573
▁clouds	-9574
▁opinions	-9575
▁wo	-9576
found	-9577
▁1973	-9578
iating	-9579
▁wrest	-9580
▁Industry	-9581
▁manufacturing	-9582
▁representatives	-9583
agle	-9584
▁HMS	-9585
▁Wii	-9586
inch	-9587
▁Swiss	-9588
▁relie	-9589
▁wider	-9590
▁chances	-9591
▁outcome	-9592
▁disorder	-9593
▁franchise	-9594
▁Christopher	-9595
!)	-9596
▁Ts	-9597
▁shore	-9598
▁Indeed	-9599
▁longest	-9600
▁thorough	-9601
▁Pakistani	-9602
ieval	-9603
▁whereas	-9604
▁defended	-9605
▁infantry	-9606
▁whenever	-9607
▁disappeared	-9608
▁4,	-9609
anke	-9610
▁Trek	-9611
▁maps	-9612
▁math	-9613
▁Shortly	-9614
▁prevented	-9615
▁traveling	-9616
▁instruments	-9617
31	-9618
Sc	-9619
▁Ak	-9620
▁na	-9621
child	-9622
▁1982	-9623
▁Cook	-9624
▁Gore	-9625
▁harsh	-9626
▁stere	-9627
▁ranging	-9628
▁imprison	-9629
▁Fall	-9630
▁Warner	-9631
▁aboard	-9632
▁stared	-9633
▁joining	-9634
▁1972	-9635
▁polar	-9636
ullivan	-9637
▁shoulders	-9638
ikes	-9639
▁pup	-9640
▁spy	-9641
▁forum	-9642
▁skull	-9643
:00	-9644
▁conce	-9645
▁theore	-9646
▁lawmakers	-9647
keep	-9648
reck	-9649
▁Gene	-9650
▁Third	-9651
▁radar	-9652
▁distant	-9653
fast	-9654
▁meets	-9655
▁rolled	-9656
lee	-9657
olk	-9658
text	-9659
▁1918	-9660
▁Release	-9661
▁infection	-9662
▁monitoring	-9663
▁PA	-9664
omot	-9665
▁shed	-9666
▁fishing	-9667
▁graduate	-9668
▁struggling	-9669
▁difficulties	-9670
ester	-9671
▁Vill	-9672
▁nucle	-9673
▁festival	-9674
Bay	-9675
▁Bull	-9676
▁Lanc	-9677
▁fate	-9678
▁forming	-9679
oda	-9680
borne	-9681
▁toss	-9682
▁Former	-9683
heastern	-9684
▁Germans	-9685
▁Dom	-9686
▁crown	-9687
▁medal	-9688
▁Campaign	-9689
▁Laboratory	-9690
▁philosophy	-9691
neg	-9692
▁Boe	-9693
▁auto	-9694
arently	-9695
▁spaces	-9696
▁guidelines	-9697
blog	-9698
month	-9699
▁folk	-9700
▁swall	-9701
▁concur	-9702
▁elabor	-9703
▁completion	-9704
ishers	-9705
▁intent	-9706
▁suitable	-9707
▁batteries	-9708
▁brilliant	-9709
▁appreciate	-9710
▁Nev	-9711
▁Toy	-9712
uther	-9713
▁Josh	-9714
strong	-9715
▁Larry	-9716
▁proven	-9717
▁Stumble	-9718
osi	-9719
ovie	-9720
▁Gary	-9721
▁Hope	-9722
▁info	-9723
ications	-9724
▁retreat	-9725
▁contents	-9726
▁employment	-9727
assy	-9728
uits	-9729
▁Abd	-9730
▁Alf	-9731
▁Dead	-9732
▁mate	-9733
▁Graham	-9734
▁trains	-9735
▁chemicals	-9736
cow	-9737
▁Joh	-9738
▁carrier	-9739
▁classification	-9740
▁Kr	-9741
aying	-9742
ounce	-9743
▁grey	-9744
▁legend	-9745
▁factory	-9746
▁wondered	-9747
esy	-9748
▁Sin	-9749
arded	-9750
▁Emer	-9751
▁Guitar	-9752
▁spoken	-9753
▁closest	-9754
▁channels	-9755
▁meg	-9756
▁Syria	-9757
▁races	-9758
▁Around	-9759
ila	-9760
▁Cy	-9761
▁NO	-9762
▁Box	-9763
▁von	-9764
▁Hans	-9765
igible	-9766
▁demol	-9767
▁likes	-9768
▁naked	-9769
▁assert	-9770
▁bedroom	-9771
▁dominated	-9772
ogy	-9773
unc	-9774
▁Holl	-9775
▁bars	-9776
▁lift	-9777
▁artificial	-9778
▁Mississippi	-9779
▁1978	-9780
▁cous	-9781
▁ment	-9782
olitan	-9783
▁Track	-9784
▁fatal	-9785
▁thumb	-9786
▁define	-9787
▁secured	-9788
▁upgrade	-9789
▁departure	-9790
▁spiritual	-9791
ocratic	-9792
▁Eth	-9793
▁unve	-9794
insula	-9795
enezuel	-9796
▁deemed	-9797
▁fictional	-9798
▁1971	-9799
▁Disc	-9800
▁brid	-9801
▁https	-9802
atively	-9803
▁speculation	-9804
fr	-9805
aver	-9806
▁Est	-9807
▁Mario	-9808
▁Iraqis	-9809
▁Jonathan	-9810
bow	-9811
▁spam	-9812
▁Domin	-9813
ordinary	-9814
▁viewing	-9815
▁wanting	-9816
▁Doc	-9817
ocated	-9818
▁Mayor	-9819
▁impression	-9820
▁investigators	-9821
▁96	-9822
▁Az	-9823
▁1948	-9824
▁Know	-9825
▁gentle	-9826
▁Lieutenant	-9827
▁Which	-9828
▁opponent	-9829
▁survival	-9830
▁blamed	-9831
▁terrible	-9832
Ad	-9833
▁Guy	-9834
▁insist	-9835
▁notion	-9836
▁explaining	-9837
▁influential	-9838
▁collaboration	-9839
▁140	-9840
▁Nixon	-9841
▁strikes	-9842
▁intercept	-9843
▁newsletter	-9844
▁demonstrate	-9845
▁Tam	-9846
▁cro	-9847
angle	-9848
▁minds	-9849
▁jumped	-9850
▁Memorial	-9851
▁battalion	-9852
▁phenomenon	-9853
▁#1	-9854
igen	-9855
gener	-9856
▁inev	-9857
▁ballot	-9858
▁Admiral	-9859
▁awesome	-9860
▁figured	-9861
▁renamed	-9862
▁compound	-9863
▁Convention	-9864
▁procedures	-9865
igate	-9866
▁Pirate	-9867
▁stolen	-9868
▁centers	-9869
▁ownership	-9870
▁punishment	-9871
GN	-9872
▁desert	-9873
▁Country	-9874
▁Stanley	-9875
▁identical	-9876
shore	-9877
▁deeper	-9878
▁emails	-9879
▁providers	-9880
▁intersection	-9881
low	-9882
itudes	-9883
▁Modern	-9884
▁depends	-9885
▁regardless	-9886
▁conservation	-9887
BN	-9888
▁94	-9889
▁AS	-9890
▁BP	-9891
▁Pope	-9892
▁Utah	-9893
▁span	-9894
father	-9895
▁clubs	-9896
▁discussions	-9897
▁personality	-9898
des	-9899
▁ho	-9900
▁lb	-9901
itol	-9902
▁Cold	-9903
▁Prev	-9904
▁gaze	-9905
▁Executive	-9906
▁remembered	-9907
▁11,	-9908
▁pron	-9909
▁coins	-9910
▁Rachel	-9911
▁adapted	-9912
▁associate	-9913
▁publishing	-9914
Pro	-9915
new	-9916
eton	-9917
▁lad	-9918
▁wore	-9919
▁Psych	-9920
▁knife	-9921
▁Venezuel	-9922
▁dialogue	-9923
▁awareness	-9924
Ex	-9925
cut	-9926
▁bike	-9927
▁Below	-9928
▁bases	-9929
▁logic	-9930
▁MTV	-9931
rooms	-9932
▁87	-9933
▁Cab	-9934
▁Keith	-9935
▁Pitts	-9936
▁formally	-9937
etch	-9938
▁Medicine	-9939
▁displays	-9940
▁mountains	-9941
88	-9942
lot	-9943
▁Move	-9944
▁synd	-9945
▁Norwe	-9946
▁labels	-9947
▁enthusi	-9948
iege	-9949
▁Flight	-9950
▁renewable	-9951
lu	-9952
▁Lear	-9953
▁Less	-9954
▁Along	-9955
▁uncon	-9956
▁beliefs	-9957
▁Conc	-9958
▁gods	-9959
▁Treat	-9960
▁voices	-9961
▁gathering	-9962
▁southwest	-9963
gets	-9964
ilst	-9965
wick	-9966
▁1947	-9967
▁bats	-9968
▁prize	-9969
▁judges	-9970
iability	-9971
▁weakened	-9972
▁southeast	-9973
anz	-9974
▁Dev	-9975
▁abroad	-9976
▁restore	-9977
▁priority	-9978
▁accompany	-9979
▁Gh	-9980
▁lucky	-9981
▁refers	-9982
▁suspic	-9983
▁Hamilton	-9984
▁diplomatic	-9985
foot	-9986
ilet	-9987
▁Comb	-9988
▁ages	-9989
▁conve	-9990
▁Sports	-9991
▁scores	-9992
▁resource	-9993
▁demanding	-9994
watch	-9995
▁Serb	-9996
▁Player	-9997
▁destro	-9998
▁ON	-9999
▁Teh	-10000
▁chat	-10001
▁savings	-10002
▁romantic	-10003
▁guarantee	-10004
▁corruption	-10005
she	-10006
yard	-10007
▁177	-10008
▁diff	-10009
▁scan	-10010
▁genre	-10011
▁Berlin	-10012
▁judgment	-10013
▁Wy	-10014
▁ow	-10015
marks	-10016
▁coin	-10017
▁Lawrence	-10018
▁jur	-10019
▁lip	-10020
itual	-10021
onder	-10022
ucker	-10023
▁Mort	-10024
▁Writing	-10025
▁nervous	-10026
▁billions	-10027
▁adventure	-10028
▁molecules	-10029
MI	-10030
enh	-10031
▁mining	-10032
▁circuit	-10033
▁burst	-10034
▁reserved	-10035
alo	-10036
▁ethan	-10037
▁foods	-10038
▁ultimate	-10039
▁confusion	-10040
▁agricultural	-10041
▁athe	-10042
▁waited	-10043
▁Taliban	-10044
▁touched	-10045
▁traveled	-10046
iterranean	-10047
100	-10048
▁CC	-10049
▁XP	-10050
▁Dur	-10051
▁Mas	-10052
▁Sad	-10053
▁Cole	-10054
▁bathroom	-10055
▁($	-10056
▁1946	-10057
▁Stock	-10058
▁opens	-10059
rection	-10060
▁Dennis	-10061
RS	-10062
rated	-10063
▁Reddit	-10064
▁tongue	-10065
▁habitat	-10066
▁shocked	-10067
▁protocol	-10068
▁Bible	-10069
▁hosts	-10070
▁brigade	-10071
▁removal	-10072
▁universities	-10073
▁SC	-10074
iffs	-10075
▁Bry	-10076
▁1981	-10077
anches	-10078
▁Forces	-10079
▁horror	-10080
▁Building	-10081
:0	-10082
names	-10083
▁tren	-10084
▁Parker	-10085
▁examined	-10086
▁fo	-10087
▁fed	-10088
▁joy	-10089
▁buff	-10090
▁honey	-10091
▁forests	-10092
iture	-10093
▁convince	-10094
asey	-10095
▁Huck	-10096
orious	-10097
▁Commun	-10098
▁checks	-10099
▁eighth	-10100
▁praise	-10101
▁scenario	-10102
▁landscape	-10103
▁consisting	-10104
enny	-10105
▁Syn	-10106
▁ministry	-10107
▁perceived	-10108
▁laboratory	-10109
▁08	-10110
▁rib	-10111
▁accus	-10112
▁quantum	-10113
▁Sometimes	-10114
▁capabilities	-10115
abee	-10116
▁175	-10117
▁Sadd	-10118
▁alert	-10119
agonist	-10120
▁immune	-10121
▁emotion	-10122
▁rational	-10123
eps	-10124
▁cinem	-10125
▁partnership	-10126
▁Representatives	-10127
An	-10128
▁topics	-10129
ika	-10130
▁NFL	-10131
ernel	-10132
▁animated	-10133
▁remainder	-10134
▁UC	-10135
▁Ted	-10136
suing	-10137
▁ther	-10138
forced	-10139
▁Moscow	-10140
▁damages	-10141
▁addressed	-10142
dale	-10143
▁amid	-10144
▁nurs	-10145
▁wondering	-10146
MB	-10147
esb	-10148
▁UTC	-10149
▁trem	-10150
▁bonus	-10151
▁recall	-10152
▁mystery	-10153
▁Bookmark	-10154
▁accessible	-10155
avas	-10156
▁Type	-10157
▁hyper	-10158
▁scrap	-10159
▁occasions	-10160
▁overwhelming	-10161
▁Mediterranean	-10162
▁79	-10163
acco	-10164
▁cream	-10165
through	-10166
ucinich	-10167
▁tables	-10168
▁disappear	-10169
▁improving	-10170
▁publisher	-10171
▁Christians	-10172
-5	-10173
66	-10174
star	-10175
style	-10176
▁Colomb	-10177
▁galaxy	-10178
▁shadow	-10179
▁vessel	-10180
▁Reading	-10181
▁enhance	-10182
▁athletes	-10183
▁commands	-10184
▁encounter	-10185
irm	-10186
allas	-10187
▁currency	-10188
▁violation	-10189
▁Television	-10190
ito	-10191
rine	-10192
▁Inn	-10193
oding	-10194
▁Mult	-10195
▁bulk	-10196
▁subt	-10197
▁Banks	-10198
▁girlfriend	-10199
▁IE	-10200
bery	-10201
emen	-10202
▁vend	-10203
▁amongst	-10204
She	-10205
ean	-10206
▁boom	-10207
▁Action	-10208
▁affair	-10209
▁beating	-10210
▁militants	-10211
▁sentenced	-10212
▁challenging	-10213
▁expectations	-10214
▁organisation	-10215
bes	-10216
sea	-10217
▁Las	-10218
▁Rest	-10219
▁marc	-10220
▁depict	-10221
▁poorly	-10222
▁checking	-10223
▁tutorial	-10224
sa	-10225
var	-10226
Upon	-10227
▁Vegas	-10228
▁oblig	-10229
▁experimental	-10230
▁1914	-10231
▁1977	-10232
▁Cost	-10233
▁fulf	-10234
▁pink	-10235
▁bread	-10236
▁Mother	-10237
▁recept	-10238
▁styles	-10239
▁Egyptian	-10240
▁anonymous	-10241
▁temple	-10242
▁resigned	-10243
umed	-10244
▁ranks	-10245
▁copper	-10246
▁assembly	-10247
▁ambassador	-10248
▁criticised	-10249
MP	-10250
omy	-10251
▁peer	-10252
▁Bloom	-10253
▁Histor	-10254
▁Pelosi	-10255
▁disappointed	-10256
▁Fal	-10257
▁asc	-10258
aders	-10259
▁1983	-10260
▁outf	-10261
▁Blair	-10262
▁reads	-10263
▁hiding	-10264
▁Throughout	-10265
onia	-10266
▁furn	-10267
▁reliable	-10268
▁Norwegian	-10269
▁incidents	-10270
▁accomplish	-10271
▁=>	-10272
▁mr	-10273
▁Kos	-10274
▁ray	-10275
eling	-10276
oting	-10277
▁intr	-10278
▁vent	-10279
▁Russell	-10280
▁Comments	-10281
▁Portland	-10282
▁Delicious	-10283
▁finishing	-10284
▁prosecutors	-10285
elect	-10286
gun	-10287
pat	-10288
▁Ped	-10289
▁handful	-10290
mat	-10291
suits	-10292
market	-10293
▁warnings	-10294
▁downloaded	-10295
orge	-10296
▁Jup	-10297
ailed	-10298
duces	-10299
▁gains	-10300
▁Walker	-10301
▁prosecution	-10302
leans	-10303
▁cler	-10304
▁Nevada	-10305
▁tissue	-10306
▁fighter	-10307
▁authorized	-10308
▁StumbleUpon	-10309
agg	-10310
▁09	-10311
▁accum	-10312
▁grave	-10313
ocation	-10314
▁rounds	-10315
▁Atlanta	-10316
▁counterpart	-10317
▁Sav	-10318
▁flaw	-10319
▁Adams	-10320
▁roots	-10321
▁underw	-10322
▁veterans	-10323
▁creatures	-10324
▁integrated	-10325
▁simultaneously	-10326
▁SA	-10327
inge	-10328
▁Ian	-10329
▁Set	-10330
imore	-10331
▁stake	-10332
▁("	-10333
acts	-10334
▁Bud	-10335
▁1966	-10336
▁demo	-10337
veland	-10338
▁recre	-10339
▁chamber	-10340
▁couples	-10341
▁Kucinich	-10342
▁presidency	-10343
▁maintaining	-10344
▁Dest	-10345
aration	-10346
▁Nelson	-10347
▁butter	-10348
▁Wel	-10349
estone	-10350
formula	-10351
▁Mobile	-10352
▁lifetime	-10353
▁requiring	-10354
▁arrangement	-10355
▁contribution	-10356
hard	-10357
▁Local	-10358
▁subpo	-10359
▁Whether	-10360
▁credits	-10361
▁partial	-10362
▁wealthy	-10363
▁abilities	-10364
▁afterwards	-10365
▁grin	-10366
▁rocks	-10367
▁compensation	-10368
At	-10369
urse	-10370
▁1956	-10371
▁Peace	-10372
▁agenda	-10373
▁assessment	-10374
▁functionality	-10375
acter	-10376
atern	-10377
▁chips	-10378
▁listing	-10379
▁responses	-10380
▁struggled	-10381
sein	-10382
▁Sure	-10383
▁veto	-10384
anguage	-10385
▁Kansas	-10386
▁incent	-10387
▁Charlie	-10388
▁tickets	-10389
▁partially	-10390
gi	-10391
▁AR	-10392
▁Priv	-10393
▁universal	-10394
▁industries	-10395
23	-10396
psons	-10397
▁chip	-10398
▁grid	-10399
▁forecl	-10400
▁shifted	-10401
▁reflected	-10402
olly	-10403
▁Cart	-10404
▁Horn	-10405
▁Affairs	-10406
▁escaped	-10407
▁landfall	-10408
▁certified	-10409
▁conspiracy	-10410
icut	-10411
▁deny	-10412
▁Flickr	-10413
▁Weekly	-10414
▁custody	-10415
▁immunity	-10416
▁competing	-10417
▁compounds	-10418
▁promoting	-10419
▁restricted	-10420
▁Opp	-10421
chell	-10422
▁Anna	-10423
▁Lisp	-10424
▁Think	-10425
itzerland	-10426
▁dropping	-10427
,000.	-10428
▁balls	-10429
▁Others	-10430
▁extrem	-10431
▁panels	-10432
▁serial	-10433
▁adviser	-10434
▁anybody	-10435
▁chocolate	-10436
▁releasing	-10437
▁Environmental	-10438
Qu	-10439
ieg	-10440
▁86	-10441
American	-10442
▁Product	-10443
bean	-10444
▁Lim	-10445
▁1953	-10446
▁lane	-10447
source	-10448
▁camps	-10449
▁troop	-10450
▁stability	-10451
▁evolutionary	-10452
erer	-10453
▁900	-10454
▁trigger	-10455
▁compiled	-10456
▁severely	-10457
▁surviving	-10458
oons	-10459
iscal	-10460
▁bits	-10461
▁Prior	-10462
▁Arctic	-10463
▁muscle	-10464
▁publish	-10465
▁frequency	-10466
▁remarkable	-10467
RI	-10468
uma	-10469
dict	-10470
olid	-10471
▁Len	-10472
hentic	-10473
▁outrage	-10474
▁conversion	-10475
%,	-10476
ested	-10477
▁prox	-10478
▁screw	-10479
▁Jupiter	-10480
▁relatives	-10481
▁84	-10482
▁Ic	-10483
hist	-10484
only	-10485
▁Ark	-10486
▁DRM	-10487
▁Oak	-10488
▁Rain	-10489
▁angle	-10490
▁welcom	-10491
▁residential	-10492
▁Area	-10493
▁Desc	-10494
▁Quest	-10495
▁ratio	-10496
▁squee	-10497
▁Lennon	-10498
▁discip	-10499
▁pilots	-10500
▁carries	-10501
▁Election	-10502
▁intelligent	-10503
▁implications	-10504
.-	-10505
▁Hop	-10506
▁1955	-10507
▁eBay	-10508
▁killer	-10509
▁Natural	-10510
▁enabled	-10511
▁diameter	-10512
▁removing	-10513
▁trillion	-10514
▁Cleveland	-10515
▁objective	-10516
▁correspondent	-10517
▁munic	-10518
▁advised	-10519
▁restored	-10520
▁categories	-10521
▁homosexual	-10522
DS	-10523
idal	-10524
Space	-10525
▁1917	-10526
▁Drug	-10527
▁brut	-10528
▁Arabia	-10529
▁talent	-10530
▁interaction	-10531
▁Nazi	-10532
▁Beyon	-10533
▁submit	-10534
▁possess	-10535
▁Simpsons	-10536
ori	-10537
▁Whit	-10538
▁arts	-10539
▁rebels	-10540
▁Montana	-10541
▁literary	-10542
orph	-10543
▁Gill	-10544
▁quietly	-10545
▁encountered	-10546
▁suggestions	-10547
▁investigations	-10548
UL	-10549
oust	-10550
wealth	-10551
▁Hawaii	-10552
▁filter	-10553
▁fifteen	-10554
▁concepts	-10555
▁musicians	-10556
▁Switzerland	-10557
oyd	-10558
▁sin	-10559
▁Theat	-10560
▁pharm	-10561
▁reserv	-10562
▁persons	-10563
err	-10564
ugs	-10565
▁Gab	-10566
▁cogn	-10567
itated	-10568
▁tooth	-10569
▁handled	-10570
▁sleeping	-10571
▁theories	-10572
▁qualified	-10573
di	-10574
lav	-10575
▁Sant	-10576
acking	-10577
▁Castro	-10578
laim	-10579
▁Reagan	-10580
▁shield	-10581
▁humanity	-10582
▁managing	-10583
▁Beh	-10584
▁Mul	-10585
▁twin	-10586
▁Armen	-10587
▁Laden	-10588
▁Gilbert	-10589
▁contrad	-10590
front	-10591
▁escort	-10592
▁riding	-10593
▁feeding	-10594
▁retained	-10595
▁pollution	-10596
▁sophistic	-10597
wa	-10598
▁Warren	-10599
▁babies	-10600
▁Lebanon	-10601
▁focusing	-10602
▁Universal	-10603
▁computing	-10604
bin	-10605
▁USB	-10606
▁ramp	-10607
igious	-10608
▁Tehran	-10609
▁cheaper	-10610
▁offense	-10611
▁reaches	-10612
itches	-10613
▁boxes	-10614
▁memor	-10615
▁Article	-10616
▁therapy	-10617
ropolitan	-10618
▁decrease	-10619
▁manufacturers	-10620
95	-10621
cr	-10622
▁Ath	-10623
▁tap	-10624
archy	-10625
▁Late	-10626
▁Origin	-10627
▁storms	-10628
▁Huckabee	-10629
▁portrayed	-10630
acs	-10631
iah	-10632
isk	-10633
▁gig	-10634
▁Reid	-10635
apolis	-10636
▁Ahmad	-10637
▁pione	-10638
▁rolling	-10639
▁Senators	-10640
▁expanding	-10641
▁basketball	-10642
▁Arn	-10643
oning	-10644
▁Queens	-10645
▁loaded	-10646
▁Orleans	-10647
▁supporter	-10648
TM	-10649
elsh	-10650
▁knots	-10651
osaurus	-10652
▁racing	-10653
▁steady	-10654
▁reposit	-10655
▁legislative	-10656
▁temporarily	-10657
▁Organization	-10658
uv	-10659
hop	-10660
vised	-10661
▁Belg	-10662
▁layers	-10663
▁planes	-10664
▁storyline	-10665
▁Connecticut	-10666
▁1/	-10667
irus	-10668
▁rhyth	-10669
▁Hitler	-10670
▁substance	-10671
▁circulation	-10672
▁CH	-10673
▁Dyn	-10674
▁laser	-10675
▁inquiry	-10676
▁theater	-10677
▁replacing	-10678
▁discussing	-10679
AG	-10680
spe	-10681
ethe	-10682
▁Chem	-10683
▁embry	-10684
▁bullet	-10685
▁delight	-10686
▁repeat	-10687
▁Shi	-10688
▁sid	-10689
endar	-10690
▁Mail	-10691
▁stops	-10692
▁makers	-10693
▁visits	-10694
▁Explorer	-10695
▁churches	-10696
Mart	-10697
ilder	-10698
otton	-10699
▁Freder	-10700
▁veteran	-10701
▁narrative	-10702
▁skept	-10703
▁fabric	-10704
week	-10705
▁Eve	-10706
▁orb	-10707
alties	-10708
▁sounded	-10709
▁mistakes	-10710
▁correctly	-10711
▁detainees	-10712
▁Ay	-10713
▁Holy	-10714
▁reass	-10715
▁Search	-10716
▁eliminate	-10717
rina	-10718
▁Baltimore	-10719
9.	-10720
NS	-10721
▁Guide	-10722
▁opera	-10723
▁shark	-10724
reprene	-10725
▁prospect	-10726
▁suggestion	-10727
▁61	-10728
▁anch	-10729
▁surely	-10730
▁Capitol	-10731
▁attorneys	-10732
2)	-10733
gus	-10734
backs	-10735
▁abund	-10736
▁Return	-10737
▁manual	-10738
▁actively	-10739
▁memorial	-10740
▁prototype	-10741
▁incorporated	-10742
85	-10743
obi	-10744
ques	-10745
this	-10746
▁dish	-10747
former	-10748
▁Biden	-10749
▁swing	-10750
▁Saddam	-10751
▁dissip	-10752
▁fascin	-10753
▁fastest	-10754
▁utility	-10755
▁abstract	-10756
▁commanded	-10757
tery	-10758
▁Fun	-10759
▁Ice	-10760
▁Fame	-10761
▁rush	-10762
istant	-10763
usters	-10764
▁Griff	-10765
▁revel	-10766
▁Premier	-10767
▁helpful	-10768
▁wrapped	-10769
bage	-10770
door	-10771
inum	-10772
master	-10773
▁Barry	-10774
▁chronic	-10775
▁challenged	-10776
▁appointment	-10777
▁communicate	-10778
▁interviewed	-10779
rers	-10780
▁bol	-10781
▁tex	-10782
▁1916	-10783
▁2009.	-10784
▁Kelly	-10785
▁eager	-10786
▁skill	-10787
▁spots	-10788
▁bother	-10789
▁salary	-10790
▁Emperor	-10791
▁villages	-10792
▁Pittsburgh	-10793
▁regulation	-10794
▁5,	-10795
rele	-10796
▁Buy	-10797
▁jaw	-10798
opard	-10799
▁Baby	-10800
▁bags	-10801
▁buck	-10802
▁Welsh	-10803
▁sword	-10804
▁sequel	-10805
▁supern	-10806
▁Loading	-10807
▁Campbell	-10808
▁reinforce	-10809
▁innovation	-10810
▁Raj	-10811
ateur	-10812
icial	-10813
onsin	-10814
▁ACLU	-10815
▁unpre	-10816
▁Morris	-10817
▁compare	-10818
▁commentary	-10819
ORK	-10820
utt	-10821
▁Tai	-10822
▁ine	-10823
phoon	-10824
usalem	-10825
▁queen	-10826
urities	-10827
▁Beyoncé	-10828
▁density	-10829
▁placing	-10830
Pe	-10831
iffe	-10832
▁venture	-10833
ifts	-10834
▁Sab	-10835
▁Try	-10836
▁hint	-10837
▁2004,	-10838
▁atomic	-10839
▁Abb	-10840
▁PDF	-10841
▁quit	-10842
▁Evans	-10843
isconsin	-10844
▁emerging	-10845
▁medieval	-10846
44	-10847
PM	-10848
▁CA	-10849
feld	-10850
▁lux	-10851
berry	-10852
▁drown	-10853
▁marine	-10854
-3	-10855
▁Doctor	-10856
▁endors	-10857
▁bankrupt	-10858
▁registration	-10859
▁Pu	-10860
▁Bed	-10861
▁coat	-10862
▁dirty	-10863
▁Stadium	-10864
▁kingdom	-10865
▁picking	-10866
agu	-10867
oca	-10868
▁Rat	-10869
lined	-10870
▁warri	-10871
▁staying	-10872
▁Construction	-10873
▁SE	-10874
▁IGN	-10875
▁bears	-10876
▁signature	-10877
▁nationwide	-10878
▁approaching	-10879
▁politically	-10880
▁representation	-10881
ais	-10882
▁63	-10883
aria	-10884
wind	-10885
▁caps	-10886
▁flesh	-10887
▁disagre	-10888
▁fantasy	-10889
avascript	-10890
▁animation	-10891
▁Nevertheless	-10892
News	-10893
arth	-10894
conf	-10895
▁Fried	-10896
▁encry	-10897
▁Bishop	-10898
▁legacy	-10899
▁successor	-10900
▁Gov	-10901
anking	-10902
▁chicken	-10903
▁approaches	-10904
otyp	-10905
▁Has	-10906
▁obs	-10907
eness	-10908
▁1000	-10909
▁Change	-10910
▁pitched	-10911
▁travell	-10912
▁reviewed	-10913
▁unemployment	-10914
▁extraordinary	-10915
▁lun	-10916
▁forb	-10917
▁lobb	-10918
▁crimin	-10919
▁eleven	-10920
▁staring	-10921
▁emotions	-10922
▁Apparently	-10923
▁exclusively	-10924
With	-10925
emet	-10926
fs	-10927
asma	-10928
izar	-10929
▁Sel	-10930
ancial	-10931
▁sorts	-10932
▁kicked	-10933
▁carriers	-10934
▁Wisconsin	-10935
▁GN	-10936
azed	-10937
oven	-10938
arted	-10939
▁1954	-10940
▁remix	-10941
▁formerly	-10942
abetes	-10943
▁notably	-10944
:30	-10945
bus	-10946
dam	-10947
imm	-10948
▁Lev	-10949
▁mos	-10950
▁1958	-10951
▁Hand	-10952
▁Mess	-10953
▁2003,	-10954
▁catal	-10955
Im	-10956
ikh	-10957
acre	-10958
▁Pul	-10959
▁remn	-10960
screen	-10961
▁humor	-10962
▁followers	-10963
▁whispered	-10964
▁helicopter	-10965
▁incredible	-10966
▁incredibly	-10967
▁06	-10968
▁ears	-10969
▁defending	-10970
ME	-10971
asm	-10972
affe	-10973
onies	-10974
▁Kirk	-10975
▁Blood	-10976
▁counts	-10977
▁Hussein	-10978
▁ridiculous	-10979
▁1962	-10980
erning	-10981
▁steep	-10982
▁regret	-10983
▁peaceful	-10984
▁Recording	-10985
aya	-10986
▁sne	-10987
▁une	-10988
▁operator	-10989
▁swimming	-10990
▁Jerusalem	-10991
▁promising	-10992
▁Enterprise	-10993
▁proportion	-10994
▁demonstration	-10995
ENT	-10996
tra	-10997
▁Money	-10998
▁patron	-10999
▁creature	-11000
▁terminal	-11001
▁__	-11002
▁Ton	-11003
▁hunt	-11004
▁Seven	-11005
▁Donald	-11006
▁conclus	-11007
▁annually	-11008
▁missiles	-11009
▁downloads	-11010
▁preserved	-11011
▁translation	-11012
▁participation	-11013
▁EC	-11014
▁Ye	-11015
▁Dor	-11016
▁Rub	-11017
▁unh	-11018
▁Soon	-11019
▁bowl	-11020
▁Carib	-11021
▁Jimmy	-11022
▁orange	-11023
▁curious	-11024
▁stretch	-11025
▁Printable	-11026
▁desperate	-11027
▁DO	-11028
▁Prize	-11029
▁guests	-11030
▁valley	-11031
▁Critics	-11032
▁legally	-11033
▁consistently	-11034
lang	-11035
Techn	-11036
▁1936	-11037
bourne	-11038
▁searches	-11039
▁Furthermore	-11040
DP	-11041
▁NAT	-11042
▁vel	-11043
▁hire	-11044
▁wolf	-11045
azines	-11046
▁folder	-11047
▁dominant	-11048
▁spectrum	-11049
▁permitted	-11050
▁operational	-11051
owned	-11052
▁cave	-11053
▁Categ	-11054
▁modest	-11055
formance	-11056
▁cabinet	-11057
▁glanced	-11058
▁shorter	-11059
▁emphasis	-11060
▁cooperation	-11061
▁configuration	-11062
hr	-11063
riot	-11064
arest	-11065
▁tent	-11066
ulates	-11067
▁dense	-11068
▁Advent	-11069
▁Labour	-11070
▁excuse	-11071
▁fright	-11072
▁barrels	-11073
▁Critical	-11074
▁instantly	-11075
▁mechanical	-11076
IDS	-11077
php	-11078
▁Ele	-11079
▁cam	-11080
▁nit	-11081
izers	-11082
stall	-11083
▁1959	-11084
▁1963	-11085
▁Works	-11086
▁flowers	-11087
▁gravity	-11088
▁strongest	-11089
dem	-11090
opy	-11091
atus	-11092
▁abol	-11093
▁Crown	-11094
▁racial	-11095
▁detected	-11096
:5	-11097
olar	-11098
oren	-11099
▁NHL	-11100
▁1961	-11101
▁Lock	-11102
render	-11103
▁diverse	-11104
▁resolve	-11105
▁preserve	-11106
heric	-11107
▁brains	-11108
▁bypass	-11109
▁Theatre	-11110
▁Remember	-11111
▁documented	-11112
▁preventing	-11113
7,	-11114
Fi	-11115
uart	-11116
profit	-11117
▁leaned	-11118
▁earthquake	-11119
▁indicating	-11120
▁networking	-11121
▁org	-11122
▁Pear	-11123
emetery	-11124
▁dubbed	-11125
▁versus	-11126
▁blocking	-11127
▁depicted	-11128
▁intervention	-11129
▁interrogation	-11130
lah	-11131
▁Pin	-11132
▁Pow	-11133
▁Brun	-11134
▁Opera	-11135
▁Rather	-11136
▁amendment	-11137
800	-11138
dated	-11139
▁Wing	-11140
uating	-11141
▁acquis	-11142
▁resort	-11143
aman	-11144
▁Hotel	-11145
▁deriv	-11146
▁targeting	-11147
▁Commonwealth	-11148
▁psychological	-11149
rin	-11150
storm	-11151
▁Cass	-11152
▁Vers	-11153
▁tast	-11154
idding	-11155
written	-11156
▁recycl	-11157
▁stocks	-11158
▁dramatically	-11159
▁CR	-11160
▁Bes	-11161
acles	-11162
▁Dell	-11163
ronaut	-11164
▁Murphy	-11165
▁novels	-11166
▁suburb	-11167
▁Friends	-11168
▁facilit	-11169
▁seemingly	-11170
▁ug	-11171
bling	-11172
▁1938	-11173
▁Stop	-11174
▁Ward	-11175
▁gear	-11176
▁mask	-11177
Reilly	-11178
▁excav	-11179
▁colony	-11180
▁towers	-11181
▁electro	-11182
▁imposed	-11183
▁violated	-11184
▁programmers	-11185
▁>>	-11186
▁Fat	-11187
▁Tit	-11188
scale	-11189
tical	-11190
▁greet	-11191
▁Dallas	-11192
▁clever	-11193
▁crosses	-11194
▁promises	-11195
wid	-11196
▁prel	-11197
making	-11198
▁2005.	-11199
▁Wired	-11200
▁perpet	-11201
▁donations	-11202
HC	-11203
▁fer	-11204
▁horn	-11205
▁Naval	-11206
munition	-11207
▁editing	-11208
▁breathing	-11209
▁Khan	-11210
▁Sean	-11211
▁Want	-11212
▁Zimb	-11213
▁Based	-11214
▁shame	-11215
▁acclaim	-11216
▁inhabit	-11217
▁Commander	-11218
▁editorial	-11219
▁lifestyle	-11220
▁6.	-11221
cott	-11222
▁CSS	-11223
▁armor	-11224
▁managers	-11225
▁attending	-11226
▁hospitals	-11227
keys	-11228
senal	-11229
▁Hong	-11230
▁Pack	-11231
▁fifty	-11232
▁tradem	-11233
▁expense	-11234
▁lighting	-11235
▁historians	-11236
ools	-11237
▁rug	-11238
leted	-11239
▁Hann	-11240
▁Prim	-11241
▁Store	-11242
▁Django	-11243
azy	-11244
abwe	-11245
▁Motor	-11246
▁aster	-11247
▁fitted	-11248
▁syntax	-11249
▁Overall	-11250
▁branches	-11251
▁expecting	-11252
▁reactions	-11253
XX	-11254
▁1915	-11255
▁fires	-11256
▁junior	-11257
▁cluster	-11258
▁premium	-11259
Con	-11260
▁jew	-11261
keley	-11262
▁Darwin	-11263
▁static	-11264
▁_	-11265
iper	-11266
▁1919	-11267
heimer	-11268
▁Record	-11269
▁golden	-11270
▁retrie	-11271
▁recordings	-11272
▁Creative	-11273
▁floating	-11274
▁membership	-11275
].	-11276
eu	-11277
▁Would	-11278
▁adequ	-11279
instein	-11280
▁banking	-11281
▁Blackwater	-11282
▁Federation	-11283
▁supplement	-11284
▁Was	-11285
▁tale	-11286
▁Songs	-11287
▁physically	-11288
▁Core	-11289
social	-11290
▁Medal	-11291
▁devil	-11292
▁Native	-11293
▁toilet	-11294
▁adjacent	-11295
▁colonial	-11296
▁provisions	-11297
▁consideration	-11298
BO	-11299
▁93	-11300
▁IM	-11301
▁Deep	-11302
▁Capital	-11303
▁courses	-11304
▁sanctions	-11305
ois	-11306
enter	-11307
▁Survey	-11308
▁discour	-11309
▁sharply	-11310
▁composer	-11311
▁10.	-11312
▁que	-11313
▁Nash	-11314
▁edit	-11315
▁mush	-11316
▁brick	-11317
▁Scroll	-11318
▁gallery	-11319
▁authentic	-11320
▁survivors	-11321
dog	-11322
dri	-11323
uri	-11324
made	-11325
▁Cas	-11326
▁Hat	-11327
▁Mun	-11328
▁beam	-11329
claimed	-11330
▁backup	-11331
▁Indonesia	-11332
▁condemned	-11333
▁sequences	-11334
▁sponsored	-11335
▁witnesses	-11336
▁underlying	-11337
ande	-11338
emor	-11339
iens	-11340
▁Sym	-11341
▁hey	-11342
▁penet	-11343
▁filing	-11344
▁disabled	-11345
▁weakness	-11346
▁Argentina	-11347
▁magazines	-11348
▁preparation	-11349
PR	-11350
▁Si	-11351
bors	-11352
esis	-11353
▁genet	-11354
▁Greece	-11355
etheless	-11356
▁Ottoman	-11357
▁cavalry	-11358
▁examine	-11359
▁everyday	-11360
▁Communications	-11361
beat	-11362
▁Dak	-11363
▁Lam	-11364
▁Nat	-11365
▁YOU	-11366
▁Beck	-11367
server	-11368
▁grace	-11369
▁scope	-11370
ambling	-11371
▁Edition	-11372
▁counties	-11373
▁Had	-11374
mails	-11375
▁intim	-11376
▁shops	-11377
▁tribes	-11378
Tr	-11379
oj	-11380
▁::	-11381
▁Ky	-11382
▁Ref	-11383
▁tob	-11384
olving	-11385
▁withdrew	-11386
▁corporations	-11387
▁Ec	-11388
▁PHP	-11389
▁Wag	-11390
grade	-11391
onnell	-11392
▁terminus	-11393
▁ammunition	-11394
▁encouraging	-11395
▁7,	-11396
▁NS	-11397
scar	-11398
inces	-11399
vation	-11400
actions	-11401
▁altered	-11402
8,	-11403
ricts	-11404
utton	-11405
Arthur	-11406
▁Grant	-11407
▁ought	-11408
▁throne	-11409
▁cartoon	-11410
▁devoted	-11411
▁tension	-11412
▁Zimbabwe	-11413
jad	-11414
arer	-11415
rays	-11416
▁Alice	-11417
▁Giants	-11418
cedented	-11419
▁continu	-11420
oker	-11421
overs	-11422
usive	-11423
▁Buck	-11424
▁stir	-11425
▁dreams	-11426
entation	-11427
▁Belgium	-11428
▁overcome	-11429
CH	-11430
▁Name	-11431
▁canal	-11432
▁neuro	-11433
▁bridges	-11434
▁darkness	-11435
uz	-11436
▁FDA	-11437
anamo	-11438
▁Lost	-11439
▁erect	-11440
▁Thunder	-11441
▁Electric	-11442
-6	-11443
van	-11444
ders	-11445
▁170	-11446
▁Amb	-11447
▁Dub	-11448
maker	-11449
ouver	-11450
▁mild	-11451
▁alarm	-11452
▁paras	-11453
▁safely	-11454
▁formula	-11455
▁mixture	-11456
▁trapped	-11457
▁Caribbean	-11458
rik	-11459
from	-11460
icio	-11461
▁Fif	-11462
▁hij	-11463
▁tube	-11464
▁reply	-11465
▁Boeing	-11466
▁galaxies	-11467
▁territories	-11468
▁Sem	-11469
ouses	-11470
▁Spect	-11471
▁dimin	-11472
▁gallon	-11473
▁Studies	-11474
▁crashed	-11475
▁reserves	-11476
▁songwrit	-11477
▁operators	-11478
▁continuous	-11479
▁propaganda	-11480
izza	-11481
lett	-11482
▁tear	-11483
namese	-11484
▁forty	-11485
▁Denver	-11486
▁lessons	-11487
▁73	-11488
▁meth	-11489
▁ghost	-11490
▁minim	-11491
▁Turner	-11492
▁enters	-11493
▁settle	-11494
▁decides	-11495
▁evident	-11496
▁photograp	-11497
▁connecting	-11498
▁innovative	-11499
▁concentration	-11500
▁$20	-11501
▁USS	-11502
▁Coal	-11503
▁Earl	-11504
▁hydro	-11505
▁seeds	-11506
▁deadly	-11507
▁ritual	-11508
▁constitu	-11509
▁railroad	-11510
▁Richardson	-11511
▁kilometers	-11512
angered	-11513
▁Temple	-11514
▁rivers	-11515
▁conducting	-11516
▁observation	-11517
bra	-11518
▁sup	-11519
▁toy	-11520
terly	-11521
▁Find	-11522
▁worn	-11523
▁Speaking	-11524
▁hearings	-11525
▁calculated	-11526
▁deliberately	-11527
Hz	-11528
anim	-11529
ello	-11530
▁fails	-11531
▁cousin	-11532
▁Members	-11533
▁suppose	-11534
▁directors	-11535
▁spreading	-11536
▁Guantanamo	-11537
CO	-11538
auc	-11539
▁Bah	-11540
▁IBM	-11541
▁Jun	-11542
▁bund	-11543
▁odds	-11544
▁coron	-11545
▁Custom	-11546
▁compromise	-11547
▁surprisingly	-11548
4,	-11549
▁Bab	-11550
arged	-11551
▁Anne	-11552
▁Imag	-11553
▁Jobs	-11554
▁knee	-11555
▁cheese	-11556
atherine	-11557
aughters	-11558
▁Morning	-11559
▁speaker	-11560
▁resolved	-11561
▁conflicts	-11562
▁Vietnamese	-11563
▁controller	-11564
▁perception	-11565
▁ninth	-11566
▁voter	-11567
▁Almost	-11568
▁Ottawa	-11569
▁poetry	-11570
▁considers	-11571
thal	-11572
▁Tel	-11573
▁wip	-11574
ellar	-11575
▁Gram	-11576
▁sued	-11577
▁edited	-11578
▁retain	-11579
▁borders	-11580
▁presents	-11581
▁directions	-11582
▁ISBN	-11583
▁Baker	-11584
▁ridge	-11585
istical	-11586
▁donated	-11587
vironments	-11588
▁recognised	-11589
PG	-11590
itty	-11591
▁Plat	-11592
▁Jerry	-11593
▁Ontar	-11594
borough	-11595
▁solely	-11596
▁Stevens	-11597
▁graphic	-11598
▁scholar	-11599
▁detained	-11600
▁algorithm	-11601
vas	-11602
pack	-11603
remy	-11604
▁Plot	-11605
▁doct	-11606
▁horm	-11607
▁fundra	-11608
▁scared	-11609
▁Financial	-11610
▁residence	-11611
▁mysterious	-11612
bey	-11613
ige	-11614
▁71	-11615
▁BM	-11616
▁Hi	-11617
▁pupp	-11618
uscript	-11619
▁drinks	-11620
▁funeral	-11621
▁vampire	-11622
▁vertical	-11623
▁Therefore	-11624
▁differently	-11625
▁Equ	-11626
▁FCC	-11627
▁Tun	-11628
▁inaug	-11629
▁Lieber	-11630
ographical	-11631
▁investigated	-11632
▁Vi	-11633
ormal	-11634
▁arbit	-11635
▁fuels	-11636
▁arriving	-11637
▁stopping	-11638
▁fantastic	-11639
▁similarly	-11640
▁administrative	-11641
▁89	-11642
▁LA	-11643
▁SU	-11644
brew	-11645
▁gard	-11646
Donald	-11647
▁MSNBC	-11648
▁steal	-11649
▁Rolling	-11650
▁premiere	-11651
▁Electronic	-11652
ardo	-11653
▁vic	-11654
▁1952	-11655
▁None	-11656
▁Winter	-11657
▁kernel	-11658
▁wished	-11659
▁Eventually	-11660
▁entreprene	-11661
-200	-11662
fish	-11663
▁pix	-11664
▁wreck	-11665
▁fiscal	-11666
▁poster	-11667
▁Ontario	-11668
▁earning	-11669
▁cannabis	-11670
▁MacArthur	-11671
▁destroying	-11672
▁politician	-11673
▁Exp	-11674
▁Oklah	-11675
▁antib	-11676
▁siege	-11677
▁Somers	-11678
▁orchest	-11679
▁activist	-11680
▁bloggers	-11681
▁headlines	-11682
actor	-11683
▁Ridge	-11684
looking	-11685
▁aggreg	-11686
▁debris	-11687
▁choosing	-11688
▁embedded	-11689
▁organisms	-11690
▁prosecutor	-11691
anas	-11692
▁Nik	-11693
▁aims	-11694
▁owns	-11695
▁cease	-11696
changed	-11697
▁sisters	-11698
▁worship	-11699
▁deterior	-11700
▁audiences	-11701
▁molecular	-11702
▁strategies	-11703
▁81	-11704
inery	-11705
athers	-11706
▁uncle	-11707
▁advent	-11708
▁bubble	-11709
▁Economic	-11710
▁prisoner	-11711
▁advocates	-11712
▁forgotten	-11713
▁concerning	-11714
("	-11715
Ob	-11716
gal	-11717
▁Niel	-11718
▁probe	-11719
▁precip	-11720
ancouver	-11721
riptions	-11722
▁Defence	-11723
▁knocked	-11724
▁classical	-11725
fix	-11726
rix	-11727
▁unt	-11728
▁broadband	-11729
▁sophisticated	-11730
▁82	-11731
▁Stef	-11732
▁rings	-11733
▁Julian	-11734
▁trends	-11735
▁insight	-11736
▁economics	-11737
▁Palestinians	-11738
▁infringement	-11739
▁u	-11740
uda	-11741
▁07	-11742
ante	-11743
atar	-11744
open	-11745
▁Lic	-11746
▁Son	-11747
piece	-11748
▁Andre	-11749
▁slide	-11750
▁Studio	-11751
▁insult	-11752
▁Section	-11753
▁Confeder	-11754
▁celebrate	-11755
oa	-11756
▁$50	-11757
▁Opt	-11758
▁Cand	-11759
▁zomb	-11760
▁Adobe	-11761
▁disch	-11762
▁enact	-11763
▁parad	-11764
▁Palace	-11765
▁Select	-11766
▁exclud	-11767
▁theatre	-11768
▁receives	-11769
▁Presidential	-11770
▁6,	-11771
tech	-11772
▁Agr	-11773
▁cad	-11774
▁haz	-11775
▁panic	-11776
▁setup	-11777
▁switched	-11778
▁Transportation	-11779
ridge	-11780
ulator	-11781
▁pants	-11782
▁trucks	-11783
▁Denmark	-11784
▁provider	-11785
▁supplied	-11786
▁variables	-11787
▁agriculture	-11788
▁interpretation	-11789
hour	-11790
▁Pur	-11791
Qaeda	-11792
▁leaf	-11793
▁meal	-11794
▁pars	-11795
▁snap	-11796
▁elite	-11797
▁Austin	-11798
▁freely	-11799
▁layout	-11800
restrial	-11801
▁origins	-11802
▁integration	-11803
▁sunk	-11804
▁refuse	-11805
lication	-11806
▁boyfriend	-11807
▁paintings	-11808
▁influences	-11809
▁exploration	-11810
wer	-11811
enna	-11812
▁ric	-11813
▁Pick	-11814
▁knock	-11815
▁scrut	-11816
▁Future	-11817
▁chorus	-11818
rous	-11819
▁1.5	-11820
▁grows	-11821
▁sweat	-11822
vereign	-11823
▁plugin	-11824
▁traded	-11825
▁militia	-11826
▁clinical	-11827
▁automatic	-11828
▁criminals	-11829
▁processor	-11830
▁environments	-11831
▁Da	-11832
file	-11833
▁cra	-11834
▁tar	-11835
esity	-11836
nered	-11837
▁1949	-11838
▁Chen	-11839
▁Neil	-11840
alysis	-11841
▁adopt	-11842
▁beaten	-11843
Technica	-11844
▁consent	-11845
▁compiler	-11846
▁courtesy	-11847
▁Vancouver	-11848
pdf	-11849
ayed	-11850
gate	-11851
rock	-11852
ulty	-11853
armed	-11854
▁Plus	-11855
▁bite	-11856
ported	-11857
▁binary	-11858
▁Berkeley	-11859
▁Category	-11860
▁unnecess	-11861
▁chemistry	-11862
bie	-11863
▁1910	-11864
owners	-11865
arrison	-11866
▁tobacco	-11867
▁deadline	-11868
▁diabetes	-11869
▁lawsuits	-11870
▁astronomers	-11871
sl	-11872
▁Fel	-11873
▁halt	-11874
▁Omaha	-11875
▁stack	-11876
▁Should	-11877
▁viruses	-11878
▁extending	-11879
▁Maj	-11880
izarre	-11881
▁overl	-11882
▁commod	-11883
▁flower	-11884
▁Delaware	-11885
▁Mitchell	-11886
▁magnitude	-11887
▁ministers	-11888
▁pregnancy	-11889
▁engagement	-11890
▁significance	-11891
▁SD	-11892
aron	-11893
▁Exc	-11894
▁escal	-11895
▁burden	-11896
▁honour	-11897
▁whilst	-11898
▁tracked	-11899
▁Oklahoma	-11900
▁expenses	-11901
▁portable	-11902
▁pressing	-11903
▁Authority	-11904
▁believing	-11905
▁submarine	-11906
▁adaptation	-11907
▁CleanTechnica	-11908
▁characterized	-11909
tegr	-11910
usic	-11911
pling	-11912
▁1957	-11913
▁encl	-11914
boards	-11915
▁Indians	-11916
▁Mission	-11917
▁bearing	-11918
▁gaining	-11919
width	-11920
▁obst	-11921
▁Globe	-11922
▁Venus	-11923
▁feared	-11924
▁subtle	-11925
▁homeless	-11926
▁sovereign	-11927
▁discrimination	-11928
▁Ald	-11929
▁Diam	-11930
▁Lith	-11931
▁guid	-11932
▁urge	-11933
▁pairs	-11934
▁rumors	-11935
▁manuscript	-11936
▁contractors	-11937
87	-11938
89	-11939
xx	-11940
pin	-11941
sis	-11942
ifice	-11943
▁Susan	-11944
limited	-11945
▁10,000	-11946
▁benefic	-11947
▁revised	-11948
▁generations	-11949
▁ML	-11950
▁Py	-11951
▁Sha	-11952
amous	-11953
▁flee	-11954
inejad	-11955
▁freed	-11956
▁harass	-11957
▁rushed	-11958
▁Federer	-11959
▁Speaker	-11960
▁divorce	-11961
▁Somerset	-11962
▁eligible	-11963
▁unprecedented	-11964
vo	-11965
ipt	-11966
pace	-11967
shot	-11968
▁wrap	-11969
▁physic	-11970
▁Singles	-11971
▁recruit	-11972
▁anticipated	-11973
▁Aer	-11974
▁1951	-11975
▁Todd	-11976
imeter	-11977
mother	-11978
ribers	-11979
▁wound	-11980
iminary	-11981
▁podcast	-11982
▁slipped	-11983
▁developments	-11984
▁conversations	-11985
▁hadn	-11986
▁sank	-11987
▁Interest	-11988
▁Standard	-11989
len	-11990
quer	-11991
▁Sax	-11992
eenth	-11993
▁True	-11994
▁dwar	-11995
version	-11996
▁stance	-11997
▁charter	-11998
▁deserve	-11999
▁Muk	-12000
▁Fish	-12001
▁bicy	-12002
▁cheek	-12003
▁unfair	-12004
▁insects	-12005
▁painful	-12006
▁strings	-12007
ationally	-12008
▁satisfied	-12009
▁thereafter	-12010
jud	-12011
alph	-12012
arts	-12013
▁1900	-12014
▁1937	-12015
▁Clear	-12016
▁MySpace	-12017
▁bombers	-12018
▁hostile	-12019
▁Sullivan	-12020
▁invented	-12021
Book	-12022
▁buzz	-12023
▁dual	-12024
▁frank	-12025
▁Taiwan	-12026
▁tonnes	-12027
▁summary	-12028
▁realistic	-12029
▁unsuccessful	-12030
Net	-12031
▁Ll	-12032
▁spur	-12033
▁theft	-12034
▁accord	-12035
▁volunt	-12036
▁Systems	-12037
▁deficit	-12038
▁navigation	-12039
aro	-12040
aux	-12041
▁quotes	-12042
▁raises	-12043
▁rivals	-12044
▁speaks	-12045
▁alliance	-12046
▁dependent	-12047
▁Protection	-12048
▁eliminated	-12049
SD	-12050
EST	-12051
ref	-12052
▁rab	-12053
actic	-12054
▁Kerry	-12055
holders	-12056
▁Samuel	-12057
Bl	-12058
Now	-12059
▁Bor	-12060
▁Got	-12061
ipher	-12062
owder	-12063
▁Clar	-12064
▁YORK	-12065
▁pole	-12066
▁Books	-12067
▁Nothing	-12068
▁shelter	-12069
▁offshore	-12070
▁commanders	-12071
▁distinctive	-12072
▁accidentally	-12073
mind	-12074
▁Mint	-12075
▁Niger	-12076
▁thats	-12077
▁cultiv	-12078
▁incomp	-12079
▁voiced	-12080
▁Margaret	-12081
▁operates	-12082
▁sexually	-12083
▁ingredients	-12084
Go	-12085
oba	-12086
▁Bou	-12087
gments	-12088
▁Joint	-12089
▁Swift	-12090
▁slower	-12091
▁unveiled	-12092
▁upgraded	-12093
▁Depression	-12094
▁generating	-12095
▁highlighted	-12096
▁craw	-12097
▁tatt	-12098
rugged	-12099
ulsion	-12100
▁ports	-12101
▁shake	-12102
ressing	-12103
▁Newton	-12104
▁monument	-12105
▁availability	-12106
8.	-12107
cha	-12108
utter	-12109
▁slip	-12110
▁Harper	-12111
▁acceptable	-12112
sub	-12113
▁AI	-12114
eria	-12115
▁Nav	-12116
▁glac	-12117
▁sink	-12118
▁maker	-12119
▁Legisl	-12120
▁pupils	-12121
▁secrets	-12122
▁tribute	-12123
▁progressive	-12124
ifted	-12125
isdom	-12126
onomy	-12127
phones	-12128
▁Maine	-12129
▁leaked	-12130
▁buttons	-12131
AV	-12132
▁cats	-12133
▁pose	-12134
▁rats	-12135
▁comed	-12136
ecessor	-12137
▁strain	-12138
▁fucking	-12139
▁lecture	-12140
▁divisions	-12141
addy	-12142
▁CPU	-12143
aning	-12144
▁sher	-12145
▁Barbara	-12146
▁contrary	-12147
▁travelled	-12148
▁uncomfort	-12149
▁Christianity	-12150
ORY	-12151
zech	-12152
▁Bron	-12153
▁reun	-12154
ochond	-12155
▁eleph	-12156
▁packed	-12157
▁rhythm	-12158
▁tackle	-12159
▁triple	-12160
▁caution	-12161
▁trailer	-12162
▁laughing	-12163
roe	-12164
▁ski	-12165
icism	-12166
ierre	-12167
▁Activ	-12168
▁Eight	-12169
▁Girls	-12170
▁chase	-12171
▁crews	-12172
▁columns	-12173
▁prosper	-12174
▁electronics	-12175
raeus	-12176
▁neur	-12177
elfare	-12178
▁gases	-12179
▁Senior	-12180
▁sailed	-12181
▁competitors	-12182
▁publications	-12183
▁transmission	-12184
5,	-12185
amped	-12186
▁bacon	-12187
▁chrom	-12188
▁Michelle	-12189
▁opposing	-12190
▁convenient	-12191
▁deployment	-12192
ocal	-12193
▁Finn	-12194
▁Laur	-12195
▁eyeb	-12196
▁Being	-12197
▁metab	-12198
▁texts	-12199
▁Garden	-12200
▁Justin	-12201
▁entries	-12202
▁detention	-12203
CD	-12204
amas	-12205
avery	-12206
▁curve	-12207
▁trace	-12208
▁youre	-12209
ensively	-12210
▁commemor	-12211
▁Initially	-12212
oga	-12213
▁RAF	-12214
▁NATO	-12215
▁leak	-12216
▁Verizon	-12217
▁relation	-12218
▁colleague	-12219
▁pm	-12220
fold	-12221
▁Anti	-12222
Source	-12223
▁width	-12224
▁finals	-12225
▁multipl	-12226
▁launching	-12227
kh	-12228
▁Kle	-12229
▁Raw	-12230
▁Tol	-12231
agged	-12232
▁walks	-12233
▁Spears	-12234
▁resumed	-12235
▁tremend	-12236
▁settlers	-12237
▁sunlight	-12238
▁measuring	-12239
icient	-12240
▁crest	-12241
▁Shakes	-12242
▁fierce	-12243
▁specimens	-12244
▁investments	-12245
▁predecessor	-12246
▁DM	-12247
▁dup	-12248
atched	-12249
▁shower	-12250
▁courage	-12251
▁mothers	-12252
▁Ahmadinejad	-12253
▁photography	-12254
▁measurements	-12255
300	-12256
aned	-12257
▁Pas	-12258
▁Hond	-12259
▁Herald	-12260
▁assign	-12261
▁frozen	-12262
▁besides	-12263
▁harvest	-12264
▁reforms	-12265
▁Consider	-12266
▁reminded	-12267
▁capability	-12268
EG	-12269
▁10-	-12270
▁hem	-12271
atoes	-12272
▁Hardy	-12273
▁Horse	-12274
▁appeals	-12275
▁descend	-12276
▁editors	-12277
mouth	-12278
▁Airl	-12279
▁Jacob	-12280
▁liver	-12281
esperson	-12282
▁Personal	-12283
▁precisely	-12284
▁sir	-12285
neath	-12286
▁Anim	-12287
▁buyers	-12288
▁assured	-12289
▁respective	-12290
▁recommendations	-12291
App	-12292
▁defect	-12293
▁permit	-12294
▁stones	-12295
▁muscles	-12296
▁licensed	-12297
▁elaborate	-12298
▁incorrect	-12299
▁sentiment	-12300
▁collecting	-12301
],	-12302
mn	-12303
ells	-12304
formed	-12305
▁Malays	-12306
▁exploit	-12307
dis	-12308
▁VII	-12309
inals	-12310
prime	-12311
▁Frederick	-12312
46	-12313
▁Ju	-12314
▁$2.	-12315
▁unl	-12316
▁flank	-12317
▁nights	-12318
▁Liberal	-12319
▁Liberty	-12320
▁locally	-12321
▁monster	-12322
▁meantime	-12323
▁predomin	-12324
▁comparing	-12325
▁favourite	-12326
▁supposedly	-12327
▁Hud	-12328
▁Kurt	-12329
▁ward	-12330
▁2001,	-12331
▁Hindu	-12332
isations	-12333
▁Iceland	-12334
▁biology	-12335
▁dancing	-12336
▁renewed	-12337
▁Baseball	-12338
▁separation	-12339
▁designation	-12340
▁professionals	-12341
By	-12342
cal	-12343
odge	-12344
▁Lau	-12345
▁bron	-12346
▁Altern	-12347
▁Safety	-12348
▁timing	-12349
▁warfare	-12350
▁volunteer	-12351
▁7.	-12352
arms	-12353
guard	-12354
oslav	-12355
▁Come	-12356
▁bold	-12357
▁dirt	-12358
▁spar	-12359
▁atoms	-12360
▁grain	-12361
▁Goldman	-12362
▁cruiser	-12363
▁speakers	-12364
▁aftermath	-12365
▁daughters	-12366
▁witnessed	-12367
▁repository	-12368
▁interactive	-12369
▁establishing	-12370
high	-12371
▁bay	-12372
▁Room	-12373
acular	-12374
rowing	-12375
▁Czech	-12376
▁Perry	-12377
▁Planet	-12378
▁avoided	-12379
▁cooking	-12380
▁damaging	-12381
▁refusing	-12382
▁Venezuela	-12383
▁designers	-12384
▁diversity	-12385
▁arrangements	-12386
▁conservatives	-12387
rose	-12388
▁Jin	-12389
▁1935	-12390
ateral	-12391
▁lasting	-12392
▁starred	-12393
▁identification	-12394
eters	-12395
range	-12396
▁Bros	-12397
▁biof	-12398
▁lord	-12399
▁oppose	-12400
▁revenues	-12401
▁stimulus	-12402
▁revealing	-12403
▁subscribe	-12404
▁CL	-12405
▁1913	-12406
▁keen	-12407
People	-12408
uclear	-12409
▁Maria	-12410
▁spray	-12411
ometric	-12412
▁Terror	-12413
▁constr	-12414
▁mature	-12415
▁robust	-12416
▁Nielsen	-12417
▁Original	-12418
▁artistic	-12419
▁assembled	-12420
▁cognitive	-12421
▁translated	-12422
▁treatments	-12423
▁restaurants	-12424
2010	-12425
▁Neb	-12426
▁Shel	-12427
▁eleg	-12428
reated	-12429
▁wasnt	-12430
igenous	-12431
▁multip	-12432
▁Mozilla	-12433
▁downloading	-12434
▁questioning	-12435
UC	-12436
▁sits	-12437
usting	-12438
▁tempt	-12439
▁explosive	-12440
▁conviction	-12441
dr	-12442
DAY	-12443
div	-12444
user	-12445
▁MIT	-12446
▁Rap	-12447
jamin	-12448
▁Ring	-12449
▁aide	-12450
▁intrig	-12451
▁unions	-12452
▁broader	-12453
▁protagonist	-12454
49	-12455
eded	-12456
ogan	-12457
▁Kal	-12458
andra	-12459
▁conj	-12460
▁palace	-12461
▁affects	-12462
▁neighbors	-12463
▁surrender	-12464
▁healthcare	-12465
▁requirement	-12466
hill	-12467
aired	-12468
▁Rush	-12469
Report	-12470
▁Krist	-12471
▁Observ	-12472
▁Ronald	-12473
▁Comcast	-12474
▁expects	-12475
▁deciding	-12476
▁RSS	-12477
about	-12478
adows	-12479
ublin	-12480
▁waist	-12481
▁Continue	-12482
▁astronaut	-12483
▁Ga	-12484
erto	-12485
▁LED	-12486
▁thir	-12487
▁frown	-12488
▁Gibson	-12489
▁Looking	-12490
▁artwork	-12491
▁cancelled	-12492
▁consensus	-12493
▁spokesperson	-12494
▁05	-12495
stop	-12496
▁10,	-12497
ilers	-12498
▁Date	-12499
▁prol	-12500
incial	-12501
▁imper	-12502
▁Hispan	-12503
▁travels	-12504
▁cleaning	-12505
▁highlights	-12506
▁IC	-12507
▁Amy	-12508
abling	-12509
▁sends	-12510
▁entert	-12511
▁Collins	-12512
▁Comment	-12513
▁lighter	-12514
▁tracker	-12515
▁vacation	-12516
▁victories	-12517
▁complexity	-12518
▁accomplished	-12519
tha	-12520
ipse	-12521
ushes	-12522
▁1933	-12523
▁AIDS	-12524
▁Jess	-12525
▁tune	-12526
▁Movie	-12527
▁suite	-12528
▁exempt	-12529
▁Marines	-12530
▁matching	-12531
?)	-12532
▁FI	-12533
▁bind	-12534
▁Hills	-12535
▁Quick	-12536
▁maneu	-12537
▁punch	-12538
▁piracy	-12539
▁Climate	-12540
▁contempt	-12541
▁engaging	-12542
▁initiated	-12543
▁scattered	-12544
">	-12545
iga	-12546
igs	-12547
sky	-12548
▁1.0	-12549
▁Hem	-12550
▁Say	-12551
▁Gate	-12552
▁posed	-12553
▁flooded	-12554
▁situated	-12555
▁celebrity	-12556
▁municipal	-12557
ahl	-12558
ogg	-12559
▁Cut	-12560
▁Nar	-12561
books	-12562
▁Benn	-12563
▁rect	-12564
▁jokes	-12565
▁barrier	-12566
zes	-12567
Some	-12568
seud	-12569
site	-12570
▁awk	-12571
▁euro	-12572
▁rhet	-12573
▁tomb	-12574
▁drain	-12575
▁Method	-12576
▁divers	-12577
▁outlets	-12578
▁scripts	-12579
▁Similarly	-12580
▁CS	-12581
oken	-12582
▁Kra	-12583
▁Agric	-12584
▁knees	-12585
▁trips	-12586
▁yours	-12587
ductive	-12588
▁torrent	-12589
▁printing	-12590
▁oversight	-12591
▁compilation	-12592
what	-12593
chron	-12594
▁Nation	-12595
ensional	-12596
▁interven	-12597
▁reviewer	-12598
▁alternate	-12599
▁favorable	-12600
▁variation	-12601
▁occasional	-12602
▁concentrated	-12603
FO	-12604
HS	-12605
▁amateur	-12606
▁thereby	-12607
▁volumes	-12608
▁Alliance	-12609
▁murdered	-12610
▁remarked	-12611
▁searched	-12612
turn	-12613
will	-12614
▁Vik	-12615
peare	-12616
▁fart	-12617
▁paus	-12618
▁cotton	-12619
▁bizarre	-12620
▁climbed	-12621
▁scratch	-12622
▁transit	-12623
▁climbing	-12624
▁instances	-12625
▁Engineering	-12626
▁FO	-12627
code	-12628
elli	-12629
oths	-12630
othy	-12631
▁Cow	-12632
▁Against	-12633
▁Century	-12634
▁accuracy	-12635
▁employers	-12636
▁traditionally	-12637
OD	-12638
VER	-12639
osc	-12640
link	-12641
▁Rand	-12642
▁golf	-12643
▁jazz	-12644
▁plum	-12645
▁toys	-12646
script	-12647
▁Deputy	-12648
▁Register	-12649
▁districts	-12650
▁celebrated	-12651
▁collective	-12652
▁assassination	-12653
Cont	-12654
group	-12655
▁Canal	-12656
▁Honor	-12657
▁mines	-12658
▁retro	-12659
▁witch	-12660
▁aerial	-12661
▁lacked	-12662
▁Bradman	-12663
▁counted	-12664
▁desired	-12665
▁pledged	-12666
▁pursuit	-12667
▁winners	-12668
▁Astronom	-12669
▁Site	-12670
▁Peters	-12671
▁robots	-12672
▁Bristol	-12673
▁colonies	-12674
rc	-12675
rien	-12676
▁inh	-12677
▁chim	-12678
▁flour	-12679
▁spare	-12680
▁Dublin	-12681
▁Things	-12682
▁tourist	-12683
▁Airlines	-12684
▁browsers	-12685
▁republic	-12686
▁psychology	-12687
▁manufacturer	-12688
▁disg	-12689
▁matt	-12690
herent	-12691
▁Place	-12692
▁globe	-12693
▁pride	-12694
▁Brooks	-12695
▁conced	-12696
▁lesson	-12697
▁Austria	-12698
▁vitamin	-12699
▁youngest	-12700
▁indication	-12701
iph	-12702
iots	-12703
yram	-12704
▁reck	-12705
▁2004.	-12706
▁christ	-12707
▁Circuit	-12708
▁Officer	-12709
▁hopefully	-12710
▁FR	-12711
olit	-12712
▁***	-12713
▁USD	-12714
ebook	-12715
▁ugly	-12716
▁drums	-12717
▁Leader	-12718
▁advances	-12719
▁annoying	-12720
▁triggered	-12721
▁Abr	-12722
▁Joy	-12723
▁bump	-12724
▁twist	-12725
itement	-12726
▁ceiling	-12727
▁Everyone	-12728
▁advocate	-12729
▁assisted	-12730
▁Melbourne	-12731
▁reviewers	-12732
▁Originally	-12733
▁considerably	-12734
▁participating	-12735
-9	-12736
47	-12737
ovo	-12738
osph	-12739
▁125	-12740
ollar	-12741
sized	-12742
▁1890	-12743
▁Doug	-12744
▁meter	-12745
▁sheep	-12746
▁Treaty	-12747
▁fisher	-12748
▁riders	-12749
▁completing	-12750
▁suspicious	-12751
AAF	-12752
▁Na	-12753
▁350	-12754
▁FOR	-12755
▁2009,	-12756
▁aging	-12757
▁parks	-12758
ailable	-12759
missions	-12760
▁Croatia	-12761
▁pending	-12762
▁contributing	-12763
________________	-12764
HT	-12765
▁Mes	-12766
▁dot	-12767
▁ISPs	-12768
▁quad	-12769
▁wage	-12770
cribed	-12771
riages	-12772
▁Haiti	-12773
▁edges	-12774
▁Dragon	-12775
▁Wagner	-12776
▁propri	-12777
▁rebell	-12778
▁Johnston	-12779
▁regiment	-12780
▁economist	-12781
▁consultant	-12782
▁Congressman	-12783
▁examination	-12784
▁sq	-12785
aton	-12786
illo	-12787
▁127	-12788
▁alex	-12789
▁junk	-12790
▁Sunni	-12791
▁habits	-12792
▁elderly	-12793
▁programmer	-12794
▁transcript	-12795
▁violations	-12796
▁accusations	-12797
HA	-12798
Not	-12799
iors	-12800
▁dumb	-12801
▁Stein	-12802
▁Johnny	-12803
▁focuses	-12804
▁endorsed	-12805
▁quarters	-12806
▁organised	-12807
tz	-12808
lad	-12809
rek	-12810
▁sake	-12811
▁spawn	-12812
▁batting	-12813
▁Benjamin	-12814
▁Petraeus	-12815
▁Currently	-12816
▁occurring	-12817
▁Vin	-12818
encer	-12819
▁Meyer	-12820
▁cheer	-12821
▁whist	-12822
▁ethanol	-12823
▁shallow	-12824
▁surpass	-12825
▁Robinson	-12826
▁Armstrong	-12827
▁Lieberman	-12828
▁publicity	-12829
▁dawn	-12830
▁tenth	-12831
▁openly	-12832
▁bottles	-12833
▁leather	-12834
▁preview	-12835
▁originated	-12836
▁Shakespeare	-12837
▁Ze	-12838
▁Cob	-12839
isive	-12840
white	-12841
▁offs	-12842
▁swept	-12843
osystem	-12844
▁bomber	-12845
▁intimid	-12846
▁slavery	-12847
dep	-12848
nan	-12849
type	-12850
▁Poly	-12851
▁memo	-12852
▁femin	-12853
▁Knight	-12854
▁shells	-12855
▁Franklin	-12856
▁momentum	-12857
▁acquisition	-12858
essa	-12859
▁Cit	-12860
anded	-12861
annon	-12862
▁mock	-12863
▁airpl	-12864
▁colleg	-12865
▁gently	-12866
▁charging	-12867
▁senators	-12868
▁intensified	-12869
SE	-12870
▁Uk	-12871
▁Billy	-12872
▁Saturn	-12873
▁Colbert	-12874
▁nowhere	-12875
▁consumed	-12876
▁imported	-12877
▁telescope	-12878
akh	-12879
they	-12880
▁Lucas	-12881
▁Scully	-12882
▁Visual	-12883
▁varied	-12884
▁closure	-12885
▁boundary	-12886
▁explicitly	-12887
▁frustrated	-12888
▁grandfather	-12889
▁respondents	-12890
UR	-12891
nie	-12892
▁XML	-12893
▁Edge	-12894
▁Schm	-12895
▁lanes	-12896
▁Beatles	-12897
▁approve	-12898
▁illegally	-12899
▁attendance	-12900
▁installing	-12901
IE	-12902
axy	-12903
omer	-12904
uced	-12905
▁Auto	-12906
▁Kate	-12907
▁Left	-12908
▁glob	-12909
▁kills	-12910
ribution	-12911
▁reflects	-12912
▁graduated	-12913
▁accompanying	-12914
Be	-12915
uros	-12916
▁Total	-12917
▁restr	-12918
mediate	-12919
▁Tribune	-12920
▁mailing	-12921
▁Stanford	-12922
▁abortion	-12923
▁failures	-12924
▁imperial	-12925
▁Officials	-12926
▁interactions	-12927
mons	-12928
rary	-12929
trans	-12930
▁File	-12931
▁trap	-12932
▁essay	-12933
▁query	-12934
▁Harvey	-12935
▁jacket	-12936
function	-12937
▁Madonna	-12938
▁shipped	-12939
▁enhanced	-12940
▁defeating	-12941
▁exhibition	-12942
▁outstanding	-12943
▁ma	-12944
▁Map	-12945
▁mim	-12946
cient	-12947
▁Tree	-12948
accept	-12949
osphere	-12950
▁emperor	-12951
▁neglect	-12952
▁Together	-12953
ologically	-12954
▁mathematical	-12955
▁distinguished	-12956
SQL	-12957
▁Fu	-12958
iang	-12959
omed	-12960
▁Terry	-12961
▁cruel	-12962
▁tubes	-12963
▁wiret	-12964
▁Athlet	-12965
▁Wheeler	-12966
▁circles	-12967
▁Peninsula	-12968
▁attraction	-12969
▁ta	-12970
oids	-12971
oples	-12972
▁cauc	-12973
▁palm	-12974
rition	-12975
▁Truth	-12976
▁duration	-12977
▁guidance	-12978
▁permanently	-12979
▁resignation	-12980
iop	-12981
ulu	-12982
▁Fa	-12983
some	-12984
eting	-12985
▁Lane	-12986
▁crap	-12987
▁Gallery	-12988
▁Persian	-12989
including	-12990
▁ally	-12991
ugging	-12992
▁kings	-12993
▁nurse	-12994
▁Alfred	-12995
▁equity	-12996
▁wishes	-12997
▁deposits	-12998
▁trademark	-12999
agic	-13000
▁12,	-13001
ships	-13002
▁mast	-13003
anners	-13004
stable	-13005
▁beats	-13006
▁manif	-13007
▁safer	-13008
▁verse	-13009
▁Dakota	-13010
▁stroke	-13011
▁portions	-13012
▁democratic	-13013
▁Philippines	-13014
who	-13015
▁OF	-13016
▁Cyr	-13017
▁100%	-13018
▁Nobel	-13019
▁STORY	-13020
▁juris	-13021
▁absent	-13022
▁Antonio	-13023
▁disrupt	-13024
▁filling	-13025
▁vaccine	-13026
▁template	-13027
▁tourists	-13028
▁Communist	-13029
▁possibilities	-13030
▁Ent	-13031
▁Sex	-13032
▁gri	-13033
▁Oscar	-13034
▁Chamber	-13035
▁lowered	-13036
▁Australians	-13037
fly	-13038
▁gem	-13039
▁Asked	-13040
▁inapp	-13041
▁anonym	-13042
▁Besides	-13043
▁Katrina	-13044
▁happiness	-13045
aa	-13046
now	-13047
uke	-13048
was	-13049
good	-13050
▁176	-13051
antine	-13052
covery	-13053
▁exter	-13054
▁urging	-13055
▁Bernard	-13056
▁modules	-13057
▁obesity	-13058
▁studios	-13059
▁screening	-13060
▁Interstate	-13061
▁disturbing	-13062
▁travelling	-13063
pg	-13064
▁92	-13065
▁ED	-13066
urst	-13067
▁Sep	-13068
▁pel	-13069
▁Gmail	-13070
▁dread	-13071
▁loves	-13072
▁tapes	-13073
viously	-13074
▁jumping	-13075
sequently	-13076
▁certific	-13077
▁consolid	-13078
▁flexible	-13079
▁sustainable	-13080
OK	-13081
avi	-13082
▁20,	-13083
▁1931	-13084
▁fluid	-13085
▁Living	-13086
▁meteor	-13087
▁avoiding	-13088
▁drilling	-13089
▁collections	-13090
▁Vo	-13091
itis	-13092
odox	-13093
role	-13094
▁git	-13095
uming	-13096
▁priest	-13097
▁rubber	-13098
▁wisdom	-13099
▁Imagine	-13100
▁turbines	-13101
▁breakfast	-13102
▁primaries	-13103
▁presumably	-13104
▁destination	-13105
▁Conservation	-13106
▁uncomfortable	-13107
oft	-13108
▁$9	-13109
amine	-13110
aults	-13111
inite	-13112
ocate	-13113
▁Hend	-13114
ailing	-13115
▁Anyone	-13116
▁Jeremy	-13117
boarding	-13118
▁cocaine	-13119
▁Homeland	-13120
▁contacts	-13121
▁publishers	-13122
▁interpreted	-13123
6,	-13124
Pl	-13125
oof	-13126
▁Nag	-13127
▁RAW	-13128
ocity	-13129
▁Mand	-13130
▁Tint	-13131
▁Ralph	-13132
▁dealt	-13133
▁Editor	-13134
▁Legacy	-13135
▁Olivier	-13136
▁farming	-13137
▁patches	-13138
▁Brothers	-13139
▁profound	-13140
▁agreements	-13141
▁fascinating	-13142
kind	-13143
▁Tob	-13144
▁1921	-13145
▁disl	-13146
osures	-13147
▁fixes	-13148
▁risen	-13149
leading	-13150
▁Stuart	-13151
▁ranges	-13152
▁worlds	-13153
▁Manning	-13154
▁shaking	-13155
▁snapped	-13156
▁educated	-13157
▁projected	-13158
je	-13159
ée	-13160
comp	-13161
▁Scar	-13162
aments	-13163
▁Could	-13164
▁prince	-13165
▁topped	-13166
essional	-13167
Why	-13168
ido	-13169
mel	-13170
▁83	-13171
▁91	-13172
▁Fem	-13173
▁Neg	-13174
▁Yug	-13175
person	-13176
▁2010.	-13177
▁betray	-13178
▁bitter	-13179
▁puzzle	-13180
▁compact	-13181
▁mammals	-13182
▁Jefferson	-13183
▁hypothesis	-13184
▁unnecessary	-13185
Ne	-13186
iri	-13187
uez	-13188
flow	-13189
▁AND	-13190
▁jam	-13191
▁bast	-13192
▁hipp	-13193
urring	-13194
▁Anglo	-13195
▁Season	-13196
▁stabil	-13197
resident	-13198
▁applies	-13199
▁teenage	-13200
▁affecting	-13201
7.	-13202
▁Pic	-13203
izard	-13204
lotte	-13205
▁Nine	-13206
▁epic	-13207
▁Access	-13208
▁beings	-13209
▁Jeffrey	-13210
▁loading	-13211
▁earnings	-13212
▁Indonesian	-13213
▁parliamentary	-13214
nik	-13215
▁McM	-13216
▁Half	-13217
▁grip	-13218
ancell	-13219
▁venue	-13220
▁Oliver	-13221
▁microsc	-13222
▁transpl	-13223
▁founding	-13224
▁suspicion	-13225
rh	-13226
issa	-13227
plus	-13228
▁Kap	-13229
▁mud	-13230
belie	-13231
▁Brig	-13232
▁Hold	-13233
▁barg	-13234
▁cops	-13235
▁wise	-13236
▁raids	-13237
▁doubled	-13238
istically	-13239
▁proceedings	-13240
▁independently	-13241
adi	-13242
opt	-13243
▁Kit	-13244
▁fel	-13245
geant	-13246
▁Farm	-13247
▁Past	-13248
▁cake	-13249
▁caut	-13250
▁feeds	-13251
▁sizes	-13252
▁agrees	-13253
▁analys	-13254
▁heating	-13255
▁terrain	-13256
▁Township	-13257
▁contamin	-13258
▁stressed	-13259
▁welcomed	-13260
▁excessive	-13261
4.	-13262
amic	-13263
prot	-13264
▁Kaz	-13265
▁PCs	-13266
▁1926	-13267
teenth	-13268
▁Danny	-13269
▁drops	-13270
▁eaten	-13271
▁Rogers	-13272
▁bloody	-13273
▁cattle	-13274
▁lacking	-13275
▁mainland	-13276
▁photographer	-13277
oria	-13278
▁Tell	-13279
▁bias	-13280
▁incl	-13281
▁Devil	-13282
▁Price	-13283
▁Putin	-13284
▁farms	-13285
bitious	-13286
▁brands	-13287
▁naming	-13288
▁blogger	-13289
▁departed	-13290
▁refugees	-13291
▁distribute	-13292
▁inevitable	-13293
▁promotional	-13294
nia	-13295
▁Dw	-13296
udge	-13297
outing	-13298
▁cabin	-13299
▁recipe	-13300
▁Arkansas	-13301
▁shrugged	-13302
▁corresponding	-13303
Do	-13304
▁Nas	-13305
▁gym	-13306
▁pap	-13307
erman	-13308
▁1911	-13309
▁flav	-13310
▁Files	-13311
▁TODAY	-13312
▁Yanke	-13313
▁digit	-13314
▁justify	-13315
▁Princess	-13316
▁garrison	-13317
▁specimen	-13318
▁privilege	-13319
▁guaranteed	-13320
▁suspension	-13321
anto	-13322
game	-13323
rams	-13324
▁Sid	-13325
▁Lang	-13326
▁Rudy	-13327
▁slid	-13328
▁unin	-13329
▁Strat	-13330
▁bonds	-13331
▁forums	-13332
▁tenure	-13333
▁preliminary	-13334
▁confirmation	-13335
?'	-13336
▁fib	-13337
▁tags	-13338
▁empire	-13339
▁condoms	-13340
▁declare	-13341
▁Operations	-13342
▁accounting	-13343
▁invitation	-13344
▁legislature	-13345
▁Conservative	-13346
eli	-13347
▁8.	-13348
▁GA	-13349
opic	-13350
umph	-13351
▁Emb	-13352
▁Sac	-13353
▁dil	-13354
offic	-13355
▁beef	-13356
ennium	-13357
minute	-13358
▁Sudan	-13359
▁Wrest	-13360
▁Hubble	-13361
▁streak	-13362
▁imagery	-13363
48	-13364
Ph	-13365
mi	-13366
▁3.0	-13367
eches	-13368
▁Spir	-13369
▁Virt	-13370
▁lesb	-13371
aneous	-13372
▁ignor	-13373
▁unders	-13374
stitutes	-13375
▁Protest	-13376
▁glasses	-13377
▁judicial	-13378
▁continent	-13379
▁detection	-13380
▁overnight	-13381
▁conclusions	-13382
▁frustration	-13383
▁limitations	-13384
▁Mind	-13385
▁pant	-13386
▁Minor	-13387
▁aides	-13388
▁clips	-13389
▁hence	-13390
▁peers	-13391
▁Object	-13392
▁Server	-13393
▁Territ	-13394
▁Nicholas	-13395
▁mistaken	-13396
▁Brazilian	-13397
▁Yesterday	-13398
▁mitochond	-13399
▁stationed	-13400
▁compatible	-13401
▁alternatives	-13402
▁8,	-13403
ollo	-13404
talk	-13405
▁2.5	-13406
▁Cho	-13407
▁Rih	-13408
raham	-13409
▁Stra	-13410
▁grim	-13411
▁seeks	-13412
powered	-13413
▁Inside	-13414
▁discont	-13415
▁archives	-13416
▁privately	-13417
New	-13418
irs	-13419
ulum	-13420
▁Born	-13421
▁Camb	-13422
▁sexy	-13423
osaurs	-13424
▁horiz	-13425
▁silly	-13426
▁diesel	-13427
▁sheets	-13428
▁wounds	-13429
▁acquire	-13430
▁specialist	-13431
ifa	-13432
onts	-13433
▁Rup	-13434
▁dece	-13435
▁invis	-13436
prising	-13437
▁optical	-13438
▁Richmond	-13439
▁compelling	-13440
▁endangered	-13441
▁variations	-13442
▁restoration	-13443
▁unfortunately	-13444
▁gad	-13445
check	-13446
shirt	-13447
▁Pink	-13448
▁Albums	-13449
▁shapes	-13450
▁binding	-13451
▁embrace	-13452
▁Yugoslav	-13453
▁musician	-13454
▁inclusion	-13455
▁motivated	-13456
▁introducing	-13457
irk	-13458
▁2:	-13459
▁corp	-13460
▁Wayne	-13461
▁anime	-13462
▁intend	-13463
▁welfare	-13464
▁concerts	-13465
▁discount	-13466
▁merchant	-13467
▁compliment	-13468
▁controlling	-13469
▁18,	-13470
▁Dow	-13471
▁Hey	-13472
▁Rot	-13473
icity	-13474
▁Bach	-13475
▁Juan	-13476
▁2002,	-13477
▁Analy	-13478
▁Bears	-13479
▁Father	-13480
▁Nicole	-13481
▁catast	-13482
▁apology	-13483
▁assuming	-13484
▁stunning	-13485
▁Emergency	-13486
uese	-13487
urop	-13488
▁15,	-13489
▁SQL	-13490
▁lone	-13491
▁Break	-13492
▁unrest	-13493
▁Cameron	-13494
▁Antarctic	-13495
▁premiered	-13496
▁revolutionary	-13497
nut	-13498
ubs	-13499
▁1929	-13500
▁Side	-13501
▁lion	-13502
▁mortg	-13503
▁rifle	-13504
regular	-13505
▁Hudson	-13506
▁inflic	-13507
▁arrests	-13508
▁congreg	-13509
▁Language	-13510
▁counting	-13511
▁troubled	-13512
▁liberties	-13513
('	-13514
uki	-13515
▁Aw	-13516
▁Wor	-13517
heads	-13518
onium	-13519
▁1932	-13520
▁fame	-13521
▁font	-13522
opular	-13523
▁Large	-13524
▁trunk	-13525
▁comply	-13526
▁plates	-13527
▁descent	-13528
▁formats	-13529
▁linking	-13530
▁advantages	-13531
WA	-13532
▁Zoo	-13533
there	-13534
ullah	-13535
▁1880	-13536
▁Gray	-13537
▁john	-13538
ometer	-13539
▁respected	-13540
▁vegetables	-13541
▁Kil	-13542
party	-13543
▁1912	-13544
▁Years	-13545
▁hedge	-13546
▁rises	-13547
▁Orange	-13548
▁hiring	-13549
▁interf	-13550
▁awkward	-13551
▁monaster	-13552
▁alignment	-13553
▁distinguish	-13554
▁inhabitants	-13555
▁reconstruction	-13556
gam	-13557
map	-13558
▁Raf	-13559
▁bip	-13560
gence	-13561
▁Epis	-13562
onduct	-13563
▁2003.	-13564
▁irrit	-13565
▁Danish	-13566
▁glance	-13567
▁Current	-13568
▁Manager	-13569
▁harmful	-13570
▁smiling	-13571
▁steadily	-13572
▁Bloomberg	-13573
▁accommodate	-13574
▁celebration	-13575
aba	-13576
▁**	-13577
alions	-13578
▁chains	-13579
▁convey	-13580
▁casting	-13581
▁rebuilt	-13582
▁sparked	-13583
▁eventual	-13584
▁integrity	-13585
▁reluctant	-13586
▁convection	-13587
▁Constantine	-13588
▁devastating	-13589
▁mathematics	-13590
cat	-13591
▁Ni	-13592
▁Esp	-13593
▁oun	-13594
▁sect	-13595
semble	-13596
▁blond	-13597
▁flows	-13598
▁juven	-13599
▁Oldham	-13600
▁firmly	-13601
▁kissed	-13602
ffective	-13603
▁portrait	-13604
▁companion	-13605
▁taxpayers	-13606
▁importantly	-13607
▁transported	-13608
▁Championships	-13609
ISA	-13610
▁EP	-13611
▁Zone	-13612
▁hull	-13613
ailand	-13614
▁corps	-13615
▁nerve	-13616
▁slave	-13617
▁embark	-13618
ellation	-13619
▁Rihanna	-13620
▁wildlife	-13621
▁ecosystem	-13622
▁altogether	-13623
▁settlements	-13624
EP	-13625
cour	-13626
mill	-13627
▁Ric	-13628
apper	-13629
▁Save	-13630
▁vibr	-13631
inging	-13632
▁Robin	-13633
▁wages	-13634
▁boring	-13635
▁traged	-13636
▁embassy	-13637
▁extinct	-13638
▁repairs	-13639
▁circular	-13640
▁expertise	-13641
▁retailers	-13642
paper	-13643
▁Bald	-13644
▁Very	-13645
otypes	-13646
terror	-13647
▁acids	-13648
▁vague	-13649
umbling	-13650
▁organs	-13651
▁streams	-13652
▁criteria	-13653
▁precious	-13654
▁accepting	-13655
▁financing	-13656
GA	-13657
kan	-13658
▁17,	-13659
mented	-13660
▁flies	-13661
▁archive	-13662
▁polling	-13663
▁boundaries	-13664
▁subscribers	-13665
▁neighborhoods	-13666
EA	-13667
EM	-13668
▁tu	-13669
▁Too	-13670
▁Yam	-13671
igers	-13672
oyage	-13673
▁Sark	-13674
▁dear	-13675
tarian	-13676
▁Shiva	-13677
▁cyber	-13678
▁Nathan	-13679
▁luxury	-13680
▁rendered	-13681
▁sometime	-13682
▁starring	-13683
▁sacrifice	-13684
▁withdrawn	-13685
▁excitement	-13686
hu	-13687
-10	-13688
dro	-13689
▁brig	-13690
▁Begin	-13691
▁Drive	-13692
▁sperm	-13693
forward	-13694
rolling	-13695
▁exagger	-13696
▁surveyed	-13697
▁quantities	-13698
▁Commissioner	-13699
oub	-13700
oys	-13701
▁Fern	-13702
▁melt	-13703
bishop	-13704
▁spite	-13705
▁grants	-13706
▁appropri	-13707
▁surround	-13708
▁DJ	-13709
eted	-13710
▁21,	-13711
▁GNU	-13712
▁Must	-13713
▁burns	-13714
▁gates	-13715
▁wickets	-13716
▁altitude	-13717
▁highways	-13718
Or	-13719
▁GP	-13720
▁KDE	-13721
▁Wol	-13722
▁Chile	-13723
itional	-13724
▁Duncan	-13725
▁Powell	-13726
▁alumin	-13727
▁garbage	-13728
▁predators	-13729
▁teenagers	-13730
▁economists	-13731
▁manufactured	-13732
expl	-13733
▁30%	-13734
▁Imm	-13735
▁awa	-13736
▁gut	-13737
▁1934	-13738
▁Beth	-13739
▁hers	-13740
opping	-13741
roleum	-13742
▁Lower	-13743
▁alike	-13744
▁fertil	-13745
▁combine	-13746
▁envelop	-13747
▁Montreal	-13748
▁streaming	-13749
▁consequence	-13750
▁similarities	-13751
elta	-13752
▁Kam	-13753
▁Rab	-13754
▁cyl	-13755
iegel	-13756
▁pour	-13757
ambers	-13758
▁prest	-13759
▁Rangers	-13760
▁convinc	-13761
▁interfe	-13762
▁marking	-13763
▁Heritage	-13764
▁ambitious	-13765
TW	-13766
▁fence	-13767
species	-13768
▁patents	-13769
▁stretched	-13770
▁Portuguese	-13771
▁declaration	-13772
tail	-13773
▁sidew	-13774
▁Puerto	-13775
▁complain	-13776
▁Princeton	-13777
▁tremendous	-13778
▁instruction	-13779
▁Representative	-13780
nels	-13781
ovic	-13782
▁16,	-13783
▁Help	-13784
▁Race	-13785
▁nons	-13786
▁riot	-13787
▁thro	-13788
hester	-13789
▁Citiz	-13790
▁Regard	-13791
ictionary	-13792
▁Morrison	-13793
▁Pictures	-13794
▁surfaces	-13795
▁Queensland	-13796
▁responding	-13797
":	-13798
▁1:	-13799
alid	-13800
Every	-13801
▁Case	-13802
▁Mack	-13803
▁Mush	-13804
▁Pete	-13805
clipse	-13806
▁admits	-13807
▁metals	-13808
▁relating	-13809
▁sentences	-13810
▁OP	-13811
matic	-13812
▁Glen	-13813
ateful	-13814
▁absorbed	-13815
edu	-13816
ili	-13817
auge	-13818
▁19,	-13819
▁Gay	-13820
▁Pad	-13821
asted	-13822
▁epid	-13823
▁seas	-13824
▁Veter	-13825
▁Wells	-13826
▁depri	-13827
▁scary	-13828
▁Hebrew	-13829
▁plasma	-13830
▁Jennifer	-13831
▁Universe	-13832
▁basement	-13833
▁disagree	-13834
▁platinum	-13835
▁reversed	-13836
bot	-13837
arma	-13838
▁Num	-13839
arter	-13840
itate	-13841
▁bure	-13842
▁Trail	-13843
▁Cancer	-13844
▁crying	-13845
▁dispos	-13846
▁shouted	-13847
▁trusted	-13848
▁generals	-13849
▁breakthrough	-13850
anu	-13851
▁115	-13852
▁Sug	-13853
aceut	-13854
adesh	-13855
uates	-13856
▁$500	-13857
▁Maur	-13858
▁Shan	-13859
▁Towns	-13860
▁draws	-13861
▁flown	-13862
▁Burton	-13863
▁Hughes	-13864
▁asleep	-13865
▁culmin	-13866
▁uncons	-13867
▁Working	-13868
▁manages	-13869
▁Thailand	-13870
▁teenager	-13871
▁displaced	-13872
▁attributes	-13873
▁underneath	-13874
▁Tu	-13875
uded	-13876
▁Month	-13877
▁reson	-13878
▁autobi	-13879
▁linear	-13880
▁Holland	-13881
▁laptops	-13882
▁McDonald	-13883
▁heritage	-13884
▁bankruptcy	-13885
even	-13886
deleg	-13887
ipper	-13888
▁Colin	-13889
▁Geoff	-13890
▁Arabic	-13891
▁masses	-13892
▁purely	-13893
▁stairs	-13894
▁wolves	-13895
friendly	-13896
▁unnamed	-13897
▁useless	-13898
▁applying	-13899
▁canceled	-13900
▁horrible	-13901
-7	-13902
apor	-13903
ashi	-13904
▁apt	-13905
▁ell	-13906
▁Fitz	-13907
▁Surv	-13908
actory	-13909
▁Smart	-13910
▁chess	-13911
▁gover	-13912
▁Watson	-13913
▁comics	-13914
▁symbols	-13915
▁synthes	-13916
▁Province	-13917
▁instinct	-13918
▁mortgages	-13919
▁orientation	-13920
DB	-13921
▁Din	-13922
ctica	-13923
▁Reed	-13924
ockets	-13925
▁chuck	-13926
▁zones	-13927
ighting	-13928
omplete	-13929
▁Tintin	-13930
▁inland	-13931
▁insane	-13932
▁Conyers	-13933
▁readily	-13934
aceutical	-13935
▁Progress	-13936
▁cathedral	-13937
▁concludes	-13938
▁furniture	-13939
▁friendship	-13940
▁protective	-13941
▁Description	-13942
fil	-13943
gie	-13944
ogs	-13945
pen	-13946
▁14,	-13947
▁ion	-13948
aters	-13949
▁1905	-13950
▁Body	-13951
▁Garc	-13952
▁Limb	-13953
▁Warri	-13954
ricanes	-13955
▁Member	-13956
▁donors	-13957
▁tightly	-13958
▁listened	-13959
▁scrutiny	-13960
▁enterprise	-13961
zb	-13962
fol	-13963
▁Beng	-13964
▁Yang	-13965
▁kidn	-13966
▁marsh	-13967
▁suits	-13968
▁breach	-13969
▁metaph	-13970
▁Exchange	-13971
▁provinces	-13972
▁acknowledge	-13973
1]	-13974
avez	-13975
erie	-13976
▁Byz	-13977
phony	-13978
▁Bapt	-13979
▁Send	-13980
▁Unit	-13981
▁hind	-13982
reamed	-13983
▁2,000	-13984
▁Chall	-13985
▁Intro	-13986
▁hockey	-13987
▁arrives	-13988
▁refuses	-13989
▁surveys	-13990
▁Brooklyn	-13991
▁Moreover	-13992
▁decreased	-13993
bet	-13994
usts	-13995
▁Bird	-13996
▁piss	-13997
▁spill	-13998
▁Marvel	-13999
▁observe	-14000
▁peoples	-14001
▁invested	-14002
▁distinction	-14003
▁identifying	-14004
▁interrupted	-14005
42	-14006
vi	-14007
occ	-14008
tis	-14009
vol	-14010
▁Alt	-14011
onica	-14012
▁dism	-14013
▁unde	-14014
▁Lynch	-14015
▁Rosen	-14016
▁Voice	-14017
buttons	-14018
▁Compan	-14019
▁Erlang	-14020
▁Rupert	-14021
▁garage	-14022
▁slowed	-14023
▁martial	-14024
▁unaware	-14025
▁donation	-14026
▁exceptions	-14027
▁indigenous	-14028
▁expressions	-14029
▁transformed	-14030
ixed	-14031
zone	-14032
▁1925	-14033
▁Boys	-14034
▁Cool	-14035
▁Heavy	-14036
▁Arnold	-14037
ervation	-14038
▁cooling	-14039
▁extends	-14040
▁Austrian	-14041
▁Previous	-14042
▁delivering	-14043
▁mechanisms	-14044
▁practically	-14045
▁productivity	-14046
odia	-14047
▁Pam	-14048
▁neat	-14049
▁Glenn	-14050
▁chaos	-14051
▁inhib	-14052
▁hungry	-14053
▁insert	-14054
▁100,000	-14055
▁malware	-14056
▁nearest	-14057
▁notebook	-14058
▁relieved	-14059
▁subpoena	-14060
cor	-14061
▁(3	-14062
▁Gas	-14063
▁fet	-14064
berto	-14065
▁chin	-14066
▁dign	-14067
▁navy	-14068
orient	-14069
▁Blues	-14070
▁Cuban	-14071
▁membr	-14072
▁brutal	-14073
ortunate	-14074
▁exhibit	-14075
▁remnants	-14076
▁syndrome	-14077
▁structural	-14078
fers	-14079
riel	-14080
▁Nad	-14081
▁Tan	-14082
named	-14083
▁User	-14084
angled	-14085
izable	-14086
▁Neither	-14087
▁anxiety	-14088
▁ordering	-14089
▁Relations	-14090
▁bandwidth	-14091
▁instrumental	-14092
aho	-14093
▁dan	-14094
▁Hugh	-14095
▁Nort	-14096
▁seal	-14097
▁cache	-14098
▁jeans	-14099
initely	-14100
▁Flying	-14101
▁corrid	-14102
▁Brandon	-14103
▁Machine	-14104
▁bowling	-14105
▁calendar	-14106
▁lobbying	-14107
▁Assistant	-14108
▁Fur	-14109
▁Lot	-14110
ingham	-14111
▁awful	-14112
▁pseud	-14113
▁builds	-14114
▁solved	-14115
▁secular	-14116
▁Consumer	-14117
▁Hungarian	-14118
▁accidents	-14119
▁meanwhile	-14120
96	-14121
zh	-14122
lon	-14123
▁CDs	-14124
antle	-14125
ollah	-14126
▁Cell	-14127
▁Chel	-14128
▁HTTP	-14129
▁Kind	-14130
▁duck	-14131
▁fest	-14132
▁sung	-14133
▁Bobby	-14134
▁Villa	-14135
▁Better	-14136
▁Meteor	-14137
▁tricks	-14138
olutions	-14139
▁diamond	-14140
▁lengthy	-14141
▁logical	-14142
TER	-14143
doc	-14144
asha	-14145
unks	-14146
▁curs	-14147
▁Number	-14148
▁absurd	-14149
▁armored	-14150
▁treating	-14151
▁destroyers	-14152
fa	-14153
plex	-14154
▁SEC	-14155
opoly	-14156
▁Text	-14157
▁dock	-14158
▁slot	-14159
▁poems	-14160
▁adoption	-14161
▁clicking	-14162
▁midnight	-14163
▁stealing	-14164
▁touching	-14165
▁discipline	-14166
▁positively	-14167
▁endorsement	-14168
5.	-14169
▁Jos	-14170
▁cure	-14171
▁pand	-14172
▁crypt	-14173
▁stiff	-14174
▁autumn	-14175
▁shuttle	-14176
▁Jennings	-14177
▁specified	-14178
▁uncovered	-14179
▁comparable	-14180
▁extensively	-14181
OG	-14182
▁BL	-14183
obby	-14184
ceans	-14185
ortex	-14186
▁morph	-14187
▁nasty	-14188
▁finale	-14189
▁heated	-14190
▁invite	-14191
▁Mukasey	-14192
▁exhaust	-14193
▁persuade	-14194
▁rendering	-14195
▁credibility	-14196
▁substantially	-14197
acer	-14198
wart	-14199
▁por	-14200
agram	-14201
ascar	-14202
▁blown	-14203
▁infer	-14204
▁Finland	-14205
▁compile	-14206
▁psychiat	-14207
▁proceeded	-14208
▁infections	-14209
▁historically	-14210
cro	-14211
emon	-14212
ripp	-14213
usty	-14214
odore	-14215
▁Give	-14216
▁horr	-14217
▁fract	-14218
sharing	-14219
▁Safari	-14220
▁labour	-14221
▁viable	-14222
▁Croatian	-14223
▁horizont	-14224
▁evacuated	-14225
▁Performance	-14226
TO	-14227
usc	-14228
..."	-14229
pike	-14230
yson	-14231
▁24,	-14232
▁240	-14233
▁Pil	-14234
▁Mills	-14235
▁Davies	-14236
▁intact	-14237
▁preval	-14238
▁rescued	-14239
▁indirect	-14240
▁troubles	-14241
▁maintains	-14242
ERE	-14243
ozy	-14244
mare	-14245
▁22,	-14246
▁McL	-14247
▁Mom	-14248
▁rod	-14249
▁$200	-14250
▁Need	-14251
▁ware	-14252
▁basin	-14253
▁nutri	-14254
lington	-14255
▁Fisher	-14256
▁sighed	-14257
▁Colombia	-14258
▁productive	-14259
sur	-14260
▁1)	-14261
acht	-14262
▁30,	-14263
▁Armed	-14264
▁Chavez	-14265
▁divide	-14266
▁Picture	-14267
▁ensuring	-14268
▁Antarctica	-14269
▁substitute	-14270
▁determination	-14271
dess	-14272
iked	-14273
▁sab	-14274
▁1909	-14275
▁Bott	-14276
▁Yeah	-14277
▁analog	-14278
▁sooner	-14279
▁Gregory	-14280
▁Hungary	-14281
▁catching	-14282
▁enjoying	-14283
▁exploded	-14284
▁imagined	-14285
▁stripped	-14286
▁demolished	-14287
▁insurgents	-14288
▁imagination	-14289
uy	-14290
▁01	-14291
▁9,	-14292
▁bub	-14293
osion	-14294
proof	-14295
season	-14296
▁gonna	-14297
▁meals	-14298
▁renov	-14299
▁swift	-14300
▁decomp	-14301
▁lending	-14302
▁pursuing	-14303
▁Palestine	-14304
▁collision	-14305
▁observers	-14306
▁purchasing	-14307
communications	-14308
▁consciousness	-14309
▁inappropriate	-14310
▁Kl	-14311
▁Inv	-14312
▁sib	-14313
▁Bert	-14314
▁Clay	-14315
▁Mall	-14316
▁Mong	-14317
▁pile	-14318
▁pipe	-14319
▁sang	-14320
icular	-14321
▁faint	-14322
▁incon	-14323
▁Prison	-14324
▁gamers	-14325
naissance	-14326
▁overturn	-14327
▁Political	-14328
▁diagnosed	-14329
▁separately	-14330
▁experiencing	-14331
km	-14332
ando	-14333
etta	-14334
▁105	-14335
▁Fig	-14336
▁1927	-14337
▁iter	-14338
▁lamb	-14339
agging	-14340
▁admin	-14341
clusive	-14342
▁Potter	-14343
▁liberty	-14344
▁refusal	-14345
astically	-14346
▁governing	-14347
▁characteristic	-14348
FS	-14349
UI	-14350
din	-14351
▁Ax	-14352
▁MV	-14353
▁ly	-14354
pher	-14355
▁Jen	-14356
▁duo	-14357
▁butt	-14358
▁2000,	-14359
▁Spider	-14360
▁parish	-14361
▁phosph	-14362
▁worthy	-14363
▁execute	-14364
▁varying	-14365
▁employer	-14366
▁atmospheric	-14367
▁reconnaissance	-14368
Pal	-14369
▁Fow	-14370
▁dug	-14371
▁liv	-14372
esley	-14373
▁Zero	-14374
▁hier	-14375
▁heter	-14376
▁monks	-14377
▁pizza	-14378
▁redes	-14379
▁sells	-14380
▁Grammy	-14381
▁boards	-14382
▁sheriff	-14383
▁purchases	-14384
▁prohibited	-14385
▁multiplayer	-14386
hole	-14387
uity	-14388
▁Ask	-14389
▁Isa	-14390
While	-14391
▁Singh	-14392
▁Yorks	-14393
▁abrupt	-14394
▁loyalty	-14395
▁pleaded	-14396
▁particle	-14397
acceptable	-14398
▁malicious	-14399
▁announcing	-14400
▁explosives	-14401
▁technological	-14402
▁py	-14403
engu	-14404
uper	-14405
▁WWE	-14406
▁wra	-14407
▁clay	-14408
▁holy	-14409
▁Speed	-14410
atories	-14411
▁bronze	-14412
▁indict	-14413
▁metall	-14414
▁cruisers	-14415
▁disclosure	-14416
▁regulatory	-14417
Oh	-14418
nh	-14419
aku	-14420
flu	-14421
quis	-14422
▁25,	-14423
▁feud	-14424
ifting	-14425
▁dragon	-14426
▁faculty	-14427
▁effectiveness	-14428
.*	-14429
gé	-14430
▁Ry	-14431
bird	-14432
orig	-14433
ymes	-14434
▁fox	-14435
owski	-14436
space	-14437
▁bore	-14438
▁thri	-14439
▁Sweet	-14440
▁gifts	-14441
▁newer	-14442
taining	-14443
▁Edmont	-14444
▁Fourth	-14445
▁delays	-14446
▁pipeline	-14447
▁Architect	-14448
▁testified	-14449
▁extensions	-14450
▁lieutenant	-14451
kit	-14452
uto	-14453
▁04	-14454
supp	-14455
▁Ple	-14456
▁brew	-14457
▁misc	-14458
unning	-14459
▁resid	-14460
▁Hunter	-14461
▁Toyota	-14462
▁locate	-14463
▁belonged	-14464
▁clearing	-14465
▁battleships	-14466
riv	-14467
▁Von	-14468
rared	-14469
▁1924	-14470
▁Plant	-14471
▁fancy	-14472
▁Napole	-14473
▁Yellow	-14474
▁washed	-14475
▁Everything	-14476
▁commenting	-14477
bast	-14478
Query	-14479
acker	-14480
click	-14481
owitz	-14482
▁snake	-14483
▁tends	-14484
▁mutual	-14485
▁Village	-14486
▁bureauc	-14487
▁Railroad	-14488
▁conclude	-14489
▁junction	-14490
▁provincial	-14491
▁advertisements	-14492
▁ate	-14493
atile	-14494
▁burg	-14495
▁cute	-14496
▁till	-14497
▁wand	-14498
▁enrich	-14499
breaking	-14500
▁Tibetan	-14501
▁magical	-14502
▁disorders	-14503
GE	-14504
-19	-14505
bat	-14506
vet	-14507
▁ET	-14508
rics	-14509
ttes	-14510
velt	-14511
idays	-14512
▁blew	-14513
▁soap	-14514
erving	-14515
▁aston	-14516
▁dolph	-14517
▁hated	-14518
▁noble	-14519
▁woods	-14520
▁academ	-14521
▁lesser	-14522
▁plaint	-14523
▁deleted	-14524
▁thunder	-14525
▁assassin	-14526
▁cultures	-14527
▁doctrine	-14528
▁architectural	-14529
deb	-14530
home	-14531
▁50%	-14532
▁Jur	-14533
▁env	-14534
▁Barr	-14535
▁lazy	-14536
▁costly	-14537
▁lately	-14538
▁tribal	-14539
▁Cardiff	-14540
▁licensing	-14541
▁screaming	-14542
▁accurately	-14543
▁administrator	-14544
▁(5	-14545
▁ye	-14546
hman	-14547
isle	-14548
▁Sox	-14549
▁Bomb	-14550
▁fare	-14551
▁disin	-14552
▁Images	-14553
▁hunter	-14554
vernment	-14555
▁pursued	-14556
▁roadside	-14557
▁shifting	-14558
▁Chronicle	-14559
▁unwilling	-14560
▁technically	-14561
has	-14562
iman	-14563
▁oct	-14564
asses	-14565
nesty	-14566
▁Luke	-14567
▁Mega	-14568
▁rays	-14569
▁codes	-14570
▁lined	-14571
▁lover	-14572
▁bishop	-14573
▁prayer	-14574
▁couldnt	-14575
▁debates	-14576
▁testify	-14577
▁conceived	-14578
▁corporation	-14579
ibl	-14580
otion	-14581
▁logs	-14582
▁Wilhel	-14583
▁facial	-14584
▁achievement	-14585
▁vulnerability	-14586
▁101	-14587
▁rou	-14588
▁bent	-14589
▁dent	-14590
osevelt	-14591
▁Comedy	-14592
▁crowds	-14593
▁colored	-14594
▁favored	-14595
▁hopeful	-14596
▁labeled	-14597
▁Coalition	-14598
▁Robertson	-14599
▁Yorkshire	-14600
▁29,	-14601
oustic	-14602
urable	-14603
▁Madag	-14604
▁amino	-14605
▁hackers	-14606
▁thirteen	-14607
▁penalties	-14608
▁thoroughly	-14609
▁battlefield	-14610
ocy	-14611
▁"[	-14612
▁Dh	-14613
▁JS	-14614
lord	-14615
olia	-14616
rove	-14617
▁Ess	-14618
▁sulf	-14619
▁sized	-14620
▁Ernest	-14621
▁Mulder	-14622
▁metric	-14623
▁statue	-14624
▁generic	-14625
▁secretly	-14626
▁Evolution	-14627
▁backwards	-14628
isy	-14629
Well	-14630
lest	-14631
unted	-14632
▁gram	-14633
▁perf	-14634
▁Laura	-14635
▁angel	-14636
▁ultra	-14637
▁housed	-14638
▁incons	-14639
▁unanim	-14640
▁corners	-14641
▁adequate	-14642
▁airlines	-14643
▁speeches	-14644
▁Mountains	-14645
▁breakdown	-14646
▁exploring	-14647
▁switching	-14648
inis	-14649
isco	-14650
▁Mik	-14651
email	-14652
▁Nord	-14653
▁cher	-14654
arette	-14655
▁Happy	-14656
▁Kenya	-14657
▁Magic	-14658
▁deton	-14659
▁modify	-14660
▁weighed	-14661
▁affiliate	-14662
▁departments	-14663
▁unfortunate	-14664
1)	-14665
▁23,	-14666
▁Jar	-14667
vable	-14668
▁1908	-14669
▁Ship	-14670
▁moist	-14671
▁Wonder	-14672
▁clusters	-14673
▁acceptance	-14674
▁intentions	-14675
▁specialized	-14676
##	-14677
De	-14678
pot	-14679
▁CON	-14680
▁Daw	-14681
arios	-14682
▁masc	-14683
▁pige	-14684
ousing	-14685
▁handy	-14686
▁saves	-14687
▁correl	-14688
▁laying	-14689
▁impacts	-14690
▁matched	-14691
▁verdict	-14692
▁advisers	-14693
▁attained	-14694
▁fraction	-14695
▁grandmother	-14696
▁organisations	-14697
Gu	-14698
ols	-14699
ovi	-14700
▁HP	-14701
▁28,	-14702
stick	-14703
▁1870	-14704
▁Index	-14705
▁disgu	-14706
▁miner	-14707
▁Chrome	-14708
▁locomot	-14709
400	-14710
▁SH	-14711
▁26,	-14712
▁Pros	-14713
▁soci	-14714
ducted	-14715
▁chron	-14716
▁couch	-14717
▁hills	-14718
▁ceased	-14719
▁heaven	-14720
▁Gardner	-14721
▁Griffin	-14722
▁Welcome	-14723
▁feathers	-14724
▁Telegraph	-14725
▁appealing	-14726
▁prompting	-14727
▁Additional	-14728
▁citizenship	-14729
RO	-14730
▁NA	-14731
base	-14732
drop	-14733
fund	-14734
path	-14735
▁Tas	-14736
▁Drew	-14737
▁Leah	-14738
▁lens	-14739
▁seiz	-14740
▁sudo	-14741
▁Chuck	-14742
▁schem	-14743
▁trash	-14744
▁Hockey	-14745
▁python	-14746
▁fortune	-14747
▁lightly	-14748
▁rushing	-14749
▁Interior	-14750
▁underwater	-14751
aco	-14752
enz	-14753
size	-14754
thetic	-14755
▁flames	-14756
▁enables	-14757
▁endless	-14758
▁undergo	-14759
▁ignoring	-14760
▁Broadcast	-14761
▁invisible	-14762
▁transparent	-14763
irth	-14764
▁Ltd	-14765
▁Rio	-14766
▁orn	-14767
think	-14768
▁Sout	-14769
▁ster	-14770
▁Urban	-14771
zheimer	-14772
▁Limbaugh	-14773
▁competed	-14774
▁regulate	-14775
▁capturing	-14776
▁consulting	-14777
▁reinforced	-14778
▁counterparts	-14779
gue	-14780
gged	-14781
rill	-14782
unct	-14783
▁13,	-14784
▁DVDs	-14785
▁RAAF	-14786
▁Sport	-14787
▁guilt	-14788
▁Carlos	-14789
▁render	-14790
mercially	-14791
▁flagship	-14792
▁writings	-14793
▁declaring	-14794
▁fragments	-14795
▁underwent	-14796
▁complaining	-14797
ND	-14798
lem	-14799
▁AA	-14800
▁ERA	-14801
ulent	-14802
▁Brew	-14803
normal	-14804
▁brave	-14805
▁crystal	-14806
▁pitcher	-14807
▁shortage	-14808
▁subjected	-14809
▁traditions	-14810
▁transaction	-14811
▁Revolutionary	-14812
▁Eug	-14813
▁Typ	-14814
agher	-14815
▁1922	-14816
▁1923	-14817
▁fits	-14818
▁pays	-14819
▁penn	-14820
▁Burns	-14821
▁Leeds	-14822
▁wheat	-14823
▁Beyond	-14824
▁Clarke	-14825
▁racist	-14826
▁sacred	-14827
▁Wallace	-14828
▁imaging	-14829
▁electrons	-14830
▁algorithms	-14831
▁interference	-14832
Press	-14833
▁dwarf	-14834
istance	-14835
▁Travel	-14836
▁spying	-14837
▁Weather	-14838
▁invaded	-14839
▁monarch	-14840
▁Malaysia	-14841
▁rhetoric	-14842
▁Northwest	-14843
▁Roosevelt	-14844
▁humanitarian	-14845
▁recommendation	-14846
reb	-14847
▁27,	-14848
▁Led	-14849
atics	-14850
iolet	-14851
▁Huff	-14852
▁Joan	-14853
▁Salt	-14854
▁Legal	-14855
▁wrist	-14856
▁slaves	-14857
▁rounded	-14858
▁threads	-14859
▁Edmonton	-14860
▁Wildlife	-14861
▁inherited	-14862
▁processed	-14863
▁Tak	-14864
▁Sale	-14865
▁atop	-14866
▁Apart	-14867
▁Chase	-14868
▁Phone	-14869
▁rehab	-14870
▁tours	-14871
▁Nearly	-14872
▁castles	-14873
▁dragged	-14874
▁erected	-14875
▁qualify	-14876
▁reactor	-14877
▁tragedy	-14878
▁Advertis	-14879
▁Something	-14880
▁irregular	-14881
▁justified	-14882
▁securities	-14883
▁strengthened	-14884
hl	-14885
▁2)	-14886
edar	-14887
unge	-14888
▁Own	-14889
immer	-14890
▁Dana	-14891
▁Sold	-14892
▁Active	-14893
▁Bolton	-14894
▁blacks	-14895
▁heroes	-14896
▁resume	-14897
▁thrust	-14898
▁Belgian	-14899
▁sixteen	-14900
▁sacrific	-14901
▁spinning	-14902
▁threaten	-14903
▁decorated	-14904
▁Madagascar	-14905
▁demonstrates	-14906
65	-14907
dd	-14908
web	-14909
▁#2	-14910
▁..	-14911
orts	-14912
▁$15	-14913
acies	-14914
▁Bark	-14915
▁Hein	-14916
▁Eagle	-14917
▁Stars	-14918
▁defic	-14919
athetic	-14920
▁relied	-14921
▁twisted	-14922
▁parameters	-14923
▁subspecies	-14924
▁demographic	-14925
%)	-14926
Man	-14927
fur	-14928
inh	-14929
avid	-14930
▁GPS	-14931
▁Ferr	-14932
keeper	-14933
▁Brain	-14934
▁smugg	-14935
▁stump	-14936
▁appealed	-14937
▁disputes	-14938
▁rotation	-14939
▁Discovery	-14940
▁reflection	-14941
▁confrontation	-14942
▁precipitation	-14943
idt	-14944
▁BE	-14945
▁GT	-14946
▁Ale	-14947
▁dys	-14948
Brien	-14949
clair	-14950
▁Host	-14951
ainted	-14952
imedia	-14953
retion	-14954
▁firef	-14955
▁Apollo	-14956
▁touring	-14957
▁volcano	-14958
▁balanced	-14959
▁enlisted	-14960
▁declining	-14961
▁affordable	-14962
▁dimensions	-14963
umm	-14964
inea	-14965
stan	-14966
▁cit	-14967
▁flip	-14968
▁Fowler	-14969
▁Galaxy	-14970
▁prints	-14971
▁Alberta	-14972
▁sensors	-14973
▁defendants	-14974
▁expressing	-14975
▁meaningful	-14976
▁entertaining	-14977
IO	-14978
Of	-14979
600	-14980
ahn	-14981
url	-14982
▁cu	-14983
▁Ker	-14984
▁Nan	-14985
speed	-14986
stock	-14987
▁extr	-14988
▁toug	-14989
▁Nicol	-14990
▁Round	-14991
▁median	-14992
▁offset	-14993
attering	-14994
ifferent	-14995
▁Popular	-14996
▁bombard	-14997
▁dynasty	-14998
▁planted	-14999
▁aviation	-15000
[...]
