<pad>	0
<unk>	0
<s>	0
</s>	0
▁이	-0
으로	-1
▁있	-2
▁대	-3
▁1	-4
▁지	-5
에서	-6
▁수	-7
▁2	-8
했다	-9
▁사	-10
▁기	-11
▁전	-12
▁시	-13
▁등	-14
▁한	-15
▁가	-16
이다	-17
▁있다	-18
▁것	-19
하는	-20
▁정	-21
▁제	-22
하고	-23
▁공	-24
▁위	-25
▁주	-26
▁그	-27
▁'	-28
▁경	-29
▁중	-30
▁"	-31
▁인	-32
▁일	-33
▁보	-34
▁자	-35
▁아	-36
▁국	-37
00	-38
▁부	-39
▁3	-40
▁관	-41
▁상	-42
▁조	-43
▁다	-44
▁개	-45
▁의	-46
▁하	-47
▁유	-48
▁나	-49
▁선	-50
▁소	-51
▁도	-52
▁최	-53
▁고	-54
▁연	-55
▁발	-56
▁비	-57
▁통	-58
▁내	-59
▁20	-60
▁모	-61
▁오	-62
▁신	-63
▁해	-64
▁구	-65
한다	-66
▁있는	-67
▁마	-68
▁미	-69
▁5	-70
▁방	-71
▁4	-72
▁예	-73
었다	-74
▁서	-75
▁만	-76
▁현	-77
▁지난	-78
▁여	-79
▁교	-80
▁문	-81
까지	-82
▁동	-83
▁진	-84
▁않	-85
이라	-86
▁강	-87
▁말	-88
▁실	-89
▁세	-90
▁추	-91
▁우	-92
부터	-93
▁없	-94
▁성	-95
▁안	-96
지만	-97
▁원	-98
▁어	-99
▁확	-100
▁분	-101
▁따	-102
▁장	-103
▁김	-104
▁대한	-105
▁영	-106
들이	-107
▁계	-108
된다	-109
▁지역	-110
▁특	-111
▁노	-112
▁위해	-113
에는	-114
▁무	-115
▁결	-116
▁바	-117
▁불	-118
적인	-119
▁생	-120
▁재	-121
▁때	-122
▁6	-123
면서	-124
▁및	-125
▁201	-126
▁반	-127
▁올	-128
적으로	-129
▁‘	-130
▁거	-131
▁설	-132
▁당	-133
▁한다	-134
에게	-135
▁후	-136
▁차	-137
▁건	-138
▁또	-139
▁참	-140
▁스	-141
▁적	-142
▁받	-143
▁사업	-144
▁19	-145
▁청	-146
▁행	-147
됐다	-148
▁운	-149
하기	-150
▁통해	-151
▁7	-152
▁더	-153
▁한국	-154
▁매	-155
였다	-156
▁활	-157
▁학	-158
▁단	-159
▁것으로	-160
▁감	-161
▁“	-162
▁역	-163
▁출	-164
들의	-165
▁열	-166
▁남	-167
▁10	-168
▁밝	-169
▁입	-170
▁평	-171
▁8	-172
▁되	-173
하다	-174
▁함	-175
▁과	-176
▁포	-177
으며	-178
▁회	-179
하게	-180
▁지원	-181
▁산	-182
▁광	-183
▁명	-184
▁총	-185
▁프	-186
▁배	-187
▁정부	-188
▁위한	-189
▁많	-190
▁말했다	-191
▁민	-192
▁9	-193
▁달	-194
▁직	-195
장은	-196
▁증	-197
겠다	-198
▁투	-199
▁함께	-200
혔다	-201
▁작	-202
들은	-203
사업	-204
▁요	-205
▁금	-206
▁높	-207
▁협	-208
▁충	-209
▁물	-210
았다	-211
도록	-212
▁밝혔다	-213
▁같	-214
▁알	-215
▁진행	-216
▁임	-217
▁이번	-218
▁체	-219
▁했다	-220
▁이어	-221
▁양	-222
에서는	-223
▁앞	-224
▁박	-225
▁초	-226
이라고	-227
위원	-228
▁각	-229
▁농	-230
▁점	-231
자는	-232
▁두	-233
▁외	-234
▁필	-235
에도	-236
▁할	-237
▁집	-238
▁파	-239
▁새	-240
▁피	-241
▁규	-242
20	-243
▁등을	-244
▁대해	-245
▁관계	-246
▁추진	-247
▁판	-248
000	-249
▁들	-250
▁관련	-251
▁간	-252
억원	-253
하여	-254
▁종	-255
▁군	-256
▁기업	-257
▁심	-258
),	-259
▁대표	-260
▁북	-261
보다	-262
▁업	-263
사를	-264
▁맞	-265
▁운영	-266
▁법	-267
되는	-268
▁교육	-269
▁본	-270
기업	-271
▁검	-272
하며	-273
▁못	-274
▁계획	-275
▁환	-276
▁경우	-277
▁처	-278
▁이후	-279
▁아니	-280
▁때문	-281
▁문제	-282
▁올해	-283
▁것이다	-284
▁이상	-285
▁지난해	-286
▁화	-287
장을	-288
▁취	-289
▁경기	-290
통령	-291
▁따라	-292
▁11	-293
▁목	-294
하지	-295
센터	-296
▁가능	-297
▁서울	-298
▁저	-299
회의	-300
▁대통령	-301
졌다	-302
학교	-303
▁경제	-304
▁변	-305
▁데	-306
▁미국	-307
▁12	-308
▁예정	-309
기를	-310
리는	-311
▁일본	-312
▁창	-313
지역	-314
성을	-315
▁프로	-316
▁필요	-317
▁대상	-318
들을	-319
해야	-320
▁시작	-321
▁사용	-322
▁다양	-323
▁없다	-324
▁200	-325
▁같은	-326
▁참여	-327
▁제공	-328
▁근	-329
▁△	-330
▁호	-331
▁게	-332
교육	-333
력을	-334
▁합	-335
하였다	-336
▁치	-337
비스	-338
대로	-339
▁약	-340
▁하는	-341
▁현재	-342
리를	-343
▁기자	-344
라는	-345
▁의원	-346
▁특히	-347
▁복	-348
▁광주	-349
▁독	-350
▁국가	-351
▁크	-352
▁것이	-353
▁타	-354
▁세계	-355
▁가장	-356
▁사회	-357
▁것은	-358
▁논	-359
이나	-360
▁완	-361
르면	-362
▁다양한	-363
▁국내	-364
지는	-365
되고	-366
지를	-367
라고	-368
▁이날	-369
▁전국	-370
▁채	-371
▁줄	-372
▁결과	-373
장이	-374
▁이용	-375
▁우리	-376
▁삼	-377
▁살	-378
만원	-379
▁편	-380
▁사람	-381
▁토	-382
▁태	-383
▁된다	-384
▁15	-385
산업	-386
▁따르면	-387
▁상황	-388
▁시민	-389
▁만들	-390
▁속	-391
▁표	-392
하면	-393
▁에	-394
▁그러	-395
▁주민	-396
▁담	-397
▁뒤	-398
▁있도록	-399
▁마련	-400
화를	-401
▁30	-402
▁국민	-403
▁준	-404
▁큰	-405
▁늘	-406
▁개발	-407
▁리	-408
▁S	-409
▁중국	-410
▁음	-411
▁드	-412
위원회	-413
(1	-414
▁순	-415
▁최근	-416
▁들어	-417
▁정책	-418
▁A	-419
정을	-420
▁홍	-421
▁또한	-422
▁연구	-423
기에	-424
▁모두	-425
이라는	-426
▁승	-427
▁찾	-428
▁대구	-429
▁산업	-430
▁돌	-431
▁형	-432
스트	-433
▁18	-434
▁축	-435
▁많은	-436
▁확대	-437
▁발생	-438
▁손	-439
▁전문	-440
▁향	-441
하겠다	-442
기관	-443
리고	-444
서는	-445
▁넘	-446
자가	-447
시설	-448
▁코	-449
▁기록	-450
▁카	-451
▁증가	-452
하면서	-453
▁문화	-454
▁안전	-455
▁제주	-456
▁다른	-457
사는	-458
▁기술	-459
▁있어	-460
▁하지만	-461
▁학생	-462
문화	-463
들에게	-464
..	-465
다는	-466
지고	-467
▁선정	-468
이고	-469
▁번	-470
▁기대	-471
그램	-472
▁접	-473
▁절	-474
▁한편	-475
회를	-476
시간	-477
▁등의	-478
▁항	-479
되었다	-480
▁관계자는	-481
▁(	-482
는데	-483
성이	-484
▁도시	-485
▁온	-486
▁월	-487
▁K	-488
▁발표	-489
운데	-490
사가	-491
▁권	-492
▁좋	-493
▁기준	-494
▁갖	-495
상을	-496
▁철	-497
▁투자	-498
으나	-499
▁활동	-500
▁가운데	-501
▁그는	-502
▁개최	-503
시아	-504
▁설명	-505
레이	-506
▁부산	-507
로운	-508
▁로	-509
도시	-510
▁예정이다	-511
은행	-512
도로	-513
시장	-514
▁효	-515
▁자신	-516
▁이에	-517
▁식	-518
▁오는	-519
▁등이	-520
▁것을	-521
▁평가	-522
▁첫	-523
혁신	-524
지원	-525
▁포함	-526
경제	-527
▁조성	-528
는다	-529
▁지방	-530
▁피해	-531
▁환경	-532
▁서비스	-533
▁때문에	-534
▁용	-535
▁년	-536
▁걸	-537
▁메	-538
▁하고	-539
▁구성	-540
주의	-541
▁나타	-542
%)	-543
▁될	-544
▁시장	-545
▁설치	-546
▁개선	-547
▁언	-548
▁브	-549
이며	-550
▁폭	-551
▁시간	-552
▁디	-553
▁사실	-554
▁허	-555
▁16	-556
안을	-557
▁강화	-558
▁아이	-559
▁13	-560
▁이를	-561
▁천	-562
▁곳	-563
랜드	-564
되어	-565
▁14	-566
자의	-567
▁울	-568
▁중심	-569
▁없는	-570
▁책	-571
▁활용	-572
의회	-573
가는	-574
기도	-575
거나	-576
▁면	-577
▁하나	-578
▁17	-579
▁누	-580
왔다	-581
▁행정	-582
0.	-583
▁라	-584
▁규모	-585
▁그러나	-586
났다	-587
▁100	-588
▁적극	-589
▁공동	-590
▁지속	-591
▁정치	-592
▁측	-593
▁야	-594
▁프로그램	-595
▁힘	-596
▁국제	-597
▁트	-598
▁열린	-599
▁최대	-600
에서도	-601
리가	-602
▁아니라	-603
명이	-604
들과	-605
▁당시	-606
▁친	-607
연구	-608
▁인천	-609
기가	-610
부는	-611
▁분야	-612
▁생산	-613
▁베	-614
▁급	-615
▁발전	-616
▁예산	-617
▁글	-618
▁L	-619
▁금융	-620
도를	-621
▁확인	-622
▁▲	-623
▁계획이다	-624
▁방문	-625
마트	-626
환경	-627
제로	-628
▁내용	-629
▁다음	-630
▁대학	-631
▁조사	-632
▁관광	-633
▁질	-634
▁국회	-635
▁수출	-636
▁폐	-637
했고	-638
▁학교	-639
기술	-640
▁잘	-641
관리	-642
일까지	-643
▁비롯	-644
▁요구	-645
자를	-646
19	-647
▁25	-648
▁판매	-649
0%	-650
원이	-651
▁주요	-652
▁C	-653
▁선수	-654
일부터	-655
▁벌	-656
치를	-657
자리	-658
▁대비	-659
단체	-660
인다	-661
원은	-662
개발	-663
▁육	-664
▁이유	-665
▁다시	-666
▁사이	-667
▁백	-668
▁후보	-669
위를	-670
▁해당	-671
이는	-672
사회	-673
▁현대	-674
의를	-675
도가	-676
원을	-677
▁날	-678
▁결정	-679
▁일부	-680
▁생각	-681
▁실시	-682
▁막	-683
▁어려	-684
▁전망	-685
▁직접	-686
리아	-687
이라며	-688
▁민주	-689
처럼	-690
▁버	-691
▁커	-692
▁건설	-693
▁모든	-694
▁최고	-695
▁추가	-696
식을	-697
▁대상으로	-698
▁제품	-699
▁확보	-700
▁전체	-701
▁애	-702
렸다	-703
▁황	-704
스템	-705
▁관심	-706
▁갈	-707
▁새로운	-708
▁병	-709
▁수준	-710
▁관리	-711
명을	-712
사의	-713
▁있으며	-714
기로	-715
▁성장	-716
▁북한	-717
▁알려	-718
▁시행	-719
▁구축	-720
이었다	-721
▁패	-722
▁송	-723
▁있었다	-724
민국	-725
▁경찰	-726
했던	-727
▁플	-728
니다	-729
▁내년	-730
▁눈	-731
▁현장	-732
▁중요	-733
▁높은	-734
▁동안	-735
▁핵	-736
▁경쟁	-737
▁참석	-738
▁공공	-739
▁기존	-740
▁주장	-741
▁분석	-742
운동	-743
발전	-744
▁소비	-745
제를	-746
▁공개	-747
▁있다는	-748
페이	-749
명의	-750
▁강조	-751
▁대전	-752
▁보고	-753
▁범	-754
기는	-755
시는	-756
▁끝	-757
▁영향	-758
▁모습	-759
▁생활	-760
▁오후	-761
▁지적	-762
▁노력	-763
수는	-764
▁됐다	-765
▁처음	-766
▁활성	-767
▁감소	-768
▁기간	-769
▁적용	-770
했다고	-771
한국	-772
▁정보	-773
▁만큼	-774
선을	-775
계획	-776
대표	-777
년에	-778
▁특별	-779
▁자유	-780
▁극	-781
▁않고	-782
대를	-783
동차	-784
▁더욱	-785
▁수도	-786
▁이런	-787
▁쓰	-788
▁전북	-789
원의	-790
▁사건	-791
▁청년	-792
▁신청	-793
▁낮	-794
▁업무	-795
정부	-796
▁일반	-797
▁과정	-798
▁등에	-799
▁24	-800
▁물론	-801
▁역할	-802
▁빠	-803
▁준비	-804
(2	-805
점을	-806
▁혁신	-807
▁미래	-808
▁네	-809
▁울산	-810
▁이뤄	-811
▁의미	-812
▁장관	-813
▁21	-814
▁199	-815
▁2017	-816
▁때문이다	-817
▁응	-818
▁존	-819
▁선거	-820
공사	-821
▁방송	-822
▁대한민국	-823
금을	-824
▁여러	-825
▁I	-826
시에	-827
인이	-828
▁충북	-829
▁행사	-830
▁볼	-831
▁받아	-832
▁해외	-833
▁있을	-834
▁삼성	-835
▁2019	-836
하였	-837
진다	-838
▁골	-839
.5	-840
▁전남	-841
▁윤	-842
복지	-843
어나	-844
▁지정	-845
▁악	-846
▁않은	-847
▁참가	-848
▁22	-849
로벌	-850
▁따른	-851
지가	-852
대회	-853
▁상승	-854
▁이미	-855
인의	-856
과를	-857
▁성공	-858
소년	-859
▁의견	-860
자로	-861
▁예상	-862
▁위치	-863
▁잡	-864
▁길	-865
주시	-866
▁홈	-867
▁대응	-868
▁건강	-869
▁펼	-870
▁각각	-871
▁이는	-872
도는	-873
▁도입	-874
▁협력	-875
시키	-876
안전	-877
민주	-878
▁또는	-879
▁정상	-880
▁23	-881
▁고객	-882
▁이전	-883
▁시설	-884
▁해결	-885
정책	-886
▁지금	-887
동안	-888
개월	-889
▁중소	-890
인을	-891
▁우수	-892
이터	-893
스는	-894
▁희	-895
활동	-896
파트	-897
▁위원	-898
▁M	-899
▁만들어	-900
▁왕	-901
지로	-902
도의	-903
▁평균	-904
▁노동	-905
▁여성	-906
▁우려	-907
계를	-908
▁B	-909
▁사진	-910
▁등으로	-911
▁차지	-912
었던	-913
18	-914
수를	-915
년부터	-916
▁상태	-917
했지만	-918
▁찾아	-919
▁없이	-920
씨는	-921
▁교통	-922
장의	-923
▁클	-924
▁26	-925
▁27	-926
▁테	-927
약을	-928
▁검찰	-929
▁이름	-930
▁된	-931
권을	-932
▁기관	-933
었고	-934
업체	-935
▁탄	-936
원에	-937
▁얻	-938
▁집중	-939
▁28	-940
▁보인다	-941
▁떨	-942
▁지난달	-943
▁별	-944
▁기념	-945
▁않았다	-946
▁키	-947
▁콘	-948
지에	-949
▁맡	-950
했으며	-951
리스	-952
▁[	-953
▁되었다	-954
▁책임	-955
▁가격	-956
주택	-957
▁고용	-958
▁침	-959
으면	-960
되지	-961
▁글로벌	-962
너지	-963
부분	-964
이트	-965
▁일자리	-966
▁뜻	-967
부가	-968
정보	-969
▁최초	-970
▁T	-971
조사	-972
라인	-973
일보	-974
▁기반	-975
수가	-976
▁대책	-977
▁자리	-978
▁앞서	-979
▁업체	-980
▁사고	-981
과의	-982
밖에	-983
▁역시	-984
.1	-985
▁스마트	-986
▁밀	-987
)'	-988
대에	-989
다고	-990
▁대회	-991
▁계속	-992
▁목표	-993
▁공급	-994
▁상품	-995
30	-996
▁팀	-997
자인	-998
▁그리고	-999
력이	-1000
▁가족	-1001
년간	-1002
나라	-1003
▁고려	-1004
50	-1005
▁개정	-1006
▁50	-1007
▁뿐	-1008
▁작품	-1009
▁그의	-1010
▁민간	-1011
▁난	-1012
▁품	-1013
▁경영	-1014
▁레	-1015
▁인구	-1016
▁청와	-1017
▁202	-1018
▁유지	-1019
▁크게	-1020
▁느	-1021
.2	-1022
▁귀	-1023
한다는	-1024
.3	-1025
▁좋은	-1026
▁휴	-1027
▁반영	-1028
불어	-1029
감을	-1030
▁않는	-1031
재인	-1032
▁제작	-1033
움을	-1034
▁떨어	-1035
▁보여	-1036
▁놓	-1037
스를	-1038
▁정부가	-1039
▁체험	-1040
▁많이	-1041
▁활성화	-1042
▁논의	-1043
▁공연	-1044
▁중앙	-1045
▁몰	-1046
▁오전	-1047
▁설립	-1048
▁설명했다	-1049
치는	-1050
▁촉	-1051
▁0.	-1052
▁29	-1053
▁앞으로	-1054
▁《	-1055
▁거래	-1056
▁석	-1057
▁조선	-1058
▁영화	-1059
▁풍	-1060
음을	-1061
▁수상	-1062
▁받았다	-1063
라도	-1064
교통	-1065
하기로	-1066
세를	-1067
전을	-1068
체육	-1069
▁역사	-1070
▁떠	-1071
...	-1072
냈다	-1073
▁뉴	-1074
▁있고	-1075
▁부담	-1076
장과	-1077
▁어린	-1078
▁차량	-1079
▁홍보	-1080
로부터	-1081
주는	-1082
자체	-1083
시가	-1084
▁혐	-1085
서를	-1086
▁자신의	-1087
▁강조했다	-1088
km	-1089
▁대부분	-1090
스터	-1091
대학	-1092
▁사업을	-1093
.4	-1094
▁최종	-1095
▁탈	-1096
▁인정	-1097
원에서	-1098
▁청와대	-1099
장에서	-1100
▁G	-1101
료를	-1102
▁공간	-1103
10	-1104
대학교	-1105
▁구조	-1106
▁개인	-1107
성과	-1108
한다고	-1109
업을	-1110
반기	-1111
▁아닌	-1112
▁먹	-1113
▁봉	-1114
▁주택	-1115
부를	-1116
(3	-1117
드는	-1118
▁종합	-1119
르는	-1120
▁기본	-1121
.6	-1122
▁D	-1123
▁2016	-1124
.7	-1125
▁엄	-1126
세먼	-1127
▁즐	-1128
▁정부는	-1129
등학교	-1130
▁제시	-1131
▁더불어	-1132
물을	-1133
관광	-1134
자치	-1135
▁핵심	-1136
리에	-1137
▁시는	-1138
▁선보	-1139
▁시스템	-1140
학생	-1141
개의	-1142
▁통한	-1143
자들이	-1144
▁얼	-1145
로는	-1146
▁필요하다	-1147
하려	-1148
▁방식	-1149
▁매출	-1150
.8	-1151
▁전문가	-1152
▁유치	-1153
▁아파트	-1154
▁긴	-1155
대의	-1156
▁아니다	-1157
건설	-1158
▁필요한	-1159
▁인사	-1160
공항	-1161
▁검토	-1162
▁착	-1163
▁돌아	-1164
▁받고	-1165
%,	-1166
▁그런	-1167
원으로	-1168
▁나타났다	-1169
▁마을	-1170
스의	-1171
해서	-1172
▁2018	-1173
국의	-1174
▁자체	-1175
▁본격	-1176
▁감독	-1177
이어	-1178
▁브랜드	-1179
▁역할을	-1180
▁이해	-1181
▁터	-1182
▁정부의	-1183
당은	-1184
인은	-1185
서비스	-1186
그룹	-1187
소를	-1188
▁우선	-1189
▁거쳐	-1190
▁부분	-1191
인트	-1192
',	-1193
▁방침	-1194
▁외국	-1195
.9	-1196
▁제기	-1197
▁이야	-1198
▁의원은	-1199
▁전략	-1200
▁198	-1201
▁조직	-1202
▁은	-1203
▁혼	-1204
▁압	-1205
란다	-1206
▁만에	-1207
상이	-1208
▁규제	-1209
▁판단	-1210
▁받은	-1211
사와	-1212
▁남북	-1213
▁각종	-1214
▁문재인	-1215
▁P	-1216
규모	-1217
▁블	-1218
기간	-1219
년까지	-1220
생활	-1221
부의	-1222
▁있다고	-1223
▁전년	-1224
▁지자체	-1225
▁주변	-1226
▁잠	-1227
▁자연	-1228
거리	-1229
협회	-1230
▁격	-1231
▁공모	-1232
사고	-1233
▁드러	-1234
▁있지만	-1235
▁인해	-1236
▁중심으로	-1237
▁즉	-1238
▁시즌	-1239
▁의료	-1240
▁인터	-1241
▁통합	-1242
▁부족	-1243
▁사회적	-1244
▁F	-1245
▁40	-1246
자와	-1247
▁전시	-1248
▁둘	-1249
▁보호	-1250
▁기능	-1251
▁수요	-1252
▁스타	-1253
라이	-1254
2019	-1255
▁체결	-1256
▁방법	-1257
▁독립	-1258
▁제외	-1259
▁충남	-1260
▁지급	-1261
▁출시	-1262
▁먼	-1263
▁변화	-1264
▁전달	-1265
▁수사	-1266
▁돼	-1267
▁끌	-1268
▁전기	-1269
▁캐	-1270
▁풀	-1271
▁넘어	-1272
▁나오	-1273
▁세종	-1274
마다	-1275
▁현실	-1276
라며	-1277
어난	-1278
스타	-1279
▁자동차	-1280
교육청	-1281
비를	-1282
경기	-1283
▁신규	-1284
▁답	-1285
금융	-1286
▁바란다	-1287
▁이루	-1288
▁이동	-1289
▁31	-1290
▁이와	-1291
▁경기도	-1292
▁농업	-1293
▁하락	-1294
자들의	-1295
▁국토	-1296
er	-1297
▁컨	-1298
스로	-1299
▁공식	-1300
▁분양	-1301
▁싶	-1302
부에	-1303
▁근로	-1304
▁사례	-1305
▁중인	-1306
▁불법	-1307
▁이러	-1308
장에	-1309
▁번째	-1310
가구	-1311
▁중소기업	-1312
거래	-1313
▁비판	-1314
▁되는	-1315
▁논란	-1316
▁삶	-1317
▁장애	-1318
월부터	-1319
이자	-1320
▁대통령은	-1321
가를	-1322
▁투입	-1323
으로는	-1324
▁안정	-1325
이번	-1326
차를	-1327
대가	-1328
롯데	-1329
▁단체	-1330
▁요청	-1331
▁전통	-1332
▁효과	-1333
▁교수	-1334
▁기획	-1335
▁머	-1336
▁방안	-1337
▁나서	-1338
▁정도	-1339
제가	-1340
▁나온	-1341
▁죽	-1342
▁전환	-1343
동산	-1344
투자	-1345
▁운동	-1346
▁쉽	-1347
문을	-1348
▁꾸	-1349
▁예방	-1350
▁처리	-1351
▁결국	-1352
▁합의	-1353
명으로	-1354
량을	-1355
%),	-1356
▁제출	-1357
마을	-1358
장으로	-1359
▁것도	-1360
▁비롯해	-1361
▁미세먼	-1362
▁소속	-1363
▁바로	-1364
▁프랑	-1365
▁보면	-1366
되면서	-1367
▁취업	-1368
▁소재	-1369
▁견	-1370
▁그동안	-1371
▁청소년	-1372
전히	-1373
▁반면	-1374
▁어렵	-1375
▁최저	-1376
단지	-1377
▁전했다	-1378
▁발굴	-1379
▁SK	-1380
▁매우	-1381
텐츠	-1382
대한	-1383
하도록	-1384
▁의혹	-1385
스가	-1386
로서	-1387
▁의해	-1388
▁어린이	-1389
▁사랑	-1390
▁만나	-1391
▁인근	-1392
▁상당	-1393
▁제조	-1394
▁않는다	-1395
▁관한	-1396
▁2020	-1397
▁창업	-1398
가지	-1399
▁발견	-1400
전자	-1401
시민	-1402
▁공유	-1403
제는	-1404
정이	-1405
▁반대	-1406
▁뛰	-1407
와의	-1408
(4	-1409
▁이러한	-1410
▁연계	-1411
훈련	-1412
일에	-1413
▁향후	-1414
▁사전	-1415
▁겪	-1416
▁2015	-1417
▁유럽	-1418
▁않다	-1419
▁구매	-1420
▁대형	-1421
예술	-1422
포츠	-1423
린다	-1424
쳤다	-1425
▁영향을	-1426
무원	-1427
▁경북	-1428
▁경험	-1429
▁페	-1430
회가	-1431
▁방향	-1432
리그	-1433
▁사망	-1434
▁도로	-1435
본부	-1436
으로써	-1437
디어	-1438
되면	-1439
분기	-1440
▁선택	-1441
케이	-1442
림픽	-1443
경찰	-1444
지도	-1445
▁음악	-1446
▁헌	-1447
▁영업	-1448
▁갖고	-1449
▁한다는	-1450
회는	-1451
▁혐의	-1452
in	-1453
단은	-1454
주민	-1455
▁암	-1456
▁채용	-1457
▁창출	-1458
▁징	-1459
▁LG	-1460
구역	-1461
▁재정	-1462
▁러	-1463
▁모델	-1464
▁연결	-1465
▁있게	-1466
하거나	-1467
▁독일	-1468
▁국회의	-1469
▁수립	-1470
정한	-1471
두고	-1472
()	-1473
들도	-1474
평가	-1475
▁실제	-1476
▁복지	-1477
▁출신	-1478
▁존재	-1479
▁롯데	-1480
워크	-1481
지방	-1482
▁도내	-1483
▁어떤	-1484
습니다	-1485
당이	-1486
없이	-1487
▁기여	-1488
▁/	-1489
트를	-1490
▁가능하다	-1491
섰다	-1492
위에	-1493
임을	-1494
▁주목	-1495
(5	-1496
▁지하	-1497
▁비교	-1498
▁과정에서	-1499
▁낙	-1500
▁감사	-1501
▁-	-1502
▁와	-1503
▁연속	-1504
위는	-1505
▁진출	-1506
on	-1507
▁씨	-1508
▁평화	-1509
▁문제가	-1510
▁두고	-1511
▁인상	-1512
▁소통	-1513
지구	-1514
협력	-1515
▁소득	-1516
▁희망	-1517
가능	-1518
군은	-1519
공원	-1520
▁캠	-1521
했다는	-1522
▁과거	-1523
회담	-1524
▁비해	-1525
▁대통령이	-1526
사로	-1527
과학	-1528
▁행복	-1529
▁제도	-1530
억원을	-1531
움이	-1532
소득	-1533
60	-1534
▁직원	-1535
프라	-1536
지막	-1537
▁확산	-1538
하기도	-1539
▁위험	-1540
▁목소	-1541
▁N	-1542
▁아직	-1543
▁제안	-1544
▁최소	-1545
성에	-1546
보고	-1547
▁높아	-1548
▁건축	-1549
▁통과	-1550
▁먼저	-1551
▁보다	-1552
▁이끌	-1553
▁보유	-1554
▁조합	-1555
이오	-1556
▁있었	-1557
▁나가	-1558
기의	-1559
대는	-1560
임금	-1561
▁중이다	-1562
▁E	-1563
단을	-1564
▁변경	-1565
선거	-1566
▁그렇	-1567
▁비롯한	-1568
서관	-1569
관계	-1570
▁배우	-1571
스코	-1572
▁대표는	-1573
지의	-1574
▁당진	-1575
▁혜	-1576
▁매년	-1577
▁하루	-1578
▁회의	-1579
▁퇴	-1580
or	-1581
되며	-1582
▁지도	-1583
▁점검	-1584
▁제대로	-1585
행을	-1586
세계	-1587
▁확정	-1588
▁능	-1589
갔다	-1590
보험	-1591
▁조치	-1592
식품	-1593
▁않을	-1594
▁마지막	-1595
▁중요한	-1596
사에	-1597
▁신고	-1598
균형	-1599
▁숙	-1600
▁선발	-1601
산물	-1602
정은	-1603
구를	-1604
▁나라	-1605
▁가능성이	-1606
▁비용	-1607
▁재판	-1608
▁사무	-1609
세대	-1610
BS	-1611
학과	-1612
무리	-1613
들에	-1614
▁지역의	-1615
▁건립	-1616
▁담당	-1617
수의	-1618
▁홈페이	-1619
▁겨	-1620
▁방안을	-1621
프로	-1622
이지	-1623
▁수익	-1624
an	-1625
▁가입	-1626
▁형태	-1627
군의	-1628
이기	-1629
▁영국	-1630
▁부동산	-1631
▁토론	-1632
정에	-1633
▁전쟁	-1634
▁▶	-1635
▁몸	-1636
치고	-1637
▁등록	-1638
▁돈	-1639
롭게	-1640
▁동시에	-1641
별로	-1642
▁지원을	-1643
▁않아	-1644
▁옥	-1645
▁이하	-1646
▁기초	-1647
가가	-1648
르게	-1649
▁제한	-1650
▁과학	-1651
▁종목	-1652
▁197	-1653
되었	-1654
▁무엇	-1655
스크	-1656
▁수행	-1657
▁온라인	-1658
상의	-1659
▁이달	-1660
▁문제를	-1661
대책	-1662
사진	-1663
▁가까	-1664
민주당	-1665
리카	-1666
통신	-1667
▁같다	-1668
▁지지	-1669
▁분위	-1670
자원	-1671
▁시청	-1672
▁기록했다	-1673
하던	-1674
▁부문	-1675
▁서비스를	-1676
▁우승	-1677
15	-1678
▁팔	-1679
특별	-1680
성장	-1681
▁소개	-1682
▁게임	-1683
적을	-1684
▁활동을	-1685
▁루	-1686
하자	-1687
▁바탕	-1688
▁받을	-1689
▁출연	-1690
▁전주	-1691
격을	-1692
단이	-1693
드를	-1694
노동	-1695
이를	-1696
▁입장	-1697
랫폼	-1698
진흥	-1699
▁갈등	-1700
▁잇	-1701
겠다는	-1702
▁않았	-1703
▁덧	-1704
▁같이	-1705
자들은	-1706
▁장기	-1707
년을	-1708
▁대신	-1709
▁계약	-1710
년에는	-1711
▁마음	-1712
조합	-1713
▁수입	-1714
▁녹	-1715
나는	-1716
▁인한	-1717
▁의견을	-1718
촬영	-1719
▁방침이다	-1720
건을	-1721
시의	-1722
▁가능한	-1723
니아	-1724
▁너	-1725
다가	-1726
▁<	-1727
▁단계	-1728
▁아시아	-1729
▁표현	-1730
시스템	-1731
반도	-1732
▁퍼	-1733
▁되어	-1734
▁어려운	-1735
리의	-1736
▁60	-1737
이가	-1738
▁업계	-1739
하지만	-1740
▁앞두고	-1741
▁항공	-1742
▁몇	-1743
▁육성	-1744
대상	-1745
▁무역	-1746
▁섬	-1747
▁협의	-1748
▁가지	-1749
▁이벤	-1750
으로도	-1751
▁엔	-1752
당의	-1753
연합	-1754
량이	-1755
▁불과	-1756
이익	-1757
▁깊	-1758
리지	-1759
율이	-1760
머니	-1761
했으나	-1762
▁국정	-1763
▁상대	-1764
병원	-1765
▁촉구	-1766
▁은행	-1767
▁달리	-1768
▁졸	-1769
서울	-1770
라마	-1771
▁좌	-1772
▁프로젝	-1773
국제	-1774
▁하지	-1775
지털	-1776
▁이들은	-1777
▁줄어	-1778
부와	-1779
12	-1780
40	-1781
으로서	-1782
▁이들	-1783
랐다	-1784
▁납	-1785
포인트	-1786
트남	-1787
▁공정	-1788
▁어느	-1789
▁없어	-1790
▁나선	-1791
르고	-1792
▁인식	-1793
▁덧붙	-1794
▁관심을	-1795
달러	-1796
▁빈	-1797
▁에너지	-1798
▁못한	-1799
▁서로	-1800
▁구체	-1801
회에서	-1802
▁위반	-1803
▁놀	-1804
▁만든	-1805
세가	-1806
▁억	-1807
▁히	-1808
점이	-1809
▁2014	-1810
지지	-1811
군이	-1812
▁전망이다	-1813
실에서	-1814
▁보건	-1815
▁근무	-1816
벤처	-1817
구는	-1818
상공	-1819
▁입주	-1820
▁조례	-1821
▁다만	-1822
▁미세먼지	-1823
▁지나	-1824
▁오늘	-1825
▁이상의	-1826
▁이사	-1827
▁수밖에	-1828
▁설계	-1829
▁예술	-1830
▁주제로	-1831
▁모집	-1832
▁지속적으로	-1833
▁정신	-1834
▁해소	-1835
▁수도권	-1836
▁원내	-1837
사항	-1838
실을	-1839
▁일이	-1840
번째	-1841
17	-1842
▁대출	-1843
월에	-1844
▁국립	-1845
▁주거	-1846
▁관련해	-1847
▁심각	-1848
▁자유한국	-1849
▁자치	-1850
▁혜택	-1851
간의	-1852
업계	-1853
기준	-1854
▁쇼	-1855
."	-1856
사업을	-1857
도에	-1858
▁임시	-1859
▁맞아	-1860
▁콘텐츠	-1861
럼프	-1862
▁비중	-1863
단의	-1864
위가	-1865
▁U	-1866
▁숨	-1867
▁유명	-1868
▁올라	-1869
▁꿈	-1870
▁치료	-1871
▁가진	-1872
률은	-1873
부모	-1874
13	-1875
▁2010	-1876
적이	-1877
▁러시아	-1878
▁알려졌다	-1879
하는데	-1880
▁조정	-1881
▁최선을	-1882
▁바탕으로	-1883
▁펼쳐	-1884
제품	-1885
▁최초로	-1886
▁성과	-1887
원과	-1888
▁헤	-1889
▁유통	-1890
▁규모의	-1891
▁붙	-1892
증을	-1893
▁언론	-1894
▁내놓	-1895
▁해양	-1896
▁프랑스	-1897
▁익	-1898
버스	-1899
▁프리	-1900
▁되고	-1901
전문	-1902
,000	-1903
▁여행	-1904
구의	-1905
▁중단	-1906
▁전자	-1907
▁이유로	-1908
화된	-1909
가의	-1910
▁파악	-1911
년대	-1912
▁대해서는	-1913
▁우리나라	-1914
자에게	-1915
▁못하고	-1916
운영	-1917
있는	-1918
▁해야	-1919
시켜	-1920
▁명이	-1921
에선	-1922
구청	-1923
관을	-1924
▁있던	-1925
▁달성	-1926
서도	-1927
예산	-1928
▁염	-1929
공간	-1930
▁달러	-1931
▁2000	-1932
▁국무	-1933
▁가치	-1934
11	-1935
(6	-1936
▁가지고	-1937
▁흐	-1938
▁아동	-1939
▁열고	-1940
▁등장	-1941
▁내려	-1942
구가	-1943
▁사태	-1944
프트	-1945
고를	-1946
▁덧붙였다	-1947
▁흔	-1948
▁꼽	-1949
▁주장했다	-1950
인지	-1951
▁점을	-1952
관은	-1953
화에	-1954
내는	-1955
▁공사	-1956
▁관광객	-1957
▁택	-1958
율은	-1959
▁반도	-1960
협의회	-1961
▁모습을	-1962
월까지	-1963
▁차례	-1964
자동차	-1965
장애	-1966
▁주로	-1967
▁인도	-1968
▁위치한	-1969
▁강력	-1970
상에	-1971
▁잔	-1972
▁외교	-1973
안이	-1974
ar	-1975
▁완료	-1976
▁신설	-1977
항공	-1978
▁신뢰	-1979
시와	-1980
디오	-1981
심을	-1982
▁개혁	-1983
▁회복	-1984
▁있는데	-1985
▁마이	-1986
▁O	-1987
▁밤	-1988
25	-1989
화가	-1990
▁보험	-1991
▁배출	-1992
▁주관	-1993
른다	-1994
▁아울	-1995
▁누구	-1996
▁충분	-1997
▁:	-1998
하겠다는	-1999
▁범죄	-2000
▁시험	-2001
▁시작으로	-2002
학년	-2003
인과	-2004
법을	-2005
▁청주	-2006
▁처음으로	-2007
▁트럼프	-2008
역을	-2009
▁플랫폼	-2010
▁공격	-2011
▁데이터	-2012
▁전반	-2013
▁찬	-2014
으로부터	-2015
▁대통령의	-2016
위로	-2017
▁수소	-2018
▁맛	-2019
인데	-2020
▁왔다	-2021
▁정도로	-2022
▁소방	-2023
▁마무리	-2024
▁결과를	-2025
▁부정	-2026
TV	-2027
더라도	-2028
성은	-2029
▁베트남	-2030
기와	-2031
▁바람	-2032
▁둔	-2033
▁언급	-2034
도와	-2035
재생	-2036
에서의	-2037
므로	-2038
▁작업	-2039
회사	-2040
▁여야	-2041
▁없었다	-2042
제의	-2043
겼다	-2044
▁자료	-2045
▁유일	-2046
▁주차	-2047
▁맞춤	-2048
떻게	-2049
▁건물	-2050
▁노선	-2051
▁그룹	-2052
▁회원	-2053
▁힘을	-2054
▁작은	-2055
▁움	-2056
▁대체	-2057
였던	-2058
회장	-2059
▁이렇	-2060
▁그래	-2061
중앙	-2062
▁민주당	-2063
▁아울러	-2064
지와	-2065
▁내부	-2066
al	-2067
미래	-2068
이션	-2069
▁약속	-2070
▁발언	-2071
▁라이	-2072
▁티	-2073
▁전용	-2074
관이	-2075
en	-2076
▁여론	-2077
▁상담	-2078
▁불편	-2079
파크	-2080
▁달라	-2081
▁노조	-2082
액은	-2083
▁하였다	-2084
이지만	-2085
동을	-2086
▁정비	-2087
▁300	-2088
체험	-2089
혁명	-2090
▁스스로	-2091
▁내용을	-2092
▁상황에서	-2093
스와	-2094
했을	-2095
국민	-2096
▁프로젝트	-2097
▁대중	-2098
률이	-2099
▁경남	-2100
율을	-2101
▁거의	-2102
▁예비	-2103
▁벗	-2104
▁일본의	-2105
▁교류	-2106
기자	-2107
▁접수	-2108
▁많다	-2109
▁체계	-2110
▁시장은	-2111
▁외국인	-2112
▁주도	-2113
종합	-2114
▁어떻게	-2115
만의	-2116
▁여전히	-2117
소가	-2118
재단	-2119
▁못했다	-2120
▁인터넷	-2121
▁공무원	-2122
▁자세	-2123
▁팬	-2124
정의	-2125
▁있기	-2126
▁프로그램을	-2127
▁형성	-2128
▁비핵	-2129
▁졸업	-2130
▁위해서는	-2131
▁등은	-2132
산시	-2133
회에	-2134
▁거주	-2135
하였고	-2136
▁할인	-2137
상품	-2138
▁노인	-2139
▁이루어	-2140
'(	-2141
▁무료	-2142
▁획	-2143
보호	-2144
▁생태	-2145
스럽	-2146
▁반도체	-2147
식이	-2148
▁현지	-2149
▁공공기관	-2150
▁문제는	-2151
하다는	-2152
5%	-2153
수록	-2154
▁궁	-2155
16	-2156
▁쿠	-2157
▁포함한	-2158
사에서	-2159
▁실현	-2160
▁명의	-2161
▁열리는	-2162
▁참석한	-2163
▁축구	-2164
▁점에서	-2165
진을	-2166
▁성과를	-2167
리기	-2168
켰다	-2169
▁출범	-2170
▁불구	-2171
▁상반기	-2172
▁접근	-2173
▁협약	-2174
▁살아	-2175
▁솔	-2176
전에	-2177
▁장애인	-2178
선수	-2179
▁원을	-2180
at	-2181
▁전해	-2182
▁왜	-2183
▁슈	-2184
공동	-2185
BC	-2186
▁시간을	-2187
▁사실상	-2188
▁정의	-2189
.0	-2190
▁망	-2191
했는데	-2192
경영	-2193
▁받는	-2194
자에	-2195
▁최저임금	-2196
▁수는	-2197
80	-2198
▁집행	-2199
▁2013	-2200
지면서	-2201
▁대규모	-2202
▁의무	-2203
▁디지털	-2204
▁고민	-2205
▁500	-2206
구조	-2207
▁걸쳐	-2208
▁둘러	-2209
▁여름	-2210
안에	-2211
▁영상	-2212
▁당부	-2213
함으로써	-2214
▁사항	-2215
▁반응	-2216
수도	-2217
▁운행	-2218
▁움직	-2219
▁나섰다	-2220
시티	-2221
▁스포츠	-2222
▁도움이	-2223
▁얼마	-2224
권의	-2225
▁푸	-2226
▁2009	-2227
▁깨	-2228
어를	-2229
▁광역	-2230
화와	-2231
단계	-2232
청은	-2233
▁196	-2234
▁소비자	-2235
▁상생	-2236
▁발표한	-2237
일을	-2238
▁색	-2239
▁화재	-2240
▁나온다	-2241
▁넓	-2242
대전	-2243
분을	-2244
▁입장을	-2245
▁시대	-2246
분야	-2247
▁놓고	-2248
인으로	-2249
니스	-2250
일에는	-2251
▁원내대표	-2252
▁자율	-2253
▁반발	-2254
▁너무	-2255
점으로	-2256
▁갑	-2257
▁덕	-2258
▁아래	-2259
▁친환경	-2260
▁더불어민주당	-2261
▁70	-2262
▁194	-2263
과는	-2264
▁체육	-2265
▁맺	-2266
▁H	-2267
▁디자인	-2268
보는	-2269
▁선언	-2270
▁임명	-2271
▁슬	-2272
국가	-2273
케팅	-2274
▁미국의	-2275
.5%	-2276
건축	-2277
▁부여	-2278
이스	-2279
▁올림픽	-2280
아야	-2281
▁이제	-2282
▁회사	-2283
▁정확	-2284
행정	-2285
▁빌	-2286
만큼	-2287
산을	-2288
▁군사	-2289
세기	-2290
▁연간	-2291
씨가	-2292
▁1000	-2293
▁'2019	-2294
500	-2295
운드	-2296
▁2011	-2297
▁코스	-2298
▁수원	-2299
▁임대	-2300
▁흥	-2301
▁인프라	-2302
▁편의	-2303
▁법률	-2304
페인	-2305
이란	-2306
리로	-2307
의료	-2308
▁측은	-2309
▁보였다	-2310
나무	-2311
▁셈	-2312
연구원	-2313
리와	-2314
우스	-2315
위원장	-2316
금이	-2317
드시	-2318
▁효율	-2319
체를	-2320
사무	-2321
▁개편	-2322
▁1,	-2323
▁총선	-2324
▁딸	-2325
▁실질	-2326
▁꾸준	-2327
국이	-2328
▁남아	-2329
▁지적했다	-2330
▁탐	-2331
▁R	-2332
14	-2333
▁아버	-2334
▁필요가	-2335
▁출전	-2336
▁비슷	-2337
스러	-2338
▁)	-2339
▁관람	-2340
▁싸	-2341
이드	-2342
▁2012	-2343
▁크다	-2344
성의	-2345
철도	-2346
▁기회를	-2347
▁잃	-2348
▁벌어	-2349
▁근거	-2350
물이	-2351
적이고	-2352
개혁	-2353
▁이벤트	-2354
▁혐의로	-2355
로를	-2356
▁피해를	-2357
▁것이라는	-2358
▁회장	-2359
과정	-2360
▁곧	-2361
▁관심이	-2362
▁음식	-2363
▁2008	-2364
▁인재	-2365
NS	-2366
▁나왔다	-2367
70	-2368
▁만족	-2369
▁옮	-2370
▁곡	-2371
가족	-2372
아가	-2373
▁사업은	-2374
금은	-2375
▁차별	-2376
24	-2377
▁듣	-2378
▁간담	-2379
▁낮은	-2380
▁주는	-2381
▁철저	-2382
국은	-2383
트워크	-2384
권이	-2385
▁지켜	-2386
▁얘	-2387
우리	-2388
명은	-2389
▁충청	-2390
▁V	-2391
개를	-2392
차가	-2393
▁연장	-2394
▁인력	-2395
바일	-2396
의원	-2397
▁믿	-2398
소는	-2399
상은	-2400
리즈	-2401
러스	-2402
▁신속	-2403
▁젊	-2404
▁대기업	-2405
▁시절	-2406
공단	-2407
▁괴	-2408
▁오른	-2409
▁심사	-2410
▁일정	-2411
▁결혼	-2412
▁맞춤형	-2413
▁비상	-2414
제도	-2415
어로	-2416
▁발표했다	-2417
▁밝혀	-2418
시키는	-2419
▁국민의	-2420
▁일으	-2421
▁특정	-2422
웠다	-2423
▁사람이	-2424
▁첨	-2425
▁도민	-2426
함을	-2427
▁정책을	-2428
▁맥	-2429
’,	-2430
▁듯	-2431
▁적극적으로	-2432
지에서	-2433
▁냉	-2434
▁,	-2435
▁구간	-2436
▁일자	-2437
제에	-2438
▁규정	-2439
▁나갈	-2440
▁통계	-2441
▁자격	-2442
▁국방	-2443
만원을	-2444
▁싱	-2445
▁여기에	-2446
들로	-2447
▁향상	-2448
률을	-2449
▁맞춰	-2450
▁농촌	-2451
▁늘어	-2452
▁그런데	-2453
▁실천	-2454
▁그대로	-2455
▁시범	-2456
▁정당	-2457
활동을	-2458
▁보내	-2459
▁보도	-2460
▁빛	-2461
히려	-2462
▁끊	-2463
▁작년	-2464
▁자유한국당	-2465
▁KT	-2466
오는	-2467
▁적극적인	-2468
▁상황이다	-2469
▁폴	-2470
▁타이	-2471
▁겸	-2472
우는	-2473
▁웃	-2474
▁하며	-2475
▁안내	-2476
▁해도	-2477
▁상호	-2478
▁강원	-2479
▁맞는	-2480
▁학부모	-2481
▁탑	-2482
▁사실을	-2483
▁정기	-2484
▁배치	-2485
▁정보를	-2486
만이	-2487
▁반드시	-2488
▁하면	-2489
안은	-2490
수로	-2491
▁시작했다	-2492
▁실패	-2493
▁따라서	-2494
▁노래	-2495
▁복합	-2496
받은	-2497
▁이름을	-2498
▁작성	-2499
▁보장	-2500
▁기업의	-2501
란드	-2502
적이다	-2503
관에서	-2504
▁TV	-2505
▁정상회담	-2506
▁하다	-2507
▁가졌다	-2508
▁꽃	-2509
전남	-2510
▁혈	-2511
▁긍	-2512
차례	-2513
▁기대한다	-2514
▁인공	-2515
▁센터	-2516
▁부모	-2517
▁발생한	-2518
▁그것	-2519
▁대법	-2520
카드	-2521
▁이탈	-2522
▁훈련	-2523
▁목표로	-2524
▁보수	-2525
▁쉽게	-2526
▁이것	-2527
이하	-2528
▁시도	-2529
▁대화	-2530
프리카	-2531
▁드라마	-2532
▁건의	-2533
▁전투	-2534
▁촬영	-2535
감이	-2536
증권	-2537
만을	-2538
▁쏟	-2539
▁이같	-2540
물질	-2541
▁일이다	-2542
▁버스	-2543
·18	-2544
▁추정	-2545
▁기준으로	-2546
▁추천	-2547
.4%	-2548
▁진행된다	-2549
▁33	-2550
이사	-2551
▁특징	-2552
이에	-2553
▁35	-2554
▁것이라고	-2555
에너지	-2556
일본	-2557
하고자	-2558
▁행사를	-2559
▁한반도	-2560
▁예상된다	-2561
▁기술을	-2562
▁수용	-2563
▁늦	-2564
길을	-2565
▁자녀	-2566
구에	-2567
소에	-2568
▁대기	-2569
스티	-2570
억원으로	-2571
(7	-2572
▁국회의원	-2573
▁취임	-2574
▁실제로	-2575
▁워	-2576
융합	-2577
▁도는	-2578
방송	-2579
품을	-2580
▁축제	-2581
▁알고	-2582
▁가정	-2583
리한	-2584
▁단순	-2585
▁등과	-2586
었지만	-2587
이버	-2588
▁확장	-2589
시를	-2590
▁쌓	-2591
▁기울	-2592
▁등에서	-2593
▁J	-2594
▁탓	-2595
회견	-2596
▁불가	-2597
(-	-2598
속도로	-2599
▁판결	-2600
▁오히려	-2601
선의	-2602
어야	-2603
▁집계	-2604
▁완성	-2605
▁이렇게	-2606
▁그가	-2607
펀드	-2608
▁사업에	-2609
기다	-2610
▁0	-2611
량은	-2612
▁빨	-2613
시킨	-2614
테크	-2615
▁잘못	-2616
광주	-2617
▁빅	-2618
▁걱	-2619
▁방문해	-2620
▁초기	-2621
농업	-2622
가고	-2623
광역	-2624
받고	-2625
(20	-2626
▁페이	-2627
▁통신	-2628
요일	-2629
▁32	-2630
▁인증	-2631
▁공감	-2632
지사	-2633
있다	-2634
▁최우	-2635
▁한국당	-2636
▁어렵다	-2637
▁지역경제	-2638
▁혹	-2639
▁금지	-2640
▁없다는	-2641
하이	-2642
▁태양	-2643
보다는	-2644
▁선도	-2645
으니	-2646
건으로	-2647
▁취약	-2648
처리	-2649
▁W	-2650
▁긍정	-2651
▁지키	-2652
플레이	-2653
90	-2654
▁가져	-2655
▁한다고	-2656
▁교체	-2657
▁기대된다	-2658
▁이번에	-2659
▁회장은	-2660
상황	-2661
▁한국의	-2662
▁컴	-2663
▁36	-2664
▁활용해	-2665
▁노후	-2666
▁출발	-2667
▁땅	-2668
▁특수	-2669
▁뒷	-2670
~2	-2671
.3%	-2672
개선	-2673
▁만들기	-2674
.2%	-2675
▁초청	-2676
▁지역에	-2677
▁고령	-2678
▁로마	-2679
경북	-2680
▁군은	-2681
▁철도	-2682
▁하반기	-2683
▁구성된	-2684
건이	-2685
명에	-2686
기구	-2687
▁법무	-2688
▁것에	-2689
▁역대	-2690
▁셈이다	-2691
▁원칙	-2692
▁증가했다	-2693
▁겨울	-2694
▁전에	-2695
▁열어	-2696
▁모바일	-2697
▁방식으로	-2698
직원	-2699
.7%	-2700
▁기자회견	-2701
▁전면	-2702
▁지역사회	-2703
공업	-2704
다운	-2705
▁늘어나	-2706
▁절반	-2707
체계	-2708
봉사	-2709
규직	-2710
▁넣	-2711
▁빚	-2712
▁리그	-2713
.6%	-2714
.8%	-2715
▁처벌	-2716
▁허용	-2717
▁소유	-2718
▁젊은	-2719
쪽으로	-2720
▁상대로	-2721
위의	-2722
▁응답	-2723
▁국토교통	-2724
공화	-2725
▁교수는	-2726
▁시간이	-2727
▁불구하고	-2728
조선	-2729
레스	-2730
감독	-2731
▁자기	-2732
▁농가	-2733
비가	-2734
▁계획을	-2735
조차	-2736
▁준공	-2737
점에서	-2738
▁노력을	-2739
돼야	-2740
▁보조	-2741
▁이곳	-2742
▁활성화를	-2743
비아	-2744
▁사라	-2745
▁다음과	-2746
▁외부	-2747
▁넘는	-2748
▁연기	-2749
려는	-2750
비용	-2751
.9%	-2752
▁구속	-2753
▁사상	-2754
유치	-2755
▁주최	-2756
대구	-2757
▁액	-2758
▁않도록	-2759
▁진입	-2760
트로	-2761
추진	-2762
등급	-2763
▁올랐다	-2764
▁뮤	-2765
▁돕	-2766
▁묻	-2767
뿐만	-2768
사랑	-2769
▁단지	-2770
▁평가를	-2771
법인	-2772
▁오픈	-2773
st	-2774
▁여자	-2775
▁임금	-2776
▁감안	-2777
▁인간	-2778
▁제주도	-2779
▁사업이	-2780
▁80	-2781
▁이내	-2782
▁공직	-2783
메달	-2784
하려는	-2785
조정	-2786
▁완화	-2787
평화	-2788
▁끌어	-2789
앞으로도	-2790
▁광주시	-2791
▁195	-2792
▁거듭	-2793
여명이	-2794
▁의한	-2795
▁소상공	-2796
▁어제	-2797
▁바른	-2798
았고	-2799
▁품질	-2800
▁만드는	-2801
전이	-2802
▁선고	-2803
치가	-2804
▁학습	-2805
근혜	-2806
ww	-2807
▁뜨	-2808
.1%	-2809
▁정착	-2810
▁뇌	-2811
▁당초	-2812
▁활용한	-2813
느냐	-2814
▁불안	-2815
▁인물	-2816
보건	-2817
하였으며	-2818
▁균형	-2819
▁이르	-2820
▁효과를	-2821
▁높다	-2822
▁다하겠다	-2823
▁교육을	-2824
▁스마트폰	-2825
▁뿐만	-2826
▁최고의	-2827
부문	-2828
주고	-2829
▁상황을	-2830
공연	-2831
인들이	-2832
2)	-2833
면적	-2834
▁거부	-2835
경을	-2836
▁나머	-2837
전에서	-2838
▁그러면서	-2839
▁지원하는	-2840
▁계기로	-2841
▁흑	-2842
▁심의	-2843
▁천안	-2844
▁폐기	-2845
신을	-2846
건강	-2847
it	-2848
▁자동	-2849
▁진행한다	-2850
▁들여	-2851
▁확충	-2852
으면서	-2853
▁조기	-2854
▁식품	-2855
▁보급	-2856
력과	-2857
▁월드	-2858
지난	-2859
▁치매	-2860
트리	-2861
▁추진하고	-2862
▁투표	-2863
▁관계자	-2864
kg	-2865
▁무엇보다	-2866
▁연합	-2867
▁아름	-2868
차는	-2869
▁살펴	-2870
▁이른	-2871
영업	-2872
지능	-2873
▁실적	-2874
▁분명	-2875
▁하겠다	-2876
▁참여한	-2877
▁위협	-2878
▁운전	-2879
해를	-2880
▁대폭	-2881
▁가구	-2882
▁콜	-2883
▁모양	-2884
년도	-2885
▁부진	-2886
호선	-2887
▁의원이	-2888
연금	-2889
▁협조	-2890
축제	-2891
일간	-2892
▁멀	-2893
▁확인할	-2894
▁단속	-2895
▁변호	-2896
▁중요하다	-2897
시험	-2898
▁도움을	-2899
▁신용	-2900
▁기업이	-2901
▁좀	-2902
생을	-2903
▁주력	-2904
▁칼	-2905
계가	-2906
되기	-2907
▁담은	-2908
시켰다	-2909
아이	-2910
▁태풍	-2911
▁실무	-2912
부장	-2913
▁발행	-2914
▁보는	-2915
목을	-2916
ic	-2917
▁이행	-2918
주를	-2919
▁주문	-2920
▁아무	-2921
▁마찬	-2922
▁모색	-2923
▁과정을	-2924
(8	-2925
▁당부했다	-2926
▁양성	-2927
에만	-2928
준다	-2929
받아	-2930
23	-2931
▁측면	-2932
▁2007	-2933
하겠다고	-2934
생산	-2935
▁어려움을	-2936
(,	-2937
▁호텔	-2938
대비	-2939
화로	-2940
건의	-2941
▁유도	-2942
▁제공하는	-2943
이기도	-2944
▁헌법	-2945
▁제정	-2946
▁행동	-2947
아시아	-2948
▁2022	-2949
▁자리를	-2950
▁논란이	-2951
▁니	-2952
론을	-2953
▁재난	-2954
▁해석	-2955
▁등이다	-2956
▁마케팅	-2957
▁데뷔	-2958
▁공항	-2959
거운	-2960
▁새롭게	-2961
▁제공한다	-2962
▁그녀	-2963
▁AI	-2964
▁경우가	-2965
▁일을	-2966
리오	-2967
가격	-2968
인공	-2969
▁엘	-2970
▁인권	-2971
▁것과	-2972
기고	-2973
▁도전	-2974
키로	-2975
▁즐길	-2976
▁상징	-2977
다른	-2978
▁지배	-2979
▁옛	-2980
▁김영	-2981
▁꾸준히	-2982
▁기타	-2983
▁봉사	-2984
세는	-2985
▁이외	-2986
▁지구	-2987
문학	-2988
▁자원	-2989
비는	-2990
▁빼	-2991
▁34	-2992
종의	-2993
▁오래	-2994
되었고	-2995
▁찍	-2996
에게는	-2997
상으로	-2998
지원센터	-2999
데이터	-3000
▁기억	-3001
상담	-3002
가스	-3003
▁관련된	-3004
▁진행됐다	-3005
▁기부	-3006
대에서	-3007
점은	-3008
▁이야기	-3009
▁부과	-3010
▁케	-3011
주년	-3012
▁홈페이지	-3013
▁늘었다	-3014
▁노력하겠다	-3015
해양	-3016
▁이재	-3017
▁동물	-3018
▁분류	-3019
주로	-3020
▁긴급	-3021
▁대변	-3022
▁예산을	-3023
▁주식	-3024
▁명예	-3025
위원회는	-3026
원전	-3027
28	-3028
권에	-3029
▁38	-3030
▁홀	-3031
자치단체	-3032
호를	-3033
▁경쟁력	-3034
정상	-3035
가와	-3036
해도	-3037
▁류	-3038
▁운영하고	-3039
▁개막	-3040
▁말한다	-3041
체가	-3042
전략	-3043
▁북미	-3044
▁사이에	-3045
▁프리미	-3046
▁휘	-3047
▁보이고	-3048
씨의	-3049
▁힘들	-3050
대와	-3051
스러운	-3052
명과	-3053
▁2021	-3054
북도	-3055
▁민족	-3056
▁수가	-3057
▁읽	-3058
▁소송	-3059
▁알려져	-3060
▁선정된	-3061
(19	-3062
웨이	-3063
마저	-3064
▁지금까지	-3065
당을	-3066
▁끼	-3067
▁책임을	-3068
▁동일	-3069
▁새로	-3070
▁그리스	-3071
었으며	-3072
없는	-3073
▁대책을	-3074
▁찾는	-3075
주가	-3076
자유	-3077
참여	-3078
인민	-3079
▁보완	-3080
▁다음달	-3081
▁가동	-3082
재를	-3083
기념	-3084
내고	-3085
▁운영하는	-3086
▁비핵화	-3087
▁표준	-3088
협의	-3089
화학	-3090
▁선출	-3091
▁나누	-3092
▁등도	-3093
▁포항	-3094
카오	-3095
▁주의	-3096
▁강한	-3097
▁밖	-3098
시청	-3099
21	-3100
▁가치를	-3101
월에는	-3102
모델	-3103
▁토지	-3104
라우	-3105
▁이로	-3106
▁위해서	-3107
어가	-3108
▁활발	-3109
▁통일	-3110
▁뿌	-3111
▁카드	-3112
▁올해는	-3113
▁묘	-3114
▁많아	-3115
▁열린다	-3116
▁상황이	-3117
▁레이	-3118
▁갖춘	-3119
▁편성	-3120
▁업무협	-3121
▁헬	-3122
▁다르	-3123
복합	-3124
▁전력	-3125
▁이용해	-3126
▁구입	-3127
▁시각	-3128
▁삶의	-3129
27	-3130
▁작용	-3131
▁현황	-3132
▁전개	-3133
▁▷	-3134
▁금액	-3135
다면	-3136
창업	-3137
▁혜택을	-3138
▁강남	-3139
았던	-3140
▁좋아	-3141
보를	-3142
▁적발	-3143
▁자금	-3144
▁앨	-3145
▁공약	-3146
▁인하	-3147
▁자신이	-3148
벤처기업	-3149
▁세부	-3150
re	-3151
인들의	-3152
근로	-3153
▁정치적	-3154
수산	-3155
▁문의	-3156
▁동의	-3157
▁이익	-3158
▁네트워크	-3159
▁37	-3160
▁검증	-3161
▁인수	-3162
▁당선	-3163
▁바뀌	-3164
▁5·18	-3165
개국	-3166
서에	-3167
▁제품을	-3168
대출	-3169
됐고	-3170
▁사람들이	-3171
도서관	-3172
폭력	-3173
식으로	-3174
▁못하는	-3175
충청	-3176
▁학생들이	-3177
~3	-3178
무를	-3179
▁개최했다	-3180
어는	-3181
▁갖추	-3182
릭터	-3183
▁바이오	-3184
▁봄	-3185
▁증가한	-3186
▁포함해	-3187
문에	-3188
받는	-3189
면을	-3190
▁밝히	-3191
▁이끌어	-3192
계약	-3193
)·	-3194
시키고	-3195
▁케이	-3196
농협	-3197
▁예고	-3198
▁사법	-3199
▁여기	-3200
5000	-3201
▁차지했다	-3202
리며	-3203
▁뜻을	-3204
티브	-3205
▁쏟아	-3206
▁전혀	-3207
▁주고	-3208
▁그림	-3209
▁50%	-3210
성군	-3211
계층	-3212
행사	-3213
▁사과	-3214
▁앱	-3215
계의	-3216
심의	-3217
▁뽑	-3218
▁강제	-3219
봤다	-3220
▁시급	-3221
사일	-3222
▁밝힌	-3223
트는	-3224
▁우려가	-3225
▁매입	-3226
▁폐지	-3227
▁감염	-3228
▁되면	-3229
▁바이	-3230
▁재배	-3231
▁상위	-3232
▁SNS	-3233
▁용역	-3234
▁친구	-3235
▁언제	-3236
▁10%	-3237
권은	-3238
▁모아	-3239
는지	-3240
▁속에서	-3241
성도	-3242
26	-3243
훼손	-3244
▁대선	-3245
점에	-3246
▁늘어난	-3247
▁우수한	-3248
▁이탈리아	-3249
중한	-3250
르크	-3251
▁박근혜	-3252
텔레	-3253
▁안에	-3254
남도	-3255
▁누구나	-3256
▁참여해	-3257
억원의	-3258
▁극복	-3259
▁중에	-3260
르신	-3261
▁상태다	-3262
영화	-3263
▁진행하고	-3264
많은	-3265
35	-3266
▁지속적인	-3267
▁취소	-3268
한다면	-3269
▁정부와	-3270
▁고위	-3271
재정	-3272
인천	-3273
년의	-3274
▁낸	-3275
▁불러	-3276
▁제외한	-3277
▁방지	-3278
▁수석	-3279
▁있었던	-3280
치지	-3281
당한	-3282
▁말을	-3283
▁배경	-3284
▁최소화	-3285
▁바꾸	-3286
시부터	-3287
▁있어서	-3288
▁읍	-3289
사업에	-3290
▁짓	-3291
▁후원	-3292
▁조금	-3293
▁국비	-3294
▁군산	-3295
▁군민	-3296
▁시상	-3297
향을	-3298
세의	-3299
▁자산	-3300
▁흡	-3301
단에	-3302
▁이용할	-3303
▁남자	-3304
받았다	-3305
▁선정됐다	-3306
자산	-3307
시킬	-3308
▁개방	-3309
▁39	-3310
라스	-3311
▁영업이익	-3312
▁지역에서	-3313
mm	-3314
▁캐릭터	-3315
▁메이	-3316
▁인기를	-3317
▁대학교	-3318
범죄	-3319
정치	-3320
고등학교	-3321
크로	-3322
▁시리즈	-3323
▁검사	-3324
설팅	-3325
▁인기	-3326
소의	-3327
▁북한의	-3328
▁발전을	-3329
표를	-3330
▁하여	-3331
▁절차	-3332
조원	-3333
▁45	-3334
▁계열	-3335
▁자본	-3336
▁참여하는	-3337
100	-3338
▁재산	-3339
▁추가로	-3340
29	-3341
▁운용	-3342
▁획득	-3343
▁시민들의	-3344
법에	-3345
입니다	-3346
▁심각한	-3347
년이	-3348
물관	-3349
▁비난	-3350
하라	-3351
피스	-3352
▁받지	-3353
▁기능을	-3354
식은	-3355
▁의심	-3356
▁추석	-3357
IC	-3358
소로	-3359
▁이웃	-3360
▁광고	-3361
(9	-3362
▁부지	-3363
▁작가	-3364
▁빠르게	-3365
▁중간	-3366
중에	-3367
)’	-3368
▁개설	-3369
▁업종	-3370
분에	-3371
하나	-3372
▁원하는	-3373
.0%	-3374
▁2006	-3375
▁나머지	-3376
▁경찰은	-3377
점검	-3378
▁선물	-3379
▁술	-3380
군을	-3381
▁되지	-3382
분이	-3383
▁흘	-3384
▁대표적인	-3385
간다	-3386
▁실험	-3387
▁벗어나	-3388
멤버	-3389
우고	-3390
▁출마	-3391
▁높이	-3392
데이	-3393
▁65	-3394
▁교황	-3395
질을	-3396
청이	-3397
프로그램	-3398
▁나타나	-3399
▁자세한	-3400
▁연말	-3401
▁걱정	-3402
자금	-3403
▁KB	-3404
▁예측	-3405
▁곤	-3406
▁효과가	-3407
려면	-3408
▁돌파	-3409
회의에서	-3410
됐으며	-3411
▁채널	-3412
군에	-3413
문이	-3414
무역	-3415
미를	-3416
▁도시재생	-3417
▁끝에	-3418
▁전라	-3419
▁속에	-3420
▁화장	-3421
책을	-3422
선이	-3423
▁대북	-3424
축구	-3425
▁상임	-3426
▁본격적인	-3427
▁바다	-3428
▁시내	-3429
▁진단	-3430
▁걷	-3431
어진	-3432
▁국내외	-3433
렀다	-3434
▁이야기를	-3435
▁곳곳	-3436
진은	-3437
▁반복	-3438
▁분야에서	-3439
▁때는	-3440
퓨터	-3441
수수	-3442
▁잇따	-3443
왼쪽	-3444
▁이처럼	-3445
▁앞장	-3446
진이	-3447
▁서울시	-3448
▁병원	-3449
▁종료	-3450
▁산림	-3451
▁하나로	-3452
▁의사	-3453
▁제조업	-3454
부산	-3455
▁악화	-3456
연맹	-3457
▁특허	-3458
IS	-3459
회의를	-3460
▁하기	-3461
▁진행했다	-3462
주년을	-3463
▁~	-3464
화점	-3465
일이	-3466
트업	-3467
▁시의	-3468
동에	-3469
▁가는	-3470
▁주민들의	-3471
▁어머니	-3472
▁차원에서	-3473
량의	-3474
평균	-3475
겠다고	-3476
▁시작한	-3477
▁줄어들	-3478
전쟁	-3479
되었으며	-3480
학습	-3481
▁불가능	-3482
▁자주	-3483
피해	-3484
▁센	-3485
체의	-3486
청소년	-3487
▁조치를	-3488
▁취득	-3489
▁기반으로	-3490
▁종교	-3491
▁공장	-3492
자들에게	-3493
스토	-3494
션을	-3495
le	-3496
규제	-3497
▁상장	-3498
직을	-3499
▁규모로	-3500
▁삼성전	-3501
▁틀	-3502
상과	-3503
사인	-3504
▁마음을	-3505
▁당연	-3506
OC	-3507
분의	-3508
제한	-3509
▁추진해	-3510
학을	-3511
질환	-3512
▁개별	-3513
▁강력한	-3514
수영	-3515
▁보니	-3516
▁광양	-3517
웨어	-3518
주기	-3519
▁권한	-3520
▁현안	-3521
▁현행	-3522
▁기소	-3523
▁바른미래	-3524
뮤니	-3525
▁농협	-3526
자들을	-3527
▁갤	-3528
교류	-3529
▁기회	-3530
▁민원	-3531
200	-3532
▁외에도	-3533
▁뛰어	-3534
▁미술	-3535
▁없을	-3536
▁아프리카	-3537
작용	-3538
만에	-3539
▁개의	-3540
개로	-3541
▁지식	-3542
▁자랑	-3543
▁네이버	-3544
▁의미를	-3545
▁2005	-3546
보면	-3547
▁지상	-3548
▁150	-3549
니어	-3550
연구소	-3551
공장	-3552
▁어디	-3553
▁장관은	-3554
▁행사는	-3555
▁비슷한	-3556
피언	-3557
▁꼭	-3558
▁동반	-3559
▁품목	-3560
▁관측	-3561
▁대한민국의	-3562
▁아들	-3563
▁느끼	-3564
형을	-3565
ha	-3566
▁차단	-3567
▁씨는	-3568
▁감소했다	-3569
▁앞에서	-3570
▁여부를	-3571
▁직장	-3572
▁일어나	-3573
▁참석했다	-3574
▁위기	-3575
▁가까운	-3576
▁유사	-3577
▁KBS	-3578
▁않으면	-3579
▁아이디어	-3580
▁활약	-3581
▁회담	-3582
▁개통	-3583
▁원전	-3584
▁근본	-3585
▁제거	-3586
부품	-3587
식에	-3588
▁분리	-3589
▁영동	-3590
▁합동	-3591
▁대구시	-3592
▁직후	-3593
▁사용할	-3594
▁지휘	-3595
널리	-3596
▁관내	-3597
▁측정	-3598
▁많았다	-3599
▁최초의	-3600
▁내에	-3601
▁합격	-3602
▁밑	-3603
▁대표가	-3604
수사	-3605
▁선진	-3606
▁장학	-3607
▁삭	-3608
▁기다	-3609
▁중국의	-3610
▁첨단	-3611
차로	-3612
▁증거	-3613
올림픽	-3614
▁하이	-3615
▁명칭	-3616
▁빠른	-3617
▁현재까지	-3618
▁에어	-3619
▁다가	-3620
미널	-3621
▁수술	-3622
▁하나의	-3623
코리아	-3624
▁대해서도	-3625
▁필수	-3626
ion	-3627
결과	-3628
22	-3629
▁t	-3630
순환	-3631
면서도	-3632
현재	-3633
▁혹은	-3634
▁습	-3635
▁제공하고	-3636
▁의지를	-3637
▁쓴	-3638
▁개념	-3639
▁시가	-3640
▁후반	-3641
▁채택	-3642
▁협상	-3643
▁법인	-3644
▁착공	-3645
▁득	-3646
▁경쟁력을	-3647
▁부처	-3648
▁20%	-3649
▁구현	-3650
나가	-3651
▁공기	-3652
▁멤버	-3653
▁추진할	-3654
37	-3655
▁일제	-3656
사업은	-3657
일자리	-3658
장애인	-3659
▁30%	-3660
시설을	-3661
▁등락	-3662
▁쉬	-3663
▁뉴욕	-3664
만명	-3665
▁했지만	-3666
바이오	-3667
▁도심	-3668
▁초과	-3669
▁베이	-3670
챔피언	-3671
▁법안	-3672
▁축소	-3673
▁받아들	-3674
▁후에	-3675
▁파견	-3676
▁포기	-3677
▁사람은	-3678
스포츠	-3679
▁없고	-3680
▁낭	-3681
▁왔	-3682
▁관련한	-3683
▁보통	-3684
3%	-3685
▁알아	-3686
▁던	-3687
물의	-3688
호텔	-3689
▁경상	-3690
▁마련됐다	-3691
▁흐름	-3692
카이	-3693
경쟁	-3694
유의	-3695
▁목소리를	-3696
▁단독	-3697
▁숲	-3698
예방	-3699
하우	-3700
▁어르신	-3701
▁달하는	-3702
▁매일	-3703
계획을	-3704
판매	-3705
조사를	-3706
▁중심의	-3707
라면	-3708
인력	-3709
▁안타	-3710
▁진행된	-3711
▁봐	-3712
장비	-3713
▁메시	-3714
▁계기가	-3715
▁이중	-3716
수와	-3717
▁가로	-3718
▁압박	-3719
해왔다	-3720
▁한번	-3721
▁일환	-3722
▁선생	-3723
유산	-3724
해진	-3725
▁추진하는	-3726
▁52	-3727
▁5000	-3728
▁인공지능	-3729
▁셀	-3730
▁나눠	-3731
▁매각	-3732
39	-3733
국을	-3734
▁간의	-3735
▁실행	-3736
▁대처	-3737
▁아르	-3738
회와	-3739
기획	-3740
세로	-3741
36	-3742
실한	-3743
▁쌀	-3744
이라도	-3745
▁조사를	-3746
전은	-3747
▁김성	-3748
FC	-3749
▁때까지	-3750
▁이들의	-3751
▁중화	-3752
▁동기	-3753
▁주말	-3754
명한	-3755
FA	-3756
▁사업의	-3757
▁충분히	-3758
기능	-3759
▁사용하는	-3760
▁내고	-3761
▁오랜	-3762
▁이래	-3763
제주	-3764
센터에서	-3765
어도	-3766
▁징역	-3767
▁가을	-3768
▁눈길을	-3769
▁의결	-3770
▁나오는	-3771
▁내세	-3772
▁발생하는	-3773
et	-3774
▁수여	-3775
▁동남	-3776
▁이유는	-3777
▁사장	-3778
져야	-3779
▁전날	-3780
▁부담을	-3781
이면	-3782
▁부품	-3783
당성	-3784
▁물리	-3785
올해	-3786
청년	-3787
▁열렸다	-3788
▁특성	-3789
▁역량	-3790
▁답변	-3791
등록	-3792
▁열었다	-3793
위원회가	-3794
▁충북도	-3795
여성	-3796
▁생각한다	-3797
▁KI	-3798
▁욕	-3799
▁줄었다	-3800
▁지역을	-3801
▁밖에	-3802
심사	-3803
▁거리	-3804
신문	-3805
▁발달	-3806
세종	-3807
▁호소	-3808
▁절차를	-3809
▁원의	-3810
▁문을	-3811
▁집단	-3812
▁화학	-3813
령을	-3814
▁들어가	-3815
▁플레이	-3816
소비	-3817
▁선호	-3818
▁구체적인	-3819
스탄	-3820
▁고양	-3821
전한	-3822
▁집계됐다	-3823
▁벽	-3824
시로	-3825
절한	-3826
▁교사	-3827
·3	-3828
인민공화	-3829
▁야구	-3830
▁역량을	-3831
총리	-3832
튜브	-3833
서가	-3834
▁특별한	-3835
▁미만	-3836
나다	-3837
▁고통	-3838
▁도쿄	-3839
▁나눔	-3840
▁사는	-3841
▁스트	-3842
▁시스템을	-3843
스티벌	-3844
▁나아가	-3845
▁결합	-3846
▁쾌	-3847
▁급증	-3848
질의	-3849
연을	-3850
호가는	-3851
천시	-3852
▁연출	-3853
▁초대	-3854
시대	-3855
▁불리는	-3856
▁관객	-3857
▁청약	-3858
▁객	-3859
▁사실이	-3860
▁노사	-3861
일로	-3862
EC	-3863
▁영어	-3864
▁그래서	-3865
▁프리미엄	-3866
소에서	-3867
리티	-3868
▁입학	-3869
▁합리	-3870
▁전남도	-3871
▁구분	-3872
천군	-3873
했기	-3874
▁시민의	-3875
판을	-3876
▁그린	-3877
▁수준의	-3878
시즌	-3879
▁보상	-3880
▁창의	-3881
동의	-3882
누리	-3883
하다고	-3884
오염	-3885
▁있으나	-3886
니터	-3887
어서	-3888
위원회를	-3889
석을	-3890
▁금리	-3891
la	-3892
1%	-3893
일은	-3894
기기	-3895
류를	-3896
▁발의	-3897
▁승인	-3898
▁지원한다	-3899
이로	-3900
▁48	-3901
통합	-3902
▁이용한	-3903
수요	-3904
▁세월	-3905
▁받는다	-3906
▁한화	-3907
려고	-3908
▁굴	-3909
력은	-3910
▁입법	-3911
▁수영	-3912
▁호응	-3913
보증	-3914
제와	-3915
▁애플	-3916
여행	-3917
▁44	-3918
▁나와	-3919
▁오염	-3920
스에	-3921
▁수렴	-3922
▁짧	-3923
▁얼굴	-3924
▁90	-3925
▁착수	-3926
▁청주시	-3927
▁현대차	-3928
통상	-3929
▁의미가	-3930
지게	-3931
▁내용은	-3932
▁세워	-3933
▁겪고	-3934
▁홍콩	-3935
됐던	-3936
분양	-3937
~20	-3938
현대	-3939
▁김종	-3940
▁카카오	-3941
▁브라	-3942
받을	-3943
CC	-3944
건에	-3945
기반	-3946
ED	-3947
▁알려진	-3948
▁시장의	-3949
▁제재	-3950
▁유기	-3951
▁400	-3952
▁완전히	-3953
승을	-3954
트랙	-3955
▁영역	-3956
▁포스코	-3957
고용	-3958
▁입찰	-3959
소방	-3960
▁쇼핑	-3961
▁챙	-3962
방안	-3963
금리	-3964
▁높이고	-3965
▁모여	-3966
타운	-3967
▁유입	-3968
▁쉽지	-3969
▁수치	-3970
▁보이는	-3971
▁절대	-3972
가로	-3973
▁일상	-3974
▁동참	-3975
▁음주	-3976
게임	-3977
▁설정	-3978
▁경제적	-3979
▁중구	-3980
▁남부	-3981
om	-3982
▁공무	-3983
▁전주시	-3984
인가	-3985
▁웹	-3986
▁현장에서	-3987
▁MBC	-3988
▁참여를	-3989
트의	-3990
▁서구	-3991
▁선임	-3992
▁가수	-3993
▁싶다	-3994
쇼핑	-3995
▁당장	-3996
▁앨범	-3997
▁스타트업	-3998
▁기후	-3999
▁상대적으로	-4000
▁얼마나	-4001
▁단축	-4002
▁연방	-4003
▁복귀	-4004
▁2004	-4005
관의	-4006
▁돈을	-4007
음에도	-4008
▁시기	-4009
지면	-4010
▁함께하는	-4011
▁지역주민	-4012
▁만들었다	-4013
▁공화	-4014
▁목적으로	-4015
지역의	-4016
선은	-4017
▁시정	-4018
▁충돌	-4019
▁이승	-4020
드로	-4021
▁다소	-4022
▁위원장은	-4023
·1	-4024
위기	-4025
▁대학생	-4026
▁이론	-4027
액이	-4028
과장은	-4029
▁모두가	-4030
▁일자리를	-4031
▁바라	-4032
허가	-4033
▁컴퓨터	-4034
▁김정	-4035
▁빠져	-4036
▁적이	-4037
▁직업	-4038
천만	-4039
ing	-4040
노조	-4041
▁동원	-4042
▁쌍	-4043
▁IT	-4044
▁최대한	-4045
면에	-4046
▁스토	-4047
▁삼성전자	-4048
▁인터뷰	-4049
▁문화예술	-4050
▁떠나	-4051
였고	-4052
▁비행	-4053
▁수많은	-4054
▁경기를	-4055
▁주인공	-4056
이라면	-4057
▁안전한	-4058
31	-4059
▁점이다	-4060
메라	-4061
▁유엔	-4062
(0.	-4063
센터는	-4064
▁기계	-4065
▁목적	-4066
▁‘2019	-4067
▁가계	-4068
력으로	-4069
시마	-4070
현지	-4071
▁최우수	-4072
▁대부분의	-4073
▁보존	-4074
▁농산물	-4075
히는	-4076
▁거론	-4077
▁사립	-4078
▁고등학교	-4079
▁나선다	-4080
▁조사됐다	-4081
▁로봇	-4082
▁평생	-4083
베이	-4084
38	-4085
▁훼손	-4086
충북	-4087
▁세대	-4088
▁오르	-4089
▁원인	-4090
▁국회에서	-4091
▁말이	-4092
바이	-4093
▁법적	-4094
▁기자회견을	-4095
▁수수	-4096
▁고려해	-4097
▁부인	-4098
▁제고	-4099
▁가능성을	-4100
▁연령	-4101
▁폐쇄	-4102
▁깊은	-4103
▁상업	-4104
▁이때	-4105
▁조국	-4106
영상	-4107
▁수준으로	-4108
▁낳	-4109
▁남성	-4110
었으나	-4111
▁수주	-4112
▁행정안전	-4113
적으로는	-4114
▁성남	-4115
부로	-4116
▁그려	-4117
▁다이	-4118
▁생존	-4119
▁도착	-4120
단과	-4121
▁드론	-4122
▁핀	-4123
▁눈에	-4124
식에서	-4125
▁희생	-4126
34	-4127
▁선사	-4128
▁55	-4129
▁주민들이	-4130
▁따뜻	-4131
▁사업으로	-4132
리어	-4133
▁신한	-4134
▁하는데	-4135
▁실시간	-4136
▁형태로	-4137
he	-4138
터리	-4139
기록	-4140
음악	-4141
중심	-4142
이었던	-4143
미술	-4144
▁훨	-4145
▁매수	-4146
▁실태	-4147
▁49	-4148
놀이	-4149
교육청은	-4150
▁유출	-4151
▁테마	-4152
치료	-4153
화의	-4154
▁떨어진	-4155
▁몽	-4156
인터	-4157
▁꼬	-4158
엑스	-4159
지기	-4160
▁풍부	-4161
일과	-4162
▁앞으로도	-4163
▁유니	-4164
▁마련했다	-4165
전기	-4166
▁피해가	-4167
▁자리에서	-4168
전의	-4169
▁가까이	-4170
▁북한이	-4171
아리	-4172
▁사유	-4173
▁종사	-4174
원이다	-4175
▁낮아	-4176
▁리더	-4177
▁훨씬	-4178
▁상품을	-4179
▁전기차	-4180
▁미디어	-4181
해온	-4182
▁장비	-4183
▁선박	-4184
▁업무를	-4185
▁택시	-4186
▁변화를	-4187
▁100%	-4188
▁삶을	-4189
▁급격	-4190
▁여수	-4191
▁한일	-4192
별로는	-4193
액을	-4194
▁쓰레	-4195
▁계약을	-4196
소와	-4197
▁페이스	-4198
노총	-4199
▁연주	-4200
▁본다	-4201
▁보안	-4202
▁명절	-4203
▁남은	-4204
▁시장을	-4205
활용	-4206
▁시민들이	-4207
▁46	-4208
관련	-4209
▁골프	-4210
국에	-4211
소재	-4212
-1	-4213
중공업	-4214
▁47	-4215
교육을	-4216
▁있지	-4217
서트	-4218
▁참여할	-4219
▁내달	-4220
장기	-4221
▁그를	-4222
▁파트	-4223
▁사업비	-4224
▁내용이	-4225
▁분야의	-4226
력의	-4227
조를	-4228
난다	-4229
▁지원할	-4230
법이	-4231
▁언어	-4232
▁벤	-4233
▁컨설팅	-4234
주행	-4235
2%	-4236
포럼	-4237
▁이른바	-4238
).	-4239
기지	-4240
▁추진한다	-4241
부처	-4242
▁환경을	-4243
▁호남	-4244
▁법정	-4245
▁증권	-4246
▁학생들의	-4247
▁보유한	-4248
▁이주	-4249
서의	-4250
▁순간	-4251
▁환자	-4252
▁널리	-4253
▁통상	-4254
▁순으로	-4255
법은	-4256
정비	-4257
종목	-4258
먼트	-4259
▁원자	-4260
▁후속	-4261
뮤니티	-4262
▁든	-4263
검사	-4264
▁초등학교	-4265
함에	-4266
▁덜	-4267
▁경고	-4268
앞으로	-4269
▁이들이	-4270
▁수정	-4271
▁샤	-4272
수원	-4273
▁강화를	-4274
▁내에서	-4275
▁더해	-4276
▁우리가	-4277
▁노출	-4278
라운드	-4279
▁명확	-4280
이던	-4281
▁블랙	-4282
망을	-4283
실이	-4284
▁촉구했다	-4285
▁소프트	-4286
▁고교	-4287
▁대통령과	-4288
▁협업	-4289
▁나오고	-4290
84	-4291
▁나무	-4292
▁직무	-4293
▁남편	-4294
사례	-4295
▁머물	-4296
▁혼란	-4297
▁도서관	-4298
동물	-4299
질이	-4300
▁위하여	-4301
▁가맹	-4302
지며	-4303
▁경계	-4304
▁고발	-4305
▁해서	-4306
▁손을	-4307
▁일대	-4308
▁기회가	-4309
광역시	-4310
▁아니냐	-4311
▁없다고	-4312
산화	-4313
▁치열	-4314
줬다	-4315
▁충주	-4316
린이	-4317
▁지적이	-4318
▁추경	-4319
체인	-4320
▁하면서	-4321
▁문제로	-4322
리스트	-4323
▁올렸다	-4324
▁결승	-4325
클럽	-4326
전거	-4327
▁강의	-4328
약품	-4329
▁맞이	-4330
▁토대로	-4331
▁소상공인	-4332
세에	-4333
사업의	-4334
▁흔들	-4335
▁지원하고	-4336
관과	-4337
▁유관	-4338
▁횡	-4339
▁실업	-4340
▁3000	-4341
▁승리	-4342
▁면적	-4343
▁이어질	-4344
▁맹	-4345
▁적은	-4346
▁특화	-4347
재산	-4348
▁190	-4349
▁컬	-4350
▁구미	-4351
동이	-4352
▁점차	-4353
▁챔피언	-4354
▁진행할	-4355
어촌	-4356
러스터	-4357
민의	-4358
스테	-4359
▁태양광	-4360
▁기존의	-4361
▁돌입	-4362
▁폭발	-4363
▁향해	-4364
류의	-4365
자료	-4366
▁표시	-4367
▁뮤지	-4368
▁못해	-4369
▁청구	-4370
▁개선을	-4371
▁나가겠다	-4372
만금	-4373
▁후보자	-4374
재로	-4375
종을	-4376
주차	-4377
▁클럽	-4378
▁분기	-4379
▁소설	-4380
▁전화	-4381
▁모니터	-4382
▁해상	-4383
▁확인됐다	-4384
▁상황에	-4385
까지는	-4386
▁산하	-4387
▁아마	-4388
▁결과가	-4389
팀은	-4390
▁협력을	-4391
▁시작된	-4392
지인	-4393
▁자영업	-4394
공공	-4395
▁도모	-4396
▁형사	-4397
기금	-4398
▁듣고	-4399
▁쪽	-4400
▁시장이	-4401
▁비즈	-4402
▁자료를	-4403
▁게시	-4404
▁세종시	-4405
졌고	-4406
▁죄	-4407
▁타고	-4408
▁부족한	-4409
▁관할	-4410
▁아름다운	-4411
씨를	-4412
▁응급	-4413
▁〈	-4414
스플레이	-4415
▁최적	-4416
▁이상이	-4417
로의	-4418
권과	-4419
최근	-4420
▁59	-4421
▁산업혁명	-4422
▁길을	-4423
▁이슈	-4424
이어서	-4425
▁드러났다	-4426
리트	-4427
▁협약을	-4428
ou	-4429
▁음성	-4430
지수	-4431
선에	-4432
▁개입	-4433
▁공산	-4434
기계	-4435
센터를	-4436
▁제공할	-4437
감사	-4438
▁무상	-4439
▁공원	-4440
▁한미	-4441
▁실정	-4442
▁문학	-4443
▁행위	-4444
▁지역은	-4445
▁출산	-4446
▁적합	-4447
▁둘러싼	-4448
▁과제	-4449
▁정리	-4450
었는데	-4451
▁지방자치단체	-4452
▁시공	-4453
▁기록한	-4454
▁지속가능	-4455
▁신경	-4456
▁2002	-4457
퍼스	-4458
▁실내	-4459
포르	-4460
▁안보	-4461
▁투자를	-4462
▁칠	-4463
▁마감	-4464
▁만들고	-4465
람회	-4466
▁방치	-4467
▁탄생	-4468
▁행복한	-4469
자기	-4470
▁성적	-4471
산업의	-4472
.”	-4473
▁것처럼	-4474
스럽게	-4475
TA	-4476
청에	-4477
▁위탁	-4478
▁싶은	-4479
▁관계를	-4480
▁불가피	-4481
됨에	-4482
▁선보인다	-4483
일의	-4484
es	-4485
화폐	-4486
▁동구	-4487
▁받게	-4488
▁나설	-4489
▁카페	-4490
▁지방선거	-4491
kr	-4492
▁벨	-4493
▁그리	-4494
▁까	-4495
▁담긴	-4496
▁받았	-4497
세포	-4498
기업의	-4499
▁시장에서	-4500
▁일환으로	-4501
▁이틀	-4502
▁폭염	-4503
▁커지고	-4504
호가	-4505
▁지연	-4506
▁곳은	-4507
됐지만	-4508
만원의	-4509
▁월드컵	-4510
▁과학기술	-4511
안의	-4512
▁결의	-4513
▁목소리가	-4514
▁아우	-4515
▁축하	-4516
식과	-4517
▁시장에	-4518
4%	-4519
▁바른미래당	-4520
▁유튜브	-4521
인구	-4522
▁지하철	-4523
▁출입	-4524
▁교통사고	-4525
운용	-4526
▁한정	-4527
▁사건을	-4528
▁CJ	-4529
▁투입해	-4530
▁원래	-4531
자들	-4532
어났다	-4533
전시	-4534
▁2,	-4535
▁실질적인	-4536
이상	-4537
조치	-4538
▁질병	-4539
▁수학	-4540
▁설득	-4541
2,	-4542
▁2003	-4543
▁맨	-4544
▁마련해	-4545
후보	-4546
시까지	-4547
해졌다	-4548
▁재개	-4549
키는	-4550
NA	-4551
임대	-4552
▁저렴	-4553
중소	-4554
▁길이	-4555
▁도와	-4556
▁참석해	-4557
▁조작	-4558
▁우리는	-4559
▁수요가	-4560
▁굳	-4561
▁힐	-4562
▁꺼	-4563
▁정확한	-4564
▁생명	-4565
▁이정	-4566
is	-4567
▁성장을	-4568
45	-4569
▁조속	-4570
세다	-4571
인재	-4572
▁권고	-4573
▁김정은	-4574
운전	-4575
▁제시했다	-4576
시장은	-4577
▁외에	-4578
유통	-4579
▁매주	-4580
▁초등	-4581
리게	-4582
행위	-4583
▁가득	-4584
▁검찰은	-4585
▁본격적으로	-4586
▁만남	-4587
▁민선	-4588
▁배제	-4589
당에서	-4590
▁했던	-4591
화는	-4592
▁수업	-4593
▁모습이	-4594
▁적지	-4595
▁경험을	-4596
방을	-4597
미나	-4598
▁수준이다	-4599
군과	-4600
▁문화재	-4601
다시	-4602
▁성능	-4603
▁사람의	-4604
개소	-4605
▁자문	-4606
300	-4607
▁120	-4608
럭시	-4609
▁법무부	-4610
▁포인트	-4611
선언	-4612
▁허가	-4613
▁소요	-4614
▁조건	-4615
▁차이가	-4616
독교	-4617
▁르	-4618
카데	-4619
물로	-4620
am	-4621
▁우주	-4622
99	-4623
▁옆	-4624
▁내렸다	-4625
▁IC	-4626
겠지만	-4627
el	-4628
▁높여	-4629
력에	-4630
▁일은	-4631
고는	-4632
▁'20	-4633
▁붕	-4634
주도	-4635
친다	-4636
▁대표하는	-4637
88	-4638
▁궁금	-4639
▁기대하고	-4640
▁말까지	-4641
▁수급	-4642
문의	-4643
▁매매	-4644
조직	-4645
호는	-4646
▁LH	-4647
▁점이	-4648
▁파트너	-4649
▁침체	-4650
▁곳에	-4651
단으로	-4652
▁연휴	-4653
▁캐나다	-4654
▁미래를	-4655
음이	-4656
▁좋다	-4657
▁역사를	-4658
부터는	-4659
AI	-4660
▁김대	-4661
▁했	-4662
▁조성을	-4663
▁이종	-4664
▁대법원	-4665
▁독립운동	-4666
7%	-4667
▁끈	-4668
사업으로	-4669
케어	-4670
▁전담	-4671
▁실시한	-4672
되자	-4673
▁전공	-4674
▁비중이	-4675
실히	-4676
출산	-4677
▁확대를	-4678
드가	-4679
▁스페인	-4680
테인	-4681
▁원활	-4682
이즈	-4683
▁철거	-4684
▁대안	-4685
▁아내	-4686
네시아	-4687
▁이같이	-4688
▁원내대표는	-4689
▁써	-4690
▁기아	-4691
▁좁	-4692
귀포	-4693
균형발전	-4694
▁명을	-4695
▁내용의	-4696
▁차지하는	-4697
▁누적	-4698
▁미리	-4699
동양	-4700
책임	-4701
회관	-4702
가에	-4703
▁이같은	-4704
부지	-4705
8%	-4706
▁트렌	-4707
▁1990	-4708
밀한	-4709
▁가공	-4710
가량	-4711
식의	-4712
사업이	-4713
▁김동	-4714
화하고	-4715
▁결제	-4716
▁편집	-4717
▁발매	-4718
▁여의	-4719
▁요금	-4720
▁충격	-4721
수에	-4722
부에서	-4723
계에	-4724
▁단일	-4725
▁설명이다	-4726
▁탁	-4727
▁이르는	-4728
▁양국	-4729
차량	-4730
▁신축	-4731
(10	-4732
▁용인	-4733
▁담아	-4734
▁사장은	-4735
▁안정적인	-4736
▁하게	-4737
▁창원	-4738
신청	-4739
▁평택	-4740
▁대우	-4741
▁수사를	-4742
▁경기에서	-4743
▁뿐이다	-4744
(15	-4745
▁인지	-4746
항을	-4747
▁모으	-4748
▁단위	-4749
ol	-4750
▁파업	-4751
▁부작용	-4752
▁데다	-4753
▁평소	-4754
정규직	-4755
은행은	-4756
▁이어졌다	-4757
▁유발	-4758
▁선제	-4759
▁확대해	-4760
▁옮겨	-4761
스마트	-4762
▁공동으로	-4763
▁사업이다	-4764
업무	-4765
▁물류	-4766
▁요구했다	-4767
당에	-4768
▁사회복지	-4769
65	-4770
▁입증	-4771
만여	-4772
로가	-4773
재판	-4774
▁섭	-4775
▁칭	-4776
▁김진	-4777
▁진행되는	-4778
▁잊	-4779
▁운영을	-4780
▁관심과	-4781
층의	-4782
▁이상을	-4783
문제	-4784
상태	-4785
▁자체가	-4786
▁사퇴	-4787
▁김해	-4788
▁무시	-4789
▁요구하는	-4790
시스	-4791
▁브리	-4792
재해	-4793
▁보건복지	-4794
NG	-4795
▁나올	-4796
▁크리스	-4797
조건	-4798
▁우리의	-4799
▁목포	-4800
▁임원	-4801
▁이유다	-4802
힌다	-4803
▁투명	-4804
OU	-4805
축산	-4806
▁블록	-4807
▁미국과	-4808
▁통화	-4809
뉴스	-4810
▁인접	-4811
고도	-4812
▁페이스북	-4813
달라	-4814
▁한마	-4815
▁전월	-4816
효과	-4817
▁검색	-4818
▁다채	-4819
문화재	-4820
▁의존	-4821
생태	-4822
▁여부	-4823
▁달한다	-4824
▁기준을	-4825
▁정체	-4826
정신	-4827
▁경우에는	-4828
▁발휘	-4829
▁높이는	-4830
▁멘	-4831
▁자살	-4832
▁상승했다	-4833
▁위에	-4834
아파트	-4835
▁제도를	-4836
바른	-4837
▁빅데이터	-4838
▁결정을	-4839
▁국가대표	-4840
▁화성	-4841
사이	-4842
▁필리	-4843
선수권	-4844
▁상용	-4845
▁낼	-4846
▁혁신도시	-4847
▁면제	-4848
인들은	-4849
▁때마다	-4850
▁만한	-4851
▁제천	-4852
당과	-4853
▁84	-4854
▁웨	-4855
역사	-4856
▁천연	-4857
▁학술	-4858
▁지시	-4859
▁끝나	-4860
▁늘고	-4861
▁두산	-4862
▁작품을	-4863
▁앞에	-4864
▁소화	-4865
▁입장이다	-4866
▁이어지고	-4867
▁부실	-4868
▁소련	-4869
▁오피스	-4870
▁매장	-4871
드의	-4872
▁완공	-4873
▁저감	-4874
▁민주주의	-4875
▁부서	-4876
▁관람객	-4877
▁그렇게	-4878
▁금메달	-4879
▁혐의를	-4880
▁포럼	-4881
▁신입	-4882
▁가리	-4883
▁냈다	-4884
▁연구원은	-4885
▁쏠	-4886
▁뛰어난	-4887
낸다	-4888
75	-4889
▁억원	-4890
▁방법을	-4891
서비스를	-4892
디아	-4893
▁부탁	-4894
▁회의를	-4895
▁슈퍼	-4896
▁의혹을	-4897
▁서부	-4898
▁가격이	-4899
▁등급	-4900
▁융합	-4901
▁저지	-4902
▁장면	-4903
방안을	-4904
▁거점	-4905
▁초반	-4906
노인	-4907
신고	-4908
▁디자	-4909
▁분쟁	-4910
▁속도를	-4911
▁현재의	-4912
천여	-4913
▁기호	-4914
▁게다가	-4915
64	-4916
lt	-4917
지자	-4918
▁치러	-4919
▁기상	-4920
▁촉진	-4921
▁규모가	-4922
▁결과에	-4923
▁질환	-4924
▁융	-4925
▁설문	-4926
33	-4927
▁부상	-4928
능력	-4929
▁편리	-4930
▁마찬가지	-4931
팀이	-4932
전과	-4933
▁어린이집	-4934
▁방사	-4935
▁뒤를	-4936
▁발사	-4937
EO	-4938
메이션	-4939
▁매도	-4940
▁유형	-4941
의회는	-4942
▁소외	-4943
▁새만금	-4944
중국	-4945
▁솔루	-4946
▁개발한	-4947
▁정식	-4948
cm	-4949
▁체결했다	-4950
▁값	-4951
▁높였다	-4952
▁고대	-4953
나마	-4954
정과	-4955
플러스	-4956
▁건강한	-4957
6%	-4958
▁심리	-4959
▁1980	-4960
▁전북도	-4961
▁방향을	-4962
주군	-4963
▁단양	-4964
석이	-4965
공급	-4966
▁승강	-4967
ac	-4968
▁임직원	-4969
▁조합원	-4970
용품	-4971
▁민생	-4972
▁의장	-4973
▁파괴	-4974
▁발생할	-4975
▁비밀	-4976
르트	-4977
통상자원	-4978
로나	-4979
역에	-4980
콘텐츠	-4981
▁패스트	-4982
▁절감	-4983
▁한층	-4984
HO	-4985
▁비례	-4986
▁돌봄	-4987
▁시대에	-4988
▁과도	-4989
▁감독은	-4990
-2	-4991
▁멈	-4992
▁GS	-4993
▁내다	-4994
▁유해	-4995
카데미	-4996
▁작업을	-4997
▁가르	-4998
▁고등	-4999
▁일단	-5000
(0	-5001
▁반려	-5002
기까지	-5003
▁즉시	-5004
▁충전	-5005
끄는	-5006
▁기여할	-5007
▁커피	-5008
진의	-5009
▁움직임	-5010
동양일보	-5011
▁보이	-5012
현지시간	-5013
▁복원	-5014
▁지표	-5015
▁진행한	-5016
▁대립	-5017
▁갈수록	-5018
대응	-5019
제공	-5020
▁개월	-5021
▁들고	-5022
▁밴	-5023
▁수상했다	-5024
화하는	-5025
▁띄	-5026
오고	-5027
▁저녁	-5028
명했다	-5029
인권	-5030
▁40%	-5031
▁고속도로	-5032
▁의견이	-5033
▁공연을	-5034
조의	-5035
▁성격	-5036
공사는	-5037
▁인천시	-5038
▁연극	-5039
▁임상	-5040
▁석유	-5041
▁75	-5042
▁발급	-5043
어린이	-5044
설을	-5045
▁주어	-5046
▁개발을	-5047
▁끌고	-5048
▁실효	-5049
교사	-5050
이너	-5051
생명	-5052
▁영양	-5053
▁전해졌다	-5054
▁요청했다	-5055
▁커뮤니티	-5056
▁찾은	-5057
▁훈	-5058
▁표창	-5059
▁환영	-5060
▁분위기를	-5061
인증	-5062
평양	-5063
PG	-5064
▁김상	-5065
▁무료로	-5066
▁쓸	-5067
▁유일한	-5068
▁괴산	-5069
총장	-5070
▁창립	-5071
▁방향으로	-5072
▁미치는	-5073
▁위안	-5074
▁정권	-5075
▁사고가	-5076
▁사후	-5077
▁서민	-5078
초등학교	-5079
▁70%	-5080
▁앞장서	-5081
▁운영한다	-5082
DP	-5083
▁진로	-5084
일리	-5085
▁정규	-5086
▁완벽	-5087
▁당진시	-5088
~4	-5089
▁자극	-5090
하였으나	-5091
박물관	-5092
▁피해자	-5093
77	-5094
가포르	-5095
▁앞둔	-5096
▁아베	-5097
▁점유	-5098
텔레콤	-5099
▁척	-5100
▁신도시	-5101
▁예약	-5102
▁총리	-5103
2000	-5104
▁거래되고	-5105
바로	-5106
▁찬성	-5107
▁이어지는	-5108
▁기재	-5109
회의실에서	-5110
▁잠재	-5111
▁면접	-5112
▁진행하는	-5113
월드	-5114
▁라인	-5115
▁세포	-5116
▁43	-5117
▁소규모	-5118
▁얻었다	-5119
▁가스	-5120
드린다	-5121
▁경우도	-5122
▁중부	-5123
▁다니	-5124
▁오스트	-5125
구와	-5126
▁기독교	-5127
▁수집	-5128
▁작곡	-5129
감은	-5130
▁출생	-5131
▁지사는	-5132
개사	-5133
심이	-5134
▁사례가	-5135
▁저소득	-5136
▁전국에서	-5137
한의	-5138
▁장관이	-5139
▁회계	-5140
인사	-5141
▁농림	-5142
▁연락	-5143
3)	-5144
라우드	-5145
▁현재는	-5146
▁f	-5147
▁당사	-5148
만으로	-5149
▁철저히	-5150
▁어려워	-5151
장치	-5152
▁스위	-5153
▁고정	-5154
▁54	-5155
▁여겨	-5156
▁들어서	-5157
▁얻고	-5158
사항을	-5159
▁줄어든	-5160
말로	-5161
안보	-5162
▁유리	-5163
▁고급	-5164
▁애니	-5165
▁거두	-5166
▁있어야	-5167
▁화합	-5168
주와	-5169
▁건조	-5170
▁연수	-5171
금으로	-5172
▁문제에	-5173
위에서	-5174
재정부	-5175
▁워크	-5176
토록	-5177
▁영향으로	-5178
▁창작	-5179
▁근로자	-5180
▁복잡	-5181
▁기업을	-5182
▁계산	-5183
▁보증	-5184
▁키워	-5185
▁실시하고	-5186
▁발생했다	-5187
전지	-5188
▁산업통상자원	-5189
되기도	-5190
▁체감	-5191
▁컸	-5192
처분	-5193
▁농민	-5194
▁보행	-5195
▁=	-5196
소시	-5197
방향	-5198
▁동부	-5199
1)	-5200
▁공익	-5201
85	-5202
산업단지	-5203
▁모니터링	-5204
시코	-5205
www	-5206
▁진상	-5207
가지로	-5208
▁붕괴	-5209
화한	-5210
▁침해	-5211
청문	-5212
▁조달	-5213
직한	-5214
하려면	-5215
▁곳이	-5216
ro	-5217
▁수십	-5218
▁해수	-5219
▁특례	-5220
▁활용할	-5221
공무원	-5222
독립	-5223
▁의뢰	-5224
마크	-5225
▁안심	-5226
▁해당하는	-5227
▁적정	-5228
뒀다	-5229
▁박정	-5230
▁고향	-5231
▁넘게	-5232
▁서귀포	-5233
하면서도	-5234
▁남녀	-5235
▁김태	-5236
으므로	-5237
▁들었다	-5238
▁한국은	-5239
▁설비	-5240
▁출판	-5241
▁충남도	-5242
▁평창	-5243
와는	-5244
일반	-5245
전으로	-5246
▁유명한	-5247
▁그럼	-5248
▁위축	-5249
▁패션	-5250
▁무려	-5251
▁재생	-5252
▁대외	-5253
▁격려	-5254
▁남쪽	-5255
삼성	-5256
돼지	-5257
처를	-5258
해주	-5259
▁양산	-5260
부담	-5261
▁역임	-5262
▁공천	-5263
▁무기	-5264
▁성인	-5265
학적	-5266
▁조절	-5267
▁윌	-5268
회계	-5269
▁그들의	-5270
▁차원의	-5271
만원으로	-5272
미디어	-5273
들어	-5274
▁의원의	-5275
▁뚜	-5276
▁사랑을	-5277
비율	-5278
▁총괄	-5279
▁비판했다	-5280
중인	-5281
▁벼	-5282
▁다짐	-5283
▁공간을	-5284
▁불확	-5285
▁힘든	-5286
▁감소한	-5287
▁충족	-5288
▁추억	-5289
편의	-5290
▁분노	-5291
▁공동체	-5292
국과	-5293
▁익산	-5294
▁높았다	-5295
▁김현	-5296
▁즉각	-5297
▁사람을	-5298
▁그쳤다	-5299
도심	-5300
체계를	-5301
▁숙박	-5302
가치	-5303
평을	-5304
공헌	-5305
관에	-5306
▁주제	-5307
▁추구	-5308
적한	-5309
▁재건축	-5310
▁하늘	-5311
▁보이지	-5312
▁있는지	-5313
▁물러	-5314
▁갖춰	-5315
지역에	-5316
▁일방	-5317
마켓	-5318
▁조지	-5319
▁강화하고	-5320
▁교육과	-5321
▁정규직	-5322
이용	-5323
▁그간	-5324
▁춘	-5325
▁공부	-5326
위원회의	-5327
▁진료	-5328
▁42	-5329
▁있음을	-5330
아트	-5331
▁기대를	-5332
32	-5333
공정	-5334
▁정책에	-5335
보가	-5336
었을	-5337
토론	-5338
▁무너	-5339
▁것이란	-5340
▁비즈니스	-5341
89	-5342
▁다수	-5343
▁아침	-5344
▁.	-5345
울산	-5346
▁오늘날	-5347
▁샌	-5348
▁문화체육	-5349
▁이뤄졌다	-5350
▁뜨거운	-5351
▁"(	-5352
신이	-5353
신도시	-5354
▁말이다	-5355
타임	-5356
▁일각	-5357
▁앉	-5358
현장	-5359
▁점포	-5360
거래량	-5361
▁진정	-5362
▁런	-5363
▁필요하다는	-5364
▁그에	-5365
▁경찰에	-5366
▁참여했다	-5367
▁재무	-5368
▁코스닥	-5369
브리	-5370
▁가슴	-5371
피아	-5372
▁안전을	-5373
74	-5374
▁개최한다	-5375
▁전파	-5376
시장의	-5377
▁우승을	-5378
서울경제	-5379
▁기획재정부	-5380
▁십	-5381
▁북쪽	-5382
▁일반적으로	-5383
패를	-5384
함이	-5385
▁내린	-5386
이의	-5387
▁징계	-5388
▁가속	-5389
스에서	-5390
▁감축	-5391
▁원으로	-5392
▁호응을	-5393
▁년간	-5394
투어	-5395
▁부적	-5396
미세먼	-5397
▁아주	-5398
▁분야에	-5399
▁세계적인	-5400
9%	-5401
▁정부에	-5402
인도	-5403
▁불거	-5404
▁통제	-5405
▁위원장	-5406
▁시민단체	-5407
▁2001	-5408
800	-5409
▁투어	-5410
▁부담이	-5411
▁방문객	-5412
▁부회	-5413
▁대거	-5414
▁기반을	-5415
체는	-5416
▁시에	-5417
▁카메라	-5418
▁올려	-5419
들이다	-5420
▁인도네시아	-5421
각을	-5422
톨릭	-5423
억원이	-5424
▁신문	-5425
▁유치원	-5426
▁아버지	-5427
IT	-5428
▁개헌	-5429
▁슬로	-5430
▁동료	-5431
▁지분	-5432
전형	-5433
지대	-5434
복을	-5435
동조합	-5436
▁부채	-5437
▁김기	-5438
▁막기	-5439
고속도로	-5440
▁지금은	-5441
▁구청	-5442
▁집권	-5443
▁경기가	-5444
▁국민이	-5445
▁사항은	-5446
구로	-5447
▁지원해	-5448
서와	-5449
오늘	-5450
▁CC	-5451
▁신임	-5452
▁공포	-5453
▁높이기	-5454
▁서류	-5455
▁시점	-5456
▁뮤지컬	-5457
▁자신을	-5458
평등	-5459
▁동해	-5460
▁그만큼	-5461
▁미국이	-5462
▁캠페인	-5463
사회의	-5464
▁이용하는	-5465
▁&	-5466
▁폐기물	-5467
il	-5468
▁풀이	-5469
▁자전거	-5470
▁경북도	-5471
스럽다	-5472
▁당일	-5473
▁로드	-5474
▁썼	-5475
전북	-5476
▁보유하고	-5477
▁막을	-5478
스턴	-5479
LB	-5480
▁잉	-5481
설명	-5482
▁보관	-5483
▁아닐	-5484
였으며	-5485
▁기업들이	-5486
기본	-5487
보장	-5488
▁살고	-5489
백화점	-5490
▁사로	-5491
▁의회	-5492
▁자율주행	-5493
공개	-5494
▁전일	-5495
▁했고	-5496
진흥원	-5497
▁따뜻한	-5498
▁이외에도	-5499
▁추락	-5500
▁마친	-5501
▁진술	-5502
역이	-5503
▁감정	-5504
▁빨리	-5505
▁손해	-5506
▁털	-5507
▁답했다	-5508
인당	-5509
고가	-5510
▁철저한	-5511
▁항상	-5512
▁신체	-5513
▁응원	-5514
▁전후	-5515
▁비율	-5516
검찰	-5517
▁지진	-5518
▁안산	-5519
▁개정안	-5520
▁설치된	-5521
▁북구	-5522
▁블루	-5523
신의	-5524
실에	-5525
▁강원도	-5526
▁신청을	-5527
순위	-5528
▁아쉬	-5529
▁추진을	-5530
로드	-5531
▁합병	-5532
감한	-5533
만한	-5534
▁맞은	-5535
▁행태	-5536
▁펀드	-5537
▁차지하고	-5538
수석	-5539
▁소형	-5540
국인	-5541
▁공개했다	-5542
▁청문	-5543
▁은퇴	-5544
▁이벤트를	-5545
보니	-5546
▁제목	-5547
란히	-5548
▁폭행	-5549
▁선수가	-5550
정상회담	-5551
▁공인	-5552
▁멸	-5553
▁쟁	-5554
▁보육	-5555
▁부대	-5556
▁발주	-5557
아동	-5558
▁41	-5559
▁곽	-5560
▁나는	-5561
▁연구개발	-5562
▁참고	-5563
▁식민	-5564
▁바꿔	-5565
들로부터	-5566
▁선포	-5567
▁성공적으로	-5568
▁옹	-5569
▁고속	-5570
▁안동	-5571
▁기록을	-5572
▁맡은	-5573
▁접촉	-5574
▁몰아	-5575
인민공화국	-5576
▁있었지만	-5577
타를	-5578
▁이명	-5579
▁회장이	-5580
▁문화를	-5581
▁예정인	-5582
트가	-5583
▁사건이	-5584
▁분석했다	-5585
▁투쟁	-5586
민주주의	-5587
▁수준을	-5588
▁위치해	-5589
▁점도	-5590
장관	-5591
폐기	-5592
▁통보	-5593
▁협의를	-5594
▁들어갔다	-5595
▁사이에서	-5596
▁600	-5597
▁결코	-5598
▁총장	-5599
▁중점	-5600
르지	-5601
널드	-5602
▁저장	-5603
▁증정	-5604
▁합류	-5605
▁마치	-5606
자연	-5607
us	-5608
학의	-5609
▁연계해	-5610
▁이른다	-5611
▁짜	-5612
주간	-5613
치로	-5614
▁산불	-5615
사들이	-5616
▁결정했다	-5617
▁기업은	-5618
담당	-5619
600	-5620
▁상무	-5621
서로	-5622
▁연료	-5623
위와	-5624
▁맡아	-5625
▁여객	-5626
ch	-5627
▁가상	-5628
충청일보	-5629
나이	-5630
▁탑재	-5631
▁자발	-5632
▁시설을	-5633
▁현장을	-5634
▁항목	-5635
만달러	-5636
역에서	-5637
▁숫	-5638
▁떨어졌다	-5639
터테인	-5640
▁묶	-5641
▁갤럭시	-5642
▁싱가포르	-5643
·2	-5644
▁SBS	-5645
~5	-5646
치의	-5647
▁탓에	-5648
▁도출	-5649
▁보기	-5650
▁내년도	-5651
▁공동주택	-5652
▁발전에	-5653
공동체	-5654
▁이마트	-5655
▁납부	-5656
▁심화	-5657
디자인	-5658
3000	-5659
억원에	-5660
▁공론	-5661
▁전략을	-5662
gt	-5663
받침	-5664
▁그럼에도	-5665
▁재개발	-5666
▁북부	-5667
▁인구가	-5668
푸드	-5669
▁새벽	-5670
95	-5671
▁바닥	-5672
▁유력	-5673
▁미국은	-5674
▁있다면	-5675
▁이뤄질	-5676
6000	-5677
▁반응을	-5678
구나	-5679
▁진보	-5680
댓글	-5681
분석	-5682
전국	-5683
▁사이의	-5684
기관의	-5685
▁구축을	-5686
년과	-5687
▁가해	-5688
▁끝난	-5689
▁못할	-5690
▁늘려	-5691
▁만난	-5692
▁축산	-5693
▁체포	-5694
▁향한	-5695
▁확보를	-5696
결을	-5697
▁돌려	-5698
▁사전에	-5699
▁다행	-5700
▁유일하게	-5701
아의	-5702
▁묵	-5703
여명의	-5704
▁메뉴	-5705
▁다루	-5706
여야	-5707
▁불어	-5708
▁조언	-5709
▁일어난	-5710
치게	-5711
멕시코	-5712
▁지원사업	-5713
▁말고	-5714
▁동맹	-5715
라의	-5716
글로벌	-5717
연합회	-5718
87	-5719
▁무관	-5720
▁초래	-5721
▁맡고	-5722
▁시대를	-5723
개정	-5724
▁대리	-5725
▁물질	-5726
▁병행	-5727
▁다문화	-5728
주에	-5729
▁허위	-5730
대교	-5731
수출	-5732
▁해안	-5733
▁야당	-5734
집행	-5735
▁재발	-5736
▁무산	-5737
▁중에서	-5738
개가	-5739
▁기업에	-5740
▁간편	-5741
▁진행될	-5742
▁이것은	-5743
▁밟	-5744
작업	-5745
▁금강	-5746
▁해운	-5747
▁나아	-5748
▁에너	-5749
모를	-5750
인에게	-5751
▁유권	-5752
▁없도록	-5753
▁업무협약을	-5754
▁권리	-5755
행복	-5756
▁64	-5757
▁느낌	-5758
▁서해	-5759
▁규모는	-5760
▁세월호	-5761
성한	-5762
▁풀어	-5763
▁하락했다	-5764
▁전형	-5765
▁다채로운	-5766
▁일원	-5767
▁국가의	-5768
▁됐	-5769
놨다	-5770
▁느낄	-5771
▁최다	-5772
▁호흡	-5773
▁영토	-5774
▁증가하고	-5775
▁수강	-5776
▁일시	-5777
▁구성해	-5778
친화	-5779
운동을	-5780
]]	-5781
일러	-5782
놓고	-5783
▁전수	-5784
8000	-5785
▁글을	-5786
▁동생	-5787
▁분양가	-5788
ed	-5789
▁아니냐는	-5790
▁신호	-5791
▁기조	-5792
▁얘기다	-5793
▁맞추	-5794
▁최악	-5795
▁한해	-5796
▁능력을	-5797
▁운영에	-5798
위원장은	-5799
▁특강	-5800
▁사로잡	-5801
▁비정규직	-5802
▁궤	-5803
▁지출	-5804
▁현금	-5805
심히	-5806
▁꿈을	-5807
진과	-5808
▁먹거리	-5809
협약	-5810
협상	-5811
▁구상	-5812
드러	-5813
경찰청	-5814
▁패스트트랙	-5815
야구	-5816
곳에	-5817
특별자치	-5818
대화	-5819
물은	-5820
골을	-5821
▁56	-5822
사용	-5823
▁비교적	-5824
▁시작해	-5825
▁특징이다	-5826
▁경로	-5827
▁교환	-5828
▁살해	-5829
지법	-5830
▁실시했다	-5831
요금	-5832
력발전	-5833
▁과연	-5834
▁프레	-5835
▁시기에	-5836
▁순천	-5837
▁중소벤처기업	-5838
미터	-5839
시안	-5840
86	-5841
급여	-5842
뱅크	-5843
▁옷	-5844
색을	-5845
▁대로	-5846
▁비율이	-5847
합니다	-5848
충남	-5849
지어	-5850
년째	-5851
▁부당	-5852
▁공고	-5853
ent	-5854
재가	-5855
▁주민들은	-5856
▁활성화에	-5857
▁피부	-5858
이닝	-5859
▁공시	-5860
선으로	-5861
▁형태의	-5862
▁맞게	-5863
▁수성	-5864
명에게	-5865
원장	-5866
▁잇따라	-5867
성으로	-5868
직자	-5869
▁개척	-5870
▁평양	-5871
▁역사적	-5872
▁점점	-5873
▁이전에	-5874
▁이수	-5875
▁3·1	-5876
▁화물	-5877
매김	-5878
DI	-5879
▁영남	-5880
타워	-5881
▁교수가	-5882
▁해체	-5883
▁노하우	-5884
▁필리핀	-5885
▁노무	-5886
▁한전	-5887
하다가	-5888
프라인	-5889
▁행사가	-5890
▁담고	-5891
▁건너	-5892
▁꼼	-5893
같은	-5894
▁존중	-5895
▁화려	-5896
▁대중교통	-5897
정원	-5898
▁감시	-5899
▁80%	-5900
세안	-5901
▁갖추고	-5902
▁동쪽	-5903
▁자리매김	-5904
▁페스티벌	-5905
▁비용을	-5906
▁교과	-5907
사람	-5908
명이다	-5909
▁개발에	-5910
배를	-5911
단한	-5912
▁층	-5913
곳을	-5914
▁동계	-5915
▁안팎	-5916
투표	-5917
사건	-5918
▁미니	-5919
4000	-5920
▁높일	-5921
실은	-5922
▁김포	-5923
▁재미	-5924
▁해결을	-5925
▁번째로	-5926
▁캠페	-5927
▁1999	-5928
’(	-5929
▁올린	-5930
시장이	-5931
제조	-5932
튜디오	-5933
▁누리	-5934
▁고도	-5935
▁댓글	-5936
수준	-5937
▁의사를	-5938
▁이끄는	-5939
▁생긴	-5940
▁실정이다	-5941
▁향상을	-5942
▁한국을	-5943
연대	-5944
7000	-5945
▁코스피	-5946
▁콘텐츠를	-5947
▁마땅	-5948
▁[[	-5949
▁다르다	-5950
▁생활을	-5951
웨덴	-5952
▁대구경북	-5953
자도	-5954
44	-5955
▁펜	-5956
▁철회	-5957
점과	-5958
▁가야	-5959
▁국민연금	-5960
연한	-5961
기술을	-5962
나갈	-5963
▁명시	-5964
▁가시	-5965
▁떨어져	-5966
내기	-5967
안정	-5968
집을	-5969
수익	-5970
▁육군	-5971
▁반영해	-5972
▁의혹이	-5973
▁구제	-5974
▁부르	-5975
▁서쪽	-5976
▁미사일	-5977
▁서울대	-5978
▁교육부	-5979
▁포함된	-5980
▁새누리	-5981
▁업무협약	-5982
▁산학	-5983
준비	-5984
▁Y	-5985
▁되길	-5986
목적	-5987
▁목표를	-5988
▁야외	-5989
▁인생	-5990
관계를	-5991
레이드	-5992
▁알리는	-5993
96	-5994
▁도약	-5995
▁최신	-5996
분권	-5997
스키	-5998
▁중기	-5999
류가	-6000
▁사안	-6001
▁결과는	-6002
▁학생들은	-6003
팀을	-6004
▁심사를	-6005
▁c	-6006
▁정도의	-6007
간담	-6008
유럽	-6009
▁평가했다	-6010
▁보령	-6011
정책을	-6012
리다	-6013
▁예를	-6014
▁불확실	-6015
▁벌금	-6016
국으로	-6017
▁짐	-6018
▁전망된다	-6019
사장	-6020
증이	-6021
▁방역	-6022
▁위촉	-6023
▁밥	-6024
▁유전	-6025
▁신선	-6026
▁방어	-6027
ation	-6028
▁실시한다	-6029
권도	-6030
▁권력	-6031
▁브리핑	-6032
▁사례를	-6033
▁취약계층	-6034
▁떠오	-6035
▁광산	-6036
안군	-6037
▁아산	-6038
▁유동	-6039
▁기원전	-6040
▁주기	-6041
▁위기에	-6042
▁사회공헌	-6043
▁을	-6044
▁57	-6045
▁영입	-6046
▁잡고	-6047
▁제약	-6048
관으로	-6049
하자는	-6050
▁속도	-6051
▁정말	-6052
▁비교해	-6053
▁지역민	-6054
미국	-6055
▁마찬가지로	-6056
▁수능	-6057
인에	-6058
▁참가한	-6059
▁화장품	-6060
플러	-6061
▁경유	-6062
▁해제	-6063
▁있습니다	-6064
▁배달	-6065
▁야간	-6066
학자	-6067
▁모르	-6068
▁긴장	-6069
그래	-6070
▁김재	-6071
▁재능	-6072
AS	-6073
▁CCTV	-6074
물에	-6075
▁강경	-6076
▁어울	-6077
▁간담회	-6078
용역	-6079
55	-6080
메리카	-6081
▁착용	-6082
▁주민의	-6083
▁방식을	-6084
여서	-6085
▁명령	-6086
▁추모	-6087
▁구역	-6088
선수권대회	-6089
드라마	-6090
▁예산이	-6091
▁제주시	-6092
론이	-6093
▁내는	-6094
보기	-6095
▁명품	-6096
소송	-6097
▁제출한	-6098
설계	-6099
▁이뤄진	-6100
▁애니메이션	-6101
▁최근에는	-6102
▁m	-6103
▁유관기관	-6104
▁엄마	-6105
▁종목의	-6106
▁180	-6107
▁배정	-6108
▁이하의	-6109
▁훌	-6110
▁인사청문	-6111
▁엄청	-6112
▁곳에서	-6113
▁대상이	-6114
▁간담회를	-6115
▁관세	-6116
▁해마다	-6117
더니	-6118
▁지원에	-6119
하우스	-6120
▁했다고	-6121
▁상한	-6122
▁정해	-6123
됐다고	-6124
▁시대의	-6125
심한	-6126
강화	-6127
▁단기	-6128
▁둘째	-6129
▁아예	-6130
▁잡아	-6131
▁패키	-6132
▁강연	-6133
▁취급	-6134
▁스페	-6135
▁공사를	-6136
▁옥천	-6137
리면서	-6138
시키기	-6139
▁뒷받침	-6140
▁산업의	-6141
▁「	-6142
리에서	-6143
▁군수는	-6144
▁활동에	-6145
▁보은	-6146
국장은	-6147
▁본회의	-6148
▁근절	-6149
사이트	-6150
▁공통	-6151
▁쓰레기	-6152
ig	-6153
악한	-6154
▁확립	-6155
▁당첨	-6156
췄다	-6157
▁에이	-6158
▁연구를	-6159
지금	-6160
소한	-6161
▁영상을	-6162
▁나이	-6163
▁석탄	-6164
▁문화체육관광	-6165
▁따로	-6166
시장을	-6167
▁경제의	-6168
▁이름으로	-6169
▁충분한	-6170
▁하자	-6171
스카	-6172
지다	-6173
▁하천	-6174
▁악취	-6175
면으로	-6176
▁가능성도	-6177
▁방문한	-6178
▁전통시장	-6179
▁흘러	-6180
▁고창	-6181
▁손님	-6182
▁태국	-6183
▁승리를	-6184
▁여건	-6185
▁장소	-6186
▁캠프	-6187
▁중학교	-6188
▁지원이	-6189
▁여의도	-6190
▁NH	-6191
▁대만	-6192
대금	-6193
▁농식품	-6194
▁의식	-6195
94	-6196
검토	-6197
▁인건	-6198
▁대화를	-6199
비로	-6200
▁차세대	-6201
▁잇는	-6202
▁변화가	-6203
▁넘겨	-6204
▁증명	-6205
▁도널드	-6206
은행이	-6207
ht	-6208
▁웅	-6209
▁클래	-6210
국장	-6211
기사	-6212
▁렌	-6213
▁쇠	-6214
▁덮	-6215
▁재해	-6216
소시엄	-6217
▁갈등을	-6218
시설이	-6219
▁PC	-6220
된다는	-6221
▁동시	-6222
▁쓰는	-6223
▁자원봉사	-6224
▁행사에	-6225
▁않게	-6226
▁영광	-6227
본부는	-6228
▁보여주는	-6229
▁개관	-6230
▁내수	-6231
파이	-6232
▁무대	-6233
정부의	-6234
▁e	-6235
들과의	-6236
▁풍부한	-6237
▁FC	-6238
너스	-6239
▁문제다	-6240
▁동북	-6241
하려고	-6242
▁전체의	-6243
비와	-6244
▁유아	-6245
▁사진을	-6246
▁생태계	-6247
▁가량	-6248
▁상관	-6249
▁배려	-6250
▁서명	-6251
▁정책이	-6252
▁주장이	-6253
▁소프트웨어	-6254
▁긍정적인	-6255
벤션	-6256
▁외면	-6257
-0	-6258
발전을	-6259
▁일관	-6260
봐야	-6261
▁마치고	-6262
▁얻어	-6263
▁퇴직	-6264
뷰티	-6265
▁시사	-6266
▁홈런	-6267
▁경찰이	-6268
소리	-6269
▁규제를	-6270
▁만약	-6271
▁의미한다	-6272
▁다수의	-6273
거리를	-6274
▁소중한	-6275
▁간호	-6276
로도	-6277
▁되었고	-6278
사카	-6279
▁대해서	-6280
인터넷	-6281
▁끌어올	-6282
▁무게	-6283
▁엄격	-6284
공사가	-6285
▁스크	-6286
▁검찰이	-6287
▁남동	-6288
▁대륙	-6289
▁주주	-6290
취업	-6291
▁대목	-6292
▁구독	-6293
▁분석한	-6294
▁개성	-6295
▁거짓	-6296
▁뿌리	-6297
▁안양	-6298
▁지역으로	-6299
국내	-6300
정보통신	-6301
▁수확	-6302
▁요즘	-6303
▁자아	-6304
▁대전시	-6305
▁테스트	-6306
▁제안했다	-6307
▁다섯	-6308
▁멕시코	-6309
▁것이었다	-6310
사법	-6311
▁가격은	-6312
드리	-6313
대회를	-6314
▁예타	-6315
▁대상을	-6316
▁호주	-6317
66	-6318
▁처음이다	-6319
청의	-6320
ECD	-6321
▁1%	-6322
▁기념촬영	-6323
▁진행되고	-6324
▁선정해	-6325
▁고용노동	-6326
▁되도록	-6327
사관	-6328
점의	-6329
▁적용해	-6330
▁상시	-6331
▁불과하다	-6332
▁균	-6333
▁정지	-6334
▁위기를	-6335
▁과태	-6336
▁주민자치	-6337
▁개최된	-6338
▁높아지고	-6339
실로	-6340
▁메이저	-6341
미가	-6342
▁채권	-6343
고객	-6344
▁있었고	-6345
▁변동	-6346
료가	-6347
▁겹	-6348
▁선두	-6349
▁사실이다	-6350
▁1998	-6351
체육회	-6352
▁이유가	-6353
▁정도다	-6354
▁사람들은	-6355
센터가	-6356
▁곳으로	-6357
▁점은	-6358
▁계승	-6359
▁국회에	-6360
▁골목	-6361
▁매달	-6362
▁연관	-6363
▁준다	-6364
학년도	-6365
▁진행해	-6366
법상	-6367
▁크로	-6368
포먼	-6369
로서의	-6370
▁내놓은	-6371
나눔	-6372
영향	-6373
▁생물	-6374
▁기업과	-6375
▁상당한	-6376
▁전부터	-6377
▁금호	-6378
▁높게	-6379
▁김경	-6380
▁승객	-6381
레일	-6382
터를	-6383
▁좋겠다	-6384
▁가능해	-6385
함과	-6386
▁왜곡	-6387
▁일정을	-6388
▁이듬	-6389
(14	-6390
▁순환	-6391
차별	-6392
▁남구	-6393
▁관리를	-6394
▁된다는	-6395
과학기술	-6396
▁기록하며	-6397
종이	-6398
만은	-6399
▁뚜렷	-6400
▁3,	-6401
▁논의를	-6402
▁내가	-6403
▁주한	-6404
▁이로써	-6405
▁펼치고	-6406
▁신분	-6407
억달러	-6408
▁지닌	-6409
▁체납	-6410
어의	-6411
▁운항	-6412
▁또다시	-6413
▁이용객	-6414
▁분위기	-6415
▁불편을	-6416
영은	-6417
▁스웨덴	-6418
덜란드	-6419
발을	-6420
문화예술	-6421
▁정밀	-6422
▁사회의	-6423
▁활력을	-6424
▁덴	-6425
▁깨끗	-6426
소프트	-6427
▁연계한	-6428
▁유성	-6429
▁항의	-6430
되도록	-6431
▁맡았다	-6432
▁타이틀	-6433
▁대변인은	-6434
▁FI	-6435
▁올랐	-6436
▁폴란드	-6437
▁만들어진	-6438
호의	-6439
실과	-6440
▁드러나	-6441
▁이제는	-6442
▁기원	-6443
▁휴대	-6444
▁현대자동차	-6445
▁알게	-6446
▁승진	-6447
▁공개된	-6448
▁독자	-6449
▁노동자	-6450
▁코리아	-6451
행이	-6452
▁접목	-6453
여개	-6454
▁전세	-6455
▁방해	-6456
씨와	-6457
▁위로	-6458
▁정원	-6459
▁경제가	-6460
orm	-6461
▁노력이	-6462
▁성적을	-6463
▁맞서	-6464
정으로	-6465
대한민국	-6466
싱턴	-6467
▁지명	-6468
모리	-6469
▁ICT	-6470
▁세미나	-6471
▁이듬해	-6472
계는	-6473
▁동아	-6474
경은	-6475
▁명으로	-6476
▁낮추	-6477
▁여당	-6478
iv	-6479
액의	-6480
▁잘못된	-6481
▁오피스텔	-6482
개월간	-6483
▁실종	-6484
▁점령	-6485
사무소	-6486
▁박사	-6487
▁전반에	-6488
탄을	-6489
▁정무	-6490
됐다는	-6491
▁2030	-6492
▁국내에서	-6493
▁인근에	-6494
▁일본이	-6495
▁재활용	-6496
▁주목된다	-6497
▁예능	-6498
▁전부	-6499
▁기호일보	-6500
▁근로시간	-6501
▁전까지	-6502
▁발간	-6503
▁전원	-6504
▁가능하며	-6505
▁수비	-6506
PA	-6507
라스틱	-6508
식에는	-6509
▁선정돼	-6510
▁질문	-6511
▁내년부터	-6512
든지	-6513
그룹은	-6514
수지	-6515
▁1997	-6516
▁감안하면	-6517
▁재판부는	-6518
▁85	-6519
▁동일한	-6520
▁이들을	-6521
▁국세	-6522
케이션	-6523
▁신뢰를	-6524
경이	-6525
▁개장	-6526
▁연습	-6527
주식	-6528
유치원	-6529
▁꺾	-6530
비전	-6531
▁유래	-6532
▁전망했다	-6533
as	-6534
▁교섭	-6535
▁연동	-6536
▁아끼	-6537
▁흉	-6538
▁개봉	-6539
지난해	-6540
브랜드	-6541
았으며	-6542
▁서산	-6543
서구	-6544
소통	-6545
활성	-6546
중학교	-6547
청주	-6548
▁짧은	-6549
▁앙	-6550
▁58	-6551
▁없애	-6552
▁할머니	-6553
▁편입	-6554
면의	-6555
▁마약	-6556
9000	-6557
▁관찰	-6558
▁필요성을	-6559
▁기술이	-6560
▁별도로	-6561
▁올해부터	-6562
연의	-6563
97	-6564
바다	-6565
▁느껴	-6566
▁탄핵	-6567
음식	-6568
▁경주	-6569
▁세금	-6570
▁2023	-6571
감과	-6572
▁윈	-6573
▁현상	-6574
▁보인	-6575
해지고	-6576
▁잠시	-6577
▁운영해	-6578
▁제외하고	-6579
▁근처	-6580
▁왼쪽	-6581
▁정치권	-6582
▁안전사고	-6583
교를	-6584
▁열심히	-6585
열병	-6586
▁인사를	-6587
▁스테	-6588
▁방법으로	-6589
▁51	-6590
▁경력	-6591
치며	-6592
▁입은	-6593
▁전경	-6594
연수	-6595
▁업체가	-6596
▁X	-6597
공학	-6598
▁항만	-6599
▁0.0	-6600
▁똑	-6601
TO	-6602
였지만	-6603
▁민주당은	-6604
-3	-6605
▁검찰에	-6606
▁250	-6607
▁주차장	-6608
▁보냈다	-6609
▁워크숍	-6610
UV	-6611
▁혁명	-6612
▁60%	-6613
▁제시한	-6614
▁기본계획	-6615
▁유족	-6616
▁1970	-6617
go	-6618
▁보낸	-6619
▁달려	-6620
▁받아들이	-6621
▁한글	-6622
가정	-6623
▁중도	-6624
▁세계에서	-6625
고기	-6626
▁그때	-6627
▁테이	-6628
▁콘서트	-6629
▁확대하고	-6630
▁이유를	-6631
▁협력해	-6632
캠프	-6633
▁미칠	-6634
▁청렴	-6635
▁가축	-6636
▁압도	-6637
▁이자	-6638
▁찾기	-6639
▁인간의	-6640
에서만	-6641
▁달했다	-6642
▁하나인	-6643
▁국토교통부	-6644
▁지목	-6645
▁보여주	-6646
지검	-6647
▁되돌	-6648
▁귀농	-6649
고의	-6650
▁며	-6651
▁양측	-6652
미는	-6653
보수	-6654
방지	-6655
▁치료를	-6656
▁차별화된	-6657
IST	-6658
▁대비해	-6659
PC	-6660
▁돼지	-6661
▁입지	-6662
▁탑승	-6663
합의	-6664
였으나	-6665
회로	-6666
▁멘토	-6667
해주는	-6668
~6	-6669
▁애로	-6670
▁전국의	-6671
▁캡	-6672
▁운송	-6673
화할	-6674
▁66	-6675
▁신인	-6676
▁좋지	-6677
▁선보였다	-6678
▁비중은	-6679
▁전달했다	-6680
수입	-6681
어붙	-6682
▁집값	-6683
▁나서고	-6684
▁김용	-6685
▁출석	-6686
1000	-6687
촛불	-6688
▁문자	-6689
양을	-6690
▁대다	-6691
▁이름은	-6692
▁지역구	-6693
▁저항	-6694
▁곳이다	-6695
▁사이트	-6696
▁대표의	-6697
▁일원에서	-6698
청과	-6699
▁올바른	-6700
▁도교육청	-6701
▁근대	-6702
▁모범	-6703
▁강행	-6704
▁넓은	-6705
▁상태로	-6706
▁전국적으로	-6707
▁것인지	-6708
▁별도의	-6709
▁상가	-6710
▁현상이	-6711
▁특성을	-6712
▁지정된	-6713
▁신제품	-6714
수한	-6715
▁연예	-6716
▁부분이	-6717
▁풀이된다	-6718
▁비전	-6719
▁강하게	-6720
분께	-6721
특히	-6722
▁비율은	-6723
▁약속했다	-6724
시장에서	-6725
▁튀	-6726
▁떠올	-6727
▁얻을	-6728
▁자치단체	-6729
품질	-6730
(11	-6731
▁경우는	-6732
풀이	-6733
모델링	-6734
유공	-6735
▁단순히	-6736
야마	-6737
지니어	-6738
▁능력	-6739
▁올리	-6740
▁자리에	-6741
▁기사	-6742
협정	-6743
▁내외	-6744
▁국산	-6745
▁운동을	-6746
▁행정구역	-6747
▁가중	-6748
▁혼자	-6749
정부가	-6750
밸리	-6751
▁세상을	-6752
▁육아	-6753
▁앤	-6754
예정	-6755
▁서식	-6756
▁67	-6757
생물	-6758
신용	-6759
차의	-6760
▁담겨	-6761
▁시민이	-6762
길이	-6763
다리	-6764
전환	-6765
▁겪는	-6766
다이	-6767
▁이민	-6768
▁배터리	-6769
▁안에서	-6770
매매	-6771
조가	-6772
▁법원	-6773
생활을	-6774
▁의문	-6775
▁갖는	-6776
▁구글	-6777
▁힘이	-6778
▁사용한	-6779
▁컨소시엄	-6780
▁5%	-6781
▁신흥	-6782
▁장르	-6783
▁콩	-6784
▁신세계	-6785
▁신속한	-6786
▁요리	-6787
▁이은	-6788
층에	-6789
▁직전	-6790
900	-6791
▁사기	-6792
▁지어	-6793
▁몽골	-6794
▁강화해	-6795
▁아무런	-6796
트라	-6797
▁주장을	-6798
지역에서	-6799
▁퍼포먼	-6800
▁상태에서	-6801
분간	-6802
농가	-6803
미세먼지	-6804
행사를	-6805
▁한국당은	-6806
▁작동	-6807
▁가톨릭	-6808
▁자유롭게	-6809
환경을	-6810
▁운영할	-6811
▁데이터를	-6812
건은	-6813
자본	-6814
▁상향	-6815
료로	-6816
▁인적	-6817
▁사람들의	-6818
설비	-6819
▁이란	-6820
▁소감을	-6821
▁클라우드	-6822
마이	-6823
보조	-6824
홍보	-6825
▁차지한	-6826
▁체계적인	-6827
재난	-6828
▁포르	-6829
▁일본은	-6830
같이	-6831
▁부분을	-6832
▁물을	-6833
▁원장은	-6834
▁몇몇	-6835
▁모은	-6836
▁찾을	-6837
▁이적	-6838
98	-6839
▁몬	-6840
타당성	-6841
▁지리	-6842
▁청원	-6843
▁지적이다	-6844
▁공주	-6845
▁분명히	-6846
▁상당히	-6847
아버	-6848
▁미흡	-6849
▁그들은	-6850
▁족	-6851
▁팽	-6852
체에	-6853
▁취재	-6854
▁나서야	-6855
내용	-6856
▁수험	-6857
▁환경부	-6858
▁기업들의	-6859
▁연내	-6860
▁현장에	-6861
ES	-6862
차에	-6863
▁씨가	-6864
▁공을	-6865
우기	-6866
4)	-6867
잡고	-6868
▁상승한	-6869
▁마찬가지다	-6870
▁소리	-6871
▁농림축산	-6872
단위	-6873
▁제일	-6874
▁대대	-6875
▁포장	-6876
▁1995	-6877
▁클러스터	-6878
▁마침	-6879
▁북한은	-6880
▁선정했다	-6881
▁학생들에게	-6882
▁이뤄지지	-6883
MW	-6884
▁옳	-6885
▁부산시	-6886
▁주목을	-6887
▁새해	-6888
▁수질	-6889
▁임기	-6890
▁중장기	-6891
▁메시지를	-6892
▁놀라	-6893
홀에서	-6894
▁북핵	-6895
▁되면서	-6896
▁이사회	-6897
▁청와대는	-6898
▁·	-6899
부채	-6900
▁완전	-6901
▁폭력	-6902
▁무선	-6903
▁물가	-6904
▁일부를	-6905
▁질문에	-6906
▁계획이	-6907
▁관계가	-6908
▁실증	-6909
▁늘어날	-6910
▁투수	-6911
뉴얼	-6912
▁주재	-6913
▁개소	-6914
▁매월	-6915
▁갑자기	-6916
▁마련한	-6917
자문	-6918
▁일어	-6919
▁총리는	-6920
▁가치가	-6921
산의	-6922
센티브	-6923
▁갈등이	-6924
▁차기	-6925
▁생각을	-6926
▁닫	-6927
말을	-6928
세트	-6929
제철	-6930
▁솔루션	-6931
형의	-6932
▁74	-6933
▁끊임	-6934
▁소음	-6935
▁피아	-6936
기업이	-6937
▁모았다	-6938
▁제주특별자치	-6939
▁발언을	-6940
▁있으니	-6941
화해	-6942
▁시의회	-6943
사령	-6944
▁돌아가	-6945
▁주관하는	-6946
북한	-6947
▁크고	-6948
대회에서	-6949
법과	-6950
신한	-6951
▁모임	-6952
▁재직	-6953
▁한강	-6954
▁이름이	-6955
자격	-6956
형이	-6957
▁현실을	-6958
▁해양수산	-6959
레인	-6960
청정	-6961
▁모델을	-6962
▁이어진	-6963
사회복지	-6964
▁본인	-6965
▁내지	-6966
▁네덜란드	-6967
▁장착	-6968
▁한때	-6969
▁울산시	-6970
산단	-6971
▁53	-6972
▁뒤에	-6973
▁쓰고	-6974
▁안전관리	-6975
실장	-6976
▁힘입	-6977
▁얻은	-6978
▁세웠다	-6979
곳이	-6980
▁금속	-6981
▁정책의	-6982
▁디스플레이	-6983
▁자칫	-6984
▁상영	-6985
▁실적을	-6986
로로	-6987
▁부장	-6988
▁쏘	-6989
▁광복	-6990
▁방영	-6991
▁설치해	-6992
▁견인	-6993
▁동양	-6994
▁앞세	-6995
DC	-6996
▁선수들이	-6997
둘러	-6998
프리	-6999
▁반대로	-7000
PO	-7001
▁깊이	-7002
▁추첨	-7003
▁제공해	-7004
선과	-7005
위험	-7006
▁전무	-7007
▁대책이	-7008
▁끌었다	-7009
분쟁	-7010
여자	-7011
▁칸	-7012
▁벤처	-7013
▁뉴스	-7014
▁뻔	-7015
▁논의가	-7016
드와	-7017
▁파이	-7018
▁예외	-7019
국회	-7020
지표	-7021
▁CEO	-7022
▁충주시	-7023
듯이	-7024
르기	-7025
▁피의	-7026
▁6·	-7027
일랜드	-7028
▁사진은	-7029
▁수출규제	-7030
군수	-7031
▁권역	-7032
▁상상	-7033
았지만	-7034
공유	-7035
시켰	-7036
▁대상은	-7037
un	-7038
▁산업단지	-7039
▁조명	-7040
교의	-7041
▁안된다	-7042
▁페르	-7043
▁4000	-7044
",	-7045
▁생겨	-7046
사회적	-7047
▁감독이	-7048
▁비중을	-7049
▁빗	-7050
▁펼쳐진다	-7051
6)	-7052
▁면담	-7053
▁곧바로	-7054
▁아이템	-7055
▁매도호가는	-7056
▁넷	-7057
▁매수호가는	-7058
▁등락률	-7059
▁다름	-7060
▁이스	-7061
캠퍼스	-7062
하이닉	-7063
▁논란을	-7064
▁현대중공업	-7065
▁수리	-7066
▁변화에	-7067
▁아직도	-7068
▁만날	-7069
파로	-7070
선에서	-7071
견을	-7072
▁부총	-7073
▁들어간	-7074
▁준비를	-7075
▁원이	-7076
도에서	-7077
▁매출이	-7078
▁측면에서	-7079
▁목숨	-7080
▁분포	-7081
정지	-7082
700	-7083
▁신라	-7084
▁중순	-7085
교안	-7086
대문	-7087
페라	-7088
▁녹색	-7089
▁1960	-7090
▁등락률은	-7091
변화	-7092
.5%)	-7093
▁반박	-7094
▁있으면	-7095
법으로	-7096
조에	-7097
히고	-7098
▁성공했다	-7099
▁측이	-7100
셔널	-7101
▁사업장	-7102
▁알리고	-7103
▁요구를	-7104
▁적절한	-7105
경남	-7106
▁홍성	-7107
▁변호사	-7108
▁김병	-7109
▁정작	-7110
▁캘	-7111
고한	-7112
터미널	-7113
체로	-7114
▁가이드	-7115
▁상당의	-7116
▁한국에	-7117
▁제국	-7118
번호	-7119
졌으며	-7120
▁연평균	-7121
랫동안	-7122
▁논의했다	-7123
▁고유	-7124
▁처분	-7125
▁자료에	-7126
종은	-7127
▁놀이	-7128
▁빠진	-7129
▁펴	-7130
▁진정한	-7131
▁여론조사	-7132
▁휩	-7133
▁대하여	-7134
▁리스크	-7135
▁어려울	-7136
▁시달	-7137
▁막대한	-7138
▁유치를	-7139
하라고	-7140
▁대표이	-7141
▁프로그램은	-7142
▁이밖에	-7143
▁있을지	-7144
줘야	-7145
▁몰려	-7146
▁예정이며	-7147
▁펼쳤다	-7148
밀히	-7149
▁700	-7150
▁시내버스	-7151
▁탈락	-7152
엑스포	-7153
로그	-7154
동과	-7155
메이	-7156
희망	-7157
▁도덕	-7158
▁사건의	-7159
▁부근	-7160
▁통해서	-7161
▁국토부	-7162
▁어려움	-7163
▁치열한	-7164
위원회에	-7165
▁이상으로	-7166
은행의	-7167
야말로	-7168
▁보여준다	-7169
테크노	-7170
▁반영한	-7171
▁대회에서	-7172
▁마지막으로	-7173
▁붉	-7174
▁탄력	-7175
▁90%	-7176
▁민주평화	-7177
▁공략	-7178
▁벌써	-7179
▁비례대표	-7180
과제	-7181
료는	-7182
▁기온	-7183
▁엘리	-7184
▁소각	-7185
레이션	-7186
▁참여하고	-7187
전용	-7188
▁납품	-7189
▁춤	-7190
곳의	-7191
▁했으나	-7192
▁체제	-7193
▁베이징	-7194
▁듀	-7195
▁논쟁	-7196
니까	-7197
어져	-7198
▁이사장	-7199
세한	-7200
▁때부터	-7201
▁민주노총	-7202
월말	-7203
▁승격	-7204
▁조사한	-7205
▁마련하고	-7206
경에	-7207
▁인기가	-7208
HOI	-7209
부르크	-7210
▁말레이	-7211
▁경제를	-7212
▁의하면	-7213
▁이미지	-7214
터테인먼트	-7215
▁강화하는	-7216
▁워싱턴	-7217
▁정신을	-7218
-5	-7219
▁도의회	-7220
위원회에서	-7221
▁더욱이	-7222
향이	-7223
LBO	-7224
▁농어촌	-7225
▁우려를	-7226
▁연결하는	-7227
▁영국의	-7228
HOILBO	-7229
▁KIHOILBO	-7230
▁독서	-7231
▁이영	-7232
면에서	-7233
▁지금의	-7234
▁대부분이	-7235
▁스피	-7236
▁바람직	-7237
▁체계를	-7238
현실	-7239
▁주행	-7240
(18	-7241
ra	-7242
디지털	-7243
▁800	-7244
▁필요하다고	-7245
▁음반	-7246
▁이룬	-7247
형은	-7248
▁한국과	-7249
▁홈페이지를	-7250
▁꼽힌다	-7251
▁멜	-7252
▁철강	-7253
번지	-7254
석은	-7255
재는	-7256
▁사각	-7257
▁청취	-7258
▁이미지를	-7259
▁기쁘	-7260
빌리티	-7261
법의	-7262
▁청소	-7263
요한	-7264
▁누가	-7265
▁프로모	-7266
국제공항	-7267
▁계절	-7268
▁수거	-7269
▁어떠	-7270
▁그녀는	-7271
▁선보일	-7272
-4	-7273
▁탄소	-7274
de	-7275
▁본부	-7276
▁마스터	-7277
▁집을	-7278
상에서	-7279
▁사고를	-7280
▁여기서	-7281
▁예상되는	-7282
대행	-7283
▁창조	-7284
▁입을	-7285
▁하계	-7286
▁후쿠	-7287
▁구성됐다	-7288
▁인센티브	-7289
AR	-7290
▁국악	-7291
지원을	-7292
리포	-7293
머스	-7294
▁심지어	-7295
토리	-7296
본부장	-7297
▁덕분에	-7298
▁브라질	-7299
하라는	-7300
수급	-7301
▁어려움이	-7302
▁시중	-7303
▁대사	-7304
▁전라북도	-7305
▁증언	-7306
▁때도	-7307
▁추산	-7308
경찰서	-7309
▁한국이	-7310
▁이시	-7311
▁편안	-7312
▁힘입어	-7313
▁데이	-7314
▁자립	-7315
▁1500	-7316
▁미국에서	-7317
▁팀이	-7318
▁성장할	-7319
▁가고	-7320
내며	-7321
▁신년	-7322
사실	-7323
▁스마트시티	-7324
특구	-7325
▁과정에	-7326
혁신도시	-7327
▁귀국	-7328
▁가깝	-7329
▁종류	-7330
작물	-7331
구청장	-7332
▁국회가	-7333
▁고시	-7334
▁인구는	-7335
▁벌이고	-7336
회에서는	-7337
▁다각	-7338
▁혁신을	-7339
▁기금	-7340
급식	-7341
별한	-7342
▁마련을	-7343
▁돋	-7344
하에	-7345
▁섭취	-7346
▁리모델링	-7347
▁구직	-7348
67	-7349
▁상인	-7350
▁모르는	-7351
렸고	-7352
▁1994	-7353
▁정례	-7354
글랜드	-7355
▁대한항공	-7356
▁기념촬영을	-7357
달아	-7358
조는	-7359
▁분석이다	-7360
등을	-7361
안타	-7362
투자증권	-7363
▁부활	-7364
▁식물	-7365
지상	-7366
헝가	-7367
확인	-7368
▁마주	-7369
▁투기	-7370
▁셋	-7371
▁오랫동안	-7372
▁아카데미	-7373
▁프로그램으로	-7374
▁둘러싸	-7375
▁자격증	-7376
▁쥐	-7377
도급	-7378
예를	-7379
데일리	-7380
▁소폭	-7381
▁요구하고	-7382
효율	-7383
▁면역	-7384
▁시위	-7385
박람회	-7386
▁기업인	-7387
▁마리	-7388
▁가질	-7389
▁비서	-7390
▁보고서	-7391
▁성립	-7392
▁지속가능한	-7393
▁농림축산식품	-7394
수당	-7395
▁오리	-7396
▁압수수	-7397
▁전문가들은	-7398
장학	-7399
▁수백	-7400
네스코	-7401
었기	-7402
▁논문	-7403
▁마련된	-7404
▁올해도	-7405
▁확대할	-7406
▁적립	-7407
▁각오	-7408
▁교원	-7409
▁런던	-7410
▁갖는다	-7411
▁선착	-7412
▁신중	-7413
▁싱글	-7414
▁했다는	-7415
▁저출산	-7416
영의	-7417
▁계좌	-7418
▁뮤직	-7419
▁쫓	-7420
▁패배	-7421
▁정보통신	-7422
▁객관	-7423
.3%)	-7424
▁고소	-7425
▁유지하고	-7426
▁무더	-7427
▁행위를	-7428
▁살펴보면	-7429
▁삼아	-7430
▁종전	-7431
▁과도한	-7432
▁절실	-7433
▁힐링	-7434
▁반대하는	-7435
▁도움	-7436
▁에스	-7437
▁입고	-7438
▁독특	-7439
▁성공적인	-7440
▁타당성	-7441
리즘	-7442
세와	-7443
▁한계가	-7444
여건	-7445
카페	-7446
▁보복	-7447
▁태극	-7448
▁마이크로	-7449
▁충청권	-7450
of	-7451
▁나뉘	-7452
▁방안도	-7453
▁보조금	-7454
▁유망	-7455
▁이사장은	-7456
▁원천	-7457
▁중반	-7458
▁내다봤다	-7459
채용	-7460
▁단행	-7461
▁밀집	-7462
▁책을	-7463
▁꼴	-7464
없다	-7465
▁댄	-7466
▁제어	-7467
▁시작한다	-7468
▁연봉	-7469
▁마쳤다	-7470
청사	-7471
▁이성	-7472
▁엄청난	-7473
▁맞지	-7474
▁양자	-7475
▁대회는	-7476
▁연다	-7477
op	-7478
라엘	-7479
▁위생	-7480
▁않는다는	-7481
▁◆	-7482
▁완주	-7483
▁지방의	-7484
▁활발한	-7485
해질	-7486
▁매니	-7487
▁청산	-7488
▁주문했다	-7489
▁발효	-7490
정보를	-7491
▁경험이	-7492
에서부터	-7493
▁희망하는	-7494
▁생성	-7495
▁지역이	-7496
원한	-7497
▁거뒀다	-7498
▁최고위원	-7499
▁빙	-7500
▁면허	-7501
▁깔	-7502
▁여성의	-7503
.8%)	-7504
▁대장	-7505
▁벌였다	-7506
들께	-7507
▁행사에는	-7508
연이	-7509
▁찾아가는	-7510
▁마르	-7511
▁만하다	-7512
▁아이들이	-7513
▁회의에서	-7514
▁오스트리아	-7515
▁이후에도	-7516
방이	-7517
▁증진	-7518
즈를	-7519
▁재단	-7520
작가	-7521
함께	-7522
▁결성	-7523
▁숭	-7524
▁세운	-7525
마리	-7526
퍼런	-7527
▁맺고	-7528
▁"20	-7529
▁도입을	-7530
▁했는데	-7531
위인	-7532
▁이명박	-7533
▁68	-7534
▁되기	-7535
▁민관	-7536
▁조속히	-7537
▁열릴	-7538
▁중에는	-7539
워드	-7540
▁이어가고	-7541
목이	-7542
▁한은	-7543
치에	-7544
▁이익을	-7545
▁규모를	-7546
▁원정	-7547
▁준수	-7548
▁공유하고	-7549
▁스튜디오	-7550
니는	-7551
역으로	-7552
어요	-7553
▁특별법	-7554
▁1991	-7555
▁공간으로	-7556
▁사우	-7557
▁소셜	-7558
문화를	-7559
▁대해선	-7560
▁상환	-7561
골프	-7562
박스	-7563
▁제품은	-7564
▁1996	-7565
▁받아들여	-7566
례를	-7567
▁구단	-7568
▁부각	-7569
▁Q	-7570
▁중화인민공화국	-7571
▁틈	-7572
경기도	-7573
연은	-7574
육성	-7575
▁+	-7576
▁사태가	-7577
▁수준에	-7578
트와	-7579
▁봤다	-7580
▁주지	-7581
▁면세	-7582
▁보전	-7583
▁개인의	-7584
▁노무현	-7585
▁이었다	-7586
장인	-7587
▁거주하는	-7588
첨단	-7589
▁하남	-7590
▁힘쓰	-7591
▁무인	-7592
▁배송	-7593
▁대회를	-7594
▁사용해	-7595
▁의정부	-7596
세권	-7597
판에	-7598
▁소개했다	-7599
▁멋	-7600
▁장려	-7601
▁사건은	-7602
▁성폭력	-7603
▁양질의	-7604
▁적절	-7605
작을	-7606
▁밀려	-7607
▁대표이사	-7608
▁의하여	-7609
▁항소	-7610
미사일	-7611
▁아시안	-7612
▁송도	-7613
▁넘치는	-7614
시행	-7615
▁주간	-7616
▁들어선	-7617
▁나섰	-7618
곳에서	-7619
▁요소	-7620
▁간부	-7621
▁대기오염	-7622
▁출하	-7623
항만	-7624
▁말해	-7625
▁비대	-7626
토지	-7627
▁촛불	-7628
.2%)	-7629
▁시행령	-7630
연료	-7631
▁없지만	-7632
▁사회적경제	-7633
▁국가균형발전	-7634
▁남원	-7635
▁패널	-7636
▁태어났다	-7637
▁않기	-7638
.1%)	-7639
가락	-7640
발표	-7641
호로	-7642
▁광명	-7643
▁겨냥	-7644
▁부산일보	-7645
망이	-7646
일자	-7647
▁급여	-7648
▁차량을	-7649
▁희망을	-7650
받지	-7651
블록	-7652
▁생각이	-7653
역량	-7654
▁말씀	-7655
▁수록	-7656
▁알렉	-7657
청에서	-7658
마스	-7659
▁별도	-7660
경의	-7661
▁학생이	-7662
산업을	-7663
▁그나마	-7664
▁라디오	-7665
ot	-7666
▁구조를	-7667
▁전망이	-7668
▁가게	-7669
기관이	-7670
▁비판을	-7671
비의	-7672
▁공영	-7673
▁해군	-7674
바지	-7675
▁세계적으로	-7676
▁어우	-7677
▁잦	-7678
▁많고	-7679
▁검토하고	-7680
▁죽음	-7681
신은	-7682
▁극단	-7683
▁밝혔	-7684
▁파리	-7685
님의	-7686
▁몫	-7687
주교	-7688
▁물량	-7689
시장과	-7690
▁통하여	-7691
52	-7692
교실	-7693
▁받아야	-7694
.6%)	-7695
▁아무리	-7696
코스	-7697
▁박차를	-7698
▁흡수	-7699
▁최악의	-7700
▁협상을	-7701
유를	-7702
시간을	-7703
국에서	-7704
범위	-7705
▁나왔	-7706
▁부착	-7707
▁연대	-7708
▁준비하고	-7709
전통	-7710
▁검출	-7711
▁배포	-7712
화운동	-7713
판이	-7714
세요	-7715
▁사이버	-7716
▁감면	-7717
(17	-7718
▁적응	-7719
▁종로	-7720
▁줄이고	-7721
▁황교안	-7722
네트워크	-7723
▁아티	-7724
용으로	-7725
▁것이며	-7726
▁저렴한	-7727
지역으로	-7728
▁합리적인	-7729
▁목소리	-7730
▁위치하고	-7731
▁담보	-7732
(12	-7733
▁철학	-7734
▁지지를	-7735
건설은	-7736
명에서	-7737
▁후에는	-7738
으로서의	-7739
▁수치다	-7740
마케팅	-7741
역과	-7742
▁곳을	-7743
숙한	-7744
치기	-7745
▁없게	-7746
▁경쟁을	-7747
플랜	-7748
▁윤리	-7749
▁인명	-7750
자로서	-7751
천만원	-7752
▁오토	-7753
▁장수	-7754
하기는	-7755
해서는	-7756
▁현장의	-7757
400	-7758
▁테러	-7759
▁사용되는	-7760
▁표기	-7761
▁건강보험	-7762
▁마련할	-7763
노이	-7764
아는	-7765
층이	-7766
▁차이	-7767
▁의장은	-7768
▁중국이	-7769
▁군의	-7770
▁수료	-7771
▁대통령을	-7772
▁참가해	-7773
그러	-7774
▁주가	-7775
▁중고	-7776
나의	-7777
폭이	-7778
ula	-7779
▁무렵	-7780
▁서둘러	-7781
GB	-7782
▁뼈	-7783
▁내각	-7784
▁공기업	-7785
▁위주로	-7786
프가	-7787
▁무슨	-7788
▁지자체가	-7789
전문가	-7790
▁시민들에게	-7791
▁되며	-7792
▁컸다	-7793
시장에	-7794
▁얘기	-7795
인프라	-7796
▁제품의	-7797
▁없었던	-7798
(-0.	-7799
▁두려	-7800
▁합쳐	-7801
역의	-7802
창출	-7803
자책	-7804
▁획기	-7805
▁소식을	-7806
▁살려	-7807
▁상주	-7808
▁잡았다	-7809
화문	-7810
▁의정	-7811
.7%)	-7812
▁사용하고	-7813
프레	-7814
▁대량	-7815
▁전세계	-7816
▁지방자치	-7817
지정	-7818
▁줄이기	-7819
▁남양	-7820
시킨다	-7821
▁꼽았다	-7822
▁하위	-7823
원들이	-7824
▁아끼지	-7825
ew	-7826
▁인천공항	-7827
▁엇	-7828
▁비가	-7829
▁지향	-7830
연구원은	-7831
가며	-7832
즈는	-7833
▁검찰의	-7834
▁뜻이다	-7835
▁문제의	-7836
▁설치를	-7837
▁게재	-7838
8)	-7839
동강	-7840
▁올해로	-7841
▁초점을	-7842
이노	-7843
(16	-7844
▁다녀	-7845
중소기업	-7846
GM	-7847
고에	-7848
늦게	-7849
형으로	-7850
▁제기됐다	-7851
▁후손	-7852
▁KIA	-7853
▁부지에	-7854
고령	-7855
▁어우러	-7856
위원장이	-7857
▁분담	-7858
▁추정된다	-7859
92	-7860
▁지침	-7861
▁구축해	-7862
▁않았고	-7863
·4	-7864
▁줄여	-7865
드에	-7866
▁시군	-7867
▁노력하고	-7868
▁이어져	-7869
▁재학생	-7870
ER	-7871
지주	-7872
▁갖게	-7873
▁리더십	-7874
만간	-7875
▁다운	-7876
▁비리	-7877
▁차질	-7878
대통령	-7879
▁프로그램이	-7880
기부	-7881
▁공정거래	-7882
▁접어	-7883
▁기간을	-7884
▁시티	-7885
▁2~3	-7886
▁거친	-7887
▁금감	-7888
.4%)	-7889
▁팀의	-7890
▁3.1	-7891
민이	-7892
▁분열	-7893
하길	-7894
PS	-7895
▁넥	-7896
우가	-7897
▁고객이	-7898
▁영향이	-7899
시스템을	-7900
전력	-7901
민족	-7902
▁금융감독	-7903
동맹	-7904
▁느낀	-7905
과정에서	-7906
물류	-7907
에게도	-7908
▁늘어나는	-7909
oT	-7910
▁다해	-7911
▁LNG	-7912
▁수수료	-7913
SK	-7914
▁발령	-7915
▁유사한	-7916
▁유네스코	-7917
▁77	-7918
▁사업자	-7919
▁조치가	-7920
▁구체적으로	-7921
▁패러	-7922
SI	-7923
고속	-7924
▁지난해보다	-7925
▁어떠한	-7926
▁출신의	-7927
▁백화점	-7928
▁세무	-7929
▁애초	-7930
▁인테	-7931
▁균형발전	-7932
드림	-7933
▁일주	-7934
▁질의	-7935
▁자회사	-7936
▁회장의	-7937
▁번역	-7938
▁중견	-7939
.)	-7940
황을	-7941
▁머리를	-7942
▁쾌적한	-7943
▁확인하고	-7944
▁통행	-7945
폐기물	-7946
▁야생	-7947
▁팀을	-7948
문재인	-7949
결제	-7950
▁130	-7951
TX	-7952
당진	-7953
▁산정	-7954
▁화이트	-7955
▁문의하면	-7956
~8	-7957
▁tv	-7958
▁규칙	-7959
▁구성되어	-7960
파가	-7961
▁수를	-7962
졌지만	-7963
▁오사카	-7964
▁강요	-7965
▁자가	-7966
▁생각하는	-7967
▁제휴	-7968
▁예방을	-7969
▁소녀	-7970
크를	-7971
47	-7972
▁먹는	-7973
.9%)	-7974
▁합의를	-7975
▁눈을	-7976
▁인상을	-7977
▁기념해	-7978
▁시작됐다	-7979
프는	-7980
▁규탄	-7981
▁부합	-7982
▁딱	-7983
▁전액	-7984
관리를	-7985
▁총장은	-7986
표준	-7987
▁정읍	-7988
▁62	-7989
▁영농	-7990
▁내놨다	-7991
졌던	-7992
▁1992	-7993
▁링	-7994
▁누릴	-7995
▁앞당	-7996
▁박물관	-7997
민은	-7998
병을	-7999
▁취업자	-8000
▁들이	-8001
협동조합	-8002
개편	-8003
▁가전	-8004
▁개선에	-8005
중앙회	-8006
▁마음이	-8007
▁신재생	-8008
▁언급했다	-8009
▁증가하는	-8010
중이다	-8011
▁가능성	-8012
▁극대화	-8013
▁않다는	-8014
▁72	-8015
반기에	-8016
키스탄	-8017
▁감독의	-8018
▁조리	-8019
▁주변에	-8020
▁셰	-8021
▁마스크	-8022
▁본격화	-8023
▁상황은	-8024
ormula	-8025
▁메달	-8026
▁원인이	-8027
▁내야	-8028
▁라이프	-8029
▁모으고	-8030
상공회의	-8031
▁국무총리	-8032
▁분산	-8033
▁잎	-8034
▁장치	-8035
계약을	-8036
▁인력을	-8037
▁핸	-8038
사들의	-8039
기관으로	-8040
▁블록체인	-8041
▁꼼꼼	-8042
▁동서	-8043
방에	-8044
▁교회	-8045
▁동네	-8046
▁수의	-8047
▁실시해	-8048
▁펀	-8049
금과	-8050
크라	-8051
▁이끌고	-8052
▁용산	-8053
▁제로	-8054
학기	-8055
▁엔진	-8056
동은	-8057
▁기반의	-8058
환자	-8059
▁응시	-8060
▁SOC	-8061
▁무대를	-8062
▁근본적인	-8063
▁내내	-8064
▁이것이	-8065
▁무죄	-8066
이라면서	-8067
보상	-8068
경원	-8069
층을	-8070
▁생각해	-8071
▁추진에	-8072
현은	-8073
▁강좌	-8074
▁말로	-8075
▁선착순	-8076
투데이	-8077
▁건국	-8078
교회	-8079
보자	-8080
▁중대	-8081
▁통치	-8082
타이	-8083
▁자신들의	-8084
통을	-8085
▁진천	-8086
사업과	-8087
▁이슬	-8088
▁입사	-8089
▁63	-8090
▁서초	-8091
▁비교하면	-8092
▁박성	-8093
달라고	-8094
용한	-8095
▁한반	-8096
▁미래에	-8097
63	-8098
실적	-8099
▁도서	-8100
▁본래	-8101
▁대형마트	-8102
▁방안이	-8103
▁정의당	-8104
하더라도	-8105
▁어렵다는	-8106
5)	-8107
▁노조는	-8108
▁베스트	-8109
발의	-8110
▁KTX	-8111
▁이집	-8112
▁즐거	-8113
▁진출을	-8114
생이	-8115
했다가	-8116
▁이스라엘	-8117
▁등판	-8118
센터와	-8119
에스	-8120
팀의	-8121
실험	-8122
도시로	-8123
수소	-8124
and	-8125
▁개시	-8126
▁대표와	-8127
▁즐기는	-8128
▁부부	-8129
번째로	-8130
▁위험이	-8131
지니어링	-8132
▁불매	-8133
▁상정	-8134
▁성폭	-8135
▁지역별	-8136
제작	-8137
▁크루	-8138
▁확인했다	-8139
▁매립	-8140
▁급격히	-8141
▁기관은	-8142
▁중국은	-8143
▁일반적인	-8144
▁존재한다	-8145
▁기간에	-8146
▁나서는	-8147
▁케이블	-8148
▁토론회	-8149
우수	-8150
▁고구	-8151
▁고조	-8152
▁로스	-8153
▁원자력	-8154
▁마련해야	-8155
▁이후에는	-8156
유가	-8157
▁보강	-8158
기관인	-8159
들에게는	-8160
▁운영된다	-8161
크는	-8162
LED	-8163
세이	-8164
▁현역	-8165
▁공개한	-8166
▁내리	-8167
부동산	-8168
살을	-8169
▁배당	-8170
▁판단했다	-8171
▁소수	-8172
▁흔히	-8173
▁김대중	-8174
▁1~2	-8175
▁폼	-8176
면이	-8177
절을	-8178
▁재검토	-8179
▁스티	-8180
▁포털	-8181
▁매출액	-8182
▁하더라도	-8183
박한	-8184
베이션	-8185
▁깜	-8186
어와	-8187
▁관계자들이	-8188
IA	-8189
▁씨의	-8190
충북일보	-8191
▁핑	-8192
▁남해	-8193
▁가맹점	-8194
9)	-8195
▁다할	-8196
▁사내	-8197
▁임시정부	-8198
부대	-8199
그동안	-8200
기간을	-8201
▁설립된	-8202
▁윌리	-8203
▁이기	-8204
▁재벌	-8205
▁좌우	-8206
심으로	-8207
▁김지	-8208
▁장을	-8209
▁부분은	-8210
▁조성에	-8211
▁접속	-8212
▁안타까	-8213
ur	-8214
▁강구	-8215
▁메인	-8216
▁판결을	-8217
▁아시아나	-8218
학원	-8219
▁관여	-8220
▁한국인	-8221
▁1993	-8222
▁활동하고	-8223
양의	-8224
▁태어난	-8225
디션	-8226
▁우호	-8227
▁4·3	-8228
▁라이브	-8229
스타그램	-8230
▁특검	-8231
란을	-8232
▁배후	-8233
▁단순한	-8234
었다고	-8235
▁김수	-8236
▁대응을	-8237
▁금메달을	-8238
▁설명하고	-8239
▁홀로	-8240
감도	-8241
▁영세	-8242
▁이념	-8243
▁증평	-8244
▁협조를	-8245
▁심의를	-8246
▁프로세	-8247
MC	-8248
상한	-8249
▁119	-8250
▁이번이	-8251
림을	-8252
48	-8253
러리	-8254
▁미군	-8255
대학원	-8256
▁방송을	-8257
▁61	-8258
▁코로나	-8259
▁남겨	-8260
되거나	-8261
▁일자리가	-8262
ct	-8263
베르	-8264
▁도달	-8265
▁독일의	-8266
▁수상한	-8267
▁분위기가	-8268
교수	-8269
▁특혜	-8270
진단	-8271
▁외환	-8272
▁국방부	-8273
▁편의를	-8274
양성	-8275
작은	-8276
자들과	-8277
▁릴	-8278
▁대결	-8279
▁재현	-8280
▁진학	-8281
목으로	-8282
실장은	-8283
단속	-8284
버그	-8285
▁김광	-8286
▁뒤집	-8287
▁안성	-8288
하기에	-8289
지부	-8290
▁실습	-8291
▁억제	-8292
▁160	-8293
▁때보다	-8294
▁했으며	-8295
▁음주운전	-8296
▁주최하고	-8297
▁성사	-8298
▁선보인	-8299
▁운전자	-8300
설이	-8301
▁앓	-8302
카와	-8303
안과	-8304
▁범위	-8305
▁소환	-8306
저우	-8307
▁생생	-8308
활동에	-8309
TF	-8310
▁등재	-8311
▁드러냈다	-8312
나와	-8313
충전	-8314
▁북측	-8315
플랫폼	-8316
▁고전	-8317
▁인민	-8318
스트라	-8319
▁대학의	-8320
▁적합한	-8321
▁AS	-8322
▁기업으로	-8323
▁전사	-8324
▁개발해	-8325
▁FIFA	-8326
68	-8327
면허	-8328
▁앞선	-8329
▁임신	-8330
▁입점	-8331
▁KBO	-8332
▁적자	-8333
▁승인을	-8334
▁나타냈다	-8335
▁보편	-8336
▁줄일	-8337
▁곳곳에	-8338
▁제주지역	-8339
▁플라스틱	-8340
▁해결하기	-8341
▁않아도	-8342
▁주장하는	-8343
금액	-8344
심에서	-8345
▁지위를	-8346
한을	-8347
▁1988	-8348
체제	-8349
▁우대	-8350
▁판로	-8351
▁총력을	-8352
유아	-8353
▁중요성을	-8354
▁말레이시아	-8355
▁삼성전자는	-8356
겁게	-8357
금의	-8358
전망	-8359
▁잠정	-8360
▁찾고	-8361
?"	-8362
금지	-8363
▁임실	-8364
▁박영	-8365
▁끝까지	-8366
▁오래된	-8367
▁원활한	-8368
▁점수를	-8369
▁문제점을	-8370
▁명에	-8371
▁담았다	-8372
▁방송된	-8373
공제	-8374
라톤	-8375
▁분할	-8376
시에서	-8377
학회	-8378
▁법령	-8379
▁학과	-8380
일까	-8381
▁그런데도	-8382
업종	-8383
▁돕는	-8384
TE	-8385
▁경제에	-8386
▁포함됐다	-8387
▁쇄	-8388
반을	-8389
▁2%	-8390
년으로	-8391
▁그렇다	-8392
▁규정하고	-8393
▁떼	-8394
물과	-8395
▁같아	-8396
▁태안	-8397
▁권한을	-8398
▁섞	-8399
▁요인	-8400
라비아	-8401
구간	-8402
▁출동	-8403
▁초청해	-8404
▁듯한	-8405
▁저하	-8406
나라는	-8407
택시	-8408
▁리얼	-8409
▁신혼	-8410
▁수익을	-8411
통일	-8412
▁기관이	-8413
▁6000	-8414
게는	-8415
-20	-8416
▁"'	-8417
▁골든	-8418
대책을	-8419
1,	-8420
▁고스	-8421
▁대입	-8422
▁조각	-8423
온다	-8424
▁팝	-8425
▁고수	-8426
▁예비타당성	-8427
▁찾아가	-8428
원자	-8429
▁그해	-8430
▁에듀	-8431
▁농업인	-8432
▁더구나	-8433
▁곳곳에서	-8434
▁소식	-8435
▁조건을	-8436
▁간접	-8437
▁사설	-8438
▁중재	-8439
정부는	-8440
▁발견된	-8441
▁formula	-8442
▁줄이	-8443
된다면	-8444
▁경제부	-8445
▁예정된	-8446
▁화려한	-8447
▁확보한	-8448
분과	-8449
산이	-8450
▁노력해	-8451
▁스크린	-8452
ir	-8453
▁행안	-8454
▁뒤늦게	-8455
▁1989	-8456
▁기술개발	-8457
자료를	-8458
▁위원회	-8459
▁개최하고	-8460
▁위원장이	-8461
▁노르	-8462
▁판문	-8463
▁것이라	-8464
▁아이디어를	-8465
▁자금을	-8466
▁의도	-8467
교육지원	-8468
▁개정안을	-8469
▁시흥	-8470
▁그렇지	-8471
ut	-8472
공모	-8473
사업비	-8474
▁않았지만	-8475
파의	-8476
▁배상	-8477
▁매출은	-8478
마의	-8479
▁열려	-8480
▁타격	-8481
▁청와대가	-8482
▁수혜	-8483
▁종이	-8484
플루	-8485
▁소홀	-8486
▁시와	-8487
▁양극	-8488
▁증액	-8489
▁목숨을	-8490
▁지원과	-8491
▁달아	-8492
▁독특한	-8493
▁되풀이	-8494
▁자사고	-8495
▁작가의	-8496
▁사용한다	-8497
모임	-8498
연히	-8499
▁국가가	-8500
▁삽	-8501
▁이원	-8502
▁텍	-8503
▁몸을	-8504
▁탐방	-8505
▁확보해	-8506
▁발생하고	-8507
▁사용자	-8508
▁1950	-8509
▁유행	-8510
▁방송된다	-8511
상생	-8512
시오	-8513
▁수송	-8514
▁조성해	-8515
쉼터	-8516
▁수출이	-8517
▁투자가	-8518
▁규정을	-8519
렬한	-8520
현의	-8521
▁공사가	-8522
▁만성	-8523
▁먹고	-8524
▁수차례	-8525
▁창출을	-8526
트에	-8527
▁높고	-8528
▁일하는	-8529
▁혁	-8530
▁나주	-8531
▁비판이	-8532
▁기여한	-8533
▁육성을	-8534
▁해결할	-8535
대사	-8536
▁시나	-8537
▁어깨	-8538
▁사회에	-8539
▁원인을	-8540
▁조만간	-8541
▁도시계획	-8542
▁거대한	-8543
고등	-8544
용차	-8545
▁IB	-8546
▁정수	-8547
LG	-8548
▁가격을	-8549
▁지혜	-8550
임에도	-8551
▁늘어났다	-8552
당시	-8553
▁일찍	-8554
▁황금	-8555
7)	-8556
실의	-8557
▁귀족	-8558
▁직면	-8559
▁규모다	-8560
파를	-8561
▁갔다	-8562
▁측의	-8563
▁모습으로	-8564
돌봄	-8565
▁선배	-8566
▁이후에	-8567
lo	-8568
▁지능	-8569
▁구축하고	-8570
안심	-8571
▁없기	-8572
▁선보이는	-8573
▁99	-8574
▁중동	-8575
▁관리에	-8576
장한	-8577
▁생애	-8578
금액은	-8579
역은	-8580
▁사육	-8581
▁광주시는	-8582
조로	-8583
킨다	-8584
▁컬러	-8585
MF	-8586
술을	-8587
▁학생들을	-8588
ay	-8589
계와	-8590
▁첫날	-8591
▁그녀의	-8592
해지는	-8593
▁쇼핑몰	-8594
▁판매를	-8595
어업	-8596
tp	-8597
▁유로	-8598
▁저축	-8599
구에서	-8600
지역을	-8601
▁110	-8602
▁엉	-8603
제약	-8604
~19	-8605
▁행정안전부	-8606
농촌	-8607
▁열악한	-8608
▁모습이다	-8609
결정	-8610
고와	-8611
um	-8612
▁기증	-8613
▁의지가	-8614
ce	-8615
▁거절	-8616
▁방위	-8617
▁종종	-8618
▁확산을	-8619
대병원	-8620
▁붉은	-8621
▁임용	-8622
센터에	-8623
리조	-8624
▁이혼	-8625
▁성공을	-8626
▁지낸	-8627
▁대회의실에서	-8628
지사는	-8629
디언	-8630
▁율	-8631
바람	-8632
▁기대감을	-8633
전당	-8634
▁피고	-8635
▁이야기가	-8636
▁잉글랜드	-8637
43	-8638
▁않겠다	-8639
▁그만	-8640
▁국회를	-8641
▁무대에	-8642
▁경제성장	-8643
▁서울특별	-8644
▁우수사례	-8645
▁공업	-8646
▁헝가	-8647
▁유효	-8648
▁개최되는	-8649
▁구는	-8650
NC	-8651
스케어	-8652
▁1.5	-8653
▁발생하지	-8654
▁다르게	-8655
▁찾았다	-8656
▁가짜	-8657
▁발굴해	-8658
▁69	-8659
▁무용	-8660
▁보도했다	-8661
▁순위	-8662
▁경쟁이	-8663
▁위안부	-8664
▁이뤄진다	-8665
▁하나이다	-8666
▁봐야	-8667
▁썼다	-8668
규칙	-8669
▁박상	-8670
▁25%	-8671
▁강화할	-8672
▁로드맵	-8673
▁국도	-8674
▁중소기업의	-8675
공립	-8676
▁완전한	-8677
돼지열병	-8678
▁경제협력	-8679
▁믿고	-8680
투쟁	-8681
▁모자	-8682
▁가능할	-8683
▁않지만	-8684
쉽게	-8685
▁아이를	-8686
▁알바	-8687
▁작가는	-8688
▁김민	-8689
▁실망	-8690
▁인스타그램	-8691
▁이강	-8692
▁닥	-8693
▁아트	-8694
▁인건비	-8695
과도	-8696
뤘다	-8697
▁부천	-8698
▁빼앗	-8699
▁음식을	-8700
▁방송되는	-8701
▁파워	-8702
▁LED	-8703
▁전철	-8704
▁도시의	-8705
만족	-8706
절차	-8707
59	-8708
방위	-8709
부진	-8710
교육청이	-8711
되었으나	-8712
▁2025	-8713
//	-8714
DA	-8715
짜리	-8716
▁입시	-8717
▁순창	-8718
▁원에	-8719
▁경기에	-8720
▁국왕	-8721
▁군에	-8722
▁노선을	-8723
페스티벌	-8724
▁되찾	-8725
▁자제	-8726
▁유전자	-8727
여명	-8728
**	-8729
즈의	-8730
62	-8731
▁아랍	-8732
▁1·2	-8733
▁학생은	-8734
▁건강을	-8735
TS	-8736
두환	-8737
슨은	-8738
▁않았던	-8739
버린	-8740
▁수산	-8741
오카	-8742
이한	-8743
▁대덕	-8744
▁인프라를	-8745
▁말에	-8746
▁상태를	-8747
▁신속하게	-8748
▁태어나	-8749
정당	-8750
▁초등학생	-8751
출을	-8752
▁다음날	-8753
▁체결한	-8754
▁매력을	-8755
▁농업기술	-8756
▁반환	-8757
▁진화	-8758
제일	-8759
▁말할	-8760
▁아나	-8761
▁보좌	-8762
▁나타난	-8763
이와	-8764
부장관	-8765
▁방법은	-8766
▁규명	-8767
▁부정적인	-8768
▁치유	-8769
▁히로	-8770
조례	-8771
▁소송을	-8772
▁부른다	-8773
백을	-8774
▁첫째	-8775
었다는	-8776
▁사고로	-8777
▁후보가	-8778
▁실시하는	-8779
▁도중	-8780
지자체	-8781
▁노력할	-8782
▁회사의	-8783
▁사업과	-8784
OS	-8785
▁남겼다	-8786
▁성공한	-8787
▁효율적인	-8788
▁말하는	-8789
▁인증을	-8790
▁인식을	-8791
▁VR	-8792
▁조종	-8793
▁결과다	-8794
▁소통을	-8795
▁확보에	-8796
강의	-8797
▁요시	-8798
▁자매	-8799
▁원도심	-8800
▁서울에서	-8801
▁연금	-8802
▁방침을	-8803
▁부정적	-8804
▁특유의	-8805
수처	-8806
▁금산	-8807
▁SUV	-8808
▁조약	-8809
▁웰	-8810
▁전직	-8811
미아	-8812
▁근거로	-8813
▁줄이는	-8814
▁감지	-8815
▁전인	-8816
▁사건에	-8817
▁부의	-8818
기관에	-8819
▁여름철	-8820
마를	-8821
▁때다	-8822
우의	-8823
69	-8824
보드	-8825
▁검거	-8826
▁결론	-8827
▁낙찰	-8828
마당	-8829
▁걸친	-8830
▁도시로	-8831
문은	-8832
▁공론화	-8833
▁조항	-8834
트롤	-8835
▁지사	-8836
▁분야별	-8837
금속	-8838
▁소장	-8839
▁플래	-8840
▁장관의	-8841
.(	-8842
있게	-8843
▁유연	-8844
티아	-8845
보에	-8846
▁소극	-8847
http	-8848
▁부회장	-8849
개인	-8850
▁나은	-8851
되지만	-8852
▁지역과	-8853
▁교육과정	-8854
▁캄	-8855
▁때가	-8856
▁매진	-8857
렸던	-8858
미의	-8859
언론	-8860
▁시선을	-8861
▁중의	-8862
되어야	-8863
▁잭	-8864
왔던	-8865
▁이슬람	-8866
▁득점	-8867
▁불어넣	-8868
▁특성화	-8869
▁대부분은	-8870
▁중복	-8871
페이스	-8872
▁폭넓	-8873
▁들어서는	-8874
▁열차	-8875
▁주민이	-8876
▁멀티	-8877
▁대구의	-8878
▁흰	-8879
▁독점	-8880
▁환자의	-8881
▁늘어나고	-8882
▁전용면적	-8883
외교	-8884
▁하향	-8885
종으로	-8886
▁회사는	-8887
▁청양	-8888
▁직원들이	-8889
▁벌어진	-8890
▁계속해서	-8891
▁엑	-8892
▁불리	-8893
공간을	-8894
▁구성돼	-8895
▁휴대전	-8896
는가	-8897
▁매력	-8898
▁장식	-8899
▁살인	-8900
▁포토	-8901
▁가족이	-8902
▁사령	-8903
▁tvN	-8904
▁만든다	-8905
▁꾀	-8906
》,	-8907
▁가격에	-8908
~10	-8909
▁막아	-8910
▁사태를	-8911
▁세금을	-8912
▁정확히	-8913
하였는데	-8914
▁압수수색	-8915
▁론	-8916
▁텐	-8917
▁정도가	-8918
▁양식	-8919
▁유대	-8920
▁추세	-8921
▁별다른	-8922
▁지난주	-8923
경기에서	-8924
▁of	-8925
▁명백	-8926
▁당연히	-8927
▁위상을	-8928
▁정부를	-8929
▁지원하기	-8930
▁도의	-8931
▁소집	-8932
▁못한다	-8933
▁편의점	-8934
▁떨어지는	-8935
▁일본에서	-8936
▁입장에서	-8937
▁프로젝트를	-8938
동향	-8939
▁78	-8940
동에서	-8941
▁것이고	-8942
▁예산은	-8943
▁환자가	-8944
업에	-8945
▁원장	-8946
▁사항을	-8947
▁이번에는	-8948
려야	-8949
더불어	-8950
어지고	-8951
▁교육감	-8952
▁시민과	-8953
(13	-8954
▁이인	-8955
작으로	-8956
▁기준이	-8957
▁학교를	-8958
▁사업계획	-8959
▁티켓	-8960
▁형식	-8961
▁범위를	-8962
▁목격	-8963
▁김준	-8964
▁선을	-8965
▁텔레	-8966
▁분석해	-8967
▁실적이	-8968
▁있었는데	-8969
▁수시	-8970
▁어촌	-8971
▁최선의	-8972
▁설치하고	-8973
▁개최한	-8974
시설과	-8975
▁긍정적	-8976
▁이르기까지	-8977
▁고성	-8978
▁인터뷰에서	-8979
▁경비	-8980
▁물품	-8981
▁진흥	-8982
▁고객의	-8983
▁입장이	-8984
▁고스란히	-8985
▁단백	-8986
▁만원	-8987
▁책정	-8988
▁한진	-8989
과정을	-8990
MA	-8991
보전	-8992
이게	-8993
그룹의	-8994
통계	-8995
▁알리	-8996
▁뚫	-8997
부족	-8998
▁87	-8999
컨벤션	-9000
▁일본에	-9001
▁맞춘	-9002
▁확보했다	-9003
▁진짜	-9004
기아	-9005
▁경찰의	-9006
▁조성하는	-9007
▁한계	-9008
▁의원을	-9009
▁기록하고	-9010
년생	-9011
▁예선	-9012
▁육상	-9013
만원에	-9014
▁비용이	-9015
끼리	-9016
랭킹	-9017
▁트로	-9018
▁모른다	-9019
im	-9020
▁띠	-9021
▁톡	-9022
사태	-9023
▁TF	-9024
씨에게	-9025
▁기간이	-9026
▁공기청정	-9027
▁고통을	-9028
국립	-9029
귀촌	-9030
▁메르	-9031
▁추적	-9032
▁확보하고	-9033
락을	-9034
▁사모	-9035
기업을	-9036
▁스위스	-9037
고자	-9038
▁백제	-9039
▁공정한	-9040
▁김제	-9041
▁소년	-9042
▁계획에	-9043
▁끊임없이	-9044
광장	-9045
제도를	-9046
▁서울중앙	-9047
점이다	-9048
▁중국과	-9049
em	-9050
자다	-9051
향후	-9052
위원은	-9053
차적으로	-9054
▁둥	-9055
▁급속	-9056
▁일치	-9057
▁잡은	-9058
▁시작하였다	-9059
로스	-9060
▁공중	-9061
▁보호를	-9062
▁불교	-9063
▁포트	-9064
났고	-9065
법원	-9066
▁조현	-9067
건설이	-9068
▁나가는	-9069
조성	-9070
그린	-9071
▁정한	-9072
지역은	-9073
▁찾지	-9074
▁휴식	-9075
▁강릉	-9076
▁삭제	-9077
▁부문에서	-9078
▁밖에도	-9079
▁국민들의	-9080
분으로	-9081
주차장	-9082
▁묘사	-9083
▁받기	-9084
▁조세	-9085
▁정상화	-9086
기관과	-9087
▁8000	-9088
▁동영상	-9089
웠던	-9090
체와	-9091
한데	-9092
▁활동이	-9093
▁토크	-9094
▁함유	-9095
▁급식	-9096
▁장악	-9097
▁받으며	-9098
지하	-9099
41	-9100
▁토로	-9101
후의	-9102
▁비록	-9103
▁평가가	-9104
름이	-9105
▁곤란	-9106
▁국민을	-9107
▁오프라인	-9108
배상	-9109
▁분석이	-9110
▁신청할	-9111
고교	-9112
▁끝내	-9113
▁이상인	-9114
▁프로그램이다	-9115
▁불린다	-9116
▁생산하는	-9117
▁수험생	-9118
▁뭐	-9119
▁지니	-9120
▁기능이	-9121
▁공조	-9122
▁머리	-9123
▁해당한다	-9124
57	-9125
산은	-9126
이데일리	-9127
▁감상	-9128
▁오른쪽	-9129
▁조성사업	-9130
://	-9131
▁140	-9132
▁구체적	-9133
▁자연스럽게	-9134
문화재단	-9135
▁닭	-9136
▁흐름을	-9137
▁연말까지	-9138
▁무한	-9139
계열	-9140
▁추진한	-9141
▁기자간담	-9142
등이	-9143
▁본사	-9144
▁7000	-9145
▁테크	-9146
▁만전을	-9147
▁문화관광	-9148
▁km	-9149
▁출장	-9150
~7	-9151
구매	-9152
▁커질	-9153
▁개정을	-9154
▁충격을	-9155
▁준비했다	-9156
▁범행	-9157
▁쓰러	-9158
▁식으로	-9159
석의	-9160
▁관행	-9161
▁부사	-9162
▁유예	-9163
▁구매할	-9164
▁기소된	-9165
▁대도시	-9166
▁들어갈	-9167
▁무단	-9168
관계가	-9169
▁교수의	-9170
▁장기간	-9171
▁아티스트	-9172
보안	-9173
호텔에서	-9174
▁걸어	-9175
▁아이폰	-9176
▁확대에	-9177
MS	-9178
소속	-9179
의가	-9180
▁소득주도	-9181
▁이어진다	-9182
맞춤	-9183
▁사랑의	-9184
▁학교에	-9185
▁원인으로	-9186
▁과학기술정보통신	-9187
▁해방	-9188
▁결과로	-9189
▁전략적	-9190
▁71	-9191
상위	-9192
리면	-9193
▁신약	-9194
받는다	-9195
▁수시로	-9196
▁봤	-9197
데스	-9198
▁후보로	-9199
처가	-9200
▁개회	-9201
▁소독	-9202
▁캠페인을	-9203
▁검은	-9204
▁터널	-9205
▁털어	-9206
▁사회를	-9207
커녕	-9208
▁불만을	-9209
▁지정을	-9210
▁한국어	-9211
청장	-9212
▁박람회	-9213
▁인재를	-9214
▁찰	-9215
▁바르	-9216
▁쉬운	-9217
▁웃음을	-9218
▁전체를	-9219
▁김승	-9220
▁진행되며	-9221
모토	-9222
익을	-9223
▁인턴	-9224
▁위해선	-9225
▁출연해	-9226
▁방식이다	-9227
▁안정적으로	-9228
▁국외	-9229
▁하락한	-9230
걸음	-9231
로에	-9232
부부	-9233
▁고려한	-9234
▁대표를	-9235
▁사람들	-9236
▁일으키	-9237
▁제국의	-9238
▁정성	-9239
▁확보할	-9240
▁유명하다	-9241
▁일고	-9242
▁ᆞ	-9243
▁어렵게	-9244
▁업체는	-9245
▁태도를	-9246
간에	-9247
▁유공	-9248
치면서	-9249
▁공격을	-9250
▁이내에	-9251
▁이르면	-9252
53	-9253
▁감각	-9254
▁일회	-9255
▁경기는	-9256
▁위법	-9257
▁전당	-9258
▁한창	-9259
▁복구	-9260
▁편이다	-9261
▁허가를	-9262
▁프로그램에	-9263
보복	-9264
측은	-9265
▁심판	-9266
니스트	-9267
▁누군	-9268
▁확실	-9269
▁당시의	-9270
▁실시할	-9271
▁확대하는	-9272
황이	-9273
▁76	-9274
▁강도	-9275
▁목록	-9276
▁무사	-9277
차산업	-9278
▁의원들이	-9279
찰을	-9280
▁모양새	-9281
▁발전소	-9282
▁지냈다	-9283
낙연	-9284
▁진영	-9285
▁새마을	-9286
국악	-9287
▁3%	-9288
된다고	-9289
▁지금도	-9290
공무	-9291
남부	-9292
▁판매하는	-9293
▁진압	-9294
과대학	-9295
▁광화문	-9296
▁발표된	-9297
▁현황을	-9298
▁고려하면	-9299
▁설문조사	-9300
▁둔화	-9301
▁FTA	-9302
▁작품은	-9303
▁바뀐	-9304
▁요양	-9305
▁콘셉	-9306
까지도	-9307
▁방법이	-9308
IP	-9309
▁본선	-9310
▁기존에	-9311
▁후보자는	-9312
82	-9313
▁덩	-9314
▁구성원	-9315
ea	-9316
상승	-9317
▁레드	-9318
▁전락	-9319
▁평균자책	-9320
유예	-9321
주주	-9322
화장	-9323
▁외무	-9324
▁출자	-9325
▁바라는	-9326
▁끊이지	-9327
▁끝으로	-9328
▁해소를	-9329
▁JT	-9330
49	-9331
름을	-9332
▁끈다	-9333
주거	-9334
▁류현	-9335
▁하니	-9336
기관을	-9337
클러스터	-9338
▁제공하기	-9339
▁동향	-9340
▁이천	-9341
▁청춘	-9342
▁관련이	-9343
▁윌리엄	-9344
국토	-9345
노선	-9346
▁도청	-9347
▁돕기	-9348
▁인용	-9349
(200	-9350
조리	-9351
▁포스터	-9352
▁나타내는	-9353
▁간에	-9354
▁권리를	-9355
▁거래대금	-9356
EA	-9357
▁NC	-9358
▁그제	-9359
▁늘리는	-9360
▁대회에	-9361
방문	-9362
▁느끼는	-9363
▁드러난	-9364
▁정권의	-9365
▁구성된다	-9366
▁준비하는	-9367
▁포용	-9368
오른	-9369
▁73	-9370
▁항공기	-9371
▁엠	-9372
막을	-9373
▁근육	-9374
▁에코	-9375
▁응모	-9376
▁대표적	-9377
▁되기를	-9378
▁드라이	-9379
▁기각	-9380
▁애국	-9381
▁측에	-9382
▁나중에	-9383
▁쌓아	-9384
▁환승	-9385
▁역할이	-9386
▁협의회	-9387
▁직원이	-9388
▁롤	-9389
끄러	-9390
해수	-9391
▁유적	-9392
채널	-9393
▁금융당	-9394
▁제작한	-9395
본부장은	-9396
▁들어가는	-9397
▁원격	-9398
▁합작	-9399
▁평가다	-9400
▁시너지	-9401
▁배경으로	-9402
비에	-9403
업체가	-9404
▁내용으로	-9405
쓰레	-9406
증진	-9407
▁따져	-9408
▁건축물	-9409
▁떡	-9410
▁수목	-9411
시도	-9412
▁질을	-9413
▁하나가	-9414
▁트리	-9415
▁요구에	-9416
▁주었다	-9417
▁골드	-9418
▁묻는	-9419
▁달성했다	-9420
▁프랑스의	-9421
처는	-9422
내가	-9423
▁시공사	-9424
▁쪽으로	-9425
▁최우선	-9426
▁나타나는	-9427
▁후보자의	-9428
▁아시아나항공	-9429
▁훈련을	-9430
▁안전하게	-9431
▁손실	-9432
▁영업이익은	-9433
▁개발과	-9434
판사	-9435
▁도박	-9436
▁명문	-9437
▁신기술	-9438
▁거둔	-9439
▁유포	-9440
사업자	-9441
언을	-9442
▁정주	-9443
동으로	-9444
▁협업을	-9445
민간	-9446
▁간주	-9447
▁그럴	-9448
▁커졌다	-9449
▁점검하고	-9450
▁종합적으로	-9451
▁갈라	-9452
▁발병	-9453
의약품	-9454
▁교육의	-9455
▁상담을	-9456
▁순이었다	-9457
▁장성	-9458
▁과제를	-9459
▁주무	-9460
▁조사에서	-9461
월한	-9462
▁발송	-9463
▁포함돼	-9464
테마	-9465
▁들려	-9466
▁겨울철	-9467
▁대여	-9468
▁그랜드	-9469
▁기대가	-9470
▁바람에	-9471
▁수요를	-9472
▁터미널	-9473
▁관리하는	-9474
▁조선민주주의	-9475
▁집회	-9476
▁흥미	-9477
▁도입한	-9478
id	-9479
르의	-9480
▁밀접	-9481
▁선거에서	-9482
▁그냥	-9483
▁허브	-9484
하지는	-9485
▁최적의	-9486
▁탈출	-9487
▁동남아	-9488
▁출신으로	-9489
▁짝	-9490
▁턱	-9491
조한	-9492
▁만화	-9493
▁수면	-9494
▁인정받아	-9495
▁서버	-9496
▁소멸	-9497
▁어업	-9498
▁포착	-9499
61	-9500
▁k	-9501
▁부산의	-9502
▁제주도는	-9503
▁꿈꾸	-9504
▁포르투	-9505
회관에서	-9506
▁발표하고	-9507
지속	-9508
▁총선을	-9509
▁등장하는	-9510
▁이용하여	-9511
▁촉구하는	-9512
▁급등	-9513
▁시간에	-9514
월과	-9515
▁창단	-9516
▁파주	-9517
▁인구의	-9518
에서다	-9519
▁계열사	-9520
▁부추	-9521
경기에	-9522
▁DNA	-9523
▁재판에	-9524
가입	-9525
▁당내	-9526
▁푸드	-9527
까지의	-9528
▁순매	-9529
▁친일	-9530
▁국토부는	-9531
보육	-9532
▁돼야	-9533
▁청정	-9534
▁차이를	-9535
▁내용이다	-9536
도우	-9537
▁마사	-9538
▁스프	-9539
▁황제	-9540
▁감안해	-9541
▁지자체의	-9542
▁걸린	-9543
▁별로	-9544
▁외인	-9545
▁아니고	-9546
▁엿	-9547
농민	-9548
▁기술과	-9549
▁전반적인	-9550
▁주장하고	-9551
os	-9552
산업이	-9553
▁한마디	-9554
리포니아	-9555
▁전남도는	-9556
여객	-9557
▁공식적으로	-9558
전철	-9559
▁맞물	-9560
▁뷰티	-9561
▁확인한	-9562
▁한국에서	-9563
특위	-9564
▁넣어	-9565
▁심한	-9566
▁추측	-9567
▁부지를	-9568
art	-9569
▁아웃	-9570
▁오페라	-9571
▁1987	-9572
▁펠	-9573
(25	-9574
▁베네	-9575
▁실용	-9576
▁하던	-9577
▁조례안	-9578
▁88	-9579
▁멈추	-9580
▁성향	-9581
▁시인	-9582
행위를	-9583
임대주택	-9584
▁벌인	-9585
▁일선	-9586
▁하수	-9587
▁정책과	-9588
▁행동을	-9589
▁아니라는	-9590
▁마시	-9591
▁반입	-9592
▁분당	-9593
▁사회주의	-9594
발생	-9595
▁로컬	-9596
▁미뤄	-9597
▁세트	-9598
▁출간	-9599
응답	-9600
▁교육은	-9601
▁세계에	-9602
▁없으며	-9603
▁담당하는	-9604
▁부평	-9605
▁펼칠	-9606
년대에	-9607
콘서트	-9608
하기를	-9609
위원회와	-9610
▁아니지만	-9611
▁합의했다	-9612
▁공군	-9613
▁백악	-9614
▁환율	-9615
▁도발	-9616
기인	-9617
▁온실	-9618
▁나오지	-9619
▁영구	-9620
▁때에는	-9621
▁여성이	-9622
▁후보는	-9623
▁닿	-9624
▁훌륭	-9625
권으로	-9626
방의	-9627
▁말한	-9628
▁부패	-9629
▁수습	-9630
▁두드러	-9631
▁상하이	-9632
▁음성군	-9633
했습니다	-9634
▁지난해부터	-9635
할지	-9636
▁싸움	-9637
▁대체로	-9638
▁음악을	-9639
디스플레이	-9640
ity	-9641
▁바이어	-9642
세계수영	-9643
▁플랫폼을	-9644
▁걸맞	-9645
▁독도	-9646
▁낙동강	-9647
▁소식이	-9648
▁이낙연	-9649
▁택배	-9650
종목의	-9651
▁정상회담을	-9652
하의	-9653
해가	-9654
▁급감	-9655
포스	-9656
▁손흥	-9657
▁일도	-9658
▁제출했다	-9659
전주	-9660
▁#	-9661
근무	-9662
우며	-9663
▁집에	-9664
▁방안에	-9665
▁필요성이	-9666
월의	-9667
▁4,	-9668
▁읍면	-9669
▁대안을	-9670
▁중이며	-9671
▁1945	-9672
▁횟	-9673
해외	-9674
▁서면	-9675
▁직결	-9676
▁트위	-9677
▁의원과	-9678
▁딜	-9679
개교	-9680
문화의	-9681
▁사용을	-9682
▁세계적	-9683
▁아니면	-9684
풍을	-9685
▁가서	-9686
여름	-9687
래프트	-9688
▁개인정보	-9689
▁그중	-9690
▁있었으나	-9691
되던	-9692
류는	-9693
▁미치지	-9694
년은	-9695
▁멀리	-9696
▁입주민	-9697
▁조사에	-9698
▁지도자	-9699
▁김장	-9700
▁무리	-9701
▁전격	-9702
교육과	-9703
▁결정할	-9704
▁나경원	-9705
▁복잡한	-9706
▁거리가	-9707
▁판매한다	-9708
북부	-9709
▁95	-9710
▁밴드	-9711
군으로	-9712
▁조율	-9713
▁MOU	-9714
▁그에게	-9715
▁않을까	-9716
▁노하우를	-9717
▁쳐	-9718
기에는	-9719
▁드림	-9720
▁점에	-9721
▁채무	-9722
▁이뤄져야	-9723
▁철수	-9724
▁코너	-9725
▁모델로	-9726
▁발생해	-9727
▁상관없이	-9728
▁아프리카돼지열병	-9729
배우	-9730
촉진	-9731
▁여야가	-9732
▁처분을	-9733
▁더불어민주	-9734
▁다룬	-9735
▁지방세	-9736
공을	-9737
▁양승	-9738
▁나라의	-9739
▁이뤄지는	-9740
▁하나는	-9741
▁행사로	-9742
▁입단	-9743
▁일각에서는	-9744
▁곁	-9745
곡을	-9746
▁즉위	-9747
▁국민적	-9748
▁실현을	-9749
▁고객에게	-9750
▁사용된다	-9751
루스	-9752
산과	-9753
▁통학	-9754
프를	-9755
성장을	-9756
▁출시한	-9757
▁공헌	-9758
▁손에	-9759
▁부분에	-9760
▁장학금	-9761
영수	-9762
▁내비	-9763
▁제기한	-9764
▁편리한	-9765
▁조회	-9766
▁시급한	-9767
▁전쟁을	-9768
▁하나다	-9769
기준을	-9770
처벌	-9771
▁공적	-9772
▁법제	-9773
▁개혁을	-9774
▁역사상	-9775
▁집에서	-9776
간접	-9777
▁동문	-9778
▁합성	-9779
되는데	-9780
광고	-9781
로봇	-9782
▁보이며	-9783
▁국무총	-9784
▁시기를	-9785
변경	-9786
▁솔로	-9787
▁여론이	-9788
▁총선에서	-9789
원인	-9790
폰을	-9791
▁이루어진	-9792
▁참여한다	-9793
▁내걸	-9794
▁붙여	-9795
소비자	-9796
▁보지	-9797
기초	-9798
▁김홍	-9799
▁개선이	-9800
▁국회는	-9801
▁맞대	-9802
▁사드	-9803
▁타임	-9804
타이어	-9805
를린	-9806
보며	-9807
▁지주	-9808
▁선정한	-9809
▁관광객이	-9810
▁무효	-9811
▁지불	-9812
▁현직	-9813
od	-9814
교부	-9815
르타	-9816
▁든다	-9817
▁불이	-9818
▁불과했다	-9819
다니	-9820
▁말았다	-9821
▁우울	-9822
▁진주	-9823
▁방문하는	-9824
풍이	-9825
▁역설	-9826
▁지나치게	-9827
통화	-9828
▁대항	-9829
버넌	-9830
▁일에	-9831
법률	-9832
우주	-9833
▁노벨	-9834
▁수돗	-9835
▁공간이	-9836
▁속도가	-9837
▁용역을	-9838
▁핫	-9839
가야	-9840
하니	-9841
▁당한	-9842
▁그것은	-9843
▁마음으로	-9844
▁시작하는	-9845
▁미얀	-9846
▁서울의	-9847
▁안전하고	-9848
▁흥행	-9849
▁분야를	-9850
▁소재로	-9851
▁사람들을	-9852
보도	-9853
▁남긴	-9854
▁채워	-9855
▁급격한	-9856
▁신청한	-9857
▁연면적	-9858
로지	-9859
▁사물	-9860
▁생기	-9861
사진을	-9862
▁아세안	-9863
▁탓이다	-9864
만으로도	-9865
▁자진	-9866
▁긴밀한	-9867
▁제안한	-9868
▁오고	-9869
협회는	-9870
▁바꾸는	-9871
▁전년보다	-9872
▁소비자들의	-9873
▁p	-9874
퇴근	-9875
▁설립을	-9876
▁경제정책	-9877
층은	-9878
센터의	-9879
치와	-9880
회장은	-9881
가기	-9882
▁식당	-9883
▁조원	-9884
▁문화가	-9885
▁의약품	-9886
▁휠	-9887
▁확진	-9888
는데도	-9889
사들은	-9890
▁15%	-9891
▁그것이	-9892
▁새누리당	-9893
▁직접적인	-9894
▁수사에	-9895
▁핀테크	-9896
아웃	-9897
운송	-9898
▁탄탄	-9899
▁그것을	-9900
▁뛰어넘	-9901
▁눈높	-9902
▁미국에	-9903
▁추세다	-9904
탄소	-9905
▁공청	-9906
대회는	-9907
▁건수는	-9908
▁모습은	-9909
▁제기되고	-9910
▁민주평화당	-9911
번에	-9912
▁결론을	-9913
▁맑	-9914
이미	-9915
자녀	-9916
▁79	-9917
▁일괄	-9918
온라인	-9919
근로자	-9920
차이즈	-9921
▁과정이	-9922
▁예산안	-9923
▁공유하는	-9924
▁대구시는	-9925
트럴	-9926
▁터키	-9927
▁검사를	-9928
▁맞았다	-9929
▁시설이	-9930
▁안전성	-9931
▁산학협력	-9932
▁켜	-9933
겠습니다	-9934
▁번의	-9935
▁우리나라의	-9936
마자	-9937
▁양도	-9938
▁비전을	-9939
▁개최된다	-9940
중부	-9941
▁삭감	-9942
▁감사의	-9943
취를	-9944
어졌다	-9945
▁매니저	-9946
▁현수	-9947
의회가	-9948
▁83	-9949
▁엇갈	-9950
시간이	-9951
▁개최를	-9952
▁외교부	-9953
▁도시철도	-9954
▁서비스가	-9955
▁오를	-9956
▁다목적	-9957
▁암호	-9958
▁휴게	-9959
▁나라를	-9960
기한	-9961
▁분석을	-9962
▁제품에	-9963
▁출근	-9964
단장	-9965
▁의류	-9966
▁임차	-9967
▁해임	-9968
협의체	-9969
폴리스	-9970
▁즐거운	-9971
조원을	-9972
▁가족과	-9973
▁일부는	-9974
▁돋보	-9975
▁주교	-9976
▁마련에	-9977
▁올리는	-9978
")	-9979
▁대상에	-9980
▁냈	-9981
호한	-9982
▁경매	-9983
▁회수	-9984
▁외인비율	-9985
▁전일거래량	-9986
ag	-9987
▁FA	-9988
▁내실	-9989
업체의	-9990
▁원칙을	-9991
▁자체를	-9992
▁개발하고	-9993
헨티	-9994
▁죽은	-9995
업계에	-9996
▁의미다	-9997
▁만세	-9998
▁포괄	-9999
▁폭로	-10000
평가를	-10001
▁감사를	-10002
▁요구된다	-10003
▁데는	-10004
시설의	-10005
▁속하는	-10006
▁총리가	-10007
▁태평양	-10008
경정	-10009
내외	-10010
두에	-10011
군에서	-10012
.0%)	-10013
▁올리고	-10014
▁서울시는	-10015
가공	-10016
단히	-10017
편이	-10018
(30	-10019
▁증대	-10020
▁동아리	-10021
▁b	-10022
▁독려	-10023
▁검토해	-10024
▁도시를	-10025
▁신속히	-10026
▁홈페이지에서	-10027
▁휴가	-10028
▁고객을	-10029
▁이시간	-10030
▁파악하고	-10031
▁추후	-10032
▁이루고	-10033
▁행정구역이다	-10034
▁전임	-10035
▁가려	-10036
▁발탁	-10037
▁섬유	-10038
▁이해를	-10039
▁자리잡	-10040
가게	-10041
심은	-10042
▁성명	-10043
▁못하면	-10044
▁역전	-10045
▁결정에	-10046
▁보여준	-10047
▁이해할	-10048
▁자리가	-10049
▁셋째	-10050
질랜드	-10051
▁선행	-10052
▁미분양	-10053
▁토요일	-10054
▁뭉	-10055
령이	-10056
▁산업을	-10057
▁전보다	-10058
노동조합	-10059
▁형식으로	-10060
편을	-10061
▁재활	-10062
▁『	-10063
십자	-10064
왕의	-10065
▁'5	-10066
▁교육청	-10067
에이	-10068
▁후배	-10069
▁역사와	-10070
기업에	-10071
▁사실은	-10072
▁알렸다	-10073
▁주변의	-10074
기업으로	-10075
놓은	-10076
병원은	-10077
▁신산업	-10078
▁피아노	-10079
83	-10080
▁린	-10081
▁선별	-10082
▁업그	-10083
세기에	-10084
▁처리를	-10085
▁학생과	-10086
▁전년대비	-10087
하되	-10088
▁경진	-10089
포를	-10090
발전소	-10091
▁박정희	-10092
▁셔	-10093
▁체크	-10094
밀하게	-10095
▁제도가	-10096
▁이동통신	-10097
▁경과	-10098
▁무력	-10099
▁유의	-10100
▁일원에	-10101
님이	-10102
▁산책	-10103
인들을	-10104
▁경제는	-10105
▁밝히고	-10106
▁발전과	-10107
▁후에도	-10108
▁IP	-10109
▁민정	-10110
기간은	-10111
▁설명회	-10112
▁상실	-10113
▁아빠	-10114
비행	-10115
▁뛰어나	-10116
▁문제와	-10117
▁겉	-10118
▁세계의	-10119
과장	-10120
▁랜드	-10121
▁서서	-10122
▁전시회	-10123
▁환경에	-10124
충주	-10125
지사가	-10126
▁교류를	-10127
내야	-10128
포지	-10129
▁시즌을	-10130
▁시민사회	-10131
▁'3	-10132
▁97	-10133
▁주된	-10134
▁체류	-10135
▁장관을	-10136
마가	-10137
SOC	-10138
▁걸려	-10139
▁캘리포니아	-10140
상황을	-10141
농업기술	-10142
▁대통령에게	-10143
노트	-10144
포구	-10145
▁무조건	-10146
▁세탁	-10147
▁스케	-10148
나라의	-10149
▁적폐	-10150
▁강력히	-10151
▁아이돌	-10152
▁아니라고	-10153
▁한국은행	-10154
▁많았고	-10155
▁방식의	-10156
▁비율을	-10157
▁올해의	-10158
"(	-10159
보로	-10160
추가	-10161
▁잊지	-10162
▁프랜	-10163
▁꾸준한	-10164
▁알렉산	-10165
재료	-10166
청원	-10167
▁가면	-10168
▁불을	-10169
▁불투	-10170
▁인문	-10171
▁잃은	-10172
그룹이	-10173
되었던	-10174
▁아는	-10175
▁재학	-10176
시설에	-10177
▁시행하고	-10178
▁르노	-10179
▁방출	-10180
MZ	-10181
시리즈	-10182
▁아닌가	-10183
▁추진된다	-10184
▁주시	-10185
▁햇	-10186
유지	-10187
추행	-10188
▁저작	-10189
▁기록해	-10190
▁편리하게	-10191
▁노예	-10192
▁뉴딜	-10193
▁실질적	-10194
▁제도다	-10195
▁맞고	-10196
▁일로	-10197
▁청사	-10198
▁교육부는	-10199
부서	-10200
조달	-10201
▁연루	-10202
▁이례	-10203
▁자사	-10204
대회가	-10205
반도체	-10206
▁최대의	-10207
▁유치에	-10208
▁대피	-10209
▁심장	-10210
▁선진국	-10211
▁키우는	-10212
▁타격을	-10213
▁한계를	-10214
▁말은	-10215
▁차관	-10216
공예	-10217
▁스토리	-10218
▁관점에서	-10219
▁다음으로	-10220
▁체결하고	-10221
브라	-10222
작품	-10223
회원	-10224
▁발족	-10225
▁유지할	-10226
강점	-10227
경과	-10228
버트	-10229
▁증가할	-10230
▁그렇다고	-10231
▁아일랜드	-10232
42	-10233
위생	-10234
▁문화의	-10235
▁선거를	-10236
▁보여주고	-10237
▁평생학습	-10238
▁역을	-10239
▁자라	-10240
▁각각의	-10241
▁미중	-10242
▁일종의	-10243
▁전년동	-10244
▁인테리어	-10245
심과	-10246
▁내정	-10247
▁베르	-10248
인들에게	-10249
▁기숙	-10250
▁주체	-10251
▁속에서도	-10252
▁s	-10253
▁JTBC	-10254
▁견제	-10255
▁여는	-10256
▁전환을	-10257
▁폭으로	-10258
▁가능성은	-10259
▁협박	-10260
조치를	-10261
▁맛을	-10262
▁업계에	-10263
▁중점을	-10264
어린이집	-10265
▁광주의	-10266
▁김명	-10267
▁키움	-10268
II	-10269
▁대략	-10270
▁정책은	-10271
전선	-10272
▁국내에	-10273
▁포르투갈	-10274
리츠	-10275
지않	-10276
▁항공사	-10277
동구	-10278
들었다	-10279
고로	-10280
사기	-10281
오픈	-10282
▁새겨	-10283
▁열대	-10284
▁단위로	-10285
▁분야는	-10286
▁공존	-10287
결과를	-10288
트에서	-10289
▁노래를	-10290
▁당분간	-10291
▁보건소	-10292
▁다양하게	-10293
▁공급하는	-10294
▁MC	-10295
▁세력	-10296
▁신장	-10297
▁입력	-10298
▁들어간다	-10299
▁5,	-10300
이니	-10301
▁이송	-10302
▁이뤄지고	-10303
▁집중적으로	-10304
▁공모전	-10305
▁도입해	-10306
▁패키지	-10307
▁불필	-10308
▁여가	-10309
밖에도	-10310
▁힘들다	-10311
▁국제사회	-10312
정도	-10313
PGA	-10314
▁갑작	-10315
▁답답	-10316
▁중증	-10317
태평양	-10318
로와	-10319
▁폭이	-10320
▁경기장	-10321
▁마침내	-10322
직업	-10323
▁감당	-10324
▁가족의	-10325
▁강화에	-10326
▁약속을	-10327
▁나타나고	-10328
▁운영되고	-10329
▁네트워크를	-10330
ia	-10331
▁감수	-10332
▁보내는	-10333
거를	-10334
날레	-10335
▁상속	-10336
▁차를	-10337
화되고	-10338
-7	-10339
▁강소	-10340
수도권	-10341
▁식민지	-10342
▁캔	-10343
▁기관의	-10344
▁수원시	-10345
련의	-10346
▁준비한	-10347
▁차량이	-10348
군사	-10349
터는	-10350
▁유가	-10351
▁의지	-10352
▁수출은	-10353
▁진상규	-10354
▁하도급	-10355
▁보고서를	-10356
▁의원들은	-10357
▁주관으로	-10358
▁체계적으로	-10359
기정	-10360
팅을	-10361
우리는	-10362
▁능력이	-10363
▁수준인	-10364
▁증상이	-10365
▁연설	-10366
▁연일	-10367
▁제공된다	-10368
실업	-10369
▁육박	-10370
▁통산	-10371
▁하드	-10372
로서는	-10373
▁부딪	-10374
▁부가가	-10375
▁사용이	-10376
▁호기	-10377
▁거리를	-10378
▁'2018	-10379
산에	-10380
셀러	-10381
▁빌려	-10382
모집	-10383
협회가	-10384
자에게는	-10385
▁발굴하고	-10386
▁◇	-10387
▁DB	-10388
▁대응할	-10389
▁받았고	-10390
▁수준이	-10391
복지센터	-10392
▁변신	-10393
▁중립	-10394
▁매출을	-10395
▁지적도	-10396
▁아니었다	-10397
▁군포	-10398
▁날씨	-10399
▁보일	-10400
▁시급하다	-10401
▁깃	-10402
▁동월	-10403
상이다	-10404
▁모집한다	-10405
라가	-10406
생의	-10407
▁82	-10408
▁공립	-10409
▁꾸며	-10410
▁모인	-10411
▁기간은	-10412
▁대강	-10413
▁않았다는	-10414
▁싫	-10415
션은	-10416
▁식사	-10417
▁전송	-10418
▁정교	-10419
▁패턴	-10420
▁소리를	-10421
▁주민등록	-10422
▁수천	-10423
▁게임을	-10424
▁재료	-10425
▁세계를	-10426
급을	-10427
영이	-10428
▁쓰이는	-10429
▁필요로	-10430
▁기업들은	-10431
장려	-10432
▁무장	-10433
▁스코	-10434
▁최장	-10435
기업인	-10436
▁성과가	-10437
▁하노이	-10438
학술	-10439
▁적용한	-10440
▁조짐	-10441
▁일으킨	-10442
▁활성화와	-10443
▁당뇨	-10444
▁앉아	-10445
문제를	-10446
▁지난해에는	-10447
모든	-10448
쪽에	-10449
▁겨우	-10450
유공자	-10451
▁인문학	-10452
▁책임이	-10453
▁무역전쟁	-10454
인식	-10455
▁담배	-10456
▁신생	-10457
▁골자로	-10458
▁전두환	-10459
▁개정안은	-10460
양이	-10461
▁공장을	-10462
▁이의	-10463
거리가	-10464
▁요구한	-10465
전공	-10466
▁사흘	-10467
▁프린	-10468
▁밝혀졌다	-10469
▁방과	-10470
▁전동	-10471
수리	-10472
▁반등	-10473
▁‘20	-10474
▁적용할	-10475
▁홍보를	-10476
▁사업비를	-10477
▁실시간으로	-10478
만원이	-10479
에게서	-10480
▁그들이	-10481
▁유리한	-10482
▁이용자	-10483
▁퀴	-10484
▁증폭	-10485
▁...	-10486
▁공인중	-10487
▁스트레	-10488
▁일본을	-10489
▁주민과	-10490
▁신성	-10491
▁혈액	-10492
▁인식이	-10493
▁평화를	-10494
▁벌어졌다	-10495
▁뜻은	-10496
▁무릎	-10497
▁신동	-10498
▁원산	-10499
▁헌법재판	-10500
▁신성장	-10501
▁현상을	-10502
▁상권	-10503
절차를	-10504
▁개발이	-10505
▁종목은	-10506
▁특성상	-10507
LS	-10508
간다는	-10509
당했다	-10510
재의	-10511
▁회전	-10512
93	-10513
이동	-10514
46	-10515
기간이	-10516
▁발표를	-10517
▁선수들의	-10518
▁이어갔다	-10519
▁경관	-10520
▁어른	-10521
단체장	-10522
▁만나는	-10523
▁만나볼	-10524
▁이틀간	-10525
▁학교에서	-10526
난을	-10527
성남	-10528
▁소매	-10529
▁돼지고	-10530
▁제기했다	-10531
▁꾸려	-10532
▁반성	-10533
▁싶어	-10534
▁설명을	-10535
그라	-10536
▁가산	-10537
▁동행	-10538
▁연중	-10539
▁조속한	-10540
▁혜택이	-10541
▁제임	-10542
▁해주	-10543
▁관리가	-10544
▁후보를	-10545
▁무역분쟁	-10546
▁중에서도	-10547
문과	-10548
상인	-10549
안내	-10550
지식	-10551
▁트랙	-10552
▁예상했다	-10553
▁되자	-10554
▁전지	-10555
▁OECD	-10556
▁옥천군	-10557
▁패러다	-10558
우지	-10559
▁동호	-10560
▁공시가	-10561
즈가	-10562
▁과일	-10563
협력을	-10564
72	-10565
억여	-10566
▁모의	-10567
▁효율적으로	-10568
81	-10569
▁온도	-10570
▁서귀포시	-10571
▁정부에서	-10572
▁혁신성장	-10573
돌이	-10574
면은	-10575
▁임직	-10576
▁여행을	-10577
▁은메달	-10578
치유	-10579
▁대구는	-10580
스리그	-10581
▁공모를	-10582
파는	-10583
▁테이블	-10584
▁대응하기	-10585
▁아르헨티	-10586
어질	-10587
▁납득	-10588
▁활용하는	-10589
BA	-10590
▁맺은	-10591
▁법칙	-10592
▁치솟	-10593
▁형제	-10594
▁만이다	-10595
▁물론이고	-10596
현황	-10597
▁세우고	-10598
▁사람들에게	-10599
라크	-10600
훈련을	-10601
▁기본적인	-10602
ST	-10603
▁컵	-10604
▁스탠	-10605
▁김치	-10606
신공항	-10607
▁주관한	-10608
▁진실을	-10609
위원장을	-10610
▁서비스는	-10611
SC	-10612
▁퓨	-10613
▁먹을	-10614
▁여부에	-10615
▁신재생에너지	-10616
ap	-10617
였는데	-10618
▁제품이	-10619
▁궁금증을	-10620
▁있었으며	-10621
▁강사	-10622
▁세이	-10623
~9	-10624
겨울	-10625
▁선전	-10626
▁와인	-10627
▁플로	-10628
▁한달	-10629
▁톱	-10630
론은	-10631
▁타당	-10632
▁건설을	-10633
▁법안을	-10634
▁국민에게	-10635
▁국책	-10636
▁법을	-10637
▁북한에	-10638
▁부르는	-10639
▁투자유치	-10640
▁냉장	-10641
▁박종	-10642
▁In	-10643
▁막는	-10644
▁입건	-10645
▁혼합	-10646
▁깨끗한	-10647
▁투자자	-10648
▁후보자가	-10649
▁의혹에	-10650
▁이어갈	-10651
▁체결했다고	-10652
▁늘리고	-10653
▁짙	-10654
▁걸고	-10655
▁시책	-10656
시민의	-10657
▁소비자가	-10658
만명을	-10659
▁개선과	-10660
▁신용카드	-10661
▁깎	-10662
▁86	-10663
▁공연은	-10664
▁성범죄	-10665
▁포상	-10666
▁시민들은	-10667
기존	-10668
루를	-10669
매일	-10670
▁불참	-10671
▁세입	-10672
▁대행	-10673
▁아들이	-10674
▁김선	-10675
▁대표팀	-10676
▁울산의	-10677
▁투자해	-10678
서부	-10679
학부	-10680
▁이순	-10681
▁전북지역	-10682
▁중국에서	-10683
▁확대와	-10684
회째	-10685
산업은	-10686
▁선수로	-10687
▁조합장	-10688
마스터	-10689
▁중대한	-10690
▁자부	-10691
보다도	-10692
▁기쁘다	-10693
충청투데이	-10694
우를	-10695
저감	-10696
탱크	-10697
▁생계	-10698
▁주소	-10699
▁호평을	-10700
주의를	-10701
▁이루는	-10702
대체	-10703
베트남	-10704
보디아	-10705
▁안정적	-10706
▁위원장의	-10707
▁개최했다고	-10708
시피	-10709
클래	-10710
이면서	-10711
▁사용하지	-10712
▁제품으로	-10713
버스터	-10714
▁꼽히는	-10715
▁광주지역	-10716
▁주목받고	-10717
▁지급하는	-10718
▁짚	-10719
들인	-10720
챌린	-10721
▁본질	-10722
라인을	-10723
▁선수는	-10724
▁안타깝	-10725
▁되었으며	-10726
▁방한	-10727
▁비닐	-10728
영향평가	-10729
▁관리하고	-10730
▁붙잡	-10731
▁장례	-10732
▁컨트롤	-10733
▁낚	-10734
▁화순	-10735
▁깜짝	-10736
▁대성	-10737
▁오브	-10738
언스	-10739
▁성장률	-10740
실습	-10741
택지	-10742
▁위성	-10743
▁자이	-10744
▁아이들의	-10745
▁가능하도록	-10746
▁수령	-10747
▁와서	-10748
▁서울과	-10749
▁조성하고	-10750
미니	-10751
RI	-10752
경기를	-10753
▁뜻하는	-10754
▁얽	-10755
방법	-10756
▁발표할	-10757
▁판단을	-10758
▁내놓았다	-10759
스케	-10760
▁기대할	-10761
▁선수단	-10762
▁위치를	-10763
▁영향력을	-10764
동원	-10765
슈타	-10766
▁봐도	-10767
▁제기된	-10768
▁조건으로	-10769
▁마련이	-10770
▁트레이	-10771
▁이루어져	-10772
▁특색	-10773
▁개최해	-10774
▁연구소	-10775
업이	-10776
▁이병	-10777
▁입원	-10778
엔지니어링	-10779
차와	-10780
▁평가에서	-10781
이노베이션	-10782
임이	-10783
▁팀은	-10784
▁넘어서	-10785
▁판매가	-10786
구성	-10787
▁포도	-10788
능력을	-10789
이익을	-10790
▁선거법	-10791
▁주장한다	-10792
▁기지	-10793
▁래	-10794
미로	-10795
심리	-10796
족의	-10797
▁동메달	-10798
▁반려동물	-10799
▁산업통상자원부	-10800
▁촌	-10801
교육의	-10802
코드	-10803
▁신입생	-10804
ow	-10805
티드	-10806
▁계획이라고	-10807
영을	-10808
▁기준에	-10809
▁못하게	-10810
▁높아졌다	-10811
무는	-10812
▁느꼈	-10813
▁전라남도	-10814
도민	-10815
▁병역	-10816
▁당연한	-10817
▁판문점	-10818
▁환경이	-10819
▁서울특별시	-10820
▁유료	-10821
▁뉴질랜드	-10822
▁저소득층	-10823
▁관중	-10824
바이트	-10825
점검을	-10826
테크노파크	-10827
총회	-10828
▁광범위	-10829
▁전쟁이	-10830
▁계룡	-10831
▁달라고	-10832
▁재판을	-10833
▁증가로	-10834
▁그렇다면	-10835
내년	-10836
ter	-10837
▁벌여	-10838
기에서	-10839
▁경우에	-10840
▁정하고	-10841
케스트라	-10842
▁이끌었다	-10843
소매	-10844
타르	-10845
▁안고	-10846
▁헌신	-10847
▁계획은	-10848
▁조기에	-10849
▁박재	-10850
▁경상북도	-10851
▁뜻한다	-10852
▁선거에	-10853
▁구조조정	-10854
▁델	-10855
프의	-10856
▁밀어붙	-10857
▁회사가	-10858
롭고	-10859
▁형평	-10860
▁시간은	-10861
테이너	-10862
▁업계의	-10863
▁존재하는	-10864
▁굉	-10865
▁당의	-10866
▁스틸	-10867
▁임의	-10868
▁신공항	-10869
일으	-10870
▁이지	-10871
3,	-10872
청을	-10873
▁거세	-10874
▁늘리	-10875
기업과	-10876
▁절차에	-10877
▁체험할	-10878
▁교통안전	-10879
▁개교	-10880
▁보낼	-10881
▁적용된다	-10882
해진다	-10883
남기	-10884
▁발대	-10885
▁응용	-10886
농산물	-10887
▁폼페이	-10888
▁충청남도	-10889
통제	-10890
휴양	-10891
퍼런스	-10892
▁단지는	-10893
▁스타벅	-10894
▁빠졌다	-10895
▁활약을	-10896
관왕	-10897
▁타입	-10898
▁덴마크	-10899
▁송파	-10900
▁회장을	-10901
▁직원들의	-10902
▁중시	-10903
▁지점	-10904
▁실력을	-10905
비리	-10906
▁라틴	-10907
산물을	-10908
▁전체가	-10909
고리	-10910
조명	-10911
▁준우	-10912
▁점검을	-10913
▁정부도	-10914
분부터	-10915
▁참사	-10916
54	-10917
스톱	-10918
▁순수	-10919
프로젝	-10920
▁들여다	-10921
▁추억을	-10922
자유구역	-10923
화될	-10924
▁뉴시스	-10925
▁자치구	-10926
▁지키기	-10927
▁지키는	-10928
▁마련하는	-10929
▁핸드	-10930
▁양육	-10931
▁탈퇴	-10932
▁조직을	-10933
▁추가경정	-10934
나고	-10935
실천	-10936
실태	-10937
▁사무처	-10938
▁사회가	-10939
▁선언했다	-10940
▁이르렀다	-10941
▁횡단	-10942
됐으나	-10943
▁설립한	-10944
▁학생을	-10945
타로	-10946
▁찬반	-10947
▁영동군	-10948
▁이용섭	-10949
▁합니다	-10950
▁관계없이	-10951
견이	-10952
▁GM	-10953
▁전국에	-10954
▁거대	-10955
▁주류	-10956
▁건립을	-10957
PI	-10958
▁샌드	-10959
▁순회	-10960
공사와	-10961
▁것인가	-10962
▁오르는	-10963
다란	-10964
▁나누는	-10965
▁이해찬	-10966
▁자격을	-10967
릭스	-10968
▁공사는	-10969
▁사망자	-10970
▁신고를	-10971
▁강수	-10972
▁것인	-10973
▁고가	-10974
▁뒤로	-10975
▁재임	-10976
▁년까지	-10977
▁앞세워	-10978
▁협상이	-10979
▁동아시아	-10980
▁일제강점	-10981
▁위해서다	-10982
더불어민주당	-10983
자재	-10984
com	-10985
▁스페셜	-10986
년여	-10987
한국당	-10988
▁일대에	-10989
▁과잉	-10990
▁예전	-10991
데이트	-10992
▁과제로	-10993
▁추구하는	-10994
▁짓는	-10995
▁미국을	-10996
▁보험료	-10997
▁쓰인다	-10998
▁정치인	-10999
▁이태	-11000
▁횡령	-11001
▁못했던	-11002
▁있다며	-11003
구청장은	-11004
포항	-11005
회복	-11006
▁갈아	-11007
곳으로	-11008
슈퍼	-11009
▁문서	-11010
업계의	-11011
▁170	-11012
▁디자인을	-11013
▁논리	-11014
▁돈이	-11015
▁미루	-11016
▁손상	-11017
▁축적	-11018
총생산	-11019
▁베를린	-11020
수행	-11021
창조	-11022
터널	-11023
▁업체의	-11024
▁마련된다	-11025
미술관	-11026
▁재원	-11027
공사의	-11028
▁언급한	-11029
특례	-11030
▁갑질	-11031
▁피할	-11032
▁수사가	-11033
▁시설물	-11034
▁불러일으	-11035
대장	-11036
▁놓여	-11037
▁크기	-11038
▁주민들에게	-11039
타민	-11040
▁민중	-11041
▁비디오	-11042
▁평화의	-11043
호에	-11044
▁동결	-11045
▁유인	-11046
▁최하	-11047
▁완벽한	-11048
▁창설	-11049
▁도교육청은	-11050
▁이창	-11051
시설로	-11052
▁기탁	-11053
받게	-11054
책이	-11055
▁군수	-11056
▁부임	-11057
수산물	-11058
▁기술력을	-11059
추어	-11060
▁사찰	-11061
전자는	-11062
▁부당한	-11063
▁영화를	-11064
▁분석된다	-11065
91	-11066
▁UN	-11067
▁추출	-11068
리더	-11069
▁성수	-11070
▁성황	-11071
▁역사의	-11072
▁자동으로	-11073
▁시청자들의	-11074
▁연안	-11075
▁3.3	-11076
이라고도	-11077
조국	-11078
플라	-11079
▁불매운동	-11080
▁주장이다	-11081
71	-11082
76	-11083
▁집회를	-11084
강을	-11085
▁공작	-11086
▁되새	-11087
▁세제	-11088
▁제가	-11089
어지는	-11090
정차	-11091
▁연초	-11092
▁조성된	-11093
▁행사에서	-11094
용지	-11095
▁댄스	-11096
▁불합	-11097
▁양파	-11098
▁파급	-11099
▁보며	-11100
▁아픔	-11101
▁즐기	-11102
방에서	-11103
▁제도적	-11104
▁확실한	-11105
등의	-11106
벨트	-11107
본다	-11108
식물	-11109
▁작업이	-11110
요양	-11111
▁된다고	-11112
▁시장과	-11113
▁어디서	-11114
박람	-11115
▁뜻깊	-11116
▁해설	-11117
계에서	-11118
▁장비를	-11119
▁2024	-11120
▁고장	-11121
▁이모	-11122
▁해남	-11123
DB	-11124
▁남한	-11125
층에서	-11126
▁에너지를	-11127
▁숨진	-11128
년만에	-11129
고지	-11130
▁중국에	-11131
▁플랜	-11132
경영자	-11133
대원	-11134
▁과천	-11135
새로운	-11136
▁광주는	-11137
▁카드를	-11138
미한	-11139
▁상을	-11140
▁파격	-11141
▁클래식	-11142
리케이션	-11143
▁흡연	-11144
▁금리를	-11145
▁담겼다	-11146
▁큐	-11147
산림	-11148
▁유산	-11149
함은	-11150
▁전신	-11151
공학과	-11152
▁북동	-11153
본부가	-11154
▁넘어섰다	-11155
▁바이러스	-11156
▁약간	-11157
시설은	-11158
자원을	-11159
▁요구가	-11160
▁중지	-11161
▁맺었다	-11162
▁합의한	-11163
호와	-11164
▁권력을	-11165
▁제고를	-11166
▁기대감이	-11167
버리	-11168
▁가벼	-11169
▁구조조	-11170
▁92	-11171
남북	-11172
▁현급	-11173
▁이밖에도	-11174
▁확정했다	-11175
▁프랜차이즈	-11176
▁제주특별자치도	-11177
▁원인은	-11178
▁의해서	-11179
▁건의했다	-11180
가인	-11181
▁고무	-11182
▁수산물	-11183
리안	-11184
▁고백	-11185
계획에	-11186
▁고사	-11187
▁다중	-11188
활성화	-11189
▁준비해	-11190
▁핀란드	-11191
▁향상에	-11192
▁효과적으로	-11193
비즈	-11194
욕을	-11195
▁치안	-11196
타는	-11197
▁1986	-11198
▁곱	-11199
교육감	-11200
오른쪽	-11201
▁대목이다	-11202
▁사건으로	-11203
▁도가	-11204
▁많지	-11205
▁재가	-11206
▁노트	-11207
베이터	-11208
▁그래도	-11209
▁있었다고	-11210
니가	-11211
리콘	-11212
▁후임	-11213
▁과태료	-11214
▁세상	-11215
▁조용	-11216
▁반영된	-11217
▁출시된	-11218
▁반발하고	-11219
▁기구	-11220
▁웃음	-11221
▁공급을	-11222
▁근거가	-11223
▁특성에	-11224
▁일방적으로	-11225
▁구멍	-11226
▁기쁨	-11227
▁벤치	-11228
효과를	-11229
▁상승세를	-11230
▁생활체육	-11231
▁가파	-11232
▁동작	-11233
▁기울이고	-11234
▁박람	-11235
▁휴대폰	-11236
▁분위기다	-11237
열을	-11238
▁마땅하다	-11239
▁주민참여	-11240
▁최소한의	-11241
교섭	-11242
지노	-11243
한국시간	-11244
▁신청하면	-11245
▁1,000	-11246
56	-11247
▁색깔	-11248
▁작품이	-11249
▁밸	-11250
▁녹지	-11251
▁비극	-11252
▁밖으로	-11253
▁어긋	-11254
▁공연이	-11255
▁절차가	-11256
▁경기도가	-11257
▁불공정	-11258
▁종류의	-11259
▁생각하고	-11260
▁일상생활	-11261
와이	-11262
으려	-11263
혜택	-11264
▁오스	-11265
▁상수도	-11266
▁선거구	-11267
▁마이너스	-11268
▁자랑하는	-11269
▁지역발전	-11270
▁가볍	-11271
▁복무	-11272
▁에드	-11273
▁음료	-11274
▁선택할	-11275
▁불가능한	-11276
▁갱	-11277
트넘	-11278
▁AR	-11279
▁발을	-11280
▁규제가	-11281
▁듯하다	-11282
▁상태에	-11283
▁체제를	-11284
▁참가했다	-11285
▁진실	-11286
상가	-11287
▁나빠	-11288
▁말라	-11289
▁며칠	-11290
비서관	-11291
▁정책으로	-11292
면과	-11293
▁SW	-11294
▁두루	-11295
▁표본	-11296
▁여파로	-11297
▁펼친다	-11298
▁남북관계	-11299
로마	-11300
취약	-11301
특화	-11302
▁구속영	-11303
▁재산을	-11304
▁내년에	-11305
SA	-11306
담보	-11307
달라는	-11308
▁350	-11309
▁소비자의	-11310
SO	-11311
▁당원	-11312
▁맥주	-11313
▁차가	-11314
화재	-11315
▁'1	-11316
만명이	-11317
▁당했다	-11318
석유	-11319
장터	-11320
▁동의를	-11321
▁축제를	-11322
▁개정안이	-11323
▁개최한다고	-11324
값이	-11325
천안	-11326
▁신조	-11327
▁전설	-11328
폴리	-11329
▁생명을	-11330
▁서산시	-11331
▁처벌을	-11332
▁갔	-11333
업소	-11334
▁만만	-11335
▁뜻으로	-11336
▁지역화폐	-11337
▁유학생	-11338
▁졸업생	-11339
▁실질적으로	-11340
격이	-11341
▁영웅	-11342
▁우편	-11343
▁재고	-11344
▁추기	-11345
▁강조한	-11346
▁사업도	-11347
▁얼굴을	-11348
▁탈원전	-11349
림이	-11350
▁모금	-11351
▁삼각	-11352
▁감염병	-11353
▁중국을	-11354
▁팩	-11355
치면	-11356
단지를	-11357
▁캠퍼스	-11358
▁개원	-11359
▁관절	-11360
▁소위	-11361
▁논의할	-11362
▁명확한	-11363
형사	-11364
▁장이	-11365
▁표명	-11366
▁선거제	-11367
▁활발히	-11368
연구원이	-11369
73	-11370
▁81	-11371
▁임진	-11372
▁한라	-11373
▁나뉜	-11374
▁참모	-11375
▁매뉴얼	-11376
▁조성할	-11377
▁더블	-11378
▁마크	-11379
▁답변을	-11380
▁브랜드를	-11381
ri	-11382
▁록	-11383
하늘	-11384
▁요인으로	-11385
▁위치한다	-11386
▁김주	-11387
▁빨간	-11388
▁임시회	-11389
▁효과적인	-11390
방식	-11391
▁당국	-11392
▁갖췄다	-11393
▁크루즈	-11394
▁위의	-11395
▁아메리카	-11396
▁전문성을	-11397
▁과감	-11398
▁잠실	-11399
▁문화적	-11400
▁제안을	-11401
▁작품으로	-11402
▁때에	-11403
▁메디	-11404
▁서양	-11405
▁측근	-11406
▁뚜렷한	-11407
▁성폭행	-11408
교과	-11409
~30	-11410
▁살피	-11411
▁앱을	-11412
▁강화와	-11413
▁안정을	-11414
▁의미로	-11415
▁확인된	-11416
▁톡톡	-11417
▁4·	-11418
▁반납	-11419
▁시세	-11420
▁인류	-11421
뉴스팀	-11422
▁입지를	-11423
▁해명했다	-11424
▁듣는	-11425
▁시의원	-11426
▁파티	-11427
레이터	-11428
▁않으며	-11429
자율	-11430
▁98	-11431
▁고구려	-11432
▁헨	-11433
리우	-11434
▁플라	-11435
▁극심한	-11436
▁반응이	-11437
▁화제가	-11438
데다	-11439
▁내륙	-11440
▁수색	-11441
▁공화국	-11442
▁명확히	-11443
권역	-11444
▁정유	-11445
▁민주당이	-11446
▁물이	-11447
▁거버넌	-11448
▁벌이는	-11449
▁예정돼	-11450
▁체험을	-11451
▁관광지	-11452
▁메모리	-11453
▁홈페이지에	-11454
오스	-11455
▁날을	-11456
▁루이	-11457
▁되돌아	-11458
▁공모사업	-11459
▁한국당이	-11460
엔터테인먼트	-11461
현이	-11462
▁덜어	-11463
경기장	-11464
▁거리에	-11465
▁말아야	-11466
▁이하로	-11467
디움	-11468
▁GDP	-11469
▁교육이	-11470
▁이뤘다	-11471
▁조례를	-11472
▁중심이	-11473
▁지원했다	-11474
ab	-11475
▁다를	-11476
▁박원	-11477
▁요한	-11478
▁장병	-11479
▁제네	-11480
▁요인이	-11481
▁구성하고	-11482
▁혁신적인	-11483
51	-11484
오프	-11485
파인	-11486
▁스카	-11487
▁한옥	-11488
▁다이어	-11489
▁설치되어	-11490
▁좋아하는	-11491
EB	-11492
▁차지한다	-11493
▁상해	-11494
▁시일	-11495
금리를	-11496
▁있을까	-11497
▁전통적인	-11498
▁프리미어	-11499
목표	-11500
포장	-11501
▁다짐했다	-11502
▁찌	-11503
▁빛을	-11504
▁치명	-11505
▁미얀마	-11506
▁수업을	-11507
산동	-11508
▁나쁜	-11509
▁외식	-11510
▁처한	-11511
▁나타난다	-11512
▁분석됐다	-11513
▁일정으로	-11514
58	-11515
내지	-11516
체전	-11517
형에	-11518
▁떠난	-11519
▁모래	-11520
▁신앙	-11521
▁와이	-11522
▁학교의	-11523
레저	-11524
호남	-11525
▁과목	-11526
▁되살	-11527
▁매칭	-11528
▁바닷	-11529
▁성분	-11530
▁업체에	-11531
▁종사자	-11532
▁구성했다	-11533
▁앵	-11534
투스	-11535
▁경연	-11536
▁사정이	-11537
▁광주전남	-11538
▁당기	-11539
▁과정은	-11540
▁직장인	-11541
▁하거나	-11542
▁정확하게	-11543
개동	-11544
(21	-11545
▁억울	-11546
았는데	-11547
▁준비에	-11548
선도	-11549
진료	-11550
▁해명	-11551
영화제	-11552
▁선순환	-11553
▁모빌리티	-11554
▁시나리오	-11555
기소	-11556
음에	-11557
▁향토	-11558
▁동원해	-11559
▁모스크	-11560
78	-11561
재단은	-11562
▁선정을	-11563
▁바라보는	-11564
▁절실하다	-11565
▁씻	-11566
훈은	-11567
포지엄	-11568
▁인하여	-11569
▁구별	-11570
▁다카	-11571
▁침략	-11572
▁협회	-11573
단에서	-11574
비디오	-11575
▁김씨는	-11576
▁선택을	-11577
공사를	-11578
▁피해는	-11579
과거	-11580
희는	-11581
▁대부분을	-11582
SS	-11583
빌딩	-11584
빨리	-11585
▁면에서	-11586
▁급락	-11587
▁산지	-11588
▁완도	-11589
▁건물을	-11590
▁통과한	-11591
▁지원하겠다	-11592
동력	-11593
여고	-11594
▁대두	-11595
▁마늘	-11596
▁모터	-11597
지수는	-11598
▁교직원	-11599
▁뽐	-11600
ICT	-11601
▁마음에	-11602
▁채널을	-11603
▁국민들이	-11604
조작	-11605
▁협력업체	-11606
▁낡	-11607
▁그레	-11608
▁브루	-11609
▁기술은	-11610
▁열리고	-11611
▁증가에	-11612
▁크리에	-11613
▁이들에게	-11614
▁챔피언십	-11615
79	-11616
▁물어	-11617
▁상설	-11618
되게	-11619
욕장	-11620
입찰	-11621
천명	-11622
(24	-11623
▁잃어	-11624
▁멘토링	-11625
▁문제도	-11626
~1	-11627
량과	-11628
▁때의	-11629
▁암살	-11630
▁인원	-11631
▁상태가	-11632
ad	-11633
행동	-11634
▁과세	-11635
▁당국은	-11636
▁우려된다	-11637
▁업그레이드	-11638
+1	-11639
장년	-11640
▁EU	-11641
▁예금	-11642
▁환경에서	-11643
▁냄	-11644
의사	-11645
MOU	-11646
▁장난	-11647
대회에	-11648
▁강남구	-11649
▁스프링	-11650
▁선호하는	-11651
▁강진	-11652
▁경찰청	-11653
▁공모에	-11654
▁보내고	-11655
▁걸림	-11656
▁우즈	-11657
▁채취	-11658
▁태도	-11659
▁한국당의	-11660
프랑	-11661
▁원료	-11662
경쟁력	-11663
라고도	-11664
▁해를	-11665
▁여건이	-11666
▁협의해	-11667
년부터는	-11668
▁가격으로	-11669
▁의원들의	-11670
TP	-11671
주얼	-11672
진영	-11673
▁까닭	-11674
단체가	-11675
축구연맹	-11676
▁일부개정	-11677
▁진지	-11678
▁대비한	-11679
▁명칭을	-11680
▁고객들이	-11681
정책과	-11682
▁확정된	-11683
▁청년들이	-11684
▁보건복지부	-11685
개에	-11686
▁밝은	-11687
▁핵무	-11688
▁2.5	-11689
차원	-11690
▁이철	-11691
▁증설	-11692
▁집합	-11693
▁파크	-11694
났으며	-11695
oc	-11696
감에	-11697
▁감귤	-11698
▁처방	-11699
▁호수	-11700
▁적어도	-11701
▁돌입했다	-11702
▁처음에는	-11703
▁대표로	-11704
▁차질이	-11705
지방경찰청	-11706
▁재차	-11707
▁조형	-11708
거점	-11709
기업은	-11710
▁나란히	-11711
▁만족도	-11712
무용	-11713
아직	-11714
▁예매	-11715
▁검토할	-11716
▁만났다	-11717
▁이렇다	-11718
▁고문	-11719
▁엄중	-11720
년간의	-11721
▁미래의	-11722
▁본인이	-11723
▁사례는	-11724
전화	-11725
찬을	-11726
키아	-11727
▁곤충	-11728
▁수행할	-11729
▁축제의	-11730
▁현안을	-11731
▁대대적인	-11732
▁주거환경	-11733
▁회피	-11734
▁아름다	-11735
▁이후로	-11736
▁일부가	-11737
▁1948	-11738
▁바뀌었다	-11739
▁작품이다	-11740
▁청년들의	-11741
▁견본	-11742
▁해고	-11743
▁동북아	-11744
▁폰	-11745
▁드는	-11746
▁붐	-11747
▁교역	-11748
▁법조	-11749
▁한시	-11750
탄소년	-11751
▁방식이	-11752
▁빵	-11753
유플러	-11754
▁한다면	-11755
▁시작되었다	-11756
바라	-11757
▁돕고	-11758
▁빨라	-11759
▁들어설	-11760
지원사업	-11761
모금	-11762
▁오직	-11763
▁900	-11764
▁우려도	-11765
조선해양	-11766
토지주택	-11767
▁단계적으로	-11768
아산	-11769
▁김형	-11770
▁비트	-11771
▁심상	-11772
▁중앙정부	-11773
▁땀	-11774
디터	-11775
▁괴롭	-11776
▁산맥	-11777
▁더했다	-11778
▁위주의	-11779
▁정세	-11780
▁지은	-11781
▁토양	-11782
▁대상자	-11783
▁사망한	-11784
▁주목할	-11785
▁받았으며	-11786
영동	-11787
▁구리	-11788
▁중계	-11789
▁변화와	-11790
▁강화하기	-11791
▁교육감은	-11792
쾌한	-11793
▁식약	-11794
▁주유	-11795
자리에	-11796
컨설팅	-11797
▁스트리	-11798
▁접수된	-11799
▁선보이며	-11800
▁시작된다	-11801
다양	-11802
▁권익	-11803
▁대출을	-11804
▁방지를	-11805
공간으로	-11806
▁심도	-11807
▁작전	-11808
▁휘발	-11809
▁생겼다	-11810
▁유죄	-11811
▁입국	-11812
▁잡지	-11813
▁주한미	-11814
▁났다	-11815
▁생길	-11816
▁휩싸	-11817
▁대답	-11818
으려면	-11819
▁취지로	-11820
▁소개하고	-11821
-6	-11822
감시	-11823
▁아마존	-11824
▁이재명	-11825
▁공산주의	-11826
이런	-11827
▁김모	-11828
▁배분	-11829
▁인쇄	-11830
▁정동	-11831
홈런	-11832
▁고령화	-11833
▁손해배상	-11834
▁일어났다	-11835
산면	-11836
했었다	-11837
▁전교	-11838
원자력	-11839
▁교육에	-11840
▁행정사무	-11841
보훈	-11842
소화	-11843
▁취약한	-11844
▁특별히	-11845
염병	-11846
▁출국	-11847
가격은	-11848
▁달러를	-11849
▁유가족	-11850
▁한나라	-11851
장히	-11852
▁걷기	-11853
▁불구속	-11854
▁조금씩	-11855
▁순차적으로	-11856
오롱	-11857
▁이경	-11858
▁진도	-11859
년에서	-11860
▁볼거리	-11861
▁시청률	-11862
▁아직까지	-11863
체적	-11864
피싱	-11865
▁각계	-11866
▁전제	-11867
▁타이거	-11868
▁노동조합	-11869
▁기술의	-11870
▁나누고	-11871
▁사각지	-11872
▁에어컨	-11873
▁태권도	-11874
▁실태조사	-11875
▁대의	-11876
▁본인의	-11877
느라	-11878
아세안	-11879
▁주재로	-11880
▁콤	-11881
(22	-11882
▁클릭	-11883
대상은	-11884
▁감동을	-11885
▁결정한	-11886
▁릴레이	-11887
▁속도로	-11888
슬러	-11889
▁양보	-11890
▁사무총	-11891
TC	-11892
▁킹	-11893
언이	-11894
줄이	-11895
룸에서	-11896
▁시행하는	-11897
징용	-11898
채를	-11899
포터	-11900
▁꼬집	-11901
▁유지했다	-11902
공고	-11903
▁공예	-11904
▁여유	-11905
정책의	-11906
▁결정하는	-11907
▁굿	-11908
▁온갖	-11909
▁거래를	-11910
▁불필요한	-11911
(23	-11912
상품권	-11913
▁설치한	-11914
청구	-11915
▁동영	-11916
효과가	-11917
▁국적	-11918
▁조업	-11919
▁돌아온	-11920
▁이전을	-11921
▁제임스	-11922
▁캄보디아	-11923
2'	-11924
▁나눴	-11925
▁론칭	-11926
▁산재	-11927
▁카를	-11928
억원에서	-11929
▁게이	-11930
배에	-11931
▁없던	-11932
▁정통	-11933
▁출품	-11934
▁젖	-11935
해져	-11936
▁허리	-11937
드에서	-11938
▁바람이	-11939
▁전력을	-11940
▁현실이다	-11941
고시	-11942
좋은	-11943
▁땅을	-11944
▁후기	-11945
▁고용노동부	-11946
상환	-11947
▁정서	-11948
▁학원	-11949
▁결정이	-11950
▁현실화	-11951
▁v	-11952
▁학생의	-11953
▁방문을	-11954
▁점유율	-11955
ul	-11956
》(	-11957
▁부응	-11958
▁산악	-11959
▁에도	-11960
▁적어	-11961
▁파생	-11962
정책에	-11963
하므로	-11964
▁일어나는	-11965
연계	-11966
치다	-11967
SNS	-11968
▁96	-11969
▁고흥	-11970
▁인종	-11971
보고서	-11972
공원에서	-11973
▁인정하고	-11974
▁내릴	-11975
▁파손	-11976
아가는	-11977
▁남아있	-11978
▁되는데	-11979
▁물놀이	-11980
▁영역을	-11981
▁토론을	-11982
▁조심	-11983
문에서	-11984
▁공직선거	-11985
곳은	-11986
나게	-11987
▁건설업	-11988
▁화제를	-11989
▁닮	-11990
▁뻗	-11991
류에	-11992
▁상습	-11993
▁일정한	-11994
▁재미를	-11995
▁아키	-11996
▁직속	-11997
하이닉스	-11998
▁잃고	-11999
▁함양	-12000
가구로	-12001
리아의	-12002
▁구축에	-12003
▁선생님	-12004
합창	-12005
▁득표	-12006
▁의학	-12007
▁논란에	-12008
▁분들이	-12009
▁활력	-12010
▁해운대	-12011
따라	-12012
일인	-12013
▁야마	-12014
▁원유	-12015
▁여행객	-12016
▁출신인	-12017
▁해법을	-12018
▁금융위기	-12019
▁연구용역	-12020
모로	-12021
▁노란	-12022
▁미친	-12023
▁터뜨	-12024
▁소비에	-12025
되었는데	-12026
CO	-12027
▁관료	-12028
▁에피	-12029
▁줄고	-12030
▁등록된	-12031
▁자세로	-12032
▁하나금융	-12033
▁초록	-12034
▁치킨	-12035
▁매장을	-12036
▁사랑하는	-12037
스피	-12038
▁캡처	-12039
▁이전의	-12040
▁■	-12041
est	-12042
▁농장	-12043
나가는	-12044
▁마이크	-12045
▁평화와	-12046
▁1982	-12047
FI	-12048
▁백신	-12049
▁공주시	-12050
ov	-12051
두로	-12052
온은	-12053
▁프라이	-12054
▁1985	-12055
▁인천지역	-12056
)"	-12057
DS	-12058
농도	-12059
연장	-12060
▁파일	-12061
권에서	-12062
상공회의소	-12063
▁광장	-12064
▁침입	-12065
▁텍사	-12066
▁국정원	-12067
▁명령을	-12068
▁있으므로	-12069
이야	-12070
▁대조	-12071
▁이겨	-12072
▁민원이	-12073
▁방송에서	-12074
했는지	-12075
▁엄격한	-12076
▁인접해	-12077
▁조지아	-12078
▁발생한다	-12079
▁움직임을	-12080
▁프로모션	-12081
▁부탁드린다	-12082
▁활동하는	-12083
▁회의실에서	-12084
들고	-12085
월드컵	-12086
▁진심으로	-12087
▁롯데백화점	-12088
MO	-12089
인인	-12090
항은	-12091
▁방북	-12092
▁나뉘어	-12093
▁느끼고	-12094
▁정권이	-12095
▁개최하는	-12096
▁불가능하다	-12097
▁낯	-12098
프라이	-12099
▁훌륭한	-12100
아카데미	-12101
▁심사위원	-12102
RT	-12103
▁영등	-12104
▁이윤	-12105
▁중앙부처	-12106
▁샘	-12107
▁하에	-12108
▁호소했다	-12109
지휘	-12110
▁폴리	-12111
▁위에서	-12112
▁검찰개혁	-12113
▁견본주택	-12114
▁사용하여	-12115
매립	-12116
▁눈이	-12117
▁지적을	-12118
▁시스템이	-12119
스런	-12120
▁승부	-12121
▁겪었다	-12122
▁작성한	-12123
▁출범한	-12124
▁사람에게	-12125
▁봉사활동을	-12126
AP	-12127
이전	-12128
코올	-12129
퍼니	-12130
혈관	-12131
▁다리	-12132
▁높아질	-12133
▁긍정적으로	-12134
란시	-12135
수화	-12136
▁들을	-12137
▁막고	-12138
▁숨겨	-12139
크라이나	-12140
▁1979	-12141
▁선보이고	-12142
두를	-12143
영진	-12144
위안	-12145
▁문경	-12146
▁업체를	-12147
▁남북정상회담	-12148
변호	-12149
▁모듈	-12150
▁적법	-12151
▁대다수	-12152
▁바로잡	-12153
▁장점이	-12154
▁일명	-12155
홈쇼핑	-12156
▁걸렸다	-12157
▁그러한	-12158
▁자원을	-12159
▁조치로	-12160
▁헝가리	-12161
▁1983	-12162
▁일대에서	-12163
▁메가	-12164
▁상세	-12165
▁것보다	-12166
▁합의가	-12167
▁지난해까지	-12168
지진	-12169
▁무분	-12170
▁바꿀	-12171
▁반해	-12172
▁잡는	-12173
석으로	-12174
▁상처를	-12175
▁전투에서	-12176
학은	-12177
▁역사가	-12178
▁이바지	-12179
▁기득	-12180
▁논산	-12181
▁사단	-12182
▁힘써	-12183
▁성명을	-12184
▁자녀를	-12185
▁대상에서	-12186
▁움직임이	-12187
▁겁	-12188
검증	-12189
명령	-12190
▁골을	-12191
▁미달	-12192
▁국가안보	-12193
▁괜	-12194
▁험	-12195
▁나노	-12196
▁북서	-12197
▁술을	-12198
▁얻는	-12199
항으로	-12200
▁이해하고	-12201
▁임대주택	-12202
시의회	-12203
▁1920	-12204
닷컴	-12205
정수	-12206
▁사격	-12207
▁수출규	-12208
▁제조업체	-12209
과에	-12210
매출	-12211
▁폐업	-12212
모비스	-12213
▁1200	-12214
▁학교폭력	-12215
▁흙	-12216
어에	-12217
캐피	-12218
▁아테	-12219
희롱	-12220
)',	-12221
저축	-12222
▁가난	-12223
▁도망	-12224
▁반란	-12225
▁유럽의	-12226
▁조치에	-12227
박물	-12228
변을	-12229
▁차원	-12230
엔날레	-12231
▁수술을	-12232
▁위험한	-12233
▁개성공단	-12234
▁난민	-12235
▁마쓰	-12236
▁주축	-12237
났지만	-12238
추천	-12239
▁휴양	-12240
대리	-12241
가구가	-12242
으려는	-12243
범한	-12244
음은	-12245
▁유지하는	-12246
▁추가경정예산	-12247
래곤	-12248
▁이끈	-12249
▁소비자들이	-12250
담을	-12251
주지	-12252
▁우회	-12253
▁등장한	-12254
▁상징하는	-12255
▁이곳에서	-12256
자나	-12257
차게	-12258
▁뇌물	-12259
▁기울여	-12260
▁드물	-12261
▁주장은	-12262
▁제시하고	-12263
시켜야	-12264
▁떠났다	-12265
▁여건을	-12266
▁도시개발	-12267
:1	-12268
석에	-12269
▁과장	-12270
▁손꼽	-12271
▁업데이트	-12272
됐을	-12273
색의	-12274
인치	-12275
▁계층	-12276
▁면적은	-12277
▁모두를	-12278
▁때문으로	-12279
▁공인중개사	-12280
레니	-12281
정화	-12282
▁대개	-12283
▁동화	-12284
▁보류	-12285
▁감사드린다	-12286
경험	-12287
졌을	-12288
▁가라	-12289
▁고지	-12290
▁소모	-12291
▁폼페이오	-12292
시트	-12293
▁손실을	-12294
▁정보가	-12295
▁여성가족	-12296
▁랩	-12297
신탁	-12298
▁항일	-12299
▁세계대전	-12300
레드	-12301
▁곳도	-12302
▁영장	-12303
▁유승	-12304
▁업종별	-12305
친화도시	-12306
▁자발적으로	-12307
면접	-12308
(27	-12309
▁정재	-12310
▁크지	-12311
▁한우	-12312
▁건전한	-12313
▁원내대표가	-12314
기후	-12315
론의	-12316
면세	-12317
▁어두	-12318
▁굉장히	-12319
▁도민의	-12320
▁제목의	-12321
▁선제적으로	-12322
▁자체적으로	-12323
침해	-12324
▁결렬	-12325
▁유감	-12326
▁국가와	-12327
▁파악됐다	-12328
▁환경오염	-12329
창의	-12330
▁가득한	-12331
▁가지는	-12332
▁대학에	-12333
▁아이스	-12334
▁중화민국	-12335
▁본회의에서	-12336
▁청소년들이	-12337
왕이	-12338
이제	-12339
팀장은	-12340
▁감정을	-12341
▁말부터	-12342
▁부상을	-12343
▁참여가	-12344
▁그날	-12345
▁파라	-12346
심사를	-12347
▁방문했다	-12348
▁그저	-12349
▁대원	-12350
▁통영	-12351
▁내세워	-12352
▁일주일	-12353
▁특화된	-12354
▁설명회를	-12355
철수	-12356
▁학문	-12357
▁항구	-12358
렸지만	-12359
▁1984	-12360
등한	-12361
▁블로그	-12362
▁혼란을	-12363
자고	-12364
▁박탈	-12365
▁줄기	-12366
▁가까워	-12367
▁기아차	-12368
▁이목을	-12369
▁있기를	-12370
바꿈	-12371
소장	-12372
▁않았다고	-12373
마는	-12374
품이	-12375
▁유학	-12376
▁후퇴	-12377
BN	-12378
▁옵	-12379
론에	-12380
뱅킹	-12381
벌이	-12382
▁시대가	-12383
▁위험을	-12384
▁고등학생	-12385
▁공감대를	-12386
RA	-12387
작업을	-12388
▁가족을	-12389
▁산업혁	-12390
▁모양새다	-12391
ang	-12392
▁낮춰	-12393
▁정복	-12394
▁징수	-12395
멘트	-12396
운을	-12397
▁가뭄	-12398
▁제이	-12399
▁성매매	-12400
▁주가가	-12401
마일	-12402
민원	-12403
▁상하	-12404
▁인삼	-12405
느냐는	-12406
▁출시했다	-12407
지회	-12408
소방서	-12409
▁중심에	-12410
프로그램을	-12411
히지	-12412
▁그와	-12413
▁불과한	-12414
▁아닌지	-12415
만으로는	-12416
▁브랜드로	-12417
구니	-12418
▁고마	-12419
▁스키	-12420
▁대학원	-12421
민과	-12422
▁거제	-12423
▁금연	-12424
▁보냈	-12425
▁한국수	-12426
테이	-12427
▁양해	-12428
▁주방	-12429
▁축사	-12430
▁연구에	-12431
▁경상남도	-12432
▁분석하고	-12433
살이	-12434
섬유	-12435
친구	-12436
▁용이	-12437
▁강의를	-12438
▁개념을	-12439
▁기술로	-12440
▁실효성	-12441
▁여론을	-12442
▁떨어뜨	-12443
마루	-12444
▁주둔	-12445
▁밀접한	-12446
▁평균자책점	-12447
▁내의	-12448
▁경향이	-12449
▁진행한다고	-12450
노미	-12451
막이	-12452
벚꽃	-12453
▁김천	-12454
▁정해진	-12455
▁학교가	-12456
현장에서	-12457
계좌	-12458
배출	-12459
속에	-12460
▁피력	-12461
길에	-12462
▁놓은	-12463
▁식량	-12464
▁둘러싸고	-12465
▁튼	-12466
해당	-12467
▁무안	-12468
▁여지가	-12469
▁조사는	-12470
적이었다	-12471
▁인정받았다	-12472
▁갚	-12473
공산	-12474
▁구급	-12475
▁도마	-12476
▁사임	-12477
▁예결	-12478
▁국토교통부는	-12479
▁안다	-12480
▁오세	-12481
▁국민은	-12482
▁찾아야	-12483
에어	-12484
▁국경	-12485
▁타결	-12486
▁분야로	-12487
▁않겠다는	-12488
▁자유한국당은	-12489
▁간다	-12490
▁웹툰	-12491
▁경험과	-12492
▁장학금을	-12493
▁코치	-12494
OECD	-12495
▁3~4	-12496
▁나타날	-12497
▁해결에	-12498
▁가리킨다	-12499
하진	-12500
▁이룰	-12501
지도록	-12502
▁야당의	-12503
▁조사가	-12504
협의회는	-12505
▁경쟁률을	-12506
답게	-12507
▁차등	-12508
▁자유를	-12509
대기	-12510
하천	-12511
▁경사	-12512
▁국고	-12513
▁로맨	-12514
▁세르	-12515
▁한양	-12516
▁고려할	-12517
▁디자이너	-12518
내에	-12519
위탁	-12520
▁대림	-12521
▁만기	-12522
▁열매	-12523
▁이장	-12524
▁고위급	-12525
▁공수처	-12526
▁나라가	-12527
▁완주군	-12528
란시스코	-12529
▁증정한다	-12530
강원	-12531
소연	-12532
▁관문	-12533
▁몸에	-12534
에디터	-12535
▁손쉽게	-12536
▁대표적이다	-12537
정호	-12538
▁도매	-12539
▁동력	-12540
▁민속	-12541
보좌	-12542
제안	-12543
최저	-12544
▁교향	-12545
▁굳이	-12546
▁살기	-12547
▁위장	-12548
▁체력	-12549
▁시간과	-12550
▁부회장은	-12551
수용	-12552
▁결심	-12553
▁바꾼	-12554
▁약화	-12555
▁자택	-12556
▁대화의	-12557
▁지분을	-12558
▁지키고	-12559
▁우리나라는	-12560
에너	-12561
▁양의	-12562
▁설치할	-12563
▁롯데마트	-12564
▁계류	-12565
▁집안	-12566
▁하겠다는	-12567
▁유독	-12568
▁정시	-12569
▁금액을	-12570
▁그치지	-12571
▁요청한	-12572
▁살아가는	-12573
▁확산되고	-12574
레나	-12575
▁잦은	-12576
▁조별	-12577
▁지내	-12578
▁노조가	-12579
물가	-12580
▁삼고	-12581
▁할지	-12582
▁합창	-12583
▁시위를	-12584
▁일본과	-12585
▁확인하는	-12586
▁첼	-12587
데도	-12588
▁김일	-12589
▁작업에	-12590
가칭	-12591
오지	-12592
해결	-12593
▁스펙	-12594
▁각별한	-12595
ss	-12596
▁딴	-12597
들여	-12598
만대	-12599
▁내일	-12600
▁합법	-12601
▁올스타	-12602
▁이후의	-12603
▁젊은이	-12604
서다	-12605
왔고	-12606
▁'4	-12607
▁달간	-12608
▁스카이	-12609
▁확인해	-12610
개발기구	-12611
▁수행하는	-12612
▁럭	-12613
사단	-12614
▁납세	-12615
▁이도	-12616
▁타협	-12617
▁혐오	-12618
감으로	-12619
중이	-12620
▁검토를	-12621
▁임대료	-12622
▁의문이다	-12623
개와	-12624
사다	-12625
▁93	-12626
비한	-12627
▁원가	-12628
▁국가를	-12629
▁그러자	-12630
▁소통하는	-12631
▁집행유예	-12632
▁만들어졌다	-12633
수립	-12634
▁LA	-12635
▁명은	-12636
▁확실히	-12637
▁독립을	-12638
▁회사를	-12639
ews	-12640
▁비싼	-12641
격으로	-12642
▁북한을	-12643
▁소통과	-12644
▁러시아의	-12645
▁성황리에	-12646
중견	-12647
크의	-12648
타리	-12649
▁공용	-12650
셨다	-12651
▁관해	-12652
▁단말	-12653
▁대응해	-12654
▁추정되는	-12655
▁압축	-12656
▁지속될	-12657
▁있었다는	-12658
ers	-12659
▁불꽃	-12660
▁신안	-12661
▁1930	-12662
본을	-12663
저히	-12664
지출	-12665
▁쉽고	-12666
▁양돈	-12667
▁여섯	-12668
▁조카	-12669
▁학업	-12670
▁과거의	-12671
▁금요일	-12672
억원이다	-12673
북구	-12674
▁사냥	-12675
▁정경	-12676
▁다루는	-12677
▁이어가	-12678
▁필요할	-12679
장도	-12680
▁코미	-12681
지기도	-12682
▁종로구	-12683
▁아이들을	-12684
언더	-12685
▁문턱	-12686
시에는	-12687
▁경로당	-12688
▁유일의	-12689
▁적자를	-12690
▁형태를	-12691
▁구성하는	-12692
▁기여하고	-12693
▁화제	-12694
▁보면서	-12695
▁판정을	-12696
독립운동	-12697
동계	-12698
방해	-12699
▁정차	-12700
▁했을	-12701
▁경제성	-12702
기압	-12703
▁각자	-12704
▁미사	-12705
▁원안	-12706
▁과감한	-12707
▁마련돼	-12708
산업진흥	-12709
▁청와대와	-12710
▁삼성전자가	-12711
▁과다	-12712
▁독거	-12713
▁일제히	-12714
▁초대형	-12715
번의	-12716
천원	-12717
▁각광	-12718
▁바깥	-12719
▁간단한	-12720
▁군사적	-12721
▁근거를	-12722
▁승차	-12723
▁저해	-12724
▁촉발	-12725
▁행보를	-12726
▁벤처기업	-12727
▁맥락	-12728
▁산출	-12729
▁일산	-12730
▁돌아왔다	-12731
▁선정하고	-12732
▁해소하기	-12733
기상	-12734
시께	-12735
실점	-12736
▁탈바꿈	-12737
▁행위가	-12738
긴다	-12739
모터	-12740
보유	-12741
▁겪은	-12742
▁너무나	-12743
▁Z	-12744
하를	-12745
▁챌린	-12746
년보다	-12747
▁나누어	-12748
▁지자체와	-12749
클리	-12750
▁군청	-12751
▁불량	-12752
▁소중	-12753
▁높아진	-12754
되었지만	-12755
▁설치하는	-12756
▁시행에	-12757
들기	-12758
▁속한	-12759
▁쇠퇴	-12760
▁쉼터	-12761
▁프라	-12762
▁BMW	-12763
▁대학이	-12764
▁일련의	-12765
▁입장에서는	-12766
라리	-12767
(26	-12768
▁뜻이	-12769
▁붙어	-12770
▁예수	-12771
설명회	-12772
▁커다란	-12773
▁전반적으로	-12774
▁분해	-12775
▁빈곤	-12776
▁상륙	-12777
▁한중	-12778
사회를	-12779
▁수익성	-12780
문화유산	-12781
▁지난해에	-12782
▁연애	-12783
▁재편	-12784
▁카운	-12785
소미아	-12786
▁늘면서	-12787
▁대내외	-12788
아프리카	-12789
스틱	-12790
유기	-12791
▁유류	-12792
▁자국	-12793
▁침수	-12794
▁부총리	-12795
▁선보여	-12796
▁장관과	-12797
▁추진될	-12798
▁평가는	-12799
▁국제공항	-12800
▁아스	-12801
▁참조	-12802
▁달라진	-12803
▁대국민	-12804
▁향상과	-12805
▁경우에도	-12806
▁선고했다	-12807
무가	-12808
밀리	-12809
법안	-12810
▁산단	-12811
▁저질	-12812
▁시점에서	-12813
구축	-12814
인원	-12815
▁마켓	-12816
▁운반	-12817
▁넘어선	-12818
▁주어진다	-12819
▁현대차는	-12820
▁고집	-12821
▁낭독	-12822
▁보이스	-12823
▁센트럴	-12824
▁밭	-12825
수학	-12826
▁신서	-12827
▁작가가	-12828
▁전화를	-12829
▁탁월한	-12830
▁건강관리	-12831
▁쪼	-12832
도르	-12833
소설	-12834
중독	-12835
▁수직	-12836
▁이색	-12837
▁자생	-12838
▁집필	-12839
▁제도의	-12840
▁행정부	-12841
▁기록하는	-12842
▁컨테이너	-12843
사각	-12844
▁높인	-12845
▁차로	-12846
▁기념식	-12847
▁불균형	-12848
▁출시를	-12849
EFA	-12850
▁데에	-12851
▁꼼꼼히	-12852
▁멸종	-12853
▁상금	-12854
▁친화	-12855
검사를	-12856
▁사죄	-12857
▁푸른	-12858
▁화폐	-12859
▁차례로	-12860
▁효과는	-12861
▁고객들의	-12862
▁동학	-12863
▁감독을	-12864
▁생각했다	-12865
으로의	-12866
▁소득이	-12867
▁예방접	-12868
▁중으로	-12869
준은	-12870
▁떨어질	-12871
특별위원회	-12872
학대	-12873
▁계곡	-12874
▁소통의	-12875
시한	-12876
쳤고	-12877
▁놓인	-12878
경제의	-12879
▁면밀히	-12880
▁경부	-12881
▁합계	-12882
▁상생협력	-12883
▁89	-12884
▁날이	-12885
▁만의	-12886
▁가정의	-12887
▁미래에셋	-12888
▁챔피언스리그	-12889
▁기해	-12890
▁말도	-12891
▁야기	-12892
▁생기는	-12893
▁연맹	-12894
호기	-12895
▁군정	-12896
은행과	-12897
폴리오	-12898
▁연이어	-12899
▁의무화	-12900
▁학교는	-12901
커피	-12902
▁견학	-12903
▁시그	-12904
하고도	-12905
▁질문을	-12906
▁취지를	-12907
▁온실가스	-12908
농단	-12909
▁유용	-12910
소상공	-12911
▁선택한	-12912
커스	-12913
▁보훈	-12914
▁지수	-12915
▁들어와	-12916
▁사용되고	-12917
▁자유로운	-12918
▁제공했다	-12919
합을	-12920
▁배가	-12921
▁출전해	-12922
▁롱	-12923
▁극장	-12924
▁개선해	-12925
두는	-12926
만세	-12927
배가	-12928
▁메카	-12929
▁외곽	-12930
라면서	-12931
치매	-12932
▁악성	-12933
▁태화	-12934
▁금액은	-12935
▁기록이	-12936
▁색다른	-12937
▁선생의	-12938
▁수출을	-12939
▁스타일	-12940
▁취업을	-12941
▁합리적	-12942
토지주택공사	-12943
~12	-12944
주에서	-12945
▁공급이	-12946
▁구제역	-12947
▁산업이	-12948
▁안았다	-12949
▁의견도	-12950
▁키우고	-12951
▁팬들의	-12952
▁참가하는	-12953
▁협동조합	-12954
▁편집에디터	-12955
▁라이온	-12956
▁시점에	-12957
▁이해관계	-12958
소유	-12959
측정	-12960
업체에	-12961
▁단백질	-12962
침을	-12963
▁안착	-12964
▁중독	-12965
▁정치권의	-12966
▁전문가들이	-12967
테일	-12968
▁셀트리	-12969
▁업무에	-12970
▁남서	-12971
▁프로듀	-12972
▁부산에서	-12973
▁해소하고	-12974
▁대한민국을	-12975
▁공표	-12976
▁도입된	-12977
▁여부가	-12978
▁매출액은	-12979
▁확보하는	-12980
▁건전	-12981
▁교실	-12982
▁낮다	-12983
자금을	-12984
▁활발하게	-12985
▁아르바이트	-12986
▁우크라이나	-12987
님을	-12988
▁스승	-12989
▁물량이	-12990
▁시행을	-12991
형과	-12992
▁모델이	-12993
▁벨기에	-12994
▁비타민	-12995
▁확대될	-12996
▁추진하겠다	-12997
▁권장	-12998
▁정립	-12999
▁명성을	-13000
▁만들어야	-13001
외국	-13002
▁어항	-13003
▁무소속	-13004
자산운용	-13005
▁염려	-13006
▁당기순	-13007
▁대학을	-13008
▁조언했다	-13009
("	-13010
반대	-13011
색이	-13012
차전	-13013
▁kt	-13014
학교를	-13015
▁국공립	-13016
▁대회가	-13017
▁불평등	-13018
▁음식점	-13019
▁이집트	-13020
▁출전한	-13021
▁총수	-13022
▁클린	-13023
▁느낌을	-13024
▁사장이	-13025
▁이것을	-13026
▁초부터	-13027
▁수단	-13028
▁구성을	-13029
▁제품이다	-13030
UN	-13031
▁시상식	-13032
▁1981	-13033
▁현대모비스	-13034
티노	-13035
▁물려	-13036
▁여러분	-13037
▁염두에	-13038
▁간담회에서	-13039
다만	-13040
다음	-13041
식당	-13042
하시	-13043
시간에	-13044
▁국제적	-13045
▁수출입	-13046
▁출퇴근	-13047
▁홈런을	-13048
▁목소리도	-13049
스트로	-13050
협약을	-13051
▁지지율	-13052
▁않는다면	-13053
▁해결하는	-13054
▁시립	-13055
쓰레기	-13056
▁2.0	-13057
루가	-13058
▁시연	-13059
▁전술	-13060
▁대응이	-13061
▁목적을	-13062
▁인접한	-13063
▁마련하기	-13064
▁의미하는	-13065
유로	-13066
즈와	-13067
▁창당	-13068
..."	-13069
▁사람과	-13070
▁차량의	-13071
▁세계유산	-13072
▁주도하는	-13073
▁획득했다	-13074
상권	-13075
신과	-13076
▁대치	-13077
▁아이가	-13078
▁처리할	-13079
민주화운동	-13080
▁94	-13081
▁넓혀	-13082
▁표면	-13083
만원에서	-13084
▁스트레스	-13085
▁지역인재	-13086
▁예정이라고	-13087
광양	-13088
▁교차	-13089
▁바둑	-13090
▁입소	-13091
거리는	-13092
기관은	-13093
책으로	-13094
▁개선하고	-13095
업은	-13096
▁매체	-13097
▁장군	-13098
▁안전과	-13099
▁제주항공	-13100
▁개조	-13101
▁나눈	-13102
▁옆에	-13103
▁청탁	-13104
▁주식을	-13105
▁그렇지만	-13106
니의	-13107
복지관	-13108
▁다행히	-13109
▁융복합	-13110
LH	-13111
▁조경	-13112
▁날짜	-13113
▁동성	-13114
▁부친	-13115
▁삼국	-13116
▁자존	-13117
▁학사	-13118
▁국가적	-13119
▁법안이	-13120
▁흐르는	-13121
▁비핵화를	-13122
대변	-13123
자동	-13124
저는	-13125
▁실력	-13126
▁후유	-13127
업계는	-13128
▁가입자	-13129
▁코오롱	-13130
▁있어서다	-13131
렉스	-13132
▁가담	-13133
▁지중	-13134
▁삼성은	-13135
▁시행된	-13136
▁안산시	-13137
▁플러스	-13138
▁간판	-13139
▁엑스포	-13140
▁전년도	-13141
▁지원으로	-13142
▁서울대학교	-13143
▁a	-13144
일부	-13145
형태	-13146
▁구로	-13147
▁비치	-13148
▁울릉	-13149
▁요청을	-13150
▁있었기	-13151
▁제공을	-13152
▁성장하는	-13153
매장	-13154
일지	-13155
▁지방정부	-13156
▁빈번	-13157
▁의구	-13158
▁후문	-13159
▁바이러	-13160
▁사례로	-13161
▁교육부가	-13162
▁봉사활동	-13163
▁전문인력	-13164
▁졸업하고	-13165
았을	-13166
▁근간	-13167
▁이진	-13168
렸다는	-13169
▁투자와	-13170
청사에서	-13171
▁내년에는	-13172
계로	-13173
케미	-13174
▁St	-13175
▁한방	-13176
▁1919	-13177
▁?	-13178
▁꿀	-13179
제재	-13180
▁귀를	-13181
▁꺼내	-13182
▁줬다	-13183
▁자세를	-13184
▁전북의	-13185
▁직거래	-13186
▁예정으로	-13187
레오	-13188
주의의	-13189
▁언론에	-13190
▁중학생	-13191
▁닦	-13192
모가	-13193
씨에	-13194
영리	-13195
▁신청은	-13196
▁일어날	-13197
▁천문학	-13198
▁가능하고	-13199
▁계획하고	-13200
▁굵	-13201
감정	-13202
▁기장	-13203
▁처우	-13204
▁한쪽	-13205
▁로컬푸드	-13206
▁스타벅스	-13207
.'	-13208
▁나의	-13209
▁연기를	-13210
▁본회의를	-13211
의학	-13212
▁IoT	-13213
▁저지른	-13214
▁최소한	-13215
▁효율성을	-13216
공식	-13217
▁4%	-13218
▁옷을	-13219
▁콜라	-13220
▁전달하는	-13221
▁91	-13222
▁가결	-13223
▁신형	-13224
스트는	-13225
▁상품권	-13226
▁일으켜	-13227
▁좀처럼	-13228
▁총사업비	-13229
▁경선	-13230
▁발의한	-13231
▁불편한	-13232
▁추가적인	-13233
▁그랬	-13234
▁무주	-13235
▁손잡고	-13236
▁영유아	-13237
상도	-13238
토의	-13239
▁강성	-13240
▁부유	-13241
당국은	-13242
▁제주의	-13243
석과	-13244
▁코드	-13245
▁화면	-13246
크리트	-13247
▁드린다	-13248
▁모두의	-13249
력발전소	-13250
▁운영하며	-13251
th	-13252
반의	-13253
예비	-13254
우리가	-13255
▁이곳에	-13256
▁부족하다	-13257
▁권위	-13258
▁찍은	-13259
브리드	-13260
▁실시설	-13261
▁제작해	-13262
▁부작용을	-13263
특수	-13264
활력	-13265
▁총파	-13266
▁ASF	-13267
▁내놓고	-13268
▁당정	-13269
▁사적	-13270
▁우정	-13271
▁교수와	-13272
▁보여줄	-13273
▁집중할	-13274
▁만들겠다	-13275
용을	-13276
▁연체	-13277
▁구간을	-13278
ive	-13279
▁변환	-13280
▁올릴	-13281
▁친박	-13282
▁선발된	-13283
▁중심지	-13284
여대	-13285
트리스	-13286
▁걸었다	-13287
▁그림을	-13288
▁돌아와	-13289
▁창출에	-13290
▁모르겠다	-13291
▁상당수	-13292
▁시작할	-13293
세상	-13294
연도	-13295
▁사무실	-13296
▁주민들을	-13297
▁피해자가	-13298
이후	-13299
▁오지	-13300
▁나뉜다	-13301
▁상용화	-13302
▁인디언	-13303
르다	-13304
▁약물	-13305
▁떠나는	-13306
▁서로의	-13307
▁알리기	-13308
▁이곳은	-13309
▁부총리는	-13310
▁사업추진	-13311
GDP	-13312
▁사료	-13313
▁이다	-13314
▁고양시	-13315
▁입었다	-13316
루미	-13317
브를	-13318
진구	-13319
최고	-13320
▁기피	-13321
▁낙후	-13322
▁단속을	-13323
▁소나무	-13324
▁1972	-13325
불이	-13326
▁적도	-13327
▁정도를	-13328
▁토트넘	-13329
▁할아버	-13330
▁시속	-13331
▁일조	-13332
▁짓고	-13333
▁대전의	-13334
▁시작되는	-13335
▁여전	-13336
▁포지	-13337
▁해산	-13338
량에	-13339
서야	-13340
▁전산	-13341
▁전한다	-13342
▁핵심은	-13343
▁자영업자	-13344
▁텔레비전	-13345
슨의	-13346
▁번호	-13347
▁상공	-13348
▁어쩔	-13349
▁오송	-13350
▁중개	-13351
▁신선한	-13352
▁인허가	-13353
▁부족으로	-13354
메리	-13355
▁부를	-13356
▁112	-13357
▁영업을	-13358
▁근접	-13359
▁까다	-13360
▁농축	-13361
▁도요	-13362
▁무엇이	-13363
▁원주민	-13364
▁아버지는	-13365
용수	-13366
틀러	-13367
▁다큐	-13368
▁책은	-13369
▁협약에	-13370
▁국채	-13371
산업과	-13372
▁내용에	-13373
▁아산시	-13374
▁월평균	-13375
▁모스크바	-13376
▁크리스마스	-13377
임은	-13378
▁당당	-13379
▁이관	-13380
▁일일	-13381
▁후계	-13382
▁풍성한	-13383
▁d	-13384
▁개최할	-13385
▁들어갔	-13386
▁없으면	-13387
▁제재를	-13388
▁솔루션을	-13389
▁울산시는	-13390
▁마리아	-13391
▁창출과	-13392
▁냄새	-13393
▁실물	-13394
▁화재가	-13395
▁가계부채	-13396
▁조성된다	-13397
▁확보하기	-13398
▁궁극	-13399
▁챙겨	-13400
내에서	-13401
▁요건을	-13402
▁구축하는	-13403
▁고립	-13404
▁들은	-13405
▁부스	-13406
▁운수	-13407
▁이화	-13408
▁배우고	-13409
▁유니폼	-13410
▁결과적으로	-13411
▁벡	-13412
기만	-13413
사키	-13414
칙을	-13415
▁탄압	-13416
았으나	-13417
▁모은다	-13418
▁이용이	-13419
었습니다	-13420
▁등장했다	-13421
▁분명하다	-13422
▁든든	-13423
▁혼인	-13424
▁이외에	-13425
▁인식하고	-13426
▁"4	-13427
▁6,	-13428
▁보성	-13429
▁온천	-13430
▁이준	-13431
.3%,	-13432
▁모집에	-13433
▁강제징용	-13434
창호	-13435
▁단절	-13436
▁수소차	-13437
▁시범사업	-13438
강도	-13439
착형	-13440
할인	-13441
▁천황	-13442
동아리	-13443
▁남다른	-13444
▁비난을	-13445
▁수단으로	-13446
▁미세먼지를	-13447
명도	-13448
▁다스	-13449
▁화해	-13450
▁고개를	-13451
▁위대한	-13452
▁공개된다	-13453
▁상반기에	-13454
부상	-13455
∼20	-13456
▁시비	-13457
▁추격	-13458
베스트	-13459
▁증가해	-13460
갈등	-13461
▁용의	-13462
▁고부가	-13463
▁성능을	-13464
▁주장에	-13465
▁측면이	-13466
▁광주광역시	-13467
설치	-13468
통이	-13469
▁고충	-13470
▁멸망	-13471
▁잡을	-13472
▁관계에	-13473
▁불거진	-13474
▁이상은	-13475
▁적용되는	-13476
공시	-13477
극장	-13478
상업	-13479
움과	-13480
▁날로	-13481
▁오산	-13482
▁잠수	-13483
▁중추	-13484
▁살리기	-13485
▁펼치는	-13486
대학교는	-13487
▁는	-13488
글로	-13489
▁과징	-13490
▁지붕	-13491
비용을	-13492
정신을	-13493
▁괴산군	-13494
▁불렀다	-13495
▁개발하는	-13496
▁민정수석	-13497
▁정상적인	-13498
률도	-13499
▁단편	-13500
▁물에	-13501
인공지능	-13502
▁전달하고	-13503
if	-13504
초를	-13505
▁발언은	-13506
▁피하기	-13507
▁민주당의	-13508
▁반박했다	-13509
세계수영선수권대회	-13510
진핑	-13511
▁씨를	-13512
▁양성을	-13513
▁정치를	-13514
▁제치고	-13515
▁기본적으로	-13516
og	-13517
▁PD	-13518
▁심어	-13519
여명을	-13520
▁실리콘	-13521
▁환경부는	-13522
경비	-13523
시절	-13524
투를	-13525
5%)	-13526
▁감소로	-13527
▁성희롱	-13528
▁대구지역	-13529
▁줄어드는	-13530
▁맡게	-13531
▁세력을	-13532
▁여야는	-13533
▁근로자의	-13534
(28	-13535
▁만료	-13536
▁진전	-13537
▁짐작	-13538
확대	-13539
▁낭비	-13540
▁버티	-13541
▁알릴	-13542
▁전입	-13543
▁히데	-13544
▁것인데	-13545
▁년부터	-13546
▁생산을	-13547
▁여부는	-13548
▁정당한	-13549
▁현안에	-13550
▁소외계층	-13551
바닥	-13552
확보	-13553
▁번도	-13554
▁광주형	-13555
▁소속사	-13556
RO	-13557
▁환급	-13558
▁높다는	-13559
▁동남아시아	-13560
대부	-13561
라노	-13562
지급	-13563
▁지나지	-13564
▁카카오톡	-13565
누스	-13566
▁결산	-13567
▁기기	-13568
▁위임	-13569
▁지위	-13570
▁탄력근로	-13571
▁휴대전화	-13572
▁나름	-13573
▁상의	-13574
▁안건	-13575
ard	-13576
▁고추	-13577
▁나를	-13578
▁이춘	-13579
▁성추행	-13580
▁국가에서	-13581
점도	-13582
▁보컬	-13583
▁1900	-13584
▁감사하다	-13585
▁악용	-13586
▁폭을	-13587
가구를	-13588
개선을	-13589
▁그려져	-13590
▁인플루	-13591
▁장소를	-13592
▁파트너십	-13593
▁불확실성이	-13594
▁미용	-13595
▁맞물려	-13596
▁노르웨이	-13597
▁대통령에	-13598
▁홋	-13599
▁일손	-13600
▁많다는	-13601
▁들어선다	-13602
벽을	-13603
▁끝났다	-13604
▁확보가	-13605
▁9000	-13606
▁대상이다	-13607
▁보여줬다	-13608
병이	-13609
▁과시	-13610
▁리버	-13611
상품을	-13612
▁무엇을	-13613
▁예고했다	-13614
▁토로했다	-13615
AE	-13616
▁참전	-13617
이므로	-13618
▁게이트	-13619
▁의무를	-13620
음으로	-13621
▁죽음을	-13622
▁사모펀드	-13623
.5%,	-13624
▁적용된	-13625
▁아버지의	-13626
내륙	-13627
용량	-13628
점인	-13629
▁각국	-13630
▁밀양	-13631
▁파기	-13632
.4%,	-13633
▁안으로	-13634
▁1973	-13635
▁비준	-13636
▁직원을	-13637
▁크다는	-13638
▁하기도	-13639
▁가리키는	-13640
▁금융기관	-13641
▁대표이사는	-13642
▁경제협력개발기구	-13643
▁탕	-13644
선택	-13645
킴이	-13646
▁명심	-13647
▁넘었다	-13648
▁모양의	-13649
▁제출하면	-13650
▁국내총생산	-13651
교가	-13652
▁트럭	-13653
단지로	-13654
.7%,	-13655
▁법원은	-13656
▁받았다고	-13657
▁자치분권	-13658
ob	-13659
더라	-13660
피를	-13661
▁펼친	-13662
▁나가야	-13663
▁퍼포먼스	-13664
LA	-13665
예약	-13666
▁개그	-13667
▁속의	-13668
▁중국인	-13669
증가	-13670
항쟁	-13671
▁됐고	-13672
렸으며	-13673
▁시가총	-13674
▁않는다고	-13675
체육관에서	-13676
음성	-13677
▁박진	-13678
▁경찰관	-13679
▁도로를	-13680
▁그야말로	-13681
▁않으면서	-13682
▁내포	-13683
▁명실	-13684
▁재도	-13685
▁피로	-13686
▁제시하는	-13687
▁영예를	-13688
▁독립운동가	-13689
결산	-13690
한테	-13691
오면서	-13692
▁1978	-13693
▁당시에는	-13694
▁생태계를	-13695
▁연구팀은	-13696
소녀	-13697
색으로	-13698
차례에	-13699
▁우선협상	-13700
크가	-13701
▁경기침	-13702
▁생산성	-13703
강에	-13704
방은	-13705
▁부드러	-13706
드레	-13707
블루	-13708
▁선점	-13709
▁태어	-13710
▁각자의	-13711
▁방식은	-13712
▁사람도	-13713
▁개발했다	-13714
▁지역에서는	-13715
The	-13716
▁7,	-13717
▁내보	-13718
뜩이나	-13719
▁동력을	-13720
▁전제로	-13721
▁졸업한	-13722
▁천주교	-13723
▁꼬집었다	-13724
▁수행하고	-13725
▁감추	-13726
▁나고	-13727
▁시너	-13728
▁원로	-13729
▁일몰	-13730
▁신청이	-13731
▁포함된다	-13732
▁가늠	-13733
▁대공	-13734
구조를	-13735
▁불만이	-13736
▁선수를	-13737
▁경쟁력이	-13738
▁제외하면	-13739
▁평생교육	-13740
kW	-13741
▁넘는다	-13742
▁움직이는	-13743
담배	-13744
▁날아	-13745
▁우체	-13746
▁교수를	-13747
▁놀이터	-13748
▁속한다	-13749
▁적발됐다	-13750
▁헬스케어	-13751
▁메이저리그	-13752
▁노부	-13753
▁베어	-13754
▁경계를	-13755
▁근무하는	-13756
▁등장한다	-13757
▁자긍	-13758
기정통	-13759
▁가로막	-13760
▁원자로	-13761
▁포스트	-13762
▁경제보복	-13763
▁무엇인지	-13764
▁본부장은	-13765
▁곰	-13766
수단	-13767
▁공백	-13768
▁사외	-13769
▁쓰지	-13770
▁일컫	-13771
▁라이트	-13772
▁평창올림픽	-13773
랑이	-13774
코는	-13775
▁설치돼	-13776
▁적발된	-13777
▁0.3%	-13778
개년	-13779
되길	-13780
상부	-13781
▁TK	-13782
▁경성	-13783
▁치고	-13784
▁사용된	-13785
▁곳의	-13786
제품을	-13787
▁역세권	-13788
▁수립하고	-13789
위해	-13790
▁세우	-13791
▁한류	-13792
▁겨냥한	-13793
▁다니는	-13794
EU	-13795
바르	-13796
▁진행하며	-13797
타가	-13798
▁발맞	-13799
▁입맛	-13800
▁고유의	-13801
▁무거운	-13802
▁살아남	-13803
▁청문회	-13804
도시철도	-13805
▁방탄소년	-13806
수렴	-13807
▁유재	-13808
▁관측이	-13809
▁마이클	-13810
▁지니고	-13811
난방	-13812
▁알파	-13813
국이다	-13814
▁들어온	-13815
▁당위	-13816
▁빌딩	-13817
건이다	-13818
마저도	-13819
▁국정감	-13820
▁내리는	-13821
▁완성차	-13822
▁초기에	-13823
▁축제로	-13824
▁탄탄한	-13825
▁농촌진흥	-13826
▁울산지역	-13827
▁톤	-13828
리라	-13829
중을	-13830
▁녹음	-13831
▁헤이	-13832
▁지키지	-13833
▁학생부	-13834
▁늑	-13835
▁지시했다	-13836
▁2019'	-13837
▁정화	-13838
라이프	-13839
▁청장은	-13840
▁팀장은	-13841
▁회장과	-13842
▁낫	-13843
둥이	-13844
에르	-13845
잡이	-13846
.2%,	-13847
▁민감한	-13848
▁작용할	-13849
▁도로교통	-13850
품목	-13851
▁개신	-13852
▁맛집	-13853
▁제도는	-13854
▁한국농	-13855
더블	-13856
윤리	-13857
▁날인	-13858
▁즐겨	-13859
라이더	-13860
민을	-13861
현안	-13862
ine	-13863
▁감싸	-13864
▁직선	-13865
▁화가	-13866
▁표현을	-13867
▁강화했다	-13868
사우	-13869
(50	-13870
▁대동	-13871
▁보아	-13872
▁물량을	-13873
리브	-13874
▁농구	-13875
▁포천	-13876
허가를	-13877
▁가진다	-13878
▁계기를	-13879
▁사라진	-13880
▁언제나	-13881
▁위원장을	-13882
▁식의	-13883
▁다음은	-13884
▁쏠리고	-13885
▁연구는	-13886
▁연구원	-13887
▁유소년	-13888
▁지정해	-13889
▁하도록	-13890
▁김희	-13891
▁오창	-13892
▁직권	-13893
공단은	-13894
시간은	-13895
한반도	-13896
▁전망을	-13897
▁1965	-13898
리얼	-13899
▁이광	-13900
만명의	-13901
▁격차가	-13902
▁구축할	-13903
▁트위터	-13904
▁보고서는	-13905
▁문화체육관광부	-13906
▁힙	-13907
용이	-13908
있고	-13909
훗날	-13910
▁계양	-13911
▁전향	-13912
▁집적	-13913
▁0.1%	-13914
▁단독주택	-13915
연설	-13916
▁감성	-13917
▁양쪽	-13918
▁유휴	-13919
▁마이너	-13920
▁시행할	-13921
▁제공한	-13922
▁정치권이	-13923
▁좁은	-13924
개발을	-13925
회째를	-13926
▁시험을	-13927
▁사건과	-13928
▁가능하게	-13929
파와	-13930
▁몰래	-13931
▁정착을	-13932
▁참으로	-13933
▁지자체는	-13934
인간	-13935
전도	-13936
직에	-13937
▁고의	-13938
▁서남	-13939
▁스미	-13940
▁지냈	-13941
버스를	-13942
▁이르고	-13943
▁기다리고	-13944
대우	-13945
맞이	-13946
▁속속	-13947
▁한도	-13948
체제를	-13949
▁적극적	-13950
▁상위권을	-13951
▁크리에이터	-13952
▁급변	-13953
▁음력	-13954
▁the	-13955
▁문화와	-13956
▁약속한	-13957
▁진출한	-13958
보존	-13959
▁분과	-13960
▁통증	-13961
▁해에	-13962
센터장	-13963
특산물	-13964
▁발전의	-13965
▁한국전력	-13966
관절	-13967
무형	-13968
▁"3	-13969
▁오승	-13970
▁민주화	-13971
▁적용을	-13972
▁회복을	-13973
▁고객들에게	-13974
▁경신	-13975
▁기름	-13976
▁민자	-13977
▁바꿨	-13978
▁삶과	-13979
▁줄을	-13980
▁가깝다	-13981
▁중이던	-13982
▁헛	-13983
동네	-13984
저장	-13985
▁명명	-13986
▁모리	-13987
▁비로	-13988
▁유한	-13989
▁뮤직비디오	-13990
중소벤처기업	-13991
-8	-13992
라와	-13993
성년	-13994
▁선의	-13995
▁위기가	-13996
.6%),	-13997
▁인천국제공항	-13998
키퍼	-13999
▁대명	-14000
▁보태	-14001
▁불황	-14002
였다고	-14003
인구가	-14004
▁심포지엄	-14005
르며	-14006
▁이산	-14007
베르크	-14008
▁공감을	-14009
▁마을의	-14010
▁원스톱	-14011
▁주최한	-14012
.2%),	-14013
▁킬	-14014
청와	-14015
티즌	-14016
패로	-14017
▁웨이	-14018
▁이석	-14019
임금을	-14020
▁목표다	-14021
LO	-14022
유니	-14023
▁의석	-14024
.8%,	-14025
▁부족해	-14026
▁불투명	-14027
업의	-14028
▁공직자	-14029
▁요소를	-14030
▁벗어나지	-14031
▁오케스트라	-14032
ip	-14033
▁국산화	-14034
▁홍남기	-14035
찾아가는	-14036
▁떨어지고	-14037
▁비상대책	-14038
▁사회에서	-14039
▁신한금융	-14040
▁포함되어	-14041
스팅	-14042
옥천	-14043
▁내장	-14044
▁앓고	-14045
▁무책임	-14046
▁소재를	-14047
▁역할에	-14048
▁주의가	-14049
▁협의체	-14050
프로젝트	-14051
▁돼지고기	-14052
▁군이	-14053
▁없지	-14054
▁찍고	-14055
일수록	-14056
▁전달할	-14057
아메리카	-14058
▁벌어지는	-14059
▁이루어졌다	-14060
▁정기적으로	-14061
▁이메	-14062
▁학살	-14063
총회를	-14064
▁노선은	-14065
▁이르러	-14066
▁만족도를	-14067
▁끌려	-14068
▁캠핑	-14069
▁인물이	-14070
▁재확인	-14071
▁강조하고	-14072
▁전남지역	-14073
▁존재하지	-14074
비드	-14075
▁in	-14076
등급을	-14077
역이다	-14078
.1%,	-14079
.6%,	-14080
▁인사가	-14081
▁전남대	-14082
▁학위를	-14083
운이	-14084
▁나눌	-14085
▁번에	-14086
▁장남	-14087
리지널	-14088
하기가	-14089
▁DGB	-14090
▁고민을	-14091
▁그러다	-14092
▁영화의	-14093
▁작곡가	-14094
▁장점을	-14095
▁접하고	-14096
만원이다	-14097
▁적용하는	-14098
ne	-14099
자이	-14100
▁보람	-14101
사고가	-14102
▁세상에	-14103
▁어렵고	-14104
▁의원에	-14105
적으로도	-14106
▁정상회의	-14107
▁점수	-14108
경찰서는	-14109
▁포함하는	-14110
비례	-14111
셔서	-14112
▁준비가	-14113
▁기점으로	-14114
▁미세먼지가	-14115
ak	-14116
▁꽤	-14117
예고	-14118
▁로켓	-14119
▁명단	-14120
▁한가	-14121
(100	-14122
▁성장과	-14123
▁표창을	-14124
▁모두에게	-14125
루킹	-14126
혈압	-14127
▁트램	-14128
개소를	-14129
▁대응에	-14130
▁정상이	-14131
▁발견됐다	-14132
▁소개하는	-14133
해선	-14134
▁모른	-14135
▁불만	-14136
▁이노	-14137
▁합산	-14138
▁양해각	-14139
▁타이완	-14140
▁있음에도	-14141
▁그게	-14142
사업인	-14143
▁면세점	-14144
▁반발이	-14145
▁성장이	-14146
▁애플리케이션	-14147
마킹	-14148
정동	-14149
캐슬	-14150
▁다저	-14151
▁송치	-14152
▁시한	-14153
▁취지	-14154
자들에	-14155
▁220	-14156
▁우수성을	-14157
▁최종적으로	-14158
선정	-14159
졌기	-14160
▁스포	-14161
농업인	-14162
물이다	-14163
▁관계는	-14164
▁일요일	-14165
▁동반성장	-14166
▁앞으로는	-14167
뮤지	-14168
▁히트	-14169
▁시간도	-14170
괴산	-14171
라를	-14172
종사	-14173
▁뽑아	-14174
▁접종	-14175
맞춤형	-14176
▁만남을	-14177
▁차량에	-14178
▁타이어	-14179
평생	-14180
▁박병	-14181
▁열정	-14182
이사장	-14183
▁위치에	-14184
▁임무를	-14185
체육대회	-14186
▁공공부문	-14187
▁우려되는	-14188
▁재생에너지	-14189
팀과	-14190
▁감동	-14191
▁대가	-14192
▁기관과	-14193
▁기사를	-14194
▁소지	-14195
▁기업체	-14196
▁무리한	-14197
▁상품은	-14198
▁세인트	-14199
▁익산시	-14200
▁이달부터	-14201
▁오스트레일	-14202
▁전문가들의	-14203
공대	-14204
수련	-14205
열에	-14206
▁경향	-14207
▁소관	-14208
▁콘서	-14209
공사에	-14210
▁선물을	-14211
▁일본군	-14212
▁주택을	-14213
▁추첨을	-14214
▁시교육청	-14215
MI	-14216
스포	-14217
▁계급	-14218
▁김연	-14219
▁전념	-14220
▁시민을	-14221
▁진천군	-14222
▁아우르는	-14223
▁이벤트도	-14224
▁주민들과	-14225
▁노릇	-14226
▁전승	-14227
▁치른	-14228
▁비용은	-14229
.4%),	-14230
▁집중하고	-14231
VR	-14232
▁랜	-14233
▁맘	-14234
(29	-14235
▁수감	-14236
▁연도	-14237
▁정쟁	-14238
▁판단해	-14239
▁기자들과	-14240
▁대기오염물질	-14241
마련	-14242
▁"1	-14243
▁그로	-14244
▁시진핑	-14245
▁잇달아	-14246
▁1946	-14247
교도	-14248
▁폭탄	-14249
중심지	-14250
▁기회로	-14251
▁마을을	-14252
▁하우스	-14253
▁아파트를	-14254
항에	-14255
▁김은	-14256
▁부양	-14257
▁스쿨	-14258
▁왕복	-14259
▁농작물	-14260
▁방사능	-14261
▁일정이	-14262
▁임금을	-14263
▁기자회견에서	-14264
▁북미정상회담	-14265
co	-14266
▁개량	-14267
▁반전	-14268
▁360	-14269
▁나눴다	-14270
▁부진한	-14271
▁'2020	-14272
▁획기적으로	-14273
진출	-14274
▁감찰	-14275
▁상응	-14276
▁영주	-14277
▁포획	-14278
▁처음부터	-14279
불법	-14280
▁능동	-14281
▁세균	-14282
기간에	-14283
▁눈물을	-14284
▁수성구	-14285
설립	-14286
중의	-14287
▁수호	-14288
▁용도	-14289
학교는	-14290
▁과학적	-14291
▁금강산	-14292
▁이산화	-14293
▁제작된	-14294
.7%),	-14295
▁소비에트	-14296
비상	-14297
▁등산	-14298
들에서	-14299
▁정권을	-14300
민정	-14301
▁밀어	-14302
▁승점	-14303
▁평일	-14304
▁달러로	-14305
담보대출	-14306
▁청와대의	-14307
스바	-14308
▁바가	-14309
▁비춰	-14310
▁보다는	-14311
▁본연의	-14312
▁효과도	-14313
IB	-14314
▁복수	-14315
품으로	-14316
▁군대를	-14317
▁내셔널	-14318
▁사업화	-14319
▁한동안	-14320
▁1940	-14321
란이	-14322
▁KA	-14323
▁조선시대	-14324
물량	-14325
▁회동	-14326
▁흑자	-14327
▁그래야	-14328
▁일부터	-14329
시각	-14330
▁개국	-14331
▁국민연	-14332
▁로버트	-14333
▁못지않	-14334
베키스탄	-14335
▁업체들이	-14336
▁통계청이	-14337
화성	-14338
▁효능	-14339
천억	-14340
▁교도	-14341
▁결정은	-14342
▁아버지가	-14343
▁청년창업	-14344
▁현지에서	-14345
▁괜찮	-14346
▁안방	-14347
▁여신	-14348
꺼번에	-14349
▁논의하는	-14350
▁사물인터넷	-14351
뮤직	-14352
▁문헌	-14353
▁전례	-14354
▁101	-14355
▁경남도	-14356
▁차량은	-14357
▁한반도의	-14358
천의	-14359
▁신화	-14360
▁윤석	-14361
▁1968	-14362
▁완료했다	-14363
▁희귀	-14364
▁개인이	-14365
▁수용할	-14366
▁셀트리온	-14367
CD	-14368
판은	-14369
▁적시	-14370
운동장	-14371
▁개선될	-14372
▁촬영을	-14373
▁출마를	-14374
▁회원국	-14375
▁운영되는	-14376
▁후쿠시마	-14377
센트	-14378
솔루	-14379
스탁	-14380
▁강동	-14381
▁랭킹	-14382
▁브로	-14383
르지오	-14384
▁있거나	-14385
▁해왔다	-14386
▁행복을	-14387
▁예비후보	-14388
▁전해진다	-14389
▁확대했다	-14390
올린	-14391
임시	-14392
▁결집	-14393
▁나폴	-14394
▁남측	-14395
.9%,	-14396
▁결실을	-14397
▁정책적	-14398
▁가뜩이나	-14399
▁대강당에서	-14400
▁사립유치원	-14401
스레	-14402
에다	-14403
오후	-14404
하마	-14405
▁나치	-14406
닉스	-14407
라운	-14408
부인	-14409
약한	-14410
▁7%	-14411
테스트	-14412
▁가벼운	-14413
▁면모를	-14414
▁상한제	-14415
▁대통령도	-14416
대강	-14417
4%)	-14418
▁그쳐	-14419
▁도정	-14420
▁연쇄	-14421
▁수돗물	-14422
▁비롯하여	-14423
▁지급한다	-14424
공구	-14425
▁박지	-14426
▁이어서	-14427
▁체감할	-14428
▁지식산업	-14429
▁추진했다	-14430
▁바람직하다	-14431
▁개체	-14432
▁버려	-14433
▁사직	-14434
틀랜드	-14435
▁산업부	-14436
▁양승조	-14437
▁운영과	-14438
▁콘스탄	-14439
▁2500	-14440
▁대학에서	-14441
창작	-14442
▁전과	-14443
▁확신	-14444
판에서	-14445
▁△20	-14446
▁특징을	-14447
▁형성된	-14448
공동모금	-14449
▁계속되고	-14450
▁정비사업	-14451
▁갯	-14452
됐기	-14453
▁교토	-14454
▁내부의	-14455
▁도지사	-14456
▁두번째	-14457
▁아르헨티나	-14458
)-	-14459
음료	-14460
운동의	-14461
▁거듭나	-14462
▁도시가	-14463
▁천안시	-14464
으로서는	-14465
▁1949	-14466
▁켄	-14467
▁깨닫	-14468
▁스파	-14469
▁얻기	-14470
공직자	-14471
▁줄줄이	-14472
▁출연한	-14473
▁1962	-14474
▁수소충전	-14475
▁공기청정기	-14476
저가	-14477
▁중형	-14478
영향을	-14479
▁신서희	-14480
▁이대로	-14481
▁조성과	-14482
.3%),	-14483
▁강력하게	-14484
▁경기도는	-14485
all	-14486
▁증축	-14487
▁오르고	-14488
▁월부터	-14489
▁차례에	-14490
VP	-14491
제국	-14492
종에	-14493
천동	-14494
▁표지	-14495
▁거래가	-14496
▁되기도	-14497
▁규제개혁	-14498
▁성장세를	-14499
▁박태	-14500
▁케어	-14501
▁한남	-14502
▁산업에	-14503
▁한꺼번에	-14504
검진	-14505
베리	-14506
▁난방	-14507
였다는	-14508
▁달서구	-14509
▁승용차	-14510
밴드	-14511
▁신차	-14512
▁여성을	-14513
개국에서	-14514
▁청와대에서	-14515
OT	-14516
모의	-14517
▁모를	-14518
▁소액	-14519
공원을	-14520
다양한	-14521
▁목표는	-14522
▁안전에	-14523
▁장기화	-14524
▁땐	-14525
수술	-14526
▁난다	-14527
▁다툼	-14528
▁많을	-14529
▁DMZ	-14530
▁공사에	-14531
▁내용과	-14532
스테이트	-14533
amp	-14534
▁몰입	-14535
▁박용	-14536
▁헤어	-14537
시대에	-14538
.1%),	-14539
.5%),	-14540
▁벤치마킹	-14541
▁프로그램의	-14542
으론	-14543
▁넘지	-14544
▁실감	-14545
▁등록을	-14546
▁원칙에	-14547
▁출발해	-14548
▁폭넓은	-14549
▁환자를	-14550
▁기대했다	-14551
▁치매안심	-14552
권익	-14553
통장	-14554
하루	-14555
▁배수	-14556
▁벚꽃	-14557
▁아사	-14558
▁퍼져	-14559
▁걱정이	-14560
▁네티즌	-14561
▁음식물	-14562
▁이보다	-14563
▁시설관리	-14564
▁사용되었다	-14565
▁부결	-14566
▁전진	-14567
▁좌절	-14568
▁노선이	-14569
▁농가의	-14570
▁수사권	-14571
▁에피소	-14572
▁총력	-14573
뿐이다	-14574
▁규정에	-14575
▁내세운	-14576
▁세력이	-14577
▁인물로	-14578
▁당연하다	-14579
▁프로그램도	-14580
겁다	-14581
▁바쁜	-14582
단지가	-14583
▁자세히	-14584
회말	-14585
▁무덤	-14586
▁초고	-14587
민들의	-14588
운동에	-14589
▁말하며	-14590
▁언제든	-14591
프린	-14592
▁김윤	-14593
▁균형을	-14594
▁농기계	-14595
▁다르지	-14596
▁물건을	-14597
▁신청사	-14598
▁초미세먼지	-14599
유도	-14600
지던	-14601
업계가	-14602
주의적	-14603
▁두려워	-14604
▁반영할	-14605
▁서울시가	-14606
▁즐거움을	-14607
▁해외에서	-14608
▁거둘	-14609
▁검단	-14610
▁맡는다	-14611
▁우리에게	-14612
▁자유무역	-14613
퍼드	-14614
▁부안	-14615
▁줄곧	-14616
이거나	-14617
▁구간은	-14618
▁아래로	-14619
▁없이는	-14620
사진제공	-14621
▁본사에서	-14622
?)	-14623
네스	-14624
스쿨	-14625
▁임종	-14626
▁지질	-14627
회사의	-14628
▁리스트	-14629
.9%),	-14630
▁비핵화와	-14631
▁위협하는	-14632
▁공공기관의	-14633
미와	-14634
▁간섭	-14635
▁쌍용	-14636
▁액션	-14637
▁통계청	-14638
닝썬	-14639
리나	-14640
▁만명	-14641
▁상처	-14642
▁중등	-14643
외국인	-14644
전략을	-14645
▁순이익	-14646
▁조치는	-14647
▁홍성군	-14648
▁과기정통	-14649
니지	-14650
봉을	-14651
▁안을	-14652
▁침몰	-14653
▁키즈	-14654
5·18	-14655
▁고품질	-14656
▁흩	-14657
박사	-14658
유출	-14659
▁낡은	-14660
▁커버	-14661
▁완벽하게	-14662
음의	-14663
포로	-14664
▁마중	-14665
▁배부	-14666
▁부재	-14667
증명	-14668
▁침공	-14669
군수는	-14670
▁기능성	-14671
▁북한과	-14672
▁성격을	-14673
▁피의자	-14674
▁선도하는	-14675
▁성장했다	-14676
▁펼쳐지는	-14677
▁임산	-14678
▁키울	-14679
▁전에는	-14680
▁화장실	-14681
▁픽	-14682
군산	-14683
▁새끼	-14684
일간의	-14685
▁참가자	-14686
▁명목으로	-14687
로워	-14688
터가	-14689
폭을	-14690
▁도의원	-14691
▁비공개	-14692
▁눈빛	-14693
▁빚을	-14694
▁방향에	-14695
▁1975	-14696
▁광주시와	-14697
ET	-14698
재단이	-14699
▁0.5	-14700
▁시민참여	-14701
▁심각하다	-14702
▁중에서는	-14703
▁마무리했다	-14704
연습	-14705
열이	-14706
축제가	-14707
▁금리가	-14708
▁낮았다	-14709
▁전하는	-14710
▁주어진	-14711
▁관계부처	-14712
교육지원청	-14713
년차	-14714
▁극히	-14715
▁부가	-14716
▁개발된	-14717
▁톡톡히	-14718
▁일으켰다	-14719
▁전형적인	-14720
▁해결해야	-14721
토니	-14722
2%)	-14723
▁테니스	-14724
급한	-14725
주자	-14726
칭을	-14727
▁독재	-14728
▁팔아	-14729
▁입장에	-14730
▁사용했다	-14731
재배	-14732
주인	-14733
▁판정	-14734
카드를	-14735
▁남성이	-14736
▁제천시	-14737
화물	-14738
환은	-14739
▁대부	-14740
▁변형	-14741
▁석사	-14742
업체를	-14743
▁실험을	-14744
▁1974	-14745
▁조직개편	-14746
사한	-14747
▁DJ	-14748
겠는가	-14749
업체는	-14750
....	-14751
▁이뤄져	-14752
▁트렌드를	-14753
경기장에서	-14754
▁으	-14755
것도	-14756
육아	-14757
▁공제	-14758
▁월급	-14759
노동자	-14760
버렸다	-14761
친환경	-14762
▁의식을	-14763
▁병원으로	-14764
마르	-14765
▁결정된	-14766
▁발목을	-14767
▁빠져나	-14768
▁채용을	-14769
▁보고서에	-14770
▁자신감을	-14771
▁스마트공장	-14772
사도	-14773
▁구름	-14774
▁도래	-14775
라이트	-14776
▁받기도	-14777
▁줄어들고	-14778
▁점심	-14779
이었으나	-14780
▁1971	-14781
▁기초생활	-14782
▁설치했다	-14783
▁추진되고	-14784
▁엔터테인먼트	-14785
▁섹	-14786
퀘어	-14787
▁불가피한	-14788
▁성별	-14789
▁연상	-14790
▁중산	-14791
축제는	-14792
▁꿈꾸는	-14793
▁투자에	-14794
▁접근성이	-14795
▁갇	-14796
▁굽	-14797
보의	-14798
보지	-14799
순실	-14800
▁국어	-14801
▁오름	-14802
▁카자	-14803
▁관리할	-14804
▁표현한	-14805
▁못하도록	-14806
▁현실적으로	-14807
가루	-14808
공인	-14809
보통	-14810
▁공지	-14811
▁헌혈	-14812
그러나	-14813
▁유나이	-14814
▁입주자	-14815
▁감소하고	-14816
프란시스코	-14817
사전	-14818
▁넘은	-14819
▁무등	-14820
▁장외	-14821
▁직영	-14822
▁초에	-14823
으로만	-14824
▁그룹의	-14825
▁하여금	-14826
▁전문가로	-14827
FP	-14828
냐는	-14829
중계	-14830
▁영산	-14831
▁오가는	-14832
▁안심하고	-14833
▁터져	-14834
자전거	-14835
▁성장에	-14836
▁아나운	-14837
▁개선하는	-14838
▁보조금을	-14839
시픽	-14840
▁독보	-14841
▁역동	-14842
화했다	-14843
▁강렬한	-14844
▁자신에게	-14845
▁국제사회의	-14846
up	-14847
패스	-14848
▁민감	-14849
인상	-14850
7%)	-14851
▁낙관	-14852
▁토목	-14853
▁보았다	-14854
▁사례도	-14855
▁컨설팅을	-14856
▁샀	-14857
▁견해	-14858
▁알지	-14859
단체의	-14860
테이션	-14861
판으로	-14862
▁일본인	-14863
▁기업이다	-14864
▁사망했다	-14865
▁안타까운	-14866
눈에	-14867
야의	-14868
▁걸릴	-14869
▁문체	-14870
▁일삼	-14871
▁잡기	-14872
▁쿠데	-14873
▁찾아볼	-14874
▁기후변화	-14875
연극	-14876
희가	-14877
생태계	-14878
▁내용도	-14879
▁않다고	-14880
▁운동이	-14881
▁충실히	-14882
▁합의에	-14883
▁국민청원	-14884
현을	-14885
▁데려	-14886
▁은하	-14887
▁제철	-14888
▁광산구	-14889
▁됐다는	-14890
나타	-14891
▁고액	-14892
▁박수	-14893
▁살균	-14894
▁약한	-14895
되기를	-14896
종이다	-14897
▁부작용이	-14898
▁시스템은	-14899
▁추진해야	-14900
▁자유한국당이	-14901
결합	-14902
▁낙하	-14903
▁적대	-14904
▁지고	-14905
▁출제	-14906
▁상임위	-14907
▁운동에	-14908
▁인상이	-14909
▁정신적	-14910
▁판단이	-14911
▁행위에	-14912
▁재난안전	-14913
▁투자하는	-14914
스톤	-14915
3%)	-14916
▁꿈과	-14917
▁골키퍼	-14918
▁탄력을	-14919
▁석유화학	-14920
▁실패했다	-14921
린은	-14922
해줄	-14923
▁구인	-14924
투자가	-14925
▁선거가	-14926
▁알아야	-14927
▁시행한다	-14928
버드	-14929
▁가나	-14930
▁조화	-14931
▁한데	-14932
▁누리꾼	-14933
▁이시종	-14934
▁장으로	-14935
▁해석된다	-14936
▁중소벤처기업부	-14937
신속	-14938
호영	-14939
▁르네	-14940
▁주먹	-14941
▁박사는	-14942
주곡	-14943
▁계엄	-14944
▁타율	-14945
▁택지	-14946
▁학계	-14947
▁느낀다	-14948
▁뜻깊은	-14949
▁않았을	-14950
▁고민하고	-14951
▁공무원이	-14952
▁의료기관	-14953
▁지역이다	-14954
(☎	-14955
▁훔	-14956
▁관악	-14957
▁글로	-14958
▁늘릴	-14959
▁식재	-14960
▁한ᆞ	-14961
▁법인세	-14962
▁회담을	-14963
유플러스	-14964
▁확대되고	-14965
▁포트폴리오	-14966
▁SS	-14967
▁가요	-14968
▁명백한	-14969
.8%),	-14970
▁노동자의	-14971
▁실제로는	-14972
가전	-14973
발굴	-14974
6%)	-14975
▁만주	-14976
▁계획이며	-14977
▁악영향을	-14978
▁증가세를	-14979
결승	-14980
▁되레	-14981
▁두는	-14982
▁입체	-14983
▁확고	-14984
▁그레이	-14985
▁민원을	-14986
▁주장도	-14987
▁평범한	-14988
▁정신건강	-14989
▁지식재산	-14990
온이	-14991
종과	-14992
~15	-14993
▁웃돌	-14994
인력을	-14995
특별법	-14996
▁지원금	-14997
▁포부를	-14998
▁지역사회의	-14999
보호구역	-15000
▁되었	-15001
▁박찬	-15002
▁기록은	-15003
▁만만치	-15004
▁법원의	-15005
텔레콤은	-15006
▁아리	-15007
▁철저하게	-15008
족이	-15009
협은	-15010
홀딩	-15011
▁장소로	-15012
▁주장한	-15013
▁관광객들이	-15014
메시	-15015
정리	-15016
▁워터	-15017
▁음원	-15018
단체와	-15019
▁가치와	-15020
▁달라는	-15021
▁인물이다	-15022
렸을	-15023
성적	-15024
허브	-15025
▁SM	-15026
▁관통	-15027
▁단원	-15028
▁미세	-15029
▁시카	-15030
▁행렬	-15031
▁나주시	-15032
▁민간인	-15033
▁사운드	-15034
▁행위는	-15035
▁확정됐다	-15036
▁분양가상한	-15037
▁가구의	-15038
▁서초구	-15039
▁증진을	-15040
▁판매하고	-15041
▁붓	-15042
반응	-15043
▁당황	-15044
▁오해	-15045
회의는	-15046
▁450	-15047
▁오염물질	-15048
▁램	-15049
▁첩	-15050
표가	-15051
▁아라	-15052
▁원화	-15053
▁중진	-15054
▁단계에	-15055
▁받았던	-15056
▁보상을	-15057
▁준공영	-15058
▁서비스로	-15059
▁앞장서고	-15060
▁민주화운동	-15061
▁인사청문회	-15062
레는	-15063
채권	-15064
8%)	-15065
▁좋을	-15066
▁기반이	-15067
▁다하고	-15068
▁예상보다	-15069
!'	-15070
▁어쩌	-15071
▁입상	-15072
▁행성	-15073
케미칼	-15074
▁증권사	-15075
▁위해서도	-15076
▁인정하는	-15077
더스	-15078
무장	-15079
제천	-15080
▁냉동	-15081
▁체코	-15082
▁춘천	-15083
박근혜	-15084
일이다	-15085
▁LPG	-15086
▁레이저	-15087
▁전문성	-15088
▁사라졌다	-15089
▁종합적인	-15090
▁추진하기로	-15091
▁과열	-15092
▁눈앞	-15093
▁벗어	-15094
▁제보	-15095
▁카이	-15096
사이클	-15097
▁총리의	-15098
In	-15099
한화	-15100
▁걸음	-15101
▁공단	-15102
▁단어	-15103
▁미드	-15104
▁기업가	-15105
▁단체가	-15106
▁투명한	-15107
▁지지부진	-15108
▁하이브리드	-15109
▁맞다	-15110
▁정답	-15111
▁지경	-15112
▁표방	-15113
발전에	-15114
▁단체는	-15115
▁하나를	-15116
▁진단했다	-15117
▁토론회를	-15118
▁소진	-15119
▁아픈	-15120
▁금융위	-15121
▁사교육	-15122
▁삼성물	-15123
▁1963	-15124
▁1969	-15125
▁보호하기	-15126
개척	-15127
국비	-15128
▁계명	-15129
▁방정	-15130
공화국	-15131
▁비서관	-15132
▁지원은	-15133
▁0.5%	-15134
▁강화한다	-15135
그리	-15136
▁공룡	-15137
▁상식	-15138
▁은폐	-15139
▁명절을	-15140
▁목적이	-15141
▁미만의	-15142
▁수립을	-15143
▁자이언	-15144
만원까지	-15145
심에	-15146
즈니	-15147
필드	-15148
▁자식	-15149
▁주저	-15150
▁1976	-15151
▁얇	-15152
값을	-15153
미노	-15154
신경	-15155
▁과반	-15156
▁늦은	-15157
▁쌓여	-15158
▁유진	-15159
▁대구시가	-15160
▁방지하기	-15161
▁심각하게	-15162
▁이번에도	-15163
▁교장	-15164
▁장흥	-15165
▁커진	-15166
▁공약을	-15167
▁사과를	-15168
▁축제는	-15169
숙박	-15170
슬링	-15171
요원	-15172
▁고취	-15173
▁레오	-15174
▁묻고	-15175
▁흑인	-15176
모바일	-15177
시대의	-15178
▁240	-15179
▁법원이	-15180
▁토론토	-15181
▁예방하기	-15182
▁오리지널	-15183
▁힌	-15184
▁내몰	-15185
▁높을	-15186
▁단식	-15187
▁중세	-15188
▁특집	-15189
▁헬기	-15190
경제를	-15191
▁의사가	-15192
▁충북일보	-15193
월을	-15194
▁동대문	-15195
▁축제가	-15196
▁편안한	-15197
▁담당하고	-15198
▁지방분권	-15199
모는	-15200
백화	-15201
인드	-15202
▁저서	-15203
자원봉사	-15204
▁공개됐다	-15205
▁유럽연합	-15206
▁촉구하고	-15207
▁기도	-15208
▁성산	-15209
▁나가고	-15210
▁울주군	-15211
▁핵실험	-15212
들에게도	-15213
▁프로야구	-15214
▁네이버에서	-15215
se	-15216
네이	-15217
보급	-15218
러시아	-15219
▁모르고	-15220
▁얘기를	-15221
▁연구가	-15222
▁자격이	-15223
▁장치를	-15224
▁행사장	-15225
▁국립공원	-15226
▁현실적인	-15227
▁관련해서는	-15228
,0	-15229
▁끓	-15230
서치	-15231
카는	-15232
(31	-15233
타임스	-15234
▁달성을	-15235
▁미쳤다	-15236
▁협상에	-15237
▁조사결과	-15238
행한	-15239
▁나카	-15240
▁백지	-15241
▁수신	-15242
▁양평	-15243
▁행진	-15244
공장을	-15245
자리를	-15246
공공기관	-15247
▁급증했다	-15248
▁마케팅을	-15249
린의	-15250
사망	-15251
우와	-15252
위치	-15253
▁CG	-15254
▁내기	-15255
▁훗날	-15256
▁규모에	-15257
▁기대에	-15258
▁집으로	-15259
▁발표한다	-15260
▁기저	-15261
▁시를	-15262
수수료	-15263
▁알고리즘	-15264
▁이해하기	-15265
▁캐릭터를	-15266
▁넉	-15267
건물	-15268
방학	-15269
▁넣고	-15270
▁당해	-15271
▁노동당	-15272
▁인천의	-15273
▁정치권은	-15274
▁학생들과	-15275
▁일제강점기	-15276
류와	-15277
명씩	-15278
▁남지	-15279
▁얻게	-15280
▁지칭	-15281
캐피탈	-15282
▁나이에	-15283
▁오른다	-15284
▁정했다	-15285
▁돌파했다	-15286
께서	-15287
▁부속	-15288
▁입구	-15289
전기차	-15290
▁-0.	-15291
▁105	-15292
▁서울에	-15293
▁공식적인	-15294
▁국무위원	-15295
▁실시한다고	-15296
그런	-15297
앨범	-15298
인한	-15299
집단	-15300
▁워낙	-15301
▁해가	-15302
사업단	-15303
▁주최하는	-15304
▁i	-15305
▁람	-15306
삼진	-15307
열차	-15308
▁몸이	-15309
▁각국의	-15310
▁바람을	-15311
모빌리티	-15312
▁맛과	-15313
▁발돋	-15314
▁규정이	-15315
▁없었고	-15316
▁운행을	-15317
▁영업이익이	-15318
St	-15319
대형	-15320
재활	-15321
▁적격	-15322
▁표출	-15323
▁현대화	-15324
▁가계대출	-15325
▁다름없다	-15326
▁공방	-15327
▁디젤	-15328
▁일과	-15329
왔지만	-15330
▁가하고	-15331
▁당국의	-15332
▁아테네	-15333
림의	-15334
티오	-15335
▁멋진	-15336
지사와	-15337
▁병원을	-15338
▁적었다	-15339
▁할인된	-15340
▁하락세를	-15341
▁삼성바이오	-15342
유발	-15343
포털	-15344
▁러브	-15345
▁최정	-15346
▁대책은	-15347
▁전반을	-15348
▁판결이	-15349
▁금융투자	-15350
▁호텔에서	-15351
동생	-15352
비치	-15353
아를	-15354
▁관제	-15355
▁배를	-15356
▁보답	-15357
▁수변	-15358
▁결합한	-15359
▁조직의	-15360
▁변호사는	-15361
▁인정하지	-15362
▁착수했다	-15363
▁한국토지주택공사	-15364
▁시켜	-15365
▁연재	-15366
사업장	-15367
▁특정한	-15368
▁교내	-15369
▁도쿠	-15370
▁처형	-15371
▁걸리는	-15372
▁선제적	-15373
▁소지가	-15374
▁실장은	-15375
▁진단을	-15376
▁나가기로	-15377
▁병원에서	-15378
가격이	-15379
년이다	-15380
▁끝나는	-15381
▁서서히	-15382
▁코미디	-15383
교는	-15384
드민	-15385
창을	-15386
테르	-15387
▁결핵	-15388
▁성남시	-15389
▁기간보다	-15390
▁청소년들의	-15391
▁나면	-15392
▁부른	-15393
년에도	-15394
▁신고가	-15395
▁조선의	-15396
협의회를	-15397
원숭	-15398
편에	-15399
▁요새	-15400
행사가	-15401
▁속으로	-15402
▁지식을	-15403
▁압도적인	-15404
년제	-15405
무예	-15406
▁고리	-15407
공단이	-15408
들까지	-15409
▁지배구조	-15410
AD	-15411
▁싼	-15412
림은	-15413
환을	-15414
▁말하고	-15415
▁징계를	-15416
▁즈	-15417
끄럽	-15418
소리를	-15419
▁선수와	-15420
▁어워드	-15421
▁신청서를	-15422
▁때문이었다	-15423
▁이어지면서	-15424
아름	-15425
콜라	-15426
▁강호	-15427
▁나쁘	-15428
▁아쉽	-15429
량으로	-15430
▁저축은행	-15431
2(	-15432
철호	-15433
▁도보	-15434
▁수탁	-15435
▁원작	-15436
문으로	-15437
협회와	-15438
▁원에서	-15439
▁논의하고	-15440
▁부산시는	-15441
▁낱	-15442
현악	-15443
▁쓰여	-15444
▁조장	-15445
니아의	-15446
라디오	-15447
▁구매한	-15448
▁시에는	-15449
▁성장하고	-15450
토를	-15451
항이	-15452
▁띄는	-15453
▁무작	-15454
▁침묵	-15455
내셔널	-15456
▁버리고	-15457
▁정식으로	-15458
▁확대한다	-15459
동호	-15460
▁불출	-15461
▁접경	-15462
▁남았다	-15463
▁영화는	-15464
▁와중에	-15465
▁전쟁의	-15466
▁광주에서	-15467
제어	-15468
진보	-15469
▁돌연	-15470
▁원주	-15471
▁이선	-15472
▁허락	-15473
▁똑같은	-15474
▁하루빨리	-15475
▁활동으로	-15476
▁삼성전자의	-15477
접수	-15478
▁국감	-15479
▁본관	-15480
만원씩	-15481
신청을	-15482
▁서로를	-15483
▁요구하며	-15484
▁가능하다는	-15485
EP	-15486
▁의거	-15487
단계로	-15488
▁전기를	-15489
▁한국노총	-15490
개는	-15491
▁도주	-15492
▁키운	-15493
드민턴	-15494
▁GTX	-15495
▁그래픽	-15496
▁물리적	-15497
▁사안이	-15498
▁제조사	-15499
▁정부예산	-15500
▁뭔	-15501
▁윗	-15502
▁판교	-15503
(10.	-15504
▁휘발유	-15505
설명회를	-15506
▁가능성에	-15507
▁도입했다	-15508
▁퀸	-15509
오를	-15510
▁총독	-15511
▁대학과	-15512
▁하였고	-15513
사원	-15514
▁교복	-15515
▁평등	-15516
▁공간에	-15517
▁별개로	-15518
▁제기돼	-15519
▁진출에	-15520
▁컨벤션	-15521
▁대응하는	-15522
▁배울	-15523
▁삶에	-15524
▁옛날	-15525
▁제압	-15526
신으로	-15527
▁부모님	-15528
▁양국의	-15529
▁지정한	-15530
▁통계를	-15531
▁소통하고	-15532
머리	-15533
오리	-15534
▁군인	-15535
▁열람	-15536
▁증인	-15537
▁환원	-15538
어머니	-15539
회사가	-15540
▁손으로	-15541
▁효율적	-15542
▁추진한다고	-15543
전담	-15544
▁맑은	-15545
경제적	-15546
▁구간에	-15547
▁안건을	-15548
▁신청했다	-15549
▁지속되고	-15550
▁후보자를	-15551
말이	-15552
준표	-15553
▁발렌	-15554
▁체질	-15555
▁삼았다	-15556
▁악순환	-15557
▁최첨단	-15558
산성	-15559
▁안겨	-15560
문화원	-15561
▁김영록	-15562
▁성공적	-15563
▁부상으로	-15564
▁역량강화	-15565
▁척추	-15566
▁친절	-15567
▁해킹	-15568
곳이다	-15569
병원이	-15570
▁검증을	-15571
▁고도화	-15572
▁과거에	-15573
▁된다면	-15574
▁투표를	-15575
▁극복하고	-15576
▁기여했다	-15577
ub	-15578
▁솜	-15579
앤젤	-15580
준의	-15581
▁생산된	-15582
▁작품의	-15583
트럭	-15584
▁무궁	-15585
▁비하	-15586
▁키우	-15587
▁KEB	-15588
▁것임을	-15589
▁고려대	-15590
▁나아갈	-15591
▁올라가	-15592
▁경기도의	-15593
▁도민들의	-15594
▁의료기기	-15595
▁주한미군	-15596
▁최소화하기	-15597
구리	-15598
농장	-15599
▁등극	-15600
▁레저	-15601
▁여권	-15602
▁영천	-15603
▁됐다고	-15604
▁서대문	-15605
▁앞당겨	-15606
▁주도로	-15607
▁서비스업	-15608
▁스마트팜	-15609
▁중소기업이	-15610
슬로	-15611
항의	-15612
▁발발	-15613
▁증여	-15614
▁비영리	-15615
▁피해자의	-15616
▁활용하고	-15617
심판	-15618
출연	-15619
▁몰고	-15620
▁충실	-15621
▁한지	-15622
▁눈높이에	-15623
▁더불어민주당은	-15624
▁마이크로소프트	-15625
▁촘	-15626
시공	-15627
▁업계는	-15628
▁광주시가	-15629
▁평가하는	-15630
▁한국도로	-15631
▁끝날	-15632
▁군산시	-15633
▁뒤에는	-15634
▁장면을	-15635
▁최상위	-15636
▁활동은	-15637
국제도시	-15638
▁불가피하다	-15639
▁우선적으로	-15640
▁김보	-15641
▁위헌	-15642
▁청라	-15643
▁이라크	-15644
▁현대건설	-15645
▁간단	-15646
▁미쓰	-15647
▁대학은	-15648
▁상품의	-15649
▁연세대	-15650
▁대응하고	-15651
▁앞으로의	-15652
▁눈치	-15653
▁거쳐야	-15654
▁대가로	-15655
▁발굴을	-15656
지역사회	-15657
▁6·13	-15658
▁흠	-15659
▁채소	-15660
▁이외의	-15661
구미	-15662
미콘	-15663
▁공연과	-15664
▁노조의	-15665
▁조사해	-15666
▁학교와	-15667
▁개발사업	-15668
▁남쪽으로	-15669
공약	-15670
기타	-15671
CEO	-15672
▁반가	-15673
▁살리	-15674
▁자는	-15675
▁카르	-15676
▁타운	-15677
▁풍성	-15678
▁나이가	-15679
▁생생한	-15680
▁않기로	-15681
▁텍사스	-15682
남용	-15683
손해	-15684
지점	-15685
▁네이	-15686
일본의	-15687
주의에	-15688
토론회	-15689
하느냐	-15690
함으로	-15691
▁소리가	-15692
▁준우승	-15693
해양수산	-15694
▁1964	-15695
▁영암	-15696
▁임무	-15697
▁지혜를	-15698
▁교육지원	-15699
▁매장에서	-15700
▁우즈베키스탄	-15701
매입	-15702
영어	-15703
위반	-15704
(40	-15705
▁오키	-15706
▁이건	-15707
병으로	-15708
산으로	-15709
▁내리고	-15710
▁식사를	-15711
▁치료제	-15712
▁협력사	-15713
▁벌어지고	-15714
당원	-15715
명인	-15716
믹스	-15717
▁발레	-15718
▁좋고	-15719
▁한자	-15720
사랑의	-15721
▁범행을	-15722
▁소장은	-15723
▁설명하는	-15724
!"	-15725
균관	-15726
▁최강	-15727
▁특구	-15728
▁간편하게	-15729
▁개최됐다	-15730
▁보건의료	-15731
가람	-15732
사상	-15733
중은	-15734
▁가끔	-15735
▁맡겨	-15736
▁한참	-15737
▁라운드	-15738
▁파악해	-15739
▁항소심	-15740
▁여겨진다	-15741
감소	-15742
패션	-15743
~11	-15744
▁국한	-15745
▁금품	-15746
▁남기	-15747
▁년이	-15748
▁머무	-15749
네이버	-15750
▁국민과	-15751
▁아무도	-15752
도시공사	-15753
▁행복주택	-15754
▁경각	-15755
▁역할과	-15756
▁주가는	-15757
▁지역인	-15758
니를	-15759
▁강정	-15760
▁모순	-15761
▁신학	-15762
▁프란	-15763
관리에	-15764
▁금융권	-15765
▁누구도	-15766
▁공공주택	-15767
▁띈	-15768
유적	-15769
조와	-15770
-19	-15771
▁국장	-15772
▁성을	-15773
▁파란	-15774
언더파	-15775
체육관	-15776
했으면	-15777
▁마음껏	-15778
▁범죄를	-15779
▁시대적	-15780
▁지구의	-15781
▁강화해야	-15782
▁미국으로	-15783
라디	-15784
아르	-15785
카가	-15786
▁오바	-15787
환경이	-15788
▁히어로	-15789
▁관계자가	-15790
▁대표발의	-15791
▁역임했다	-15792
▁쉐	-15793
▁일할	-15794
▁투자의	-15795
▁잣	-15796
하듯	-15797
▁1∼	-15798
▁은행의	-15799
▁강조하는	-15800
▁w	-15801
▁땅에	-15802
▁배터	-15803
▁유익	-15804
지원단	-15805
▁한국관광	-15806
▁업계에서는	-15807
▁과학기술정보통신부	-15808
▁갓	-15809
매를	-15810
부스	-15811
중기	-15812
▁사면	-15813
▁성실	-15814
▁시술	-15815
체스터	-15816
▁생명과	-15817
▁성장한	-15818
▁역으로	-15819
▁달할	-15820
▁속출	-15821
▁훌쩍	-15822
카메라	-15823
▁성격이	-15824
▁시기는	-15825
▁월요일	-15826
▁접수를	-15827
▁튜	-15828
관제	-15829
분은	-15830
▁늦게	-15831
▁용어	-15832
▁주를	-15833
산업에	-15834
▁군민의	-15835
▁선수권	-15836
▁수요에	-15837
▁수익률	-15838
▁인상에	-15839
▁지원한	-15840
▁테마로	-15841
▁사용자가	-15842
▁시민들과	-15843
▁웹사이트	-15844
▁전문가를	-15845
▁촉구한다	-15846
위권	-15847
총괄	-15848
▁사범	-15849
▁구조가	-15850
')	-15851
CI	-15852
여러	-15853
캠퍼	-15854
▁남용	-15855
▁세션	-15856
▁또다른	-15857
▁손가락	-15858
▁UEFA	-15859
▁처리하는	-15860
남방	-15861
▁순조	-15862
▁팽팽	-15863
▁정보는	-15864
▁충청북도	-15865
가요	-15866
니와	-15867
▁떠넘	-15868
▁틀을	-15869
▁선정할	-15870
▁에듀윌	-15871
▁취지다	-15872
▁투입되는	-15873
▁합동으로	-15874
▁멧	-15875
외과	-15876
증은	-15877
▁데도	-15878
▁암호화폐	-15879
▁조사하고	-15880
▁주장하며	-15881
▁보이스피싱	-15882
디는	-15883
추홀	-15884
▁총재	-15885
시키며	-15886
▁미성년	-15887
▁이해와	-15888
나가겠다	-15889
▁예산으로	-15890
▁예상하고	-15891
▁확대됐다	-15892
행성	-15893
▁부풀	-15894
▁부하	-15895
▁신사	-15896
여개의	-15897
▁분명한	-15898
▁육성에	-15899
비엔날레	-15900
▁0.2%	-15901
▁가평	-15902
▁한성	-15903
▁본사를	-15904
▁펑	-15905
롭지	-15906
박이	-15907
해운	-15908
▁멈춰	-15909
▁경찰서	-15910
▁다큐멘	-15911
▁시행한	-15912
▁해결해	-15913
?'	-15914
ue	-15915
양은	-15916
튜버	-15917
▁던져	-15918
▁보스	-15919
▁세련	-15920
▁시원	-15921
▁항암	-15922
▁웨스트	-15923
▁단계에서	-15924
월호	-15925
포트	-15926
▁기한	-15927
▁뒤인	-15928
▁실버	-15929
석에서	-15930
▁구입할	-15931
▁구조적	-15932
▁발돋움	-15933
▁전분기	-15934
망에	-15935
▁교훈	-15936
▁달린	-15937
▁영종	-15938
용역을	-15939
▁혁신성	-15940
▁발표하는	-15941
▁신혼부부	-15942
▁근본적으로	-15943
NK	-15944
▁줬	-15945
쿠라	-15946
팀장	-15947
현직	-15948
단지에	-15949
▁가구가	-15950
▁공급할	-15951
▁국가에	-15952
▁받으면	-15953
▁브레이	-15954
▁의원도	-15955
▁일대를	-15956
▁현재가	-15957
하였지만	-15958
▁명실상부	-15959
▁발전시켜	-15960
▁제한하는	-15961
나를	-15962
1%)	-15963
▁각기	-15964
▁극대	-15965
▁김원	-15966
▁상고	-15967
▁컬렉	-15968
이나마	-15969
▁부통령	-15970
▁센터는	-15971
▁시리아	-15972
▁얘기가	-15973
▁주의를	-15974
전에서는	-15975
▁전문기업	-15976
▁서울중앙지검	-15977
▁궤도	-15978
▁위조	-15979
▁광주를	-15980
▁사업인	-15981
▁제정을	-15982
▁지사의	-15983
▁싣	-15984
구장	-15985
▁II	-15986
▁그칠	-15987
▁여주	-15988
전부터	-15989
▁1.2	-15990
▁이해가	-15991
▁참여와	-15992
▁하는지	-15993
▁부가가치	-15994
노스	-15995
수업	-15996
지침	-15997
층과	-15998
▁가사	-15999
▁국유	-16000
▁나흘	-16001
▁유물	-16002
▁구조로	-16003
▁병원에	-16004
▁후보의	-16005
▁지역별로	-16006
▁애로사항을	-16007
▁프로그램인	-16008
기서	-16009
워킹	-16010
텃밭	-16011
팩트	-16012
▁반사	-16013
▁나이로	-16014
혐의	-16015
▁일간	-16016
▁브라운	-16017
지역본부	-16018
▁것입니다	-16019
사범	-16020
완화	-16021
편한	-16022
▁대면	-16023
▁생겼	-16024
▁열띤	-16025
업체인	-16026
▁구축과	-16027
▁장거리	-16028
▁전체에	-16029
▁참가할	-16030
▁편지를	-16031
▁애로사항	-16032
▁자치경찰	-16033
▁하였으나	-16034
▁한마디로	-16035
KB	-16036
스타일	-16037
▁건강에	-16038
▁OLED	-16039
기야	-16040
▁기재부	-16041
▁공동연구	-16042
▁공시가격	-16043
아지	-16044
팀에	-16045
플래	-16046
▁곡을	-16047
▁신도	-16048
▁이차	-16049
▁주전	-16050
▁진행돼	-16051
▁한국지	-16052
▁세르비아	-16053
▁닛	-16054
대중	-16055
연령	-16056
(32	-16057
▁왕이	-16058
▁쿠폰	-16059
▁화상	-16060
▁현상은	-16061
▁거버넌스	-16062
▁중심지로	-16063
▁가이드라인	-16064
▁알려지면서	-16065
▁달해	-16066
▁수반	-16067
▁트랜	-16068
지역이	-16069
활동이	-16070
▁발맞춰	-16071
▁한국경제	-16072
강사	-16073
리자	-16074
분쯤	-16075
▁해지	-16076
▁배경을	-16077
▁선언한	-16078
▁시기가	-16079
▁자랑한다	-16080
세력	-16081
▁김세	-16082
▁브렉	-16083
▁빚어	-16084
▁성주	-16085
▁시키	-16086
▁판사	-16087
르면서	-16088
졌으나	-16089
▁수요일	-16090
▁유력한	-16091
▁환자는	-16092
▁속해	-16093
▁실어	-16094
광주시	-16095
▁기온이	-16096
▁로마의	-16097
▁목요일	-16098
▁배우는	-16099
▁실태를	-16100
▁증상을	-16101
▁경고했다	-16102
▁나머지는	-16103
▁만족도가	-16104
▁지속해서	-16105
GA	-16106
레옹	-16107
철을	-16108
ure	-16109
▁시골	-16110
▁전차	-16111
기록을	-16112
▁아들을	-16113
▁주도한	-16114
▁브랜드의	-16115
개념	-16116
드라	-16117
매우	-16118
▁비싸	-16119
▁최영	-16120
컴퓨터	-16121
▁변화는	-16122
TM	-16123
▁사제	-16124
행위에	-16125
▁가입한	-16126
▁공로를	-16127
▁배제할	-16128
▁시작을	-16129
최저임금	-16130
▁시작했고	-16131
▁포함한다	-16132
av	-16133
▁싹	-16134
습기	-16135
▁동탄	-16136
▁배운	-16137
▁산다	-16138
▁실시된	-16139
▁실적은	-16140
▁계획으로	-16141
▁승용	-16142
▁커지는	-16143
▁교섭단체	-16144
▁규제자유	-16145
▁다양하고	-16146
▁인근에서	-16147
▁풋	-16148
속을	-16149
▁외래	-16150
▁학대	-16151
▁휩쓸	-16152
▁경우를	-16153
▁고위험	-16154
▁두었다	-16155
▁무대로	-16156
▁현실에	-16157
▁바람직한	-16158
▁받아들일	-16159
▁아마추어	-16160
▁콘크리트	-16161
▁제외하고는	-16162
▁리조	-16163
▁양적	-16164
▁잔디	-16165
조원에	-16166
카이도	-16167
▁달성한	-16168
▁민족의	-16169
▁베이스	-16170
▁부문의	-16171
▁저자는	-16172
▁증가와	-16173
▁지나친	-16174
▁지켜야	-16175
▁포함하고	-16176
▁선관	-16177
▁한상	-16178
시험을	-16179
▁농가에	-16180
▁부모의	-16181
▁인력이	-16182
▁절실한	-16183
▁엘리베이터	-16184
문서	-16185
식도	-16186
▁CP	-16187
▁농약	-16188
▁시뮬	-16189
▁전작	-16190
▁충당	-16191
▁사고는	-16192
부에서는	-16193
▁대전시는	-16194
종인	-16195
▁분배	-16196
▁울주	-16197
▁기관에	-16198
▁않았기	-16199
▁연동형	-16200
▁알레	-16201
▁전성	-16202
되었을	-16203
▁확보와	-16204
▁기반시설	-16205
드론	-16206
▁정진	-16207
회의에	-16208
▁품질을	-16209
▁젠	-16210
인삼	-16211
▁것만	-16212
▁고질	-16213
▁묶어	-16214
▁함평	-16215
▁부문에	-16216
▁아이들	-16217
광장에서	-16218
도미사일	-16219
▁이용하고	-16220
▁페르시아	-16221
▁활동했다	-16222
트릭	-16223
▁증시	-16224
▁한두	-16225
▁서포터	-16226
▁의혹과	-16227
▁창업을	-16228
▁호흡을	-16229
(2018	-16230
▁리얼미터	-16231
▁금호타이어	-16232
성공	-16233
진로	-16234
▁당협	-16235
▁전복	-16236
▁증상	-16237
▁켈	-16238
돈을	-16239
토벤	-16240
▁개를	-16241
▁거창	-16242
▁유상	-16243
▁이현	-16244
▁차트	-16245
역량을	-16246
조합장	-16247
프랑스	-16248
▁명예를	-16249
▁사이클	-16250
▁예방에	-16251
▁선수들은	-16252
▁창의적인	-16253
▁늘어나면서	-16254
▁겐	-16255
남춘	-16256
복무	-16257
컨대	-16258
▁깨달	-16259
▁라고	-16260
▁숙원	-16261
▁혼잡	-16262
▁것이나	-16263
▁못했고	-16264
▁시원한	-16265
▁에이스	-16266
▁윈도우	-16267
▁전망도	-16268
▁오스트레일리아	-16269
▁김도	-16270
▁무색	-16271
▁살린	-16272
▁양대	-16273
▁방과후	-16274
▁보스턴	-16275
▁제도개선	-16276
▁공모사업에	-16277
▁미주	-16278
분기에	-16279
정책이	-16280
▁실수요	-16281
▁억원을	-16282
▁여당이	-16283
▁이인영	-16284
▁전문의	-16285
▁행정을	-16286
▁의견수렴	-16287
질서	-16288
▁경감	-16289
▁다뤄	-16290
▁담양	-16291
▁로비	-16292
▁예로	-16293
루에서	-16294
팀으로	-16295
▁경제학	-16296
▁성장의	-16297
이었지만	-16298
▁상품으로	-16299
▁시작하여	-16300
▁진상조사	-16301
▁한국전쟁	-16302
▁가세	-16303
▁다변	-16304
▁법이	-16305
▁화답	-16306
▁95%	-16307
▁선사할	-16308
▁카지노	-16309
했음에도	-16310
▁머물렀다	-16311
▁사업시행	-16312
▁진행되었다	-16313
ep	-16314
▁댐	-16315
소형	-16316
역할	-16317
▁실전	-16318
층으로	-16319
▁대신해	-16320
▁없다면	-16321
▁완화를	-16322
▁공개하고	-16323
▁랜드마크	-16324
▁서비스에	-16325
ON	-16326
터카	-16327
프와	-16328
▁가꾸	-16329
▁문희	-16330
▁비만	-16331
만들기	-16332
▁기준은	-16333
▁살리는	-16334
▁이슈가	-16335
총회에서	-16336
▁인사들이	-16337
▁일반분양	-16338
뿌리	-16339
이러	-16340
자립	-16341
▁1/	-16342
▁막판	-16343
▁바뀔	-16344
▁역점	-16345
▁의병	-16346
▁취할	-16347
축제를	-16348
하여야	-16349
▁증가율	-16350
▁파업을	-16351
▁광역교통	-16352
▁이전에는	-16353
▁전국적인	-16354
LF	-16355
ec	-16356
▁동방	-16357
산에서	-16358
▁평가해	-16359
▁홍보에	-16360
▁휴식을	-16361
개발원	-16362
▁방송통신	-16363
▁현대제철	-16364
▁홍보하고	-16365
부도	-16366
증과	-16367
▁법과	-16368
▁승계	-16369
▁열을	-16370
▁풍경	-16371
▁어두운	-16372
▁출생아	-16373
▁필요성	-16374
▁프로젝트는	-16375
▁누락	-16376
▁모욕	-16377
▁백색	-16378
▁내부에	-16379
▁일으키는	-16380
연출	-16381
▁근린	-16382
▁반기	-16383
▁서정	-16384
메리칸	-16385
▁수강생	-16386
▁여성은	-16387
▁현실은	-16388
▁전문적인	-16389
▁전북도는	-16390
▁때문이라고	-16391
▁김구	-16392
▁옳다	-16393
지도자	-16394
▁반영될	-16395
▁불편이	-16396
▁역사에	-16397
진에	-16398
▁도에	-16399
▁유흥	-16400
▁인성	-16401
▁항복	-16402
▁후지	-16403
했다면	-16404
▁때로는	-16405
▁박원순	-16406
▁이목이	-16407
▁주제를	-16408
▁트렌드	-16409
▁르노삼성	-16410
▁자신만의	-16411
▁행정력을	-16412
▁지역사회에	-16413
▁조선민주주의인민공화	-16414
IoT	-16415
▁구사	-16416
▁목에	-16417
▁아프	-16418
▁정황	-16419
▁참관	-16420
으려고	-16421
행사로	-16422
▁국가로	-16423
▁그들을	-16424
▁근처에	-16425
▁1977	-16426
▁비난했다	-16427
▁위해서라도	-16428
측이	-16429
▁김석	-16430
▁방제	-16431
▁캠퍼	-16432
▁104	-16433
▁교과서	-16434
▁아파트는	-16435
▁조성하기	-16436
▁페이스북에	-16437
너는	-16438
엔자	-16439
증후	-16440
파티	-16441
▁계통	-16442
▁효성	-16443
분까지	-16444
▁부끄러	-16445
▁서류를	-16446
▁핵심인	-16447
▁무대에서	-16448
▁집중되고	-16449
링크	-16450
▁지음	-16451
▁플루	-16452
개소에	-16453
과제를	-16454
하지도	-16455
▁결혼을	-16456
▁체제로	-16457
▁추진이	-16458
▁학생들	-16459
동서	-16460
파에	-16461
▁영혼	-16462
▁토종	-16463
▁마르크	-16464
▁선수의	-16465
▁않거나	-16466
▁이룬다	-16467
▁지역내	-16468
▁환경과	-16469
산업개발	-16470
▁거점으로	-16471
▁시민들을	-16472
블랙	-16473
▁최재	-16474
행위가	-16475
▁문제점	-16476
▁엘리트	-16477
원으로서	-16478
▁떨어진다	-16479
▁살펴보고	-16480
▁절약	-16481
▁인센티브를	-16482
▁해양수산부	-16483
··	-16484
싸움	-16485
▁발명	-16486
오피스	-16487
월부터는	-16488
▁제출받은	-16489
▁편의시설	-16490
▁교부	-16491
▁개선할	-16492
▁메달을	-16493
▁소득을	-16494
▁야당이	-16495
▁응답이	-16496
▁있다가	-16497
▁락	-16498
준이	-16499
토는	-16500
▁다다	-16501
▁카테	-16502
구청은	-16503
자이자	-16504
▁접어들	-16505
▁추진되는	-16506
▁장기적으로	-16507
두가	-16508
▁보충	-16509
▁서술	-16510
▁오라	-16511
▁요건	-16512
▁초빙	-16513
▁가리지	-16514
▁논평을	-16515
▁모델은	-16516
▁상황과	-16517
▁처리가	-16518
▁카자흐	-16519
▁히틀러	-16520
플레이션	-16521
▁기록했고	-16522
▁변화하는	-16523
▁위원회는	-16524
▁정체성을	-16525
사리	-16526
▁공채	-16527
관광객	-16528
천억원	-16529
(0.0	-16530
▁밝히는	-16531
▁치러진	-16532
▁모색하는	-16533
▁브리핑을	-16534
▁어머니는	-16535
신저	-16536
지나	-16537
이번에	-16538
지원과	-16539
하였던	-16540
▁동안에	-16541
▁예술가	-16542
▁정도에	-16543
▁정하는	-16544
▁마련한다	-16545
▁지지율이	-16546
나들	-16547
여년	-16548
▁만드	-16549
▁복선	-16550
▁석문	-16551
▁세븐	-16552
▁예의	-16553
▁각오를	-16554
▁일일이	-16555
강한	-16556
조절	-16557
▁LI	-16558
▁뒀다	-16559
▁서원	-16560
▁자릿	-16561
베이스	-16562
▁등에게	-16563
▁물리학	-16564
▁생산한	-16565
▁접근성	-16566
▁파주시	-16567
토스	-16568
▁버튼	-16569
▁튼튼	-16570
▁강제로	-16571
▁발전할	-16572
▁하반기에	-16573
▁당기순이익	-16574
▁소비자에게	-16575
시기	-16576
우회	-16577
행은	-16578
▁몰랐	-16579
▁촘촘	-16580
▁총회	-16581
민들이	-16582
증권은	-16583
▁급기야	-16584
▁참가를	-16585
▁시민에게	-16586
▁힘쓰겠다	-16587
PM	-16588
유총	-16589
▁LS	-16590
▁예보	-16591
시키지	-16592
▁고객은	-16593
▁행사도	-16594
▁역사적인	-16595
▁함으로써	-16596
▁전체적으로	-16597
주며	-16598
혹한	-16599
▁공로	-16600
▁신념	-16601
▁역학	-16602
▁토요	-16603
▁1~3	-16604
▁기대되는	-16605
▁알아보자	-16606
▁연속으로	-16607
▁지방재정	-16608
계절	-16609
디에	-16610
~18	-16611
만큼은	-16612
투자는	-16613
▁미래형	-16614
도어	-16615
적은	-16616
왔으며	-16617
▁있어도	-16618
▁아이들에게	-16619
▁엽	-16620
▁독창	-16621
▁상표	-16622
▁정준	-16623
▁개편을	-16624
▁내놓지	-16625
▁레스토	-16626
▁바꾸고	-16627
▁동일하게	-16628
▁응급의료	-16629
▁팜	-16630
분할	-16631
▁석방	-16632
▁성숙	-16633
해서도	-16634
▁부산대	-16635
▁일까지	-16636
▁자동화	-16637
▁판단하고	-16638
부여	-16639
▁낚시	-16640
▁무서	-16641
▁업황	-16642
▁오프	-16643
▁경찰과	-16644
▁끝나고	-16645
▁업체와	-16646
▁인원은	-16647
▁잘못을	-16648
▁최상의	-16649
병원에서	-16650
5,	-16651
과목	-16652
먹는	-16653
무대	-16654
야가	-16655
파워	-16656
▁경력을	-16657
▁수렴해	-16658
▁이곳을	-16659
▁있었을	-16660
▁자금이	-16661
▁장시간	-16662
▁조성될	-16663
▁준결승	-16664
▁즐겁게	-16665
▁현실이	-16666
▁확대로	-16667
▁거주하고	-16668
▁나폴레옹	-16669
▁서비스의	-16670
▁하반기부터	-16671
사지	-16672
ort	-16673
▁물고	-16674
▁않자	-16675
현장의	-16676
▁기량을	-16677
▁수치를	-16678
BM	-16679
강좌	-16680
졌는데	-16681
▁계획도	-16682
▁장면이	-16683
▁전문가가	-16684
▁공직선거법	-16685
▁구형	-16686
▁다케	-16687
▁접할	-16688
▁취항	-16689
자이다	-16690
▁인간이	-16691
▁국방부는	-16692
▁이야기다	-16693
▁차지하며	-16694
발이	-16695
타지	-16696
▁그들	-16697
▁탐색	-16698
▁퇴임	-16699
▁위험에	-16700
▁회사에	-16701
날을	-16702
렇게	-16703
안건	-16704
▁기가	-16705
▁자정	-16706
방향을	-16707
▁사태는	-16708
▁시간대	-16709
▁전통을	-16710
▁회의는	-16711
▁결정적인	-16712
▁대지	-16713
▁미나	-16714
▁박준	-16715
▁이득	-16716
▁퇴출	-16717
▁승강장	-16718
▁실패한	-16719
▁예술의	-16720
▁제작진은	-16721
리히	-16722
변에	-16723
선생	-16724
▁기성	-16725
▁착한	-16726
▁기반한	-16727
만명으로	-16728
▁이야기는	-16729
▁전일대비	-16730
버스터미널	-16731
▁남아프리카	-16732
▁사망하였다	-16733
▁샌프란시스코	-16734
응급	-16735
▁만인	-16736
▁승리로	-16737
▁1961	-16738
▁쉴	-16739
결혼	-16740
보이	-16741
9%)	-16742
▁달에	-16743
▁트래	-16744
▁편찬	-16745
가능한	-16746
본부에	-16747
▁수립해	-16748
▁제한을	-16749
▁부드러운	-16750
▁지지하는	-16751
관장	-16752
점유	-16753
츠는	-16754
ist	-16755
▁유고	-16756
▁산하기	-16757
▁재정비	-16758
▁크기의	-16759
▁아파트가	-16760
▁어우러진	-16761
▁자동차부품	-16762
our	-16763
▁밖의	-16764
▁소아	-16765
▁탈북	-16766
인들과	-16767
해달라	-16768
▁마드리	-16769
▁상승을	-16770
▁설계를	-16771
▁현황과	-16772
▁알려지지	-16773
▁참석자들은	-16774
▁프로모션을	-16775
물리	-16776
분위	-16777
초등	-16778
환이	-16779
▁주파	-16780
▁탈당	-16781
상거래	-16782
적이며	-16783
▁기숙사	-16784
▁마감했다	-16785
태양	-16786
▁과수	-16787
▁금정	-16788
▁남도	-16789
▁세수	-16790
▁102	-16791
▁마라톤	-16792
▁접한다	-16793
▁부적절한	-16794
▁소개한다	-16795
▁전문가와	-16796
ok	-16797
오던	-16798
ong	-16799
▁끝이	-16800
▁적다	-16801
▁전의	-16802
기자본	-16803
▁동남권	-16804
▁운영이	-16805
▁지능형	-16806
▁한눈에	-16807
▁행태를	-16808
▁경진대회	-16809
iz	-16810
비트	-16811
▁검정	-16812
▁고쳐	-16813
▁미래가	-16814
▁전하고	-16815
▁코레일	-16816
오프라인	-16817
▁아시안게임	-16818
▁눌	-16819
▁지킬	-16820
▁강화된	-16821
▁논란은	-16822
▁늘렸다	-16823
▁턱없이	-16824
▁제주도가	-16825
▁지역사회와	-16826
운수	-16827
현과	-16828
▁가덕	-16829
▁띈다	-16830
▁배추	-16831
▁울진	-16832
▁생산이	-16833
▁찾는다	-16834
▁특강을	-16835
▁판단에	-16836
▁프레임	-16837
▁자아냈다	-16838
▁한국철도	-16839
4,	-16840
▁US	-16841
▁구비	-16842
▁넘기	-16843
▁표류	-16844
▁계약이	-16845
▁대구가	-16846
▁발언이	-16847
▁상장사인	-16848
▁주장하였다	-16849
▁왼	-16850
네마	-16851
폭탄	-16852
▁조립	-16853
▁구성한	-16854
▁지수는	-16855
▁1947	-16856
▁기울여야	-16857
▁유럽에서	-16858
(60	-16859
▁도착한	-16860
▁메이커	-16861
▁힘쓰고	-16862
▁공간에서	-16863
▁남북교류	-16864
▁전략이다	-16865
디아라비아	-16866
▁임명되었다	-16867
이도	-16868
▁6%	-16869
▁복용	-16870
▁아기	-16871
▁양궁	-16872
보조금	-16873
▁대회의	-16874
▁장소에서	-16875
▁탐사	-16876
▁대화가	-16877
▁사례다	-16878
▁이동할	-16879
▁자발적	-16880
▁조화를	-16881
▁취하고	-16882
▁이산가족	-16883
학력	-16884
▁북방	-16885
▁가라앉	-16886
▁임진왜	-16887
▁로스앤젤	-16888
▁비슷하다	-16889
▁이용하면	-16890
▁적용했다	-16891
동해	-16892
▁교착	-16893
▁구호	-16894
▁이코	-16895
▁퀴즈	-16896
▁표결	-16897
됩니다	-16898
▁도시는	-16899
▁변경을	-16900
▁신호를	-16901
▁일하고	-16902
▁차이는	-16903
▁취임한	-16904
▁돌아갔다	-16905
▁소요되는	-16906
뮤니케이션	-16907
가장	-16908
님은	-16909
완전	-16910
▁산타	-16911
▁상급	-16912
▁최경	-16913
▁최동	-16914
▁세대의	-16915
▁인정한	-16916
▁혐의가	-16917
▁대구시와	-16918
▁시상식에서	-16919
경제자유구역	-16920
▁대우조선해양	-16921
무라	-16922
투기	-16923
▁살던	-16924
▁웨딩	-16925
스바겐	-16926
▁언론의	-16927
▁영화제	-16928
▁코엑스	-16929
▁인정받고	-16930
▁쿨	-16931
길은	-16932
방역	-16933
▁그늘	-16934
▁백운	-16935
▁장승	-16936
▁탐구	-16937
▁하얀	-16938
지역과	-16939
▁미지수	-16940
▁직원의	-16941
▁가상화폐	-16942
▁계속되는	-16943
▁기획재정	-16944
시고	-16945
외선	-16946
▁한발	-16947
됐는데	-16948
업무를	-16949
▁순이다	-16950
▁이철우	-16951
▁종전선언	-16952
▁킨	-16953
▁구의	-16954
▁세웠	-16955
▁호평	-16956
일에도	-16957
제일제	-16958
▁건강과	-16959
▁데이트	-16960
▁올랐고	-16961
▁지원도	-16962
되었다고	-16963
▁불이익을	-16964
▁엮	-16965
경연	-16966
공감	-16967
수다	-16968
▁공개해	-16969
▁화요일	-16970
▁선수들을	-16971
▁있어서는	-16972
▁한국거래	-16973
독일	-16974
두산	-16975
▁넣은	-16976
▁무형	-16977
▁성취	-16978
▁수납	-16979
▁직격	-16980
시대를	-16981
▁125	-16982
▁3.5	-16983
▁건설사	-16984
▁단계로	-16985
▁대기업의	-16986
▁교육과정을	-16987
렌즈	-16988
루는	-16989
(-1	-16990
▁데서	-16991
▁뽑는	-16992
▁양주	-16993
▁읽고	-16994
▁특가	-16995
▁103	-16996
▁감안할	-16997
▁비서실	-16998
▁스티븐	-16999
▁이내로	-17000
▁타이틀곡	-17001
배로	-17002
수목	-17003
▁구강	-17004
▁조병	-17005
공연을	-17006
▁부문은	-17007
▁수석부	-17008
▁요청에	-17009
▁프로그램과	-17010
▁프리미어리그	-17011
방과	-17012
▁주춤	-17013
▁트레	-17014
▁교향곡	-17015
▁협약은	-17016
▁독자적인	-17017
▁투입된다	-17018
▁화이트리스트	-17019
르가	-17020
▁군대	-17021
▁김혜	-17022
▁대수	-17023
▁재선	-17024
▁종결	-17025
린다는	-17026
증으로	-17027
지역인	-17028
▁가져올	-17029
▁사랑과	-17030
▁산업은	-17031
▁제기된다	-17032
하신	-17033
▁좌석	-17034
▁타워	-17035
▁규제로	-17036
▁펼쳐진	-17037
▁해소할	-17038
▁행안부	-17039
▁줄어들었다	-17040
)》	-17041
주신	-17042
지향	-17043
▁무능	-17044
▁보듯	-17045
▁포위	-17046
주었다	-17047
▁교차로	-17048
▁당국이	-17049
▁1967	-17050
▁늘어난다	-17051
▁기초자치단체	-17052
▁주택담보대출	-17053
ID	-17054
▁뜬	-17055
▁낳고	-17056
하자고	-17057
▁오로지	-17058
▁제품과	-17059
▁편하게	-17060
러닝	-17061
슨이	-17062
학규	-17063
회초	-17064
▁답을	-17065
▁보게	-17066
▁엄정	-17067
▁원광	-17068
대상자	-17069
보건소	-17070
▁외교적	-17071
장으로서	-17072
▁곤란하다	-17073
▁공무원의	-17074
▁뮌	-17075
하수	-17076
▁양현	-17077
▁원형	-17078
▁해병	-17079
▁전세가	-17080
▁근로기준	-17081
▁의결했다	-17082
▁지원사업을	-17083
국대	-17084
▁월간	-17085
운동이	-17086
▁IMF	-17087
▁내놓을	-17088
▁리뉴얼	-17089
▁반발을	-17090
▁아들로	-17091
▁이름의	-17092
▁잃었다	-17093
▁있느냐	-17094
▁재조명	-17095
▁흥미를	-17096
▁예산결산	-17097
▁핵심이다	-17098
▁기아자동차	-17099
▁국토교통부가	-17100
습을	-17101
집에	-17102
▁날카	-17103
▁박스	-17104
▁주인	-17105
▁환수	-17106
▁공문을	-17107
▁다음을	-17108
▁미스터	-17109
▁배치해	-17110
▁개선하기	-17111
▁대안으로	-17112
▁고부가가치	-17113
편성	-17114
▁갤러	-17115
▁중성	-17116
▁대구에서	-17117
▁포함하여	-17118
▁잔여	-17119
놀이터	-17120
▁돌아갈	-17121
▁위반한	-17122
▁인근의	-17123
▁광장에서	-17124
▁김창	-17125
▁수장	-17126
▁원동	-17127
겠느냐	-17128
상황에	-17129
▁감독과	-17130
▁격차를	-17131
▁뻔하다	-17132
▁운영한	-17133
▁등지에서	-17134
교원	-17135
피고	-17136
하가	-17137
▁길은	-17138
▁원리	-17139
▁표를	-17140
루미늄	-17141
▁드러낸	-17142
▁접근이	-17143
▁동쪽으로	-17144
배송	-17145
▁인가	-17146
▁죄송	-17147
▁최선	-17148
▁권영진	-17149
▁여당인	-17150
▁의장이	-17151
▁지사가	-17152
▁치른다	-17153
▁북쪽으로	-17154
시다	-17155
▁감옥	-17156
▁글이	-17157
센터로	-17158
▁안팎의	-17159
▁업체인	-17160
▁지었다	-17161
▁힘으로	-17162
▁농가소득	-17163
▁완료되면	-17164
▁충북도는	-17165
▁펄	-17166
부패	-17167
▁더한	-17168
▁들면	-17169
▁라는	-17170
▁운운	-17171
▁재건	-17172
연으로	-17173
▁나라는	-17174
▁단계별	-17175
▁발판을	-17176
▁성장해	-17177
▁우려했다	-17178
금고	-17179
▁가기	-17180
▁드리	-17181
▁임재	-17182
▁입문	-17183
▁전도	-17184
주의와	-17185
▁1.6	-17186
▁기록할	-17187
▁서울을	-17188
▁제도로	-17189
▁주요한	-17190
▁중장년	-17191
스크포스	-17192
▁초기에는	-17193
▁회원들이	-17194
▁행사에서는	-17195
노래	-17196
▁공소	-17197
▁덕분	-17198
▁질타	-17199
개사가	-17200
지하철	-17201
▁노력과	-17202
▁생각할	-17203
▁적정성	-17204
▁해외로	-17205
▁여기에는	-17206
▁후보자에	-17207
고양	-17208
▁든든한	-17209
▁재능을	-17210
▁조건이	-17211
▁그리하여	-17212
▁프로그래	-17213
▁선정됐다고	-17214
방어	-17215
▁웅진	-17216
▁품고	-17217
▁과거사	-17218
▁진행을	-17219
자로부터	-17220
▁고래	-17221
▁고생	-17222
▁물건	-17223
▁미야	-17224
▁신의	-17225
▁읽는	-17226
니스탄	-17227
▁고민이	-17228
▁물었다	-17229
▁방송에	-17230
▁수위를	-17231
▁국정감사	-17232
▁도시공원	-17233
▁어렵다고	-17234
내의	-17235
청소	-17236
▁거다	-17237
▁이대	-17238
▁115	-17239
▁270	-17240
▁개발도	-17241
▁노사가	-17242
▁베토벤	-17243
▁소방관	-17244
▁원이다	-17245
▁이웃을	-17246
▁통일부	-17247
▁상황으로	-17248
▁거래금액은	-17249
RC	-17250
순천	-17251
진한	-17252
▁그릇	-17253
▁크레	-17254
교육은	-17255
처분을	-17256
▁광역시	-17257
▁르네상	-17258
▁전시는	-17259
▁주민을	-17260
▁중단을	-17261
▁l	-17262
▁경산	-17263
▁사정	-17264
▁세일	-17265
▁어찌	-17266
▁쾌적	-17267
교육이	-17268
기념관	-17269
이어야	-17270
▁조성한	-17271
▁하기로	-17272
▁협의가	-17273
▁활동과	-17274
▁강조하며	-17275
▁관계자와	-17276
▁매개	-17277
▁삽입	-17278
▁신종	-17279
▁정전	-17280
▁커플	-17281
▁한복	-17282
기능을	-17283
커머스	-17284
▁광고를	-17285
▁인생을	-17286
▁절반을	-17287
▁공동대표	-17288
▁포함되지	-17289
▁형성하고	-17290
▁사은	-17291
▁정면	-17292
▁조류	-17293
▁권역별	-17294
▁뛰었다	-17295
▁대법원은	-17296
▁이벤트는	-17297
▁를	-17298
루의	-17299
병은	-17300
선박	-17301
음과	-17302
차도	-17303
▁모험	-17304
▁용납	-17305
업체와	-17306
▁소련의	-17307
▁1300	-17308
▁감소하는	-17309
▁고려해야	-17310
▁구독하기	-17311
▁일시적으로	-17312
▁조선민주주의인민공화국	-17313
값은	-17314
합동	-17315
▁더는	-17316
▁한껏	-17317
▁관세를	-17318
▁교회의	-17319
▁금감원	-17320
▁무분별한	-17321
널티	-17322
의결	-17323
집이	-17324
(00	-17325
▁세분	-17326
안으로	-17327
중심의	-17328
▁감상할	-17329
▁고혈압	-17330
▁금액이며	-17331
▁올림픽에	-17332
▁넘긴	-17333
▁농지	-17334
▁딸기	-17335
▁투여	-17336
▁힙합	-17337
셀로나	-17338
▁대체할	-17339
▁부부가	-17340
▁요금을	-17341
▁토지를	-17342
▁기여하는	-17343
▁레스토랑	-17344
▁운행하는	-17345
▁중요하지만	-17346
▁최저임금을	-17347
▁정상회담에서	-17348
▁뜯	-17349
겨운	-17350
▁들어오	-17351
▁무게를	-17352
▁살았다	-17353
▁파업에	-17354
▁화웨이	-17355
▁중이라고	-17356
MP	-17357
설에	-17358
▁“‘	-17359
▁부터	-17360
▁삶이	-17361
▁상봉	-17362
▁언덕	-17363
▁오류	-17364
▁의문이	-17365
▁키우기	-17366
▁완료하고	-17367
최대	-17368
ell	-17369
▁적고	-17370
▁조상	-17371
▁개방형	-17372
▁생활에	-17373
▁열정을	-17374
▁왕국의	-17375
▁민간투자	-17376
▁원활하게	-17377
▁지난해와	-17378
TI	-17379
역까지	-17380
▁무죄를	-17381
▁야당은	-17382
▁1966	-17383
▁국가정보	-17384
▁부여하는	-17385
▁공개적으로	-17386
▁시교육청은	-17387
극을	-17388
▁연세	-17389
▁정년	-17390
▁1:1	-17391
▁미술관	-17392
▁민심을	-17393
▁여부와	-17394
▁투자한	-17395
▁정신질환	-17396
▁정상회담이	-17397
승인	-17398
▁동래	-17399
▁반경	-17400
▁영위	-17401
▁주상	-17402
▁지체	-17403
▁건물이	-17404
▁조치다	-17405
▁주민들	-17406
▁동학농민	-17407
묘한	-17408
카의	-17409
▁마다	-17410
▁방콕	-17411
▁소주	-17412
▁원고	-17413
▁매트리스	-17414
감치	-17415
해상	-17416
▁vs	-17417
▁수련	-17418
▁어릴	-17419
▁장인	-17420
▁쿠바	-17421
▁판촉	-17422
▁가속화	-17423
▁국가는	-17424
▁명칭은	-17425
▁자신과	-17426
▁종목들에	-17427
부정	-17428
.18	-17429
▁분의	-17430
▁이양	-17431
▁호르	-17432
계획이	-17433
▁용도로	-17434
▁우위를	-17435
▁홍준표	-17436
▁무시하고	-17437
▁최고경영자	-17438
브로	-17439
우산	-17440
▁타깃	-17441
건에서	-17442
▁230	-17443
▁규제에	-17444
▁믿는다	-17445
▁아픔을	-17446
▁시범운영	-17447
급의	-17448
녹지	-17449
▁마찰	-17450
▁정산	-17451
롬비아	-17452
편으로	-17453
▁분석도	-17454
▁다양하다	-17455
▁저렴하게	-17456
▁전문가의	-17457
▁경품	-17458
▁숨어	-17459
▁저조	-17460
갤럭시	-17461
새마을	-17462
▁거두고	-17463
▁전시를	-17464
▁스코틀랜드	-17465
▁전기자동차	-17466
초가	-17467
혈을	-17468
▁단호	-17469
방식을	-17470
▁건설에	-17471
▁놀라운	-17472
▁위협을	-17473
▁편성해	-17474
위원으로	-17475
산업진흥원	-17476
ev	-17477
▁남을	-17478
▁점거	-17479
조사에	-17480
▁백악관	-17481
▁비하면	-17482
하기에는	-17483
▁관광객을	-17484
▁국내에서는	-17485
▁박은	-17486
▁한의	-17487
조사는	-17488
▁최근에	-17489
▁참가자들은	-17490
▁쿼	-17491
공주	-17492
서원	-17493
▁경호	-17494
▁안중	-17495
▁월화	-17496
▁익숙	-17497
▁치닫	-17498
▁노력에	-17499
▁운동의	-17500
▁중고차	-17501
▁바로가기	-17502
▁수수료를	-17503
▁인터뷰를	-17504
▁질병관리	-17505
▁2,000	-17506
였기	-17507
▁매번	-17508
▁배워	-17509
▁서천	-17510
▁오락	-17511
▁전방	-17512
▁좌파	-17513
▁세우는	-17514
개발사업	-17515
▁최적화된	-17516
가을	-17517
▁맛이	-17518
라이언	-17519
▁이종억	-17520
▁조선대	-17521
▁천연기념	-17522
예금	-17523
▁무척	-17524
▁이글	-17525
▁천재	-17526
ight	-17527
▁발표에	-17528
▁보도에	-17529
▁상품이	-17530
▁일상을	-17531
▁평가하고	-17532
동계올림픽	-17533
티는	-17534
▁군주	-17535
▁딸이	-17536
▁시계	-17537
▁요코	-17538
▁아이의	-17539
▁제시할	-17540
▁관할한다	-17541
▁높아지는	-17542
건전	-17543
상금	-17544
▁심해	-17545
▁추방	-17546
▁손해를	-17547
▁엄중한	-17548
▁평가할	-17549
▁아무것도	-17550
▁화학물질	-17551
ge	-17552
전체	-17553
학이	-17554
▁알기	-17555
솔루션	-17556
▁관계로	-17557
▁말씀을	-17558
▁투자자들의	-17559
▁|	-17560
-10	-17561
▁몰락	-17562
▁점과	-17563
▁캐시	-17564
▁발견한	-17565
맥주	-17566
▁달콤	-17567
▁상반	-17568
▁훈훈	-17569
경기가	-17570
발전은	-17571
▁급속히	-17572
▁비로소	-17573
▁빠르고	-17574
▁승부를	-17575
▁시니어	-17576
▁취지에	-17577
정보보호	-17578
▁문화유산	-17579
▁발생하면	-17580
났을	-17581
등에	-17582
매치	-17583
▁권유	-17584
▁번영	-17585
▁숫자	-17586
▁알뜰	-17587
▁적잖	-17588
▁정문	-17589
▁코레	-17590
▁농도가	-17591
▁작품에	-17592
커뮤니티	-17593
mg	-17594
론과	-17595
실무	-17596
특정	-17597
FTA	-17598
▁믿을	-17599
▁일곱	-17600
▁조망	-17601
▁칭찬	-17602
▁클리	-17603
▁허술	-17604
▁교육생	-17605
▁남양주	-17606
▁분노를	-17607
▁유튜버	-17608
▁복합문화	-17609
▁일자리는	-17610
▁소비자들에게	-17611
▁사우디아라비아	-17612
▁고분	-17613
한국의	-17614
▁긴밀히	-17615
▁정상에	-17616
▁하다가	-17617
▁국민건강	-17618
▁상승주식	-17619
하러	-17620
▁규격	-17621
▁의왕	-17622
국회의	-17623
파트너	-17624
▁4~5	-17625
▁걸맞은	-17626
▁지방에	-17627
▁최우수상	-17628
▁판매량이	-17629
▁칩	-17630
ate	-17631
▁과속	-17632
학교에	-17633
▁인물을	-17634
▁한마당	-17635
▁인정받은	-17636
▁지원금을	-17637
▁해외시장	-17638
ib	-17639
명예	-17640
▁상산	-17641
▁옹호	-17642
▁하청	-17643
지거나	-17644
컴퍼니	-17645
▁교사가	-17646
▁명단에	-17647
▁1600	-17648
▁헐	-17649
동부	-17650
▁버전	-17651
▁법안은	-17652
▁심리적	-17653
▁전역에	-17654
▁생각하면	-17655
▁시너지를	-17656
▁탄력근로제	-17657
▁정보통신기술	-17658
7,	-17659
글라	-17660
선물	-17661
폐합	-17662
▁동백	-17663
▁순찰	-17664
▁헤르	-17665
역세권	-17666
▁음주운	-17667
▁인원이	-17668
▁프레스	-17669
▁해주는	-17670
▁상당수가	-17671
▁신한은행	-17672
▁연료전지	-17673
▁제공하며	-17674
▁지원된다	-17675
▁8,	-17676
▁강풍	-17677
▁개각	-17678
▁에르	-17679
시간기준	-17680
▁1953	-17681
▁구상이다	-17682
▁벌써부터	-17683
▁사업비는	-17684
방울	-17685
분리	-17686
▁습득	-17687
▁강연을	-17688
▁신경을	-17689
▁계획대로	-17690
▁노력으로	-17691
▁서비스도	-17692
▁전기요금	-17693
▁펼쳐졌다	-17694
▁작성시간기준	-17695
단기	-17696
해준	-17697
▁백성	-17698
▁컨셉	-17699
교육에	-17700
▁벗어난	-17701
▁이승만	-17702
▁전북대	-17703
▁지영수	-17704
▁기초연금	-17705
▁자신들이	-17706
고을	-17707
선발	-17708
▁달서	-17709
▁법사	-17710
▁천문	-17711
가에서	-17712
개월이	-17713
▁가문의	-17714
▁가정을	-17715
▁단거리	-17716
▁사태로	-17717
▁함께한	-17718
하였다고	-17719
▁발견했다	-17720
▁방안으로	-17721
터의	-17722
틀을	-17723
▁CD	-17724
▁빅토	-17725
월에도	-17726
찌감치	-17727
▁시간당	-17728
▁요소가	-17729
▁인사는	-17730
▁확대가	-17731
▁유도하는	-17732
VE	-17733
동시	-17734
야를	-17735
천면	-17736
ice	-17737
▁교직	-17738
▁슈팅	-17739
▁찍어	-17740
▁가처분	-17741
▁감소할	-17742
▁성균관	-17743
대학교가	-17744
파크에서	-17745
.0%),	-17746
▁내부에서	-17747
코의	-17748
▁우유	-17749
▁칠곡	-17750
마리를	-17751
▁가볍게	-17752
▁개발할	-17753
▁고령자	-17754
▁낮추는	-17755
▁오스만	-17756
지방경찰	-17757
▁경제부총리	-17758
▁ᄀ	-17759
▁신탁	-17760
▁실수	-17761
▁지형	-17762
주의가	-17763
회사로	-17764
▁경험할	-17765
▁논란의	-17766
▁달성군	-17767
▁됐으면	-17768
▁성과로	-17769
▁후보지	-17770
▁대한민국에서는	-17771
▁톰	-17772
▁만끽	-17773
▁보탬	-17774
▁위상	-17775
▁파헤	-17776
해준다	-17777
▁거기에	-17778
▁사실에	-17779
▁최근의	-17780
6,	-17781
마에	-17782
스틴	-17783
한지	-17784
.25	-17785
▁넷플	-17786
▁서훈	-17787
▁안병	-17788
▁나서서	-17789
▁도약을	-17790
▁이론을	-17791
리던	-17792
▁읽어	-17793
이겠다	-17794
▁일반인	-17795
▁확산에	-17796
소상공인	-17797
아일랜드	-17798
▁남아있는	-17799
▁대기업과	-17800
소개	-17801
용의	-17802
학급	-17803
▁길게	-17804
▁세미	-17805
▁정현	-17806
다문화	-17807
▁건수가	-17808
▁끝나면	-17809
▁미흡한	-17810
▁역사는	-17811
헬스케어	-17812
▁근로자가	-17813
모와	-17814
정착	-17815
▁환상	-17816
게이트	-17817
▁물질을	-17818
▁방문할	-17819
▁시설은	-17820
▁없어야	-17821
▁전쟁에	-17822
▁파악할	-17823
▁장기적인	-17824
국도	-17825
희의	-17826
▁"2	-17827
▁가문	-17828
▁김규	-17829
조사가	-17830
▁설치가	-17831
▁외국어	-17832
오로	-17833
의식	-17834
제이	-17835
▁초당	-17836
▁특급	-17837
▁협정	-17838
장치를	-17839
▁시설과	-17840
▁시즌에	-17841
▁진료를	-17842
▁총장이	-17843
▁태극기	-17844
▁남아있다	-17845
▁부합하는	-17846
▁비상저감	-17847
▁스타디움	-17848
▁정상화를	-17849
▁후쿠오카	-17850
부두	-17851
위다	-17852
▁위키	-17853
문제가	-17854
▁비주얼	-17855
▁생긴다	-17856
▁즐기고	-17857
▁페널티	-17858
▁모양이다	-17859
▁부장판사	-17860
▁서쪽으로	-17861
▁까지	-17862
▁미네	-17863
년마다	-17864
▁외에는	-17865
▁활용될	-17866
▁6·25	-17867
▁기준금리를	-17868
독한	-17869
소독	-17870
▁연산	-17871
▁윤종	-17872
▁존경	-17873
▁특사	-17874
▁헤드	-17875
▁아쉬운	-17876
▁추경예산	-17877
▁냉각	-17878
▁병사	-17879
▁부러	-17880
▁질적	-17881
▁코딩	-17882
▁등급을	-17883
▁펼쳐질	-17884
▁언급하며	-17885
▁연결되는	-17886
분류	-17887
▁뜨거	-17888
▁박주	-17889
▁상회	-17890
▁정우	-17891
▁학위	-17892
리조트	-17893
학부모	-17894
▁드러내	-17895
▁자산을	-17896
적이라는	-17897
▁경제활동	-17898
▁더불어민주당과	-17899
마토	-17900
반은	-17901
텍스	-17902
▁여왕	-17903
▁재계	-17904
▁주신	-17905
▁화산	-17906
성에서	-17907
▁못했다는	-17908
▁반영하는	-17909
▁소속으로	-17910
▁지자체에	-17911
살인	-17912
치아	-17913
▁장교	-17914
회사인	-17915
▁메이지	-17916
▁부모가	-17917
▁소재한	-17918
▁지리적	-17919
▁태화강	-17920
▁판단한	-17921
강남	-17922
숭아	-17923
전투	-17924
취소	-17925
▁노스	-17926
▁에서	-17927
어에서	-17928
▁전방위	-17929
▁좋았다	-17930
▁챌린지	-17931
▁획득한	-17932
▁정상적으로	-17933
에미	-17934
▁발자	-17935
▁인형	-17936
▁장담	-17937
재건축	-17938
제조업	-17939
▁개신교	-17940
▁부르고	-17941
▁잇따르고	-17942
▁테마파크	-17943
사과	-17944
틱스	-17945
▁기둥	-17946
▁나지	-17947
▁발산	-17948
▁심야	-17949
▁기관을	-17950
▁성과는	-17951
▁유공자	-17952
▁농림축산식품부	-17953
신호	-17954
▁CU	-17955
▁밑돌	-17956
▁살포	-17957
▁열흘	-17958
▁학부	-17959
레스트	-17960
▁다졌다	-17961
▁법원에	-17962
▁연구와	-17963
▁주민은	-17964
▁1800	-17965
▁하였으며	-17966
곳과	-17967
규정	-17968
네트	-17969
록을	-17970
배추	-17971
연결	-17972
영민	-17973
측의	-17974
헬스	-17975
▁극우	-17976
▁망명	-17977
▁불복	-17978
▁초중	-17979
▁거듭날	-17980
▁관리와	-17981
▁기간제	-17982
▁늘었고	-17983
▁설명할	-17984
▁다운로드	-17985
▁방법이다	-17986
▁상태였다	-17987
▁예상되고	-17988
▁자발적인	-17989
▁추진하기	-17990
PE	-17991
▁이력	-17992
▁총무	-17993
▁보행자	-17994
▁수상자	-17995
▁압력을	-17996
▁임명을	-17997
▁재정을	-17998
▁전북은	-17999
▁주니어	-18000
▁보호하고	-18001
▁안전성을	-18002
속도	-18003
작전	-18004
쳤던	-18005
클린	-18006
▁저가	-18007
공원과	-18008
밀착형	-18009
▁보장하는	-18010
▁획기적인	-18011
타의	-18012
사회에	-18013
여행을	-18014
올해는	-18015
▁MVP	-18016
▁시그니	-18017
▁예방과	-18018
▁조정을	-18019
▁충북의	-18020
▁구축했다	-18021
▁주변에서	-18022
▁지역균형발전	-18023
과세	-18024
무기	-18025
무늬	-18026
불을	-18027
처에	-18028
(?)	-18029
▁경인	-18030
▁서두	-18031
▁자초	-18032
▁공정위	-18033
▁머물러	-18034
▁없어서	-18035
▁의도가	-18036
▁설명한다	-18037
▁성장률을	-18038
▁인프라가	-18039
▁파키스탄	-18040
원으로부터	-18041
더는	-18042
신보	-18043
이든	-18044
있던	-18045
▁오인	-18046
▁칠레	-18047
협의회가	-18048
▁건강하고	-18049
▁농산물을	-18050
▁반대하고	-18051
▁올해에는	-18052
▁최고치를	-18053
▁해당된다	-18054
국방	-18055
불가	-18056
퇴직	-18057
▁김미	-18058
▁레인	-18059
▁버디	-18060
▁생리	-18061
▁출현	-18062
▁토너	-18063
운동과	-18064
회사를	-18065
▁LTE	-18066
▁물품을	-18067
▁축산물	-18068
▁품목을	-18069
▁협주곡	-18070
▁국회의원이	-18071
개입	-18072
경보	-18073
군민	-18074
메르	-18075
와도	-18076
▁광교	-18077
▁눈물	-18078
▁빛의	-18079
▁WTO	-18080
▁변화의	-18081
▁전략이	-18082
▁사회적기업	-18083
소생	-18084
출신	-18085
▁굳건	-18086
▁만다	-18087
▁팔을	-18088
▁108	-18089
▁표현했다	-18090
▁홈플러스	-18091
▁이유에서다	-18092
▁솔직	-18093
▁풍요	-18094
협회장	-18095
▁가구를	-18096
▁사안에	-18097
▁상무는	-18098
▁치렀다	-18099
~2018	-18100
구제	-18101
연주	-18102
주변	-18103
▁골라	-18104
▁심층	-18105
▁유착	-18106
▁이온	-18107
▁인체	-18108
▁촉매	-18109
▁한빛	-18110
▁규정한	-18111
▁도덕적	-18112
▁1954	-18113
▁부산지역	-18114
▁시중은행	-18115
화합	-18116
▁몰라	-18117
▁서경	-18118
▁쓴다	-18119
▁후진	-18120
인데도	-18121
▁존재를	-18122
▁특단의	-18123
▁인정했다	-18124
▁햄	-18125
량도	-18126
▁미투	-18127
▁전매	-18128
▁환기	-18129
도시를	-18130
▁미추홀	-18131
▁우연히	-18132
▁조사와	-18133
▁과태료를	-18134
▁그곳에서	-18135
▁도입하는	-18136
▁매력적인	-18137
▁편의성을	-18138
AC	-18139
티스	-18140
▁거둬	-18141
▁공학	-18142
▁기분	-18143
▁비건	-18144
▁장미	-18145
▁저는	-18146
▁티저	-18147
회의가	-18148
▁면적이	-18149
▁분양을	-18150
▁이행을	-18151
▁저작권	-18152
▁나타내고	-18153
▁생산하고	-18154
▁지급하고	-18155
득점	-18156
▁AP	-18157
클래스	-18158
▁마당에	-18159
▁얼어붙	-18160
▁요구할	-18161
▁표했다	-18162
▁구매하는	-18163
▁n	-18164
골목	-18165
로써	-18166
롭다	-18167
▁납치	-18168
▁한인	-18169
이었고	-18170
▁실거래	-18171
▁떠올랐다	-18172
BI	-18173
HE	-18174
협을	-18175
▁관철	-18176
▁회고	-18177
제도가	-18178
▁그녀가	-18179
▁불렸다	-18180
▁화성시	-18181
▁증가했고	-18182
▁패러다임	-18183
▁히로시마	-18184
심의위원회	-18185
▁대한민국에서	-18186
▁영덕	-18187
▁전폭	-18188
▁파는	-18189
▁경영을	-18190
▁사태에	-18191
▁거부하고	-18192
▁희망한다	-18193
▁중화인민공화	-18194
▁쌓은	-18195
▁해발	-18196
▁형상	-18197
연수원	-18198
▁발굴과	-18199
▁방사선	-18200
▁용인시	-18201
▁저조한	-18202
▁치료가	-18203
▁카자흐스탄	-18204
번이	-18205
였을	-18206
천을	-18207
▁개가	-18208
▁이희	-18209
문화가	-18210
▁읍면동	-18211
▁증거를	-18212
▁차질을	-18213
▁국민체육	-18214
▁끄	-18215
복구	-18216
운행	-18217
처음	-18218
클로	-18219
▁라돈	-18220
▁마라	-18221
▁40.	-18222
▁도입에	-18223
▁세대를	-18224
▁요청할	-18225
터테인먼	-18226
▁광주광역	-18227
▁기준금리	-18228
·6	-18229
▁뚝	-18230
미르	-18231
암동	-18232
▁건에	-18233
▁년에	-18234
▁시외	-18235
▁공감대	-18236
▁일정에	-18237
▁제주를	-18238
▁크로아	-18239
▁관계기관	-18240
▁KAIST	-18241
들만	-18242
신에	-18243
지길	-18244
하키	-18245
~40	-18246
▁꺾고	-18247
▁분수	-18248
▁상류	-18249
▁210	-18250
▁서해안	-18251
▁송하진	-18252
▁자리로	-18253
▁파격적인	-18254
▁공공기관이	-18255
▁이탈리아의	-18256
ASF	-18257
ess	-18258
▁내로	-18259
▁연고	-18260
▁유병	-18261
베리아	-18262
지사의	-18263
층에는	-18264
▁OST	-18265
▁개정된	-18266
▁도시락	-18267
▁서둘러야	-18268
의약품안전	-18269
TT	-18270
오일	-18271
정류	-18272
▁걷어	-18273
▁정류	-18274
변화에	-18275
▁연결된	-18276
▁우수상	-18277
경관	-18278
업자	-18279
태정	-18280
▁"5	-18281
▁강은	-18282
▁씨와	-18283
▁왕국	-18284
▁토끼	-18285
▁통장	-18286
▁감성을	-18287
▁괴롭힘	-18288
▁나갔다	-18289
▁수년간	-18290
▁인연을	-18291
▁장소에	-18292
▁지하수	-18293
▁협상의	-18294
▁1956	-18295
▁진상규명	-18296
▁룰	-18297
라피	-18298
▁사학	-18299
▁용기	-18300
▁유혹	-18301
▁전범	-18302
▁헌정	-18303
마니아	-18304
카드는	-18305
▁돕는다	-18306
▁상호작용	-18307
개방	-18308
권리	-18309
▁라운	-18310
▁매몰	-18311
▁방학	-18312
▁진동	-18313
▁후인	-18314
▁가지가	-18315
▁목적은	-18316
▁협력이	-18317
▁부회장이	-18318
국적	-18319
▁고작	-18320
▁낭만	-18321
▁어선	-18322
▁우세	-18323
▁차장	-18324
▁친선	-18325
개혁을	-18326
지구는	-18327
▁국경을	-18328
▁그치고	-18329
▁남녀노	-18330
▁가족들이	-18331
▁보이지만	-18332
▁’	-18333
병의	-18334
아들	-18335
ant	-18336
▁법학	-18337
▁안철수	-18338
▁차별화	-18339
▁책임은	-18340
▁투쟁을	-18341
코리아는	-18342
▁어울리는	-18343
▁스마트폰을	-18344
더러	-18345
지마	-18346
▁김유	-18347
▁면치	-18348
▁주역	-18349
▁소비가	-18350
▁양극화	-18351
▁자녀가	-18352
▁증거가	-18353
9,	-18354
벽이	-18355
특허	-18356
▁간절	-18357
▁노골	-18358
▁딸의	-18359
▁재지정	-18360
▁행정의	-18361
곡동	-18362
▁교량	-18363
▁교정	-18364
▁배구	-18365
▁장마	-18366
▁추대	-18367
▁75%	-18368
▁그것도	-18369
▁이견이	-18370
수산식품	-18371
▁중단하고	-18372
▁폭발적인	-18373
▁선고받았다	-18374
▁어린이들이	-18375
수성	-18376
▁염색	-18377
공원은	-18378
교육원	-18379
지원금	-18380
▁갤러리	-18381
▁되겠다	-18382
▁이용을	-18383
▁반영하고	-18384
▁정도였다	-18385
▁받아들이지	-18386
▁코스닥시장	-18387
HA	-18388
인조	-18389
▁감자	-18390
▁거치지	-18391
▁김경수	-18392
▁바꿨다	-18393
▁일으킬	-18394
▁임시국	-18395
자유한국당	-18396
무실	-18397
업과	-18398
▁불허	-18399
▁성찰	-18400
▁적게	-18401
▁필터	-18402
집에서	-18403
▁남기고	-18404
▁연결해	-18405
연료전지	-18406
▁실천하는	-18407
▁대학교에서	-18408
LL	-18409
▁낙태	-18410
▁박승	-18411
▁숨은	-18412
▁스탈	-18413
▁국제선	-18414
▁넘겼다	-18415
▁생산과	-18416
▁역할은	-18417
▁영상이	-18418
▁주최로	-18419
▁배출가스	-18420
▁포인트를	-18421
▁껍	-18422
강제	-18423
중단	-18424
▁겪어	-18425
▁겹쳐	-18426
▁당이	-18427
▁뮌헨	-18428
▁수평	-18429
▁진안	-18430
▁사안을	-18431
▁우려의	-18432
▁창의적	-18433
▁투자할	-18434
▁우려하는	-18435
▁전환하는	-18436
▁갤럭시노트	-18437
▁국민들에게	-18438
군청	-18439
김치	-18440
세무	-18441
▁급성	-18442
▁다방	-18443
▁부흥	-18444
▁연임	-18445
▁인디	-18446
드래곤	-18447
수당을	-18448
▁고성능	-18449
▁바다를	-18450
▁버스를	-18451
▁삼성의	-18452
진흥공단	-18453
▁기념하는	-18454
그림	-18455
재와	-18456
▁취한	-18457
▁박수를	-18458
▁부부의	-18459
▁손실이	-18460
▁순위를	-18461
▁여기는	-18462
▁흐름이	-18463
▁못하면서	-18464
▁인명피해	-18465
▁현장실습	-18466
▁바람직하지	-18467
짐에	-18468
플로	-18469
▁수중	-18470
▁필기	-18471
사항에	-18472
▁촬영한	-18473
▁흐름에	-18474
▁격려했다	-18475
▁선물세트	-18476
▁일찌감치	-18477
▁한국은행이	-18478
천연	-18479
▁편지	-18480
▁폭락	-18481
▁메이크	-18482
▁부산을	-18483
▁의문을	-18484
▁전원이	-18485
▁전환이	-18486
▁자이언츠	-18487
▁최소화할	-18488
용은	-18489
▁공휴	-18490
▁미혼	-18491
▁정영	-18492
전자가	-18493
▁귀추가	-18494
▁현수막	-18495
▁연구기관	-18496
워터	-18497
혜원	-18498
▁깔끔	-18499
▁동굴	-18500
▁물결	-18501
▁슬픔	-18502
▁자의	-18503
리스타	-18504
▁부사장	-18505
▁운전면허	-18506
▁자격으로	-18507
▁컨퍼런스	-18508
년경	-18509
블리	-18510
질로	-18511
▁간이	-18512
▁길로	-18513
▁다녔	-18514
▁봉쇄	-18515
▁사옥	-18516
▁취해	-18517
▁공부를	-18518
▁높인다	-18519
▁접근할	-18520
▁희생자	-18521
▁걱정이다	-18522
▁받으면서	-18523
▁시점이다	-18524
▁지역아동	-18525
▁법의	-18526
▁얻지	-18527
▁저술	-18528
▁현의	-18529
까지만	-18530
▁교장은	-18531
▁대전은	-18532
▁바뀌는	-18533
▁예산의	-18534
▁행사다	-18535
▁공격적인	-18536
▁명예훼손	-18537
▁사람으로	-18538
▁책임지는	-18539
▁설문조사를	-18540
▁현대백화점	-18541
갔고	-18542
담한	-18543
벌을	-18544
프스	-18545
휴가	-18546
▁낮고	-18547
▁대접	-18548
거리에	-18549
케이블	-18550
▁드루킹	-18551
▁전년동기	-18552
▁발표하였다	-18553
ml	-18554
월로	-18555
채무	-18556
▁망언	-18557
▁홍삼	-18558
카카오	-18559
▁128	-18560
▁메시지	-18561
▁1952	-18562
▁급증하고	-18563
▁민간택지	-18564
▁시대에는	-18565
▁금융감독원	-18566
꾸로	-18567
뉴딜	-18568
단독	-18569
▁맞을	-18570
▁방화	-18571
▁삼척	-18572
▁이호	-18573
▁후폭	-18574
▁가져야	-18575
시민들의	-18576
▁참가한다	-18577
▁9,	-18578
▁구석	-18579
▁모멘	-18580
▁모토	-18581
▁쓰기	-18582
▁명의로	-18583
▁반면에	-18584
MR	-18585
IMF	-18586
▁듀얼	-18587
▁빚고	-18588
▁그리스의	-18589
▁성장률이	-18590
▁심각성을	-18591
만개	-18592
쿠르	-18593
▁개개	-18594
▁거센	-18595
▁그랜	-18596
▁그친	-18597
▁민사	-18598
▁의무가	-18599
▁전남은	-18600
▁지급할	-18601
▁지방의회	-18602
민속	-18603
영양	-18604
우선	-18605
4·3	-18606
▁“(	-18607
▁귀가	-18608
▁대미	-18609
▁이가	-18610
국민의	-18611
상태에	-18612
▁방식에	-18613
▁적용될	-18614
▁중단된	-18615
대변인은	-18616
▁통과했다	-18617
김종	-18618
댄스	-18619
차관	-18620
▁시집	-18621
▁신협	-18622
▁주범	-18623
▁피난	-18624
▁학급	-18625
▁걸림돌	-18626
▁세대가	-18627
▁정도는	-18628
▁활기를	-18629
▁수행한다	-18630
▁시리즈의	-18631
▁역사문화	-18632
호수	-18633
▁법관	-18634
▁왔던	-18635
▁퇴근	-18636
궐선거	-18637
▁330	-18638
▁계속될	-18639
▁논문을	-18640
▁이동이	-18641
▁협업해	-18642
기능식품	-18643
바이러스	-18644
▁보호하는	-18645
▁사라지고	-18646
르바	-18647
▁재즈	-18648
▁0.4%	-18649
▁발견되었다	-18650
▁직접적으로	-18651
강은	-18652
우로	-18653
진천	-18654
▁낮게	-18655
▁불렀	-18656
▁양수	-18657
▁없었	-18658
났다는	-18659
이러한	-18660
폐소생	-18661
▁사우디	-18662
▁아동의	-18663
▁왔으며	-18664
▁장학생	-18665
▁행사의	-18666
▁향하는	-18667
▁1910	-18668
▁안전점검	-18669
▁우리은행	-18670
▁추진됐다	-18671
재천	-18672
참모	-18673
▁경희	-18674
▁레벨	-18675
당으로	-18676
쇼핑몰	-18677
▁강화한	-18678
▁부스를	-18679
▁준공을	-18680
▁청나라	-18681
이었다고	-18682
-9	-18683
서양	-18684
장수	-18685
축을	-18686
▁우량	-18687
▁진척	-18688
▁쿠팡	-18689
생활에	-18690
▁게스트	-18691
▁면적의	-18692
▁정보와	-18693
▁통과를	-18694
▁기다리는	-18695
▁센터장은	-18696
개최	-18697
받기	-18698
배구	-18699
▁스킨	-18700
자와의	-18701
▁사태의	-18702
▁주변을	-18703
▁쾌거를	-18704
▁신용등급	-18705
▁아쉬움을	-18706
nd	-18707
전라	-18708
직은	-18709
▁남짓	-18710
▁일깨	-18711
직으로	-18712
학교의	-18713
▁되어야	-18714
▁무너뜨	-18715
▁밀레니	-18716
▁사회로	-18717
▁추천을	-18718
크래프트	-18719
테마파크	-18720
▁존재감을	-18721
▁어르신들의	-18722
▁의무적으로	-18723
▁중소기업에	-18724
잖아	-18725
▁깨고	-18726
▁마산	-18727
▁상여	-18728
▁수제	-18729
▁우라	-18730
▁원년	-18731
소송을	-18732
▁연락을	-18733
▁유기농	-18734
▁중소형	-18735
▁공장에서	-18736
▁광범위한	-18737
▁무상으로	-18738
센서	-18739
카를	-18740
해충	-18741
환의	-18742
▁챙기	-18743
▁최연	-18744
▁헨리	-18745
▁홍역	-18746
▁경제와	-18747
▁공공성	-18748
▁우체국	-18749
▁자신은	-18750
▁공연으로	-18751
▁부분이다	-18752
▁부사장은	-18753
교장	-18754
▁구본	-18755
▁펠리	-18756
▁품격	-18757
병원에	-18758
의료원	-18759
▁공개할	-18760
▁발표는	-18761
▁플로리다	-18762
▁솟	-18763
펌프	-18764
▁해법	-18765
▁따르는	-18766
▁보고를	-18767
[...]
