<pad>	0
<unk>	0
<s>	0
</s>	0
▁t	-0
he	-1
▁a	-2
in	-3
▁the	-4
er	-5
on	-6
▁s	-7
▁,	-8
ed	-9
▁w	-10
▁.	-11
re	-12
▁o	-13
nd	-14
at	-15
▁c	-16
▁b	-17
▁f	-18
it	-19
or	-20
en	-21
is	-22
ing	-23
ar	-24
es	-25
an	-26
▁of	-27
▁in	-28
al	-29
ou	-30
as	-31
▁p	-32
▁h	-33
▁and	-34
▁m	-35
▁to	-36
▁d	-37
ic	-38
le	-39
ro	-40
ion	-41
▁'	-42
▁th	-43
▁he	-44
▁n	-45
▁l	-46
▁T	-47
▁re	-48
il	-49
▁e	-50
ent	-51
st	-52
el	-53
▁=	-54
▁S	-55
om	-56
ad	-57
▁was	-58
▁A	-59
ac	-60
▁"	-61
▁g	-62
▁1	-63
am	-64
▁be	-65
id	-66
ly	-67
▁on	-68
▁C	-69
im	-70
▁@	-71
ur	-72
ut	-73
ot	-74
ir	-75
▁M	-76
ow	-77
▁for	-78
ig	-79
et	-80
ver	-81
ve	-82
ol	-83
▁as	-84
▁B	-85
▁st	-86
▁The	-87
ay	-88
ith	-89
ter	-90
us	-91
ct	-92
▁that	-93
▁I	-94
▁with	-95
-@	-96
▁@-@	-97
▁wh	-98
▁H	-99
ce	-100
▁his	-101
▁it	-102
ch	-103
ation	-104
un	-105
▁2	-106
▁P	-107
▁her	-108
▁al	-109
▁at	-110
▁r	-111
ul	-112
▁R	-113
▁an	-114
th	-115
and	-116
▁D	-117
▁y	-118
her	-119
▁is	-120
▁by	-121
▁con	-122
ain	-123
os	-124
ld	-125
ri	-126
▁W	-127
▁F	-128
▁se	-129
rom	-130
em	-131
▁L	-132
▁she	-133
▁)	-134
▁(	-135
ag	-136
▁i	-137
▁G	-138
ers	-139
um	-140
▁N	-141
od	-142
est	-143
▁19	-144
▁de	-145
igh	-146
pp	-147
▁from	-148
▁J	-149
00	-150
ak	-151
▁com	-152
▁E	-153
ist	-154
ill	-155
▁''	-156
▁`	-157
▁``	-158
▁k	-159
ant	-160
ore	-161
▁had	-162
▁v	-163
ere	-164
gh	-165
▁su	-166
▁sh	-167
▁pro	-168
ew	-169
if	-170
op	-171
ard	-172
▁O	-173
art	-174
res	-175
ab	-176
iv	-177
▁you	-178
all	-179
▁were	-180
ap	-181
▁ch	-182
ate	-183
se	-184
ould	-185
ort	-186
▁ex	-187
ack	-188
ies	-189
qu	-190
ong	-191
ber	-192
ess	-193
oc	-194
ich	-195
ear	-196
ough	-197
▁le	-198
▁In	-199
ight	-200
▁or	-201
▁u	-202
▁pl	-203
▁not	-204
our	-205
▁ha	-206
ud	-207
ame	-208
▁but	-209
ated	-210
pe	-211
ast	-212
ive	-213
ity	-214
ust	-215
ound	-216
ell	-217
ip	-218
out	-219
▁K	-220
▁ar	-221
ment	-222
ok	-223
ally	-224
▁tr	-225
ge	-226
▁j	-227
▁are	-228
▁U	-229
▁him	-230
▁whe	-231
av	-232
▁which	-233
pt	-234
▁St	-235
ost	-236
▁int	-237
ine	-238
ian	-239
ord	-240
▁un	-241
ie	-242
ia	-243
ous	-244
ide	-245
▁ab	-246
ther	-247
▁cl	-248
hed	-249
▁me	-250
▁have	-251
ary	-252
cl	-253
ra	-254
rit	-255
▁out	-256
fter	-257
nt	-258
ction	-259
ome	-260
ff	-261
▁3	-262
ure	-263
▁fir	-264
▁up	-265
▁this	-266
cc	-267
▁go	-268
▁do	-269
ish	-270
▁Ch	-271
▁comp	-272
▁all	-273
own	-274
▁cont	-275
▁one	-276
ke	-277
ry	-278
▁their	-279
ial	-280
▁tw	-281
▁ag	-282
ime	-283
ass	-284
▁ne	-285
▁200	-286
ue	-287
▁V	-288
per	-289
▁wor	-290
▁first	-291
ond	-292
te	-293
so	-294
▁been	-295
ru	-296
▁would	-297
▁ad	-298
ign	-299
▁ro	-300
▁who	-301
▁us	-302
ire	-303
age	-304
▁sa	-305
ub	-306
one	-307
ind	-308
ile	-309
▁;	-310
▁over	-311
ater	-312
og	-313
ace	-314
ice	-315
▁20	-316
orm	-317
▁we	-318
▁so	-319
ition	-320
▁they	-321
▁?	-322
pl	-323
▁its	-324
ical	-325
▁sc	-326
are	-327
ov	-328
ely	-329
act	-330
▁–	-331
▁into	-332
▁:	-333
▁off	-334
▁also	-335
▁res	-336
▁per	-337
mer	-338
▁He	-339
ance	-340
▁bec	-341
▁en	-342
ans	-343
▁kn	-344
iz	-345
ook	-346
▁man	-347
ree	-348
uc	-349
▁my	-350
▁two	-351
▁gr	-352
▁when	-353
▁te	-354
ick	-355
ach	-356
ence	-357
▁4	-358
ake	-359
ll	-360
▁dis	-361
▁time	-362
▁after	-363
▁part	-364
▁app	-365
ade	-366
▁rec	-367
ress	-368
ect	-369
ult	-370
oll	-371
▁sp	-372
▁Th	-373
▁5	-374
▁ev	-375
urn	-376
▁des	-377
▁has	-378
▁18	-379
wn	-380
▁other	-381
ark	-382
▁im	-383
▁year	-384
▁ser	-385
way	-386
.@	-387
▁@.@	-388
uring	-389
ib	-390
ory	-391
ations	-392
▁more	-393
▁about	-394
ep	-395
ted	-396
nder	-397
,@	-398
▁@,@	-399
▁play	-400
▁201	-401
▁did	-402
▁It	-403
ang	-404
ens	-405
ward	-406
ite	-407
able	-408
▁again	-409
▁fe	-410
clud	-411
▁pre	-412
ions	-413
we	-414
land	-415
ove	-416
rough	-417
▁li	-418
ount	-419
▁could	-420
▁them	-421
oin	-422
ng	-423
iss	-424
▁said	-425
anc	-426
ose	-427
ne	-428
▁back	-429
ft	-430
old	-431
ase	-432
ail	-433
▁work	-434
▁fl	-435
▁Y	-436
ied	-437
aus	-438
ings	-439
oy	-440
vers	-441
▁includ	-442
▁bet	-443
man	-444
▁att	-445
▁spe	-446
ious	-447
reat	-448
ood	-449
ict	-450
ered	-451
▁than	-452
very	-453
▁inter	-454
ited	-455
▁only	-456
▁no	-457
fore	-458
▁there	-459
▁Se	-460
ild	-461
ased	-462
▁what	-463
ved	-464
amp	-465
ason	-466
ates	-467
▁qu	-468
▁co	-469
ors	-470
▁6	-471
▁Un	-472
▁sec	-473
les	-474
▁then	-475
▁new	-476
▁comm	-477
▁rem	-478
ilm	-479
form	-480
▁pr	-481
att	-482
port	-483
fer	-484
▁bl	-485
▁Ar	-486
ked	-487
▁through	-488
oth	-489
▁fin	-490
▁7	-491
ath	-492
▁some	-493
ss	-494
vel	-495
gan	-496
ron	-497
▁before	-498
▁under	-499
▁Re	-500
ks	-501
ug	-502
▁any	-503
▁can	-504
▁ear	-505
▁Al	-506
▁made	-507
end	-508
ween	-509
elf	-510
rib	-511
ts	-512
led	-513
▁most	-514
ix	-515
▁sm	-516
ning	-517
▁like	-518
ents	-519
▁if	-520
ons	-521
▁film	-522
outh	-523
▁day	-524
▁cons	-525
▁rel	-526
ollow	-527
hip	-528
▁8	-529
▁where	-530
als	-531
▁just	-532
other	-533
▁between	-534
▁while	-535
▁Mar	-536
ican	-537
▁during	-538
▁ret	-539
aw	-540
ob	-541
▁want	-542
ubl	-543
▁end	-544
▁char	-545
▁later	-546
▁game	-547
▁down	-548
▁three	-549
▁9	-550
▁ac	-551
▁De	-552
▁am	-553
▁pe	-554
red	-555
▁On	-556
▁pos	-557
ather	-558
ily	-559
▁199	-560
▁hand	-561
cted	-562
ating	-563
ife	-564
▁how	-565
▁cent	-566
▁call	-567
orth	-568
▁look	-569
ton	-570
▁song	-571
▁ass	-572
▁rele	-573
▁prod	-574
ting	-575
ational	-576
iew	-577
▁New	-578
▁br	-579
ause	-580
▁though	-581
▁bu	-582
tern	-583
▁acc	-584
▁act	-585
▁sl	-586
▁second	-587
▁num	-588
▁against	-589
hing	-590
hes	-591
ph	-592
ics	-593
ren	-594
▁being	-595
ular	-596
ished	-597
enc	-598
▁sur	-599
▁def	-600
▁inc	-601
ink	-602
▁Le	-603
▁00	-604
▁sub	-605
▁dec	-606
▁reg	-607
ral	-608
ever	-609
au	-610
▁car	-611
▁season	-612
ters	-613
▁well	-614
▁head	-615
ision	-616
▁follow	-617
ful	-618
▁long	-619
▁ele	-620
ock	-621
▁ent	-622
oh	-623
ave	-624
▁em	-625
▁four	-626
ained	-627
▁Amer	-628
▁years	-629
▁such	-630
▁ind	-631
ener	-632
▁mus	-633
ames	-634
▁form	-635
air	-636
▁op	-637
aking	-638
▁Com	-639
iel	-640
ince	-641
ual	-642
son	-643
ool	-644
ember	-645
▁supp	-646
▁record	-647
▁around	-648
ise	-649
row	-650
▁col	-651
▁spec	-652
gr	-653
hen	-654
oun	-655
ific	-656
io	-657
▁set	-658
pr	-659
▁used	-660
▁show	-661
▁lar	-662
ident	-663
▁writ	-664
bum	-665
az	-666
▁ep	-667
▁sy	-668
mber	-669
ten	-670
▁000	-671
orn	-672
▁team	-673
ale	-674
▁min	-675
▁inv	-676
▁high	-677
▁both	-678
▁now	-679
▁add	-680
uch	-681
self	-682
oup	-683
ised	-684
▁As	-685
▁loc	-686
▁get	-687
pped	-688
ower	-689
ode	-690
▁10	-691
▁found	-692
..	-693
▁bro	-694
▁At	-695
ury	-696
▁arm	-697
▁Sh	-698
▁This	-699
cept	-700
▁mon	-701
ier	-702
ah	-703
▁sever	-704
▁...	-705
▁pres	-706
▁publ	-707
ross	-708
▁even	-709
▁air	-710
▁album	-711
▁inst	-712
ouse	-713
▁war	-714
ving	-715
▁/	-716
ty	-717
ived	-718
ened	-719
▁ey	-720
ck	-721
aj	-722
▁mar	-723
til	-724
velop	-725
▁because	-726
▁mat	-727
iet	-728
▁lead	-729
▁epis	-730
▁number	-731
▁An	-732
ork	-733
ven	-734
▁know	-735
▁turn	-736
▁sing	-737
erm	-738
iver	-739
▁own	-740
▁0	-741
ually	-742
▁way	-743
▁bel	-744
▁became	-745
▁gu	-746
▁17	-747
▁met	-748
▁until	-749
▁took	-750
▁ph	-751
ank	-752
ert	-753
▁charac	-754
omet	-755
▁After	-756
▁appear	-757
▁cap	-758
rop	-759
ann	-760
▁perform	-761
▁will	-762
ject	-763
ures	-764
ced	-765
igin	-766
▁Brit	-767
ull	-768
▁including	-769
▁ins	-770
▁mov	-771
its	-772
▁Sc	-773
vern	-774
tle	-775
▁Be	-776
▁dif	-777
der	-778
▁start	-779
up	-780
ople	-781
olog	-782
any	-783
▁ob	-784
erson	-785
xt	-786
▁cre	-787
ried	-788
▁str	-789
▁—	-790
▁contin	-791
▁many	-792
▁your	-793
▁198	-794
▁main	-795
ines	-796
▁dire	-797
▁United	-798
▁Joh	-799
▁exp	-800
ober	-801
▁right	-802
▁imp	-803
▁comple	-804
▁series	-805
▁15	-806
ley	-807
▁several	-808
▁Con	-809
▁12	-810
▁every	-811
ized	-812
▁may	-813
▁stud	-814
ities	-815
ird	-816
▁run	-817
▁much	-818
▁She	-819
oot	-820
▁ke	-821
▁Wh	-822
osed	-823
ued	-824
▁pol	-825
ange	-826
▁fam	-827
▁known	-828
▁began	-829
▁life	-830
ided	-831
▁194	-832
ield	-833
▁pass	-834
ments	-835
though	-836
▁return	-837
▁mill	-838
▁develop	-839
▁War	-840
get	-841
▁John	-842
▁ship	-843
ax	-844
▁Eng	-845
▁see	-846
▁near	-847
▁called	-848
ative	-849
enn	-850
imes	-851
▁dist	-852
▁rece	-853
▁sign	-854
▁16	-855
▁Br	-856
▁still	-857
emb	-858
gin	-859
▁hel	-860
ern	-861
▁make	-862
gg	-863
▁episode	-864
ody	-865
▁origin	-866
ured	-867
▁poin	-868
▁sim	-869
▁along	-870
▁Cl	-871
▁rep	-872
▁trans	-873
ible	-874
▁people	-875
▁same	-876
▁pop	-877
chool	-878
▁eff	-879
▁197	-880
▁lit	-881
▁disc	-882
view	-883
iam	-884
▁wom	-885
ner	-886
▁11	-887
▁need	-888
▁desc	-889
ric	-890
▁American	-891
▁wee	-892
▁196	-893
▁Ind	-894
▁Aust	-895
▁design	-896
▁!	-897
▁last	-898
ched	-899
▁est	-900
ccess	-901
ism	-902
ces	-903
▁Fr	-904
▁early	-905
ys	-906
▁eyes	-907
▁art	-908
▁prov	-909
▁feat	-910
▁say	-911
▁inf	-912
ially	-913
aced	-914
ble	-915
▁music	-916
▁these	-917
▁each	-918
▁Z	-919
ists	-920
ared	-921
ars	-922
ivers	-923
▁should	-924
▁Sp	-925
▁How	-926
▁released	-927
▁gl	-928
ret	-929
▁Gr	-930
▁Bl	-931
▁win	-932
ium	-933
elt	-934
▁dep	-935
▁another	-936
ately	-937
une	-938
▁count	-939
▁rest	-940
▁since	-941
▁left	-942
▁gener	-943
ady	-944
amed	-945
augh	-946
ution	-947
ling	-948
wards	-949
▁never	-950
und	-951
▁US	-952
ane	-953
▁che	-954
▁prev	-955
▁good	-956
ement	-957
▁May	-958
▁Wor	-959
stem	-960
▁ed	-961
▁care	-962
rap	-963
▁land	-964
▁crit	-965
ired	-966
els	-967
▁use	-968
▁going	-969
ains	-970
▁group	-971
▁very	-972
ash	-973
▁Ger	-974
▁million	-975
▁mil	-976
▁prom	-977
eb	-978
▁take	-979
▁small	-980
▁cr	-981
▁offic	-982
▁giv	-983
▁somet	-984
ene	-985
ajor	-986
▁const	-987
▁conf	-988
▁thought	-989
ger	-990
▁away	-991
pect	-992
▁consid	-993
▁British	-994
ying	-995
▁success	-996
▁bo	-997
▁13	-998
alk	-999
ik	-1000
▁mod	-1001
▁hist	-1002
▁six	-1003
▁too	-1004
▁think	-1005
▁let	-1006
▁Ad	-1007
aining	-1008
uss	-1009
oss	-1010
uction	-1011
▁Tr	-1012
▁$	-1013
▁oper	-1014
▁attack	-1015
ored	-1016
uth	-1017
uced	-1018
▁occ	-1019
▁describ	-1020
ently	-1021
▁govern	-1022
tend	-1023
▁bre	-1024
▁home	-1025
▁Aug	-1026
erv	-1027
▁Col	-1028
▁place	-1029
▁conc	-1030
ues	-1031
▁build	-1032
▁ann	-1033
▁help	-1034
▁dr	-1035
▁Sept	-1036
▁real	-1037
▁August	-1038
▁support	-1039
▁Is	-1040
▁For	-1041
▁five	-1042
▁September	-1043
▁result	-1044
▁All	-1045
▁batt	-1046
▁world	-1047
ute	-1048
▁World	-1049
▁contro	-1050
▁character	-1051
riend	-1052
▁class	-1053
▁following	-1054
ility	-1055
▁States	-1056
▁wanted	-1057
▁ref	-1058
▁Q	-1059
▁po	-1060
▁Te	-1061
▁came	-1062
▁la	-1063
▁adv	-1064
▁14	-1065
▁Austral	-1066
▁next	-1067
▁det	-1068
▁Pl	-1069
ness	-1070
ets	-1071
▁expl	-1072
▁German	-1073
ention	-1074
▁Ju	-1075
▁ext	-1076
ract	-1077
ison	-1078
▁old	-1079
▁red	-1080
▁Me	-1081
▁el	-1082
ina	-1083
ctor	-1084
▁feel	-1085
cess	-1086
▁km	-1087
ged	-1088
▁child	-1089
▁sk	-1090
▁cour	-1091
med	-1092
▁Oct	-1093
▁area	-1094
▁family	-1095
▁north	-1096
▁received	-1097
▁differ	-1098
▁However	-1099
▁195	-1100
▁felt	-1101
▁open	-1102
▁those	-1103
▁system	-1104
▁state	-1105
▁Car	-1106
▁193	-1107
ined	-1108
▁name	-1109
be	-1110
rod	-1111
▁October	-1112
▁month	-1113
rist	-1114
▁allow	-1115
▁partic	-1116
ants	-1117
▁belie	-1118
▁191	-1119
▁person	-1120
urch	-1121
▁report	-1122
▁city	-1123
alf	-1124
ively	-1125
▁var	-1126
▁cur	-1127
ony	-1128
ins	-1129
raft	-1130
ached	-1131
▁line	-1132
▁century	-1133
▁leg	-1134
ically	-1135
▁beh	-1136
▁Ed	-1137
▁serv	-1138
▁They	-1139
ission	-1140
▁few	-1141
▁best	-1142
▁By	-1143
▁dam	-1144
thing	-1145
▁public	-1146
ilt	-1147
▁large	-1148
▁men	-1149
ording	-1150
aim	-1151
▁single	-1152
hern	-1153
over	-1154
▁poss	-1155
▁night	-1156
my	-1157
▁major	-1158
uck	-1159
▁side	-1160
▁North	-1161
▁med	-1162
▁short	-1163
▁June	-1164
ica	-1165
empt	-1166
aged	-1167
arr	-1168
▁face	-1169
▁band	-1170
▁Jan	-1171
▁resp	-1172
▁stand	-1173
ats	-1174
ides	-1175
▁Mc	-1176
▁Comm	-1177
▁body	-1178
ister	-1179
▁%	-1180
ney	-1181
rote	-1182
▁]	-1183
ians	-1184
▁[	-1185
by	-1186
▁July	-1187
▁book	-1188
▁school	-1189
ural	-1190
▁Ph	-1191
oice	-1192
pril	-1193
uro	-1194
avy	-1195
▁held	-1196
ovember	-1197
▁Can	-1198
lish	-1199
▁King	-1200
ront	-1201
▁November	-1202
▁April	-1203
▁top	-1204
▁asked	-1205
▁father	-1206
ott	-1207
▁York	-1208
ient	-1209
▁little	-1210
▁repl	-1211
▁house	-1212
ense	-1213
▁appro	-1214
▁Pr	-1215
rew	-1216
ague	-1217
▁vis	-1218
ales	-1219
na	-1220
▁eng	-1221
▁dem	-1222
aff	-1223
▁final	-1224
idge	-1225
▁Ge	-1226
▁March	-1227
orp	-1228
uary	-1229
▁power	-1230
▁South	-1231
▁without	-1232
▁ste	-1233
ience	-1234
▁event	-1235
ified	-1236
▁incre	-1237
ages	-1238
▁30	-1239
▁wat	-1240
▁find	-1241
yl	-1242
▁played	-1243
▁cond	-1244
▁third	-1245
ball	-1246
▁water	-1247
▁Will	-1248
▁great	-1249
▁list	-1250
ital	-1251
▁es	-1252
ional	-1253
▁vers	-1254
▁Or	-1255
▁room	-1256
▁story	-1257
ives	-1258
▁gave	-1259
▁kill	-1260
▁led	-1261
▁death	-1262
▁move	-1263
▁position	-1264
▁sw	-1265
▁stru	-1266
▁south	-1267
ograp	-1268
▁Dece	-1269
sh	-1270
▁fr	-1271
akes	-1272
reen	-1273
ctions	-1274
▁sound	-1275
▁December	-1276
▁During	-1277
▁put	-1278
▁due	-1279
▁II	-1280
▁fur	-1281
▁camp	-1282
▁opp	-1283
▁colle	-1284
oon	-1285
▁25	-1286
▁port	-1287
▁track	-1288
▁requ	-1289
▁included	-1290
▁pri	-1291
▁went	-1292
▁wrote	-1293
ung	-1294
apan	-1295
▁192	-1296
▁friend	-1297
▁del	-1298
▁ra	-1299
▁days	-1300
▁tit	-1301
▁January	-1302
▁based	-1303
▁won	-1304
▁having	-1305
▁gun	-1306
oad	-1307
inc	-1308
▁Japan	-1309
▁government	-1310
▁tour	-1311
▁himself	-1312
rown	-1313
▁moved	-1314
▁tri	-1315
ideo	-1316
▁tell	-1317
ves	-1318
▁looked	-1319
▁ty	-1320
ably	-1321
hest	-1322
omin	-1323
▁here	-1324
▁far	-1325
eng	-1326
▁previous	-1327
ances	-1328
▁When	-1329
▁wind	-1330
ont	-1331
▁exper	-1332
ery	-1333
▁late	-1334
less	-1335
▁attempt	-1336
ering	-1337
▁love	-1338
▁described	-1339
▁something	-1340
▁review	-1341
br	-1342
▁view	-1343
▁mid	-1344
▁stre	-1345
▁par	-1346
▁bus	-1347
embers	-1348
ilar	-1349
▁iss	-1350
ior	-1351
ivision	-1352
▁sit	-1353
▁join	-1354
▁named	-1355
ords	-1356
▁Fl	-1357
▁although	-1358
▁term	-1359
▁within	-1360
bo	-1361
pend	-1362
▁half	-1363
▁Mus	-1364
▁command	-1365
▁effect	-1366
iversity	-1367
▁Euro	-1368
side	-1369
▁come	-1370
▁capt	-1371
ned	-1372
oute	-1373
iness	-1374
▁turned	-1375
▁av	-1376
iod	-1377
ee	-1378
ards	-1379
▁continued	-1380
▁games	-1381
▁And	-1382
aken	-1383
▁light	-1384
▁organ	-1385
▁different	-1386
▁ide	-1387
ead	-1388
rench	-1389
ike	-1390
▁making	-1391
mp	-1392
ature	-1393
▁hour	-1394
aster	-1395
most	-1396
▁mark	-1397
▁town	-1398
▁fact	-1399
▁100	-1400
▁hum	-1401
▁Gu	-1402
▁dri	-1403
▁addition	-1404
▁happ	-1405
▁caus	-1406
▁cover	-1407
▁match	-1408
▁Christ	-1409
▁species	-1410
ences	-1411
▁hard	-1412
ested	-1413
▁built	-1414
let	-1415
ented	-1416
ator	-1417
ize	-1418
▁members	-1419
▁however	-1420
ways	-1421
▁cle	-1422
▁mom	-1423
▁vict	-1424
urr	-1425
▁His	-1426
ebru	-1427
▁dest	-1428
ebruary	-1429
▁February	-1430
▁sent	-1431
oci	-1432
▁original	-1433
▁Man	-1434
▁period	-1435
lev	-1436
arch	-1437
▁Pro	-1438
▁release	-1439
▁There	-1440
▁storm	-1441
▁front	-1442
▁prop	-1443
▁hands	-1444
▁fore	-1445
▁begin	-1446
ices	-1447
▁plan	-1448
▁wa	-1449
▁video	-1450
▁deb	-1451
▁Par	-1452
▁infl	-1453
▁Europe	-1454
▁mag	-1455
▁former	-1456
▁knew	-1457
▁National	-1458
▁init	-1459
▁Am	-1460
pite	-1461
▁2010	-1462
eth	-1463
▁across	-1464
▁told	-1465
▁estab	-1466
▁why	-1467
ressed	-1468
▁point	-1469
▁polit	-1470
▁role	-1471
▁adm	-1472
▁sold	-1473
used	-1474
ither	-1475
▁woman	-1476
iting	-1477
▁further	-1478
hy	-1479
▁ever	-1480
emp	-1481
▁Her	-1482
▁often	-1483
▁considered	-1484
▁French	-1485
day	-1486
▁21	-1487
▁claim	-1488
ulation	-1489
iving	-1490
me	-1491
▁tot	-1492
irl	-1493
▁once	-1494
▁pat	-1495
ots	-1496
raw	-1497
▁fre	-1498
▁behind	-1499
▁strong	-1500
▁X	-1501
eter	-1502
▁less	-1503
▁does	-1504
▁road	-1505
▁constru	-1506
▁local	-1507
▁meet	-1508
▁post	-1509
▁given	-1510
ham	-1511
par	-1512
▁Min	-1513
ising	-1514
uted	-1515
▁West	-1516
ops	-1517
app	-1518
ese	-1519
▁equ	-1520
itary	-1521
▁got	-1522
▁become	-1523
▁arri	-1524
ology	-1525
atic	-1526
gy	-1527
▁hold	-1528
▁law	-1529
ropical	-1530
rent	-1531
▁chang	-1532
ald	-1533
ches	-1534
▁low	-1535
▁similar	-1536
▁Geor	-1537
▁ant	-1538
▁control	-1539
gether	-1540
▁together	-1541
▁foot	-1542
▁2009	-1543
▁2008	-1544
▁week	-1545
to	-1546
▁among	-1547
▁saw	-1548
▁started	-1549
ape	-1550
▁24	-1551
▁mother	-1552
▁Co	-1553
▁production	-1554
▁almost	-1555
▁level	-1556
craft	-1557
▁eas	-1558
▁ran	-1559
▁voice	-1560
utes	-1561
▁William	-1562
ler	-1563
gram	-1564
▁young	-1565
ope	-1566
▁sugg	-1567
▁bas	-1568
▁career	-1569
oe	-1570
atter	-1571
▁lost	-1572
ille	-1573
ript	-1574
aur	-1575
▁door	-1576
▁order	-1577
▁Char	-1578
▁mind	-1579
▁Mich	-1580
▁really	-1581
ford	-1582
▁squ	-1583
▁England	-1584
▁2011	-1585
err	-1586
rie	-1587
▁aff	-1588
▁import	-1589
▁company	-1590
▁reached	-1591
▁fire	-1592
▁No	-1593
▁Dav	-1594
▁mor	-1595
▁Bar	-1596
yle	-1597
ief	-1598
ories	-1599
▁Har	-1600
omb	-1601
▁auth	-1602
▁invol	-1603
▁quick	-1604
▁2007	-1605
ones	-1606
▁times	-1607
▁Des	-1608
▁prof	-1609
▁&	-1610
▁soc	-1611
▁Ear	-1612
▁prote	-1613
▁stat	-1614
▁seen	-1615
▁announ	-1616
▁fun	-1617
▁pain	-1618
▁enough	-1619
▁club	-1620
estern	-1621
▁22	-1622
▁One	-1623
▁returned	-1624
▁City	-1625
ival	-1626
line	-1627
▁history	-1628
uct	-1629
▁cast	-1630
▁player	-1631
den	-1632
iled	-1633
hel	-1634
▁east	-1635
▁keep	-1636
ipp	-1637
iety	-1638
ampions	-1639
ondon	-1640
▁Acc	-1641
▁west	-1642
aut	-1643
ec	-1644
▁El	-1645
▁z	-1646
▁decl	-1647
▁ord	-1648
▁building	-1649
▁version	-1650
▁Park	-1651
▁Count	-1652
▁Although	-1653
▁defe	-1654
▁190	-1655
▁black	-1656
▁Air	-1657
▁our	-1658
ox	-1659
▁Cent	-1660
▁Ang	-1661
▁seem	-1662
con	-1663
▁refer	-1664
ae	-1665
▁able	-1666
ression	-1667
ching	-1668
▁written	-1669
▁conv	-1670
▁23	-1671
▁pur	-1672
▁ten	-1673
pec	-1674
▁influ	-1675
▁English	-1676
▁sex	-1677
ump	-1678
▁sil	-1679
isc	-1680
ests	-1681
oney	-1682
▁Batt	-1683
▁2012	-1684
▁hig	-1685
▁rad	-1686
yr	-1687
que	-1688
aving	-1689
▁women	-1690
▁sol	-1691
ips	-1692
rest	-1693
▁River	-1694
▁commun	-1695
▁months	-1696
▁bed	-1697
▁clos	-1698
arent	-1699
▁might	-1700
▁give	-1701
▁son	-1702
▁country	-1703
▁full	-1704
▁particular	-1705
▁With	-1706
▁Su	-1707
▁eight	-1708
▁comb	-1709
▁trad	-1710
▁press	-1711
ai	-1712
▁instead	-1713
ole	-1714
ploy	-1715
▁fail	-1716
ready	-1717
ertain	-1718
▁lim	-1719
irc	-1720
ush	-1721
acy	-1722
▁close	-1723
com	-1724
▁better	-1725
▁heart	-1726
▁total	-1727
▁cross	-1728
sequ	-1729
isted	-1730
reet	-1731
▁feet	-1732
ms	-1733
▁ground	-1734
▁star	-1735
▁You	-1736
▁herself	-1737
▁London	-1738
▁University	-1739
▁Ex	-1740
chn	-1741
▁repres	-1742
▁We	-1743
ges	-1744
▁already	-1745
lex	-1746
▁brother	-1747
▁Canad	-1748
▁children	-1749
bs	-1750
alth	-1751
▁relations	-1752
▁High	-1753
▁common	-1754
▁opened	-1755
levision	-1756
osp	-1757
▁tre	-1758
▁Cal	-1759
▁stated	-1760
ana	-1761
▁miss	-1762
roy	-1763
here	-1764
▁Gener	-1765
▁taken	-1766
▁using	-1767
▁program	-1768
▁published	-1769
▁anim	-1770
▁sum	-1771
▁While	-1772
itted	-1773
▁tou	-1774
yn	-1775
▁compet	-1776
oman	-1777
▁En	-1778
aign	-1779
ama	-1780
▁reported	-1781
▁read	-1782
ensive	-1783
▁ships	-1784
▁white	-1785
▁fall	-1786
▁soon	-1787
▁sat	-1788
iment	-1789
itions	-1790
▁produced	-1791
▁According	-1792
▁Comp	-1793
▁ple	-1794
▁2006	-1795
▁direct	-1796
play	-1797
▁followed	-1798
▁service	-1799
▁bar	-1800
itive	-1801
umb	-1802
▁battle	-1803
fic	-1804
▁past	-1805
▁least	-1806
▁business	-1807
▁gen	-1808
▁recorded	-1809
oyal	-1810
▁entire	-1811
▁Ne	-1812
▁fav	-1813
▁hit	-1814
▁include	-1815
ream	-1816
▁project	-1817
▁died	-1818
oved	-1819
▁Tw	-1820
▁forces	-1821
▁28	-1822
▁larg	-1823
aul	-1824
▁Sm	-1825
▁author	-1826
ming	-1827
▁remained	-1828
▁performance	-1829
▁sure	-1830
▁office	-1831
▁decided	-1832
eder	-1833
▁force	-1834
▁suff	-1835
ception	-1836
tain	-1837
head	-1838
▁Go	-1839
▁aircraft	-1840
▁trav	-1841
aces	-1842
▁popular	-1843
ended	-1844
▁Australia	-1845
▁earl	-1846
▁arms	-1847
▁50	-1848
▁These	-1849
▁present	-1850
ries	-1851
▁military	-1852
▁27	-1853
▁field	-1854
▁moment	-1855
iding	-1856
▁Sw	-1857
ument	-1858
ael	-1859
▁taking	-1860
ases	-1861
oor	-1862
▁slow	-1863
▁mean	-1864
ration	-1865
▁Rep	-1866
urrican	-1867
rought	-1868
▁Ass	-1869
▁State	-1870
▁Ste	-1871
▁fight	-1872
▁agre	-1873
▁nort	-1874
ination	-1875
▁-	-1876
▁Sec	-1877
▁2013	-1878
▁introd	-1879
▁critic	-1880
▁kiss	-1881
▁obs	-1882
▁produc	-1883
ampionship	-1884
▁grow	-1885
bor	-1886
▁songs	-1887
▁cor	-1888
alt	-1889
▁Af	-1890
▁quest	-1891
▁always	-1892
▁Division	-1893
ency	-1894
dom	-1895
▁development	-1896
▁26	-1897
▁League	-1898
▁coun	-1899
▁prob	-1900
▁super	-1901
ara	-1902
dle	-1903
▁island	-1904
▁added	-1905
▁wife	-1906
▁title	-1907
▁fem	-1908
▁40	-1909
▁189	-1910
▁ca	-1911
▁anything	-1912
▁General	-1913
▁cut	-1914
▁deep	-1915
ids	-1916
idence	-1917
▁either	-1918
▁Gl	-1919
▁announced	-1920
▁minutes	-1921
▁campaign	-1922
▁Dr	-1923
▁elect	-1924
ze	-1925
ows	-1926
ought	-1927
▁proble	-1928
▁Army	-1929
▁national	-1930
▁val	-1931
▁promot	-1932
▁ft	-1933
▁ap	-1934
▁things	-1935
medi	-1936
▁done	-1937
▁Pres	-1938
ett	-1939
▁Bro	-1940
aps	-1941
▁noted	-1942
▁reason	-1943
▁signific	-1944
▁arg	-1945
▁pul	-1946
▁esc	-1947
▁chart	-1948
▁developed	-1949
▁ball	-1950
▁stay	-1951
▁Jack	-1952
▁Ab	-1953
▁Fin	-1954
▁dou	-1955
outhern	-1956
▁pra	-1957
field	-1958
▁tro	-1959
▁various	-1960
▁cost	-1961
▁must	-1962
▁created	-1963
▁party	-1964
▁inside	-1965
▁Japanese	-1966
▁idea	-1967
▁television	-1968
▁mouth	-1969
ality	-1970
▁hair	-1971
▁characters	-1972
▁fig	-1973
eal	-1974
▁important	-1975
▁Pol	-1976
▁weeks	-1977
▁brought	-1978
▁histor	-1979
val	-1980
ization	-1981
▁exc	-1982
fully	-1983
▁intern	-1984
sw	-1985
▁div	-1986
▁James	-1987
▁working	-1988
oke	-1989
▁rev	-1990
▁seven	-1991
▁special	-1992
▁stri	-1993
▁worked	-1994
▁cult	-1995
▁relationship	-1996
▁free	-1997
abor	-1998
▁occur	-1999
urricane	-2000
▁Mon	-2001
urg	-2002
▁non	-2003
▁official	-2004
stand	-2005
▁fell	-2006
▁station	-2007
lect	-2008
ogn	-2009
▁Mor	-2010
▁rather	-2011
▁enc	-2012
▁accept	-2013
▁America	-2014
▁Sy	-2015
▁age	-2016
▁County	-2017
▁aver	-2018
reg	-2019
▁hor	-2020
▁quickly	-2021
asing	-2022
▁fle	-2023
▁becom	-2024
▁areas	-2025
▁coll	-2026
ager	-2027
▁appeared	-2028
▁break	-2029
▁hy	-2030
▁reach	-2031
▁destroy	-2032
iff	-2033
▁prim	-2034
▁dro	-2035
bed	-2036
imately	-2037
▁nothing	-2038
▁vol	-2039
tended	-2040
▁Street	-2041
▁trying	-2042
▁towards	-2043
▁served	-2044
▁2005	-2045
▁aud	-2046
▁Road	-2047
▁political	-2048
▁dark	-2049
aves	-2050
read	-2051
▁live	-2052
ground	-2053
enced	-2054
▁Mad	-2055
vent	-2056
▁process	-2057
▁throughout	-2058
▁killed	-2059
▁talk	-2060
▁caused	-2061
▁style	-2062
▁Russ	-2063
▁mot	-2064
▁case	-2065
▁hours	-2066
pected	-2067
▁ter	-2068
▁Ser	-2069
▁performed	-2070
int	-2071
ster	-2072
▁features	-2073
▁circ	-2074
men	-2075
▁rock	-2076
ears	-2077
▁needed	-2078
▁Rober	-2079
▁broad	-2080
▁29	-2081
lished	-2082
aughter	-2083
▁struct	-2084
▁players	-2085
bert	-2086
▁Rec	-2087
▁ident	-2088
▁eventually	-2089
uce	-2090
cast	-2091
▁miles	-2092
uff	-2093
ius	-2094
orts	-2095
▁cat	-2096
▁playing	-2097
▁points	-2098
▁George	-2099
▁inform	-2100
rict	-2101
▁ve	-2102
▁’	-2103
▁leave	-2104
ma	-2105
reek	-2106
▁techn	-2107
▁Australian	-2108
▁king	-2109
elling	-2110
▁looking	-2111
▁writing	-2112
ky	-2113
olution	-2114
▁girl	-2115
▁race	-2116
artment	-2117
▁activ	-2118
▁established	-2119
▁hon	-2120
▁significant	-2121
▁others	-2122
▁breat	-2123
▁To	-2124
▁nov	-2125
▁words	-2126
ashing	-2127
▁Sim	-2128
king	-2129
ays	-2130
▁news	-2131
ey	-2132
▁arch	-2133
▁bill	-2134
▁fif	-2135
▁member	-2136
▁dev	-2137
▁saying	-2138
aid	-2139
▁route	-2140
▁lif	-2141
▁cy	-2142
▁mm	-2143
▁vot	-2144
off	-2145
emy	-2146
▁finished	-2147
▁impro	-2148
▁Bill	-2149
▁mix	-2150
pper	-2151
▁heavy	-2152
▁Part	-2153
▁big	-2154
▁coast	-2155
▁mer	-2156
▁Island	-2157
▁probably	-2158
omp	-2159
▁2014	-2160
iron	-2161
ivil	-2162
▁Em	-2163
▁Hen	-2164
▁East	-2165
ades	-2166
ficult	-2167
adron	-2168
▁foc	-2169
▁Per	-2170
▁range	-2171
▁pract	-2172
▁comment	-2173
ament	-2174
▁wall	-2175
▁interest	-2176
acing	-2177
▁round	-2178
aval	-2179
▁er	-2180
ico	-2181
▁Pe	-2182
▁placed	-2183
irt	-2184
aring	-2185
ris	-2186
▁Phil	-2187
▁sn	-2188
▁action	-2189
▁formed	-2190
▁award	-2191
▁difficult	-2192
cent	-2193
af	-2194
epend	-2195
▁tropical	-2196
iers	-2197
▁Reg	-2198
▁creat	-2199
▁thing	-2200
▁general	-2201
itar	-2202
▁change	-2203
▁finally	-2204
oring	-2205
alked	-2206
ators	-2207
▁Royal	-2208
▁David	-2209
▁Squ	-2210
▁crew	-2211
aper	-2212
aly	-2213
▁money	-2214
▁ce	-2215
▁shot	-2216
▁vill	-2217
▁188	-2218
▁possible	-2219
▁surv	-2220
▁park	-2221
▁tried	-2222
▁lack	-2223
▁mater	-2224
ude	-2225
work	-2226
odes	-2227
▁Med	-2228
▁allowed	-2229
ivid	-2230
▁stop	-2231
▁Bo	-2232
▁immedi	-2233
▁Qu	-2234
anced	-2235
▁everything	-2236
▁reve	-2237
ceed	-2238
▁loss	-2239
▁stage	-2240
ample	-2241
cil	-2242
▁located	-2243
▁wid	-2244
urt	-2245
▁Sch	-2246
▁upon	-2247
▁simp	-2248
amb	-2249
▁modern	-2250
▁base	-2251
▁completed	-2252
▁abs	-2253
odd	-2254
▁mount	-2255
▁recogn	-2256
▁separ	-2257
conom	-2258
ata	-2259
▁contract	-2260
sc	-2261
lin	-2262
room	-2263
▁appoin	-2264
board	-2265
▁House	-2266
▁host	-2267
▁priv	-2268
▁guns	-2269
▁respect	-2270
▁Port	-2271
▁construction	-2272
▁kind	-2273
▁Rich	-2274
▁soft	-2275
▁Hist	-2276
airs	-2277
▁course	-2278
oph	-2279
▁engine	-2280
wood	-2281
▁typ	-2282
ected	-2283
igned	-2284
▁mem	-2285
▁profess	-2286
▁aut	-2287
▁population	-2288
▁smile	-2289
▁pred	-2290
▁proper	-2291
ishing	-2292
▁outside	-2293
▁born	-2294
▁morning	-2295
▁bit	-2296
oud	-2297
▁site	-2298
ule	-2299
▁prot	-2300
▁Intern	-2301
unk	-2302
▁leading	-2303
▁scored	-2304
▁hot	-2305
▁doing	-2306
anned	-2307
istic	-2308
ki	-2309
▁Indian	-2310
▁complet	-2311
▁voc	-2312
▁works	-2313
stit	-2314
▁yet	-2315
▁reb	-2316
▁human	-2317
▁31	-2318
pping	-2319
▁pick	-2320
▁fing	-2321
▁bomb	-2322
uel	-2323
▁pulled	-2324
▁employ	-2325
▁scene	-2326
of	-2327
▁Other	-2328
uture	-2329
▁goal	-2330
▁186	-2331
▁clear	-2332
▁Cr	-2333
▁cal	-2334
▁Act	-2335
▁Michael	-2336
antic	-2337
ship	-2338
▁deal	-2339
▁invest	-2340
▁inj	-2341
▁hop	-2342
▁current	-2343
▁2004	-2344
ushed	-2345
▁Black	-2346
overed	-2347
▁provided	-2348
▁cop	-2349
ipped	-2350
osition	-2351
▁pie	-2352
irst	-2353
ring	-2354
ength	-2355
▁mass	-2356
▁spent	-2357
▁believed	-2358
▁pay	-2359
▁forced	-2360
▁lear	-2361
ps	-2362
▁earlier	-2363
urb	-2364
empor	-2365
iction	-2366
unt	-2367
▁France	-2368
▁fourth	-2369
▁2015	-2370
iol	-2371
ula	-2372
▁material	-2373
ening	-2374
uation	-2375
▁married	-2376
itc	-2377
▁bur	-2378
▁peak	-2379
su	-2380
▁associ	-2381
▁My	-2382
▁originally	-2383
▁threat	-2384
ask	-2385
▁rail	-2386
▁passed	-2387
imin	-2388
▁neg	-2389
▁opening	-2390
▁unc	-2391
▁Que	-2392
▁aw	-2393
▁sle	-2394
ological	-2395
chie	-2396
▁damage	-2397
▁lo	-2398
▁avail	-2399
hic	-2400
erous	-2401
▁ang	-2402
angu	-2403
▁subsequ	-2404
▁bad	-2405
▁joined	-2406
▁tradition	-2407
▁mult	-2408
▁leaving	-2409
▁certain	-2410
▁Red	-2411
▁involved	-2412
▁step	-2413
▁laun	-2414
▁sour	-2415
▁indust	-2416
arm	-2417
azine	-2418
▁Music	-2419
rang	-2420
▁500	-2421
aled	-2422
▁ended	-2423
▁Some	-2424
anch	-2425
▁School	-2426
▁mi	-2427
▁Paul	-2428
orpor	-2429
▁events	-2430
ino	-2431
▁phys	-2432
▁Ke	-2433
▁surf	-2434
▁average	-2435
ential	-2436
tered	-2437
ightly	-2438
▁troops	-2439
ray	-2440
▁Best	-2441
▁San	-2442
▁forward	-2443
▁react	-2444
▁exec	-2445
▁individ	-2446
▁Colle	-2447
oul	-2448
▁rul	-2449
asion	-2450
▁featured	-2451
▁Mil	-2452
▁runs	-2453
▁Play	-2454
▁table	-2455
▁2000	-2456
▁President	-2457
▁example	-2458
ander	-2459
▁ill	-2460
▁swe	-2461
▁Hill	-2462
▁Washing	-2463
band	-2464
itte	-2465
▁Henry	-2466
icated	-2467
▁Washington	-2468
▁army	-2469
▁whole	-2470
rief	-2471
▁Battle	-2472
▁Cour	-2473
▁respons	-2474
▁generally	-2475
▁victory	-2476
rey	-2477
▁regular	-2478
▁nomin	-2479
▁Nor	-2480
▁2003	-2481
sel	-2482
▁critics	-2483
▁length	-2484
omas	-2485
▁gold	-2486
ena	-2487
▁lik	-2488
▁answ	-2489
▁estim	-2490
go	-2491
ios	-2492
▁boy	-2493
▁Robert	-2494
elled	-2495
riage	-2496
▁La	-2497
▁fund	-2498
▁court	-2499
▁closed	-2500
▁future	-2501
▁despite	-2502
▁beaut	-2503
▁walk	-2504
▁Vir	-2505
▁job	-2506
omm	-2507
oria	-2508
ding	-2509
▁sto	-2510
▁Cap	-2511
aught	-2512
▁Bel	-2513
▁designed	-2514
▁touch	-2515
▁test	-2516
ville	-2517
enes	-2518
▁staff	-2519
▁draw	-2520
antry	-2521
▁longer	-2522
▁econom	-2523
iously	-2524
▁represent	-2525
▁food	-2526
▁Follow	-2527
fe	-2528
▁ren	-2529
rem	-2530
▁187	-2531
▁president	-2532
▁replaced	-2533
▁Despite	-2534
▁regard	-2535
▁social	-2536
▁Res	-2537
joy	-2538
ublic	-2539
ference	-2540
▁Ham	-2541
▁bring	-2542
▁successful	-2543
asc	-2544
▁particip	-2545
▁above	-2546
osing	-2547
▁lower	-2548
▁question	-2549
ourn	-2550
ights	-2551
▁sele	-2552
▁disp	-2553
▁Ber	-2554
▁inn	-2555
▁particularly	-2556
utive	-2557
▁hom	-2558
hib	-2559
fect	-2560
▁Following	-2561
▁highway	-2562
▁onto	-2563
▁living	-2564
▁nat	-2565
▁treat	-2566
itor	-2567
▁Game	-2568
▁McC	-2569
▁Met	-2570
▁actually	-2571
inist	-2572
enty	-2573
▁exist	-2574
▁Scott	-2575
▁wond	-2576
▁heard	-2577
▁word	-2578
usion	-2579
▁region	-2580
uke	-2581
▁church	-2582
asure	-2583
aker	-2584
▁quar	-2585
▁sus	-2586
▁First	-2587
iation	-2588
▁ordered	-2589
▁director	-2590
▁subject	-2591
▁Cup	-2592
▁Hall	-2593
▁Star	-2594
▁available	-2595
▁speed	-2596
▁running	-2597
▁Mal	-2598
▁toward	-2599
onse	-2600
ises	-2601
▁35	-2602
merc	-2603
▁pers	-2604
▁phot	-2605
▁concern	-2606
▁Lou	-2607
gress	-2608
▁score	-2609
▁appearance	-2610
▁Championship	-2611
▁Two	-2612
▁Angel	-2613
▁Mag	-2614
ique	-2615
▁insp	-2616
▁mph	-2617
ification	-2618
▁feeling	-2619
▁fac	-2620
▁yes	-2621
▁enjoy	-2622
▁novel	-2623
iber	-2624
ibility	-2625
▁space	-2626
ounded	-2627
▁arrived	-2628
▁pot	-2629
▁meant	-2630
ully	-2631
▁initially	-2632
ago	-2633
▁rese	-2634
▁determ	-2635
uk	-2636
▁Mid	-2637
mi	-2638
▁discuss	-2639
ging	-2640
▁Mary	-2641
▁parent	-2642
▁European	-2643
▁surpr	-2644
▁account	-2645
▁Atl	-2646
itch	-2647
fall	-2648
oid	-2649
▁walked	-2650
▁Roman	-2651
▁Val	-2652
▁grad	-2653
▁kept	-2654
▁Church	-2655
▁Route	-2656
▁From	-2657
▁Kingdom	-2658
▁increased	-2659
iforn	-2660
amer	-2661
▁Dan	-2662
▁Great	-2663
▁contrib	-2664
▁percent	-2665
▁cru	-2666
▁compl	-2667
▁demand	-2668
apt	-2669
▁assist	-2670
illed	-2671
▁nine	-2672
▁immediately	-2673
rian	-2674
▁beginning	-2675
▁Hol	-2676
▁Je	-2677
▁Don	-2678
for	-2679
roat	-2680
▁ver	-2681
BC	-2682
▁highest	-2683
▁Sing	-2684
▁coming	-2685
ography	-2686
▁Mac	-2687
pecially	-2688
▁Navy	-2689
▁largest	-2690
rong	-2691
ams	-2692
key	-2693
▁grand	-2694
ume	-2695
▁training	-2696
▁giving	-2697
▁educ	-2698
▁response	-2699
cy	-2700
arily	-2701
▁lay	-2702
▁moving	-2703
rated	-2704
aint	-2705
▁2001	-2706
west	-2707
ston	-2708
ault	-2709
▁Off	-2710
ittee	-2711
▁Mart	-2712
▁streng	-2713
▁signed	-2714
▁Charles	-2715
▁someone	-2716
▁travel	-2717
▁sequ	-2718
▁studio	-2719
▁langu	-2720
▁Ant	-2721
▁Ag	-2722
erved	-2723
▁believe	-2724
▁decision	-2725
▁central	-2726
▁Cong	-2727
▁meeting	-2728
mb	-2729
het	-2730
ership	-2731
▁lot	-2732
irth	-2733
▁brief	-2734
▁Virgin	-2735
▁sometimes	-2736
▁daughter	-2737
▁Wil	-2738
ateg	-2739
▁But	-2740
▁southern	-2741
▁center	-2742
▁especially	-2743
raz	-2744
▁usually	-2745
▁tem	-2746
▁wide	-2747
▁achie	-2748
lying	-2749
▁den	-2750
ilities	-2751
▁friends	-2752
fort	-2753
▁praised	-2754
▁don	-2755
▁poor	-2756
▁relig	-2757
▁conn	-2758
▁Dep	-2759
▁nearly	-2760
▁self	-2761
anks	-2762
ocr	-2763
▁getting	-2764
rupt	-2765
▁Alex	-2766
▁Canada	-2767
▁doc	-2768
▁International	-2769
▁changed	-2770
▁hous	-2771
▁God	-2772
ifornia	-2773
▁2002	-2774
▁attention	-2775
kn	-2776
▁Bay	-2777
▁White	-2778
▁agreed	-2779
▁independ	-2780
▁required	-2781
▁positive	-2782
▁Thomas	-2783
▁entered	-2784
▁chap	-2785
alion	-2786
▁Brown	-2787
▁failed	-2788
▁personal	-2789
heast	-2790
▁°	-2791
▁surr	-2792
▁according	-2793
aby	-2794
▁date	-2795
▁cell	-2796
▁breath	-2797
▁consider	-2798
▁sister	-2799
▁sal	-2800
itz	-2801
▁whose	-2802
▁bow	-2803
▁Ac	-2804
nel	-2805
▁interview	-2806
▁itself	-2807
ession	-2808
▁complete	-2809
▁lips	-2810
▁Mer	-2811
▁Union	-2812
▁viol	-2813
▁northern	-2814
▁cred	-2815
▁issue	-2816
▁previously	-2817
▁understand	-2818
▁football	-2819
▁today	-2820
▁Sl	-2821
▁summer	-2822
▁commerc	-2823
▁lines	-2824
teen	-2825
▁fort	-2826
▁units	-2827
▁pen	-2828
▁claimed	-2829
▁stood	-2830
▁Christian	-2831
lled	-2832
▁carried	-2833
▁wood	-2834
▁chair	-2835
▁whom	-2836
▁Govern	-2837
▁Pri	-2838
▁Art	-2839
▁shoot	-2840
ability	-2841
▁female	-2842
▁raised	-2843
▁minute	-2844
▁hurricane	-2845
iling	-2846
▁disapp	-2847
iful	-2848
▁sea	-2849
▁else	-2850
▁favor	-2851
▁floor	-2852
erve	-2853
▁section	-2854
agon	-2855
hers	-2856
▁din	-2857
▁Jos	-2858
▁Smith	-2859
▁Vict	-2860
▁Pal	-2861
▁directed	-2862
aded	-2863
▁California	-2864
▁alone	-2865
▁states	-2866
▁Sov	-2867
▁rain	-2868
▁Rock	-2869
aph	-2870
ida	-2871
▁debut	-2872
antly	-2873
▁Pat	-2874
hem	-2875
▁completely	-2876
▁parts	-2877
▁winds	-2878
▁attract	-2879
▁Award	-2880
mar	-2881
▁blue	-2882
ension	-2883
ny	-2884
▁Mark	-2885
igan	-2886
▁1990	-2887
▁evidence	-2888
icket	-2889
▁185	-2890
▁elements	-2891
▁wear	-2892
▁election	-2893
▁norm	-2894
▁Tom	-2895
iser	-2896
▁transfer	-2897
▁emer	-2898
▁Sam	-2899
▁Stud	-2900
atin	-2901
▁key	-2902
▁dead	-2903
▁suggested	-2904
▁recording	-2905
▁Soviet	-2906
liam	-2907
ites	-2908
▁coup	-2909
▁detail	-2910
back	-2911
▁occup	-2912
▁45	-2913
▁films	-2914
▁Company	-2915
tr	-2916
▁Up	-2917
ously	-2918
▁specific	-2919
▁remember	-2920
▁mur	-2921
▁study	-2922
ift	-2923
▁Grand	-2924
▁Associ	-2925
▁bene	-2926
▁Court	-2927
▁clim	-2928
umn	-2929
▁emb	-2930
▁heav	-2931
▁arrang	-2932
▁60	-2933
▁police	-2934
▁hun	-2935
▁marriage	-2936
▁Germany	-2937
▁additional	-2938
▁Gold	-2939
▁becoming	-2940
▁Frank	-2941
▁UK	-2942
▁appl	-2943
▁Mill	-2944
▁screen	-2945
inct	-2946
liament	-2947
▁Peter	-2948
▁seemed	-2949
▁private	-2950
▁pull	-2951
▁introduced	-2952
berg	-2953
▁anti	-2954
selves	-2955
▁Mount	-2956
ken	-2957
▁ton	-2958
▁matter	-2959
▁Kn	-2960
▁hus	-2961
▁reviews	-2962
ha	-2963
▁experience	-2964
▁object	-2965
use	-2966
▁remain	-2967
▁Soc	-2968
isl	-2969
aging	-2970
▁max	-2971
▁net	-2972
nes	-2973
▁cycl	-2974
▁perfect	-2975
▁That	-2976
▁sens	-2977
▁chall	-2978
▁helped	-2979
▁surface	-2980
▁jud	-2981
▁bi	-2982
ania	-2983
▁flood	-2984
atory	-2985
▁Times	-2986
ores	-2987
anish	-2988
onna	-2989
▁College	-2990
iles	-2991
ani	-2992
▁Do	-2993
▁Richard	-2994
▁Most	-2995
▁amount	-2996
▁Ben	-2997
edy	-2998
ulf	-2999
▁league	-3000
▁Pac	-3001
▁Sen	-3002
▁planned	-3003
ili	-3004
▁Film	-3005
▁chest	-3006
▁lab	-3007
▁groups	-3008
▁carry	-3009
▁civil	-3010
▁stra	-3011
▁env	-3012
▁whether	-3013
▁phone	-3014
▁Ir	-3015
alled	-3016
▁blood	-3017
▁bridge	-3018
▁Awards	-3019
ospital	-3020
NA	-3021
owers	-3022
ounds	-3023
▁stopped	-3024
▁box	-3025
▁Force	-3026
▁movement	-3027
▁access	-3028
▁type	-3029
▁god	-3030
▁1970	-3031
▁tow	-3032
▁Western	-3033
agement	-3034
asy	-3035
eum	-3036
▁intens	-3037
▁mess	-3038
▁frequ	-3039
▁India	-3040
▁magazine	-3041
▁fleet	-3042
▁Dem	-3043
▁fast	-3044
▁makes	-3045
▁acqu	-3046
▁display	-3047
▁dropped	-3048
▁plans	-3049
▁Britain	-3050
▁Mex	-3051
enth	-3052
▁watched	-3053
▁remaining	-3054
▁contr	-3055
sec	-3056
ibly	-3057
▁media	-3058
▁larger	-3059
nding	-3060
▁standing	-3061
▁1980	-3062
▁tar	-3063
ulated	-3064
▁lyr	-3065
▁intended	-3066
▁international	-3067
▁visit	-3068
ruction	-3069
▁shook	-3070
emporary	-3071
▁Rob	-3072
▁secret	-3073
sen	-3074
▁prison	-3075
▁students	-3076
▁Later	-3077
▁radio	-3078
▁offered	-3079
▁expected	-3080
▁slightly	-3081
▁Fle	-3082
▁weak	-3083
bour	-3084
▁minor	-3085
ires	-3086
▁32	-3087
inent	-3088
▁dress	-3089
▁covered	-3090
▁Cast	-3091
▁liter	-3092
▁1999	-3093
▁shows	-3094
▁teams	-3095
sy	-3096
aned	-3097
▁investig	-3098
▁Hot	-3099
▁maybe	-3100
▁mention	-3101
▁size	-3102
▁purp	-3103
▁Inf	-3104
fact	-3105
▁roy	-3106
▁Virginia	-3107
oes	-3108
▁changes	-3109
▁river	-3110
▁eastern	-3111
▁pressure	-3112
▁focus	-3113
▁opt	-3114
▁smiled	-3115
▁Coun	-3116
▁gaz	-3117
▁bes	-3118
▁market	-3119
▁twenty	-3120
▁pil	-3121
▁prior	-3122
▁estimated	-3123
▁NY	-3124
▁middle	-3125
▁Kh	-3126
izing	-3127
▁Im	-3128
▁mel	-3129
urity	-3130
▁defeated	-3131
change	-3132
ederal	-3133
▁husband	-3134
▁western	-3135
▁ready	-3136
▁appointed	-3137
▁musical	-3138
▁community	-3139
▁winning	-3140
the	-3141
onst	-3142
▁Just	-3143
hester	-3144
ication	-3145
▁Louis	-3146
▁transport	-3147
▁Day	-3148
ex	-3149
▁purch	-3150
▁provide	-3151
▁commercial	-3152
▁thr	-3153
ibr	-3154
▁Franc	-3155
▁Over	-3156
▁sett	-3157
iced	-3158
▁themselves	-3159
▁guitar	-3160
▁Early	-3161
▁higher	-3162
ros	-3163
▁structure	-3164
atively	-3165
▁rap	-3166
▁try	-3167
▁temper	-3168
itt	-3169
rd	-3170
abeth	-3171
▁parents	-3172
▁36	-3173
▁latter	-3174
aries	-3175
▁Second	-3176
▁80	-3177
▁trib	-3178
▁limited	-3179
tt	-3180
▁board	-3181
▁sense	-3182
▁und	-3183
▁research	-3184
hood	-3185
▁stars	-3186
idents	-3187
▁Party	-3188
oint	-3189
▁tax	-3190
▁male	-3191
▁counter	-3192
▁184	-3193
zz	-3194
▁Mo	-3195
▁Ev	-3196
uter	-3197
▁imm	-3198
orial	-3199
▁effects	-3200
ij	-3201
▁slowly	-3202
▁Song	-3203
ximately	-3204
▁exact	-3205
▁manager	-3206
▁information	-3207
vin	-3208
▁writer	-3209
▁der	-3210
▁problems	-3211
▁flight	-3212
AF	-3213
▁withd	-3214
▁unable	-3215
▁lived	-3216
▁commission	-3217
▁scenes	-3218
▁increasing	-3219
▁attend	-3220
▁Johnson	-3221
▁gone	-3222
incip	-3223
▁territ	-3224
▁destroyed	-3225
▁If	-3226
iant	-3227
igade	-3228
icy	-3229
▁sud	-3230
icle	-3231
▁Tex	-3232
▁mist	-3233
isions	-3234
▁goals	-3235
▁supported	-3236
▁establish	-3237
icago	-3238
▁cele	-3239
▁Flor	-3240
iral	-3241
▁300	-3242
andon	-3243
▁glass	-3244
well	-3245
▁Los	-3246
▁Cont	-3247
▁takes	-3248
▁oh	-3249
▁bird	-3250
▁influence	-3251
▁lin	-3252
ills	-3253
▁log	-3254
▁rights	-3255
▁Super	-3256
umed	-3257
▁proposed	-3258
▁birth	-3259
▁captured	-3260
wh	-3261
▁compared	-3262
ournal	-3263
▁figure	-3264
▁sudden	-3265
co	-3266
▁overall	-3267
ergy	-3268
**	-3269
ties	-3270
▁Green	-3271
kin	-3272
▁dom	-3273
gen	-3274
gar	-3275
▁Sal	-3276
▁emot	-3277
lo	-3278
▁skin	-3279
imum	-3280
▁Rh	-3281
▁mostly	-3282
itation	-3283
▁division	-3284
▁ir	-3285
▁diss	-3286
▁create	-3287
▁straight	-3288
▁Club	-3289
kay	-3290
▁script	-3291
▁repe	-3292
▁gas	-3293
▁rid	-3294
▁hear	-3295
▁village	-3296
orps	-3297
▁Emp	-3298
▁ult	-3299
▁caught	-3300
▁health	-3301
▁Adm	-3302
▁sor	-3303
▁episodes	-3304
▁Squadron	-3305
▁Bet	-3306
icted	-3307
ocked	-3308
▁related	-3309
olic	-3310
▁likely	-3311
een	-3312
▁pal	-3313
▁Many	-3314
lor	-3315
arrow	-3316
▁Ro	-3317
▁fingers	-3318
▁professional	-3319
▁natural	-3320
▁multip	-3321
▁hall	-3322
▁di	-3323
▁cas	-3324
vey	-3325
▁1960	-3326
▁doub	-3327
▁Spanish	-3328
mon	-3329
▁seat	-3330
ellow	-3331
▁cand	-3332
ees	-3333
▁wrong	-3334
▁Enter	-3335
▁awarded	-3336
▁except	-3337
undred	-3338
▁cause	-3339
ga	-3340
▁Kore	-3341
ari	-3342
▁Pacific	-3343
▁Edward	-3344
▁conclud	-3345
leg	-3346
▁fans	-3347
aches	-3348
▁compan	-3349
II	-3350
▁simply	-3351
▁ago	-3352
▁corn	-3353
▁Association	-3354
uge	-3355
▁rose	-3356
etic	-3357
▁removed	-3358
▁canc	-3359
▁75	-3360
▁beautiful	-3361
more	-3362
itect	-3363
▁Love	-3364
abit	-3365
▁kil	-3366
▁situation	-3367
▁suffered	-3368
▁Congress	-3369
can	-3370
▁dig	-3371
ek	-3372
▁feature	-3373
▁managed	-3374
▁pict	-3375
▁depart	-3376
▁language	-3377
▁Back	-3378
▁discovered	-3379
bury	-3380
▁refused	-3381
urs	-3382
▁complex	-3383
▁mach	-3384
▁approach	-3385
▁Chicago	-3386
▁true	-3387
▁thick	-3388
▁confir	-3389
tained	-3390
▁thinking	-3391
▁Not	-3392
▁terms	-3393
▁breed	-3394
bers	-3395
▁prep	-3396
▁buildings	-3397
▁pair	-3398
▁thus	-3399
▁operations	-3400
▁broadcast	-3401
▁deg	-3402
inn	-3403
▁says	-3404
▁fifth	-3405
▁tracks	-3406
rica	-3407
▁Inter	-3408
aily	-3409
▁imag	-3410
▁Queen	-3411
▁holding	-3412
▁quarter	-3413
▁Billboard	-3414
▁leader	-3415
▁Council	-3416
▁approximately	-3417
▁Scot	-3418
▁App	-3419
inese	-3420
▁coach	-3421
▁battles	-3422
▁defin	-3423
light	-3424
▁weap	-3425
▁Oper	-3426
▁extended	-3427
arrison	-3428
▁70	-3429
▁couple	-3430
▁experi	-3431
▁remains	-3432
▁domin	-3433
▁suggest	-3434
▁Under	-3435
▁problem	-3436
▁1998	-3437
▁ge	-3438
▁hell	-3439
anted	-3440
lymp	-3441
▁contact	-3442
▁soldiers	-3443
aped	-3444
▁mixed	-3445
▁lyrics	-3446
▁increase	-3447
atives	-3448
▁financ	-3449
▁History	-3450
▁protect	-3451
▁Serv	-3452
▁dance	-3453
▁Jackson	-3454
▁Old	-3455
iest	-3456
▁legs	-3457
▁Law	-3458
▁exam	-3459
▁Lit	-3460
▁target	-3461
▁cm	-3462
venue	-3463
▁ris	-3464
▁33	-3465
▁wed	-3466
▁meth	-3467
ems	-3468
▁direction	-3469
ograph	-3470
▁Olymp	-3471
▁capital	-3472
▁flag	-3473
▁ign	-3474
cean	-3475
▁means	-3476
▁occurred	-3477
ify	-3478
▁Sea	-3479
ella	-3480
▁okay	-3481
▁Big	-3482
▁expand	-3483
▁services	-3484
▁spl	-3485
▁horse	-3486
▁producer	-3487
▁shown	-3488
▁183	-3489
▁spot	-3490
▁initial	-3491
▁sleep	-3492
▁status	-3493
down	-3494
▁includes	-3495
▁fine	-3496
▁Jew	-3497
▁Atlantic	-3498
▁Fort	-3499
astern	-3500
▁baby	-3501
▁Chinese	-3502
lands	-3503
▁Mont	-3504
itude	-3505
▁Ital	-3506
uments	-3507
stant	-3508
▁revealed	-3509
ux	-3510
▁effort	-3511
▁celebr	-3512
▁double	-3513
▁Town	-3514
▁letter	-3515
▁nature	-3516
▁ens	-3517
▁adop	-3518
vert	-3519
▁nodd	-3520
▁broke	-3521
▁issued	-3522
▁issues	-3523
▁officers	-3524
▁Ol	-3525
▁Since	-3526
▁convers	-3527
▁III	-3528
▁confl	-3529
icip	-3530
▁crow	-3531
hew	-3532
ighter	-3533
▁anyone	-3534
▁accomp	-3535
▁neck	-3536
▁Florida	-3537
▁fear	-3538
▁upper	-3539
▁Texas	-3540
ucle	-3541
▁amb	-3542
▁Both	-3543
▁Miss	-3544
▁sched	-3545
▁Rail	-3546
▁showed	-3547
▁countries	-3548
▁location	-3549
▁dism	-3550
▁cho	-3551
▁ring	-3552
▁laugh	-3553
▁fighting	-3554
order	-3555
▁myself	-3556
▁copies	-3557
▁Pet	-3558
▁sch	-3559
▁chance	-3560
▁appears	-3561
▁beat	-3562
▁colon	-3563
▁majority	-3564
▁continue	-3565
▁green	-3566
▁metal	-3567
▁model	-3568
▁Trans	-3569
aved	-3570
▁distrib	-3571
ucted	-3572
▁1997	-3573
▁cold	-3574
▁drive	-3575
▁yards	-3576
▁Central	-3577
▁interse	-3578
oly	-3579
like	-3580
▁via	-3581
▁respond	-3582
▁tons	-3583
▁newsp	-3584
ements	-3585
izabeth	-3586
▁product	-3587
omer	-3588
▁Del	-3589
ette	-3590
▁Dist	-3591
▁cann	-3592
▁coin	-3593
cript	-3594
ounding	-3595
ini	-3596
▁Sun	-3597
▁Jim	-3598
▁attacked	-3599
▁Highway	-3600
hold	-3601
▁gre	-3602
▁wait	-3603
▁defend	-3604
▁hundred	-3605
▁starting	-3606
▁Mr	-3607
▁concept	-3608
oo	-3609
▁Wood	-3610
▁Lord	-3611
ples	-3612
▁cry	-3613
eph	-3614
▁prec	-3615
▁everyone	-3616
▁Bur	-3617
▁smaller	-3618
oms	-3619
▁composed	-3620
▁happy	-3621
▁har	-3622
▁Another	-3623
▁anc	-3624
▁strugg	-3625
ughed	-3626
▁below	-3627
▁impact	-3628
▁cer	-3629
reme	-3630
▁subsequently	-3631
▁laughed	-3632
▁warm	-3633
▁directly	-3634
odies	-3635
▁necess	-3636
▁ranked	-3637
arn	-3638
adium	-3639
▁eye	-3640
▁defeat	-3641
▁37	-3642
▁Tur	-3643
gs	-3644
▁altern	-3645
▁train	-3646
▁rout	-3647
ria	-3648
▁loved	-3649
▁instr	-3650
▁Africa	-3651
▁suit	-3652
▁consist	-3653
▁Cam	-3654
▁whis	-3655
▁Sir	-3656
▁plot	-3657
de	-3658
▁Canadian	-3659
osaur	-3660
burg	-3661
▁Bow	-3662
▁Carol	-3663
▁Earth	-3664
▁damaged	-3665
ech	-3666
▁90	-3667
▁mission	-3668
▁attacks	-3669
▁Wales	-3670
▁elected	-3671
▁Rev	-3672
▁administ	-3673
▁explained	-3674
▁launched	-3675
uals	-3676
▁sen	-3677
▁Empire	-3678
gn	-3679
▁presence	-3680
uries	-3681
▁accepted	-3682
▁attempted	-3683
ands	-3684
▁search	-3685
▁pack	-3686
ironment	-3687
▁Er	-3688
▁distance	-3689
uated	-3690
uing	-3691
▁color	-3692
▁1995	-3693
olk	-3694
onic	-3695
▁Boy	-3696
▁earned	-3697
rial	-3698
osen	-3699
▁Center	-3700
▁declared	-3701
▁individual	-3702
▁Lake	-3703
▁Tour	-3704
▁indic	-3705
▁commented	-3706
▁Dis	-3707
ien	-3708
unity	-3709
▁names	-3710
▁referred	-3711
▁conditions	-3712
▁Its	-3713
▁prevent	-3714
▁happened	-3715
▁energy	-3716
▁waiting	-3717
▁selected	-3718
▁eth	-3719
▁Camp	-3720
▁Sever	-3721
▁respectively	-3722
lement	-3723
▁Penn	-3724
▁dut	-3725
▁cab	-3726
▁trip	-3727
ruct	-3728
▁Mel	-3729
▁numerous	-3730
▁trust	-3731
rol	-3732
▁plat	-3733
▁royal	-3734
▁inspired	-3735
▁books	-3736
▁hope	-3737
▁critical	-3738
ka	-3739
▁associated	-3740
▁quite	-3741
iance	-3742
▁turning	-3743
▁34	-3744
▁qual	-3745
ogue	-3746
▁gaze	-3747
▁abandon	-3748
▁princip	-3749
▁rom	-3750
▁offer	-3751
▁contains	-3752
▁operation	-3753
▁traff	-3754
▁jack	-3755
▁numbers	-3756
▁suc	-3757
awn	-3758
▁sun	-3759
▁serious	-3760
atch	-3761
▁Bu	-3762
▁crowd	-3763
▁ability	-3764
▁Russian	-3765
yond	-3766
mit	-3767
irty	-3768
▁sales	-3769
▁Group	-3770
▁38	-3771
▁jake	-3772
▁movie	-3773
▁industry	-3774
▁education	-3775
▁piece	-3776
▁concent	-3777
▁burn	-3778
▁resulted	-3779
▁rare	-3780
▁yard	-3781
▁college	-3782
iny	-3783
▁calling	-3784
▁traditional	-3785
ancing	-3786
▁pun	-3787
▁seconds	-3788
▁1950	-3789
▁inch	-3790
chan	-3791
▁active	-3792
▁Rad	-3793
▁Michigan	-3794
▁TV	-3795
▁Angeles	-3796
▁nearby	-3797
▁strength	-3798
▁tur	-3799
▁artist	-3800
▁portray	-3801
quar	-3802
▁watch	-3803
▁share	-3804
▁Tor	-3805
▁1996	-3806
▁ice	-3807
imate	-3808
▁Out	-3809
▁audience	-3810
▁spread	-3811
▁assigned	-3812
▁nodded	-3813
▁improve	-3814
▁largely	-3815
aming	-3816
▁method	-3817
▁listed	-3818
bridge	-3819
estival	-3820
▁Viet	-3821
▁notes	-3822
▁rapid	-3823
cle	-3824
enant	-3825
aine	-3826
pass	-3827
right	-3828
▁Year	-3829
▁pit	-3830
▁Crit	-3831
rec	-3832
▁Prod	-3833
▁dang	-3834
▁meaning	-3835
ils	-3836
ushing	-3837
▁Arch	-3838
▁officer	-3839
road	-3840
▁paid	-3841
▁trade	-3842
▁sides	-3843
▁deliver	-3844
▁architect	-3845
▁standard	-3846
▁ahead	-3847
▁primary	-3848
cher	-3849
▁cust	-3850
▁neigh	-3851
▁sevent	-3852
▁reaching	-3853
rel	-3854
ror	-3855
▁singer	-3856
▁Kent	-3857
▁text	-3858
▁1940	-3859
▁realized	-3860
▁wild	-3861
▁stories	-3862
▁constit	-3863
resh	-3864
ervation	-3865
▁Cath	-3866
▁hospital	-3867
▁presented	-3868
udd	-3869
orses	-3870
▁apparent	-3871
▁theat	-3872
▁1994	-3873
▁scient	-3874
▁produce	-3875
▁records	-3876
▁dra	-3877
rier	-3878
▁separate	-3879
tty	-3880
▁bank	-3881
▁opport	-3882
othes	-3883
▁2016	-3884
▁rate	-3885
▁Martin	-3886
oper	-3887
▁Minister	-3888
▁conflict	-3889
▁older	-3890
ste	-3891
▁China	-3892
▁drum	-3893
▁DV	-3894
▁adult	-3895
ancy	-3896
▁plant	-3897
▁district	-3898
▁legisl	-3899
▁Ter	-3900
claim	-3901
bre	-3902
▁competition	-3903
ansion	-3904
▁sexual	-3905
▁expect	-3906
▁depression	-3907
▁chapter	-3908
▁Infantry	-3909
▁jump	-3910
▁closer	-3911
▁vehic	-3912
▁highly	-3913
▁inches	-3914
▁Republic	-3915
ims	-3916
▁41	-3917
▁religious	-3918
antasy	-3919
▁theme	-3920
▁laid	-3921
▁Democr	-3922
▁commander	-3923
▁matches	-3924
▁Acad	-3925
▁Italian	-3926
▁ending	-3927
▁settle	-3928
▁vocals	-3929
ellig	-3930
aked	-3931
arp	-3932
astic	-3933
▁candid	-3934
irit	-3935
▁constructed	-3936
iated	-3937
isation	-3938
▁filled	-3939
▁compos	-3940
aire	-3941
▁path	-3942
rate	-3943
▁180	-3944
▁Wal	-3945
▁performances	-3946
▁nucle	-3947
▁paper	-3948
▁reduced	-3949
▁watching	-3950
win	-3951
▁400	-3952
▁Step	-3953
▁unit	-3954
▁49	-3955
▁stone	-3956
▁responsible	-3957
▁ask	-3958
ether	-3959
▁brown	-3960
▁centre	-3961
▁practice	-3962
▁anal	-3963
▁powerful	-3964
▁legal	-3965
▁Test	-3966
oured	-3967
▁Nort	-3968
▁Care	-3969
▁Mass	-3970
▁grab	-3971
▁Sar	-3972
▁efforts	-3973
▁rob	-3974
▁bott	-3975
▁kick	-3976
utions	-3977
▁rough	-3978
oses	-3979
▁DVD	-3980
house	-3981
▁Mic	-3982
▁Corps	-3983
▁sorry	-3984
▁challen	-3985
orter	-3986
che	-3987
gu	-3988
▁Scotland	-3989
▁attended	-3990
▁pan	-3991
▁block	-3992
▁speak	-3993
▁Team	-3994
▁News	-3995
▁rein	-3996
▁allowing	-3997
▁kilomet	-3998
▁1992	-3999
▁depend	-4000
ares	-4001
ado	-4002
anna	-4003
▁Tre	-4004
▁Ire	-4005
ishop	-4006
▁levels	-4007
utch	-4008
▁Ver	-4009
stitute	-4010
▁combat	-4011
▁traffic	-4012
▁Several	-4013
▁Hel	-4014
▁thous	-4015
▁property	-4016
inet	-4017
▁evening	-4018
fl	-4019
▁More	-4020
▁advance	-4021
▁Major	-4022
gl	-4023
ceeded	-4024
▁Madonna	-4025
▁Bob	-4026
illery	-4027
ym	-4028
▁Greek	-4029
gypt	-4030
▁image	-4031
mas	-4032
ocks	-4033
▁houses	-4034
cing	-4035
▁positions	-4036
olf	-4037
▁concert	-4038
▁Parliament	-4039
▁mut	-4040
▁Final	-4041
▁chief	-4042
▁comes	-4043
▁roll	-4044
▁1930	-4045
▁annual	-4046
▁forest	-4047
▁Cons	-4048
▁controvers	-4049
▁begins	-4050
▁mis	-4051
▁Ma	-4052
▁cerem	-4053
▁doll	-4054
▁Ox	-4055
▁Ty	-4056
▁Four	-4057
▁network	-4058
nam	-4059
ona	-4060
▁firm	-4061
haps	-4062
▁throw	-4063
▁suppl	-4064
▁answer	-4065
▁Chart	-4066
▁Long	-4067
▁stating	-4068
lie	-4069
▁recomm	-4070
▁source	-4071
iot	-4072
▁whisper	-4073
▁Jones	-4074
eway	-4075
▁1993	-4076
▁Matt	-4077
▁Egypt	-4078
▁seeing	-4079
▁forms	-4080
▁pushed	-4081
▁termin	-4082
▁Sum	-4083
▁Mexico	-4084
▁fair	-4085
▁wedding	-4086
▁meas	-4087
▁exactly	-4088
▁Georg	-4089
▁financial	-4090
▁Hal	-4091
▁Their	-4092
▁peace	-4093
▁marked	-4094
▁culture	-4095
▁Chris	-4096
rican	-4097
▁nick	-4098
▁mine	-4099
▁encour	-4100
▁shoulder	-4101
olt	-4102
ulations	-4103
▁bal	-4104
▁trail	-4105
▁Gar	-4106
emple	-4107
▁acting	-4108
▁rule	-4109
▁Croat	-4110
▁Time	-4111
cles	-4112
▁narrow	-4113
▁shoulders	-4114
illa	-4115
▁Post	-4116
▁hurt	-4117
▁Creek	-4118
▁Foot	-4119
▁symb	-4120
▁marry	-4121
▁1991	-4122
▁Zeal	-4123
▁Fox	-4124
ining	-4125
add	-4126
▁avoid	-4127
▁resulting	-4128
▁Three	-4129
▁encoun	-4130
▁progress	-4131
▁55	-4132
▁beyond	-4133
▁write	-4134
▁Prince	-4135
▁So	-4136
▁shut	-4137
▁schol	-4138
▁Cor	-4139
▁som	-4140
▁grin	-4141
▁variety	-4142
▁owned	-4143
omen	-4144
cause	-4145
▁Fore	-4146
ieut	-4147
▁Cle	-4148
▁cases	-4149
▁resist	-4150
umber	-4151
▁contrast	-4152
yer	-4153
▁nation	-4154
▁struck	-4155
▁continues	-4156
sych	-4157
ersey	-4158
▁fit	-4159
▁182	-4160
▁arrest	-4161
▁earth	-4162
▁African	-4163
▁uses	-4164
iring	-4165
▁Americ	-4166
▁captain	-4167
ih	-4168
iqu	-4169
▁background	-4170
rip	-4171
ylv	-4172
▁schools	-4173
▁animals	-4174
▁ded	-4175
▁weight	-4176
▁Zealand	-4177
▁du	-4178
▁society	-4179
▁Arab	-4180
▁wing	-4181
▁Battalion	-4182
▁Haw	-4183
peror	-4184
MS	-4185
▁48	-4186
▁hers	-4187
▁sort	-4188
▁choice	-4189
▁elev	-4190
▁physical	-4191
▁Cross	-4192
▁Department	-4193
▁181	-4194
▁ur	-4195
▁39	-4196
▁wo	-4197
ledge	-4198
ider	-4199
orrow	-4200
▁quality	-4201
▁squadron	-4202
▁Dou	-4203
track	-4204
▁cool	-4205
ota	-4206
▁Oh	-4207
▁Society	-4208
▁lov	-4209
▁reject	-4210
▁street	-4211
▁Sat	-4212
▁edge	-4213
▁Committee	-4214
ading	-4215
▁enemy	-4216
▁Kenn	-4217
wide	-4218
under	-4219
istics	-4220
▁tight	-4221
▁suddenly	-4222
▁headed	-4223
▁reception	-4224
▁obv	-4225
ped	-4226
itchen	-4227
▁bare	-4228
▁exhib	-4229
▁dinner	-4230
▁42	-4231
inem	-4232
▁pretty	-4233
▁prin	-4234
▁Service	-4235
▁horses	-4236
▁lives	-4237
▁federal	-4238
▁scoring	-4239
ronic	-4240
▁causing	-4241
▁tail	-4242
inking	-4243
▁potential	-4244
▁dream	-4245
▁talking	-4246
▁edition	-4247
▁thank	-4248
▁square	-4249
iano	-4250
ection	-4251
▁trial	-4252
▁foreign	-4253
mark	-4254
▁grew	-4255
▁charge	-4256
▁Jer	-4257
▁Secret	-4258
▁conducted	-4259
ibrary	-4260
▁environment	-4261
arden	-4262
▁picked	-4263
▁rat	-4264
▁Paris	-4265
▁sand	-4266
▁passing	-4267
isco	-4268
▁castle	-4269
▁desire	-4270
min	-4271
ieutenant	-4272
▁Records	-4273
▁bound	-4274
aling	-4275
ashed	-4276
orped	-4277
▁concluded	-4278
▁actions	-4279
▁becomes	-4280
▁demonst	-4281
▁Spec	-4282
▁rang	-4283
▁security	-4284
▁greater	-4285
▁incorpor	-4286
nds	-4287
▁relatively	-4288
▁reaction	-4289
▁Ap	-4290
ols	-4291
▁Wee	-4292
▁gro	-4293
istry	-4294
▁peaked	-4295
▁ment	-4296
load	-4297
▁normal	-4298
▁weather	-4299
▁twice	-4300
▁gather	-4301
ours	-4302
ications	-4303
▁wonder	-4304
▁47	-4305
ordan	-4306
▁content	-4307
▁179	-4308
▁Carl	-4309
ita	-4310
▁Stone	-4311
▁determined	-4312
▁attempts	-4313
▁transferred	-4314
▁Sil	-4315
▁adj	-4316
annel	-4317
▁opin	-4318
▁fix	-4319
▁drop	-4320
▁heat	-4321
▁supposed	-4322
▁economic	-4323
▁ut	-4324
thur	-4325
atever	-4326
▁Dar	-4327
▁Sur	-4328
▁escape	-4329
▁please	-4330
▁Ireland	-4331
▁championship	-4332
▁tra	-4333
▁Latin	-4334
▁Stan	-4335
▁proved	-4336
rett	-4337
▁entr	-4338
▁science	-4339
mond	-4340
▁Den	-4341
▁Book	-4342
▁Fred	-4343
▁multiple	-4344
▁winter	-4345
▁portion	-4346
▁Leg	-4347
▁observed	-4348
▁extra	-4349
▁viewers	-4350
ingu	-4351
▁Because	-4352
AS	-4353
▁possibly	-4354
▁activity	-4355
▁broken	-4356
▁guard	-4357
▁fully	-4358
▁vocal	-4359
▁results	-4360
▁companies	-4361
writ	-4362
▁64	-4363
olved	-4364
▁Swed	-4365
▁mr	-4366
bing	-4367
▁fresh	-4368
▁rank	-4369
▁feed	-4370
yon	-4371
▁65	-4372
▁shortly	-4373
▁combined	-4374
illing	-4375
▁growing	-4376
▁featuring	-4377
▁1942	-4378
▁gained	-4379
▁billion	-4380
▁Che	-4381
▁Dire	-4382
apers	-4383
▁chem	-4384
▁collection	-4385
▁setting	-4386
▁jul	-4387
ya	-4388
rif	-4389
▁Admiral	-4390
▁founded	-4391
▁iron	-4392
▁cyclone	-4393
▁tonight	-4394
▁behav	-4395
▁Oxford	-4396
▁confirmed	-4397
▁quiet	-4398
▁titled	-4399
▁distinct	-4400
▁farm	-4401
▁Sol	-4402
▁wearing	-4403
▁Williams	-4404
arian	-4405
uous	-4406
▁magn	-4407
▁defense	-4408
▁terr	-4409
▁Stephen	-4410
▁appeal	-4411
▁Ann	-4412
▁lifted	-4413
▁transl	-4414
▁accident	-4415
ns	-4416
▁casual	-4417
▁emph	-4418
▁Chief	-4419
▁Joseph	-4420
▁primarily	-4421
▁Hor	-4422
▁Hurricane	-4423
▁Wall	-4424
▁worth	-4425
▁actor	-4426
clus	-4427
▁Bost	-4428
▁Series	-4429
▁function	-4430
▁Tim	-4431
▁trou	-4432
▁losing	-4433
▁heavily	-4434
▁Gal	-4435
▁camer	-4436
▁perhaps	-4437
ners	-4438
omy	-4439
▁mechan	-4440
▁Max	-4441
▁journal	-4442
▁Commission	-4443
▁Like	-4444
▁46	-4445
▁expression	-4446
▁battleship	-4447
▁walls	-4448
▁torped	-4449
▁interp	-4450
▁truth	-4451
▁44	-4452
▁Before	-4453
▁designated	-4454
▁sought	-4455
▁bud	-4456
force	-4457
▁metres	-4458
oration	-4459
▁Ray	-4460
aylor	-4461
▁ess	-4462
▁tall	-4463
▁argued	-4464
▁oil	-4465
▁divided	-4466
▁waters	-4467
▁Pan	-4468
▁Win	-4469
▁Way	-4470
▁pet	-4471
▁alongside	-4472
▁Fre	-4473
▁wit	-4474
▁recent	-4475
uled	-4476
▁Little	-4477
▁sitting	-4478
▁hotel	-4479
▁pilot	-4480
perial	-4481
▁plays	-4482
▁independent	-4483
▁Brigade	-4484
▁faced	-4485
▁prefer	-4486
▁Hung	-4487
▁Fleet	-4488
▁Fur	-4489
▁surre	-4490
▁Entertain	-4491
▁repeated	-4492
▁vess	-4493
▁Bridge	-4494
set	-4495
▁mainly	-4496
▁prepar	-4497
aven	-4498
▁require	-4499
known	-4500
mitted	-4501
▁occasion	-4502
iate	-4503
▁innings	-4504
▁kitchen	-4505
▁Museum	-4506
▁maximum	-4507
▁Luc	-4508
▁shell	-4509
▁sweet	-4510
▁selling	-4511
▁Regiment	-4512
▁batter	-4513
▁tal	-4514
ada	-4515
▁store	-4516
▁150	-4517
unch	-4518
▁Middle	-4519
ruit	-4520
rick	-4521
▁hero	-4522
▁widely	-4523
▁platform	-4524
nament	-4525
▁Class	-4526
▁fired	-4527
▁Academy	-4528
▁tone	-4529
▁drew	-4530
quarters	-4531
▁BBC	-4532
▁webs	-4533
▁trees	-4534
▁relief	-4535
▁simple	-4536
▁remark	-4537
▁dismiss	-4538
▁greatest	-4539
▁Southern	-4540
▁Young	-4541
▁invasion	-4542
▁tells	-4543
▁ultimately	-4544
▁Games	-4545
▁Avenue	-4546
omers	-4547
▁Form	-4548
▁1920	-4549
▁43	-4550
ube	-4551
▁serve	-4552
▁52	-4553
▁dise	-4554
▁finish	-4555
hi	-4556
▁Bre	-4557
▁Manc	-4558
▁chosen	-4559
▁Tech	-4560
▁pieces	-4561
▁reform	-4562
chest	-4563
▁Life	-4564
▁silver	-4565
▁connect	-4566
▁dru	-4567
ipping	-4568
▁Jeff	-4569
▁sout	-4570
ero	-4571
▁Columb	-4572
za	-4573
▁lap	-4574
▁risk	-4575
▁Line	-4576
▁influenced	-4577
rig	-4578
isters	-4579
▁conver	-4580
▁equip	-4581
▁scale	-4582
ucky	-4583
▁appearances	-4584
▁era	-4585
▁premi	-4586
▁Mod	-4587
▁Van	-4588
elve	-4589
▁enter	-4590
▁master	-4591
▁knowing	-4592
▁bodies	-4593
▁Pre	-4594
▁conne	-4595
▁Captain	-4596
▁returning	-4597
▁university	-4598
▁replied	-4599
▁Victoria	-4600
▁consec	-4601
▁1944	-4602
▁Entertainment	-4603
▁Ry	-4604
itiz	-4605
▁Saint	-4606
▁Americans	-4607
▁residents	-4608
▁student	-4609
▁writers	-4610
▁Mat	-4611
▁hang	-4612
▁wave	-4613
▁Kr	-4614
pool	-4615
while	-4616
essed	-4617
▁promoted	-4618
bit	-4619
hell	-4620
ety	-4621
▁51	-4622
▁telling	-4623
▁document	-4624
la	-4625
phy	-4626
▁speech	-4627
▁guest	-4628
▁murder	-4629
▁collect	-4630
▁seasons	-4631
come	-4632
▁Av	-4633
▁sixth	-4634
▁naval	-4635
▁county	-4636
▁restaur	-4637
▁pattern	-4638
▁saf	-4639
▁pregn	-4640
▁Fe	-4641
TV	-4642
▁1941	-4643
antage	-4644
▁Boston	-4645
▁collabor	-4646
▁Arm	-4647
friend	-4648
▁Ram	-4649
▁corner	-4650
▁artists	-4651
▁officials	-4652
stein	-4653
▁propos	-4654
▁BC	-4655
▁policy	-4656
▁poll	-4657
▁seg	-4658
▁1945	-4659
▁easily	-4660
▁yellow	-4661
▁thin	-4662
▁negot	-4663
▁artillery	-4664
▁tree	-4665
▁stepped	-4666
icient	-4667
▁nominated	-4668
▁northeast	-4669
▁chose	-4670
▁bottom	-4671
▁expressed	-4672
▁cou	-4673
▁executive	-4674
▁Sant	-4675
▁matt	-4676
▁mentioned	-4677
▁rating	-4678
▁whatever	-4679
▁mo	-4680
▁Str	-4681
▁Wind	-4682
▁condition	-4683
▁Jul	-4684
▁load	-4685
▁sources	-4686
uses	-4687
▁Joe	-4688
▁sust	-4689
▁medical	-4690
▁coff	-4691
▁Live	-4692
ylvania	-4693
aga	-4694
▁disco	-4695
▁Dev	-4696
▁represented	-4697
▁bul	-4698
▁purpose	-4699
allow	-4700
▁dry	-4701
▁resc	-4702
▁figures	-4703
▁tun	-4704
▁versions	-4705
ufact	-4706
▁flying	-4707
▁Catholic	-4708
▁places	-4709
▁spoke	-4710
▁computer	-4711
▁1989	-4712
AA	-4713
ano	-4714
▁orders	-4715
▁capture	-4716
bur	-4717
adel	-4718
▁Taylor	-4719
onn	-4720
▁tears	-4721
▁systems	-4722
emic	-4723
ysis	-4724
▁Def	-4725
▁visited	-4726
cend	-4727
▁Football	-4728
lers	-4729
acement	-4730
unction	-4731
▁newspaper	-4732
▁kg	-4733
▁boat	-4734
▁Though	-4735
ugh	-4736
▁affected	-4737
▁equipment	-4738
mission	-4739
▁albums	-4740
▁activities	-4741
▁surrounding	-4742
▁favour	-4743
▁Op	-4744
▁Italy	-4745
iro	-4746
▁Kar	-4747
▁Valley	-4748
▁brothers	-4749
▁Nin	-4750
▁tom	-4751
▁instit	-4752
inson	-4753
▁nice	-4754
▁Roll	-4755
eper	-4756
▁spring	-4757
essions	-4758
▁Production	-4759
▁workers	-4760
▁leaves	-4761
ordin	-4762
▁sam	-4763
▁organization	-4764
▁Home	-4765
▁nerv	-4766
▁electric	-4767
▁subs	-4768
▁Di	-4769
ighth	-4770
▁subsequent	-4771
ote	-4772
▁unp	-4773
enger	-4774
▁Ell	-4775
▁aware	-4776
▁Through	-4777
▁machine	-4778
▁Harrison	-4779
noon	-4780
▁sight	-4781
▁split	-4782
▁Manchester	-4783
tation	-4784
clusion	-4785
▁somew	-4786
▁Add	-4787
▁prompt	-4788
▁reports	-4789
▁identified	-4790
ategory	-4791
alle	-4792
▁gar	-4793
▁ideas	-4794
▁window	-4795
▁belong	-4796
oles	-4797
▁dim	-4798
▁northwest	-4799
acher	-4800
▁Ill	-4801
▁Spr	-4802
▁officially	-4803
▁Bat	-4804
HL	-4805
▁shif	-4806
▁reign	-4807
▁border	-4808
esh	-4809
▁weapons	-4810
▁prepared	-4811
▁Os	-4812
ivity	-4813
▁interested	-4814
▁exped	-4815
▁Daniel	-4816
▁MD	-4817
ura	-4818
▁draft	-4819
▁cities	-4820
▁emphas	-4821
▁Origin	-4822
▁achieve	-4823
▁aspect	-4824
▁fought	-4825
▁habit	-4826
▁1943	-4827
▁Good	-4828
▁Bus	-4829
▁studies	-4830
▁honor	-4831
isher	-4832
▁Lee	-4833
amber	-4834
acity	-4835
▁Jon	-4836
▁eat	-4837
▁liked	-4838
▁phil	-4839
▁walking	-4840
bon	-4841
▁Histor	-4842
▁psych	-4843
▁poet	-4844
▁Scottish	-4845
▁treatment	-4846
▁consisted	-4847
▁satis	-4848
▁briefly	-4849
▁Tropical	-4850
▁Ott	-4851
▁contemporary	-4852
ington	-4853
▁soundtrack	-4854
lam	-4855
▁debuted	-4856
▁therefore	-4857
enna	-4858
▁District	-4859
ells	-4860
▁Dam	-4861
▁delay	-4862
▁clothes	-4863
uls	-4864
▁Mem	-4865
▁Penns	-4866
▁leaders	-4867
▁tim	-4868
▁stret	-4869
▁Andrew	-4870
▁afternoon	-4871
▁theory	-4872
▁younger	-4873
▁Civil	-4874
ighed	-4875
▁necessary	-4876
▁extrem	-4877
izes	-4878
▁flat	-4879
▁intellig	-4880
▁luc	-4881
oma	-4882
▁Sub	-4883
▁huge	-4884
▁Government	-4885
▁wel	-4886
▁dog	-4887
azz	-4888
ifying	-4889
hire	-4890
▁Land	-4891
▁Light	-4892
▁newly	-4893
▁Carolina	-4894
▁claims	-4895
▁Tro	-4896
▁Lu	-4897
▁uns	-4898
▁value	-4899
▁Conf	-4900
▁instrument	-4901
▁twelve	-4902
▁maintained	-4903
▁missed	-4904
▁shared	-4905
▁Alexander	-4906
▁wounded	-4907
▁hoped	-4908
▁stared	-4909
▁express	-4910
▁surprise	-4911
▁agreement	-4912
ici	-4913
▁Brad	-4914
ev	-4915
▁hyd	-4916
▁Field	-4917
▁Upon	-4918
iday	-4919
▁Storm	-4920
▁territory	-4921
▁cert	-4922
▁prominent	-4923
ingly	-4924
▁apart	-4925
▁accompan	-4926
▁turns	-4927
▁senior	-4928
embly	-4929
▁injury	-4930
▁ox	-4931
enny	-4932
▁rac	-4933
▁narr	-4934
▁vo	-4935
▁spect	-4936
▁apartment	-4937
▁nor	-4938
▁Lo	-4939
▁ends	-4940
▁reference	-4941
▁focused	-4942
▁inh	-4943
▁Northern	-4944
▁kid	-4945
▁adapt	-4946
▁easy	-4947
isers	-4948
▁animal	-4949
▁element	-4950
▁53	-4951
▁strike	-4952
▁unknown	-4953
▁fan	-4954
▁Show	-4955
▁authority	-4956
▁note	-4957
rapped	-4958
▁contained	-4959
aith	-4960
▁growth	-4961
▁motion	-4962
ias	-4963
▁1988	-4964
▁degree	-4965
▁basis	-4966
▁spirit	-4967
▁Rod	-4968
▁Hy	-4969
▁aired	-4970
▁Norm	-4971
▁Background	-4972
▁Men	-4973
ables	-4974
▁whit	-4975
▁check	-4976
rid	-4977
onents	-4978
▁crossed	-4979
▁Sn	-4980
ayer	-4981
ipl	-4982
▁regarded	-4983
rael	-4984
▁abandoned	-4985
ockey	-4986
▁entirely	-4987
▁birds	-4988
▁famous	-4989
▁Studios	-4990
▁save	-4991
▁passes	-4992
ala	-4993
arc	-4994
▁rear	-4995
▁stom	-4996
▁finding	-4997
▁descript	-4998
▁Writ	-4999
kins	-5000
▁1987	-5001
utation	-5002
▁budget	-5003
urban	-5004
▁stations	-5005
ickets	-5006
▁label	-5007
▁criticized	-5008
▁600	-5009
▁card	-5010
▁assault	-5011
ilies	-5012
▁follows	-5013
aste	-5014
▁Week	-5015
▁leaned	-5016
▁singles	-5017
▁bass	-5018
▁uncle	-5019
edom	-5020
▁tournament	-5021
▁aid	-5022
▁vote	-5023
erc	-5024
cé	-5025
ket	-5026
▁ye	-5027
▁frequently	-5028
▁Top	-5029
▁pleasure	-5030
▁rub	-5031
igg	-5032
▁Lew	-5033
▁comfort	-5034
▁operated	-5035
▁surrender	-5036
▁teeth	-5037
▁whispered	-5038
▁Dutch	-5039
▁opportunity	-5040
rical	-5041
eness	-5042
eller	-5043
zen	-5044
estic	-5045
▁landing	-5046
agn	-5047
▁Bond	-5048
▁Albert	-5049
▁formation	-5050
▁Marsh	-5051
▁Allied	-5052
ila	-5053
▁Mu	-5054
▁Pop	-5055
▁manufact	-5056
orks	-5057
gian	-5058
▁Blue	-5059
▁advantage	-5060
▁Eastern	-5061
▁Ret	-5062
▁tend	-5063
▁76	-5064
▁serving	-5065
▁offensive	-5066
▁showing	-5067
▁enjoyed	-5068
▁historian	-5069
▁Rog	-5070
esse	-5071
acks	-5072
▁What	-5073
▁mob	-5074
eless	-5075
ashion	-5076
▁admitted	-5077
fit	-5078
pton	-5079
▁severe	-5080
▁railway	-5081
icks	-5082
▁creating	-5083
▁Israel	-5084
▁adopted	-5085
▁extend	-5086
▁Pennsylvania	-5087
▁sounds	-5088
▁worldwide	-5089
▁rich	-5090
▁row	-5091
▁Girl	-5092
▁flow	-5093
▁dyn	-5094
▁opposed	-5095
▁none	-5096
▁shirt	-5097
ais	-5098
▁1986	-5099
▁typically	-5100
iana	-5101
stone	-5102
▁Operation	-5103
inal	-5104
▁council	-5105
itely	-5106
velopment	-5107
rect	-5108
orters	-5109
stitution	-5110
▁Short	-5111
▁settled	-5112
ublican	-5113
▁Governor	-5114
andy	-5115
igr	-5116
▁beside	-5117
illy	-5118
▁97	-5119
▁Det	-5120
elly	-5121
▁stomach	-5122
iverse	-5123
▁calls	-5124
▁website	-5125
▁Hum	-5126
▁Arthur	-5127
▁learned	-5128
▁experienced	-5129
▁Night	-5130
▁95	-5131
▁Of	-5132
▁shooting	-5133
▁remind	-5134
▁mic	-5135
▁Far	-5136
▁desk	-5137
▁drawn	-5138
▁fiction	-5139
▁Guard	-5140
▁gives	-5141
▁Senate	-5142
▁intensity	-5143
▁opposition	-5144
▁clean	-5145
▁seems	-5146
▁editor	-5147
ocated	-5148
▁tower	-5149
▁wealth	-5150
▁Ash	-5151
▁height	-5152
▁stro	-5153
▁Colon	-5154
▁shru	-5155
dd	-5156
▁interact	-5157
▁syn	-5158
▁tong	-5159
▁picture	-5160
▁advanced	-5161
▁WW	-5162
▁roof	-5163
▁Liber	-5164
hens	-5165
▁measure	-5166
▁Hind	-5167
▁rival	-5168
ola	-5169
▁Card	-5170
▁looks	-5171
▁System	-5172
▁carrying	-5173
▁crossing	-5174
▁vac	-5175
ports	-5176
▁Cub	-5177
▁consecutive	-5178
▁recently	-5179
▁Holly	-5180
▁perman	-5181
▁failure	-5182
▁sac	-5183
▁forg	-5184
▁cannot	-5185
▁request	-5186
▁Bor	-5187
▁cook	-5188
▁gent	-5189
▁ven	-5190
▁SS	-5191
▁Us	-5192
▁Ros	-5193
▁Bul	-5194
▁homes	-5195
▁rejected	-5196
▁native	-5197
vy	-5198
ooth	-5199
▁Inst	-5200
▁conference	-5201
bl	-5202
▁killing	-5203
▁goes	-5204
▁Pen	-5205
▁fat	-5206
▁Alb	-5207
▁brain	-5208
▁Georgia	-5209
▁planet	-5210
▁contain	-5211
▁Are	-5212
ava	-5213
▁Ven	-5214
▁attrib	-5215
isa	-5216
▁effective	-5217
▁54	-5218
FA	-5219
▁Each	-5220
▁bath	-5221
▁throat	-5222
▁85	-5223
▁incident	-5224
anes	-5225
▁aim	-5226
▁ones	-5227
▁Jersey	-5228
▁Cy	-5229
▁citiz	-5230
▁missing	-5231
▁opinion	-5232
▁RA	-5233
▁pu	-5234
▁mir	-5235
▁Jud	-5236
onent	-5237
▁fish	-5238
▁granted	-5239
▁sports	-5240
anda	-5241
▁bought	-5242
▁Sa	-5243
athan	-5244
▁sharp	-5245
ultural	-5246
arts	-5247
▁Les	-5248
▁kissed	-5249
▁core	-5250
rich	-5251
shire	-5252
▁criticism	-5253
▁teach	-5254
▁governor	-5255
▁historical	-5256
▁Liver	-5257
uate	-5258
▁ast	-5259
▁actors	-5260
▁Mike	-5261
▁Festival	-5262
▁receive	-5263
▁roles	-5264
▁column	-5265
▁achieved	-5266
▁reasons	-5267
▁participated	-5268
▁egg	-5269
▁weeke	-5270
▁compar	-5271
amm	-5272
ati	-5273
▁armed	-5274
▁Christmas	-5275
▁ways	-5276
▁data	-5277
ulate	-5278
▁Ha	-5279
▁Chap	-5280
▁Sound	-5281
▁56	-5282
▁ble	-5283
▁Dun	-5284
▁committee	-5285
▁Bru	-5286
▁article	-5287
BA	-5288
ker	-5289
▁bright	-5290
▁producers	-5291
▁61	-5292
▁ath	-5293
▁Exp	-5294
resp	-5295
▁Fer	-5296
▁conversation	-5297
▁Mul	-5298
▁message	-5299
▁Hard	-5300
▁safe	-5301
▁rainfall	-5302
▁ec	-5303
▁ru	-5304
ropri	-5305
▁Mean	-5306
ishes	-5307
▁negative	-5308
da	-5309
rets	-5310
▁bedroom	-5311
▁capacity	-5312
▁sym	-5313
▁withdraw	-5314
ifications	-5315
▁knowledge	-5316
▁tele	-5317
▁Irish	-5318
▁Tra	-5319
▁deploy	-5320
▁driving	-5321
▁filmed	-5322
▁retired	-5323
▁Reception	-5324
ients	-5325
ira	-5326
▁types	-5327
osite	-5328
▁coffee	-5329
gged	-5330
▁glanced	-5331
▁sequence	-5332
▁individuals	-5333
ption	-5334
▁engaged	-5335
▁Revolution	-5336
rell	-5337
▁leadership	-5338
▁af	-5339
▁Jac	-5340
▁chor	-5341
▁fuel	-5342
▁Institute	-5343
ora	-5344
uit	-5345
▁1939	-5346
oty	-5347
▁heads	-5348
▁controlled	-5349
▁didn	-5350
▁diam	-5351
▁rise	-5352
▁questions	-5353
▁Harry	-5354
▁roads	-5355
mosp	-5356
▁guy	-5357
iments	-5358
outs	-5359
▁memory	-5360
stream	-5361
▁bag	-5362
▁singing	-5363
▁catch	-5364
▁Castle	-5365
▁Lar	-5366
▁torpedo	-5367
▁Further	-5368
body	-5369
▁Ocean	-5370
▁fellow	-5371
▁Sher	-5372
▁supply	-5373
▁details	-5374
▁defensive	-5375
▁unsu	-5376
▁genus	-5377
▁entrance	-5378
▁occupied	-5379
▁recognized	-5380
▁expanded	-5381
▁concerned	-5382
orted	-5383
▁mile	-5384
▁advert	-5385
▁Turn	-5386
amin	-5387
imet	-5388
rows	-5389
▁Bra	-5390
▁Coast	-5391
▁Liverpool	-5392
▁infantry	-5393
▁statement	-5394
ima	-5395
▁pointed	-5396
▁improved	-5397
SB	-5398
▁deck	-5399
ampion	-5400
oted	-5401
▁Clark	-5402
▁Command	-5403
▁steel	-5404
▁Board	-5405
▁filming	-5406
▁extremely	-5407
▁poem	-5408
▁breast	-5409
▁feelings	-5410
umes	-5411
▁evac	-5412
▁Islands	-5413
▁1968	-5414
▁177	-5415
▁rhy	-5416
▁Pers	-5417
▁unus	-5418
▁Duke	-5419
▁ceremony	-5420
water	-5421
▁specim	-5422
▁describes	-5423
▁Public	-5424
▁interchange	-5425
▁coal	-5426
▁arrival	-5427
▁1985	-5428
▁creation	-5429
▁Fam	-5430
▁acad	-5431
▁finds	-5432
▁178	-5433
▁Lind	-5434
▁conduct	-5435
war	-5436
▁dial	-5437
adelph	-5438
▁household	-5439
attle	-5440
▁thirty	-5441
▁kilometres	-5442
▁Ohio	-5443
▁protection	-5444
ulture	-5445
▁Beat	-5446
▁doubt	-5447
▁touchdown	-5448
TC	-5449
▁unf	-5450
▁gross	-5451
▁Never	-5452
▁Disney	-5453
▁explos	-5454
cel	-5455
▁families	-5456
▁expansion	-5457
iter	-5458
▁lands	-5459
▁currently	-5460
▁Corn	-5461
▁pros	-5462
▁flo	-5463
▁management	-5464
▁needs	-5465
▁ancient	-5466
▁cart	-5467
▁closely	-5468
▁CD	-5469
▁containing	-5470
▁headquarters	-5471
▁Prime	-5472
▁piano	-5473
▁resemb	-5474
iations	-5475
▁responded	-5476
▁Homer	-5477
wise	-5478
▁purchased	-5479
▁Jo	-5480
▁approached	-5481
ba	-5482
gun	-5483
▁Due	-5484
▁witness	-5485
▁planning	-5486
▁Ul	-5487
▁personnel	-5488
▁Republican	-5489
▁Philadelph	-5490
▁lic	-5491
▁guess	-5492
▁Sk	-5493
▁Fantasy	-5494
itan	-5495
▁1984	-5496
▁disappear	-5497
ads	-5498
▁absol	-5499
▁disease	-5500
▁Beyon	-5501
▁Spain	-5502
▁wrest	-5503
▁franch	-5504
▁neither	-5505
▁successfully	-5506
▁Spe	-5507
▁74	-5508
▁vir	-5509
▁inte	-5510
▁Mos	-5511
usted	-5512
eral	-5513
▁Cat	-5514
▁painting	-5515
ii	-5516
▁Korean	-5517
gent	-5518
▁rules	-5519
▁opposite	-5520
▁Even	-5521
▁Square	-5522
▁Philadelphia	-5523
▁asking	-5524
▁SR	-5525
▁gain	-5526
▁unique	-5527
▁solo	-5528
▁Broad	-5529
▁steam	-5530
▁happen	-5531
▁transform	-5532
time	-5533
▁wine	-5534
▁damn	-5535
▁drama	-5536
▁scheduled	-5537
▁hired	-5538
▁Wilson	-5539
▁tongue	-5540
▁commissioned	-5541
▁1967	-5542
▁accompanied	-5543
ef	-5544
▁handed	-5545
asha	-5546
▁mounted	-5547
▁organized	-5548
inity	-5549
▁soul	-5550
▁Mah	-5551
▁yeah	-5552
▁labor	-5553
▁seventh	-5554
otic	-5555
▁harm	-5556
▁paint	-5557
▁trains	-5558
eds	-5559
roll	-5560
▁fly	-5561
ram	-5562
iration	-5563
▁Gi	-5564
▁Beyoncé	-5565
▁Singap	-5566
▁pulling	-5567
▁je	-5568
▁threw	-5569
know	-5570
▁alt	-5571
▁thoughts	-5572
▁victoria	-5573
▁depict	-5574
▁Germ	-5575
▁shape	-5576
▁nuclear	-5577
▁Elizabeth	-5578
▁authorities	-5579
▁800	-5580
▁keeping	-5581
▁Sup	-5582
cul	-5583
oked	-5584
▁alex	-5585
▁amaz	-5586
▁relax	-5587
▁mountain	-5588
agan	-5589
▁Bart	-5590
▁impl	-5591
▁assistant	-5592
▁suggests	-5593
▁glob	-5594
▁extensive	-5595
ilton	-5596
▁66	-5597
▁Meanwhile	-5598
imal	-5599
▁battalion	-5600
yles	-5601
▁reading	-5602
▁willing	-5603
rog	-5604
ourney	-5605
▁dedicated	-5606
ali	-5607
dney	-5608
▁themes	-5609
▁Serb	-5610
▁acquired	-5611
▁sets	-5612
▁Doctor	-5613
▁buried	-5614
▁estate	-5615
▁powers	-5616
▁Cambridge	-5617
▁Russia	-5618
▁challenge	-5619
▁falling	-5620
▁stayed	-5621
▁defence	-5622
▁contest	-5623
▁orchest	-5624
▁McG	-5625
▁atmosp	-5626
▁appoint	-5627
▁lose	-5628
▁reputation	-5629
▁hur	-5630
▁Const	-5631
▁Singapore	-5632
▁Davis	-5633
▁plants	-5634
▁Wat	-5635
▁upgr	-5636
▁desper	-5637
▁contributed	-5638
▁Sund	-5639
avel	-5640
▁sed	-5641
itled	-5642
▁Nintend	-5643
▁paralle	-5644
▁daily	-5645
▁snow	-5646
▁cultural	-5647
▁bat	-5648
▁elimin	-5649
▁islands	-5650
▁Hun	-5651
▁People	-5652
▁fashion	-5653
▁Secretary	-5654
ipe	-5655
▁Gra	-5656
▁Conference	-5657
▁flu	-5658
▁administration	-5659
▁Nintendo	-5660
▁commonly	-5661
▁empt	-5662
▁decre	-5663
▁sport	-5664
▁Person	-5665
▁supporting	-5666
▁UN	-5667
andra	-5668
▁surprised	-5669
▁unl	-5670
inger	-5671
▁Once	-5672
▁Carey	-5673
▁Album	-5674
20	-5675
▁angry	-5676
▁flooding	-5677
▁Office	-5678
▁Addition	-5679
sey	-5680
eredith	-5681
▁awards	-5682
▁wanting	-5683
▁Fall	-5684
vention	-5685
▁neighbor	-5686
▁Gib	-5687
▁motor	-5688
▁Anderson	-5689
▁1983	-5690
▁Gre	-5691
▁performing	-5692
icked	-5693
worth	-5694
▁Hon	-5695
▁Ele	-5696
▁structures	-5697
ls	-5698
respond	-5699
▁comedy	-5700
▁hunter	-5701
▁pin	-5702
rence	-5703
▁boats	-5704
▁experiment	-5705
iences	-5706
▁Railway	-5707
▁casualties	-5708
▁Mur	-5709
▁dow	-5710
box	-5711
▁Rel	-5712
▁address	-5713
▁120	-5714
▁letters	-5715
▁1969	-5716
ua	-5717
▁titles	-5718
▁Among	-5719
▁1964	-5720
zy	-5721
▁apparently	-5722
▁restaurant	-5723
▁Radio	-5724
▁illust	-5725
▁susp	-5726
▁cricket	-5727
▁session	-5728
unte	-5729
ware	-5730
▁connected	-5731
▁sky	-5732
▁1972	-5733
▁1918	-5734
▁Mir	-5735
▁protected	-5736
oln	-5737
▁invited	-5738
▁arranged	-5739
▁convention	-5740
▁bands	-5741
▁safety	-5742
▁existing	-5743
▁1914	-5744
▁shock	-5745
▁constant	-5746
▁delivered	-5747
▁cup	-5748
▁adding	-5749
▁studied	-5750
▁buy	-5751
▁Wild	-5752
mann	-5753
▁Balt	-5754
▁digital	-5755
▁Development	-5756
▁Ly	-5757
▁shark	-5758
▁Asia	-5759
▁basket	-5760
▁Six	-5761
▁expedition	-5762
▁ride	-5763
eler	-5764
cer	-5765
gend	-5766
▁Musl	-5767
▁depth	-5768
▁frust	-5769
avalry	-5770
itors	-5771
▁Also	-5772
▁providing	-5773
▁weekend	-5774
▁Att	-5775
▁involve	-5776
iat	-5777
▁parties	-5778
▁Francisco	-5779
▁Lab	-5780
▁breaking	-5781
▁Burn	-5782
▁apprec	-5783
▁visual	-5784
▁advent	-5785
▁Mot	-5786
▁wet	-5787
▁1966	-5788
▁Common	-5789
▁Po	-5790
▁Sus	-5791
othing	-5792
▁girls	-5793
▁Jewish	-5794
iable	-5795
▁Ross	-5796
ante	-5797
Station	-5798
▁stock	-5799
▁provides	-5800
▁centuries	-5801
▁Child	-5802
▁rapidly	-5803
break	-5804
▁conve	-5805
▁receiving	-5806
▁PlayStation	-5807
▁1965	-5808
▁register	-5809
gest	-5810
mouth	-5811
verse	-5812
▁Columbia	-5813
icial	-5814
▁Linc	-5815
sp	-5816
▁Ur	-5817
▁bringing	-5818
▁locations	-5819
▁temperature	-5820
▁HMS	-5821
▁Rom	-5822
▁hal	-5823
▁publication	-5824
adow	-5825
▁cam	-5826
▁van	-5827
ographer	-5828
ylan	-5829
▁Lewis	-5830
▁Gulf	-5831
▁favorite	-5832
ceived	-5833
▁plane	-5834
lete	-5835
▁occas	-5836
wall	-5837
▁purs	-5838
▁Polish	-5839
▁convin	-5840
▁wants	-5841
aren	-5842
▁Wars	-5843
ologist	-5844
▁intention	-5845
▁57	-5846
▁speaking	-5847
inth	-5848
▁Review	-5849
▁End	-5850
▁consists	-5851
▁Var	-5852
▁Lieutenant	-5853
▁comic	-5854
▁actress	-5855
▁liber	-5856
▁correspond	-5857
razy	-5858
▁philos	-5859
unior	-5860
▁moments	-5861
▁1971	-5862
▁scholars	-5863
▁Hart	-5864
theless	-5865
▁ban	-5866
▁Lady	-5867
▁selection	-5868
rowned	-5869
ulpt	-5870
aka	-5871
standing	-5872
▁Between	-5873
▁reflect	-5874
senal	-5875
▁tact	-5876
▁myth	-5877
▁exerc	-5878
▁Lincoln	-5879
▁campus	-5880
30	-5881
▁Gro	-5882
▁lip	-5883
▁symbol	-5884
onym	-5885
▁1974	-5886
▁demanded	-5887
▁1982	-5888
▁Braz	-5889
▁shel	-5890
▁graph	-5891
▁finger	-5892
och	-5893
raid	-5894
▁belief	-5895
▁submar	-5896
▁1979	-5897
▁swim	-5898
▁projects	-5899
ossible	-5900
▁dram	-5901
▁analysis	-5902
▁resident	-5903
▁lb	-5904
▁employed	-5905
ader	-5906
▁notable	-5907
▁Nap	-5908
opher	-5909
▁Jean	-5910
▁extr	-5911
▁58	-5912
▁worry	-5913
▁pressed	-5914
▁hyp	-5915
▁doctor	-5916
etts	-5917
where	-5918
▁Vol	-5919
▁Nick	-5920
▁agent	-5921
▁losses	-5922
▁retire	-5923
▁Steve	-5924
▁adap	-5925
▁beach	-5926
▁intersection	-5927
▁spend	-5928
▁introduction	-5929
▁Prem	-5930
▁roughly	-5931
▁Ten	-5932
iform	-5933
▁reality	-5934
▁refle	-5935
▁viewed	-5936
▁industrial	-5937
▁definitely	-5938
▁send	-5939
▁Naz	-5940
▁acknow	-5941
▁tank	-5942
inary	-5943
▁emp	-5944
▁anger	-5945
mes	-5946
▁77	-5947
eman	-5948
▁Order	-5949
▁Water	-5950
asty	-5951
▁autom	-5952
▁gentle	-5953
ador	-5954
▁camera	-5955
▁defined	-5956
cious	-5957
▁barely	-5958
▁substant	-5959
icate	-5960
istol	-5961
▁Ta	-5962
▁launch	-5963
▁cars	-5964
vest	-5965
▁declined	-5966
▁Rome	-5967
▁capable	-5968
va	-5969
▁exclus	-5970
▁Democratic	-5971
▁Pu	-5972
▁semi	-5973
▁concer	-5974
▁secure	-5975
▁sell	-5976
▁assumed	-5977
▁putting	-5978
▁maintain	-5979
gal	-5980
met	-5981
▁Earl	-5982
▁Pot	-5983
▁solid	-5984
▁facilities	-5985
▁eld	-5986
no	-5987
▁branch	-5988
▁Bank	-5989
▁approved	-5990
▁Summer	-5991
▁Dark	-5992
▁waist	-5993
▁significantly	-5994
▁Gall	-5995
▁gall	-5996
▁anticip	-5997
▁secondary	-5998
▁1973	-5999
▁Victor	-6000
ordon	-6001
▁steps	-6002
▁smooth	-6003
▁fer	-6004
then	-6005
▁instru	-6006
▁mort	-6007
▁charts	-6008
▁promotion	-6009
acter	-6010
▁overl	-6011
▁volume	-6012
▁obl	-6013
▁Conn	-6014
▁pool	-6015
▁Brian	-6016
▁Du	-6017
iger	-6018
▁regarding	-6019
▁decor	-6020
▁promise	-6021
▁collected	-6022
▁existence	-6023
orge	-6024
▁sites	-6025
iliar	-6026
▁rated	-6027
▁Independ	-6028
▁injured	-6029
▁storyline	-6030
▁59	-6031
▁torn	-6032
▁Ca	-6033
▁Who	-6034
▁whitney	-6035
▁franchise	-6036
▁die	-6037
▁err	-6038
▁resistance	-6039
▁explain	-6040
▁neut	-6041
▁Daily	-6042
lan	-6043
▁unsuccess	-6044
▁threatened	-6045
how	-6046
▁isol	-6047
▁slid	-6048
▁soph	-6049
▁images	-6050
▁sad	-6051
bar	-6052
▁1975	-6053
▁spin	-6054
▁owner	-6055
hat	-6056
▁items	-6057
▁grabbed	-6058
▁agree	-6059
▁Only	-6060
▁shaped	-6061
▁Germans	-6062
heim	-6063
▁sole	-6064
▁proceed	-6065
istan	-6066
using	-6067
▁museum	-6068
▁combination	-6069
▁increasingly	-6070
ato	-6071
▁southeast	-6072
apes	-6073
osis	-6074
▁Jr	-6075
avig	-6076
▁plate	-6077
▁1976	-6078
▁waited	-6079
▁consequ	-6080
▁youth	-6081
▁Supreme	-6082
▁supplies	-6083
▁Tod	-6084
ilding	-6085
▁agric	-6086
ignment	-6087
▁jer	-6088
▁cells	-6089
▁vehicles	-6090
kes	-6091
lee	-6092
zer	-6093
▁sculpt	-6094
▁*	-6095
awa	-6096
▁Theat	-6097
wen	-6098
▁62	-6099
bell	-6100
▁virt	-6101
pective	-6102
▁sighed	-6103
▁economy	-6104
ographic	-6105
▁Hollywood	-6106
idden	-6107
▁warning	-6108
▁merch	-6109
▁description	-6110
▁noticed	-6111
▁Moore	-6112
▁freeway	-6113
hetic	-6114
bound	-6115
▁Press	-6116
▁possibility	-6117
▁remov	-6118
▁Bad	-6119
▁Base	-6120
▁allows	-6121
▁Point	-6122
▁moder	-6123
▁Hit	-6124
▁proposal	-6125
coming	-6126
▁Run	-6127
▁rebu	-6128
▁drove	-6129
▁connection	-6130
▁developing	-6131
▁1981	-6132
▁worst	-6133
▁Kir	-6134
▁enl	-6135
▁Fair	-6136
▁replace	-6137
▁stages	-6138
▁regions	-6139
▁700	-6140
anger	-6141
▁Vietnam	-6142
▁alle	-6143
▁rooms	-6144
▁Brazil	-6145
▁dressed	-6146
greg	-6147
▁Mas	-6148
▁NHL	-6149
▁Indust	-6150
▁gently	-6151
▁Ka	-6152
omic	-6153
▁Dream	-6154
▁lasted	-6155
▁Hay	-6156
▁Whe	-6157
▁exchange	-6158
▁composition	-6159
gers	-6160
▁applied	-6161
▁beneath	-6162
oir	-6163
ompl	-6164
▁equal	-6165
▁relie	-6166
▁Nat	-6167
▁underst	-6168
▁technology	-6169
▁72	-6170
night	-6171
▁circum	-6172
▁Imp	-6173
engers	-6174
▁drink	-6175
▁athlet	-6176
▁undert	-6177
okes	-6178
▁von	-6179
▁hydro	-6180
▁humans	-6181
bro	-6182
▁1978	-6183
▁towns	-6184
▁250	-6185
▁duty	-6186
▁page	-6187
vis	-6188
▁hol	-6189
▁prem	-6190
▁popularity	-6191
erted	-6192
▁Ep	-6193
zant	-6194
burgh	-6195
▁surrounded	-6196
▁Scient	-6197
idd	-6198
▁Head	-6199
itchell	-6200
▁renamed	-6201
▁Prin	-6202
earch	-6203
▁accompl	-6204
▁succeeded	-6205
▁Ron	-6206
achus	-6207
▁Coll	-6208
▁cited	-6209
▁Arsenal	-6210
▁Emperor	-6211
▁learn	-6212
▁retreat	-6213
▁IV	-6214
▁passion	-6215
▁96	-6216
▁99	-6217
aret	-6218
▁Die	-6219
▁bot	-6220
▁softly	-6221
▁specifically	-6222
▁Gree	-6223
▁cloud	-6224
▁driver	-6225
▁operating	-6226
▁remembered	-6227
▁alternative	-6228
▁1946	-6229
▁manner	-6230
▁Special	-6231
▁indicated	-6232
put	-6233
▁distingu	-6234
▁Byzant	-6235
▁1917	-6236
▁Station	-6237
▁citizens	-6238
▁knots	-6239
▁Prov	-6240
▁hung	-6241
▁converted	-6242
▁Bas	-6243
▁Brook	-6244
issance	-6245
▁91	-6246
▁silence	-6247
▁independence	-6248
▁Ast	-6249
▁bear	-6250
▁Walter	-6251
▁sustained	-6252
▁tomorrow	-6253
cts	-6254
ubb	-6255
▁Vill	-6256
unicip	-6257
▁temple	-6258
▁arc	-6259
▁ham	-6260
▁frag	-6261
▁fruit	-6262
▁candidate	-6263
▁southwest	-6264
▁cheek	-6265
▁limit	-6266
▁78	-6267
▁baseball	-6268
▁73	-6269
▁dangerous	-6270
▁designs	-6271
▁views	-6272
▁Miller	-6273
▁attached	-6274
▁literature	-6275
▁lean	-6276
▁acres	-6277
▁domestic	-6278
án	-6279
ician	-6280
atures	-6281
▁Songs	-6282
▁sick	-6283
▁Sel	-6284
▁emerg	-6285
▁1977	-6286
▁tied	-6287
▁programs	-6288
▁Airport	-6289
▁AC	-6290
▁producing	-6291
mun	-6292
▁Nic	-6293
▁wish	-6294
father	-6295
▁63	-6296
▁christ	-6297
▁hits	-6298
▁mia	-6299
osh	-6300
eline	-6301
▁67	-6302
▁Ho	-6303
▁thanks	-6304
achel	-6305
osl	-6306
▁fal	-6307
▁windows	-6308
▁entry	-6309
▁et	-6310
▁mad	-6311
▁wrapped	-6312
thm	-6313
▁intense	-6314
ucing	-6315
▁Golden	-6316
▁1963	-6317
▁Elect	-6318
uration	-6319
▁commit	-6320
▁formal	-6321
era	-6322
aware	-6323
▁Jay	-6324
▁yourself	-6325
▁MTV	-6326
▁dated	-6327
▁scientific	-6328
▁constitution	-6329
▁69	-6330
▁resour	-6331
achusetts	-6332
▁gameplay	-6333
▁Bir	-6334
▁opera	-6335
▁Feder	-6336
▁affect	-6337
▁models	-6338
▁alc	-6339
ntown	-6340
▁earliest	-6341
li	-6342
▁Colonel	-6343
▁politics	-6344
▁sections	-6345
▁68	-6346
▁160	-6347
▁Imperial	-6348
▁starts	-6349
▁otherwise	-6350
▁settlement	-6351
atically	-6352
FL	-6353
bourne	-6354
▁violence	-6355
▁Norway	-6356
▁vent	-6357
ko	-6358
▁1919	-6359
▁Down	-6360
▁gets	-6361
▁Portug	-6362
▁retained	-6363
▁Main	-6364
▁afraid	-6365
▁survived	-6366
▁pow	-6367
▁Women	-6368
▁phase	-6369
▁touched	-6370
phoon	-6371
▁Ken	-6372
▁rum	-6373
▁1948	-6374
▁Shortly	-6375
▁recalled	-6376
▁clay	-6377
▁eleven	-6378
▁Tam	-6379
▁repair	-6380
▁Rem	-6381
▁crimin	-6382
▁correct	-6383
▁trouble	-6384
▁task	-6385
▁Ari	-6386
▁toss	-6387
▁univers	-6388
osaurus	-6389
▁hearing	-6390
▁gradually	-6391
▁Ottoman	-6392
▁ere	-6393
wich	-6394
tical	-6395
▁Massachusetts	-6396
▁Bern	-6397
▁classes	-6398
▁Anth	-6399
▁laws	-6400
▁About	-6401
▁urban	-6402
▁Olympic	-6403
ucks	-6404
▁consum	-6405
▁Maryland	-6406
claimed	-6407
▁airport	-6408
▁journey	-6409
lyn	-6410
▁decade	-6411
orporation	-6412
▁Constant	-6413
▁stuff	-6414
▁credited	-6415
oken	-6416
▁jaw	-6417
▁drag	-6418
▁Sydney	-6419
▁98	-6420
▁Net	-6421
▁sid	-6422
leton	-6423
▁Arts	-6424
▁89	-6425
▁Nov	-6426
▁lying	-6427
▁meredith	-6428
▁attracted	-6429
ji	-6430
▁1915	-6431
▁lane	-6432
▁Mulder	-6433
itated	-6434
▁price	-6435
cription	-6436
▁certainly	-6437
▁impossible	-6438
▁descend	-6439
state	-6440
▁hip	-6441
enses	-6442
▁online	-6443
izations	-6444
▁pregnant	-6445
▁71	-6446
▁Init	-6447
▁Your	-6448
▁Stand	-6449
▁armor	-6450
▁blake	-6451
ieval	-6452
▁Alan	-6453
▁joint	-6454
▁FA	-6455
onia	-6456
oard	-6457
▁department	-6458
hus	-6459
▁Sand	-6460
▁moves	-6461
▁usual	-6462
▁Commun	-6463
wick	-6464
rete	-6465
▁winner	-6466
▁loud	-6467
▁pure	-6468
▁actual	-6469
▁Age	-6470
▁raise	-6471
▁Plan	-6472
▁faith	-6473
▁battery	-6474
▁clearly	-6475
▁weakened	-6476
urring	-6477
iversary	-6478
▁Hamilton	-6479
▁entering	-6480
▁convinced	-6481
▁Bell	-6482
▁responsibility	-6483
▁discover	-6484
▁Wrest	-6485
▁behavior	-6486
iques	-6487
ulous	-6488
▁Stadium	-6489
▁download	-6490
▁Roy	-6491
napped	-6492
otten	-6493
▁wore	-6494
▁noting	-6495
▁engines	-6496
▁kingdom	-6497
▁nest	-6498
insula	-6499
▁conqu	-6500
▁coastal	-6501
▁reserve	-6502
▁promised	-6503
▁listen	-6504
▁offers	-6505
▁library	-6506
▁doors	-6507
▁ocean	-6508
▁smiling	-6509
▁Let	-6510
▁Fire	-6511
▁breeding	-6512
▁Here	-6513
▁acts	-6514
▁Theatre	-6515
▁88	-6516
▁Bowl	-6517
▁grounds	-6518
math	-6519
▁hat	-6520
▁hoping	-6521
▁lat	-6522
▁81	-6523
▁Staff	-6524
IA	-6525
▁importance	-6526
▁answered	-6527
▁crime	-6528
▁acid	-6529
▁hill	-6530
▁males	-6531
ighters	-6532
▁Bry	-6533
▁genre	-6534
▁voted	-6535
▁Pur	-6536
itter	-6537
▁Rhodes	-6538
▁freedom	-6539
▁stadium	-6540
▁Kim	-6541
lines	-6542
gas	-6543
ansas	-6544
▁1916	-6545
▁denied	-6546
▁playoff	-6547
▁typical	-6548
oys	-6549
▁Moon	-6550
▁teen	-6551
▁spons	-6552
▁arrested	-6553
iley	-6554
▁lob	-6555
▁Pass	-6556
▁Naval	-6557
itable	-6558
▁begun	-6559
uting	-6560
▁impr	-6561
▁notice	-6562
▁regiment	-6563
▁commanded	-6564
iege	-6565
▁Cape	-6566
▁dates	-6567
▁drawing	-6568
▁mand	-6569
ario	-6570
ommod	-6571
▁elizabeth	-6572
▁Sav	-6573
inois	-6574
psons	-6575
▁chuck	-6576
▁concerns	-6577
icit	-6578
▁portrayed	-6579
▁parliament	-6580
after	-6581
▁wished	-6582
▁females	-6583
▁Instead	-6584
▁install	-6585
▁equipped	-6586
▁revolution	-6587
suit	-6588
▁tie	-6589
▁sail	-6590
▁landfall	-6591
▁forget	-6592
▁Inc	-6593
▁Kentucky	-6594
▁dating	-6595
▁Simpsons	-6596
▁Whit	-6597
▁obviously	-6598
▁references	-6599
▁inner	-6600
▁ruled	-6601
▁driven	-6602
▁survey	-6603
▁overse	-6604
ails	-6605
lets	-6606
ivalent	-6607
▁Stew	-6608
▁IG	-6609
▁empty	-6610
▁duties	-6611
▁controversy	-6612
nic	-6613
▁entitled	-6614
▁identity	-6615
▁penal	-6616
▁Gordon	-6617
ervative	-6618
▁distribution	-6619
▁79	-6620
akers	-6621
▁reduce	-6622
▁partner	-6623
▁Prof	-6624
▁Maria	-6625
▁cinem	-6626
▁wides	-6627
▁synt	-6628
▁Spring	-6629
don	-6630
▁spr	-6631
▁Loc	-6632
▁87	-6633
▁mart	-6634
▁committed	-6635
▁lie	-6636
▁accur	-6637
▁jason	-6638
▁oldest	-6639
▁boss	-6640
▁boys	-6641
▁fold	-6642
cus	-6643
fted	-6644
▁adapted	-6645
▁deaths	-6646
▁accused	-6647
▁charged	-6648
▁Alf	-6649
▁prisoners	-6650
▁routes	-6651
▁82	-6652
▁calc	-6653
▁movements	-6654
▁Yan	-6655
▁rot	-6656
▁romantic	-6657
▁finishing	-6658
▁fict	-6659
▁nomination	-6660
▁Death	-6661
▁honest	-6662
▁liqu	-6663
▁writes	-6664
atherine	-6665
asp	-6666
▁Pict	-6667
▁investigation	-6668
entially	-6669
▁internal	-6670
ja	-6671
aug	-6672
▁NBA	-6673
▁persu	-6674
▁appropri	-6675
▁brand	-6676
▁hes	-6677
▁sons	-6678
▁minister	-6679
pread	-6680
▁anyway	-6681
▁Director	-6682
hedral	-6683
▁observ	-6684
▁installed	-6685
▁thousands	-6686
▁basketball	-6687
▁Rose	-6688
▁Ball	-6689
orough	-6690
▁Confeder	-6691
▁Adam	-6692
▁avo	-6693
▁nic	-6694
▁odd	-6695
▁tanks	-6696
▁massive	-6697
▁permanent	-6698
▁principal	-6699
attered	-6700
▁Band	-6701
▁integr	-6702
▁considerable	-6703
itage	-6704
▁funds	-6705
▁aspects	-6706
▁religion	-6707
▁1962	-6708
▁Ryan	-6709
▁entertain	-6710
olis	-6711
aints	-6712
cks	-6713
▁id	-6714
▁Today	-6715
▁preced	-6716
▁recovered	-6717
▁divor	-6718
▁175	-6719
▁prey	-6720
▁landed	-6721
▁shaking	-6722
▁flew	-6723
▁closing	-6724
▁pill	-6725
▁exception	-6726
▁gray	-6727
▁Ob	-6728
▁volunte	-6729
▁94	-6730
▁intelligence	-6731
▁Dougl	-6732
▁Science	-6733
▁occasionally	-6734
ructure	-6735
▁Hug	-6736
▁purchase	-6737
▁recognition	-6738
AT	-6739
ela	-6740
▁san	-6741
▁mole	-6742
stances	-6743
▁passenger	-6744
emies	-6745
▁Singles	-6746
▁departure	-6747
▁Bal	-6748
▁wonderful	-6749
▁Han	-6750
▁micro	-6751
burn	-6752
▁drug	-6753
▁scr	-6754
▁Argent	-6755
▁treated	-6756
elle	-6757
▁absor	-6758
▁Engine	-6759
▁Power	-6760
▁basic	-6761
▁Video	-6762
▁Howard	-6763
▁staring	-6764
▁Jordan	-6765
▁normally	-6766
▁Scully	-6767
▁AD	-6768
▁shots	-6769
▁accommod	-6770
▁credit	-6771
▁helping	-6772
▁valley	-6773
▁implement	-6774
elsh	-6775
icious	-6776
▁strongly	-6777
▁thousand	-6778
▁Indiana	-6779
▁Philipp	-6780
▁returns	-6781
▁shifted	-6782
▁cous	-6783
▁colour	-6784
▁Justice	-6785
▁Project	-6786
▁ben	-6787
▁1910	-6788
▁remainder	-6789
anny	-6790
▁margin	-6791
▁posted	-6792
▁alcoh	-6793
▁nervous	-6794
▁1936	-6795
▁incred	-6796
▁130	-6797
▁Olympics	-6798
▁interesting	-6799
regon	-6800
▁Greg	-6801
▁worried	-6802
▁WWE	-6803
▁Now	-6804
▁extension	-6805
▁aer	-6806
▁seriously	-6807
▁instantly	-6808
olm	-6809
▁satisf	-6810
▁informed	-6811
icles	-6812
▁consisting	-6813
▁Beach	-6814
▁eighth	-6815
▁emerged	-6816
heme	-6817
▁Space	-6818
▁1956	-6819
▁income	-6820
▁dollars	-6821
▁recommended	-6822
▁pink	-6823
▁NC	-6824
urrent	-6825
▁decades	-6826
▁dad	-6827
▁grass	-6828
▁dub	-6829
▁Oregon	-6830
▁causes	-6831
▁replacement	-6832
▁IGN	-6833
▁Tri	-6834
▁unusual	-6835
▁glad	-6836
▁hide	-6837
borne	-6838
▁remix	-6839
▁Master	-6840
BS	-6841
▁Gil	-6842
▁Phill	-6843
▁deliber	-6844
▁Ve	-6845
▁eru	-6846
▁effectively	-6847
▁promote	-6848
▁composer	-6849
▁Walk	-6850
▁pock	-6851
▁Grant	-6852
▁debate	-6853
aza	-6854
eld	-6855
▁fil	-6856
▁animated	-6857
▁emotional	-6858
▁rolled	-6859
▁ash	-6860
▁mode	-6861
▁spending	-6862
oyd	-6863
▁Critical	-6864
▁fro	-6865
▁Work	-6866
arrass	-6867
▁courts	-6868
▁administr	-6869
▁meters	-6870
▁photograph	-6871
▁Barb	-6872
▁decline	-6873
omot	-6874
▁1947	-6875
▁sigh	-6876
▁zone	-6877
▁ridge	-6878
▁Bos	-6879
▁calm	-6880
▁Croatian	-6881
▁supporters	-6882
umin	-6883
▁Jes	-6884
▁wheel	-6885
▁Ok	-6886
▁1961	-6887
oz	-6888
▁deleg	-6889
▁shore	-6890
▁vessels	-6891
iva	-6892
▁chorus	-6893
▁highlight	-6894
▁widespread	-6895
▁Circ	-6896
▁Plot	-6897
▁autumn	-6898
rave	-6899
▁vul	-6900
▁push	-6901
▁rural	-6902
▁dismissed	-6903
▁describing	-6904
encies	-6905
▁Robinson	-6906
abe	-6907
▁Assembly	-6908
acked	-6909
▁Magazine	-6910
utely	-6911
▁passengers	-6912
▁folk	-6913
▁grown	-6914
▁Freder	-6915
▁heading	-6916
▁Transport	-6917
▁cris	-6918
▁letting	-6919
▁products	-6920
▁84	-6921
▁Andy	-6922
▁forcing	-6923
una	-6924
ierce	-6925
▁Turk	-6926
▁Kelly	-6927
▁demol	-6928
▁charges	-6929
▁obtained	-6930
emed	-6931
wing	-6932
▁Bon	-6933
▁Hou	-6934
▁Leon	-6935
▁Welsh	-6936
▁volcan	-6937
▁Mars	-6938
▁separated	-6939
▁assistance	-6940
▁1937	-6941
▁fifteen	-6942
▁worse	-6943
▁occurs	-6944
▁atmosphere	-6945
▁advice	-6946
▁facing	-6947
▁vision	-6948
▁embarrass	-6949
▁Douglas	-6950
▁Memorial	-6951
▁Military	-6952
icop	-6953
▁Premier	-6954
▁downtown	-6955
▁carefully	-6956
▁involving	-6957
vens	-6958
iller	-6959
▁eggs	-6960
issa	-6961
▁Rain	-6962
▁scre	-6963
▁Nether	-6964
▁memorial	-6965
uthor	-6966
▁1938	-6967
rupted	-6968
▁overw	-6969
▁110	-6970
▁ISB	-6971
▁Weekly	-6972
▁handle	-6973
▁exha	-6974
▁julie	-6975
▁streets	-6976
▁transition	-6977
▁interior	-6978
▁Treat	-6979
▁ISBN	-6980
agues	-6981
anean	-6982
▁belt	-6983
▁dipl	-6984
▁somewhat	-6985
▁DE	-6986
rible	-6987
▁poly	-6988
▁86	-6989
anth	-6990
▁derived	-6991
▁theatre	-6992
oster	-6993
▁taste	-6994
▁Research	-6995
ewhere	-6996
▁Adams	-6997
▁excell	-6998
ras	-6999
▁Ra	-7000
▁Roger	-7001
▁fault	-7002
▁loyal	-7003
▁regularly	-7004
▁impressed	-7005
▁shall	-7006
▁Rolling	-7007
▁Five	-7008
▁cens	-7009
▁ensure	-7010
▁familiar	-7011
▁properties	-7012
▁Gill	-7013
▁Third	-7014
▁fallen	-7015
▁Forest	-7016
▁pitch	-7017
▁badly	-7018
▁Throughout	-7019
▁difference	-7020
▁archae	-7021
▁laughing	-7022
▁ille	-7023
▁Somers	-7024
▁colony	-7025
▁Channel	-7026
▁Educ	-7027
▁protest	-7028
ture	-7029
▁Morris	-7030
▁temporary	-7031
▁ju	-7032
ilation	-7033
▁Morgan	-7034
▁sessions	-7035
oen	-7036
han	-7037
▁VII	-7038
▁certified	-7039
aki	-7040
aud	-7041
▁Row	-7042
▁lies	-7043
orney	-7044
▁fields	-7045
▁Tar	-7046
▁hug	-7047
▁burst	-7048
▁Recording	-7049
▁equivalent	-7050
▁arrangement	-7051
▁clubs	-7052
▁sailed	-7053
eed	-7054
ige	-7055
▁grant	-7056
▁dissip	-7057
▁bond	-7058
▁Constitution	-7059
▁Rele	-7060
▁Bristol	-7061
▁acknowled	-7062
▁biggest	-7063
▁Norwe	-7064
char	-7065
▁preferred	-7066
nce	-7067
▁Li	-7068
▁Pear	-7069
▁discussed	-7070
▁cul	-7071
▁spark	-7072
▁battleships	-7073
agu	-7074
▁brigade	-7075
▁employees	-7076
urday	-7077
har	-7078
▁crazy	-7079
▁Low	-7080
ensions	-7081
▁generation	-7082
isms	-7083
olas	-7084
▁Jam	-7085
▁detect	-7086
▁sequel	-7087
▁serves	-7088
▁dancing	-7089
loe	-7090
▁intent	-7091
▁absence	-7092
abled	-7093
▁surviving	-7094
▁destruction	-7095
▁Gun	-7096
▁UTC	-7097
▁forming	-7098
▁challeng	-7099
▁completion	-7100
▁Int	-7101
▁Kennedy	-7102
▁sounded	-7103
▁chemical	-7104
▁childhood	-7105
AC	-7106
▁DNA	-7107
▁vide	-7108
▁1957	-7109
▁lady	-7110
▁technical	-7111
uts	-7112
▁Web	-7113
▁Tony	-7114
▁1954	-7115
▁Family	-7116
heastern	-7117
▁Conc	-7118
▁stun	-7119
ache	-7120
▁Mountain	-7121
▁polic	-7122
▁greatly	-7123
▁accounts	-7124
aser	-7125
▁1959	-7126
▁justice	-7127
▁painted	-7128
▁suffering	-7129
▁conclusion	-7130
▁blind	-7131
▁materials	-7132
▁afterwards	-7133
you	-7134
▁shrugged	-7135
▁Yanke	-7136
▁cryst	-7137
▁fictional	-7138
▁Media	-7139
▁songwrit	-7140
▁costs	-7141
▁strengthen	-7142
▁inher	-7143
▁Gen	-7144
▁hips	-7145
▁encouraged	-7146
▁Gram	-7147
▁cock	-7148
▁Charl	-7149
▁missions	-7150
▁populations	-7151
▁understanding	-7152
ivals	-7153
▁outer	-7154
ental	-7155
▁outbreak	-7156
▁ho	-7157
▁Found	-7158
▁enemies	-7159
▁1953	-7160
▁stands	-7161
oslav	-7162
prise	-7163
▁Jane	-7164
▁hosted	-7165
riers	-7166
atinum	-7167
▁select	-7168
chang	-7169
▁reluct	-7170
▁methods	-7171
▁Ru	-7172
ogen	-7173
oking	-7174
▁Poland	-7175
▁tension	-7176
▁Illinois	-7177
▁understood	-7178
▁stick	-7179
▁Nations	-7180
▁Roberts	-7181
▁Mov	-7182
▁Philip	-7183
▁patrol	-7184
▁objects	-7185
▁Cro	-7186
▁Pope	-7187
bey	-7188
ilty	-7189
▁Raj	-7190
▁Aut	-7191
yard	-7192
▁Federal	-7193
▁alive	-7194
▁humor	-7195
▁busy	-7196
▁ancest	-7197
▁divisions	-7198
▁92	-7199
▁classic	-7200
▁covering	-7201
▁Az	-7202
ctors	-7203
▁Islam	-7204
▁enthus	-7205
▁wickets	-7206
iterr	-7207
organ	-7208
teenth	-7209
▁judge	-7210
sewhere	-7211
▁regional	-7212
▁establishment	-7213
ye	-7214
ses	-7215
▁continuing	-7216
▁quant	-7217
uty	-7218
▁distract	-7219
▁Dig	-7220
▁electron	-7221
▁parallel	-7222
je	-7223
▁Bol	-7224
▁nose	-7225
▁segment	-7226
▁Sky	-7227
▁brid	-7228
▁tiny	-7229
▁argument	-7230
▁Ira	-7231
▁symp	-7232
▁announce	-7233
▁musicians	-7234
▁requested	-7235
▁Sab	-7236
▁admit	-7237
▁Somerset	-7238
▁terminus	-7239
▁Construction	-7240
ban	-7241
▁weapon	-7242
ca	-7243
▁Hell	-7244
▁racing	-7245
▁taught	-7246
▁underw	-7247
▁penalty	-7248
▁1958	-7249
▁discovery	-7250
RA	-7251
▁Es	-7252
▁votes	-7253
▁strate	-7254
▁strateg	-7255
uther	-7256
▁differences	-7257
▁Ever	-7258
▁medal	-7259
▁renew	-7260
▁waves	-7261
▁impress	-7262
▁code	-7263
▁aboard	-7264
▁Around	-7265
▁relative	-7266
ione	-7267
▁Korea	-7268
▁holds	-7269
▁skills	-7270
▁alleged	-7271
▁strategy	-7272
▁Norwegian	-7273
▁immediate	-7274
▁uncertain	-7275
▁scheme	-7276
aria	-7277
ixon	-7278
western	-7279
▁Additionally	-7280
▁fled	-7281
onto	-7282
▁reinforce	-7283
▁Simon	-7284
agonist	-7285
▁faster	-7286
▁Within	-7287
▁93	-7288
▁rising	-7289
utt	-7290
iterranean	-7291
▁interpret	-7292
▁Ba	-7293
▁Domin	-7294
▁crash	-7295
▁x	-7296
▁Ak	-7297
going	-7298
▁vel	-7299
works	-7300
▁flash	-7301
▁fitted	-7302
▁literary	-7303
▁1900	-7304
▁changing	-7305
▁involvement	-7306
pir	-7307
▁sale	-7308
▁tries	-7309
aft	-7310
ami	-7311
aniel	-7312
▁interests	-7313
▁difficulty	-7314
▁Dog	-7315
▁golden	-7316
▁incorporated	-7317
cular	-7318
▁claiming	-7319
▁historians	-7320
▁leads	-7321
▁Thor	-7322
▁Hawai	-7323
▁wooden	-7324
▁Matthew	-7325
▁anniversary	-7326
▁Sweden	-7327
▁praise	-7328
▁funding	-7329
▁Halo	-7330
▁besides	-7331
▁elections	-7332
▁176	-7333
icide	-7334
▁Dean	-7335
▁vehicle	-7336
urance	-7337
▁assemb	-7338
▁Cru	-7339
▁sees	-7340
▁cancer	-7341
▁appearing	-7342
▁1955	-7343
▁Budd	-7344
▁beauty	-7345
▁restored	-7346
▁races	-7347
▁authors	-7348
riff	-7349
▁funny	-7350
▁visible	-7351
▁Nich	-7352
▁Kevin	-7353
▁Unlike	-7354
▁reserv	-7355
▁Last	-7356
▁Indones	-7357
ophy	-7358
▁gay	-7359
▁Lanc	-7360
▁medieval	-7361
▁Bah	-7362
▁raid	-7363
▁milit	-7364
▁garden	-7365
book	-7366
▁monarch	-7367
▁sher	-7368
▁Stanley	-7369
▁USA	-7370
ennis	-7371
▁Prior	-7372
▁Sunday	-7373
▁rhythm	-7374
▁circulation	-7375
▁documentary	-7376
agre	-7377
▁Allen	-7378
▁prede	-7379
rations	-7380
▁insisted	-7381
gie	-7382
▁mood	-7383
▁Mexican	-7384
▁dar	-7385
▁kids	-7386
▁Croatia	-7387
▁exposed	-7388
▁determine	-7389
▁attributed	-7390
▁Dom	-7391
▁Labor	-7392
▁Mediterranean	-7393
▁coat	-7394
▁seats	-7395
▁superior	-7396
van	-7397
▁luke	-7398
▁covers	-7399
▁injuries	-7400
▁rescue	-7401
▁crosses	-7402
▁passage	-7403
▁Television	-7404
▁rej	-7405
▁foss	-7406
▁adults	-7407
▁cro	-7408
▁Free	-7409
▁Kong	-7410
▁railroad	-7411
abil	-7412
▁Pit	-7413
▁vary	-7414
▁giant	-7415
▁trained	-7416
▁offering	-7417
▁Cas	-7418
▁asks	-7419
▁existed	-7420
▁association	-7421
▁1952	-7422
▁Techn	-7423
▁lunch	-7424
▁AI	-7425
▁Jews	-7426
▁tub	-7427
▁sank	-7428
▁champion	-7429
imp	-7430
▁Id	-7431
▁astron	-7432
▁palace	-7433
▁Bi	-7434
▁Ath	-7435
▁Eric	-7436
▁Iron	-7437
▁aside	-7438
▁silent	-7439
borough	-7440
▁Netherlands	-7441
▁sending	-7442
▁crop	-7443
▁resign	-7444
▁helicop	-7445
▁attacking	-7446
cho	-7447
▁Anne	-7448
▁Harr	-7449
▁swallow	-7450
▁classification	-7451
imb	-7452
▁consult	-7453
▁academic	-7454
▁Jenn	-7455
▁remn	-7456
▁Profess	-7457
▁flowers	-7458
mate	-7459
▁Cab	-7460
▁ing	-7461
▁1935	-7462
▁cruiser	-7463
▁delayed	-7464
▁classified	-7465
▁Cart	-7466
▁earn	-7467
▁rarely	-7468
▁Similar	-7469
scape	-7470
▁Trib	-7471
▁recru	-7472
▁province	-7473
BI	-7474
▁Gh	-7475
iece	-7476
▁Heart	-7477
▁restrict	-7478
▁resources	-7479
▁blow	-7480
hr	-7481
ogy	-7482
pes	-7483
▁Bruce	-7484
▁guests	-7485
▁friendly	-7486
▁shop	-7487
▁Houston	-7488
▁emotion	-7489
▁programme	-7490
▁batting	-7491
▁Dri	-7492
osure	-7493
▁Every	-7494
▁Lenn	-7495
▁pale	-7496
▁Berlin	-7497
▁Patrick	-7498
▁sexy	-7499
▁Hitler	-7500
icken	-7501
▁Dylan	-7502
▁Wright	-7503
mad	-7504
anian	-7505
▁feels	-7506
▁expensive	-7507
▁map	-7508
▁bombard	-7509
▁emergency	-7510
▁standards	-7511
▁uncom	-7512
▁overwhel	-7513
▁ori	-7514
▁1951	-7515
erto	-7516
▁bother	-7517
uly	-7518
▁1949	-7519
▁longest	-7520
ito	-7521
▁decide	-7522
▁grandfather	-7523
▁Holy	-7524
▁Journal	-7525
▁perfectly	-7526
acle	-7527
▁Bure	-7528
▁fasc	-7529
weight	-7530
▁Toronto	-7531
▁predecess	-7532
▁gal	-7533
acent	-7534
▁fuck	-7535
▁laure	-7536
crib	-7537
▁colonial	-7538
eled	-7539
▁Yug	-7540
▁compr	-7541
▁fighter	-7542
▁accompany	-7543
▁McK	-7544
▁tor	-7545
▁Again	-7546
▁offices	-7547
▁adaptation	-7548
▁collaps	-7549
▁techniques	-7550
imore	-7551
▁hook	-7552
▁lock	-7553
▁depos	-7554
▁Der	-7555
ultane	-7556
▁relationships	-7557
▁inspiration	-7558
▁ske	-7559
▁Fame	-7560
▁Jacob	-7561
▁Sports	-7562
▁locomot	-7563
▁traveled	-7564
rait	-7565
▁displ	-7566
▁choose	-7567
▁stable	-7568
▁anymore	-7569
▁retirement	-7570
opes	-7571
▁Est	-7572
▁operate	-7573
▁apolog	-7574
▁learning	-7575
▁ninth	-7576
apse	-7577
▁bon	-7578
▁knows	-7579
▁deemed	-7580
▁carrier	-7581
▁approval	-7582
▁Stock	-7583
▁prove	-7584
▁evolution	-7585
▁Francis	-7586
▁pace	-7587
▁papers	-7588
▁ignored	-7589
▁considering	-7590
▁Bulgar	-7591
ez	-7592
▁cleared	-7593
▁hunting	-7594
▁municip	-7595
annah	-7596
▁alien	-7597
▁engineer	-7598
▁rent	-7599
▁secured	-7600
▁Norman	-7601
▁schedule	-7602
▁criminal	-7603
uv	-7604
▁appointment	-7605
▁lad	-7606
▁chain	-7607
▁forth	-7608
ronze	-7609
etime	-7610
▁Brother	-7611
▁Yugoslav	-7612
▁attempting	-7613
▁Lisa	-7614
▁tort	-7615
▁Marine	-7616
▁global	-7617
▁surviv	-7618
real	-7619
incent	-7620
▁Armen	-7621
▁Niel	-7622
▁lake	-7623
▁wins	-7624
▁Muslim	-7625
▁tas	-7626
▁hundreds	-7627
roit	-7628
▁believes	-7629
oli	-7630
▁Story	-7631
▁wondered	-7632
▁Prot	-7633
▁bats	-7634
▁Gard	-7635
▁slight	-7636
▁characteristics	-7637
▁gotten	-7638
▁amazing	-7639
▁mal	-7640
▁1933	-7641
▁category	-7642
▁dominated	-7643
▁recommend	-7644
sea	-7645
▁Late	-7646
emor	-7647
▁USS	-7648
▁ethan	-7649
▁lights	-7650
▁novels	-7651
▁pounds	-7652
▁successor	-7653
▁frame	-7654
▁Beatles	-7655
▁snapped	-7656
▁uniform	-7657
▁Glob	-7658
▁meets	-7659
▁option	-7660
▁communities	-7661
▁Kat	-7662
elson	-7663
▁dens	-7664
▁obvious	-7665
▁describe	-7666
vet	-7667
▁06	-7668
▁bent	-7669
▁union	-7670
▁resigned	-7671
▁generated	-7672
▁Dick	-7673
▁Commander	-7674
▁Marg	-7675
▁veter	-7676
▁Iraq	-7677
▁Design	-7678
▁poison	-7679
▁balance	-7680
bel	-7681
aska	-7682
uster	-7683
▁1913	-7684
▁Bang	-7685
▁fixed	-7686
▁linked	-7687
iac	-7688
▁RAF	-7689
▁pap	-7690
▁cavalry	-7691
ifer	-7692
▁pictures	-7693
ois	-7694
ounced	-7695
▁Bishop	-7696
▁Swedish	-7697
▁forty	-7698
▁throne	-7699
▁chairman	-7700
▁PA	-7701
rum	-7702
▁Temple	-7703
itzer	-7704
▁veget	-7705
▁reviewer	-7706
▁Color	-7707
▁meetings	-7708
▁ratings	-7709
▁submarine	-7710
▁Trip	-7711
▁thigh	-7712
▁Nob	-7713
▁fab	-7714
▁firing	-7715
▁inse	-7716
▁wake	-7717
▁wings	-7718
▁absolutely	-7719
rees	-7720
▁Santa	-7721
▁Anthony	-7722
▁pound	-7723
▁channel	-7724
▁Byzantine	-7725
▁Education	-7726
▁disappoin	-7727
wan	-7728
fare	-7729
▁Front	-7730
▁nickn	-7731
▁realize	-7732
▁premiere	-7733
▁thir	-7734
▁Modern	-7735
▁CE	-7736
▁depicted	-7737
▁fung	-7738
olitan	-7739
▁truly	-7740
▁deeply	-7741
▁1912	-7742
▁excess	-7743
▁excellent	-7744
▁stem	-7745
eenth	-7746
▁visitors	-7747
▁Baltimore	-7748
▁1927	-7749
igration	-7750
▁twin	-7751
▁synthes	-7752
▁premiered	-7753
▁engagement	-7754
▁ray	-7755
▁presidential	-7756
anz	-7757
ods	-7758
▁rig	-7759
▁permission	-7760
▁render	-7761
▁tip	-7762
▁unless	-7763
▁modified	-7764
▁maint	-7765
▁partn	-7766
▁classical	-7767
▁unsuccessful	-7768
▁Obs	-7769
ouri	-7770
inder	-7771
zed	-7772
▁defended	-7773
phone	-7774
▁grav	-7775
▁explan	-7776
emet	-7777
empl	-7778
▁grade	-7779
▁Get	-7780
▁unex	-7781
▁unlike	-7782
▁alcohol	-7783
▁Thus	-7784
▁formally	-7785
yes	-7786
athy	-7787
ashes	-7788
▁possess	-7789
▁architecture	-7790
hips	-7791
▁Social	-7792
iami	-7793
▁naked	-7794
▁navig	-7795
gery	-7796
▁Tok	-7797
▁upd	-7798
▁recover	-7799
▁distributed	-7800
▁Belg	-7801
▁RAAF	-7802
▁saved	-7803
▁guilty	-7804
▁vulner	-7805
▁measures	-7806
▁personality	-7807
boy	-7808
▁patron	-7809
▁Lin	-7810
▁1934	-7811
▁knock	-7812
▁survive	-7813
agers	-7814
▁Princess	-7815
▁fifty	-7816
▁horror	-7817
▁tear	-7818
iveness	-7819
▁legislation	-7820
eks	-7821
▁circumstances	-7822
▁controversial	-7823
▁clar	-7824
▁truck	-7825
▁victims	-7826
▁Atlant	-7827
▁Cop	-7828
▁starred	-7829
▁instance	-7830
▁Pak	-7831
▁Tal	-7832
▁cycle	-7833
xual	-7834
veland	-7835
▁struggle	-7836
▁1921	-7837
▁Vice	-7838
▁innoc	-7839
▁somehow	-7840
▁140	-7841
▁1926	-7842
▁eyeb	-7843
iy	-7844
▁Sax	-7845
▁Supp	-7846
▁Detroit	-7847
▁Melbourne	-7848
▁withdrew	-7849
▁technique	-7850
▁ML	-7851
▁1932	-7852
▁furn	-7853
owa	-7854
▁FI	-7855
▁Cook	-7856
▁Giants	-7857
▁pushing	-7858
▁Cleveland	-7859
wealth	-7860
▁Along	-7861
▁upset	-7862
▁cousin	-7863
▁Hospital	-7864
emetery	-7865
dy	-7866
▁900	-7867
onies	-7868
▁1911	-7869
▁Library	-7870
▁comments	-7871
▁prompted	-7872
▁animation	-7873
orious	-7874
▁conte	-7875
upid	-7876
▁birthday	-7877
▁confused	-7878
▁Corporation	-7879
▁crisis	-7880
▁habitat	-7881
aks	-7882
▁designer	-7883
▁formerly	-7884
ishment	-7885
▁shr	-7886
▁Mort	-7887
▁emma	-7888
▁Samuel	-7889
▁feud	-7890
▁audio	-7891
▁poetry	-7892
▁Russell	-7893
▁bathroom	-7894
▁influential	-7895
▁cir	-7896
▁gard	-7897
resent	-7898
▁Silver	-7899
▁Chamber	-7900
eor	-7901
▁Express	-7902
▁ic	-7903
▁Arn	-7904
▁Track	-7905
▁disturb	-7906
▁joining	-7907
▁gathered	-7908
▁narrative	-7909
▁secretary	-7910
▁wondering	-7911
▁Xbox	-7912
▁Organ	-7913
▁aggress	-7914
▁graphics	-7915
▁paintings	-7916
pet	-7917
sts	-7918
▁Miami	-7919
▁Centre	-7920
▁facility	-7921
▁NBC	-7922
▁fill	-7923
▁paus	-7924
▁prog	-7925
▁jam	-7926
▁drums	-7927
▁escaped	-7928
▁ped	-7929
▁arrive	-7930
▁rebell	-7931
▁experiences	-7932
▁Hero	-7933
▁fool	-7934
▁slipped	-7935
▁opponents	-7936
▁1931	-7937
▁comfortable	-7938
udes	-7939
▁Trek	-7940
▁acted	-7941
▁clock	-7942
▁Police	-7943
bie	-7944
▁Lad	-7945
▁Turkish	-7946
ran	-7947
leep	-7948
▁Bou	-7949
urches	-7950
ogether	-7951
▁teacher	-7952
▁solution	-7953
▁possession	-7954
▁08	-7955
▁Rand	-7956
arring	-7957
tenance	-7958
▁legend	-7959
CA	-7960
agle	-7961
▁urg	-7962
▁siege	-7963
▁styles	-7964
▁simultane	-7965
▁1922	-7966
▁agents	-7967
▁link	-7968
urally	-7969
▁diplom	-7970
▁hidden	-7971
▁representing	-7972
▁evil	-7973
▁Cooper	-7974
▁liquid	-7975
▁phr	-7976
▁wal	-7977
▁videos	-7978
▁extreme	-7979
ternal	-7980
▁eating	-7981
▁tender	-7982
▁bid	-7983
▁reun	-7984
apping	-7985
▁remove	-7986
▁trials	-7987
▁Stevens	-7988
▁deployed	-7989
▁displayed	-7990
esc	-7991
▁09	-7992
▁NFL	-7993
▁Malays	-7994
▁Queens	-7995
▁prohib	-7996
▁encountered	-7997
▁participate	-7998
▁Finn	-7999
▁cooper	-8000
▁climate	-8001
▁copy	-8002
▁kate	-8003
▁reveals	-8004
▁Frederick	-8005
DS	-8006
▁arriving	-8007
▁journalist	-8008
essa	-8009
▁Bed	-8010
▁1929	-8011
▁elabor	-8012
ricted	-8013
▁backed	-8014
▁enters	-8015
▁Simp	-8016
▁signs	-8017
▁thereafter	-8018
otes	-8019
▁specimens	-8020
▁vice	-8021
▁extent	-8022
▁medium	-8023
▁Nielsen	-8024
▁emperor	-8025
▁cruisers	-8026
imm	-8027
eling	-8028
▁Benn	-8029
▁Horse	-8030
▁hated	-8031
▁une	-8032
otton	-8033
▁exit	-8034
▁Stewart	-8035
▁executed	-8036
▁Call	-8037
▁affair	-8038
▁Hungarian	-8039
▁partially	-8040
▁prevented	-8041
▁Bird	-8042
▁turrets	-8043
▁documents	-8044
▁foundation	-8045
▁aged	-8046
▁mental	-8047
▁delight	-8048
▁reviewers	-8049
yo	-8050
▁enh	-8051
ienna	-8052
▁moon	-8053
▁myst	-8054
▁laughter	-8055
unes	-8056
rose	-8057
asant	-8058
▁Apple	-8059
▁dread	-8060
▁magic	-8061
formula	-8062
▁Spears	-8063
▁pitched	-8064
▁plus	-8065
▁assass	-8066
▁danc	-8067
▁historic	-8068
▁confidence	-8069
bow	-8070
aron	-8071
▁swit	-8072
▁flank	-8073
▁influences	-8074
▁engineering	-8075
▁negotiations	-8076
▁Palace	-8077
▁neighborhood	-8078
▁diet	-8079
▁brill	-8080
▁Carter	-8081
▁Parker	-8082
▁escort	-8083
▁detailed	-8084
▁occasions	-8085
aws	-8086
usal	-8087
▁departed	-8088
ailed	-8089
▁vessel	-8090
▁Div	-8091
▁falls	-8092
▁squad	-8093
▁Missouri	-8094
▁mirror	-8095
▁Commonwealth	-8096
▁Dor	-8097
hemat	-8098
▁1890	-8099
▁Dave	-8100
▁boil	-8101
▁Lennon	-8102
▁reprod	-8103
▁struggled	-8104
▁honey	-8105
▁isolated	-8106
bean	-8107
▁Mun	-8108
▁testing	-8109
mates	-8110
▁Anton	-8111
▁chloe	-8112
▁logan	-8113
▁bypass	-8114
▁Bh	-8115
▁Ark	-8116
▁83	-8117
▁greet	-8118
▁controll	-8119
oto	-8120
power	-8121
▁clin	-8122
▁seek	-8123
▁sisters	-8124
▁Ford	-8125
umbled	-8126
▁knees	-8127
▁Minnes	-8128
▁kissing	-8129
▁Nevertheless	-8130
fire	-8131
▁Well	-8132
▁raising	-8133
▁totally	-8134
▁Category	-8135
▁intercept	-8136
▁temperatures	-8137
▁Writing	-8138
▁Advent	-8139
▁Player	-8140
▁diameter	-8141
▁Tenn	-8142
▁inhabit	-8143
▁garrison	-8144
roid	-8145
▁Aud	-8146
▁reass	-8147
▁lowest	-8148
▁carbon	-8149
▁danger	-8150
▁benefit	-8151
▁coins	-8152
▁hockey	-8153
▁grinned	-8154
▁seeking	-8155
▁releases	-8156
▁residential	-8157
▁craft	-8158
▁alter	-8159
endment	-8160
▁Napole	-8161
▁junior	-8162
rant	-8163
▁terror	-8164
▁concrete	-8165
arsh	-8166
▁Lyn	-8167
icine	-8168
▁1909	-8169
encing	-8170
▁moral	-8171
andal	-8172
▁tests	-8173
▁Michel	-8174
▁Raw	-8175
▁Heavy	-8176
▁analy	-8177
usic	-8178
lings	-8179
▁Rick	-8180
▁footage	-8181
▁1928	-8182
▁Beck	-8183
▁Yankees	-8184
▁matters	-8185
▁substantial	-8186
▁spotted	-8187
▁Minnesota	-8188
▁moderate	-8189
▁Foundation	-8190
▁crown	-8191
▁Winter	-8192
▁muscles	-8193
▁periods	-8194
▁violent	-8195
▁imprison	-8196
▁Cry	-8197
▁ninet	-8198
▁convoy	-8199
▁monument	-8200
oned	-8201
▁claire	-8202
▁Indians	-8203
▁suspend	-8204
▁disappeared	-8205
▁Ts	-8206
velt	-8207
▁Snow	-8208
ta	-8209
▁CR	-8210
▁util	-8211
▁diagn	-8212
▁Warner	-8213
▁difficulties	-8214
alions	-8215
▁cheeks	-8216
▁tempor	-8217
eu	-8218
uda	-8219
▁Austria	-8220
▁notably	-8221
fast	-8222
▁thrust	-8223
▁creative	-8224
aya	-8225
▁partly	-8226
▁stupid	-8227
▁Network	-8228
▁Lawrence	-8229
▁bella	-8230
▁whereas	-8231
▁ax	-8232
▁Guy	-8233
▁Nelson	-8234
▁merely	-8235
but	-8236
▁Lane	-8237
▁boot	-8238
▁grey	-8239
elli	-8240
▁Cold	-8241
▁Having	-8242
▁burned	-8243
▁Charlie	-8244
ilst	-8245
iner	-8246
ompson	-8247
▁elder	-8248
▁encounter	-8249
ES	-8250
▁PC	-8251
▁Roose	-8252
▁factors	-8253
fa	-8254
▁05	-8255
▁Franklin	-8256
▁MP	-8257
▁1925	-8258
▁compete	-8259
▁radar	-8260
▁Release	-8261
▁founder	-8262
▁relieved	-8263
▁suitable	-8264
▁suspected	-8265
▁organizations	-8266
enh	-8267
▁Mississ	-8268
▁emotions	-8269
▁languages	-8270
10	-8271
▁Crown	-8272
▁Author	-8273
▁indicate	-8274
osa	-8275
▁phen	-8276
▁talked	-8277
▁riding	-8278
▁confusion	-8279
helm	-8280
ester	-8281
▁embr	-8282
▁Health	-8283
▁factor	-8284
▁Ult	-8285
▁sav	-8286
▁convection	-8287
▁Hend	-8288
▁hull	-8289
▁instruments	-8290
orage	-8291
▁guys	-8292
astian	-8293
icking	-8294
ologists	-8295
▁verse	-8296
▁serial	-8297
▁staying	-8298
oust	-8299
▁goods	-8300
▁explo	-8301
▁burning	-8302
FC	-8303
▁Ern	-8304
urray	-8305
▁eager	-8306
▁format	-8307
icer	-8308
▁unw	-8309
▁Ec	-8310
oded	-8311
▁sunk	-8312
▁doesn	-8313
▁strange	-8314
ugg	-8315
hroom	-8316
▁memories	-8317
cru	-8318
eding	-8319
rified	-8320
▁refuge	-8321
▁backing	-8322
isd	-8323
▁Ot	-8324
rating	-8325
▁Ah	-8326
▁pump	-8327
igs	-8328
▁Adv	-8329
▁overs	-8330
▁lovely	-8331
▁warned	-8332
▁festival	-8333
pan	-8334
▁Wy	-8335
▁ta	-8336
▁Sin	-8337
▁Puerto	-8338
▁commemor	-8339
▁upgraded	-8340
obi	-8341
atus	-8342
olve	-8343
▁sympt	-8344
▁owners	-8345
cked	-8346
irts	-8347
▁placing	-8348
▁criticised	-8349
▁Banks	-8350
▁blank	-8351
▁proport	-8352
▁Roosevelt	-8353
▁Benj	-8354
▁Ministry	-8355
▁tack	-8356
fortun	-8357
▁tex	-8358
▁chin	-8359
ibbean	-8360
▁clothing	-8361
▁fighters	-8362
▁inaug	-8363
▁swept	-8364
▁Soon	-8365
▁representative	-8366
agger	-8367
▁gest	-8368
▁Tower	-8369
▁proud	-8370
▁behavi	-8371
▁honour	-8372
▁scream	-8373
▁discussion	-8374
fits	-8375
▁Hans	-8376
▁Greece	-8377
▁device	-8378
▁newspapers	-8379
▁territories	-8380
▁1923	-8381
ulating	-8382
▁prosec	-8383
▁disaster	-8384
▁Initially	-8385
▁reportedly	-8386
▁sufficient	-8387
▁jur	-8388
▁rit	-8389
▁advis	-8390
▁easier	-8391
▁jordan	-8392
▁coordin	-8393
▁fantasy	-8394
▁dialogue	-8395
aisy	-8396
▁sup	-8397
▁Polit	-8398
▁deter	-8399
▁proced	-8400
▁teaching	-8401
▁minimum	-8402
▁elsewhere	-8403
▁friendship	-8404
▁diff	-8405
▁suicide	-8406
obile	-8407
otype	-8408
icians	-8409
▁Human	-8410
▁finale	-8411
▁platinum	-8412
ivated	-8413
uman	-8414
▁Wing	-8415
▁gorge	-8416
▁tired	-8417
▁circle	-8418
▁rushed	-8419
▁opponent	-8420
▁Khan	-8421
▁bases	-8422
▁false	-8423
▁assists	-8424
▁shower	-8425
▁pleased	-8426
pha	-8427
▁Ye	-8428
anner	-8429
▁Comb	-8430
iders	-8431
▁Lev	-8432
anium	-8433
▁stream	-8434
▁Belgium	-8435
▁Hop	-8436
▁Phoen	-8437
▁imagine	-8438
▁frequent	-8439
▁locked	-8440
acon	-8441
▁Treaty	-8442
▁tunnel	-8443
▁creator	-8444
▁1924	-8445
▁prol	-8446
▁custom	-8447
▁Country	-8448
▁Senator	-8449
bra	-8450
otte	-8451
▁Bush	-8452
▁alleg	-8453
▁cried	-8454
▁obser	-8455
▁flights	-8456
▁Thompson	-8457
▁collapse	-8458
▁Hamp	-8459
▁tenth	-8460
▁Od	-8461
▁Canal	-8462
▁grace	-8463
▁Friend	-8464
▁assess	-8465
▁Benjamin	-8466
oral	-8467
▁Key	-8468
▁Merc	-8469
▁zack	-8470
reation	-8471
▁travelled	-8472
▁maintenance	-8473
ogan	-8474
icing	-8475
place	-8476
▁Ext	-8477
▁housing	-8478
▁adjacent	-8479
▁dogs	-8480
▁Jesus	-8481
▁sho	-8482
▁Wrestling	-8483
▁Rab	-8484
▁refere	-8485
yler	-8486
▁bay	-8487
atched	-8488
imeter	-8489
▁Laure	-8490
▁diver	-8491
▁harder	-8492
▁signing	-8493
▁Marshall	-8494
▁mountains	-8495
▁Anna	-8496
▁Chel	-8497
▁lawyer	-8498
▁degrees	-8499
face	-8500
idae	-8501
▁villages	-8502
▁Then	-8503
▁behalf	-8504
▁string	-8505
▁Egyptian	-8506
▁Jason	-8507
achment	-8508
▁Harris	-8509
▁eliminated	-8510
▁entertainment	-8511
odore	-8512
▁recordings	-8513
MA	-8514
▁07	-8515
ques	-8516
angers	-8517
▁plain	-8518
▁hate	-8519
▁reven	-8520
▁registered	-8521
▁DC	-8522
▁Clin	-8523
▁drinking	-8524
▁lord	-8525
▁shield	-8526
▁bridges	-8527
▁destroyers	-8528
▁170	-8529
▁turb	-8530
▁Hindu	-8531
uscript	-8532
▁Represent	-8533
▁worn	-8534
▁excited	-8535
▁designation	-8536
▁environmental	-8537
▁simpl	-8538
▁remarked	-8539
▁Oak	-8540
▁lists	-8541
▁rounds	-8542
▁Univers	-8543
▁funeral	-8544
ropolitan	-8545
▁concerts	-8546
▁1908	-8547
▁inqu	-8548
▁surge	-8549
▁Albums	-8550
▁purposes	-8551
utor	-8552
▁Bab	-8553
nings	-8554
▁fishing	-8555
▁Area	-8556
▁examples	-8557
▁candidates	-8558
▁Horn	-8559
▁Much	-8560
▁ethnic	-8561
neath	-8562
▁bottle	-8563
▁businesses	-8564
▁arts	-8565
▁Fried	-8566
▁finals	-8567
▁alexandra	-8568
case	-8569
active	-8570
▁Sarah	-8571
▁Return	-8572
▁mainstream	-8573
rik	-8574
forced	-8575
olph	-8576
▁Alab	-8577
▁blocks	-8578
▁kings	-8579
▁earthqu	-8580
sters	-8581
▁reaches	-8582
▁Ale	-8583
▁Native	-8584
▁attitude	-8585
▁105	-8586
▁gang	-8587
sole	-8588
▁Chron	-8589
▁multi	-8590
▁stores	-8591
▁neutral	-8592
▁perspective	-8593
▁Nar	-8594
▁universe	-8595
▁confident	-8596
▁reflected	-8597
▁lift	-8598
▁Trust	-8599
▁gasped	-8600
▁listing	-8601
▁victories	-8602
▁Shaw	-8603
▁Ll	-8604
▁Nazi	-8605
▁Knight	-8606
amps	-8607
▁illness	-8608
▁personally	-8609
▁164	-8610
▁Gaga	-8611
▁Micro	-8612
inction	-8613
▁refers	-8614
▁Alabama	-8615
▁affairs	-8616
▁Christopher	-8617
▁Kl	-8618
atern	-8619
▁1905	-8620
▁summ	-8621
▁Asian	-8622
▁spoken	-8623
▁dispute	-8624
▁directors	-8625
▁Hills	-8626
▁expert	-8627
▁jumped	-8628
▁reconst	-8629
igen	-8630
owed	-8631
▁anx	-8632
▁soil	-8633
▁tent	-8634
▁intensified	-8635
▁tag	-8636
▁weaken	-8637
▁powered	-8638
▁Mississipp	-8639
▁canal	-8640
▁Record	-8641
▁prepare	-8642
▁throwing	-8643
▁preserved	-8644
▁rates	-8645
uche	-8646
umble	-8647
▁wider	-8648
▁regret	-8649
▁functions	-8650
▁professor	-8651
▁appropriate	-8652
alo	-8653
ski	-8654
▁Oliv	-8655
▁resumed	-8656
▁Iowa	-8657
▁dies	-8658
▁bombers	-8659
▁visiting	-8660
▁abilities	-8661
ika	-8662
▁repr	-8663
incial	-8664
▁emily	-8665
▁cutting	-8666
▁Building	-8667
▁underground	-8668
▁Bull	-8669
▁irrit	-8670
itement	-8671
▁superv	-8672
▁handsome	-8673
▁queen	-8674
aver	-8675
▁1907	-8676
▁adopt	-8677
onymous	-8678
▁Guardian	-8679
anches	-8680
▁wealthy	-8681
▁Ban	-8682
▁gap	-8683
▁sket	-8684
▁squee	-8685
▁Labour	-8686
rep	-8687
ugby	-8688
▁gate	-8689
▁overt	-8690
▁puzz	-8691
▁protein	-8692
▁Children	-8693
▁ian	-8694
▁Township	-8695
▁lac	-8696
▁Brig	-8697
▁Ian	-8698
▁frig	-8699
▁jobs	-8700
▁Blood	-8701
▁faces	-8702
▁destro	-8703
▁shells	-8704
▁conscious	-8705
▁ol	-8706
▁rib	-8707
▁Administ	-8708
▁residence	-8709
▁resolution	-8710
▁Ut	-8711
▁cu	-8712
▁pocket	-8713
▁Simpson	-8714
beat	-8715
▁Nag	-8716
▁Championships	-8717
▁les	-8718
▁horn	-8719
▁prime	-8720
▁skull	-8721
▁mistake	-8722
▁Set	-8723
▁oblig	-8724
▁assisted	-8725
▁subjects	-8726
▁suggesting	-8727
▁partnership	-8728
▁Mack	-8729
▁Palest	-8730
▁churches	-8731
▁AR	-8732
inals	-8733
▁1880	-8734
▁gift	-8735
▁loan	-8736
▁bones	-8737
▁Batman	-8738
▁stress	-8739
abri	-8740
▁dynam	-8741
▁Saturday	-8742
ivery	-8743
inging	-8744
▁Forces	-8745
▁minimal	-8746
asm	-8747
bal	-8748
arth	-8749
oped	-8750
rain	-8751
▁Aff	-8752
▁Real	-8753
▁Disc	-8754
▁Alfred	-8755
▁quietly	-8756
▁publicly	-8757
▁reminded	-8758
▁leaning	-8759
▁agricultural	-8760
izz	-8761
ctic	-8762
▁sung	-8763
▁Lucas	-8764
▁statue	-8765
▁ranking	-8766
wa	-8767
▁Dance	-8768
▁maneu	-8769
▁anywhere	-8770
dale	-8771
ules	-8772
▁Mach	-8773
▁Anglo	-8774
▁treaty	-8775
▁voiced	-8776
▁situated	-8777
▁Rap	-8778
▁Cole	-8779
▁Magn	-8780
▁Perform	-8781
▁Mess	-8782
▁thunder	-8783
▁prospect	-8784
▁Caribbean	-8785
▁VI	-8786
▁Hotel	-8787
▁policies	-8788
▁Wol	-8789
▁lect	-8790
▁flesh	-8791
▁04	-8792
▁Clar	-8793
▁marsh	-8794
▁tribute	-8795
▁Hand	-8796
▁Event	-8797
names	-8798
▁shift	-8799
▁aimed	-8800
▁Seattle	-8801
▁competed	-8802
▁shout	-8803
▁dramatic	-8804
▁recognised	-8805
▁Australians	-8806
idi	-8807
▁adam	-8808
▁button	-8809
▁feather	-8810
▁submitted	-8811
▁occupation	-8812
▁cow	-8813
▁Evans	-8814
▁orbit	-8815
▁Kansas	-8816
▁barr	-8817
▁banks	-8818
▁Mitchell	-8819
▁manuscript	-8820
▁vast	-8821
▁construct	-8822
▁Lam	-8823
▁1906	-8824
▁pron	-8825
▁misty	-8826
▁surgery	-8827
▁chuckled	-8828
thel	-8829
▁Mississippi	-8830
attan	-8831
▁Holl	-8832
▁Alice	-8833
▁Digital	-8834
▁divorce	-8835
▁measured	-8836
onica	-8837
lessly	-8838
▁Tracy	-8839
▁innov	-8840
▁alignment	-8841
▁parish	-8842
uma	-8843
▁grim	-8844
▁toll	-8845
▁cream	-8846
▁erupt	-8847
▁tribes	-8848
▁satell	-8849
▁strict	-8850
▁convince	-8851
▁believing	-8852
▁excitement	-8853
▁slam	-8854
▁parking	-8855
▁survivors	-8856
▁storms	-8857
uable	-8858
▁Kurt	-8859
ista	-8860
▁recip	-8861
▁striking	-8862
pled	-8863
▁Shel	-8864
▁Legacy	-8865
ographical	-8866
▁scientists	-8867
▁Brun	-8868
estyle	-8869
▁marks	-8870
▁Athlet	-8871
▁patterns	-8872
▁rush	-8873
▁touching	-8874
iens	-8875
▁forever	-8876
▁protagonist	-8877
▁murd	-8878
▁hanging	-8879
▁advoc	-8880
▁amounts	-8881
▁instrumental	-8882
tar	-8883
▁stairs	-8884
aughters	-8885
▁confront	-8886
▁guar	-8887
bishop	-8888
ending	-8889
▁interpre	-8890
▁decisions	-8891
▁1904	-8892
▁initi	-8893
▁Colorado	-8894
▁Fem	-8895
▁jeans	-8896
▁Cob	-8897
▁reco	-8898
▁restoration	-8899
▁shit	-8900
▁impression	-8901
▁scholar	-8902
▁listening	-8903
▁pup	-8904
▁recon	-8905
▁condem	-8906
▁deeper	-8907
▁pilots	-8908
▁Wilhelm	-8909
▁indicating	-8910
▁subt	-8911
▁nations	-8912
SP	-8913
▁sla	-8914
▁butt	-8915
▁reveal	-8916
▁sleeping	-8917
▁preparation	-8918
oga	-8919
uese	-8920
▁categ	-8921
inental	-8922
inks	-8923
tery	-8924
icity	-8925
▁amongst	-8926
away	-8927
essee	-8928
▁Scientology	-8929
▁orb	-8930
▁Dest	-8931
▁jenny	-8932
ivan	-8933
▁USD	-8934
▁ell	-8935
ensed	-8936
▁knee	-8937
▁tiss	-8938
▁Works	-8939
▁riders	-8940
▁battlecru	-8941
▁unexpected	-8942
▁Ice	-8943
▁ideal	-8944
▁Grammy	-8945
▁girlfriend	-8946
▁Kal	-8947
▁See	-8948
▁Hud	-8949
▁poorly	-8950
▁Peninsula	-8951
▁electronic	-8952
acc	-8953
empo	-8954
fish	-8955
▁salt	-8956
munition	-8957
▁Industry	-8958
▁bone	-8959
▁devast	-8960
▁stronger	-8961
▁anch	-8962
orders	-8963
▁crews	-8964
▁corpor	-8965
▁credits	-8966
▁Louisiana	-8967
▁Race	-8968
▁pier	-8969
▁stiff	-8970
▁repairs	-8971
▁staffan	-8972
▁suspended	-8973
bles	-8974
▁Cred	-8975
▁Manh	-8976
▁glance	-8977
▁temporarily	-8978
▁sector	-8979
▁circuit	-8980
▁125	-8981
▁afford	-8982
▁dollar	-8983
▁demands	-8984
▁leather	-8985
▁Inn	-8986
▁McD	-8987
▁Flight	-8988
▁manage	-8989
▁imperial	-8990
▁represents	-8991
▁obst	-8992
▁layer	-8993
▁jacket	-8994
▁julian	-8995
▁Phoenix	-8996
▁mushroom	-8997
erk	-8998
▁Dead	-8999
▁horiz	-9000
▁challenged	-9001
▁01	-9002
bled	-9003
▁mas	-9004
namese	-9005
▁Nixon	-9006
▁bowling	-9007
▁illegal	-9008
▁symptoms	-9009
▁Vietnamese	-9010
orer	-9011
▁165	-9012
ealous	-9013
▁Kirk	-9014
▁recall	-9015
ibilities	-9016
▁1870	-9017
▁span	-9018
adi	-9019
enico	-9020
azines	-9021
▁ridic	-9022
▁Kings	-9023
▁closest	-9024
▁targets	-9025
▁Portland	-9026
olid	-9027
▁Sym	-9028
▁blond	-9029
▁scrap	-9030
▁citing	-9031
▁values	-9032
▁searching	-9033
inter	-9034
▁colonies	-9035
▁defeating	-9036
iped	-9037
uh	-9038
rot	-9039
emen	-9040
ateur	-9041
▁domenico	-9042
osm	-9043
▁Cov	-9044
▁Season	-9045
▁flagship	-9046
▁neighbour	-9047
▁Independent	-9048
▁Moh	-9049
eping	-9050
cribed	-9051
▁strip	-9052
▁adventure	-9053
▁somewhere	-9054
oker	-9055
▁decides	-9056
arked	-9057
▁print	-9058
▁spiritual	-9059
▁filed	-9060
▁hitting	-9061
orous	-9062
▁casting	-9063
▁delivery	-9064
▁replacing	-9065
▁Lim	-9066
▁Tit	-9067
▁mac	-9068
▁Josh	-9069
▁Mario	-9070
▁fate	-9071
▁pursue	-9072
▁signal	-9073
▁explains	-9074
▁Portuguese	-9075
▁Ple	-9076
▁Buck	-9077
▁wasn	-9078
▁Garden	-9079
▁flower	-9080
▁armored	-9081
▁forehead	-9082
▁Interstate	-9083
▁announcement	-9084
▁Dur	-9085
▁vic	-9086
▁aunt	-9087
▁remnants	-9088
lah	-9089
▁Ren	-9090
▁lacked	-9091
▁profile	-9092
▁alliance	-9093
▁desp	-9094
▁completing	-9095
iph	-9096
reck	-9097
▁joy	-9098
▁useful	-9099
▁Hungary	-9100
▁UE	-9101
▁360	-9102
ooking	-9103
▁Rachel	-9104
SA	-9105
sk	-9106
▁Sony	-9107
▁excav	-9108
▁pages	-9109
▁knocked	-9110
▁armament	-9111
uzz	-9112
▁ly	-9113
▁Critics	-9114
▁breakfast	-9115
▁Dw	-9116
▁Roc	-9117
▁Gray	-9118
▁operational	-9119
unc	-9120
▁harsh	-9121
▁rivers	-9122
▁Campbell	-9123
▁repeatedly	-9124
agh	-9125
▁Edge	-9126
▁depending	-9127
▁concentration	-9128
▁thrown	-9129
▁Near	-9130
▁Medal	-9131
mother	-9132
▁breathing	-9133
▁restricted	-9134
▁Marie	-9135
jo	-9136
ancell	-9137
▁creek	-9138
▁shear	-9139
▁chapel	-9140
▁mobile	-9141
▁rebuilt	-9142
▁ammunition	-9143
▁jet	-9144
▁confron	-9145
▁na	-9146
uations	-9147
▁Program	-9148
▁ownership	-9149
▁fant	-9150
▁meat	-9151
▁agency	-9152
isp	-9153
▁fatal	-9154
▁sequences	-9155
▁attendance	-9156
▁mines	-9157
▁articles	-9158
ellect	-9159
▁lover	-9160
▁cancelled	-9161
▁collapsed	-9162
▁percentage	-9163
▁Murray	-9164
olen	-9165
▁Bros	-9166
▁underneath	-9167
▁indeed	-9168
▁battalions	-9169
gro	-9170
inea	-9171
▁rushing	-9172
▁Son	-9173
▁jew	-9174
▁precip	-9175
▁beating	-9176
▁genetic	-9177
▁multipl	-9178
formation	-9179
▁simultaneously	-9180
CC	-9181
TA	-9182
do	-9183
▁navy	-9184
▁drunk	-9185
▁coverage	-9186
▁severely	-9187
▁acknowledged	-9188
▁cad	-9189
rates	-9190
orship	-9191
▁renov	-9192
▁shoes	-9193
lock	-9194
▁Len	-9195
▁saff	-9196
▁Seven	-9197
ardo	-9198
gate	-9199
▁Lex	-9200
stairs	-9201
▁daniel	-9202
▁retail	-9203
▁Connect	-9204
▁Da	-9205
▁Pier	-9206
▁waste	-9207
▁succeed	-9208
▁audiences	-9209
vere	-9210
itively	-9211
▁relaxed	-9212
▁Margaret	-9213
▁predomin	-9214
▁Tennessee	-9215
▁practices	-9216
sex	-9217
lain	-9218
▁conservative	-9219
▁Jup	-9220
▁Prom	-9221
keeper	-9222
▁cargo	-9223
▁Leslie	-9224
▁DS	-9225
umph	-9226
▁tug	-9227
▁Nash	-9228
▁Open	-9229
▁genu	-9230
life	-9231
▁pride	-9232
▁dynasty	-9233
▁Dal	-9234
▁anth	-9235
ieties	-9236
▁forests	-9237
▁lieutenant	-9238
▁poems	-9239
▁institution	-9240
▁quarterback	-9241
rad	-9242
onder	-9243
▁Bureau	-9244
▁dreams	-9245
▁115	-9246
▁coinc	-9247
ruption	-9248
▁Warren	-9249
▁swimming	-9250
▁Som	-9251
▁Hockey	-9252
▁paused	-9253
▁acceler	-9254
▁clayton	-9255
ni	-9256
isons	-9257
▁Depression	-9258
irm	-9259
var	-9260
▁Cur	-9261
▁Blues	-9262
▁pretend	-9263
ffect	-9264
▁Billy	-9265
agen	-9266
ocol	-9267
rome	-9268
suing	-9269
▁Canter	-9270
▁evident	-9271
▁Hu	-9272
acre	-9273
▁ears	-9274
inations	-9275
▁boyfriend	-9276
▁favorable	-9277
rawn	-9278
▁deliberately	-9279
ygen	-9280
apolis	-9281
▁bronze	-9282
bird	-9283
▁Born	-9284
▁mamm	-9285
▁subst	-9286
▁yield	-9287
▁offense	-9288
▁magazines	-9289
▁referring	-9290
▁dict	-9291
▁intim	-9292
▁firmly	-9293
▁comparison	-9294
▁demonstrated	-9295
ghan	-9296
olly	-9297
▁dying	-9298
▁collaboration	-9299
oons	-9300
ipper	-9301
▁fulf	-9302
▁gear	-9303
▁hole	-9304
aration	-9305
▁bacter	-9306
▁Cyr	-9307
▁factory	-9308
▁millimet	-9309
▁Marc	-9310
▁jazz	-9311
▁abund	-9312
▁bombs	-9313
▁drugs	-9314
▁noise	-9315
▁studying	-9316
▁application	-9317
▁heir	-9318
▁angle	-9319
▁guide	-9320
▁empire	-9321
▁context	-9322
▁gust	-9323
orable	-9324
▁Guitar	-9325
▁compounds	-9326
▁101	-9327
essica	-9328
▁junction	-9329
▁shipping	-9330
▁Business	-9331
ti	-9332
ée	-9333
ucked	-9334
▁Baby	-9335
▁Bath	-9336
▁Cuba	-9337
▁Tele	-9338
▁steady	-9339
▁arrangements	-9340
ocy	-9341
▁Vis	-9342
▁loose	-9343
▁hiding	-9344
▁earning	-9345
▁sixteen	-9346
▁Baseball	-9347
▁explosion	-9348
▁nominations	-9349
▁nurs	-9350
erg	-9351
orph	-9352
▁McL	-9353
phony	-9354
▁Hugh	-9355
▁chamber	-9356
▁Jonathan	-9357
▁charity	-9358
mn	-9359
oddess	-9360
▁Prize	-9361
▁exclud	-9362
▁shorter	-9363
▁Historic	-9364
▁Steven	-9365
▁artistic	-9366
▁explanation	-9367
▁movies	-9368
▁retain	-9369
▁Rih	-9370
▁Dragon	-9371
▁1903	-9372
▁Baker	-9373
▁daisy	-9374
▁disagre	-9375
▁opportun	-9376
ethe	-9377
▁bull	-9378
▁pant	-9379
▁rafe	-9380
▁scen	-9381
rehens	-9382
▁Files	-9383
rob	-9384
annon	-9385
▁Such	-9386
▁abol	-9387
▁saffi	-9388
▁typhoon	-9389
▁Rat	-9390
storm	-9391
▁touring	-9392
▁exclusive	-9393
sky	-9394
▁1902	-9395
▁Ariz	-9396
▁Maur	-9397
▁infr	-9398
▁callie	-9399
odge	-9400
▁inland	-9401
▁Jupiter	-9402
▁EP	-9403
▁Hem	-9404
▁Anim	-9405
▁trick	-9406
▁distant	-9407
▁printed	-9408
▁Delaware	-9409
▁concentrated	-9410
reated	-9411
▁handled	-9412
▁suspect	-9413
▁intellect	-9414
▁administrative	-9415
▁incomp	-9416
▁seized	-9417
▁predict	-9418
▁reconna	-9419
▁hem	-9420
▁Less	-9421
▁Rihanna	-9422
▁bearing	-9423
▁inhabitants	-9424
▁1901	-9425
uces	-9426
▁Know	-9427
▁intr	-9428
▁march	-9429
▁distinguished	-9430
▁Shakes	-9431
▁Non	-9432
▁Todd	-9433
▁Small	-9434
▁Canterbury	-9435
ori	-9436
▁Grey	-9437
▁debt	-9438
▁characterized	-9439
▁bulk	-9440
▁Harvey	-9441
▁furious	-9442
▁fourteen	-9443
orne	-9444
▁Box	-9445
▁Pil	-9446
▁Wag	-9447
angle	-9448
▁Publ	-9449
▁fastest	-9450
▁carriers	-9451
▁Enterprise	-9452
▁strengthened	-9453
amped	-9454
▁Diego	-9455
▁Clinton	-9456
▁ranging	-9457
▁Montreal	-9458
▁dominant	-9459
▁Hold	-9460
▁Players	-9461
▁athletes	-9462
▁Fal	-9463
▁conce	-9464
▁Indies	-9465
▁storage	-9466
▁Manhattan	-9467
▁Craw	-9468
▁sheep	-9469
▁playoffs	-9470
▁essential	-9471
▁communication	-9472
▁174	-9473
▁Tag	-9474
▁altered	-9475
▁ceiling	-9476
▁reconnaissance	-9477
ught	-9478
▁Ferr	-9479
▁Ward	-9480
pecies	-9481
▁vulnerable	-9482
▁approaching	-9483
▁Ped	-9484
estone	-9485
▁Walker	-9486
▁paying	-9487
▁Arizona	-9488
▁welcome	-9489
▁civilian	-9490
▁Federation	-9491
▁exhibition	-9492
▁168	-9493
▁nights	-9494
▁lowered	-9495
▁photographs	-9496
▁aggressive	-9497
▁excuse	-9498
▁jealous	-9499
▁controls	-9500
grad	-9501
▁Lang	-9502
▁Muham	-9503
sequently	-9504
▁Kane	-9505
▁Prote	-9506
▁mayor	-9507
elo	-9508
▁propag	-9509
▁revers	-9510
▁triple	-9511
▁stationed	-9512
▁traveling	-9513
▁disappointed	-9514
▁Tun	-9515
▁Mand	-9516
▁assum	-9517
▁argues	-9518
▁compilation	-9519
▁masc	-9520
▁stuck	-9521
▁Bennett	-9522
▁breasts	-9523
▁permitted	-9524
urer	-9525
itals	-9526
peare	-9527
idency	-9528
▁annoy	-9529
▁organisation	-9530
▁03	-9531
▁Liz	-9532
▁Original	-9533
uan	-9534
▁109	-9535
▁Mik	-9536
▁Stat	-9537
▁ruling	-9538
town	-9539
▁bonus	-9540
▁guards	-9541
ensively	-9542
itis	-9543
▁Fat	-9544
▁Abbey	-9545
kh	-9546
soft	-9547
▁cod	-9548
▁prize	-9549
▁perceived	-9550
Ar	-9551
oom	-9552
icut	-9553
odox	-9554
▁Mrs	-9555
▁Sak	-9556
mingham	-9557
▁Impact	-9558
▁obtain	-9559
▁Persian	-9560
▁merchant	-9561
TW	-9562
▁Cow	-9563
▁Swe	-9564
issions	-9565
▁Turner	-9566
▁worship	-9567
▁distinctive	-9568
ele	-9569
▁silk	-9570
▁console	-9571
▁similarly	-9572
▁questioned	-9573
▁institutions	-9574
▁NCAA	-9575
▁orange	-9576
▁Fleming	-9577
▁surpass	-9578
fortunately	-9579
▁Philippines	-9580
berry	-9581
▁myster	-9582
▁predicted	-9583
▁Wolf	-9584
▁suite	-9585
▁engage	-9586
▁Buff	-9587
▁loop	-9588
lahoma	-9589
▁Guide	-9590
▁visits	-9591
▁frustration	-9592
▁brick	-9593
▁reply	-9594
▁profit	-9595
▁bowl	-9596
▁Camer	-9597
▁warship	-9598
▁desperate	-9599
▁02	-9600
▁stern	-9601
imination	-9602
▁Broadway	-9603
▁households	-9604
▁preparing	-9605
▁shaft	-9606
▁settlers	-9607
▁vertical	-9608
▁demolished	-9609
▁kW	-9610
hous	-9611
▁Dub	-9612
warf	-9613
▁armour	-9614
▁interrupted	-9615
▁ma	-9616
▁NAS	-9617
▁Tel	-9618
▁blast	-9619
▁Shakespeare	-9620
OK	-9621
abs	-9622
acles	-9623
iture	-9624
▁ease	-9625
▁accum	-9626
faction	-9627
▁Atlanta	-9628
▁artific	-9629
▁Fif	-9630
▁glac	-9631
▁legacy	-9632
▁marketing	-9633
▁Juan	-9634
▁oxygen	-9635
▁thirteen	-9636
aux	-9637
▁Morr	-9638
▁ranch	-9639
▁bra	-9640
▁therap	-9641
uri	-9642
▁climb	-9643
ullivan	-9644
▁shocked	-9645
ova	-9646
▁Buddh	-9647
▁enorm	-9648
▁lanes	-9649
▁daughters	-9650
▁Ze	-9651
▁sugar	-9652
▁specimen	-9653
▁ABC	-9654
▁Kam	-9655
▁Unt	-9656
▁ward	-9657
▁fract	-9658
▁dropping	-9659
rine	-9660
▁Chelsea	-9661
▁gorgeous	-9662
lu	-9663
▁Meg	-9664
▁Oklahoma	-9665
▁attending	-9666
▁Tokyo	-9667
▁insist	-9668
▁sentence	-9669
▁Pow	-9670
inister	-9671
appy	-9672
▁talent	-9673
▁Denmark	-9674
▁contributions	-9675
▁McM	-9676
▁voices	-9677
▁frowned	-9678
▁Muhammad	-9679
▁landscape	-9680
uart	-9681
▁Celt	-9682
▁Girls	-9683
▁femin	-9684
▁compens	-9685
▁flooded	-9686
▁identify	-9687
▁orchestra	-9688
▁Abd	-9689
▁rif	-9690
▁Econom	-9691
▁reward	-9692
▁erected	-9693
▁tightly	-9694
▁Napoleon	-9695
▁sear	-9696
▁plates	-9697
▁comprom	-9698
▁revenue	-9699
▁youngest	-9700
▁behaviour	-9701
▁brilliant	-9702
▁Birmingham	-9703
anie	-9704
▁Mes	-9705
onomy	-9706
▁Keith	-9707
▁ranks	-9708
▁armies	-9709
▁whilst	-9710
▁beam	-9711
▁gods	-9712
▁skill	-9713
▁Graham	-9714
▁allies	-9715
▁mathemat	-9716
eton	-9717
▁Ral	-9718
▁HD	-9719
▁Bomb	-9720
▁subd	-9721
▁desert	-9722
▁exercise	-9723
▁alternate	-9724
▁seed	-9725
▁Chand	-9726
▁manip	-9727
▁betray	-9728
▁feeding	-9729
inus	-9730
▁encl	-9731
▁counties	-9732
▁dissipated	-9733
▁Ton	-9734
▁Lock	-9735
▁legit	-9736
imented	-9737
▁fabric	-9738
▁pitc	-9739
▁sang	-9740
▁explore	-9741
▁Internet	-9742
MI	-9743
▁--	-9744
▁dining	-9745
▁evolved	-9746
▁peaking	-9747
▁happening	-9748
▁wrestling	-9749
hears	-9750
▁victim	-9751
▁boundary	-9752
▁judg	-9753
▁thorough	-9754
▁Curt	-9755
▁revol	-9756
▁bombing	-9757
▁enjoying	-9758
▁Rub	-9759
aping	-9760
▁Hong	-9761
▁ports	-9762
▁definition	-9763
▁profession	-9764
▁Nine	-9765
▁penet	-9766
▁Justin	-9767
▁Railroad	-9768
▁emphasis	-9769
▁connecting	-9770
▁por	-9771
▁proof	-9772
▁jurisd	-9773
▁tactics	-9774
▁vs	-9775
▁murm	-9776
▁Bobby	-9777
▁polar	-9778
ovi	-9779
itzerland	-9780
▁philosophy	-9781
▁Mother	-9782
▁scattered	-9783
▁obsc	-9784
▁artwork	-9785
▁chronic	-9786
▁northward	-9787
▁caps	-9788
▁echo	-9789
▁Fel	-9790
▁sar	-9791
▁roots	-9792
▁Gilbert	-9793
▁Confederate	-9794
▁Amy	-9795
▁meal	-9796
▁Wayne	-9797
▁hardly	-9798
▁Champions	-9799
▁withdrawal	-9800
OT	-9801
iko	-9802
▁Eu	-9803
cott	-9804
▁predecessor	-9805
oven	-9806
▁Patt	-9807
▁Mission	-9808
▁requires	-9809
▁defending	-9810
▁attraction	-9811
LC	-9812
▁militia	-9813
▁defences	-9814
▁identical	-9815
bec	-9816
▁liv	-9817
▁Tamil	-9818
▁panel	-9819
▁continu	-9820
▁dear	-9821
▁stead	-9822
▁Territ	-9823
▁reduction	-9824
▁Dak	-9825
▁noble	-9826
▁weigh	-9827
▁aggreg	-9828
▁diamond	-9829
▁Campaign	-9830
▁aftermath	-9831
▁publishing	-9832
▁establishing	-9833
itate	-9834
▁Scout	-9835
▁Anc	-9836
▁Sig	-9837
▁colors	-9838
▁ongoing	-9839
▁readers	-9840
▁elevation	-9841
▁disappoint	-9842
aro	-9843
nik	-9844
▁Opp	-9845
▁fewer	-9846
▁trapped	-9847
▁exposure	-9848
▁overseas	-9849
▁whenever	-9850
▁organised	-9851
▁employment	-9852
▁eleg	-9853
▁stall	-9854
ean	-9855
▁Ins	-9856
▁arguing	-9857
▁qualified	-9858
agg	-9859
die	-9860
▁TNA	-9861
▁Karl	-9862
▁Davies	-9863
▁widened	-9864
▁forgotten	-9865
▁celebrated	-9866
▁CO	-9867
▁Ont	-9868
▁Vik	-9869
▁extract	-9870
▁branches	-9871
rm	-9872
▁sensitive	-9873
uz	-9874
ieth	-9875
star	-9876
▁enthusi	-9877
▁originated	-9878
▁Spart	-9879
▁Trophy	-9880
▁initiated	-9881
▁membership	-9882
▁Las	-9883
anton	-9884
▁Ches	-9885
▁UEFA	-9886
▁limits	-9887
▁wicket	-9888
hard	-9889
▁Arnold	-9890
▁Hudson	-9891
▁acclaim	-9892
▁Hur	-9893
▁elig	-9894
▁ticket	-9895
▁guitarist	-9896
▁pregnancy	-9897
▁Furthermore	-9898
ifies	-9899
ultan	-9900
▁acoust	-9901
▁discip	-9902
▁spaces	-9903
▁rebellion	-9904
▁cards	-9905
▁Clarke	-9906
▁fairly	-9907
▁failing	-9908
▁proceeded	-9909
▁sq	-9910
▁Gene	-9911
▁butter	-9912
▁cabinet	-9913
▁Switzerland	-9914
othy	-9915
▁Lith	-9916
▁pray	-9917
artney	-9918
▁dealing	-9919
▁removal	-9920
ello	-9921
▁attained	-9922
▁Ga	-9923
▁Harv	-9924
▁argue	-9925
▁tubes	-9926
inge	-9927
terior	-9928
▁releg	-9929
▁regime	-9930
▁options	-9931
▁origins	-9932
▁westward	-9933
▁163	-9934
inted	-9935
oyage	-9936
▁bite	-9937
▁advertising	-9938
▁publications	-9939
▁Our	-9940
▁discovers	-9941
▁Originally	-9942
EC	-9943
equ	-9944
▁Ald	-9945
inated	-9946
▁Perry	-9947
▁theater	-9948
▁discont	-9949
▁portions	-9950
▁brig	-9951
▁dubbed	-9952
▁Eventually	-9953
ple	-9954
eland	-9955
▁mock	-9956
▁Jimmy	-9957
▁Johnny	-9958
▁advised	-9959
▁darkness	-9960
▁improvements	-9961
▁cash	-9962
▁synd	-9963
▁objective	-9964
▁pel	-9965
▁dock	-9966
▁salv	-9967
▁hey	-9968
▁Marl	-9969
▁Foreign	-9970
▁donated	-9971
▁radical	-9972
▁earthquake	-9973
▁Mend	-9974
▁hallway	-9975
▁supplied	-9976
▁subspecies	-9977
idal	-9978
▁173	-9979
▁Mosc	-9980
▁rocks	-9981
▁Morrison	-9982
oil	-9983
▁joke	-9984
▁Jerry	-9985
▁uranium	-9986
rina	-9987
▁155	-9988
▁Lat	-9989
▁cub	-9990
▁beats	-9991
▁virus	-9992
▁patients	-9993
▁execution	-9994
▁tea	-9995
▁Begin	-9996
▁feared	-9997
▁helicopter	-9998
rage	-9999
▁zoe	-10000
▁scar	-10001
▁decay	-10002
▁planets	-10003
▁lighting	-10004
▁stops	-10005
▁democr	-10006
▁phrase	-10007
▁assembly	-10008
▁graduated	-10009
▁signature	-10010
▁Cycl	-10011
▁Kate	-10012
▁venue	-10013
▁autobi	-10014
▁arrives	-10015
▁audition	-10016
▁Wii	-10017
▁eval	-10018
▁isot	-10019
▁rend	-10020
osexual	-10021
▁elevator	-10022
ded	-10023
aman	-10024
inda	-10025
▁sem	-10026
▁Gary	-10027
inding	-10028
▁pione	-10029
▁Merced	-10030
▁bitter	-10031
▁charter	-10032
▁increases	-10033
▁municipal	-10034
▁wr	-10035
illo	-10036
▁Shak	-10037
▁Friday	-10038
▁Malaysia	-10039
▁Mountains	-10040
aja	-10041
▁Lloyd	-10042
▁Ridge	-10043
▁aerial	-10044
▁trading	-10045
▁rede	-10046
▁opens	-10047
bastian	-10048
▁stopping	-10049
▁surprising	-10050
hand	-10051
▁Lost	-10052
▁grate	-10053
▁sliding	-10054
▁enlisted	-10055
▁reactions	-10056
▁gri	-10057
▁Stef	-10058
▁abuse	-10059
▁raids	-10060
▁highways	-10061
▁lifetime	-10062
▁shopping	-10063
▁Connecticut	-10064
▁Obama	-10065
▁rever	-10066
▁volumes	-10067
▁legislature	-10068
NC	-10069
▁ivy	-10070
omber	-10071
▁solar	-10072
▁observations	-10073
▁Cost	-10074
▁Peace	-10075
▁shake	-10076
▁Charts	-10077
iffs	-10078
▁Pad	-10079
▁nep	-10080
▁ski	-10081
▁Type	-10082
▁affili	-10083
▁drivers	-10084
▁mixture	-10085
ersed	-10086
▁constantly	-10087
ds	-10088
▁Na	-10089
▁Nik	-10090
▁outl	-10091
▁blame	-10092
usement	-10093
▁ballad	-10094
▁mature	-10095
▁tossed	-10096
▁travels	-10097
▁starring	-10098
▁rolling	-10099
▁Communist	-10100
▁surrendered	-10101
▁Administration	-10102
▁Prim	-10103
▁marcus	-10104
▁triumph	-10105
addy	-10106
car	-10107
▁Sem	-10108
utter	-10109
▁meter	-10110
▁persons	-10111
▁pressing	-10112
oa	-10113
▁assured	-10114
isive	-10115
▁lung	-10116
▁deterior	-10117
▁stretched	-10118
▁provincial	-10119
▁Bach	-10120
▁musician	-10121
▁watershed	-10122
▁destroying	-10123
▁AP	-10124
▁da	-10125
▁166	-10126
iti	-10127
uki	-10128
folk	-10129
▁blocked	-10130
▁instinct	-10131
▁champions	-10132
▁Ring	-10133
riffin	-10134
▁Moscow	-10135
▁ceased	-10136
▁Thunder	-10137
▁Community	-10138
▁succession	-10139
▁152	-10140
▁tab	-10141
arted	-10142
▁Pruss	-10143
▁cannon	-10144
▁turret	-10145
▁Finally	-10146
▁markets	-10147
▁demanding	-10148
bye	-10149
aust	-10150
andom	-10151
▁connections	-10152
mund	-10153
▁Tig	-10154
ensis	-10155
▁uncon	-10156
▁Argentina	-10157
▁satellite	-10158
▁conversion	-10159
▁Tol	-10160
aders	-10161
▁investigate	-10162
▁Maj	-10163
▁Cer	-10164
▁lux	-10165
urred	-10166
▁quad	-10167
▁basin	-10168
▁Allies	-10169
▁curved	-10170
▁Finland	-10171
▁doorway	-10172
▁annually	-10173
▁evacuated	-10174
▁List	-10175
▁forb	-10176
▁Hughes	-10177
▁invent	-10178
▁MS	-10179
▁Mi	-10180
▁ow	-10181
graph	-10182
▁1860	-10183
▁flee	-10184
▁Pearl	-10185
▁dozen	-10186
▁asleep	-10187
▁colleagues	-10188
▁educational	-10189
▁mate	-10190
▁wire	-10191
▁UC	-10192
▁Liberal	-10193
▁conservation	-10194
▁interpretation	-10195
▁mail	-10196
▁redes	-10197
▁terrain	-10198
▁reducing	-10199
▁partial	-10200
▁desperately	-10201
▁accompanying	-10202
▁Tak	-10203
rency	-10204
▁corps	-10205
itarian	-10206
▁loving	-10207
▁crashed	-10208
▁Rico	-10209
▁cuts	-10210
irates	-10211
▁Cricket	-10212
rous	-10213
▁Honor	-10214
▁Village	-10215
ashi	-10216
pent	-10217
▁Edin	-10218
▁sacrif	-10219
▁courage	-10220
atropical	-10221
▁unn	-10222
imony	-10223
▁palm	-10224
autical	-10225
▁Flying	-10226
▁campaigns	-10227
▁pm	-10228
▁sir	-10229
umped	-10230
▁Dale	-10231
ingham	-10232
ishers	-10233
▁Apoll	-10234
▁hydrogen	-10235
▁Outstanding	-10236
lad	-10237
feld	-10238
▁111	-10239
▁expecting	-10240
▁underwent	-10241
▁threatening	-10242
otal	-10243
▁crest	-10244
▁Laur	-10245
▁Defence	-10246
▁instant	-10247
▁Hampshire	-10248
▁1899	-10249
▁Beaut	-10250
▁slide	-10251
▁voting	-10252
▁Nas	-10253
▁cyl	-10254
onium	-10255
▁gown	-10256
rolled	-10257
▁Bernard	-10258
▁strategic	-10259
▁requirements	-10260
urse	-10261
▁tox	-10262
▁forecast	-10263
▁theatrical	-10264
run	-10265
▁Lt	-10266
▁108	-10267
▁Amb	-10268
▁Ontario	-10269
▁Say	-10270
▁Prop	-10271
▁cabin	-10272
▁smart	-10273
▁soldier	-10274
▁satisfied	-10275
▁Yam	-10276
▁salary	-10277
▁Pakistan	-10278
▁mainland	-10279
roph	-10280
▁cha	-10281
rific	-10282
▁Cher	-10283
▁dust	-10284
▁prince	-10285
▁opportunities	-10286
▁representatives	-10287
colm	-10288
arest	-10289
▁Nation	-10290
▁latest	-10291
▁lou	-10292
▁Books	-10293
▁Ralph	-10294
born	-10295
▁Mans	-10296
▁beer	-10297
▁accord	-10298
▁sailing	-10299
▁stretch	-10300
pert	-10301
oming	-10302
owing	-10303
ennium	-10304
▁Those	-10305
▁Sullivan	-10306
▁protests	-10307
rix	-10308
▁CP	-10309
▁Pap	-10310
▁Clay	-10311
▁jury	-10312
▁Murphy	-10313
▁gender	-10314
▁topped	-10315
▁practical	-10316
▁exclusively	-10317
▁unlik	-10318
▁shallow	-10319
▁fortress	-10320
▁decorated	-10321
▁provision	-10322
▁Sox	-10323
aching	-10324
▁comed	-10325
▁parody	-10326
▁compound	-10327
▁counterp	-10328
▁Din	-10329
▁Villa	-10330
▁Belgian	-10331
▁Austrian	-10332
▁graduate	-10333
▁translation	-10334
gon	-10335
▁1850	-10336
▁Prix	-10337
▁kicked	-10338
▁duration	-10339
▁indicates	-10340
hu	-10341
mers	-10342
▁file	-10343
▁inhib	-10344
▁Edinburgh	-10345
din	-10346
▁Isa	-10347
▁Tax	-10348
▁Afghan	-10349
▁endors	-10350
▁gh	-10351
adal	-10352
▁sink	-10353
▁bishop	-10354
▁ranges	-10355
▁cartoon	-10356
▁strongest	-10357
▁Sud	-10358
itudes	-10359
▁edited	-10360
▁Israeli	-10361
▁extratropical	-10362
▁169	-10363
▁Kap	-10364
▁Oslo	-10365
▁Tint	-10366
▁Spirit	-10367
▁stones	-10368
▁sharing	-10369
▁founding	-10370
▁promotional	-10371
▁tough	-10372
▁survival	-10373
▁assembled	-10374
▁considers	-10375
▁1896	-10376
fr	-10377
osy	-10378
▁chase	-10379
▁stephen	-10380
▁Personal	-10381
▁fed	-10382
▁mini	-10383
▁Barry	-10384
▁hopes	-10385
▁hosts	-10386
▁borrow	-10387
▁Credits	-10388
▁imagery	-10389
▁Brothers	-10390
▁Pink	-10391
▁stair	-10392
▁weekly	-10393
▁conspir	-10394
▁ordinary	-10395
▁1893	-10396
▁ramp	-10397
▁Years	-10398
▁sheet	-10399
▁urged	-10400
▁Rights	-10401
▁banned	-10402
asa	-10403
oda	-10404
alia	-10405
▁swift	-10406
▁reviewed	-10407
▁Democrats	-10408
▁Universal	-10409
▁elaborate	-10410
▁artificial	-10411
agne	-10412
zing	-10413
▁nod	-10414
onsin	-10415
▁Dwight	-10416
▁radiation	-10417
▁Queensland	-10418
▁complained	-10419
▁Ted	-10420
anche	-10421
▁talks	-10422
▁Alaska	-10423
▁centers	-10424
▁Sid	-10425
ouver	-10426
uchess	-10427
▁Quest	-10428
▁pants	-10429
▁slaves	-10430
▁Ruth	-10431
▁toler	-10432
▁Rangers	-10433
▁displays	-10434
▁investment	-10435
▁tube	-10436
▁equally	-10437
elta	-10438
adier	-10439
▁pupp	-10440
abriel	-10441
▁Swift	-10442
▁users	-10443
▁output	-10444
▁mystery	-10445
▁Microsoft	-10446
▁explaining	-10447
gé	-10448
atis	-10449
▁Larry	-10450
▁rebels	-10451
▁conceived	-10452
yd	-10453
uras	-10454
▁172	-10455
▁hen	-10456
▁Bosn	-10457
▁dawn	-10458
achers	-10459
ussion	-10460
▁crack	-10461
▁photo	-10462
▁Darwin	-10463
▁Natural	-10464
▁Jar	-10465
▁airline	-10466
▁unclear	-10467
▁respective	-10468
▁350	-10469
▁Peters	-10470
allas	-10471
▁1898	-10472
▁migr	-10473
itting	-10474
▁grave	-10475
▁yours	-10476
▁Overall	-10477
▁complicated	-10478
▁contribution	-10479
shore	-10480
▁tale	-10481
▁disband	-10482
▁explicit	-10483
▁Victorian	-10484
▁competing	-10485
▁components	-10486
clock	-10487
▁Islamic	-10488
▁amateur	-10489
asts	-10490
omed	-10491
▁fee	-10492
▁nipp	-10493
▁smoke	-10494
▁Hearts	-10495
▁absent	-10496
ellation	-10497
▁162	-10498
aters	-10499
▁Goth	-10500
▁Soul	-10501
▁Kaiser	-10502
▁density	-10503
▁publisher	-10504
▁relatives	-10505
▁rehears	-10506
▁accurate	-10507
aiden	-10508
▁culmin	-10509
isconsin	-10510
▁translated	-10511
▁Constantine	-10512
▁acoustic	-10513
▁statistics	-10514
▁instructions	-10515
▁reinforcements	-10516
isle	-10517
ensus	-10518
▁bell	-10519
▁grip	-10520
▁stolen	-10521
▁electricity	-10522
IS	-10523
orld	-10524
▁Tintin	-10525
▁stroke	-10526
▁gardens	-10527
hum	-10528
▁Ay	-10529
▁Joy	-10530
▁Meteor	-10531
▁software	-10532
▁CS	-10533
seud	-10534
▁Boys	-10535
▁Mond	-10536
uating	-10537
▁seated	-10538
▁samples	-10539
▁Christianity	-10540
▁Diam	-10541
▁Lion	-10542
▁punk	-10543
▁inning	-10544
▁commanding	-10545
▁productions	-10546
nda	-10547
mith	-10548
▁duo	-10549
▁Chile	-10550
▁traded	-10551
▁eighteen	-10552
▁Chronicle	-10553
▁exhausted	-10554
agi	-10555
tes	-10556
▁Inv	-10557
inces	-10558
riors	-10559
▁Exec	-10560
▁valid	-10561
igenous	-10562
▁exists	-10563
▁nephew	-10564
▁theore	-10565
▁impressive	-10566
▁121	-10567
▁Beng	-10568
▁Sign	-10569
▁atomic	-10570
▁proteins	-10571
asket	-10572
▁sings	-10573
▁streak	-10574
▁avoided	-10575
▁sinking	-10576
uez	-10577
▁Si	-10578
olds	-10579
▁Tai	-10580
kward	-10581
▁Next	-10582
▁garn	-10583
▁merc	-10584
▁shares	-10585
▁holiday	-10586
▁reverse	-10587
▁unlikely	-10588
aze	-10589
lights	-10590
uto	-10591
onge	-10592
▁surve	-10593
cules	-10594
▁hills	-10595
▁cotton	-10596
▁melody	-10597
▁tickets	-10598
▁improvement	-10599
▁beaten	-10600
▁sculpture	-10601
▁conventional	-10602
▁Aer	-10603
▁Mix	-10604
▁Wells	-10605
▁catal	-10606
▁couch	-10607
▁maintaining	-10608
▁overwhelming	-10609
agasc	-10610
uctive	-10611
▁Services	-10612
▁extending	-10613
▁portrayal	-10614
herent	-10615
▁Shiva	-10616
▁chore	-10617
▁ruler	-10618
ancouver	-10619
▁Gallery	-10620
▁mansion	-10621
▁destroyer	-10622
▁Boe	-10623
▁Gate	-10624
▁shiver	-10625
▁tested	-10626
▁commentary	-10627
▁Emer	-10628
▁guilt	-10629
▁pairs	-10630
ologies	-10631
▁awkward	-10632
▁anticipated	-10633
▁Transportation	-10634
bery	-10635
▁Pam	-10636
▁pip	-10637
▁Neil	-10638
▁gene	-10639
▁flows	-10640
▁breaks	-10641
▁tenure	-10642
▁toured	-10643
▁varied	-10644
▁Malcolm	-10645
▁carries	-10646
▁platforms	-10647
▁withdrawn	-10648
▁Past	-10649
▁slip	-10650
boards	-10651
▁physically	-10652
▁cruc	-10653
▁mild	-10654
▁Drive	-10655
▁dancers	-10656
▁harbour	-10657
▁Susan	-10658
iciency	-10659
▁trough	-10660
▁belonged	-10661
▁transported	-10662
▁113	-10663
▁Osc	-10664
▁fest	-10665
▁Reich	-10666
landers	-10667
▁intersects	-10668
▁positively	-10669
▁167	-10670
▁1897	-10671
▁spir	-10672
▁Wisconsin	-10673
▁provinces	-10674
rov	-10675
▁stare	-10676
▁Convention	-10677
▁developers	-10678
▁architectural	-10679
sor	-10680
▁McN	-10681
adows	-10682
▁Where	-10683
▁enormous	-10684
▁reinforced	-10685
mm	-10686
▁Tob	-10687
immer	-10688
▁Guinea	-10689
▁immigr	-10690
▁insects	-10691
▁recovery	-10692
▁addressed	-10693
▁Pars	-10694
▁trem	-10695
▁parker	-10696
▁Protest	-10697
▁revealing	-10698
Sp	-10699
rien	-10700
▁labour	-10701
▁external	-10702
eps	-10703
urst	-10704
▁pole	-10705
▁mining	-10706
PA	-10707
▁Eug	-10708
▁web	-10709
▁Liter	-10710
▁accommodate	-10711
▁tape	-10712
▁Vancouver	-10713
▁transportation	-10714
▁Crus	-10715
amount	-10716
▁Yorks	-10717
▁rings	-10718
▁tempt	-10719
▁communist	-10720
▁biographer	-10721
▁interpreted	-10722
aku	-10723
▁unh	-10724
▁dani	-10725
▁Heritage	-10726
▁escorted	-10727
▁taxes	-10728
▁abrupt	-10729
▁Collins	-10730
▁medicine	-10731
▁Ali	-10732
otion	-10733
▁ages	-10734
▁tast	-10735
▁Pitts	-10736
▁marine	-10737
▁revolt	-10738
▁Bes	-10739
▁camps	-10740
▁james	-10741
▁Hawaii	-10742
▁towers	-10743
▁Serbian	-10744
eto	-10745
icia	-10746
idel	-10747
▁stere	-10748
ét	-10749
▁Tan	-10750
▁vig	-10751
▁spell	-10752
▁confirm	-10753
urricanes	-10754
▁advertis	-10755
▁prisoner	-10756
zech	-10757
▁mud	-10758
▁chrom	-10759
▁Edwards	-10760
▁groaned	-10761
▁mechanical	-10762
xim	-10763
▁Ent	-10764
▁Deep	-10765
▁curve	-10766
▁laying	-10767
▁Medical	-10768
▁columns	-10769
affe	-10770
▁Abb	-10771
illes	-10772
▁purse	-10773
▁camille	-10774
▁devices	-10775
▁warfare	-10776
tha	-10777
iciently	-10778
▁Windows	-10779
▁devoted	-10780
▁quarters	-10781
▁presentation	-10782
urd	-10783
▁bab	-10784
▁conj	-10785
ampton	-10786
▁liberal	-10787
▁Champion	-10788
▁tightened	-10789
▁Rio	-10790
▁dare	-10791
▁trend	-10792
▁corrid	-10793
▁courses	-10794
▁Nicholas	-10795
▁muttered	-10796
▁Yorkshire	-10797
▁component	-10798
▁experiments	-10799
▁amph	-10800
▁nurse	-10801
▁insult	-10802
▁thinks	-10803
▁chemistry	-10804
▁hind	-10805
itious	-10806
▁Orton	-10807
▁fright	-10808
▁resolved	-10809
embr	-10810
▁gif	-10811
odium	-10812
▁Cena	-10813
▁Rena	-10814
▁Eight	-10815
▁racial	-10816
▁scared	-10817
▁Cardiff	-10818
▁goddess	-10819
▁recognize	-10820
▁governments	-10821
▁Vel	-10822
ulsion	-10823
▁Burns	-10824
▁patient	-10825
ao	-10826
leans	-10827
▁Fund	-10828
▁sofa	-10829
▁Czech	-10830
▁Falls	-10831
▁Performance	-10832
mont	-10833
▁flex	-10834
▁scent	-10835
▁dischar	-10836
▁reorgan	-10837
▁amusement	-10838
▁Dyn	-10839
enesis	-10840
▁liner	-10841
▁steep	-10842
▁Reserve	-10843
▁constitu	-10844
▁terrible	-10845
▁Cathedral	-10846
▁representation	-10847
▁Somet	-10848
▁anime	-10849
▁bears	-10850
▁frown	-10851
▁brings	-10852
▁kisses	-10853
▁naturally	-10854
▁Potter	-10855
etheless	-10856
▁praising	-10857
▁continuous	-10858
roc	-10859
▁AM	-10860
oves	-10861
▁Market	-10862
▁exceed	-10863
▁Madagasc	-10864
ayan	-10865
▁rounded	-10866
▁messages	-10867
avid	-10868
▁Cra	-10869
▁Pic	-10870
▁doct	-10871
▁dual	-10872
▁texts	-10873
ivation	-10874
▁Triple	-10875
▁Antonio	-10876
▁Wallace	-10877
▁circles	-10878
▁Mercedes	-10879
▁Professor	-10880
▁attractive	-10881
▁principles	-10882
▁Ni	-10883
▁Phys	-10884
▁muscle	-10885
▁171	-10886
▁YouT	-10887
▁rect	-10888
▁bench	-10889
▁lifting	-10890
▁commanders	-10891
▁invitation	-10892
roft	-10893
▁Fro	-10894
▁Malt	-10895
▁Rest	-10896
▁stir	-10897
▁cheer	-10898
▁numbered	-10899
▁hay	-10900
merce	-10901
ubble	-10902
▁balls	-10903
▁gaining	-10904
▁portrait	-10905
▁Similarly	-10906
▁customers	-10907
▁uncomfort	-10908
▁significance	-10909
amas	-10910
rode	-10911
▁nut	-10912
owski	-10913
lington	-10914
▁boilers	-10915
▁valuable	-10916
▁Pin	-10917
▁burial	-10918
▁YouTube	-10919
▁marched	-10920
▁operates	-10921
▁commenced	-10922
iry	-10923
▁Eth	-10924
▁Boat	-10925
assador	-10926
▁proposals	-10927
▁grandmother	-10928
▁Minor	-10929
▁heritage	-10930
▁hypothes	-10931
astructure	-10932
▁Ku	-10933
▁cave	-10934
acular	-10935
▁slave	-10936
▁releasing	-10937
bes	-10938
low	-10939
▁tomb	-10940
▁intelligent	-10941
▁experimental	-10942
uded	-10943
▁Dec	-10944
▁Terr	-10945
▁helps	-10946
▁sized	-10947
▁shadow	-10948
▁fundament	-10949
▁Blu	-10950
arded	-10951
▁Move	-10952
▁sovere	-10953
▁supern	-10954
▁switch	-10955
▁tonnes	-10956
▁nautical	-10957
▁substitute	-10958
▁suggestion	-10959
IV	-10960
ints	-10961
▁XII	-10962
▁sne	-10963
▁Local	-10964
▁dimin	-10965
▁celebrate	-10966
▁competitive	-10967
brid	-10968
▁woods	-10969
ocation	-10970
▁restore	-10971
▁scandal	-10972
▁persuaded	-10973
▁programming	-10974
▁MI	-10975
iper	-10976
▁abd	-10977
ambers	-10978
▁killer	-10979
▁promin	-10980
▁consistent	-10981
TWC	-10982
ulty	-10983
▁161	-10984
▁nom	-10985
▁JTWC	-10986
▁Andre	-10987
▁tooth	-10988
▁songwriter	-10989
iah	-10990
▁ties	-10991
enburg	-10992
▁crops	-10993
▁export	-10994
▁careful	-10995
▁frequency	-10996
▁Om	-10997
▁prel	-10998
cester	-10999
▁Geoff	-11000
▁Globe	-11001
▁cinema	-11002
▁rivalry	-11003
stan	-11004
▁Cad	-11005
▁Tru	-11006
▁raw	-11007
▁Days	-11008
rieved	-11009
▁Chapel	-11010
▁Harbor	-11011
▁tissue	-11012
▁washed	-11013
▁congreg	-11014
▁costume	-11015
▁swallowed	-11016
ilda	-11017
quis	-11018
▁Grace	-11019
▁darcy	-11020
▁walks	-11021
▁entert	-11022
aneous	-11023
▁paras	-11024
▁Donald	-11025
▁Officer	-11026
▁supplement	-11027
▁anticipation	-11028
▁participation	-11029
rh	-11030
▁luck	-11031
▁Actress	-11032
▁Defense	-11033
▁Training	-11034
▁highlighted	-11035
▁lun	-11036
▁Still	-11037
▁brows	-11038
▁priest	-11039
▁revised	-11040
▁grossing	-11041
▁administer	-11042
agged	-11043
▁Salt	-11044
wright	-11045
▁manga	-11046
▁fare	-11047
▁dwarf	-11048
▁utter	-11049
▁Turkey	-11050
▁Madagascar	-11051
▁practically	-11052
▁104	-11053
▁parks	-11054
umented	-11055
▁cattle	-11056
▁sample	-11057
▁switched	-11058
▁Eis	-11059
onian	-11060
▁Owen	-11061
▁outd	-11062
▁Plant	-11063
▁kills	-11064
▁keys	-11065
▁drain	-11066
▁suspic	-11067
▁elector	-11068
▁ignoring	-11069
▁properly	-11070
▁relocated	-11071
▁traditions	-11072
▁disappointment	-11073
isk	-11074
ohn	-11075
▁Sug	-11076
▁aft	-11077
▁nit	-11078
▁Luke	-11079
▁cott	-11080
ationally	-11081
▁reporter	-11082
▁travelling	-11083
▁Emmy	-11084
mented	-11085
▁tempo	-11086
▁climbed	-11087
▁invaded	-11088
▁princess	-11089
▁photography	-11090
hou	-11091
she	-11092
child	-11093
▁seas	-11094
▁crimes	-11095
▁Harvard	-11096
▁Typhoon	-11097
amine	-11098
▁spite	-11099
▁absorbed	-11100
▁advancing	-11101
▁accomplished	-11102
▁vital	-11103
▁exciting	-11104
▁Chamberlain	-11105
venth	-11106
▁inex	-11107
▁moist	-11108
▁Austin	-11109
▁Sherman	-11110
▁innocent	-11111
▁interviews	-11112
aley	-11113
▁mrs	-11114
▁Leices	-11115
▁displaced	-11116
▁intermedi	-11117
▁commitment	-11118
▁tu	-11119
▁sab	-11120
▁Upper	-11121
▁lasting	-11122
▁Richmond	-11123
▁companion	-11124
▁telephone	-11125
▁proportion	-11126
avia	-11127
▁102	-11128
▁Sout	-11129
▁anne	-11130
letcher	-11131
▁prices	-11132
▁sharks	-11133
▁Security	-11134
▁Constantin	-11135
▁approaches	-11136
▁Ax	-11137
▁FIFA	-11138
▁Kyle	-11139
▁Patri	-11140
▁Herald	-11141
▁minority	-11142
▁1895	-11143
usalem	-11144
▁thumb	-11145
▁bigger	-11146
▁checked	-11147
▁enforce	-11148
▁blues	-11149
▁dense	-11150
▁Hunter	-11151
▁Studio	-11152
▁Greatest	-11153
▁consolid	-11154
▁Must	-11155
▁Branch	-11156
▁Marvel	-11157
▁descent	-11158
▁embarked	-11159
▁qualifying	-11160
▁Description	-11161
▁essentially	-11162
AR	-11163
▁Ori	-11164
ipher	-11165
▁Maya	-11166
▁attorney	-11167
▁challenging	-11168
▁ERA	-11169
▁Meth	-11170
▁Poly	-11171
istent	-11172
▁verte	-11173
▁wound	-11174
archers	-11175
▁introduce	-11176
▁accidentally	-11177
amation	-11178
▁Fourth	-11179
▁Norfolk	-11180
▁psychiat	-11181
▁recurring	-11182
▁industries	-11183
▁structural	-11184
quer	-11185
▁154	-11186
▁240	-11187
▁Kan	-11188
▁megan	-11189
▁enabled	-11190
▁benefits	-11191
▁contracts	-11192
▁applications	-11193
▁competitions	-11194
▁parliamentary	-11195
▁constitutional	-11196
▁Crow	-11197
▁cared	-11198
▁absolute	-11199
▁Indonesia	-11200
enos	-11201
ouch	-11202
▁Poe	-11203
ocity	-11204
▁Ivan	-11205
▁fame	-11206
▁milk	-11207
▁Bryan	-11208
▁Newton	-11209
▁rivals	-11210
yan	-11211
earing	-11212
▁Actor	-11213
▁Junior	-11214
▁exchang	-11215
▁license	-11216
▁tornado	-11217
▁sponsored	-11218
▁virtually	-11219
▁jurisdiction	-11220
▁MV	-11221
▁enact	-11222
▁silly	-11223
▁conced	-11224
▁handling	-11225
▁McCartney	-11226
▁dug	-11227
▁1894	-11228
▁Stars	-11229
▁Oliver	-11230
abilities	-11231
▁Jerusalem	-11232
▁predators	-11233
pler	-11234
▁Bark	-11235
▁atop	-11236
▁Monte	-11237
▁Woman	-11238
▁panic	-11239
▁learns	-11240
▁Cultural	-11241
▁weakness	-11242
▁cathedral	-11243
▁inherited	-11244
▁occasional	-11245
▁agriculture	-11246
▁celebration	-11247
▁127	-11248
▁1861	-11249
▁Angl	-11250
▁Vers	-11251
▁smell	-11252
▁colored	-11253
▁Aftermath	-11254
▁117	-11255
▁disg	-11256
ellers	-11257
▁Until	-11258
▁Harold	-11259
▁Vincent	-11260
▁renewed	-11261
▁Broadcast	-11262
▁Conservation	-11263
rin	-11264
yers	-11265
▁bold	-11266
▁sword	-11267
▁housed	-11268
▁Orleans	-11269
▁petition	-11270
▁Independence	-11271
ATO	-11272
tic	-11273
▁1889	-11274
▁Bald	-11275
▁Terry	-11276
▁apply	-11277
▁AL	-11278
▁drummer	-11279
▁hostile	-11280
▁Pa	-11281
anim	-11282
ierra	-11283
ometric	-11284
▁threats	-11285
▁AT	-11286
▁Airl	-11287
▁Hope	-11288
▁Mayor	-11289
▁Johnston	-11290
▁multiplayer	-11291
▁Yellow	-11292
▁researchers	-11293
▁resignation	-11294
▁nevertheless	-11295
orf	-11296
▁fra	-11297
backs	-11298
▁Link	-11299
▁Mall	-11300
▁Poll	-11301
action	-11302
▁Bible	-11303
▁thighs	-11304
▁physics	-11305
▁focusing	-11306
▁observation	-11307
oline	-11308
▁loves	-11309
▁Princip	-11310
▁airfield	-11311
▁requiring	-11312
bn	-11313
▁epic	-11314
▁Trade	-11315
▁yester	-11316
▁congress	-11317
▁grateful	-11318
▁Howe	-11319
▁Saxon	-11320
▁tribe	-11321
▁Stuart	-11322
▁cyclones	-11323
▁engineers	-11324
▁yesterday	-11325
▁incredible	-11326
▁speculation	-11327
aphic	-11328
▁Cass	-11329
▁suck	-11330
▁Fighter	-11331
▁romance	-11332
▁legislative	-11333
és	-11334
cont	-11335
▁accus	-11336
▁saving	-11337
▁intimate	-11338
OC	-11339
sa	-11340
aha	-11341
▁stim	-11342
levard	-11343
▁Sweet	-11344
▁helen	-11345
▁garage	-11346
▁districts	-11347
▁challenges	-11348
▁potentially	-11349
gom	-11350
▁Mint	-11351
▁Apollo	-11352
▁funded	-11353
▁Together	-11354
ME	-11355
held	-11356
izer	-11357
▁112	-11358
▁Jama	-11359
▁slee	-11360
▁wars	-11361
▁pursuit	-11362
esty	-11363
▁Ric	-11364
▁buff	-11365
▁filmm	-11366
▁monster	-11367
▁commenting	-11368
acht	-11369
▁978	-11370
▁Leonard	-11371
▁Marines	-11372
▁listened	-11373
▁Jefferson	-11374
gins	-11375
▁kat	-11376
▁Mong	-11377
▁fossil	-11378
haw	-11379
▁Cre	-11380
▁til	-11381
▁belly	-11382
▁Orange	-11383
▁ignore	-11384
▁circular	-11385
▁mythology	-11386
rus	-11387
▁pig	-11388
▁Ship	-11389
▁wreck	-11390
▁merged	-11391
▁warnings	-11392
▁Formation	-11393
▁gathering	-11394
▁interaction	-11395
▁FBI	-11396
▁1891	-11397
▁disorder	-11398
▁boundaries	-11399
cha	-11400
▁Stra	-11401
▁choir	-11402
ressing	-11403
▁floors	-11404
▁random	-11405
▁villain	-11406
▁monaster	-11407
▁capturing	-11408
▁estimates	-11409
▁magnitude	-11410
▁Gy	-11411
elin	-11412
▁lor	-11413
▁ram	-11414
piece	-11415
▁bills	-11416
▁rejoin	-11417
▁teammate	-11418
appa	-11419
pine	-11420
▁Hig	-11421
▁Hob	-11422
▁Ages	-11423
▁Sean	-11424
▁Walt	-11425
▁nerve	-11426
▁airing	-11427
▁statements	-11428
OS	-11429
▁Thr	-11430
▁error	-11431
▁characteristic	-11432
▁AS	-11433
anas	-11434
sson	-11435
ppers	-11436
asters	-11437
▁Tyler	-11438
▁reforms	-11439
▁Symphony	-11440
▁Gay	-11441
▁Lib	-11442
▁pitcher	-11443
▁Register	-11444
▁murmured	-11445
▁discussing	-11446
▁intervention	-11447
zes	-11448
rior	-11449
▁tel	-11450
▁offs	-11451
▁Exper	-11452
▁involves	-11453
▁Catherine	-11454
▁Tu	-11455
▁Pant	-11456
▁lots	-11457
▁Manuel	-11458
▁recept	-11459
▁ritual	-11460
▁documented	-11461
pike	-11462
▁Eve	-11463
▁Sega	-11464
▁Angle	-11465
▁tours	-11466
▁loaded	-11467
▁diplomatic	-11468
▁Republicans	-11469
▁RP	-11470
▁Kit	-11471
▁ned	-11472
▁Syria	-11473
▁fears	-11474
▁usage	-11475
▁examined	-11476
osph	-11477
▁fru	-11478
▁twist	-11479
▁depicts	-11480
▁inclusion	-11481
inery	-11482
▁Picture	-11483
▁struggling	-11484
▁PS	-11485
▁Mut	-11486
▁Prest	-11487
▁Archae	-11488
▁fisher	-11489
▁remote	-11490
▁Management	-11491
idan	-11492
ishn	-11493
iven	-11494
▁1885	-11495
▁Shep	-11496
▁Cyrus	-11497
▁Brooks	-11498
▁exhaust	-11499
▁Attorney	-11500
▁squadrons	-11501
▁authorized	-11502
sed	-11503
nels	-11504
enson	-11505
▁sasha	-11506
▁trunk	-11507
▁waved	-11508
▁trailer	-11509
▁Fact	-11510
▁revel	-11511
angular	-11512
▁Barnes	-11513
▁Report	-11514
▁unaware	-11515
▁Representatives	-11516
emble	-11517
▁Amaz	-11518
▁Stre	-11519
▁conven	-11520
▁charted	-11521
▁Beginning	-11522
▁ridiculous	-11523
occ	-11524
▁Ran	-11525
▁Camb	-11526
▁bore	-11527
▁vamp	-11528
▁Lithu	-11529
▁strand	-11530
▁voyage	-11531
▁volunteers	-11532
▁communications	-11533
▁Nev	-11534
aston	-11535
▁Utah	-11536
▁Scots	-11537
▁Agency	-11538
▁Legisl	-11539
▁envelop	-11540
▁pointing	-11541
▁examination	-11542
▁Gor	-11543
▁1892	-11544
▁Swiss	-11545
▁figured	-11546
▁happens	-11547
▁mitchell	-11548
▁civilians	-11549
axy	-11550
▁Fu	-11551
alin	-11552
anga	-11553
avan	-11554
▁106	-11555
▁Beh	-11556
▁Sonic	-11557
▁warmth	-11558
▁determination	-11559
▁114	-11560
▁1888	-11561
▁Skin	-11562
▁Section	-11563
▁Isab	-11564
▁Term	-11565
▁Diamond	-11566
▁Friends	-11567
▁removing	-11568
quet	-11569
▁Leo	-11570
▁Pul	-11571
▁filling	-11572
▁tracked	-11573
not	-11574
itic	-11575
pered	-11576
▁cruise	-11577
▁nickname	-11578
▁Laboratory	-11579
▁considerably	-11580
reep	-11581
▁Carr	-11582
▁crystal	-11583
▁teasing	-11584
▁Crawford	-11585
fly	-11586
vor	-11587
dles	-11588
etta	-11589
ortion	-11590
▁slept	-11591
▁Fisher	-11592
cca	-11593
▁Twitter	-11594
▁arguments	-11595
▁possessed	-11596
▁progressed	-11597
▁screenplay	-11598
▁Danny	-11599
▁Gibral	-11600
▁heaven	-11601
▁Official	-11602
▁electrical	-11603
▁punishment	-11604
▁sib	-11605
▁tune	-11606
▁Marge	-11607
▁ghost	-11608
▁Planet	-11609
▁summit	-11610
▁educated	-11611
▁relation	-11612
▁frustrated	-11613
▁satisfaction	-11614
▁Il	-11615
onald	-11616
oples	-11617
oting	-11618
▁1000	-11619
▁Lords	-11620
▁Tommy	-11621
▁Ernest	-11622
▁Montana	-11623
▁oriented	-11624
▁receives	-11625
▁weakening	-11626
gow	-11627
▁ine	-11628
▁1865	-11629
▁NATO	-11630
thodox	-11631
▁Tourn	-11632
▁infer	-11633
▁fungus	-11634
▁Freedom	-11635
▁shelter	-11636
▁Executive	-11637
▁laboratory	-11638
▁Icel	-11639
▁ratio	-11640
▁comics	-11641
▁resort	-11642
▁Classic	-11643
▁servants	-11644
▁Amendment	-11645
▁biography	-11646
▁organisms	-11647
▁mysterious	-11648
▁diverse	-11649
▁revenge	-11650
▁rendered	-11651
▁upcoming	-11652
▁recruited	-11653
▁biological	-11654
▁locomotives	-11655
ellar	-11656
▁Glas	-11657
ffield	-11658
▁Krist	-11659
▁followers	-11660
▁principle	-11661
▁variation	-11662
▁Salv	-11663
▁links	-11664
▁Living	-11665
▁picking	-11666
▁literally	-11667
▁positioned	-11668
▁manufacturing	-11669
▁Wed	-11670
▁tap	-11671
cliff	-11672
▁incl	-11673
▁styl	-11674
▁Burton	-11675
▁abroad	-11676
▁Without	-11677
▁favourite	-11678
▁politicians	-11679
▁Metropolitan	-11680
▁Jun	-11681
▁flown	-11682
▁crying	-11683
▁layers	-11684
▁jumping	-11685
▁wishing	-11686
▁gigg	-11687
▁royce	-11688
▁backst	-11689
▁Against	-11690
▁Gibraltar	-11691
▁processes	-11692
▁concerning	-11693
ums	-11694
▁Saf	-11695
▁Farm	-11696
▁Nova	-11697
▁curves	-11698
▁universal	-11699
▁unfortunately	-11700
ho	-11701
▁Wa	-11702
▁Rud	-11703
inian	-11704
▁1800	-11705
▁Half	-11706
▁Reed	-11707
▁morph	-11708
▁Sultan	-11709
▁cooking	-11710
▁segments	-11711
iffer	-11712
▁Barr	-11713
▁Trail	-11714
▁Iceland	-11715
▁rescued	-11716
▁tourist	-11717
▁opposing	-11718
▁Danish	-11719
▁hannah	-11720
▁heated	-11721
▁separation	-11722
▁concentrate	-11723
▁restrictions	-11724
▁precipitation	-11725
▁CBS	-11726
▁jax	-11727
▁Princ	-11728
▁deputy	-11729
▁voters	-11730
▁farmers	-11731
▁Portugal	-11732
▁Province	-11733
▁contacted	-11734
▁similarities	-11735
bu	-11736
▁Spect	-11737
▁tasked	-11738
▁Pictures	-11739
bach	-11740
▁Env	-11741
▁Than	-11742
▁fila	-11743
riages	-11744
▁Metro	-11745
▁Meyer	-11746
▁manif	-11747
▁dreadn	-11748
▁surely	-11749
▁Charlotte	-11750
▁Sheffield	-11751
▁defenders	-11752
▁reluctant	-11753
bi	-11754
▁1840	-11755
▁liam	-11756
▁Oscar	-11757
▁painful	-11758
▁incredibly	-11759
HS	-11760
LA	-11761
cour	-11762
▁lon	-11763
▁deny	-11764
▁Lower	-11765
▁clouds	-11766
▁feathers	-11767
▁concurrent	-11768
▁extensively	-11769
erts	-11770
▁blamed	-11771
▁carved	-11772
▁ladies	-11773
▁scores	-11774
▁sienna	-11775
▁lighter	-11776
▁Athletic	-11777
▁Electric	-11778
▁directions	-11779
▁settlements	-11780
▁Scar	-11781
▁Judge	-11782
▁gates	-11783
▁Nature	-11784
▁Spider	-11785
▁Alberta	-11786
▁contrad	-11787
▁lightly	-11788
▁temples	-11789
▁Cemetery	-11790
▁phenomen	-11791
▁theories	-11792
▁provisions	-11793
▁situations	-11794
enz	-11795
eries	-11796
▁gran	-11797
achute	-11798
▁plenty	-11799
▁solely	-11800
▁teased	-11801
onso	-11802
ework	-11803
▁cats	-11804
▁Draft	-11805
▁extinct	-11806
▁traditionally	-11807
▁Bud	-11808
▁José	-11809
▁locally	-11810
gio	-11811
▁MLB	-11812
▁laps	-11813
▁user	-11814
▁Members	-11815
▁glasses	-11816
▁humanity	-11817
imer	-11818
▁demo	-11819
▁stored	-11820
▁accomplish	-11821
▁homosexual	-11822
▁maps	-11823
▁divers	-11824
▁Edition	-11825
▁drafted	-11826
▁eventual	-11827
▁dependent	-11828
▁collections	-11829
elia	-11830
qual	-11831
point	-11832
▁Vick	-11833
iating	-11834
▁Smack	-11835
▁Sac	-11836
arthy	-11837
▁holes	-11838
▁Serbia	-11839
▁census	-11840
▁poured	-11841
▁beliefs	-11842
▁lacking	-11843
▁stunned	-11844
▁garnered	-11845
▁battlecruisers	-11846
▁mant	-11847
▁encom	-11848
▁naming	-11849
col	-11850
▁135	-11851
▁156	-11852
▁shy	-11853
▁Traff	-11854
▁mixing	-11855
▁centered	-11856
▁imagined	-11857
ucker	-11858
▁Glen	-11859
▁leaf	-11860
▁makeup	-11861
▁commercially	-11862
▁universities	-11863
▁aqu	-11864
▁liz	-11865
▁dece	-11866
▁boost	-11867
▁weird	-11868
▁desired	-11869
▁instructed	-11870
▁regardless	-11871
edar	-11872
leted	-11873
▁Chad	-11874
▁Shah	-11875
igious	-11876
▁Brand	-11877
▁Yugoslavia	-11878
▁southeastern	-11879
idia	-11880
scop	-11881
▁153	-11882
uters	-11883
arting	-11884
▁tools	-11885
▁breeds	-11886
▁garrett	-11887
▁conflicts	-11888
▁witnessed	-11889
▁Neb	-11890
▁Sport	-11891
▁Youth	-11892
▁juven	-11893
▁tasha	-11894
▁nicole	-11895
▁compositions	-11896
ieg	-11897
▁rh	-11898
ocene	-11899
▁Aren	-11900
▁sake	-11901
▁thor	-11902
▁spine	-11903
▁Legend	-11904
hor	-11905
▁Face	-11906
▁Flore	-11907
▁bride	-11908
▁lucky	-11909
▁folded	-11910
▁warships	-11911
▁corporate	-11912
▁insurance	-11913
▁patri	-11914
▁Bright	-11915
▁twisted	-11916
▁avoiding	-11917
▁Dj	-11918
itri	-11919
▁NASA	-11920
▁lesb	-11921
▁lucy	-11922
▁Nathan	-11923
▁Panzer	-11924
▁Control	-11925
▁formula	-11926
▁creature	-11927
▁implemented	-11928
avor	-11929
yram	-11930
▁122	-11931
▁Authority	-11932
uil	-11933
lend	-11934
▁Chair	-11935
▁Alexand	-11936
▁colours	-11937
▁discontin	-11938
▁SA	-11939
▁rab	-11940
icism	-11941
▁elite	-11942
▁pursued	-11943
▁volcanic	-11944
▁categories	-11945
▁infrastructure	-11946
assy	-11947
itol	-11948
pless	-11949
ushes	-11950
▁curt	-11951
▁puts	-11952
▁routine	-11953
iga	-11954
▁fa	-11955
▁Heb	-11956
osaurs	-11957
▁spokes	-11958
▁ultimate	-11959
▁variations	-11960
cell	-11961
▁158	-11962
▁Gon	-11963
▁Stri	-11964
▁Zone	-11965
▁quit	-11966
▁surround	-11967
▁descended	-11968
hill	-11969
▁Got	-11970
▁Hom	-11971
▁Ker	-11972
▁Pel	-11973
▁sip	-11974
▁Brid	-11975
▁Nord	-11976
▁asserted	-11977
▁awareness	-11978
abl	-11979
auge	-11980
▁ari	-11981
minster	-11982
▁GameSp	-11983
▁suffer	-11984
▁Cavalry	-11985
▁brushed	-11986
▁doctors	-11987
▁Pittsburgh	-11988
▁consequences	-11989
▁hence	-11990
▁writings	-11991
oba	-11992
what	-11993
▁Nak	-11994
eston	-11995
▁Bapt	-11996
▁eaten	-11997
▁anarch	-11998
▁slavery	-11999
▁DJ	-12000
hent	-12001
▁ank	-12002
▁Cinc	-12003
▁Rush	-12004
ielder	-12005
▁Chuck	-12006
▁rider	-12007
▁couldn	-12008
▁thereby	-12009
▁altitude	-12010
▁countered	-12011
▁publicity	-12012
▁sentenced	-12013
▁Constantinople	-12014
▁Py	-12015
▁Stein	-12016
▁Quebec	-12017
▁loyalty	-12018
▁veteran	-12019
▁Phillies	-12020
▁produces	-12021
▁politician	-12022
▁bombardment	-12023
▁AA	-12024
▁bast	-12025
▁evan	-12026
▁Joint	-12027
▁Tribune	-12028
▁exhibit	-12029
hall	-12030
▁Alc	-12031
▁Fitz	-12032
▁arose	-12033
▁topic	-12034
▁london	-12035
▁witnesses	-12036
▁imprisoned	-12037
▁Heavyweight	-12038
▁uncomfortable	-12039
▁prest	-12040
▁pseud	-12041
▁judges	-12042
▁transp	-12043
▁promoting	-12044
▁spacecraft	-12045
▁developments	-12046
▁LS	-12047
▁brut	-12048
▁soap	-12049
lected	-12050
▁Based	-12051
▁Fight	-12052
▁happiness	-12053
▁bree	-12054
▁fier	-12055
▁Steam	-12056
▁Julian	-12057
▁adjust	-12058
▁chances	-12059
▁midnight	-12060
▁sentiment	-12061
▁Kil	-12062
▁inhab	-12063
▁remin	-12064
▁tremb	-12065
jection	-12066
▁hungry	-12067
▁revival	-12068
alg	-12069
▁Mason	-12070
▁bread	-12071
▁Saturn	-12072
▁batted	-12073
▁slowed	-12074
▁murdered	-12075
mans	-12076
▁118	-12077
adesh	-12078
▁Decl	-12079
▁twent	-12080
regular	-12081
umbered	-12082
▁wishes	-12083
▁Airlines	-12084
▁retreated	-12085
▁sophistic	-12086
rels	-12087
▁guarant	-12088
▁steadily	-12089
▁disturbance	-12090
▁revolutionary	-12091
▁Ref	-12092
found	-12093
▁Marx	-12094
▁spawn	-12095
▁Thames	-12096
▁answers	-12097
▁territorial	-12098
▁Organization	-12099
▁Comics	-12100
▁Father	-12101
▁execut	-12102
▁hurried	-12103
▁outcome	-12104
▁marrying	-12105
▁inaugural	-12106
▁consumption	-12107
TS	-12108
chi	-12109
▁copper	-12110
▁Support	-12111
▁decreased	-12112
▁dun	-12113
▁unt	-12114
▁1864	-12115
ishops	-12116
▁Leicester	-12117
geon	-12118
▁Cox	-12119
▁Had	-12120
▁1862	-12121
▁grit	-12122
▁ashore	-12123
▁eligible	-12124
▁Palestine	-12125
▁appreciate	-12126
▁450	-12127
heric	-12128
▁Fern	-12129
onation	-12130
▁Tournament	-12131
▁acceptance	-12132
Down	-12133
▁131	-12134
▁oct	-12135
iminary	-12136
▁Action	-12137
▁fierce	-12138
▁Ancient	-12139
▁Raymond	-12140
▁conquest	-12141
irk	-12142
▁Aub	-12143
▁Hergé	-12144
▁Chester	-12145
▁marking	-12146
▁dressing	-12147
▁preserve	-12148
ER	-12149
thal	-12150
▁Has	-12151
▁Craig	-12152
▁andre	-12153
▁rains	-12154
▁Cincinn	-12155
▁canceled	-12156
▁Hok	-12157
▁Boeing	-12158
▁damned	-12159
▁packed	-12160
▁Theodore	-12161
▁SmackDown	-12162
▁depicting	-12163
irect	-12164
onial	-12165
▁Evil	-12166
▁Bowie	-12167
▁Johann	-12168
▁Archbishop	-12169
▁participants	-12170
atty	-12171
▁bol	-12172
acking	-12173
ailing	-12174
▁Isaac	-12175
▁Personnel	-12176
▁encounters	-12177
umi	-12178
atsu	-12179
▁Joan	-12180
▁Cinem	-12181
▁Tigers	-12182
▁Truman	-12183
▁matthew	-12184
▁undertaken	-12185
mat	-12186
▁Pedro	-12187
▁assume	-12188
▁Muslims	-12189
▁dragged	-12190
▁overcome	-12191
▁tourists	-12192
▁mechanism	-12193
▁132	-12194
▁dish	-12195
▁discr	-12196
▁therm	-12197
▁acquis	-12198
▁Filming	-12199
▁lawsuit	-12200
▁lessons	-12201
▁Kin	-12202
▁Lem	-12203
▁Tree	-12204
▁Miles	-12205
▁Basket	-12206
▁supports	-12207
▁batteries	-12208
▁sensation	-12209
▁touchdowns	-12210
▁Continental	-12211
▁Meteorological	-12212
▁Lud	-12213
▁haz	-12214
▁Side	-12215
▁neuro	-12216
▁Veronica	-12217
elyn	-12218
▁159	-12219
▁RNA	-12220
▁Rear	-12221
▁unre	-12222
enched	-12223
▁Floyd	-12224
▁spare	-12225
▁trace	-12226
▁Rodrig	-12227
▁subtle	-12228
▁Architect	-12229
▁Cort	-12230
▁acre	-12231
▁Voice	-12232
▁Others	-12233
▁Kenneth	-12234
▁Wheeler	-12235
▁emerson	-12236
▁Christians	-12237
▁progressive	-12238
▁iP	-12239
arks	-12240
▁exh	-12241
▁Parks	-12242
▁dealt	-12243
▁convey	-12244
ancellor	-12245
attering	-12246
▁realistic	-12247
▁permanently	-12248
eals	-12249
vant	-12250
enberg	-12251
gomery	-12252
ichael	-12253
▁lobby	-12254
▁postp	-12255
athetic	-12256
▁tables	-12257
ribution	-12258
▁breathe	-12259
▁fortune	-12260
▁intimid	-12261
▁horrible	-12262
▁lam	-12263
▁Slav	-12264
▁fart	-12265
alling	-12266
▁Drake	-12267
▁heels	-12268
▁climax	-12269
▁Century	-12270
▁Studies	-12271
▁Garfield	-12272
▁infection	-12273
▁accessible	-12274
▁Eld	-12275
▁Fun	-12276
guard	-12277
unted	-12278
▁Case	-12279
▁clip	-12280
▁flour	-12281
▁magnetic	-12282
▁indigenous	-12283
▁Mult	-12284
▁Room	-12285
artime	-12286
▁genes	-12287
▁closure	-12288
▁Regional	-12289
▁Bulgarian	-12290
▁evacuation	-12291
▁extraordin	-12292
▁intellectual	-12293
▁Uk	-12294
ijin	-12295
ublin	-12296
omical	-12297
▁lined	-12298
ampagne	-12299
▁Dakota	-12300
▁suited	-12301
▁Environment	-12302
▁LP	-12303
▁Mull	-12304
▁unve	-12305
▁resid	-12306
▁Canucks	-12307
▁embrace	-12308
▁heavier	-12309
▁nearest	-12310
▁roadway	-12311
▁narrowed	-12312
▁efficient	-12313
▁ministers	-12314
▁Technology	-12315
▁116	-12316
▁lib	-12317
ewise	-12318
▁Month	-12319
▁edges	-12320
▁grows	-12321
▁finest	-12322
▁morgan	-12323
▁imposed	-12324
▁maneuver	-12325
▁irregular	-12326
▁Protestant	-12327
▁complimented	-12328
jan	-12329
isan	-12330
▁Hunt	-12331
▁Iran	-12332
▁Movie	-12333
▁shorts	-12334
▁submer	-12335
▁automatically	-12336
ahn	-12337
▁reh	-12338
ettes	-12339
strong	-12340
ocolate	-12341
▁horizont	-12342
▁Boulevard	-12343
▁Brazilian	-12344
▁convicted	-12345
▁Haz	-12346
▁Sex	-12347
▁perc	-12348
ennial	-12349
▁Pierre	-12350
▁Friedrich	-12351
▁encompass	-12352
▁Celtic	-12353
▁Paraly	-12354
▁Buffalo	-12355
▁prototype	-12356
▁Cincinnati	-12357
▁sean	-12358
▁vibr	-12359
▁adequ	-12360
▁exile	-12361
▁McCarthy	-12362
▁keyboard	-12363
▁measuring	-12364
▁peninsula	-12365
atra	-12366
▁Lamb	-12367
▁plum	-12368
▁tang	-12369
kinson	-12370
▁skirt	-12371
▁spots	-12372
▁marble	-12373
▁healthy	-12374
▁matched	-12375
▁package	-12376
▁exterior	-12377
▁opinions	-12378
▁searched	-12379
▁stability	-12380
ags	-12381
cht	-12382
oren	-12383
▁Quar	-12384
▁cant	-12385
escope	-12386
▁Grade	-12387
▁hyper	-12388
▁Wonder	-12389
▁boring	-12390
▁condemned	-12391
▁Springfield	-12392
▁constantijin	-12393
▁Ko	-12394
▁XX	-12395
▁mol	-12396
izers	-12397
▁Brah	-12398
▁vari	-12399
▁worker	-12400
▁Ener	-12401
▁mask	-12402
▁rode	-12403
▁Athens	-12404
▁initiative	-12405
▁gle	-12406
▁oxid	-12407
▁Dennis	-12408
▁rested	-12409
▁lyrical	-12410
▁propaganda	-12411
▁Pay	-12412
▁mes	-12413
▁Winn	-12414
issioned	-12415
▁Affairs	-12416
▁Barbara	-12417
▁deciding	-12418
boat	-12419
▁Mile	-12420
▁Reading	-12421
AP	-12422
oub	-12423
▁Body	-12424
rapping	-12425
▁Invest	-12426
▁agrees	-12427
▁furniture	-12428
▁expectations	-12429
▁ion	-12430
rogen	-12431
▁lana	-12432
▁facil	-12433
▁optim	-12434
▁mutual	-12435
▁Cameron	-12436
▁privile	-12437
▁Paralymp	-12438
▁decisive	-12439
▁managing	-12440
hart	-12441
▁134	-12442
▁Kel	-12443
▁1863	-12444
▁1886	-12445
▁wand	-12446
▁Gates	-12447
▁chess	-12448
enedict	-12449
▁darker	-12450
▁recruit	-12451
▁Saw	-12452
▁nik	-12453
quest	-12454
▁laci	-12455
▁wolf	-12456
▁Busch	-12457
▁Magic	-12458
onscious	-12459
▁Glasgow	-12460
▁detected	-12461
▁Basketball	-12462
▁predominantly	-12463
CO	-12464
▁NW	-12465
▁Abu	-12466
▁Tir	-12467
▁employee	-12468
▁vicinity	-12469
▁Full	-12470
▁disgu	-12471
▁jamie	-12472
▁whale	-12473
▁sharply	-12474
▁Armenian	-12475
▁matching	-12476
▁reporting	-12477
▁consideration	-12478
ulum	-12479
▁Mind	-12480
▁buck	-12481
▁melod	-12482
▁metre	-12483
▁restaurants	-12484
ando	-12485
oric	-12486
▁Dud	-12487
▁fake	-12488
▁Dallas	-12489
▁divine	-12490
▁superst	-12491
▁armoured	-12492
eda	-12493
▁129	-12494
▁145	-12495
▁sin	-12496
▁internet	-12497
▁expanding	-12498
ido	-12499
arus	-12500
azed	-12501
▁Deb	-12502
▁Code	-12503
▁Mann	-12504
season	-12505
▁fluor	-12506
▁Baltic	-12507
▁closet	-12508
▁timber	-12509
▁mammals	-12510
▁resting	-12511
▁bacteria	-12512
▁occurring	-12513
inely	-12514
▁chron	-12515
▁medals	-12516
▁photos	-12517
▁Minogue	-12518
▁rebounds	-12519
▁Political	-12520
▁everywhere	-12521
engu	-12522
▁119	-12523
opard	-12524
▁Orchest	-12525
▁focuses	-12526
▁refuses	-12527
▁eastward	-12528
▁outstanding	-12529
▁Myst	-12530
▁Ghost	-12531
▁rugby	-12532
▁elderly	-12533
iche	-12534
▁Hav	-12535
▁mos	-12536
▁sulf	-12537
▁Comedy	-12538
▁Denver	-12539
▁plastic	-12540
▁reflection	-12541
▁thunderstorm	-12542
DI	-12543
▁bin	-12544
▁lust	-12545
▁Watch	-12546
▁cable	-12547
▁Former	-12548
▁amphib	-12549
▁halfway	-12550
▁peoples	-12551
▁rational	-12552
▁velocity	-12553
▁protecting	-12554
▁Afghanistan	-12555
▁Tang	-12556
▁dign	-12557
▁epit	-12558
▁hunt	-12559
▁mere	-12560
ificent	-12561
▁coaching	-12562
▁machines	-12563
▁sacrifice	-12564
▁calculated	-12565
sis	-12566
▁107	-12567
▁trio	-12568
▁Future	-12569
▁rachel	-12570
▁rod	-12571
▁Cool	-12572
▁Hoff	-12573
▁whales	-12574
▁editions	-12575
▁103	-12576
▁151	-12577
▁Nam	-12578
inked	-12579
osity	-12580
▁loos	-12581
▁fever	-12582
▁charlie	-12583
▁corridor	-12584
ridge	-12585
▁Take	-12586
▁Fifth	-12587
▁Steel	-12588
▁screw	-12589
▁mounts	-12590
▁defenses	-12591
▁scholarship	-12592
▁lace	-12593
▁motif	-12594
▁lesser	-12595
umberland	-12596
▁centimet	-12597
▁contempl	-12598
▁presents	-12599
▁preparations	-12600
▁Bri	-12601
▁haw	-12602
▁Sche	-12603
▁cosm	-12604
▁spun	-12605
usters	-12606
▁Altern	-12607
▁greeted	-12608
▁martial	-12609
▁payment	-12610
▁strikes	-12611
▁eyebrows	-12612
▁Conservative	-12613
▁Map	-12614
▁monit	-12615
▁Parsons	-12616
▁viewing	-12617
▁transformed	-12618
▁Bass	-12619
▁leah	-12620
▁posts	-12621
▁swing	-12622
bris	-12623
lett	-12624
oirs	-12625
ospel	-12626
▁1883	-12627
▁Blair	-12628
▁Round	-12629
▁chairs	-12630
▁filter	-12631
▁interf	-12632
▁repeat	-12633
▁summon	-12634
▁inherit	-12635
▁transit	-12636
▁Computer	-12637
▁Indonesian	-12638
ikes	-12639
igger	-12640
▁1884	-12641
▁Isle	-12642
▁Taiwan	-12643
▁guided	-12644
▁outfit	-12645
▁millions	-12646
▁Mk	-12647
▁Hil	-12648
▁Kon	-12649
▁Lon	-12650
▁reef	-12651
▁verses	-12652
▁cameras	-12653
▁expense	-12654
▁gallery	-12655
ppy	-12656
rays	-12657
▁Toy	-12658
▁isn	-12659
▁Duch	-12660
▁amid	-12661
▁Alpha	-12662
▁Curtis	-12663
▁winners	-12664
music	-12665
▁Beth	-12666
▁trips	-12667
istical	-12668
▁Career	-12669
▁mentions	-12670
▁Montgomery	-12671
igo	-12672
class	-12673
▁Beau	-12674
▁belonging	-12675
▁prompting	-12676
▁Place	-12677
▁tense	-12678
▁preceding	-12679
▁battlefield	-12680
én	-12681
pit	-12682
▁Bak	-12683
▁Fran	-12684
atorial	-12685
▁Dublin	-12686
▁shoved	-12687
▁Herbert	-12688
▁Soviets	-12689
▁directing	-12690
▁exploration	-12691
▁corresponding	-12692
▁Any	-12693
▁Esc	-12694
▁Fab	-12695
▁Kes	-12696
endar	-12697
urbed	-12698
▁blew	-12699
▁arena	-12700
▁fires	-12701
▁restr	-12702
▁Selena	-12703
▁quoted	-12704
▁Morning	-12705
▁favored	-12706
▁needing	-12707
▁grandson	-12708
▁hesitated	-12709
▁Abra	-12710
▁Glou	-12711
▁sixty	-12712
▁accent	-12713
▁genuine	-12714
▁molecules	-12715
gric	-12716
▁Grove	-12717
▁Vegas	-12718
rection	-12719
▁McCain	-12720
▁insuff	-12721
▁blinked	-12722
Hg	-12723
gus	-12724
that	-12725
▁Bears	-12726
achelor	-12727
▁screens	-12728
▁floating	-12729
▁priority	-12730
▁Collection	-12731
▁appreciated	-12732
▁regulations	-12733
▁Jin	-12734
▁Hein	-12735
▁radius	-12736
▁decrease	-12737
gary	-12738
▁Berg	-12739
▁bapt	-12740
errick	-12741
▁faculty	-12742
▁executives	-12743
▁submarines	-12744
▁consequence	-12745
▁Led	-12746
▁MVP	-12747
▁1830	-12748
▁Herm	-12749
▁inev	-12750
▁reop	-12751
▁tony	-12752
▁zero	-12753
▁Percy	-12754
▁swung	-12755
▁buying	-12756
▁studios	-12757
▁airborne	-12758
▁fundamental	-12759
core	-12760
inqu	-12761
lane	-12762
angel	-12763
ulates	-12764
▁Rosen	-12765
▁nerves	-12766
▁permit	-12767
▁varying	-12768
▁concepts	-12769
▁refusing	-12770
▁1887	-12771
▁Kerr	-12772
▁jett	-12773
▁Mercury	-12774
▁proclaimed	-12775
anka	-12776
▁Gang	-12777
▁Pete	-12778
▁Helen	-12779
▁width	-12780
▁drinks	-12781
▁choices	-12782
▁Princeton	-12783
▁explosive	-12784
▁torpedoes	-12785
▁achievements	-12786
aba	-12787
▁Seas	-12788
▁angel	-12789
ountain	-12790
▁Liberty	-12791
▁Monster	-12792
▁Shelley	-12793
▁finance	-12794
avis	-12795
olves	-12796
▁noah	-12797
▁Chang	-12798
▁discour	-12799
▁eyebrow	-12800
▁venture	-12801
▁networks	-12802
▁interference	-12803
▁independently	-12804
▁archaeological	-12805
▁Lov	-12806
▁Fish	-12807
▁declan	-12808
▁genres	-12809
▁intrig	-12810
▁admired	-12811
▁regiments	-12812
▁collaborated	-12813
▁Syn	-12814
▁disbanded	-12815
aco	-12816
rup	-12817
▁Kid	-12818
▁Wis	-12819
▁Aber	-12820
▁Chen	-12821
▁Expl	-12822
▁penn	-12823
arians	-12824
▁illustrated	-12825
▁transmission	-12826
▁Baron	-12827
▁chann	-12828
▁kinds	-12829
▁Austro	-12830
▁assets	-12831
▁harbor	-12832
ensional	-12833
▁batsman	-12834
▁katherine	-12835
▁particles	-12836
eded	-12837
▁157	-12838
▁Ord	-12839
▁kit	-12840
▁Talk	-12841
▁Circle	-12842
▁Rivers	-12843
▁Commons	-12844
ilogy	-12845
▁Guild	-12846
▁chlor	-12847
▁coaches	-12848
▁encourage	-12849
▁embarrassed	-12850
wer	-12851
▁CEO	-12852
▁Venice	-12853
▁sucked	-12854
▁thread	-12855
▁torture	-12856
▁explored	-12857
▁Historical	-12858
▁Hey	-12859
▁inHg	-12860
▁Aaron	-12861
▁rebel	-12862
▁prosper	-12863
▁landings	-12864
▁affection	-12865
▁suspension	-12866
udi	-12867
abad	-12868
roke	-12869
▁Sri	-12870
▁Andr	-12871
▁lion	-12872
master	-12873
▁drift	-12874
▁reserved	-12875
▁requirement	-12876
▁championships	-12877
hn	-12878
itars	-12879
utton	-12880
▁Combat	-12881
▁organic	-12882
▁elevated	-12883
▁muscular	-12884
▁accepting	-12885
iors	-12886
asury	-12887
▁Eddie	-12888
jections	-12889
▁catching	-12890
▁Hus	-12891
osion	-12892
▁ferry	-12893
▁unrel	-12894
▁Bradley	-12895
ritic	-12896
▁abst	-12897
▁Energy	-12898
▁Foster	-12899
▁Mobile	-12900
▁venues	-12901
▁curious	-12902
▁judicial	-12903
▁declaration	-12904
▁intermediate	-12905
▁consciousness	-12906
▁deals	-12907
▁intend	-12908
alid	-12909
▁ber	-12910
▁Bert	-12911
▁rice	-12912
ashire	-12913
▁sustain	-12914
▁vincent	-12915
▁compromise	-12916
▁preventing	-12917
▁Composition	-12918
▁historically	-12919
▁Revolutionary	-12920
▁participating	-12921
▁reconstruction	-12922
ema	-12923
▁Tests	-12924
▁lengths	-12925
▁signals	-12926
▁inducted	-12927
▁exercises	-12928
▁Fil	-12929
ounce	-12930
▁shame	-12931
▁curled	-12932
▁poster	-12933
▁teachers	-12934
▁230	-12935
▁Wel	-12936
▁carl	-12937
▁trap	-12938
▁Galile	-12939
▁versus	-12940
▁therapy	-12941
▁updated	-12942
▁compiled	-12943
▁fantastic	-12944
▁locomotive	-12945
▁Westminster	-12946
▁rico	-12947
▁sara	-12948
▁tasks	-12949
▁Wagner	-12950
▁Watson	-12951
▁slower	-12952
▁onwards	-12953
▁landmark	-12954
▁reminisc	-12955
ulu	-12956
itime	-12957
▁duke	-12958
acious	-12959
▁Malta	-12960
▁gauge	-12961
▁planes	-12962
▁speeds	-12963
▁Bradman	-12964
▁strings	-12965
▁depiction	-12966
▁collecting	-12967
▁fortifications	-12968
icus	-12969
▁aided	-12970
▁recre	-12971
▁client	-12972
▁partners	-12973
▁protective	-12974
stad	-12975
▁202	-12976
▁Occ	-12977
anyon	-12978
oping	-12979
castle	-12980
▁openly	-12981
▁spores	-12982
▁consumed	-12983
▁disabled	-12984
▁orchestral	-12985
aton	-12986
rosse	-12987
▁Glee	-12988
▁pine	-12989
▁Cryst	-12990
ambling	-12991
▁convinc	-12992
▁connects	-12993
▁comparing	-12994
▁lifestyle	-12995
riet	-12996
▁Sor	-12997
▁Bron	-12998
▁Shar	-12999
▁aest	-13000
employ	-13001
ounted	-13002
▁Milan	-13003
▁alarm	-13004
▁Edmund	-13005
▁roster	-13006
▁barrier	-13007
▁gesture	-13008
▁Flanders	-13009
▁conducting	-13010
▁consistently	-13011
nal	-13012
▁220	-13013
▁1881	-13014
▁VIII	-13015
▁input	-13016
▁Waters	-13017
▁rumors	-13018
▁weighed	-13019
▁cemetery	-13020
rium	-13021
▁mum	-13022
front	-13023
utonium	-13024
▁debris	-13025
▁charming	-13026
▁creatures	-13027
▁surpassed	-13028
▁Lancashire	-13029
di	-13030
▁ov	-13031
zyme	-13032
▁Sad	-13033
▁seal	-13034
▁enlar	-13035
▁steal	-13036
▁unanim	-13037
▁Middles	-13038
▁gravity	-13039
▁wartime	-13040
▁Armstrong	-13041
send	-13042
otted	-13043
▁Food	-13044
▁caut	-13045
▁Ground	-13046
▁bomber	-13047
▁stance	-13048
▁delegates	-13049
▁integrated	-13050
▁imagination	-13051
▁Sha	-13052
▁Anat	-13053
▁Coal	-13054
▁Verm	-13055
▁Delhi	-13056
▁arrog	-13057
▁awful	-13058
▁tribut	-13059
uka	-13060
gett	-13061
nton	-13062
▁WWF	-13063
▁awa	-13064
▁corners	-13065
▁graphic	-13066
▁monitor	-13067
▁Alliance	-13068
▁incidents	-13069
▁Additional	-13070
ugs	-13071
▁raced	-13072
▁metals	-13073
restrial	-13074
▁Normandy	-13075
▁stepping	-13076
▁seemingly	-13077
RC	-13078
iki	-13079
▁SH	-13080
▁yd	-13081
▁nipple	-13082
▁counted	-13083
▁custody	-13084
▁targeted	-13085
▁david	-13086
▁scout	-13087
▁clergy	-13088
▁opined	-13089
▁vacation	-13090
▁champagne	-13091
▁seventeen	-13092
▁formations	-13093
▁intentions	-13094
ivia	-13095
▁Nad	-13096
▁Chin	-13097
▁grasp	-13098
▁bloody	-13099
▁tended	-13100
▁Madison	-13101
▁Junction	-13102
▁silently	-13103
▁steering	-13104
.1	-13105
esa	-13106
osc	-13107
verty	-13108
▁Hubb	-13109
▁root	-13110
▁alert	-13111
▁anton	-13112
▁Dudley	-13113
▁metall	-13114
wind	-13115
▁Barn	-13116
heimer	-13117
▁Ports	-13118
▁canon	-13119
▁Daniels	-13120
▁Manning	-13121
▁extends	-13122
▁estimate	-13123
▁Millennium	-13124
▁Wiz	-13125
▁barb	-13126
▁bars	-13127
▁fury	-13128
iosity	-13129
▁poverty	-13130
▁actively	-13131
▁deposits	-13132
▁submerged	-13133
▁Chem	-13134
▁hosp	-13135
rically	-13136
▁Shield	-13137
▁assert	-13138
▁genera	-13139
▁halted	-13140
▁frigate	-13141
▁sailors	-13142
▁damaging	-13143
▁associate	-13144
▁dissolved	-13145
▁molecular	-13146
▁XI	-13147
agles	-13148
▁irre	-13149
▁resur	-13150
▁Sciences	-13151
▁agencies	-13152
▁delicious	-13153
▁kilometers	-13154
imir	-13155
▁sty	-13156
encer	-13157
▁barn	-13158
▁lied	-13159
▁pour	-13160
▁Isles	-13161
▁Nobel	-13162
▁Rogers	-13163
▁Thorpe	-13164
▁fossils	-13165
▁averaged	-13166
▁rotation	-13167
▁qualities	-13168
▁Bent	-13169
▁MacL	-13170
▁remake	-13171
▁Greater	-13172
▁exploded	-13173
▁objectives	-13174
▁phenomenon	-13175
▁JG	-13176
ylum	-13177
▁Daw	-13178
▁gam	-13179
▁adds	-13180
▁Schum	-13181
▁Kepler	-13182
▁confer	-13183
▁staged	-13184
▁Hubbard	-13185
▁chicken	-13186
▁acclaimed	-13187
▁ah	-13188
▁Rah	-13189
▁tum	-13190
shine	-13191
▁Mills	-13192
▁knife	-13193
▁themed	-13194
▁Federer	-13195
▁Marshal	-13196
▁convert	-13197
vi	-13198
ggy	-13199
omes	-13200
▁elbow	-13201
▁estates	-13202
▁Movement	-13203
▁blockade	-13204
▁enhanced	-13205
▁receiver	-13206
▁sounding	-13207
▁complement	-13208
ossip	-13209
oused	-13210
ficial	-13211
▁Stage	-13212
▁Usher	-13213
▁summar	-13214
▁flashed	-13215
▁costumes	-13216
▁terminal	-13217
▁contribute	-13218
▁critically	-13219
▁subtropical	-13220
▁Professional	-13221
aurus	-13222
odied	-13223
▁lava	-13224
▁urge	-13225
▁Ellen	-13226
▁Robin	-13227
▁Barrett	-13228
▁clenched	-13229
▁dispatched	-13230
▁Dow	-13231
▁sic	-13232
▁nate	-13233
▁Guadal	-13234
▁Current	-13235
▁caution	-13236
▁routing	-13237
▁contents	-13238
▁theaters	-13239
atts	-13240
iary	-13241
atural	-13242
▁Delta	-13243
▁glared	-13244
▁velvet	-13245
▁Territory	-13246
▁internationally	-13247
ampa	-13248
arte	-13249
▁Cou	-13250
▁Cris	-13251
icular	-13252
▁gusts	-13253
▁Inside	-13254
▁consent	-13255
▁dynamic	-13256
▁guitars	-13257
▁neutron	-13258
▁indirect	-13259
▁contributing	-13260
isch	-13261
▁138	-13262
▁Jur	-13263
▁Soph	-13264
▁craw	-13265
alties	-13266
istocr	-13267
▁Leeds	-13268
▁fairy	-13269
▁jerked	-13270
▁Intellig	-13271
▁advances	-13272
▁clearing	-13273
▁doctrine	-13274
▁stripped	-13275
▁performers	-13276
▁RI	-13277
iasm	-13278
Music	-13279
▁Mail	-13280
▁Phant	-13281
▁metaph	-13282
▁comprised	-13283
él	-13284
wig	-13285
▁Hond	-13286
▁Wald	-13287
▁clut	-13288
▁Janet	-13289
▁bowled	-13290
▁config	-13291
▁Beautiful	-13292
▁privately	-13293
▁northeastern	-13294
ulk	-13295
iang	-13296
▁126	-13297
▁gut	-13298
▁1882	-13299
▁Pine	-13300
▁halt	-13301
▁tore	-13302
▁sheer	-13303
▁Louise	-13304
▁Cornwall	-13305
▁comprehens	-13306
sl	-13307
▁bob	-13308
▁Cond	-13309
▁Pack	-13310
▁True	-13311
▁jenna	-13312
▁delicate	-13313
▁HM	-13314
orus	-13315
▁Bog	-13316
▁Ply	-13317
▁Rav	-13318
ovich	-13319
▁Berm	-13320
▁Burg	-13321
▁charm	-13322
▁shops	-13323
▁linear	-13324
▁Holland	-13325
▁underwater	-13326
▁unsuccessfully	-13327
▁Dod	-13328
▁spo	-13329
▁Carlos	-13330
▁phosph	-13331
▁Cyclone	-13332
▁Lindwall	-13333
▁Telegraph	-13334
▁respected	-13335
rush	-13336
▁Raid	-13337
▁likes	-13338
▁ruined	-13339
▁resolve	-13340
▁mistaken	-13341
▁assassination	-13342
▁128	-13343
olith	-13344
▁Maxim	-13345
▁Effect	-13346
▁Method	-13347
▁tradem	-13348
▁channels	-13349
▁promising	-13350
▁complaints	-13351
amy	-13352
lem	-13353
▁Hat	-13354
▁hast	-13355
▁sidew	-13356
▁auction	-13357
▁deserved	-13358
▁navigation	-13359
zo	-13360
▁Vo	-13361
▁Gru	-13362
▁Pra	-13363
▁mit	-13364
▁Zero	-13365
▁Glass	-13366
▁Manor	-13367
▁keeps	-13368
▁intact	-13369
▁squeezed	-13370
▁realizing	-13371
▁contracted	-13372
▁percussion	-13373
▁Headquarters	-13374
ovic	-13375
▁JNA	-13376
▁Kill	-13377
▁ling	-13378
▁Theater	-13379
▁borders	-13380
▁counsel	-13381
▁appealed	-13382
▁offshore	-13383
▁allocated	-13384
▁achievement	-13385
GB	-13386
▁Mine	-13387
▁bout	-13388
▁rook	-13389
▁woke	-13390
▁Eagle	-13391
▁Total	-13392
▁jokes	-13393
▁widow	-13394
▁insane	-13395
▁sketch	-13396
▁Baptist	-13397
▁suppose	-13398
▁exhibited	-13399
▁improving	-13400
hl	-13401
usc	-13402
▁Pas	-13403
▁Hood	-13404
▁Colin	-13405
▁lakes	-13406
▁liver	-13407
▁Priest	-13408
▁welcom	-13409
▁spectators	-13410
zi	-13411
▁Wes	-13412
▁gym	-13413
hurst	-13414
irmed	-13415
▁Cand	-13416
▁gasp	-13417
▁icon	-13418
▁Micha	-13419
▁cruel	-13420
igation	-13421
▁Canyon	-13422
▁Stockh	-13423
▁Musical	-13424
▁borough	-13425
▁Stanford	-13426
▁thickness	-13427
▁dimensional	-13428
roe	-13429
▁que	-13430
▁Shin	-13431
▁Opera	-13432
▁roller	-13433
isations	-13434
▁Mounted	-13435
quin	-13436
▁Rou	-13437
▁chord	-13438
▁eldest	-13439
▁improv	-13440
▁notion	-13441
▁castles	-13442
▁elegant	-13443
▁magical	-13444
▁revived	-13445
▁slammed	-13446
▁Phillips	-13447
▁aristocr	-13448
▁immigrants	-13449
acts	-13450
nery	-13451
▁stab	-13452
▁troop	-13453
ographed	-13454
▁Orchestra	-13455
▁Luft	-13456
▁ting	-13457
▁Agric	-13458
▁dylan	-13459
▁rigid	-13460
▁echoed	-13461
▁proxim	-13462
▁varies	-13463
▁scientist	-13464
▁Publishing	-13465
▁fut	-13466
unting	-13467
▁Arena	-13468
▁Maine	-13469
▁arched	-13470
▁Stefani	-13471
▁Arkansas	-13472
▁distinguish	-13473
ifa	-13474
▁Arc	-13475
▁Vul	-13476
atoes	-13477
▁Exped	-13478
▁fluid	-13479
▁relay	-13480
▁Stories	-13481
▁Brooklyn	-13482
▁choosing	-13483
▁siblings	-13484
▁continental	-13485
▁destination	-13486
▁Tas	-13487
▁mim	-13488
▁oak	-13489
▁pled	-13490
▁Heath	-13491
▁Calgary	-13492
▁Welling	-13493
▁Bulgaria	-13494
▁emerging	-13495
▁resemble	-13496
▁horsepower	-13497
▁interactions	-13498
Pa	-13499
▁boxes	-13500
▁cubic	-13501
angered	-13502
▁gaming	-13503
▁Conserv	-13504
▁jackson	-13505
▁vegetation	-13506
▁Ky	-13507
olia	-13508
▁750	-13509
cending	-13510
▁runner	-13511
▁disputed	-13512
▁redesign	-13513
▁gentleman	-13514
Tunes	-13515
istle	-13516
▁paul	-13517
▁drops	-13518
▁Heaven	-13519
▁assign	-13520
▁lauren	-13521
▁referee	-13522
▁diseases	-13523
▁sexually	-13524
ahl	-13525
anked	-13526
armed	-13527
▁Caes	-13528
▁Jose	-13529
▁unst	-13530
▁Right	-13531
▁Ronald	-13532
▁traced	-13533
▁disrupt	-13534
▁engaging	-13535
▁Cardinals	-13536
▁Robertson	-13537
▁advocated	-13538
▁procedure	-13539
▁conviction	-13540
aceous	-13541
▁Cloud	-13542
▁Flood	-13543
▁Metal	-13544
▁hurry	-13545
▁fights	-13546
▁rubbed	-13547
▁Gregory	-13548
▁chocolate	-13549
AL	-13550
gging	-13551
▁Heat	-13552
▁amer	-13553
▁jail	-13554
▁mall	-13555
houses	-13556
▁Serbs	-13557
▁freed	-13558
▁strain	-13559
▁Weather	-13560
▁leagues	-13561
▁shipped	-13562
▁abundant	-13563
▁cultures	-13564
▁contempor	-13565
▁diversity	-13566
▁speculated	-13567
▁journalists	-13568
aund	-13569
omon	-13570
▁Unit	-13571
▁witch	-13572
itating	-13573
▁Burger	-13574
▁manages	-13575
▁physician	-13576
▁proximity	-13577
Brien	-13578
onnell	-13579
▁escal	-13580
▁imper	-13581
▁seeds	-13582
▁cooperation	-13583
▁distinction	-13584
▁1867	-13585
▁Aguil	-13586
▁Using	-13587
▁Deputy	-13588
▁Nevada	-13589
▁amused	-13590
▁modest	-13591
▁Culture	-13592
▁lengthy	-13593
▁variant	-13594
▁assessment	-13595
bot	-13596
cled	-13597
umps	-13598
▁149	-13599
aline	-13600
lance	-13601
▁1877	-13602
▁Booth	-13603
▁boots	-13604
▁bored	-13605
▁overd	-13606
▁Ferdin	-13607
▁Holmes	-13608
▁Shadow	-13609
▁jessica	-13610
▁enthusiasm	-13611
ht	-13612
▁py	-13613
geant	-13614
achlan	-13615
ainted	-13616
▁dirty	-13617
▁rifle	-13618
▁regained	-13619
▁startled	-13620
▁ambitious	-13621
▁presidency	-13622
ibl	-13623
▁Put	-13624
▁buttons	-13625
▁fitting	-13626
▁Aguilera	-13627
▁refugees	-13628
▁unusually	-13629
ovo	-13630
▁EC	-13631
▁dh	-13632
▁Hann	-13633
▁pesh	-13634
▁cameo	-13635
▁cheap	-13636
▁iTunes	-13637
▁Frances	-13638
▁melanie	-13639
▁scenario	-13640
▁comprising	-13641
ogs	-13642
unton	-13643
▁cloth	-13644
▁miser	-13645
▁safely	-13646
▁serena	-13647
▁authent	-13648
▁emphasized	-13649
iop	-13650
atar	-13651
ylie	-13652
▁1869	-13653
▁Adri	-13654
▁Want	-13655
▁buzz	-13656
▁Newman	-13657
▁stabil	-13658
▁trophy	-13659
▁abruptly	-13660
▁helpless	-13661
▁judgment	-13662
▁proceeds	-13663
▁Admiralty	-13664
▁terrified	-13665
▁corruption	-13666
▁reasonable	-13667
▁Renaissance	-13668
▁necessarily	-13669
wy	-13670
▁1878	-13671
▁Vlad	-13672
▁Arabic	-13673
▁sheets	-13674
▁Various	-13675
▁teenage	-13676
▁generals	-13677
▁sophisticated	-13678
RS	-13679
arse	-13680
▁Jen	-13681
▁Money	-13682
▁reson	-13683
▁ceremonies	-13684
▁compliment	-13685
▁dive	-13686
▁Sponge	-13687
▁honors	-13688
odon	-13689
▁keen	-13690
▁outs	-13691
graduate	-13692
▁chapters	-13693
▁feminist	-13694
▁NL	-13695
mill	-13696
▁Kaz	-13697
▁Wit	-13698
▁gra	-13699
▁Lead	-13700
▁erin	-13701
▁gifts	-13702
▁acquire	-13703
▁relating	-13704
▁secretly	-13705
▁Henderson	-13706
▁eliminate	-13707
▁machinery	-13708
▁prohibited	-13709
▁interviewed	-13710
▁pad	-13711
birds	-13712
▁joins	-13713
through	-13714
▁Savage	-13715
▁Single	-13716
▁athletic	-13717
▁declaring	-13718
▁southwestern	-13719
iar	-13720
nut	-13721
bone	-13722
asper	-13723
liked	-13724
▁Till	-13725
▁mbar	-13726
▁zach	-13727
▁clare	-13728
▁collar	-13729
▁united	-13730
▁Article	-13731
▁Hopkins	-13732
▁farther	-13733
▁Bour	-13734
▁fond	-13735
▁cater	-13736
▁Flames	-13737
▁tennis	-13738
▁Olivier	-13739
▁michael	-13740
ironments	-13741
▁sporting	-13742
▁Operations	-13743
▁coc	-13744
▁telev	-13745
▁towel	-13746
▁reader	-13747
▁strang	-13748
▁termed	-13749
▁Chapman	-13750
▁editing	-13751
▁speaker	-13752
▁afterward	-13753
▁preliminary	-13754
opal	-13755
tegr	-13756
rians	-13757
▁1873	-13758
▁Enix	-13759
▁pond	-13760
▁annex	-13761
▁Cabinet	-13762
▁clients	-13763
▁stranger	-13764
▁Engineering	-13765
▁fo	-13766
aude	-13767
▁McKin	-13768
▁mandi	-13769
▁repet	-13770
▁crucial	-13771
▁climbing	-13772
▁disliked	-13773
▁reversed	-13774
▁teammates	-13775
pic	-13776
chers	-13777
▁1868	-13778
▁Carn	-13779
▁clan	-13780
▁hier	-13781
▁Abraham	-13782
▁publish	-13783
▁tensions	-13784
▁Expedition	-13785
▁conspiracy	-13786
▁psychological	-13787
▁124	-13788
▁Chet	-13789
▁Drag	-13790
▁Surv	-13791
▁Athen	-13792
▁Urban	-13793
▁relied	-13794
▁retrie	-13795
▁settling	-13796
▁stunning	-13797
▁turbines	-13798
▁Adventures	-13799
▁controlling	-13800
▁demographic	-13801
▁environments	-13802
▁manufactured	-13803
▁Gaz	-13804
▁pub	-13805
▁Epis	-13806
▁Sour	-13807
▁riot	-13808
rected	-13809
▁param	-13810
naments	-13811
▁unrest	-13812
▁Notable	-13813
▁habitats	-13814
zh	-13815
iev	-13816
eted	-13817
▁Sep	-13818
▁Voc	-13819
▁fox	-13820
▁1866	-13821
▁Jets	-13822
▁toes	-13823
▁Range	-13824
▁cease	-13825
▁faded	-13826
▁ensuing	-13827
▁detached	-13828
▁mechanics	-13829
▁autobiography	-13830
iots	-13831
▁ups	-13832
urers	-13833
▁Films	-13834
▁metab	-13835
▁undergo	-13836
▁Florence	-13837
▁twentieth	-13838
▁commentators	-13839
auc	-13840
▁ni	-13841
heart	-13842
range	-13843
▁Come	-13844
▁item	-13845
▁Schol	-13846
pending	-13847
▁Butler	-13848
▁discipline	-13849
▁descendants	-13850
▁extraordinary	-13851
▁Mam	-13852
▁Mom	-13853
alysis	-13854
▁Turks	-13855
▁outdoor	-13856
▁pounder	-13857
▁repaired	-13858
uffed	-13859
▁stole	-13860
▁fertil	-13861
▁antonia	-13862
▁Standard	-13863
▁coastline	-13864
ecil	-13865
eria	-13866
▁Moz	-13867
▁nam	-13868
▁brush	-13869
▁lucas	-13870
▁Powell	-13871
▁growled	-13872
▁lawyers	-13873
▁christian	-13874
▁allegations	-13875
list	-13876
▁Pon	-13877
heads	-13878
taker	-13879
▁1876	-13880
▁Gonz	-13881
▁ally	-13882
▁Devil	-13883
▁orient	-13884
▁perpet	-13885
▁regist	-13886
▁drifted	-13887
▁faction	-13888
▁tactical	-13889
▁Churchill	-13890
▁consensus	-13891
▁pronounced	-13892
▁entertaining	-13893
eta	-13894
▁golf	-13895
veston	-13896
▁Belie	-13897
▁Adrian	-13898
▁Oldham	-13899
▁Strong	-13900
▁slender	-13901
▁tourism	-13902
▁backwards	-13903
▁deployment	-13904
▁pref	-13905
resses	-13906
▁fraud	-13907
▁henry	-13908
▁tessa	-13909
▁mascul	-13910
▁purple	-13911
▁screening	-13912
▁demonstrate	-13913
▁songwriting	-13914
ikh	-13915
ppe	-13916
▁IC	-13917
▁ms	-13918
▁Sic	-13919
▁Why	-13920
shirt	-13921
▁wrap	-13922
▁grief	-13923
igrated	-13924
▁metric	-13925
▁prayer	-13926
▁Commerc	-13927
▁happily	-13928
istically	-13929
▁carriage	-13930
▁Galveston	-13931
▁fragments	-13932
▁Richardson	-13933
▁encouraging	-13934
▁CC	-13935
just	-13936
▁123	-13937
▁Cut	-13938
▁Laf	-13939
ormal	-13940
▁soci	-13941
▁Humph	-13942
▁Shank	-13943
▁Gothic	-13944
▁Trinity	-13945
▁operator	-13946
ologically	-13947
▁Northwest	-13948
▁instrumentation	-13949
▁Cu	-13950
drop	-13951
lake	-13952
▁Hardy	-13953
▁Trent	-13954
▁symmet	-13955
▁undertook	-13956
▁assignment	-13957
atum	-13958
▁Fow	-13959
▁dull	-13960
elfare	-13961
▁Metac	-13962
fection	-13963
thening	-13964
▁Region	-13965
▁anthem	-13966
▁virgin	-13967
▁Plymouth	-13968
▁Lay	-13969
▁crowds	-13970
▁Jennings	-13971
▁shifting	-13972
▁unemploy	-13973
▁substance	-13974
▁distracted	-13975
▁successive	-13976
▁enthusiastic	-13977
asia	-13978
dict	-13979
▁Vic	-13980
grade	-13981
matic	-13982
utors	-13983
▁Drum	-13984
▁facts	-13985
▁owing	-13986
▁confess	-13987
▁realised	-13988
▁vocalist	-13989
▁administered	-13990
oshi	-13991
▁McE	-13992
ungle	-13993
▁carn	-13994
▁till	-13995
▁Appro	-13996
▁Tales	-13997
▁sacred	-13998
▁wounds	-13999
▁reserves	-14000
▁reluctantly	-14001
▁reminiscent	-14002
lies	-14003
mare	-14004
▁upr	-14005
▁Yard	-14006
▁Olivia	-14007
▁outrage	-14008
▁bankrupt	-14009
▁processing	-14010
▁Yok	-14011
ocese	-14012
▁tool	-14013
▁Leban	-14014
▁grain	-14015
▁cottage	-14016
▁playable	-14017
▁lem	-14018
▁ros	-14019
▁Clif	-14020
▁hire	-14021
▁shed	-14022
▁spur	-14023
▁sway	-14024
▁Female	-14025
▁pupils	-14026
▁Capitol	-14027
▁conting	-14028
▁lesbian	-14029
▁honorary	-14030
▁tracking	-14031
▁supporter	-14032
▁storylines	-14033
HC	-14034
rams	-14035
actic	-14036
▁1848	-14037
▁rage	-14038
▁hammer	-14039
▁nomine	-14040
▁Genesis	-14041
▁singers	-14042
▁welcomed	-14043
▁Southampton	-14044
▁CN	-14045
chev	-14046
urbs	-14047
onnie	-14048
▁1875	-14049
▁Kath	-14050
▁consc	-14051
▁wives	-14052
▁Bosnia	-14053
▁Motion	-14054
▁jersey	-14055
▁homeless	-14056
▁realizes	-14057
▁poisoning	-14058
▁populated	-14059
▁spreading	-14060
PS	-14061
ér	-14062
acer	-14063
▁Alt	-14064
▁membr	-14065
▁blonde	-14066
▁presum	-14067
▁posthum	-14068
▁plutonium	-14069
▁confronted	-14070
▁discussions	-14071
▁confrontation	-14072
BO	-14073
vo	-14074
▁Lie	-14075
▁Mak	-14076
▁Nem	-14077
▁Sle	-14078
gends	-14079
▁nost	-14080
▁ruin	-14081
▁creates	-14082
▁servant	-14083
▁mentally	-14084
▁unveiled	-14085
▁Newcastle	-14086
▁Therefore	-14087
▁**	-14088
gans	-14089
▁Rif	-14090
▁Tow	-14091
▁Solar	-14092
▁drown	-14093
▁flags	-14094
▁synth	-14095
▁allied	-14096
▁hybrid	-14097
▁Armenia	-14098
▁Bermuda	-14099
▁137	-14100
▁Lis	-14101
▁Pok	-14102
▁Trad	-14103
▁Crane	-14104
▁Recon	-14105
▁crust	-14106
▁draws	-14107
▁indie	-14108
▁Choice	-14109
▁Sierra	-14110
▁Capital	-14111
▁Parkway	-14112
▁electoral	-14113
▁Contemporary	-14114
▁intersections	-14115
cia	-14116
▁Rus	-14117
▁Pent	-14118
▁dorm	-14119
▁essay	-14120
▁limbs	-14121
▁Desert	-14122
▁Hispan	-14123
▁Torres	-14124
▁escapes	-14125
▁enrolled	-14126
▁Metacritic	-14127
▁Portsmouth	-14128
woman	-14129
erness	-14130
▁Apart	-14131
▁wrist	-14132
▁Screen	-14133
▁Preston	-14134
▁planted	-14135
▁shouted	-14136
▁screaming	-14137
▁sympathetic	-14138
bin	-14139
▁IS	-14140
ovan	-14141
xter	-14142
▁ted	-14143
▁Emma	-14144
▁Hous	-14145
▁Otto	-14146
▁menu	-14147
ictions	-14148
▁Masters	-14149
▁patrols	-14150
▁ensemble	-14151
▁composers	-14152
▁quantities	-14153
rez	-14154
▁nu	-14155
zens	-14156
▁Devon	-14157
▁farming	-14158
▁Buddhist	-14159
▁remembering	-14160
bus	-14161
otto	-14162
oufl	-14163
▁ump	-14164
elfth	-14165
irate	-14166
▁heroes	-14167
▁worthy	-14168
▁caliber	-14169
▁exagger	-14170
▁Aviation	-14171
▁imported	-14172
▁contested	-14173
▁horizontal	-14174
▁thoroughly	-14175
▁McA	-14176
▁nob	-14177
▁tracy	-14178
▁Prison	-14179
▁nowhere	-14180
▁Michaels	-14181
▁licensed	-14182
oints	-14183
▁Anti	-14184
▁logo	-14185
entric	-14186
▁lacks	-14187
▁paved	-14188
▁twins	-14189
▁Fraser	-14190
▁Chairman	-14191
▁infected	-14192
▁securing	-14193
▁straightened	-14194
ED	-14195
eli	-14196
▁MC	-14197
bage	-14198
neys	-14199
▁Fly	-14200
eches	-14201
▁grid	-14202
▁sund	-14203
▁tide	-14204
irling	-14205
▁incor	-14206
▁rally	-14207
▁sweat	-14208
▁Panama	-14209
▁Webber	-14210
▁Advance	-14211
▁aggregate	-14212
▁counteratt	-14213
Arthur	-14214
▁decomm	-14215
▁Formula	-14216
▁SpongeB	-14217
▁flowing	-14218
▁Disco	-14219
▁Rhode	-14220
▁faint	-14221
▁solve	-14222
umbling	-14223
▁delays	-14224
▁hollow	-14225
▁momentum	-14226
▁separately	-14227
▁generations	-14228
▁tara	-14229
▁Metall	-14230
▁confined	-14231
▁Ltd	-14232
▁rays	-14233
▁Europ	-14234
▁Motor	-14235
▁Assist	-14236
▁panels	-14237
▁pillow	-14238
▁brigades	-14239
▁contrary	-14240
▁promises	-14241
▁Lancaster	-14242
OR	-14243
▁141	-14244
▁Hyd	-14245
▁Dawn	-14246
▁Adult	-14247
▁edward	-14248
▁Romania	-14249
▁Michelle	-14250
▁editorial	-14251
▁unwilling	-14252
▁Task	-14253
▁rely	-14254
irable	-14255
▁Spiel	-14256
▁developer	-14257
▁remarkable	-14258
▁sufficiently	-14259
nor	-14260
▁bik	-14261
adoes	-14262
▁suits	-14263
▁Knights	-14264
▁Allmusic	-14265
▁upstairs	-14266
▁celebrity	-14267
▁helicopters	-14268
▁measurements	-14269
dam	-14270
▁1871	-14271
▁Hast	-14272
▁realm	-14273
▁Luther	-14274
▁Newark	-14275
▁frozen	-14276
▁proven	-14277
▁Springs	-14278
▁Newfound	-14279
▁aviation	-14280
▁Adventure	-14281
▁nineteenth	-14282
▁progression	-14283
odia	-14284
▁Antar	-14285
▁congr	-14286
▁jewel	-14287
▁pyram	-14288
▁deserve	-14289
▁subordin	-14290
▁amendment	-14291
▁excessive	-14292
▁acquisition	-14293
cker	-14294
▁Bear	-14295
▁ware	-14296
ocaust	-14297
▁bonds	-14298
▁trigg	-14299
▁Vienna	-14300
▁nicknamed	-14301
dan	-14302
olics	-14303
uctor	-14304
▁1851	-14305
▁dirt	-14306
ayette	-14307
▁Edwin	-14308
▁Hutch	-14309
▁Kenny	-14310
▁overh	-14311
▁Jeremy	-14312
▁backup	-14313
▁experts	-14314
▁fratern	-14315
▁unhappy	-14316
clamation	-14317
▁printing	-14318
▁uprising	-14319
▁computers	-14320
▁diagnosed	-14321
▁instruction	-14322
oux	-14323
pin	-14324
zig	-14325
icho	-14326
▁etc	-14327
▁bags	-14328
▁Chall	-14329
▁coloured	-14330
▁commands	-14331
▁disputes	-14332
▁peaceful	-14333
olo	-14334
pat	-14335
xide	-14336
▁Winc	-14337
▁Crash	-14338
▁Ellis	-14339
▁Gross	-14340
▁cliff	-14341
▁opted	-14342
▁vault	-14343
▁Blaine	-14344
▁pinned	-14345
▁Harding	-14346
▁Windsor	-14347
▁secular	-14348
▁proceedings	-14349
nen	-14350
▁Bot	-14351
▁ate	-14352
▁Bast	-14353
▁Jake	-14354
▁hint	-14355
▁Psych	-14356
▁Speed	-14357
▁digit	-14358
▁farms	-14359
▁freely	-14360
▁regain	-14361
▁freshman	-14362
▁memorable	-14363
▁introducing	-14364
▁Consequently	-14365
hero	-14366
▁Cos	-14367
▁vit	-14368
icker	-14369
keley	-14370
▁Bris	-14371
▁stubb	-14372
▁Regard	-14373
▁thomas	-14374
▁Koreans	-14375
▁anxiety	-14376
▁magnificent	-14377
▁um	-14378
udder	-14379
▁Gaza	-14380
▁Kens	-14381
▁rans	-14382
▁Cuban	-14383
▁Obser	-14384
▁blown	-14385
▁kilog	-14386
▁reiss	-14387
▁clever	-14388
▁Gabriel	-14389
▁currency	-14390
▁maturity	-14391
▁scrapped	-14392
▁guarantee	-14393
▁delegation	-14394
▁spectacular	-14395
zym	-14396
▁Va	-14397
aired	-14398
▁1872	-14399
▁duck	-14400
▁Derby	-14401
▁gains	-14402
▁dishes	-14403
▁Jacques	-14404
▁exceeded	-14405
▁adaptations	-14406
▁Newfoundland	-14407
tter	-14408
▁RPG	-14409
▁sinc	-14410
yright	-14411
▁Member	-14412
▁Stalin	-14413
▁freight	-14414
▁symbols	-14415
▁ordering	-14416
▁Ferdinand	-14417
▁monastery	-14418
ovak	-14419
▁1879	-14420
▁Hass	-14421
▁Pont	-14422
anning	-14423
▁Essex	-14424
▁demon	-14425
▁ruins	-14426
▁wiped	-14427
▁Online	-14428
▁genius	-14429
▁interv	-14430
▁disgust	-14431
▁invented	-14432
▁massacre	-14433
▁surfaces	-14434
▁Industrial	-14435
▁hurricanes	-14436
oni	-14437
otus	-14438
ovsky	-14439
throp	-14440
▁Plat	-14441
▁Haven	-14442
▁Quinn	-14443
▁Valent	-14444
▁knight	-14445
▁grossed	-14446
▁Brigadier	-14447
▁curiosity	-14448
▁projected	-14449
▁testimony	-14450
ci	-14451
akh	-14452
erse	-14453
▁ana	-14454
elest	-14455
▁damon	-14456
▁stubborn	-14457
▁automatic	-14458
▁Wellington	-14459
cut	-14460
alie	-14461
fold	-14462
iolet	-14463
▁patch	-14464
▁spont	-14465
▁congrat	-14466
▁grabbing	-14467
▁persuade	-14468
yll	-14469
cting	-14470
▁Alam	-14471
▁Lope	-14472
▁Sans	-14473
▁neat	-14474
▁pard	-14475
▁Franz	-14476
▁mason	-14477
▁enable	-14478
▁sherry	-14479
▁submit	-14480
▁fucking	-14481
▁spirits	-14482
▁assessed	-14483
▁Electronic	-14484
▁functional	-14485
▁mathematics	-14486
ju	-14487
sing	-14488
▁NOK	-14489
▁hab	-14490
ugged	-14491
▁Truth	-14492
▁hello	-14493
▁floods	-14494
▁hospitals	-14495
▁convincing	-14496
top	-14497
inae	-14498
asses	-14499
▁Dart	-14500
▁mobil	-14501
▁Contin	-14502
▁biting	-14503
▁enzyme	-14504
▁Skinner	-14505
▁melting	-14506
▁reacted	-14507
▁overlook	-14508
▁Paramount	-14509
▁ESP	-14510
avour	-14511
▁blur	-14512
▁Hayes	-14513
▁Colomb	-14514
▁Franco	-14515
▁Monica	-14516
▁Sunder	-14517
▁Orthodox	-14518
▁manifest	-14519
▁Spielberg	-14520
▁continent	-14521
▁sexuality	-14522
▁incomplete	-14523
▁northwestern	-14524
iri	-14525
rah	-14526
▁Hull	-14527
otypes	-14528
▁Plaza	-14529
▁devil	-14530
instein	-14531
▁locate	-14532
▁subsidi	-14533
▁eruption	-14534
▁honestly	-14535
▁SpongeBob	-14536
▁york	-14537
jected	-14538
▁Regin	-14539
▁chains	-14540
▁incons	-14541
▁demonstration	-14542
tz	-14543
idy	-14544
odg	-14545
▁ba	-14546
mitt	-14547
▁sel	-14548
▁mirr	-14549
▁Lopez	-14550
▁monks	-14551
▁ballot	-14552
▁compat	-14553
▁rulers	-14554
▁tucked	-14555
▁damages	-14556
▁precise	-14557
▁Hawaiian	-14558
chw	-14559
chen	-14560
flow	-14561
orde	-14562
▁Ost	-14563
ogical	-14564
▁Forbes	-14565
▁grants	-14566
▁everybody	-14567
beit	-14568
▁lav	-14569
▁simon	-14570
▁honours	-14571
▁Adriatic	-14572
▁glancing	-14573
▁migration	-14574
▁volunteer	-14575
▁legitimate	-14576
arms	-14577
opsis	-14578
usive	-14579
▁corp	-14580
▁Henri	-14581
▁reapp	-14582
▁stunt	-14583
▁overth	-14584
▁rapper	-14585
▁Machine	-14586
▁pleasant	-14587
ishi	-14588
▁270	-14589
▁Smy	-14590
▁anat	-14591
unning	-14592
▁Illust	-14593
▁cement	-14594
▁erupted	-14595
▁disappro	-14596
▁veterans	-14597
▁investigated	-14598
mel	-14599
mail	-14600
▁146	-14601
▁rav	-14602
chair	-14603
▁cake	-14604
icating	-14605
▁Warwick	-14606
▁crowned	-14607
▁Starting	-14608
▁generate	-14609
▁interven	-14610
▁motorway	-14611
▁Artillery	-14612
▁relegated	-14613
▁210	-14614
▁Ses	-14615
▁tam	-14616
waffe	-14617
▁unne	-14618
▁Burke	-14619
▁Wolver	-14620
▁rocket	-14621
▁suburb	-14622
▁citizen	-14623
▁depends	-14624
▁goodbye	-14625
▁captivity	-14626
▁rejection	-14627
▁hypothesis	-14628
▁discontinued	-14629
etr	-14630
oft	-14631
asive	-14632
▁Brod	-14633
▁Pitt	-14634
▁Schw	-14635
▁cher	-14636
▁porch	-14637
▁pulse	-14638
▁zones	-14639
▁Gerald	-14640
▁Tucker	-14641
▁basement	-14642
▁affecting	-14643
▁comparable	-14644
▁reflecting	-14645
nty	-14646
atha	-14647
▁Koh	-14648
▁Fear	-14649
▁sage	-14650
▁fiance	-14651
▁merger	-14652
▁occupy	-14653
▁pedest	-14654
▁tribal	-14655
▁prolong	-14656
▁unnamed	-14657
▁pitching	-14658
lv	-14659
▁aug	-14660
▁pian	-14661
▁chaos	-14662
▁modes	-14663
▁punch	-14664
rolling	-14665
▁Arctic	-14666
▁Romans	-14667
▁Senior	-14668
▁diving	-14669
▁drives	-14670
▁helium	-14671
▁luxury	-14672
▁wouldn	-14673
▁Crystal	-14674
▁Character	-14675
erek	-14676
ibal	-14677
▁Dum	-14678
▁grat	-14679
▁tips	-14680
▁Adela	-14681
▁Tiger	-14682
▁caring	-14683
▁collision	-14684
avil	-14685
oning	-14686
phant	-14687
▁Brock	-14688
▁posed	-14689
▁sanct	-14690
▁Twenty	-14691
▁persisted	-14692
▁Protection	-14693
▁acceptable	-14694
▁insufficient	-14695
▁fet	-14696
▁misc	-14697
▁Minne	-14698
▁blend	-14699
▁seize	-14700
taining	-14701
▁Manager	-14702
▁crushed	-14703
▁trusted	-14704
▁uncertainty	-14705
aky	-14706
iast	-14707
▁flaw	-14708
otilla	-14709
▁Large	-14710
▁Marcus	-14711
▁traits	-14712
▁Airborne	-14713
▁screamed	-14714
▁MacArthur	-14715
▁ambassador	-14716
▁politically	-14717
▁Commissioner	-14718
50	-14719
▁hi	-14720
agic	-14721
▁Gat	-14722
▁meg	-14723
▁View	-14724
▁coupled	-14725
▁readily	-14726
▁stealing	-14727
▁Luftwaffe	-14728
▁Fi	-14729
adequ	-14730
▁Cave	-14731
▁brow	-14732
▁lease	-14733
▁Khrush	-14734
▁Surrey	-14735
▁worlds	-14736
iliation	-14737
▁Nothing	-14738
▁ancestors	-14739
▁neighbouring	-14740
▁.3	-14741
▁NS	-14742
▁Dian	-14743
▁cute	-14744
▁holy	-14745
▁Stoke	-14746
▁groom	-14747
▁Palmer	-14748
▁GameSpot	-14749
ichi	-14750
▁pige	-14751
▁Blake	-14752
▁acute	-14753
▁minim	-14754
inating	-14755
▁infect	-14756
▁nobody	-14757
▁rewrit	-14758
▁honored	-14759
▁relevant	-14760
zac	-14761
▁280	-14762
▁jim	-14763
oland	-14764
▁ruth	-14765
nesday	-14766
▁albeit	-14767
▁errors	-14768
▁hugged	-14769
▁rubbing	-14770
▁Geoffrey	-14771
▁variable	-14772
▁conjunction	-14773
▁Ful	-14774
▁gig	-14775
raine	-14776
assium	-14777
▁Rugby	-14778
▁Damage	-14779
▁tipped	-14780
▁Banksia	-14781
▁forgive	-14782
▁Fletcher	-14783
▁answering	-14784
▁Jag	-14785
isely	-14786
▁Pall	-14787
▁drap	-14788
▁nests	-14789
▁Tasman	-14790
▁Finnish	-14791
▁volcano	-14792
▁spinning	-14793
▁conquered	-14794
▁maintains	-14795
▁Khrushchev	-14796
▁od	-14797
▁dil	-14798
stown	-14799
▁Fant	-14800
ensing	-14801
umping	-14802
▁Remix	-14803
▁Leader	-14804
▁fusion	-14805
▁ironcl	-14806
▁Baldwin	-14807
▁Jennifer	-14808
▁Turnpike	-14809
▁drawings	-14810
▁speeches	-14811
▁questioning	-14812
▁FM	-14813
▁Aqu	-14814
acker	-14815
▁Buch	-14816
▁Kiss	-14817
▁damp	-14818
▁muzz	-14819
▁palms	-14820
iblical	-14821
▁Gibson	-14822
▁blacks	-14823
▁tunnels	-14824
▁meantime	-14825
▁businessman	-14826
▁installation	-14827
inate	-14828
oding	-14829
▁Beij	-14830
▁Gent	-14831
▁Dover	-14832
▁rookie	-14833
▁wicked	-14834
▁Hoffman	-14835
▁Adelaide	-14836
▁coalition	-14837
▁struggles	-14838
▁compensation	-14839
cock	-14840
▁BCE	-14841
▁Look	-14842
▁cord	-14843
▁hect	-14844
ursday	-14845
▁Nancy	-14846
▁Store	-14847
▁decent	-14848
▁hunger	-14849
▁ranged	-14850
▁Jamaica	-14851
▁Progress	-14852
▁unnecess	-14853
▁philosoph	-14854
▁Schumacher	-14855
▁Productions	-14856
▁transformation	-14857
▁Pix	-14858
▁sob	-14859
uxili	-14860
▁Brew	-14861
ittees	-14862
▁Drama	-14863
▁array	-14864
▁files	-14865
▁masses	-14866
▁Gardens	-14867
▁findings	-14868
▁northwestward	-14869
▁Oil	-14870
▁Zel	-14871
aceae	-14872
atops	-14873
▁1874	-14874
▁Sword	-14875
▁miner	-14876
▁applic	-14877
▁cheese	-14878
▁constr	-14879
▁disbel	-14880
▁flames	-14881
▁timing	-14882
▁Brandon	-14883
▁heating	-14884
▁secrets	-14885
▁Relations	-14886
▁detective	-14887
▁Recreation	-14888
aru	-14889
▁wool	-14890
▁refuse	-14891
ographers	-14892
▁monarchy	-14893
▁graduating	-14894
oan	-14895
uns	-14896
▁133	-14897
grily	-14898
▁Cruz	-14899
ylogen	-14900
▁Berry	-14901
▁Holden	-14902
▁loading	-14903
▁borrowed	-14904
▁cleaning	-14905
[...]
