<pad>	0
<unk>	0
<s>	0
</s>	0
▁이	-0
▁.	-1
▁다	-2
▁에	-3
▁는	-4
▁의	-5
▁을	-6
▁,	-7
▁하	-8
▁고	-9
▁은	-10
▁한	-11
▁가	-12
▁를	-13
▁지	-14
▁1	-15
▁으	-16
▁대	-17
▁기	-18
▁으로	-19
▁있	-20
▁2	-21
▁도	-22
▁로	-23
▁시	-24
▁사	-25
▁에서	-26
▁인	-27
▁(	-28
▁과	-29
▁일	-30
▁)	-31
▁했	-32
▁년	-33
▁수	-34
▁전	-35
▁들	-36
▁해	-37
▁되	-38
▁아	-39
▁적	-40
▁부	-41
▁등	-42
▁자	-43
▁그	-44
▁공	-45
▁주	-46
▁위	-47
▁어	-48
▁와	-49
▁었	-50
▁정	-51
▁제	-52
▁개	-53
▁경	-54
▁보	-55
▁여	-56
▁중	-57
▁만	-58
▁20	-59
▁3	-60
▁"	-61
▁조	-62
▁된	-63
▁것	-64
▁라	-65
▁월	-66
▁나	-67
▁관	-68
▁·	-69
▁상	-70
▁게	-71
▁선	-72
▁유	-73
▁면	-74
▁국	-75
▁한다	-76
▁연	-77
▁성	-78
▁마	-79
▁세	-80
▁소	-81
▁할	-82
▁교	-83
▁원	-84
▁며	-85
▁구	-86
▁오	-87
▁동	-88
▁명	-89
▁'	-90
▁였	-91
▁5	-92
▁발	-93
▁모	-94
▁서	-95
▁19	-96
▁4	-97
▁‘	-98
▁’	-99
▁신	-100
▁비	-101
▁미	-102
▁문	-103
▁방	-104
▁스	-105
▁통	-106
▁장	-107
▁내	-108
▁진	-109
▁학	-110
▁예	-111
▁영	-112
▁당	-113
▁계	-114
▁최	-115
▁화	-116
▁지역	-117
▁분	-118
▁현	-119
▁차	-120
▁“	-121
▁”	-122
▁안	-123
▁회	-124
▁생	-125
▁201	-126
▁6	-127
▁우	-128
▁실	-129
▁거	-130
▁강	-131
▁까	-132
▁광	-133
00	-134
▁까지	-135
▁후	-136
▁단	-137
▁재	-138
▁노	-139
▁무	-140
▁바	-141
▁건	-142
▁김	-143
▁말	-144
▁사업	-145
▁7	-146
▁추	-147
▁대한	-148
▁운	-149
▁던	-150
▁받	-151
▁특	-152
▁때	-153
▁않	-154
▁결	-155
▁함	-156
▁또	-157
▁남	-158
▁역	-159
▁8	-160
▁프	-161
▁포	-162
▁청	-163
▁산	-164
▁된다	-165
▁활	-166
▁행	-167
▁군	-168
▁에게	-169
▁-	-170
▁따	-171
▁불	-172
▁설	-173
▁및	-174
▁%	-175
▁반	-176
▁부터	-177
▁위해	-178
▁출	-179
▁참	-180
▁지난	-181
▁천	-182
▁없	-183
▁았	-184
▁작	-185
▁감	-186
▁체	-187
▁9	-188
▁확	-189
▁권	-190
▁열	-191
▁민	-192
▁평	-193
▁지만	-194
▁배	-195
▁올	-196
▁리	-197
▁10	-198
▁형	-199
▁간	-200
▁협	-201
▁면서	-202
▁호	-203
▁입	-204
▁지원	-205
▁매	-206
▁더	-207
▁초	-208
▁같	-209
▁파	-210
▁교육	-211
▁알	-212
▁요	-213
▁됐	-214
▁농	-215
▁종	-216
▁광주	-217
▁처	-218
▁달	-219
▁총	-220
▁통해	-221
▁양	-222
▁임	-223
▁두	-224
▁직	-225
▁번	-226
▁박	-227
▁200	-228
▁라고	-229
▁함께	-230
▁음	-231
▁데	-232
▁물	-233
▁많	-234
▁점	-235
▁타	-236
▁으며	-237
▁경기	-238
▁한국	-239
▁피	-240
▁본	-241
▁라는	-242
▁복	-243
▁투	-244
▁법	-245
▁다고	-246
▁문화	-247
▁충	-248
▁억	-249
▁집	-250
▁대구	-251
▁기자	-252
▁각	-253
▁사용	-254
▁이후	-255
▁치	-256
▁목	-257
▁대학	-258
▁심	-259
▁위원	-260
▁18	-261
▁12	-262
▁증	-263
▁다는	-264
▁프로	-265
▁환	-266
▁위한	-267
▁카	-268
▁금	-269
▁밝	-270
▁대표	-271
▁승	-272
▁외	-273
▁독	-274
▁11	-275
▁계획	-276
▁토	-277
▁앞	-278
▁축	-279
▁도시	-280
▁드	-281
▁업	-282
▁창	-283
▁새	-284
▁운영	-285
▁판	-286
▁규	-287
▁는데	-288
▁사회	-289
으며	-290
▁용	-291
▁변	-292
▁저	-293
▁코	-294
▁북	-295
▁진행	-296
▁따라	-297
▁활동	-298
▁도록	-299
▁태	-300
▁높	-301
▁겠	-302
▁필	-303
▁일본	-304
▁시작	-305
▁팀	-306
▁관계	-307
▁경우	-308
▁크	-309
▁기업	-310
▁때문	-311
▁될	-312
▁야	-313
▁약	-314
▁학교	-315
▁취	-316
▁연구	-317
▁센	-318
▁합	-319
▁이번	-320
▁추진	-321
▁대회	-322
▁표	-323
▁~	-324
▁속	-325
▁A	-326
▁대해	-327
▁세계	-328
▁정부	-329
▁현재	-330
▁보다	-331
▁다른	-332
▁씨	-333
▁15	-334
▁식	-335
▁검	-336
▁참여	-337
▁항	-338
▁맞	-339
▁근	-340
▁시민	-341
▁편	-342
▁레	-343
▁베	-344
▁사람	-345
▁또한	-346
▁미국	-347
▁순	-348
▁다음	-349
▁S	-350
▁선수	-351
▁병	-352
▁국가	-353
▁밝혔	-354
▁관련	-355
▁대상	-356
▁산업	-357
▁트	-358
▁못	-359
▁시장	-360
▁살	-361
▁이상	-362
▁개발	-363
▁가능	-364
스트	-365
▁별	-366
▁준	-367
▁의원	-368
▁제공	-369
▁가장	-370
▁《	-371
▁곳	-372
▁시간	-373
▁경제	-374
▁센터	-375
▁메	-376
▁》	-377
▁왕	-378
▁철	-379
▁다양	-380
▁기록	-381
▁문제	-382
▁시설	-383
▁채	-384
▁그러	-385
▁주민	-386
▁돼	-387
▁자신	-388
▁삼	-389
▁디	-390
▁완	-391
▁홍	-392
▁관리	-393
▁담	-394
▁뒤	-395
▁만들	-396
▁기관	-397
▁아니	-398
▁199	-399
▁그리	-400
▁30	-401
▁학생	-402
▁K	-403
▁m	-404
▁돌	-405
▁이나	-406
▁0	-407
민국	-408
▁버	-409
▁예정	-410
▁16	-411
▁브	-412
▁기술	-413
▁백	-414
▁특히	-415
▁전남	-416
▁사이	-417
▁이용	-418
▁C	-419
시아	-420
▁전국	-421
▁온	-422
▁대한민국	-423
리아	-424
▁하나	-425
▁당시	-426
▁조사	-427
▁친	-428
▁17	-429
▁환경	-430
▁향	-431
▁결과	-432
▁서울	-433
▁올해	-434
▁손	-435
▁테	-436
▁지난해	-437
▁지방	-438
▁모두	-439
▁논	-440
▁접	-441
▁큰	-442
▁플	-443
▁13	-444
▁첫	-445
▁네	-446
▁언	-447
▁14	-448
▁민주	-449
▁위원회	-450
▁구성	-451
▁발전	-452
▁질	-453
▁필요	-454
▁황	-455
▁길	-456
▁줄	-457
▁급	-458
▁△	-459
▁따르	-460
부터	-461
▁프로그	-462
▁발생	-463
▁위치	-464
▁정책	-465
▁가지	-466
▁째	-467
▁전문	-468
▁아이	-469
▁효	-470
▁이어	-471
▁육	-472
▁패	-473
▁찾	-474
▁절	-475
▁/	-476
▁운동	-477
▁설치	-478
▁포함	-479
▁M	-480
▁존	-481
▁과정	-482
▁선정	-483
▁프로그램	-484
▁안전	-485
▁행정	-486
▁영화	-487
▁행사	-488
▁조성	-489
▁한편	-490
▁202	-491
▁중심	-492
▁국제	-493
▁그러나	-494
▁T	-495
▁해야	-496
▁100	-497
▁폭	-498
▁는다	-499
▁관광	-500
▁좋	-501
▁또는	-502
▁허	-503
▁페	-504
▁관계자	-505
▁애	-506
▁골	-507
▁:	-508
▁갖	-509
▁F	-510
▁동안	-511
▁날	-512
▁클	-513
▁키	-514
▁평가	-515
레이	-516
▁루	-517
▁쓰	-518
▁우리	-519
▁단체	-520
▁이날	-521
▁생활	-522
▁리그	-523
▁조선	-524
▁다시	-525
비스	-526
▁공동	-527
▁혁	-528
▁중국	-529
▁이름	-530
▁마련	-531
▁일부	-532
▁2019	-533
▁198	-534
▁k	-535
▁부산	-536
▁걸	-537
▁개최	-538
▁상황	-539
▁니	-540
통령	-541
▁측	-542
랜드	-543
▁나타	-544
▁송	-545
▁누	-546
▁역사	-547
▁경찰	-548
▁25	-549
▁B	-550
▁석	-551
▁시즌	-552
▁기준	-553
▁봉	-554
▁대통령	-555
▁D	-556
▁규모	-557
▁책	-558
▁서비스	-559
▁발표	-560
▁방송	-561
▁모든	-562
▁정보	-563
운데	-564
주의	-565
▁새로	-566
▁가운데	-567
▁의해	-568
▁거나	-569
으나	-570
▁범	-571
▁폐	-572
▁선거	-573
▁알려	-574
▁주장	-575
▁시대	-576
▁국민	-577
▁최근	-578
▁마을	-579
▁극	-580
▁볼	-581
▁열린	-582
▁그리고	-583
▁여러	-584
▁러	-585
▁실시	-586
▁여성	-587
▁분야	-588
▁들어	-589
▁잘	-590
▁생산	-591
▁피해	-592
▁국회	-593
▁%)	-594
▁정치	-595
▁일반	-596
▁교통	-597
▁글	-598
▁끝	-599
▁제작	-600
▁작품	-601
▁처음	-602
▁예산	-603
▁L	-604
▁결정	-605
▁윤	-606
▁넘	-607
▁정도	-608
▁공사	-609
▁다가	-610
▁회의	-611
▁감독	-612
▁방문	-613
▁I	-614
▁려	-615
▁21	-616
▁강화	-617
▁기간	-618
지만	-619
▁커	-620
▁특별	-621
▁뜻	-622
▁건설	-623
▁갈	-624
▁확대	-625
▁대전	-626
▁엔	-627
▁막	-628
▁개선	-629
▁국내	-630
▁현장	-631
▁의회	-632
▁귀	-633
▁사건	-634
▁라며	-635
▁사실	-636
▁]	-637
▁힘	-638
▁당진	-639
▁사진	-640
▁[	-641
▁대학교	-642
▁프랑	-643
▁24	-644
▁자리	-645
▁뉴	-646
▁해당	-647
▁로서	-648
▁하지만	-649
▁복지	-650
학교	-651
▁모습	-652
000	-653
▁22	-654
▁층	-655
▁증가	-656
▁콘	-657
▁참가	-658
▁생각	-659
▁내용	-660
▁인천	-661
▁희	-662
▁했으며	-663
▁새로운	-664
▁터	-665
▁중앙	-666
▁자유	-667
▁응	-668
▁벌	-669
▁197	-670
▁이전	-671
▁공연	-672
▁잡	-673
▁활용	-674
▁지정	-675
▁기대	-676
▁맡	-677
▁협력	-678
▁P	-679
자리	-680
▁후보	-681
▁최고	-682
▁뿐	-683
▁음악	-684
▁회장	-685
▁주요	-686
▁공간	-687
▁기념	-688
▁비롯	-689
▁직접	-690
▁체험	-691
▁늘	-692
▁으나	-693
▁노력	-694
▁업체	-695
▁지속	-696
▁교수	-697
▁영향	-698
▁죽	-699
▁시스	-700
▁공개	-701
▁G	-702
▁케	-703
▁눈	-704
▁밀	-705
▁확인	-706
▁청년	-707
▁50	-708
▁23	-709
▁판매	-710
▁프랑스	-711
▁성공	-712
▁설명	-713
▁시키	-714
인다	-715
▁히	-716
▁적극	-717
▁난	-718
▁악	-719
▁2017	-720
▁중요	-721
▁로부터	-722
▁인구	-723
▁28	-724
▁자동	-725
▁축구	-726
▁상태	-727
▁홈	-728
▁탄	-729
▁최대	-730
▁가족	-731
▁역할	-732
▁196	-733
▁전쟁	-734
▁블	-735
▁요구	-736
▁전체	-737
▁캐	-738
▁건강	-739
▁시스템	-740
▁느	-741
▁추가	-742
▁관심	-743
부분	-744
▁오후	-745
▁26	-746
▁독일	-747
▁협의	-748
▁이루	-749
▁미래	-750
▁27	-751
▁최초	-752
▁영국	-753
▁얻	-754
▁예술	-755
▁독립	-756
▁즉	-757
이스	-758
▁곡	-759
▁조직	-760
▁활성	-761
▁침	-762
▁설립	-763
▁섬	-764
▁혁신	-765
▁티	-766
▁풍	-767
▁어린	-768
▁체육	-769
▁준비	-770
▁이유	-771
▁업무	-772
▁의미	-773
▁주택	-774
er	-775
▁대부분	-776
▁공원	-777
▁경북	-778
▁탈	-779
▁이러	-780
▁발견	-781
▁유치	-782
▁2018	-783
▁제도	-784
▁km	-785
▁스타	-786
▁신청	-787
▁구축	-788
▁병원	-789
▁왔	-790
▁우승	-791
▁농업	-792
▁구조	-793
▁게임	-794
▁194	-795
▁한다는	-796
▁수상	-797
▁자치	-798
▁차량	-799
니다	-800
▁노동	-801
▁휴	-802
▁현대	-803
▁▲	-804
▁처럼	-805
▁전시	-806
▁어서	-807
▁확보	-808
▁사고	-809
▁어려	-810
▁성장	-811
▁지구	-812
▁청소	-813
▁펼	-814
▁나라	-815
▁암	-816
▁도로	-817
▁상대	-818
▁부분	-819
▁투자	-820
▁시행	-821
▁존재	-822
▁머	-823
▁종합	-824
▁사망	-825
▁29	-826
▁사랑	-827
▁인해	-828
▁참석	-829
▁장애	-830
▁빠	-831
라이	-832
▁축제	-833
▁세기	-834
▁소속	-835
▁차지	-836
▁밖	-837
▁..	-838
▁방식	-839
▁우수	-840
▁먼	-841
▁울	-842
▁개인	-843
▁과학	-844
어나	-845
진다	-846
너지	-847
일보	-848
▁슈	-849
▁시청	-850
▁분석	-851
▁각각	-852
▁없이	-853
▁기반	-854
▁40	-855
▁품	-856
▁공공	-857
▁혼	-858
▁N	-859
▁계속	-860
▁보이	-861
▁기존	-862
▁먹	-863
▁의료	-864
▁일자리	-865
▁계약	-866
▁보호	-867
▁으면	-868
▁처리	-869
▁대책	-870
▁철도	-871
▁쿠	-872
▁효과	-873
▁능	-874
▁고려	-875
▁이미	-876
▁방법	-877
▁기능	-878
▁해서	-879
▁위원장	-880
▁대비	-881
▁유지	-882
▁이라	-883
▁지도	-884
▁습	-885
▁195	-886
▁많이	-887
▁바이	-888
스터	-889
▁제품	-890
▁이야	-891
▁만큼	-892
▁고등	-893
▁자연	-894
▁못하	-895
▁2016	-896
▁였으며	-897
▁라이	-898
▁변화	-899
▁같이	-900
▁출연	-901
▁낮	-902
or	-903
on	-904
▁출신	-905
▁놓	-906
▁방안	-907
▁의견	-908
▁광주시	-909
▁핵	-910
▁공격	-911
▁이야기	-912
▁;	-913
in	-914
▁청소년	-915
▁감사	-916
▁아들	-917
▁더욱	-918
▁31	-919
리스	-920
▁으로서	-921
▁데이	-922
▁지적	-923
니아	-924
▁긴	-925
▁그룹	-926
▁E	-927
▁촉	-928
▁홍보	-929
▁소비	-930
▁수도	-931
▁...	-932
▁수출	-933
▁지금	-934
▁얼	-935
▁헌	-936
▁캠	-937
▁수준	-938
▁몰	-939
▁격	-940
▁떨	-941
▁경쟁	-942
▁민주당	-943
▁떠	-944
이지	-945
▁사무	-946
▁거리	-947
an	-948
▁입장	-949
▁한다고	-950
▁U	-951
▁인터	-952
▁돌아	-953
▁자동차	-954
▁전통	-955
▁헤	-956
▁통합	-957
▁형태	-958
▁쇼	-959
▁강조	-960
▁매우	-961
마트	-962
▁팔	-963
▁률	-964
▁란	-965
▁마음	-966
▁H	-967
▁기본	-968
▁동시	-969
버지	-970
▁자원	-971
▁둘	-972
▁교육청	-973
▁자료	-974
▁R	-975
▁2020	-976
▁회사	-977
▁인정	-978
▁초등	-979
▁반대	-980
▁거쳐	-981
▁좌	-982
▁보여	-983
▁옥	-984
▁적용	-985
▁훈	-986
▁유럽	-987
▁전기	-988
▁에너지	-989
▁충남	-990
▁나가	-991
▁감소	-992
▁러시아	-993
▁해결	-994
▁개월	-995
▁공식	-996
▁주제	-997
▁목표	-998
▁&	-999
리카	-1000
▁워	-1001
▁이라고	-1002
▁가격	-1003
▁최종	-1004
▁2015	-1005
▁공항	-1006
▁녹	-1007
▁잠	-1008
▁체계	-1009
▁엄	-1010
▁경기도	-1011
대로	-1012
▁어린이	-1013
▁도입	-1014
▁평균	-1015
▁작가	-1016
▁주변	-1017
▁전투	-1018
▁착	-1019
▁도움	-1020
▁여자	-1021
▁실제	-1022
▁?	-1023
▁이뤄	-1024
▁인사	-1025
▁집중	-1026
▁본부	-1027
▁이사	-1028
▁타이	-1029
▁주로	-1030
▁졸	-1031
▁전망	-1032
어난	-1033
화국	-1034
▁대응	-1035
▁치료	-1036
우스	-1037
▁즐	-1038
▁떨어	-1039
▁항공	-1040
▁경영	-1041
▁컨	-1042
▁견	-1043
▁193	-1044
▁너	-1045
라마	-1046
▁장관	-1047
▁단지	-1048
거리	-1049
▁퍼	-1050
▁연합	-1051
▁건축	-1052
▁물론	-1053
▁내년	-1054
▁시기	-1055
▁연결	-1056
▁단계	-1057
▁개정	-1058
▁마지	-1059
▁역시	-1060
▁올림	-1061
▁율	-1062
▁배우	-1063
▁가구	-1064
▁정상	-1065
▁따른	-1066
▁충북	-1067
▁평화	-1068
한다	-1069
▁으로써	-1070
▁변경	-1071
▁작업	-1072
▁보인다	-1073
▁모델	-1074
디오	-1075
▁관한	-1076
▁예방	-1077
▁가치	-1078
▁빌	-1079
▁오전	-1080
▁사항	-1081
▁징	-1082
▁결국	-1083
▁아파	-1084
▁그녀	-1085
무원	-1086
▁진출	-1087
▁해외	-1088
▁방향	-1089
▁대구시	-1090
▁협회	-1091
▁상품	-1092
▁수사	-1093
▁안정	-1094
란드	-1095
▁높이	-1096
▁직원	-1097
▁마지막	-1098
▁2014	-1099
▁승리	-1100
▁폴	-1101
▁등장	-1102
▁푸	-1103
어났	-1104
이트	-1105
▁몸	-1106
▁협약	-1107
▁건물	-1108
▁숙	-1109
▁대해서	-1110
▁담당	-1111
▁책임	-1112
페인	-1113
▁출전	-1114
▁류	-1115
▁창업	-1116
▁노선	-1117
▁선발	-1118
ar	-1119
▁민간	-1120
▁뛰	-1121
▁색	-1122
▁아닌	-1123
▁빈	-1124
▁아버지	-1125
나라	-1126
▁스마트	-1127
▁수영	-1128
▁조정	-1129
▁기회	-1130
▁공모	-1131
▁올림픽	-1132
▁흥	-1133
▁정신	-1134
▁부족	-1135
▁더불	-1136
▁아파트	-1137
▁몇	-1138
▁공급	-1139
▁버스	-1140
▁풀	-1141
므로	-1142
▁행복	-1143
머니	-1144
린다	-1145
▁수행	-1146
▁졌	-1147
▁목적	-1148
▁중소	-1149
▁예상	-1150
▁행위	-1151
▁스포	-1152
▁2010	-1153
▁기획	-1154
▁등록	-1155
▁퇴	-1156
▁금융	-1157
▁외국	-1158
▁전달	-1159
▁인도	-1160
▁조합	-1161
▁60	-1162
▁지하	-1163
▁디자	-1164
레스	-1165
▁이동	-1166
▁제외	-1167
▁부문	-1168
▁지난달	-1169
▁자체	-1170
▁192	-1171
▁표현	-1172
▁으로부터	-1173
주시	-1174
이션	-1175
▁압	-1176
▁제국	-1177
▁이르	-1178
▁졸업	-1179
▁’,	-1180
▁도서	-1181
▁전문가	-1182
▁서로	-1183
▁이탈	-1184
▁보건	-1185
▁아래	-1186
▁대신	-1187
▁혐	-1188
▁묘	-1189
▁르	-1190
▁드라마	-1191
▁이것	-1192
▁고자	-1193
▁전략	-1194
▁프리	-1195
▁고등학교	-1196
라인	-1197
▁여기	-1198
▁W	-1199
▁조치	-1200
▁마다	-1201
▁인기	-1202
▁공장	-1203
남도	-1204
▁능력	-1205
▁이하	-1206
▁설계	-1207
▁삶	-1208
▁식품	-1209
▁반영	-1210
▁논의	-1211
▁못했	-1212
▁차례	-1213
▁벤	-1214
▁유명	-1215
의원	-1216
▁c	-1217
▁O	-1218
▁각종	-1219
▁사례	-1220
BS	-1221
▁앞서	-1222
▁시험	-1223
en	-1224
▁인간	-1225
▁나오	-1226
▁나타났	-1227
▁형성	-1228
▁삼성	-1229
▁g	-1230
▁운행	-1231
▁망	-1232
▁요청	-1233
▁2008	-1234
▁체결	-1235
▁건립	-1236
▁붙	-1237
▁t	-1238
▁육성	-1239
▁낙	-1240
▁미세	-1241
▁고용	-1242
▁비판	-1243
▁했으나	-1244
▁이런	-1245
▁취업	-1246
▁공무원	-1247
▁지사	-1248
▁환자	-1249
▁놀	-1250
▁오늘	-1251
▁이해	-1252
▁토론	-1253
▁2013	-1254
▁바로	-1255
▁제안	-1256
▁인근	-1257
▁슬	-1258
▁싶	-1259
동안	-1260
▁싱	-1261
▁부지	-1262
▁재단	-1263
▁지지	-1264
▁월드	-1265
▁국립	-1266
▁스포츠	-1267
▁가정	-1268
▁소재	-1269
▁로마	-1270
▁2012	-1271
▁여행	-1272
전히	-1273
▁통한	-1274
▁탐	-1275
프트	-1276
▁성과	-1277
▁균	-1278
▁191	-1279
▁끌	-1280
▁투입	-1281
▁제시	-1282
▁혐의	-1283
▁제기	-1284
▁2000	-1285
▁본격	-1286
▁칼	-1287
▁2011	-1288
▁심사	-1289
▁달리	-1290
▁인지	-1291
▁수립	-1292
▁이끌	-1293
▁초기	-1294
▁=	-1295
▁전자	-1296
▁위해서	-1297
▁노인	-1298
▁꾸	-1299
▁시리	-1300
▁영상	-1301
▁인민	-1302
▁어떤	-1303
▁연계	-1304
▁아시아	-1305
▁기원	-1306
al	-1307
▁검사	-1308
▁는지	-1309
▁데뷔	-1310
디어	-1311
▁상당	-1312
▁J	-1313
▁궁	-1314
▁희망	-1315
▁구역	-1316
▁찾아	-1317
▁음식	-1318
▁회원	-1319
▁디자인	-1320
▁경험	-1321
▁연속	-1322
▁만나	-1323
▁염	-1324
▁세대	-1325
▁70	-1326
▁부담	-1327
▁35	-1328
▁갑	-1329
▁지자	-1330
▁방침	-1331
운드	-1332
▁잔	-1333
▁2009	-1334
▁재정	-1335
▁발굴	-1336
▁거의	-1337
▁시절	-1338
▁씩	-1339
▁답	-1340
▁점검	-1341
▁정의	-1342
기업	-1343
▁선택	-1344
▁봉사	-1345
르크	-1346
▁이탈리아	-1347
▁컴	-1348
▁기여	-1349
▁획	-1350
▁500	-1351
▁앨	-1352
▁재판	-1353
산물	-1354
▁무대	-1355
▁제조	-1356
▁은행	-1357
▁학년	-1358
▁광양	-1359
▁일정	-1360
▁비용	-1361
▁연기	-1362
▁규정	-1363
▁발매	-1364
▁임명	-1365
소리	-1366
▁군사	-1367
▁검토	-1368
▁상승	-1369
▁결혼	-1370
▁교회	-1371
▁민족	-1372
▁시켰	-1373
▁우려	-1374
▁구간	-1375
▁동물	-1376
▁다이	-1377
▁홀	-1378
▁시리즈	-1379
▁북한	-1380
▁TV	-1381
▁지자체	-1382
반기	-1383
▁우선	-1384
▁비교	-1385
▁가진	-1386
▁소통	-1387
▁V	-1388
▁공유	-1389
▁빛	-1390
▁드러	-1391
▁선보	-1392
▁엘	-1393
▁지나	-1394
▁교류	-1395
▁밤	-1396
▁소방	-1397
먼지	-1398
▁동양	-1399
▁고객	-1400
▁과거	-1401
▁마이	-1402
▁미세먼지	-1403
▁딸	-1404
▁지급	-1405
▁뮤	-1406
▁수요	-1407
▁농가	-1408
▁세종	-1409
▁기초	-1410
▁달성	-1411
▁탑	-1412
▁장기	-1413
▁보험	-1414
▁%,	-1415
▁돈	-1416
▁▶	-1417
▁데이터	-1418
▁쉽	-1419
▁교사	-1420
▁충청	-1421
▁신고	-1422
▁보고	-1423
▁혁명	-1424
▁해양	-1425
▁콜	-1426
▁야구	-1427
▁차이	-1428
▁활약	-1429
스코	-1430
▁물질	-1431
▁노래	-1432
▁꽃	-1433
▁흐	-1434
▁레이	-1435
▁조례	-1436
at	-1437
▁액	-1438
▁정비	-1439
▁인물	-1440
▁제출	-1441
스크	-1442
▁향상	-1443
▁겪	-1444
▁FC	-1445
▁80	-1446
▁듯	-1447
▁따라서	-1448
▁원인	-1449
▁아동	-1450
▁겨	-1451
▁꿈	-1452
▁혜	-1453
▁검찰	-1454
▁인력	-1455
▁든	-1456
비아	-1457
▁자기	-1458
▁미술	-1459
▁언어	-1460
▁팬	-1461
▁의사	-1462
▁불법	-1463
▁근로	-1464
▁훈련	-1465
▁반면	-1466
▁웨	-1467
▁도서관	-1468
▁주도	-1469
▁주년	-1470
▁경상	-1471
▁글로	-1472
▁불리	-1473
▁2007	-1474
▁님	-1475
▁인식	-1476
▁만든	-1477
▁가리	-1478
역시	-1479
▁▷	-1480
▁시켜	-1481
▁가까	-1482
▁군수	-1483
▁통과	-1484
▁협의회	-1485
텐츠	-1486
▁〉	-1487
▁득	-1488
북도	-1489
▁이루어	-1490
▁찬	-1491
▁여름	-1492
▁〈	-1493
▁내부	-1494
▁촬	-1495
▁사전	-1496
▁당진시	-1497
▁문학	-1498
▁출시	-1499
▁임시	-1500
▁통신	-1501
▁전환	-1502
젝트	-1503
▁유일	-1504
▁브랜드	-1505
▁달러	-1506
▁왜	-1507
▁깊	-1508
▁위험	-1509
▁혈	-1510
▁촬영	-1511
▁그리스	-1512
▁이론	-1513
▁그것	-1514
▁32	-1515
▁복합	-1516
▁매년	-1517
▁근무	-1518
▁절차	-1519
▁알려져	-1520
▁플레이	-1521
▁싸	-1522
▁판단	-1523
▁사상	-1524
▁학부	-1525
▁상담	-1526
▁프로젝트	-1527
▁맥	-1528
란다	-1529
▁보내	-1530
▁확정	-1531
▁소개	-1532
▁계기	-1533
▁자격	-1534
인트	-1535
▁행동	-1536
▁제한	-1537
▁융	-1538
▁수원	-1539
▁l	-1540
▁국회의원	-1541
▁벨	-1542
▁위기	-1543
▁모집	-1544
▁시도	-1545
▁거주	-1546
▁소득	-1547
▁습니다	-1548
▁대로	-1549
▁열리	-1550
이드	-1551
▁였으나	-1552
▁솔	-1553
▁나이	-1554
▁친구	-1555
▁잇	-1556
▁남자	-1557
러스	-1558
▁대형	-1559
▁!	-1560
▁그래	-1561
▁핵심	-1562
▁비해	-1563
▁일으	-1564
▁채용	-1565
▁300	-1566
▁분류	-1567
▁∼	-1568
▁부대	-1569
▁국토	-1570
▁올라	-1571
▁어야	-1572
▁칸	-1573
▁주차	-1574
▁클럽	-1575
▁정당	-1576
▁2006	-1577
▁콘텐츠	-1578
▁겸	-1579
▁아직	-1580
▁음반	-1581
▁족	-1582
▁합의	-1583
▁먼저	-1584
▁글로벌	-1585
▁학습	-1586
▁하루	-1587
▁흔	-1588
▁최선	-1589
▁법인	-1590
▁조건	-1591
▁괴	-1592
▁창출	-1593
▁양성	-1594
▁33	-1595
▁기타	-1596
전자	-1597
▁나온	-1598
▁덕	-1599
▁포항	-1600
▁특징	-1601
른다	-1602
▁>	-1603
▁속도	-1604
▁KI	-1605
▁부여	-1606
▁주목	-1607
▁개혁	-1608
▁움	-1609
▁남부	-1610
▁맛	-1611
▁걸쳐	-1612
▁특성	-1613
▁바탕	-1614
▁36	-1615
▁법원	-1616
▁논란	-1617
▁혹	-1618
▁여부	-1619
▁아르	-1620
▁께	-1621
메달	-1622
▁전했	-1623
프리카	-1624
▁납	-1625
▁브라	-1626
BC	-1627
la	-1628
▁반응	-1629
▁특정	-1630
▁중소기업	-1631
▁의장	-1632
▁가입	-1633
▁동양일보	-1634
▁접수	-1635
▁목소리	-1636
▁내려	-1637
▁차원	-1638
▁연구원	-1639
▁보도	-1640
▁어느	-1641
페이지	-1642
▁홈페이지	-1643
▁입주	-1644
▁유통	-1645
▁택	-1646
▁대체	-1647
▁그동안	-1648
st	-1649
▁바란다	-1650
▁범죄	-1651
▁<	-1652
▁밴	-1653
▁연주	-1654
▁역량	-1655
▁대중	-1656
버스	-1657
▁그런	-1658
▁구매	-1659
▁총선	-1660
트남	-1661
▁넣	-1662
▁신규	-1663
▁비슷	-1664
▁옮	-1665
▁배치	-1666
▁000	-1667
▁옛	-1668
▁보통	-1669
▁여수	-1670
▁확산	-1671
▁주관	-1672
▁법률	-1673
▁확장	-1674
▁집행	-1675
▁일원	-1676
▁샤	-1677
▁배출	-1678
▁》(	-1679
▁기호	-1680
▁추정	-1681
▁태어났	-1682
▁맺	-1683
▁인한	-1684
▁최소	-1685
▁익	-1686
▁우주	-1687
▁어머니	-1688
▁전라	-1689
▁경남	-1690
▁펼쳐	-1691
▁온라인	-1692
▁소유	-1693
▁언론	-1694
▁가졌	-1695
▁생태	-1696
▁숨	-1697
▁45	-1698
ic	-1699
▁모양	-1700
▁보였	-1701
▁태양	-1702
▁롯	-1703
▁토지	-1704
▁보수	-1705
▁다면	-1706
▁규제	-1707
▁주인	-1708
▁땅	-1709
▁넓	-1710
▁앨범	-1711
산시	-1712
▁f	-1713
무리	-1714
▁전해	-1715
▁신문	-1716
▁부르	-1717
▁론	-1718
▁성적	-1719
▁편성	-1720
▁면적	-1721
▁스페인	-1722
▁’(	-1723
▁대사	-1724
▁%),	-1725
▁분양	-1726
▁천만	-1727
▁앞두	-1728
▁190	-1729
▁술	-1730
▁중단	-1731
▁마리	-1732
▁제주	-1733
▁동일	-1734
▁자금	-1735
▁헬	-1736
FA	-1737
▁소비자	-1738
성군	-1739
▁려는	-1740
▁중학교	-1741
▁시티	-1742
▁곧	-1743
▁정확	-1744
▁링	-1745
▁십	-1746
스탄	-1747
▁부상	-1748
▁장소	-1749
▁알려졌	-1750
▁스트	-1751
▁2005	-1752
▁지휘	-1753
▁선언	-1754
▁디지	-1755
▁부모	-1756
렇게	-1757
킨다	-1758
▁h	-1759
▁현실	-1760
요일	-1761
▁사업비	-1762
▁2021	-1763
▁작용	-1764
▁촉구	-1765
▁의한	-1766
▁거래	-1767
▁투표	-1768
▁베트남	-1769
▁인터넷	-1770
▁현상	-1771
▁임대	-1772
▁과장	-1773
▁분위	-1774
▁언급	-1775
▁균형	-1776
▁보장	-1777
▁곤	-1778
▁대기	-1779
BO	-1780
▁세력	-1781
▁관광객	-1782
▁연장	-1783
▁청주	-1784
▁카드	-1785
▁인상	-1786
스로	-1787
▁촌	-1788
▁소설	-1789
▁깨	-1790
▁농협	-1791
▁읍	-1792
▁맞춤	-1793
▁향후	-1794
▁이곳	-1795
▁접근	-1796
▁서구	-1797
▁예비	-1798
▁알리	-1799
▁과제	-1800
▁오스트	-1801
▁쪽	-1802
▁효율	-1803
▁하이	-1804
▁열차	-1805
▁디지털	-1806
▁민원	-1807
▁가수	-1808
▁의하	-1809
▁인증	-1810
▁텔	-1811
▁고속	-1812
▁비율	-1813
▁부정	-1814
▁청와	-1815
▁농촌	-1816
▁다르	-1817
▁첨	-1818
▁순위	-1819
▁청와대	-1820
▁롯데	-1821
▁강력	-1822
▁신설	-1823
▁체제	-1824
▁실패	-1825
▁공화국	-1826
▁챔	-1827
▁획득	-1828
▁선출	-1829
▁결승	-1830
▁전년	-1831
▁분위기	-1832
▁남성	-1833
▁둔	-1834
가지	-1835
▁종교	-1836
▁2004	-1837
▁보유	-1838
▁다만	-1839
▁세포	-1840
▁기사	-1841
▁명칭	-1842
▁위반	-1843
▁구단	-1844
▁취임	-1845
▁올랐	-1846
▁공정	-1847
▁사장	-1848
▁외국인	-1849
▁총장	-1850
▁34	-1851
환경	-1852
▁상호	-1853
▁경기장	-1854
it	-1855
▁원래	-1856
▁완료	-1857
▁어려움	-1858
▁봄	-1859
▁자세	-1860
▁동구	-1861
▁동아	-1862
▁개소	-1863
▁지진	-1864
▁보조	-1865
▁형식	-1866
▁승강	-1867
▁재산	-1868
▁못한	-1869
▁영어	-1870
▁밖에	-1871
▁등급	-1872
▁오른	-1873
▁나무	-1874
▁제정	-1875
▁몽	-1876
▁생명	-1877
▁무역	-1878
▁공동체	-1879
▁스스로	-1880
▁월드컵	-1881
▁장비	-1882
▁연대	-1883
▁북부	-1884
▁파악	-1885
▁박물	-1886
▁맨	-1887
▁네트	-1888
▁들어가	-1889
학생	-1890
▁숲	-1891
▁진단	-1892
▁그림	-1893
▁원장	-1894
▁연구소	-1895
▁마무리	-1896
re	-1897
▁누구	-1898
▁장치	-1899
스타	-1900
▁통일	-1901
▁금지	-1902
▁의식	-1903
▁멤	-1904
▁인데	-1905
▁천안	-1906
▁주거	-1907
아들	-1908
▁갈등	-1909
▁잉	-1910
프라	-1911
▁밴드	-1912
▁위하	-1913
▁38	-1914
▁90	-1915
▁편의	-1916
▁덧	-1917
▁나섰	-1918
▁메이	-1919
▁용역	-1920
▁종목	-1921
▁재생	-1922
am	-1923
▁국장	-1924
▁칠	-1925
▁p	-1926
▁컵	-1927
▁현지	-1928
▁영업	-1929
▁방지	-1930
▁만족	-1931
▁도쿄	-1932
▁39	-1933
▁해소	-1934
▁사단	-1935
▁수용	-1936
공사	-1937
▁국당	-1938
▁불구	-1939
▁잃	-1940
▁불편	-1941
▁믿	-1942
▁순천	-1943
▁개념	-1944
▁황제	-1945
▁박물관	-1946
르트	-1947
▁척	-1948
워크	-1949
▁기독	-1950
▁챔피	-1951
▁강원	-1952
▁뉴스	-1953
▁단위	-1954
▁려고	-1955
▁소프트	-1956
▁화재	-1957
▁남쪽	-1958
▁젊	-1959
▁어려운	-1960
▁전반	-1961
공화국	-1962
▁인민공화국	-1963
▁나타나	-1964
▁37	-1965
▁수입	-1966
▁문재	-1967
▁밝혀	-1968
▁안내	-1969
▁화학	-1970
▁관람	-1971
▁무엇	-1972
▁명령	-1973
▁민주주의	-1974
▁교체	-1975
▁전용	-1976
▁므로	-1977
▁전화	-1978
나무	-1979
▁멤버	-1980
담회	-1981
▁나선	-1982
▁무료	-1983
▁비행	-1984
▁「	-1985
▁흑	-1986
▁바람	-1987
▁혹은	-1988
▁회복	-1989
▁물리	-1990
▁소리	-1991
로스	-1992
▁휘	-1993
▁선생	-1994
▁런	-1995
▁요소	-1996
▁포인트	-1997
▁소련	-1998
▁연수	-1999
▁」	-2000
▁2002	-2001
▁지배	-2002
▁일제	-2003
▁즈	-2004
▁컴퓨	-2005
운동	-2006
▁집단	-2007
▁움직	-2008
▁호텔	-2009
▁작성	-2010
▁북쪽	-2011
▁아름	-2012
▁세상	-2013
▁특수	-2014
▁구체	-2015
▁끼	-2016
▁듣	-2017
▁상생	-2018
라도	-2019
▁실천	-2020
▁간담회	-2021
▁정권	-2022
▁표준	-2023
▁작곡	-2024
▁기계	-2025
토리	-2026
▁완성	-2027
▁바다	-2028
▁베이	-2029
▁군민	-2030
▁파크	-2031
▁후반	-2032
▁지식	-2033
▁중화	-2034
머지	-2035
▁수소	-2036
▁이때	-2037
▁임금	-2038
▁측정	-2039
▁나머지	-2040
▁대화	-2041
▁플랫	-2042
▁빅	-2043
▁역임	-2044
▁기원전	-2045
▁어렵	-2046
▁북구	-2047
▁외부	-2048
▁오염	-2049
▁군대	-2050
▁연방	-2051
▁뇌	-2052
▁충분	-2053
▁실현	-2054
▁주의	-2055
▁기구	-2056
▁소장	-2057
▁아카	-2058
▁오르	-2059
▁이제	-2060
▁지상	-2061
▁덧붙	-2062
▁김영	-2063
▁총리	-2064
▁이달	-2065
▁협상	-2066
▁정착	-2067
▁폼	-2068
학자	-2069
▁원자	-2070
▁해석	-2071
▁앤	-2072
▁벗	-2073
▁영역	-2074
▁공산	-2075
▁기호일보	-2076
▁보급	-2077
▁칭	-2078
아가	-2079
▁냉	-2080
▁나왔	-2081
▁차별	-2082
▁서부	-2083
▁55	-2084
▁남북	-2085
▁인권	-2086
▁s	-2087
▁널	-2088
▁기독교	-2089
▁학부모	-2090
▁이어지	-2091
▁단순	-2092
▁보상	-2093
▁머리	-2094
▁정기	-2095
▁유도	-2096
▁매출	-2097
▁의혹	-2098
▁외교	-2099
▁분리	-2100
▁낸	-2101
▁벽	-2102
▁너무	-2103
▁네트워크	-2104
▁유사	-2105
▁애니	-2106
▁65	-2107
▁헌법	-2108
le	-2109
▁문화재	-2110
▁실험	-2111
▁다수	-2112
▁승인	-2113
▁학과	-2114
▁자녀	-2115
▁만드	-2116
▁경쟁력	-2117
▁2022	-2118
▁연맹	-2119
▁지명	-2120
▁스위	-2121
▁gt	-2122
▁육군	-2123
▁컴퓨터	-2124
▁폐기	-2125
▁KBS	-2126
▁근거	-2127
▁그대로	-2128
▁갔	-2129
▁친환경	-2130
▁멀	-2131
▁쌍	-2132
▁고대	-2133
▁캐릭	-2134
HO	-2135
▁윌	-2136
▁변호	-2137
▁일어나	-2138
▁시내	-2139
▁종류	-2140
▁웃	-2141
나다	-2142
▁가져	-2143
▁나서	-2144
▁요리	-2145
▁겨울	-2146
▁나갈	-2147
▁울산	-2148
▁크기	-2149
▁냐	-2150
▁왼	-2151
▁수업	-2152
▁목포	-2153
▁캐릭터	-2154
▁2003	-2155
▁가스	-2156
▁라면	-2157
라스	-2158
▁투어	-2159
간다	-2160
▁보존	-2161
▁추천	-2162
▁실제로	-2163
▁42	-2164
▁정리	-2165
▁명예	-2166
▁받아들	-2167
▁lt	-2168
▁제대로	-2169
▁허가	-2170
▁빨	-2171
▁불과	-2172
▁청사	-2173
▁구속	-2174
▁사라	-2175
스티	-2176
▁전하	-2177
▁해도	-2178
▁이외	-2179
▁후원	-2180
▁박사	-2181
▁나누	-2182
▁거부	-2183
▁미디어	-2184
▁정규	-2185
▁大	-2186
없이	-2187
▁분기	-2188
▁현안	-2189
▁동의	-2190
▁전력	-2191
▁부서	-2192
▁189	-2193
▁폐지	-2194
▁승강장	-2195
▁뉴욕	-2196
▁약속	-2197
▁오래	-2198
▁둘러	-2199
▁1990	-2200
▁국비	-2201
▁치매	-2202
▁_	-2203
러운	-2204
▁어떻	-2205
▁쌓	-2206
▁아야	-2207
▁이미지	-2208
니스	-2209
▁피해자	-2210
▁',	-2211
▁득점	-2212
▁개국	-2213
▁로운	-2214
▁꼽	-2215
▁신경	-2216
▁기부	-2217
▁+	-2218
▁직업	-2219
▁아프리카	-2220
▁흡	-2221
▁번호	-2222
▁문자	-2223
▁동쪽	-2224
▁공기	-2225
▁서쪽	-2226
▁자주	-2227
▁개편	-2228
▁비상	-2229
▁통계	-2230
▁심각	-2231
▁열렸	-2232
은행	-2233
▁그린	-2234
▁인프라	-2235
▁48	-2236
▁매일	-2237
▁결합	-2238
ou	-2239
▁광고	-2240
▁FI	-2241
▁표시	-2242
▁재배	-2243
▁유형	-2244
▁처분	-2245
▁52	-2246
▁근로자	-2247
천군	-2248
▁감염	-2249
▁혜택	-2250
▁동부	-2251
▁스테	-2252
▁상징	-2253
▁심의	-2254
메이션	-2255
▁강의	-2256
▁마케	-2257
▁거두	-2258
▁시범	-2259
▁작전	-2260
ww	-2261
▁권리	-2262
▁라인	-2263
is	-2264
▁정원	-2265
▁셀	-2266
IL	-2267
mu	-2268
▁1980	-2269
▁값	-2270
다리	-2271
광역시	-2272
▁구청	-2273
벤트	-2274
▁구분	-2275
▁속하	-2276
루스	-2277
▁조기	-2278
▁뜨	-2279
▁노조	-2280
▁원내	-2281
▁인공	-2282
카이	-2283
▁김정	-2284
▁출판	-2285
▁브리	-2286
▁돕	-2287
▁당하	-2288
▁발달	-2289
▁여건	-2290
▁초청	-2291
▁교황	-2292
어들	-2293
▁냈	-2294
▁여전히	-2295
▁41	-2296
▁캐나다	-2297
▁75	-2298
▁기억	-2299
▁사이트	-2300
▁대출	-2301
▁컬	-2302
▁400	-2303
om	-2304
▁for	-2305
▁이벤트	-2306
▁공단	-2307
▁경계	-2308
▁복귀	-2309
▁롭	-2310
▁광역	-2311
▁개막	-2312
▁알려진	-2313
▁발전소	-2314
▁떠나	-2315
▁수학	-2316
▁이적	-2317
▁감정	-2318
▁선고	-2319
▁웹	-2320
▁읽	-2321
▁부동	-2322
▁고령	-2323
웨어	-2324
▁단속	-2325
▁주연	-2326
▁개통	-2327
he	-2328
▁출발	-2329
▁생물	-2330
▁전공	-2331
▁마치	-2332
▁쉬	-2333
▁텔레	-2334
▁전부	-2335
서트	-2336
▁43	-2337
▁소송	-2338
▁갖춘	-2339
▁케이	-2340
▁심리	-2341
▁하락	-2342
▁맹	-2343
▁별도	-2344
▁덴	-2345
▁광산	-2346
▁중간	-2347
▁출범	-2348
▁엑	-2349
▁올리	-2350
▁바라	-2351
▁짓	-2352
▁지점	-2353
▁공직	-2354
▁끊	-2355
▁부인	-2356
▁슈퍼	-2357
▁세워	-2358
▁발언	-2359
▁얼마	-2360
▁노동자	-2361
▁량	-2362
▁도민	-2363
▁응답	-2364
▁왕국	-2365
▁지도자	-2366
▁초대	-2367
▁공감	-2368
▁광장	-2369
▁낭	-2370
▁핀	-2371
▁수익	-2372
▁경력	-2373
▁안타	-2374
▁주최	-2375
▁박람	-2376
▁허용	-2377
▁몬	-2378
▁공부	-2379
▁이렇게	-2380
▁당부	-2381
▁델	-2382
▁부품	-2383
반도	-2384
▁오픈	-2385
▁됨	-2386
▁44	-2387
▁널리	-2388
▁김종	-2389
▁신속	-2390
▁쌀	-2391
▁계층	-2392
▁여야	-2393
▁당선	-2394
▁취약	-2395
▁모아	-2396
▁질환	-2397
▁호남	-2398
▁아름다	-2399
▁2001	-2400
▁관측	-2401
▁가량	-2402
▁새롭	-2403
▁도전	-2404
▁콘서트	-2405
▁SK	-2406
▁에선	-2407
▁공주	-2408
▁금액	-2409
▁애니메이션	-2410
▁융합	-2411
드리	-2412
▁부부	-2413
▁관할	-2414
▁아내	-2415
▁아트	-2416
▁챔피언	-2417
▁무기	-2418
▁굴	-2419
▁국방	-2420
▁불가	-2421
▁투수	-2422
ion	-2423
▁신뢰	-2424
▁운전	-2425
▁쓴	-2426
▁돼지	-2427
▁전개	-2428
HOIL	-2429
HOILBO	-2430
▁KIHOILBO	-2431
▁식물	-2432
▁아서	-2433
▁꾸준	-2434
▁트리	-2435
▁아무	-2436
▁범위	-2437
▁배경	-2438
▁역대	-2439
el	-2440
▁강제	-2441
▁객	-2442
▁본인	-2443
▁이익	-2444
▁아울	-2445
▁kg	-2446
드시	-2447
▁정식	-2448
▁종료	-2449
▁유치원	-2450
▁산단	-2451
▁회담	-2452
▁제거	-2453
▁도착	-2454
▁완전히	-2455
단지	-2456
▁실질	-2457
▁덧붙였	-2458
▁재난	-2459
▁입학	-2460
▁출마	-2461
▁반드시	-2462
▁일상	-2463
▁예선	-2464
▁벌어	-2465
▁주인공	-2466
▁준다	-2467
▁뮤지	-2468
▁사과	-2469
▁폭력	-2470
▁욕	-2471
▁마찬	-2472
▁47	-2473
▁라도	-2474
▁선도	-2475
▁짧	-2476
▁파리	-2477
▁동맹	-2478
▁뒷	-2479
▁놀이	-2480
▁마찬가지	-2481
es	-2482
▁갖추	-2483
▁장군	-2484
▁져	-2485
▁고민	-2486
▁매장	-2487
▁축산	-2488
▁문재인	-2489
▁앙	-2490
▁다리	-2491
▁파견	-2492
▁강한	-2493
▁유리	-2494
▁부동산	-2495
▁포르	-2496
▁발행	-2497
▁어떻게	-2498
▁구미	-2499
▁지대	-2500
▁에스	-2501
▁설정	-2502
▁들여	-2503
▁부장	-2504
▁여론	-2505
▁파이	-2506
▁지키	-2507
▁지냈	-2508
ol	-2509
▁죄	-2510
▁오늘날	-2511
▁상업	-2512
▁라운드	-2513
▁바뀌	-2514
▁힐	-2515
▁일대	-2516
▁윈	-2517
▁맞춰	-2518
▁멸	-2519
▁코스	-2520
▁반발	-2521
et	-2522
▁유니	-2523
▁농산물	-2524
mula	-2525
▁기울	-2526
조합	-2527
▁건의	-2528
▁계열	-2529
▁수술	-2530
▁채널	-2531
▁MBC	-2532
▁사령	-2533
▁로써	-2534
▁150	-2535
▁활발	-2536
NS	-2537
▁할인	-2538
▁formula	-2539
사고	-2540
▁46	-2541
▁양식	-2542
▁연간	-2543
▁LG	-2544
▁1000	-2545
▁공립	-2546
시마	-2547
▁엔진	-2548
▁아마	-2549
▁개방	-2550
▁당했	-2551
▁연출	-2552
▁으면서	-2553
▁기후	-2554
▁더라도	-2555
▁미사	-2556
▁래	-2557
▁처벌	-2558
▁박람회	-2559
▁나눔	-2560
▁문서	-2561
▁최우	-2562
▁본선	-2563
▁도심	-2564
리트	-2565
▁최저	-2566
▁화장	-2567
▁연극	-2568
▁빠르	-2569
▁열린다	-2570
▁뿌	-2571
▁49	-2572
▁교실	-2573
▁자율	-2574
▁대하	-2575
▁가르	-2576
▁꼬	-2577
▁옆	-2578
미널	-2579
▁소식	-2580
▁가로	-2581
▁바르	-2582
▁시정	-2583
▁1999	-2584
거운	-2585
사자	-2586
▁폴란드	-2587
▁시위	-2588
▁서식	-2589
▁선수단	-2590
▁독립운동	-2591
▁밑	-2592
▁스위스	-2593
▁성격	-2594
▁회견	-2595
▁록	-2596
▁넘어	-2597
▁1998	-2598
▁해군	-2599
▁'(	-2600
▁페르	-2601
▁X	-2602
▁취소	-2603
▁특화	-2604
▁마케팅	-2605
▁합격	-2606
▁남편	-2607
▁영동	-2608
▁국무	-2609
▁판결	-2610
▁질문	-2611
▁거점	-2612
▁입단	-2613
▁인정받	-2614
▁터미널	-2615
▁진입	-2616
▁준공	-2617
▁51	-2618
▁미치	-2619
▁반도	-2620
▁파괴	-2621
▁찍	-2622
▁크리스	-2623
▁조약	-2624
▁방영	-2625
▁수석	-2626
▁스럽	-2627
▁체육관	-2628
▁조각	-2629
▁빼	-2630
▁마르	-2631
▁현황	-2632
▁수성	-2633
▁남구	-2634
▁측면	-2635
▁실행	-2636
▁펜	-2637
▁청장	-2638
▁업계	-2639
▁사태	-2640
▁시상	-2641
▁지켜	-2642
▁캠페인	-2643
ac	-2644
▁토론회	-2645
▁개설	-2646
▁흘	-2647
▁싱글	-2648
▁철학	-2649
▁수비	-2650
▁묻	-2651
▁농민	-2652
▁테마	-2653
▁요금	-2654
▁섭	-2655
▁극장	-2656
▁김진	-2657
▁포럼	-2658
ing	-2659
▁조지	-2660
▁그렇	-2661
▁불교	-2662
▁시각	-2663
▁변호사	-2664
고기	-2665
▁53	-2666
▁Y	-2667
▁비전	-2668
▁평생	-2669
퍼스	-2670
▁개봉	-2671
▁점령	-2672
▁직후	-2673
▁64	-2674
▁유기	-2675
▁가까운	-2676
▁산림	-2677
▁바꾸	-2678
▁시인	-2679
데미	-2680
▁54	-2681
▁텍	-2682
▁의무	-2683
▁수많	-2684
▁권력	-2685
▁직장	-2686
▁늦	-2687
▁폐기물	-2688
▁바른	-2689
▁통상	-2690
▁공인	-2691
▁네덜	-2692
▁네덜란드	-2693
▁비디오	-2694
▁여객	-2695
▁펼치	-2696
▁탁	-2697
▁cm	-2698
▁학자	-2699
▁자본	-2700
시지	-2701
▁주차장	-2702
▁필리	-2703
▁원칙	-2704
▁188	-2705
▁오리	-2706
▁목록	-2707
▁캠프	-2708
문화	-2709
▁상반기	-2710
▁이웃	-2711
▁시점	-2712
메리카	-2713
▁조금	-2714
▁피아	-2715
▁모르	-2716
▁아카데미	-2717
▁불러	-2718
▁금메달	-2719
▁여겨	-2720
대표	-2721
▁이주	-2722
▁명회	-2723
▁부처	-2724
▁위협	-2725
▁한반도	-2726
▁멘	-2727
▁경로	-2728
▁완전	-2729
▁수정	-2730
▁인가	-2731
▁긍	-2732
▁잘못	-2733
▁다며	-2734
▁아울러	-2735
ro	-2736
▁장면	-2737
▁증진	-2738
▁잉글	-2739
난다	-2740
▁버전	-2741
▁로스	-2742
▁대상자	-2743
▁선물	-2744
▁통치	-2745
▁얼굴	-2746
▁신호	-2747
▁용어	-2748
▁테크	-2749
▁학술	-2750
▁통제	-2751
▁렌	-2752
비전	-2753
▁도와	-2754
▁동생	-2755
▁노후	-2756
▁수여	-2757
▁왼쪽	-2758
▁인원	-2759
▁좀	-2760
▁틀	-2761
▁붕	-2762
▁춘	-2763
▁순환	-2764
▁취득	-2765
▁트랙	-2766
CT	-2767
회사	-2768
톨릭	-2769
▁증상	-2770
▁패배	-2771
▁음성	-2772
▁로봇	-2773
▁가공	-2774
▁SNS	-2775
▁나온다	-2776
▁첨단	-2777
▁베르	-2778
리오	-2779
▁장학	-2780
▁철저	-2781
▁협조	-2782
▁수록	-2783
▁방어	-2784
▁승격	-2785
▁인재	-2786
▁코치	-2787
▁다니	-2788
▁이승	-2789
▁인하	-2790
▁그려	-2791
▁상공	-2792
▁이듬	-2793
▁줄이	-2794
▁신라	-2795
도로	-2796
▁총회	-2797
▁거듭	-2798
▁채택	-2799
▁84	-2800
▁확실	-2801
▁일어난	-2802
▁법안	-2803
▁아시	-2804
▁학원	-2805
▁발사	-2806
▁벤처	-2807
▁궤	-2808
▁충돌	-2809
▁56	-2810
▁캠퍼스	-2811
▁옹	-2812
▁충주	-2813
▁어르	-2814
▁품질	-2815
▁형사	-2816
▁사업자	-2817
▁삭	-2818
il	-2819
▁영토	-2820
▁학위	-2821
▁오히	-2822
▁모임	-2823
▁이듬해	-2824
화점	-2825
▁대변	-2826
▁은퇴	-2827
▁정지	-2828
▁전라남도	-2829
▁가톨릭	-2830
▁산업단지	-2831
▁기아	-2832
▁이행	-2833
▁전형	-2834
▁시킬	-2835
us	-2836
▁FIFA	-2837
▁하반기	-2838
▁1997	-2839
▁합류	-2840
▁홈런	-2841
▁구입	-2842
▁대장	-2843
▁고양	-2844
▁잉글랜드	-2845
▁스튜	-2846
▁즐길	-2847
▁원정	-2848
▁e	-2849
▁출생	-2850
▁리더	-2851
▁보관	-2852
▁됐으며	-2853
▁런던	-2854
▁합동	-2855
▁고향	-2856
▁죽음	-2857
티브	-2858
▁주간	-2859
▁경찰서	-2860
▁요인	-2861
▁낳	-2862
▁기상	-2863
▁츠	-2864
▁톤	-2865
▁회관	-2866
▁인터뷰	-2867
▁59	-2868
▁올렸	-2869
▁실무	-2870
▁어르신	-2871
▁찾아가	-2872
▁복원	-2873
▁진흥	-2874
▁이종	-2875
▁라디오	-2876
▁성인	-2877
▁택시	-2878
▁1970	-2879
▁긍정	-2880
▁드론	-2881
▁주어	-2882
▁확충	-2883
▁명단	-2884
▁폭발	-2885
▁프리미	-2886
▁하우스	-2887
▁세부	-2888
▁만화	-2889
▁실적	-2890
▁")	-2891
▁꼭	-2892
▁경주	-2893
▁주식	-2894
▁58	-2895
▁코리아	-2896
▁5000	-2897
▁직무	-2898
▁전면	-2899
수록	-2900
▁고교	-2901
▁공학	-2902
▁요시	-2903
▁전혀	-2904
▁해안	-2905
NA	-2906
직원	-2907
▁보냈	-2908
▁이스	-2909
▁식민	-2910
▁오히려	-2911
▁유래	-2912
▁기지	-2913
▁이재	-2914
▁경상북도	-2915
▁기소	-2916
▁중구	-2917
▁대학원	-2918
웨이	-2919
▁증명	-2920
▁카페	-2921
▁결성	-2922
▁이래	-2923
▁프레	-2924
▁김대	-2925
▁1996	-2926
▁키로	-2927
▁관찰	-2928
▁57	-2929
▁클래	-2930
▁1995	-2931
▁근처	-2932
▁오랜	-2933
▁형제	-2934
▁집회	-2935
코드	-2936
▁동료	-2937
▁진다	-2938
▁당초	-2939
▁표기	-2940
▁66	-2941
▁뮤직	-2942
▁청구	-2943
▁강사	-2944
▁기기	-2945
▁출입	-2946
▁단장	-2947
▁세웠	-2948
▁아름다운	-2949
▁점수	-2950
시장	-2951
▁지하철	-2952
▁분포	-2953
▁정체	-2954
▁진정	-2955
▁국정	-2956
▁돌봄	-2957
▁사법	-2958
▁증거	-2959
▁태풍	-2960
▁보증	-2961
▁짐	-2962
▁대안	-2963
▁멜	-2964
▁쾌	-2965
▁186	-2966
▁d	-2967
▁62	-2968
▁지위	-2969
▁보고서	-2970
▁블랙	-2971
▁나타내	-2972
▁b	-2973
▁주기	-2974
▁긴급	-2975
▁계승	-2976
▁61	-2977
▁발매되	-2978
▁옮겨	-2979
▁상인	-2980
▁누리	-2981
▁미군	-2982
▁묘사	-2983
▁전당	-2984
▁화합	-2985
니어	-2986
▁도청	-2987
▁자랑	-2988
30	-2989
▁85	-2990
▁스타일	-2991
▁김성	-2992
▁의학	-2993
▁촉진	-2994
▁1994	-2995
▁187	-2996
▁집계	-2997
▁체포	-2998
▁화성	-2999
▁개정안	-3000
▁교육부	-3001
야마	-3002
▁비밀	-3003
▁하계	-3004
▁눈길	-3005
▁실장	-3006
▁뽑	-3007
▁점차	-3008
▁타당	-3009
▁1960	-3010
▁원내대표	-3011
베이	-3012
▁린	-3013
▁당국	-3014
▁탄생	-3015
▁생존	-3016
▁꾸준히	-3017
▁떨어진	-3018
▁절반	-3019
▁설비	-3020
▁부진	-3021
▁이뤄지	-3022
▁콩	-3023
▁빠른	-3024
▁달하	-3025
▁시킨	-3026
▁의지	-3027
▁세트	-3028
▁중부	-3029
워드	-3030
▁항상	-3031
일랜드	-3032
▁金	-3033
▁느끼	-3034
▁화물	-3035
▁모여	-3036
▁차단	-3037
▁소프트웨어	-3038
레일	-3039
▁짜	-3040
▁징역	-3041
▁브라질	-3042
▁모바	-3043
▁바이러스	-3044
▁어린이집	-3045
▁600	-3046
▁강원도	-3047
▁산하	-3048
▁한전	-3049
▁종시	-3050
▁검증	-3051
▁비중	-3052
▁아침	-3053
▁진화	-3054
▁김재	-3055
▁모색	-3056
▁뮤지컬	-3057
▁랑	-3058
▁나와	-3059
▁지시	-3060
▁맞이	-3061
▁광역시	-3062
▁회의실	-3063
▁안동	-3064
▁엔터	-3065
▁문의	-3066
▁왕조	-3067
▁김해	-3068
▁생성	-3069
시코	-3070
▁호소	-3071
▁계산	-3072
발전	-3073
▁반복	-3074
▁미만	-3075
▁백화점	-3076
▁펠	-3077
▁마이크	-3078
▁불안	-3079
▁유아	-3080
▁재직	-3081
▁보안	-3082
▁동남	-3083
▁빚	-3084
▁곽	-3085
▁카메	-3086
▁모바일	-3087
▁포기	-3088
▁예고	-3089
▁스러운	-3090
천시	-3091
▁자문	-3092
▁걷	-3093
▁주문	-3094
▁살펴	-3095
▁연료	-3096
▁선사	-3097
▁재료	-3098
▁통하	-3099
▁매주	-3100
▁단어	-3101
▁이른	-3102
레기	-3103
▁하늘	-3104
▁커뮤	-3105
▁KT	-3106
▁%(	-3107
▁동원	-3108
▁순간	-3109
▁실내	-3110
▁창원	-3111
▁72	-3112
▁신체	-3113
▁악화	-3114
▁털	-3115
▁커뮤니	-3116
▁공작	-3117
트로	-3118
회의	-3119
▁비난	-3120
▁인생	-3121
트리	-3122
▁진로	-3123
▁1992	-3124
▁』	-3125
▁극복	-3126
▁교육감	-3127
▁갤	-3128
▁노르	-3129
▁연령	-3130
▁몽골	-3131
▁학회	-3132
▁줬	-3133
▁횡	-3134
▁수단	-3135
▁교통부	-3136
as	-3137
스티벌	-3138
▁페스티벌	-3139
▁투쟁	-3140
▁화제	-3141
▁상임	-3142
▁세우	-3143
▁영양	-3144
▁mm	-3145
▁곳곳	-3146
▁전역	-3147
▁가리킨다	-3148
▁멕	-3149
▁온도	-3150
▁주력	-3151
레이드	-3152
낸다	-3153
▁킹	-3154
▁밝히	-3155
▁가동	-3156
▁논문	-3157
▁취지	-3158
▁경찰청	-3159
▁사립	-3160
▁들어갔	-3161
▁쓰레기	-3162
▁완화	-3163
▁공고	-3164
▁질병	-3165
▁95	-3166
▁『	-3167
▁진료	-3168
▁해체	-3169
디아	-3170
▁내리	-3171
▁태평	-3172
▁단독	-3173
▁성능	-3174
▁서명	-3175
▁쓰이	-3176
▁으므로	-3177
▁오스트리아	-3178
▁주말	-3179
▁감시	-3180
▁오사	-3181
나이	-3182
▁희생	-3183
▁벼	-3184
▁알렉	-3185
▁근대	-3186
▁운용	-3187
▁저감	-3188
▁캘	-3189
▁스웨	-3190
▁중심지	-3191
스턴	-3192
▁규칙	-3193
가리	-3194
▁골프	-3195
▁가을	-3196
▁1991	-3197
▁창작	-3198
▁힘들	-3199
▁출산	-3200
▁토대	-3201
▁매입	-3202
▁시립	-3203
▁위탁	-3204
▁다루	-3205
▁입지	-3206
▁바이오	-3207
▁후기	-3208
▁그래서	-3209
▁보령	-3210
▁지부	-3211
▁메시지	-3212
▁폰	-3213
▁야마	-3214
▁풍부	-3215
▁지수	-3216
▁한계	-3217
▁듀	-3218
▁단일	-3219
▁스코	-3220
▁수렴	-3221
▁74	-3222
▁일종	-3223
▁건조	-3224
▁번역	-3225
▁공약	-3226
▁반란	-3227
▁유대	-3228
▁소년	-3229
▁자는	-3230
▁나중	-3231
▁텔레비전	-3232
▁인수	-3233
▁대대	-3234
▁일환	-3235
▁진상	-3236
ch	-3237
▁나아가	-3238
▁응원	-3239
▁균형발전	-3240
피스	-3241
▁아우	-3242
▁권한	-3243
▁괴산	-3244
▁관객	-3245
▁중점	-3246
철도	-3247
▁튀	-3248
▁저장	-3249
▁조명	-3250
▁거대	-3251
▁착공	-3252
▁67	-3253
▁돼야	-3254
▁소화	-3255
▁수산	-3256
▁영광	-3257
▁사유	-3258
▁쥐	-3259
▁재학	-3260
▁아이디어	-3261
▁행성	-3262
▁동기	-3263
▁전북	-3264
▁폐쇄	-3265
▁청원	-3266
▁타운	-3267
▁결의	-3268
▁신용	-3269
▁법정	-3270
▁예측	-3271
로나	-3272
▁레코드	-3273
▁길이	-3274
▁선박	-3275
특별	-3276
▁푸드	-3277
▁참가자	-3278
▁1993	-3279
▁는가	-3280
▁스웨덴	-3281
▁남동	-3282
▁쇼핑	-3283
▁제목	-3284
▁초반	-3285
▁종이	-3286
▁사후	-3287
▁머물	-3288
▁미사일	-3289
▁호수	-3290
▁본사	-3291
▁소수	-3292
▁유발	-3293
▁스튜디오	-3294
▁800	-3295
▁평소	-3296
▁뛰어난	-3297
▁필리핀	-3298
▁관내	-3299
▁인천시	-3300
▁앱	-3301
▁강점	-3302
▁내놓	-3303
▁옥천	-3304
▁결승전	-3305
▁모니	-3306
▁민선	-3307
▁코드	-3308
▁대구경	-3309
▁대리	-3310
▁마당	-3311
▁붕괴	-3312
▁매력	-3313
▁서류	-3314
▁환경부	-3315
▁해상	-3316
▁멕시코	-3317
▁68	-3318
▁나눠	-3319
▁99	-3320
▁가문	-3321
▁전원	-3322
▁컨설	-3323
▁공헌	-3324
▁파일	-3325
▁헝	-3326
▁탓	-3327
▁급식	-3328
▁시청자	-3329
▁충청남도	-3330
▁공군	-3331
▁창조	-3332
▁보완	-3333
▁내렸	-3334
▁미니	-3335
▁히로	-3336
▁규명	-3337
▁김동	-3338
▁철거	-3339
▁저지	-3340
▁조차	-3341
▁창립	-3342
부르크	-3343
▁밸	-3344
▁77	-3345
▁된다는	-3346
▁구현	-3347
▁동반	-3348
▁63	-3349
▁임원	-3350
▁1988	-3351
▁개별	-3352
▁스토리	-3353
▁벌이	-3354
▁달라	-3355
▁연습	-3356
▁롤	-3357
▁아주	-3358
▁안심	-3359
▁출장	-3360
▁수집	-3361
▁언제	-3362
▁마스터	-3363
▁AI	-3364
▁저항	-3365
지사	-3366
▁마사	-3367
▁수리	-3368
▁비서	-3369
▁이어졌	-3370
▁분쟁	-3371
▁투명	-3372
▁입니다	-3373
▁아일랜드	-3374
▁나선다	-3375
▁댄	-3376
▁옷	-3377
▁앞장	-3378
▁블루	-3379
▁타이틀	-3380
▁어디	-3381
▁호응	-3382
▁정해	-3383
▁홍콩	-3384
▁치러	-3385
▁절대	-3386
▁1989	-3387
▁슬로	-3388
▁지내	-3389
터리	-3390
총리	-3391
▁"(	-3392
▁대구경북	-3393
리어	-3394
▁축하	-3395
▁대륙	-3396
▁후쿠	-3397
▁귀족	-3398
▁느냐	-3399
▁필수	-3400
▁편집	-3401
단체	-3402
▁대학생	-3403
▁품목	-3404
▁한다면	-3405
▁자전	-3406
▁썼	-3407
▁늘어나	-3408
▁내각	-3409
▁식민지	-3410
▁李	-3411
▁쏟	-3412
▁나주	-3413
▁상하	-3414
▁장식	-3415
▁써	-3416
▁71	-3417
▁남녀	-3418
▁샌	-3419
▁건너	-3420
▁부스	-3421
▁선거구	-3422
▁뿌리	-3423
▁파트	-3424
▁합니다	-3425
▁120	-3426
▁미술관	-3427
▁독자	-3428
▁지역민	-3429
▁공업	-3430
▁판사	-3431
▁빙	-3432
▁완공	-3433
▁충전	-3434
▁카이	-3435
▁향해	-3436
▁음주	-3437
▁팀장	-3438
▁사우	-3439
▁표면	-3440
▁교통사고	-3441
▁임기	-3442
▁뷰	-3443
▁다소	-3444
▁적절	-3445
▁강연	-3446
▁법무	-3447
▁비례	-3448
▁북미	-3449
▁자살	-3450
▁합리	-3451
▁쇠	-3452
▁몇몇	-3453
▁유로	-3454
▁이닝	-3455
▁국경	-3456
▁워크	-3457
▁차트	-3458
모토	-3459
▁의심	-3460
▁생기	-3461
▁커피	-3462
▁선호	-3463
교육	-3464
▁합병	-3465
▁육상	-3466
▁88	-3467
▁가득	-3468
▁고정	-3469
▁이란	-3470
▁즐기	-3471
▁벗어나	-3472
▁흥원	-3473
▁훨	-3474
▁자산	-3475
▁》()	-3476
▁돌아가	-3477
▁포르투	-3478
▁구성원	-3479
▁中	-3480
마크	-3481
▁선임	-3482
▁함수	-3483
▁걱	-3484
▁kr	-3485
▁오스	-3486
▁태안	-3487
▁밥	-3488
▁그런데	-3489
▁협업	-3490
티아	-3491
▁유공	-3492
▁상위	-3493
▁살인	-3494
▁유입	-3495
▁로드	-3496
▁180	-3497
▁따뜻	-3498
▁아산	-3499
▁윌리	-3500
▁주행	-3501
▁사무소	-3502
▁전시회	-3503
모리	-3504
▁걱정	-3505
러리	-3506
▁버리	-3507
▁훨씬	-3508
▁작년	-3509
▁유엔	-3510
▁저녁	-3511
▁재미	-3512
▁SBS	-3513
▁도중	-3514
▁농어	-3515
▁살아	-3516
▁실력	-3517
▁강하	-3518
▁무상	-3519
▁평등	-3520
▁력	-3521
▁핑	-3522
▁평택	-3523
▁훼	-3524
▁컨설팅	-3525
▁이사장	-3526
▁유관	-3527
▁주체	-3528
▁해제	-3529
▁국내외	-3530
▁이슬	-3531
▁면접	-3532
▁붉	-3533
▁번지	-3534
다는	-3535
▁구상	-3536
▁보전	-3537
▁엑스	-3538
▁본래	-3539
▁피부	-3540
▁셰	-3541
▁700	-3542
네시아	-3543
▁끈	-3544
▁대항	-3545
양군	-3546
▁69	-3547
▁개장	-3548
▁교차	-3549
▁령	-3550
▁응급	-3551
▁전파	-3552
▁방해	-3553
유산	-3554
▁1950	-3555
▁대폭	-3556
▁에이	-3557
▁지리	-3558
▁잇따	-3559
▁모니터	-3560
▁터널	-3561
▁클라	-3562
▁유적	-3563
▁이내	-3564
▁이끄	-3565
▁학문	-3566
▁조합원	-3567
▁스키	-3568
▁김상	-3569
▁잠시	-3570
▁에어	-3571
▁대변인	-3572
id	-3573
▁찰	-3574
▁소녀	-3575
▁금속	-3576
▁복잡	-3577
▁잎	-3578
▁고전	-3579
▁승진	-3580
▁실태	-3581
▁약간	-3582
임스	-3583
▁교환	-3584
▁고도	-3585
▁흐름	-3586
▁했었	-3587
▁76	-3588
▁사정	-3589
▁셔	-3590
▁분명	-3591
▁비즈	-3592
▁랜드	-3593
▁충격	-3594
▁고문	-3595
▁좁	-3596
▁천황	-3597
▁떨어져	-3598
▁무리	-3599
▁태국	-3600
▁오른쪽	-3601
▁원전	-3602
주교	-3603
▁카메라	-3604
▁덜	-3605
▁부탁	-3606
▁경상남도	-3607
튜브	-3608
▁73	-3609
▁다섯	-3610
▁전선	-3611
▁오프	-3612
▁편입	-3613
▁반도체	-3614
▁보조금	-3615
▁부근	-3616
▁입법	-3617
▁중대	-3618
▁크로	-3619
▁활력	-3620
▁빠져	-3621
▁항목	-3622
▁실업	-3623
▁조작	-3624
▁귀국	-3625
▁방사	-3626
▁노출	-3627
▁부과	-3628
▁장점	-3629
▁보건소	-3630
▁세이	-3631
▁패션	-3632
▁녹음	-3633
▁이수	-3634
▁클러	-3635
▁지표	-3636
▁사실상	-3637
▁국악	-3638
▁체육회	-3639
▁답변	-3640
▁둥	-3641
▁연관	-3642
▁캄	-3643
▁인문	-3644
페라	-3645
▁군인	-3646
▁궤도	-3647
▁대립	-3648
▁만약	-3649
▁연합회	-3650
▁》,	-3651
▁블록	-3652
▁n	-3653
▁우크	-3654
▁동아리	-3655
▁시킨다	-3656
▁고통	-3657
▁모으	-3658
▁헝가리	-3659
▁관광지	-3660
▁선보이	-3661
▁국왕	-3662
▁경향	-3663
▁예수	-3664
▁해수	-3665
ra	-3666
▁스케	-3667
▁이중	-3668
▁덮	-3669
▁병력	-3670
백질	-3671
▁1945	-3672
▁알아	-3673
▁제고	-3674
▁UE	-3675
▁동해	-3676
▁보육	-3677
▁종종	-3678
▁캘리	-3679
▁다운	-3680
▁천문	-3681
▁에게서	-3682
▁°	-3683
▁먹거리	-3684
▁식당	-3685
▁완벽	-3686
▁지역구	-3687
피아	-3688
▁정치인	-3689
▁상가	-3690
▁포지	-3691
▁3000	-3692
▁山	-3693
▁무렵	-3694
▁무장	-3695
▁축소	-3696
▁숭	-3697
가와	-3698
▁남도	-3699
▁신인	-3700
▁고구	-3701
▁녹색	-3702
▁농장	-3703
▁82	-3704
▁커뮤니티	-3705
▁만세	-3706
▁아시안	-3707
▁성립	-3708
▁휴대	-3709
▁조절	-3710
▁86	-3711
▁편리	-3712
ent	-3713
▁세르	-3714
▁탑재	-3715
▁78	-3716
▁천연	-3717
▁사회주의	-3718
▁봤	-3719
▁이정	-3720
▁추경	-3721
▁a	-3722
사업	-3723
▁자극	-3724
▁후속	-3725
▁1987	-3726
▁가슴	-3727
▁UEFA	-3728
▁공로	-3729
▁살해	-3730
ig	-3731
▁려면	-3732
▁엘리	-3733
▁유학	-3734
▁협동	-3735
▁킬	-3736
▁물류	-3737
▁양자	-3738
▁해방	-3739
▁문제점	-3740
▁라이브	-3741
지능	-3742
▁동참	-3743
▁영남	-3744
▁취하	-3745
레일리아	-3746
▁인공지능	-3747
▁o	-3748
▁경관	-3749
다른	-3750
▁움직임	-3751
▁→	-3752
▁전후	-3753
▁기온	-3754
▁신분	-3755
바이	-3756
▁돌파	-3757
▁흰	-3758
▁개척	-3759
▁임무	-3760
▁큐	-3761
▁명확	-3762
▁릴	-3763
준다	-3764
▁춤	-3765
▁대행	-3766
▁재능	-3767
▁전담	-3768
▁다카	-3769
▁사기	-3770
▁스파	-3771
▁혼란	-3772
자기	-3773
▁의도	-3774
▁화면	-3775
od	-3776
▁위상	-3777
▁훼손	-3778
▁텐	-3779
▁게시	-3780
▁항만	-3781
▁금호	-3782
▁병사	-3783
▁최다	-3784
▁기금	-3785
▁당원	-3786
ed	-3787
▁98	-3788
▁의정	-3789
센터	-3790
▁착수	-3791
▁띠	-3792
오카	-3793
▁이집	-3794
▁충분히	-3795
▁박정	-3796
▁오브	-3797
▁이집트	-3798
▁인접	-3799
▁단백질	-3800
▁81	-3801
▁87	-3802
▁적발	-3803
▁떨어지	-3804
▁치유	-3805
▁스마트폰	-3806
▁고유	-3807
리스트	-3808
▁셋	-3809
▁본다	-3810
▁해졌	-3811
▁태평양	-3812
▁서울특별	-3813
▁클러스터	-3814
▁대처	-3815
▁위주	-3816
▁한화	-3817
▁군청	-3818
un	-3819
▁이성	-3820
▁닥	-3821
▁달서	-3822
▁테이	-3823
▁오페라	-3824
▁공포	-3825
▁서양	-3826
▁포장	-3827
▁ha	-3828
▁즉위	-3829
▁광산구	-3830
▁호흡	-3831
▁전철	-3832
▁포도	-3833
우드	-3834
▁네이	-3835
친다	-3836
▁스피	-3837
▁초과	-3838
▁185	-3839
▁드래	-3840
▁전사	-3841
▁오사카	-3842
▁지연	-3843
▁미리	-3844
▁표창	-3845
▁야간	-3846
▁소요	-3847
▁간주	-3848
▁고위	-3849
▁논리	-3850
▁실정	-3851
▁영입	-3852
▁진학	-3853
▁장학금	-3854
▁79	-3855
▁어도	-3856
▁교장	-3857
▁현역	-3858
다가	-3859
▁관점	-3860
▁창단	-3861
▁도모	-3862
▁포르투갈	-3863
▁이기	-3864
▁페이스	-3865
▁즉시	-3866
▁무용	-3867
▁접촉	-3868
▁사업장	-3869
▁불만	-3870
▁타워	-3871
▁편지	-3872
▁신학	-3873
▁디스	-3874
▁보고회	-3875
▁관장	-3876
▁탄소	-3877
▁포지션	-3878
▁룸	-3879
▁관람객	-3880
▁지닌	-3881
▁폭행	-3882
▁전차	-3883
ST	-3884
▁봐	-3885
구역	-3886
▁야당	-3887
▁적합	-3888
▁윈도	-3889
▁일으키	-3890
▁노사	-3891
▁유물	-3892
▁하위	-3893
▁가까이	-3894
▁조리	-3895
▁취급	-3896
▁제일	-3897
▁대법	-3898
▁드리	-3899
리지	-3900
▁면허	-3901
▁수수	-3902
▁연락	-3903
▁진실	-3904
▁오스트레일리아	-3905
▁그해	-3906
▁펀	-3907
▁부산시	-3908
▁고발	-3909
▁아키	-3910
▁정하	-3911
▁아스	-3912
▁친화	-3913
▁겐	-3914
▁셈	-3915
▁소형	-3916
▁묵	-3917
▁수급	-3918
▁스크	-3919
▁운송	-3920
회장	-3921
▁1986	-3922
▁무시	-3923
▁연금	-3924
▁드린다	-3925
▁FA	-3926
▁통해서	-3927
▁숫	-3928
▁실습	-3929
▁인디	-3930
▁태도	-3931
▁이영	-3932
▁협정	-3933
▁먼지	-3934
▁동력	-3935
▁운전자	-3936
▁서울특별시	-3937
▁가사	-3938
▁교원	-3939
▁만남	-3940
▁자라	-3941
▁건축물	-3942
▁헨	-3943
▁참고	-3944
▁낼	-3945
▁ww	-3946
▁신화	-3947
▁펼쳤	-3948
▁유공자	-3949
세대	-3950
▁보행	-3951
▁무안	-3952
▁세운	-3953
▁제어	-3954
▁소중	-3955
▁이슬람	-3956
로드	-3957
▁농도	-3958
▁가리키	-3959
▁일어났	-3960
▁포스코	-3961
▁중기	-3962
▁www	-3963
▁성명	-3964
▁신입	-3965
▁연말	-3966
▁줄어들	-3967
▁이루어져	-3968
▁83	-3969
▁조합장	-3970
▁추세	-3971
▁플라	-3972
가스	-3973
▁수송	-3974
▁유출	-3975
ot	-3976
▁근본	-3977
▁웃음	-3978
▁휴식	-3979
OC	-3980
▁그곳	-3981
▁상주	-3982
▁후손	-3983
▁이뤄졌	-3984
▁비트	-3985
▁애플	-3986
▁에드	-3987
▁탈락	-3988
▁부른다	-3989
▁자전거	-3990
▁나뉘	-3991
▁열정	-3992
▁장르	-3993
▁학기	-3994
▁으려	-3995
▁특허	-3996
▁시내버스	-3997
▁났	-3998
▁이민	-3999
▁시상식	-4000
▁엠	-4001
▁91	-4002
▁마저	-4003
▁주소	-4004
▁92	-4005
▁시선	-4006
▁이자	-4007
▁분자	-4008
▁폭염	-4009
▁군단	-4010
▁광양시	-4011
os	-4012
▁물러	-4013
▁장려	-4014
▁경비	-4015
ur	-4016
▁승부	-4017
▁KIA	-4018
▁추구	-4019
▁인도네시아	-4020
▁캡	-4021
티나	-4022
▁성남	-4023
▁동계	-4024
▁제조업	-4025
▁재개	-4026
고리	-4027
▁스페	-4028
▁영화제	-4029
▁은하	-4030
▁선진	-4031
▁청정	-4032
▁스프	-4033
▁장착	-4034
▁키우	-4035
▁흉	-4036
▁내달	-4037
▁원활	-4038
▁프라	-4039
▁태어난	-4040
▁항공기	-4041
▁윌리엄	-4042
▁매각	-4043
▁전지	-4044
▁추억	-4045
▁스리	-4046
▁띄	-4047
▁최적	-4048
▁건국	-4049
▁한정	-4050
▁캘리포	-4051
▁재건	-4052
▁스타트	-4053
▁구제	-4054
▁주재	-4055
직자	-4056
▁계급	-4057
▁그만	-4058
레이션	-4059
▁피아노	-4060
▁농림	-4061
▁추모	-4062
▁유튜브	-4063
▁인류	-4064
포르	-4065
▁엄마	-4066
▁궁금	-4067
▁유전자	-4068
▁태어나	-4069
▁간부	-4070
마스	-4071
▁세미	-4072
iv	-4073
▁남아	-4074
▁마감	-4075
▁97	-4076
▁당한	-4077
▁새벽	-4078
▁고시	-4079
▁목사	-4080
▁벌였	-4081
▁일치	-4082
▁베네	-4083
▁수당	-4084
교회	-4085
▁용인	-4086
▁직전	-4087
▁황금	-4088
▁개관	-4089
▁국방부	-4090
▁랭	-4091
▁캘리포니아	-4092
▁드림	-4093
▁절감	-4094
▁화려	-4095
▁사무실	-4096
▁원소	-4097
▁시책	-4098
오스	-4099
▁끝나	-4100
▁식사	-4101
▁당일	-4102
▁부당	-4103
▁이틀	-4104
산업	-4105
▁질량	-4106
▁장성	-4107
▁회전	-4108
▁일시	-4109
▁공통	-4110
▁팝	-4111
로그	-4112
▁끝난	-4113
▁아티	-4114
▁집합	-4115
▁청주시	-4116
▁내세	-4117
▁둘째	-4118
▁명성	-4119
▁성분	-4120
▁올려	-4121
▁수상자	-4122
▁모터	-4123
▁신임	-4124
▁수치	-4125
um	-4126
▁넷	-4127
▁웅	-4128
▁금리	-4129
▁오토	-4130
▁최대한	-4131
▁높였	-4132
▁숙박	-4133
▁중반	-4134
▁드러났	-4135
▁석유	-4136
▁플로	-4137
▁고급	-4138
▁소상	-4139
▁경고	-4140
▁생겨	-4141
▁카르	-4142
▁삼성전자	-4143
▁배정	-4144
▁성당	-4145
▁예약	-4146
▁증대	-4147
▁화순	-4148
ation	-4149
▁특강	-4150
▁굳	-4151
▁가상	-4152
▁단체장	-4153
▁김태	-4154
▁부위	-4155
▁찬성	-4156
▁호기	-4157
이너	-4158
▁매니	-4159
▁손해	-4160
▁회계	-4161
▁교과	-4162
▁승객	-4163
▁극단	-4164
▁집안	-4165
▁96	-4166
공항	-4167
▁1984	-4168
▁한국어	-4169
▁뚜	-4170
▁합성	-4171
▁특별법	-4172
▁이시	-4173
▁184	-4174
▁이루어지	-4175
▁솔로	-4176
▁화력	-4177
▁방문객	-4178
▁윤리	-4179
▁호주	-4180
테르	-4181
▁이스라	-4182
▁복무	-4183
▁청렴	-4184
▁전설	-4185
타인	-4186
▁스티	-4187
▁유전	-4188
디션	-4189
▁삽	-4190
▁선제	-4191
▁연고	-4192
▁전주	-4193
amp	-4194
▁마시	-4195
▁마트	-4196
▁사퇴	-4197
▁유성	-4198
항공	-4199
▁건수	-4200
▁동성	-4201
▁아라	-4202
▁바닥	-4203
▁업종	-4204
▁알렉산	-4205
▁기념식	-4206
▁싸움	-4207
▁숫자	-4208
▁심장	-4209
▁의존	-4210
▁쯤	-4211
▁부회장	-4212
▁돌입	-4213
▁공산당	-4214
▁메이저	-4215
▁1985	-4216
▁꺾	-4217
▁위성	-4218
스트라	-4219
▁통보	-4220
▁이스라엘	-4221
▁산학	-4222
▁천억	-4223
▁진보	-4224
▁경유	-4225
▁평양	-4226
▁강점기	-4227
▁훌	-4228
▁IT	-4229
▁불린다	-4230
연히	-4231
▁맞추	-4232
▁세월	-4233
▁비즈니스	-4234
▁패스트	-4235
▁심판	-4236
▁요원	-4237
▁앉	-4238
▁설문	-4239
▁아나	-4240
▁독특	-4241
▁못해	-4242
수도	-4243
▁II	-4244
▁소외	-4245
▁개시	-4246
▁급여	-4247
▁느낌	-4248
▁발의	-4249
▁어울	-4250
▁실시간	-4251
▁방역	-4252
▁손실	-4253
▁창의	-4254
▁매립	-4255
▁화폐	-4256
▁시급	-4257
▁쓸	-4258
▁양산	-4259
▁시공	-4260
▁사로	-4261
▁유산	-4262
▁조국	-4263
▁마침	-4264
소득	-4265
▁다채	-4266
▁점점	-4267
▁흡수	-4268
▁사망자	-4269
▁모리	-4270
▁상품권	-4271
▁담긴	-4272
▁아랍	-4273
▁남대	-4274
▁검색	-4275
▁살리	-4276
▁어요	-4277
▁의뢰	-4278
▁일자	-4279
▁뱅	-4280
▁얘	-4281
버트	-4282
▁LH	-4283
▁St	-4284
▁등지	-4285
▁설득	-4286
▁세금	-4287
▁자격증	-4288
▁文	-4289
▁백제	-4290
▁을지	-4291
▁진도	-4292
▁그라	-4293
▁뜨거운	-4294
운전	-4295
▁메뉴	-4296
▁메달	-4297
▁홍성	-4298
▁침체	-4299
▁신축	-4300
▁실수	-4301
▁들어서	-4302
▁청약	-4303
▁확립	-4304
▁거절	-4305
▁발휘	-4306
▁서원	-4307
▁된다고	-4308
▁모스크	-4309
▁비리	-4310
▁주위	-4311
▁안드	-4312
▁유해	-4313
어날	-4314
▁생긴	-4315
▁고지	-4316
▁고흥	-4317
▁매체	-4318
▁분노	-4319
▁합창	-4320
▁구하	-4321
▁부활	-4322
오프	-4323
▁잡지	-4324
▁행진	-4325
수산	-4326
▁기법	-4327
▁베이스	-4328
스키	-4329
힌다	-4330
▁치열	-4331
▁공직자	-4332
▁개입	-4333
▁징계	-4334
▁팽	-4335
일러	-4336
▁간단	-4337
▁급격	-4338
▁댄스	-4339
▁해운	-4340
▁강좌	-4341
▁실점	-4342
카오	-4343
▁진압	-4344
▁침공	-4345
▁영주	-4346
▁이룬	-4347
▁1982	-4348
▁간호	-4349
▁89	-4350
▁통화	-4351
▁깊이	-4352
▁특례	-4353
▁상무	-4354
▁어떠	-4355
▁하천	-4356
▁보낸	-4357
베르	-4358
▁구청장	-4359
▁권역	-4360
▁신서	-4361
▁청문	-4362
▁테스트	-4363
▁핀란드	-4364
ad	-4365
▁정성	-4366
키스탄	-4367
▁안보	-4368
▁제임스	-4369
▁복구	-4370
▁불렀	-4371
▁섬유	-4372
▁원자력	-4373
▁아메리카	-4374
▁는다는	-4375
▁신부	-4376
▁원작	-4377
▁원주	-4378
▁오피스	-4379
▁접하	-4380
▁총괄	-4381
▁한국인	-4382
▁사원	-4383
▁에서부터	-4384
미터	-4385
▁거치	-4386
▁연예	-4387
▁타자	-4388
▁락	-4389
▁베스트	-4390
▁운동장	-4391
▁마드리	-4392
평군	-4393
▁기에	-4394
▁말레이	-4395
▁정수	-4396
바로	-4397
▁안건	-4398
▁사제	-4399
▁혼자	-4400
▁이루어진	-4401
레인	-4402
▁결론	-4403
▁동서	-4404
▁발간	-4405
▁독서	-4406
▁골든	-4407
▁폴리	-4408
▁윈도우	-4409
▁서기	-4410
▁신성	-4411
▁파업	-4412
▁현행	-4413
▁명절	-4414
▁방면	-4415
▁타임	-4416
▁끌어	-4417
▁수목	-4418
▁순서	-4419
▁타격	-4420
▁후지	-4421
셔널	-4422
이어	-4423
▁귀농	-4424
▁어업	-4425
▁주교	-4426
▁160	-4427
▁접종	-4428
아버지	-4429
▁나치	-4430
▁으니	-4431
▁터키	-4432
아내	-4433
▁93	-4434
▁수확	-4435
▁1983	-4436
▁광복	-4437
▁구별	-4438
▁Q	-4439
▁야외	-4440
▁저렴	-4441
▁대만	-4442
▁방출	-4443
▁마드리드	-4444
op	-4445
▁감안	-4446
▁수시	-4447
▁흔들	-4448
▁250	-4449
소년	-4450
▁도달	-4451
▁신앙	-4452
▁왜곡	-4453
▁주전	-4454
아시아	-4455
▁챙	-4456
▁흘러	-4457
▁살펴보	-4458
▁거짓	-4459
▁노예	-4460
▁영향력	-4461
에이	-4462
▁긴장	-4463
▁물량	-4464
▁방치	-4465
▁조종	-4466
▁94	-4467
▁묶	-4468
▁양국	-4469
▁쓰인다	-4470
ia	-4471
▁베를	-4472
▁원리	-4473
누스	-4474
▁인조	-4475
▁침해	-4476
▁사로잡	-4477
▁배상	-4478
▁마크	-4479
▁소음	-4480
▁효소	-4481
▁농어촌	-4482
▁결제	-4483
▁잊	-4484
▁최우수	-4485
and	-4486
▁명품	-4487
▁상상	-4488
▁三	-4489
보드	-4490
▁기리	-4491
▁쳐	-4492
심히	-4493
▁정밀	-4494
▁견해	-4495
▁본관	-4496
▁상당히	-4497
▁할머니	-4498
키아	-4499
▁진술	-4500
▁꺼	-4501
▁랩	-4502
▁쏘	-4503
▁팩	-4504
▁레드	-4505
▁위생	-4506
▁김대중	-4507
▁신장	-4508
▁개성	-4509
▁대선	-4510
▁얘기	-4511
▁과일	-4512
▁복수	-4513
▁마리아	-4514
▁대우	-4515
▁요양	-4516
▁철회	-4517
▁흐르	-4518
▁흔히	-4519
▁션	-4520
▁나폴	-4521
▁참전	-4522
▁권고	-4523
▁커지	-4524
▁여당	-4525
▁전날	-4526
▁쟁	-4527
▁감동	-4528
▁물품	-4529
▁유가	-4530
▁논쟁	-4531
▁카운	-4532
▁멈	-4533
싱턴	-4534
▁선조	-4535
▁초점	-4536
이크	-4537
▁남겼	-4538
▁소스	-4539
▁플레이어	-4540
▁나카	-4541
▁오케	-4542
▁",	-4543
▁수십	-4544
▁탈출	-4545
▁1979	-4546
▁메인	-4547
▁면역	-4548
▁1981	-4549
닉스	-4550
▁운항	-4551
▁제자	-4552
▁자치구	-4553
▁납부	-4554
▁작곡가	-4555
▁소감	-4556
▁고종	-4557
▁분열	-4558
▁시군	-4559
▁그렇게	-4560
▁Z	-4561
▁정차	-4562
▁트럼	-4563
▁가시	-4564
▁고기	-4565
▁고리	-4566
▁자발	-4567
▁테크노	-4568
im	-4569
▁판정	-4570
▁PC	-4571
▁등판	-4572
▁장악	-4573
▁왕위	-4574
▁추측	-4575
▁김기	-4576
▁감각	-4577
▁대교	-4578
▁수원시	-4579
▁선전	-4580
총장	-4581
▁재해	-4582
▁개체	-4583
▁매매	-4584
▁주일	-4585
▁붙여	-4586
▁착용	-4587
▁조속	-4588
▁서산	-4589
▁톱	-4590
▁군주	-4591
▁사인	-4592
▁의결	-4593
▁피하	-4594
▁산불	-4595
▁유행	-4596
FC	-4597
▁지니	-4598
▁전동	-4599
▁창설	-4600
영상	-4601
▁게이	-4602
▁1930	-4603
▁충청북도	-4604
▁덕분	-4605
▁서해	-4606
▁소각	-4607
▁재활	-4608
▁브리핑	-4609
▁트로	-4610
▁1972	-4611
▁늘어난	-4612
▁줘	-4613
▁핸	-4614
▁에피	-4615
▁신안	-4616
▁사령관	-4617
먼스	-4618
▁마쓰	-4619
▁북서	-4620
▁사안	-4621
▁환영	-4622
ir	-4623
▁공중	-4624
▁학사	-4625
▁라이프	-4626
▁잭	-4627
▁놀라	-4628
▁지향	-4629
▁북동	-4630
▁입구	-4631
▁자이	-4632
ED	-4633
▁비록	-4634
▁용품	-4635
▁베이징	-4636
▁ᆞ	-4637
▁연안	-4638
▁적정	-4639
▁국도	-4640
▁마친	-4641
▁차질	-4642
▁특구	-4643
▁179	-4644
▁선거법	-4645
▁재판부	-4646
▁순수	-4647
▁아리	-4648
▁포스	-4649
▁무사	-4650
▁싱가	-4651
▁싱가포르	-4652
▁격려	-4653
▁그때	-4654
▁기하	-4655
▁아미	-4656
▁입증	-4657
▁존중	-4658
문화재	-4659
▁파워	-4660
▁도구	-4661
▁부임	-4662
교통	-4663
▁대가	-4664
▁종사자	-4665
▁일단	-4666
▁쫓	-4667
▁입자	-4668
▁증언	-4669
▁강진	-4670
▁프린	-4671
▁워싱턴	-4672
▁선보인다	-4673
요시	-4674
▁라틴	-4675
▁현금	-4676
▁악기	-4677
▁정서	-4678
▁경연	-4679
▁무인	-4680
▁의해서	-4681
▁콤	-4682
▁모았	-4683
▁맥주	-4684
▁청나라	-4685
▁고구려	-4686
▁시설물	-4687
▁1973	-4688
▁응용	-4689
▁돌려	-4690
▁정말	-4691
▁진주	-4692
▁그쳤	-4693
▁플레이오프	-4694
▁단축	-4695
▁맞서	-4696
▁명소	-4697
▁중세	-4698
▁소방서	-4699
▁득표	-4700
▁벌금	-4701
▁대법원	-4702
▁모니터링	-4703
▁움직이	-4704
▁교토	-4705
▁열심히	-4706
▁대수	-4707
▁허위	-4708
오르	-4709
▁공천	-4710
▁향한	-4711
▁동문	-4712
▁승점	-4713
▁항성	-4714
▁앞장서	-4715
▁점포	-4716
▁손상	-4717
▁삼국	-4718
▁하드	-4719
▁프리미엄	-4720
▁발급	-4721
▁저자	-4722
em	-4723
라노	-4724
▁동영상	-4725
리티	-4726
▁충족	-4727
▁한글	-4728
신문	-4729
리히	-4730
▁내륙	-4731
▁동화	-4732
스토	-4733
▁날씨	-4734
▁작동	-4735
▁장수	-4736
▁보병	-4737
▁베를린	-4738
놀이	-4739
▁토크	-4740
▁겹	-4741
▁상관	-4742
케이션	-4743
CA	-4744
트라	-4745
▁퍼포	-4746
▁세미나	-4747
▁1920	-4748
▁퍼포먼스	-4749
▁요건	-4750
▁정복	-4751
▁과목	-4752
▁나갔	-4753
▁늘리	-4754
▁부사	-4755
▁스카	-4756
▁협동조합	-4757
영수	-4758
▁단원	-4759
▁배포	-4760
▁집권	-4761
▁of	-4762
▁퀴	-4763
▁브루	-4764
▁오랫	-4765
▁배제	-4766
▁분할	-4767
▁181	-4768
▁김경	-4769
▁잠재	-4770
▁취재	-4771
▁1948	-4772
▁김용	-4773
▁석탄	-4774
▁스토	-4775
▁amp	-4776
▁이른바	-4777
PG	-4778
▁동명	-4779
▁병행	-4780
▁자매	-4781
▁페이	-4782
ut	-4783
▁꼬리	-4784
▁밝힌	-4785
▁보컬	-4786
▁유력	-4787
▁을까	-4788
▁신선	-4789
▁거론	-4790
▁엄청	-4791
▁팜	-4792
▁파트너	-4793
▁900	-4794
▁샘	-4795
▁입찰	-4796
▁동메달	-4797
▁서울시	-4798
▁떠났	-4799
▁여수시	-4800
▁한자	-4801
▁흥미	-4802
▁대원	-4803
▁미드	-4804
▁법칙	-4805
▁사격	-4806
▁오랫동안	-4807
▁지낸	-4808
nt	-4809
자치	-4810
▁항구	-4811
▁철수	-4812
▁환승	-4813
▁高	-4814
▁코미	-4815
▁해산	-4816
▁아르헨	-4817
▁제천	-4818
▁이용자	-4819
▁화장실	-4820
▁05	-4821
▁든다	-4822
▁시사	-4823
▁주자	-4824
ct	-4825
▁물건	-4826
▁급증	-4827
▁지붕	-4828
▁공익	-4829
▁도약	-4830
▁선교	-4831
▁아웃	-4832
▁중화민국	-4833
▁안양	-4834
▁압력	-4835
▁성향	-4836
시설	-4837
▁명명	-4838
▁통행	-4839
OU	-4840
▁조달	-4841
▁플래	-4842
▁의문	-4843
▁주한	-4844
▁친일	-4845
▁탑승	-4846
▁향하	-4847
▁학년도	-4848
▁받아들여	-4849
소드	-4850
▁각지	-4851
▁심지	-4852
▁장교	-4853
▁1976	-4854
▁끝내	-4855
▁다스	-4856
▁올바	-4857
▁일찍	-4858
▁임신	-4859
▁철도역	-4860
▁항공사	-4861
▁기장	-4862
▁빨리	-4863
▁119	-4864
ay	-4865
▁아르헨티나	-4866
▁따로	-4867
▁양파	-4868
▁체전	-4869
▁해남	-4870
▁워크숍	-4871
▁젠	-4872
▁라이온	-4873
▁켄	-4874
▁예능	-4875
▁한때	-4876
▁타이거	-4877
생활	-4878
▁갈라	-4879
▁경성	-4880
▁막대	-4881
▁어깨	-4882
▁문화유산	-4883
▁王	-4884
▁갖춰	-4885
▁마쳤	-4886
▁중계	-4887
▁완도	-4888
▁품종	-4889
▁본회의	-4890
▁1940	-4891
▁가축	-4892
▁전해졌	-4893
▁전라북도	-4894
CTV	-4895
▁라이트	-4896
▁알바	-4897
▁우스	-4898
▁밸리	-4899
▁국제공항	-4900
▁달려	-4901
▁사각	-4902
▁진영	-4903
▁덴마크	-4904
▁주식회사	-4905
▁동네	-4906
▁보성	-4907
▁트렌	-4908
▁항소	-4909
▁렀	-4910
▁웰	-4911
▁음료	-4912
▁미터	-4913
▁일으켰	-4914
▁CCTV	-4915
▁가게	-4916
▁억제	-4917
▁치르	-4918
▁오케스트라	-4919
겨진	-4920
▁야생	-4921
▁얼마나	-4922
▁IC	-4923
▁계곡	-4924
▁금강	-4925
▁헬기	-4926
▁김현	-4927
▁닥터	-4928
▁수질	-4929
▁거기	-4930
▁교섭	-4931
▁실종	-4932
▁수강	-4933
▁공모전	-4934
▁이용섭	-4935
▁1978	-4936
▁기도	-4937
▁힐링	-4938
▁프로세	-4939
▁높여	-4940
▁마주	-4941
▁보좌	-4942
▁상영	-4943
▁요새	-4944
▁최상	-4945
▁교향	-4946
▁깨끗	-4947
▁상금	-4948
▁죽이	-4949
▁파라	-4950
▁The	-4951
▁느낄	-4952
▁부천	-4953
▁질서	-4954
▁암살	-4955
▁강남	-4956
▁성질	-4957
▁트라	-4958
▁악취	-4959
▁크리	-4960
▁기아차	-4961
▁인종	-4962
▁전경	-4963
▁차관	-4964
▁랜	-4965
▁압박	-4966
▁힘든	-4967
▁쉼	-4968
기술	-4969
▁산맥	-4970
▁오가	-4971
▁특위	-4972
▁여러분	-4973
▁캔	-4974
저우	-4975
▁민생	-4976
▁부작	-4977
▁호평	-4978
▁모스크바	-4979
▁만난	-4980
▁예전	-4981
▁둘러싸	-4982
▁임직원	-4983
▁국무총리	-4984
▁스타트업	-4985
▁동향	-4986
▁단순히	-4987
▁■	-4988
병대	-4989
▁인용	-4990
▁갑자기	-4991
▁천안시	-4992
▁선포	-4993
▁해명	-4994
▁토요일	-4995
▁사운드	-4996
이즈	-4997
▁연휴	-4998
▁음성군	-4999
네스	-5000
▁각국	-5001
▁파티	-5002
▁함대	-5003
▁1963	-5004
▁공화	-5005
나이티	-5006
▁선보였	-5007
▁연설	-5008
▁1974	-5009
▁요한	-5010
▁공대	-5011
▁대량	-5012
▁밀도	-5013
카와	-5014
▁업소	-5015
▁청산	-5016
젤레스	-5017
▁속한다	-5018
▁공산주의	-5019
▁유나이티	-5020
▁가해	-5021
▁변신	-5022
▁치렀	-5023
▁약물	-5024
▁이른다	-5025
▁저작	-5026
▁조언	-5027
▁1975	-5028
▁아프	-5029
세계	-5030
▁좌우	-5031
▁줄어	-5032
▁합쳐	-5033
▁사령부	-5034
▁트럼프	-5035
▁농구	-5036
▁동작	-5037
▁만주	-5038
▁변동	-5039
▁교직원	-5040
▁각자	-5041
▁부착	-5042
▁성경	-5043
▁싸우	-5044
▁카를	-5045
▁코미디	-5046
ul	-5047
하라	-5048
▁마약	-5049
▁명시	-5050
▁말레이시아	-5051
▁육아	-5052
▁스카이	-5053
▁쏠	-5054
▁조별	-5055
▁통산	-5056
▁일본군	-5057
▁4000	-5058
공업	-5059
▁고속도로	-5060
▁노르웨이	-5061
▁틈	-5062
▁앞둔	-5063
▁추석	-5064
▁타이어	-5065
▁나설	-5066
▁성우	-5067
▁寺	-5068
▁먹이	-5069
▁서울대	-5070
▁빼앗	-5071
▁수지	-5072
▁지주	-5073
▁아티스트	-5074
ow	-5075
▁원형	-5076
▁소위	-5077
▁이명	-5078
▁휴양	-5079
▁개조	-5080
▁변형	-5081
▁산지	-5082
▁출간	-5083
▁1919	-5084
..	-5085
▁소집	-5086
▁클래식	-5087
▁플러스	-5088
평가	-5089
▁기대감	-5090
▁선배	-5091
▁넥	-5092
▁섞	-5093
▁위촉	-5094
▁듯이	-5095
▁선두	-5096
▁영웅	-5097
▁기다리	-5098
ag	-5099
산화	-5100
▁태극	-5101
▁항복	-5102
▁가속	-5103
▁무게	-5104
▁민중	-5105
▁즉각	-5106
▁드라이	-5107
▁료	-5108
다이	-5109
▁대중교통	-5110
▁거뒀	-5111
▁단기	-5112
▁올린	-5113
▁허브	-5114
매김	-5115
▁자식	-5116
틀랜드	-5117
▁눈물	-5118
▁웨이	-5119
▁쾌적	-5120
▁탐방	-5121
데스	-5122
▁방위	-5123
▁테러	-5124
▁정의당	-5125
▁자리매김	-5126
▁게다가	-5127
다수	-5128
▁말기	-5129
▁상처	-5130
▁아쉬	-5131
▁심지어	-5132
▁총력	-5133
▁1971	-5134
▁버렸	-5135
▁원하	-5136
▁한층	-5137
▁확률	-5138
▁氏	-5139
▁임진	-5140
▁스트레스	-5141
▁똑	-5142
▁아사	-5143
▁리스트	-5144
▁범행	-5145
▁실증	-5146
▁130	-5147
▁근육	-5148
▁불렸	-5149
▁차장	-5150
▁연합군	-5151
▁광부	-5152
▁만났	-5153
▁무산	-5154
▁물가	-5155
▁1968	-5156
▁받아들이	-5157
아지	-5158
▁상실	-5159
▁전신	-5160
▁할지	-5161
▁183	-5162
▁예산안	-5163
▁현대차	-5164
▁멋	-5165
▁혈액	-5166
▁비치	-5167
▁조항	-5168
란히	-5169
에르	-5170
▁04	-5171
▁모드	-5172
▁소멸	-5173
▁이온	-5174
▁계절	-5175
▁송도	-5176
▁중도	-5177
▁영농	-5178
▁學	-5179
▁첼	-5180
▁김치	-5181
▁멀리	-5182
▁접근성	-5183
▁노동조합	-5184
▁약자	-5185
▁KBO	-5186
▁행정부	-5187
▁누적	-5188
▁돌아왔	-5189
▁보훈	-5190
▁격차	-5191
▁동북	-5192
▁꾼	-5193
▁되돌	-5194
▁포트	-5195
▁남기	-5196
▁두려	-5197
▁용도	-5198
▁특이	-5199
50	-5200
▁면제	-5201
▁멸망	-5202
▁182	-5203
▁제주도	-5204
▁에피소드	-5205
▁감성	-5206
▁자아	-5207
▁고양이	-5208
▁당사자	-5209
▁막부	-5210
▁떨어졌	-5211
▁재현	-5212
▁전수	-5213
▁헤이	-5214
▁케이블	-5215
시스	-5216
▁기재	-5217
▁보강	-5218
▁휴가	-5219
▁경로당	-5220
▁입사	-5221
카드	-5222
▁남서	-5223
▁1946	-5224
▁도망	-5225
▁배려	-5226
▁크루	-5227
▁담당자	-5228
▁조선대	-5229
▁상륙	-5230
▁개량	-5231
플레이	-5232
▁159	-5233
▁프리미어	-5234
▁앵	-5235
▁한데	-5236
▁향토	-5237
▁포위	-5238
▁드러나	-5239
앤젤레스	-5240
▁작물	-5241
▁밝혀졌	-5242
▁아이템	-5243
▁일본인	-5244
▁로스앤젤레스	-5245
▁변수	-5246
▁유족	-5247
▁조화	-5248
▁프란	-5249
▁넘치	-5250
▁보스	-5251
▁연산	-5252
▁최신	-5253
거래	-5254
▁관여	-5255
▁대결	-5256
▁제약	-5257
▁나타난다	-5258
▁안성	-5259
▁지인	-5260
▁스프링	-5261
CC	-5262
▁문장	-5263
▁달서구	-5264
▁리모	-5265
▁연다	-5266
▁표지	-5267
사키	-5268
▁이치	-5269
▁부시장	-5270
▁지원금	-5271
▁반려	-5272
▁하나님	-5273
▁켈	-5274
▁발령	-5275
▁여고	-5276
▁수성구	-5277
바라	-5278
▁노부	-5279
▁침략	-5280
▁법무부	-5281
파크	-5282
▁박근	-5283
▁법령	-5284
▁지형	-5285
▁태양광	-5286
▁음주운전	-5287
▁멀티	-5288
▁원년	-5289
▁기상청	-5290
▁못한다	-5291
▁덩	-5292
관리	-5293
▁구름	-5294
벤션	-5295
▁・	-5296
▁뼈	-5297
▁간접	-5298
▁공시	-5299
▁휴게	-5300
제철	-5301
▁루이	-5302
▁음력	-5303
▁자립	-5304
▁고조	-5305
▁들어오	-5306
▁1964	-5307
르타	-5308
▁관직	-5309
▁분산	-5310
▁추적	-5311
무라	-5312
▁배구	-5313
▁제재	-5314
▁마침내	-5315
▁저소득	-5316
▁東	-5317
▁110	-5318
▁DNA	-5319
브리	-5320
▁CE	-5321
▁시비	-5322
▁장인	-5323
▁CD	-5324
▁사료	-5325
▁성폭	-5326
▁갤러리	-5327
▁메모리	-5328
▁픽	-5329
▁수백	-5330
▁다룬	-5331
▁산화	-5332
▁바라보	-5333
▁생산량	-5334
세포	-5335
▁히데	-5336
▁빗	-5337
라비아	-5338
▁플라스	-5339
▁역전	-5340
▁총독	-5341
▁컨벤션	-5342
▁클래스	-5343
▁빵	-5344
▁톡	-5345
도르	-5346
▁석문	-5347
▁애국	-5348
▁여단	-5349
▁항의	-5350
▁세인트	-5351
▁대거	-5352
▁와인	-5353
세이	-5354
▁체력	-5355
▁추첨	-5356
▁곧바로	-5357
▁지법	-5358
▁1969	-5359
▁성주	-5360
▁스쿨	-5361
▁심화	-5362
▁적자	-5363
▁정류	-5364
▁풍경	-5365
▁1962	-5366
▁페이스북	-5367
▁로맨	-5368
▁모형	-5369
▁통증	-5370
▁접속	-5371
▁6000	-5372
▁v	-5373
▁왕자	-5374
▁이혼	-5375
▁롱	-5376
민주	-5377
▁문헌	-5378
▁민속	-5379
▁깃	-5380
노스	-5381
스카	-5382
▁센트	-5383
▁영장	-5384
▁무덤	-5385
▁미나	-5386
▁분과	-5387
▁용기	-5388
▁용지	-5389
▁천체	-5390
▁필드	-5391
▁매니저	-5392
▁계통	-5393
▁김주	-5394
▁네이버	-5395
▁골목	-5396
▁십자	-5397
▁1949	-5398
▁관중	-5399
▁김병	-5400
▁북아	-5401
▁언스	-5402
▁권위	-5403
▁망명	-5404
▁140	-5405
▁DG	-5406
▁무너	-5407
라이나	-5408
▁178	-5409
▁상시	-5410
▁줄기	-5411
▁목숨	-5412
▁무한	-5413
▁알파	-5414
▁포로	-5415
▁대다수	-5416
ce	-5417
타르	-5418
▁밀집	-5419
▁발레	-5420
▁추락	-5421
▁학대	-5422
▁대략	-5423
▁멘토	-5424
▁사냥	-5425
▁상권	-5426
▁축사	-5427
▁광명	-5428
▁훗	-5429
▁~)	-5430
▁삼각	-5431
▁탐사	-5432
가락	-5433
▁경전	-5434
▁동대	-5435
▁발탁	-5436
▁go	-5437
런스	-5438
▁이슈	-5439
▁임용	-5440
▁중지	-5441
▁지침	-5442
▁Ch	-5443
▁어려워	-5444
▁기념관	-5445
▁벡	-5446
▁김수	-5447
▁병합	-5448
▁줄여	-5449
기에	-5450
▁공제	-5451
▁글자	-5452
▁서민	-5453
▁임상	-5454
▁마켓	-5455
▁아세	-5456
▁연재	-5457
▁닭	-5458
▁매월	-5459
▁물체	-5460
▁어촌	-5461
▁인턴	-5462
▁경선	-5463
▁고장	-5464
▁독재	-5465
의자	-5466
▁생겼	-5467
▁혼합	-5468
▁드러내	-5469
▁스크린	-5470
▁기증	-5471
▁본질	-5472
▁장사	-5473
▁모은	-5474
▁재무	-5475
▁컸	-5476
▁공예	-5477
▁남해	-5478
▁리스	-5479
▁박스	-5480
▁장터	-5481
▁닫	-5482
▁밟	-5483
▁김지	-5484
▁생애	-5485
퍼드	-5486
▁지질	-5487
네스코	-5488
▁압도	-5489
▁주류	-5490
▁저서	-5491
▁타이완	-5492
▁그리스도	-5493
▁교부	-5494
▁다녀	-5495
▁분해	-5496
▁기울이	-5497
▁페이지	-5498
▁학살	-5499
▁카카오	-5500
▁엄격	-5501
▁처장	-5502
▁보여준다	-5503
머스	-5504
▁아테	-5505
▁교차로	-5506
▁무려	-5507
▁위안	-5508
▁8000	-5509
유럽	-5510
▁소지	-5511
▁토록	-5512
여금	-5513
▁워터	-5514
▁코너	-5515
▁1977	-5516
▁검진	-5517
▁김포	-5518
▁도덕	-5519
▁모범	-5520
▁부하	-5521
▁조상	-5522
▁좋아	-5523
▁화이트	-5524
▁떡	-5525
▁음식점	-5526
▁AS	-5527
▁바둑	-5528
▁대체로	-5529
oc	-5530
▁께서	-5531
▁수호	-5532
▁회수	-5533
▁노스	-5534
▁방학	-5535
▁장례	-5536
▁닌	-5537
▁고소	-5538
▁김일	-5539
▁새해	-5540
▁은메달	-5541
▁쿨	-5542
▁탕	-5543
먼트	-5544
▁유네스코	-5545
▁부적	-5546
▁서버	-5547
▁흔적	-5548
▁아이돌	-5549
▁박지	-5550
▁이마트	-5551
▁배달	-5552
▁식량	-5553
▁홀로	-5554
건설	-5555
▁03	-5556
▁진심	-5557
▁의정부	-5558
바지	-5559
▁느껴	-5560
▁지출	-5561
▁여객철도	-5562
▁형상	-5563
▁그랜드	-5564
ri	-5565
▁대지	-5566
생물	-5567
▁미야	-5568
▁히트	-5569
에도	-5570
▁간다	-5571
▁노벨	-5572
▁당신	-5573
▁전세	-5574
▁하남	-5575
▁아산시	-5576
▁올바른	-5577
▁이종억	-5578
뜨리	-5579
비드	-5580
▁내외	-5581
▁주둔	-5582
▁붙잡	-5583
▁시리아	-5584
▁스코틀랜드	-5585
NG	-5586
▁나들	-5587
▁처형	-5588
▁탄력	-5589
▁가하	-5590
▁아도	-5591
▁진천	-5592
▁퓨	-5593
▁공영	-5594
▁실용	-5595
▁벨기에	-5596
▁올라가	-5597
올리	-5598
▁관료	-5599
▁그램	-5600
▁발효	-5601
카이도	-5602
▁후보지	-5603
▁펼쳐진다	-5604
▁튜	-5605
릭스	-5606
▁넘겨	-5607
▁백신	-5608
▁사임	-5609
▁전월	-5610
▁셨	-5611
▁광범	-5612
▁목격	-5613
▁정화	-5614
▁뚜렷	-5615
▁모자	-5616
▁전제	-5617
▁박근혜	-5618
▁틱	-5619
행사	-5620
▁문명	-5621
▁부패	-5622
▁강도	-5623
▁헨리	-5624
▁이승만	-5625
▁람	-5626
해졌	-5627
▁당장	-5628
▁손님	-5629
▁티켓	-5630
▁평론	-5631
▁영동군	-5632
▁단편	-5633
▁사형	-5634
▁역학	-5635
▁기둥	-5636
▁작사	-5637
▁불상	-5638
▁DB	-5639
▁대개	-5640
▁약식	-5641
▁일체	-5642
▁콘스탄	-5643
▁그럼	-5644
두환	-5645
▁계단	-5646
▁트랜	-5647
▁예산군	-5648
규모	-5649
▁부채	-5650
▁예술가	-5651
▁이어질	-5652
▁잇따라	-5653
▁녀	-5654
▁公	-5655
▁김민	-5656
▁매치	-5657
▁밀려	-5658
▁유용	-5659
▁전액	-5660
▁참모	-5661
▁침입	-5662
▁TF	-5663
▁체감	-5664
지대	-5665
▁대외	-5666
▁하수	-5667
▁돌아오	-5668
▁2023	-5669
▁돋	-5670
▁쇄	-5671
▁피고	-5672
▁불가피	-5673
▁웨스트	-5674
▁립	-5675
정식	-5676
▁뛰어	-5677
▁반환	-5678
▁실효	-5679
▁위장	-5680
▁출력	-5681
▁관해	-5682
▁국적	-5683
▁산소	-5684
▁스틸	-5685
▁우크라	-5686
▁수료	-5687
▁용량	-5688
▁훈장	-5689
▁참석자	-5690
▁1965	-5691
▁누르	-5692
▁무선	-5693
▁걸친	-5694
▁과도	-5695
▁소매	-5696
▁방송국	-5697
▁리버	-5698
▁사물	-5699
▁연도	-5700
▁아기	-5701
▁훗날	-5702
쿠라	-5703
▁쉼터	-5704
▁이념	-5705
하우	-5706
▁천주교	-5707
▁내일	-5708
▁도출	-5709
▁빌딩	-5710
▁해진	-5711
▁프라이	-5712
OS	-5713
▁경보	-5714
▁경사	-5715
▁동호	-5716
▁여서	-5717
▁판서	-5718
경기	-5719
받침	-5720
▁군정	-5721
▁담배	-5722
▁날개	-5723
▁스탠	-5724
▁의약	-5725
▁지영수	-5726
▁감지	-5727
▁상원	-5728
▁한지	-5729
▁허리	-5730
▁담겨	-5731
▁박종	-5732
▁시카	-5733
루션	-5734
▁내린	-5735
▁시신	-5736
▁전직	-5737
▁플랜	-5738
▁봉사자	-5739
2)	-5740
▁박영	-5741
▁창고	-5742
▁보물	-5743
▁사자	-5744
▁NH	-5745
▁마라	-5746
▁빠지	-5747
art	-5748
▁가맹	-5749
▁석사	-5750
▁조카	-5751
▁포털	-5752
▁물리학	-5753
▁소규모	-5754
▁엄청난	-5755
▁엉	-5756
수수	-5757
▁독도	-5758
▁분권	-5759
▁소문	-5760
▁재발	-5761
▁판로	-5762
▁1966	-5763
▁계룡	-5764
▁문경	-5765
▁점유	-5766
▁종사	-5767
▁횡단	-5768
▁단양	-5769
▁1967	-5770
▁개신	-5771
▁거친	-5772
▁170	-5773
기술센터	-5774
▁농업기술센터	-5775
▁뉴딜	-5776
▁天	-5777
에트	-5778
▁강당	-5779
▁미소	-5780
▁오류	-5781
▁일방	-5782
▁직위	-5783
▁남양	-5784
▁니시	-5785
▁당해	-5786
▁안산	-5787
▁인명	-5788
▁지회	-5789
▁매일신문	-5790
▁천성	-5791
▁행보	-5792
▁화석	-5793
일리	-5794
제품	-5795
▁tv	-5796
▁상속	-5797
▁습지	-5798
▁정면	-5799
▁安	-5800
하마	-5801
▁보복	-5802
▁양쪽	-5803
▁종전	-5804
▁해설	-5805
▁수능	-5806
▁가마	-5807
▁영구	-5808
▁자책	-5809
▁정무	-5810
▁케어	-5811
▁편안	-5812
▁바깥	-5813
▁차기	-5814
▁흑인	-5815
▁SOC	-5816
▁볼거리	-5817
▁南	-5818
러지	-5819
키지	-5820
▁곤충	-5821
▁말씀	-5822
▁중동	-5823
▁지목	-5824
▁출동	-5825
▁ICT	-5826
▁기체	-5827
▁노리	-5828
▁배수	-5829
▁트럭	-5830
▁광범위	-5831
▁끊임	-5832
▁청양	-5833
og	-5834
▁國	-5835
▁어우	-5836
▁장흥	-5837
▁푸른	-5838
▁는다고	-5839
▁화장품	-5840
▁가질	-5841
▁그치	-5842
▁극대	-5843
▁백성	-5844
▁유동	-5845
▁돌아온	-5846
▁독립운동가	-5847
산면	-5848
▁체코	-5849
▁1961	-5850
고속	-5851
▁사업단	-5852
▁깔	-5853
▁딱	-5854
▁짝	-5855
차례	-5856
▁산책	-5857
▁정확히	-5858
▁회의소	-5859
▁조형	-5860
▁후배	-5861
▁달한다	-5862
▁1944	-5863
▁객관	-5864
▁달했	-5865
▁손자	-5866
▁폭탄	-5867
▁둘러싼	-5868
▁소유자	-5869
동강	-5870
▁걸리	-5871
▁바위	-5872
▁입원	-5873
▁즐거	-5874
tt	-5875
우리	-5876
▁06	-5877
▁공론	-5878
▁펴	-5879
▁과태	-5880
▁상장	-5881
▁속한	-5882
질랜드	-5883
▁인과	-5884
▁합덕	-5885
▁황교	-5886
▁아무런	-5887
▁변환	-5888
▁시가	-5889
▁정주	-5890
▁초래	-5891
▁과태료	-5892
▁디스플레이	-5893
▁공세	-5894
▁응시	-5895
▁인연	-5896
▁나올	-5897
▁섭취	-5898
▁청취	-5899
▁탱	-5900
▁힌	-5901
▁게재	-5902
▁노트	-5903
▁신청서	-5904
▁뉴질랜드	-5905
▁장승	-5906
▁저하	-5907
▁창당	-5908
▁컬러	-5909
▁여주	-5910
▁삭제	-5911
▁통계청	-5912
▁강요	-5913
▁나뉜	-5914
▁도내	-5915
▁리가	-5916
▁무더	-5917
▁미국인	-5918
▁냐는	-5919
▁열려	-5920
▁유망	-5921
▁지불	-5922
▁합작	-5923
▁들어간	-5924
▁☎	-5925
로운	-5926
▁in	-5927
▁레인	-5928
▁스미	-5929
▁구글	-5930
▁보편	-5931
▁부실	-5932
▁암호	-5933
▁연상	-5934
▁입력	-5935
▁마르크	-5936
▁패키지	-5937
▁군부	-5938
▁그레	-5939
▁더블	-5940
▁MOU	-5941
▁순천시	-5942
▁트렌드	-5943
▁죠	-5944
▁핫	-5945
▁투자자	-5946
▁와서	-5947
▁중순	-5948
▁타입	-5949
▁결심	-5950
▁고개	-5951
▁당첨	-5952
▁타점	-5953
▁기동	-5954
▁성서	-5955
▁접목	-5956
▁체납	-5957
▁훌륭	-5958
▁101	-5959
▁서식지	-5960
▁부드	-5961
▁영암	-5962
▁메이지	-5963
▁지도부	-5964
▁별명	-5965
▁표본	-5966
평균	-5967
▁비정	-5968
▁타인	-5969
▁특색	-5970
▁i	-5971
▁구원	-5972
▁느낀	-5973
▁루트	-5974
▁첫째	-5975
▁오스만	-5976
▁음악회	-5977
▁오피스텔	-5978
▁떼	-5979
▁홋	-5980
ang	-5981
▁고서	-5982
▁노무	-5983
▁만날	-5984
▁알렸	-5985
▁요코	-5986
▁달성군	-5987
▁w	-5988
▁발주	-5989
▁혼인	-5990
▁공연장	-5991
▁이라크	-5992
▁충주시	-5993
▁리얼	-5994
▁상용	-5995
▁통장	-5996
▁7000	-5997
▁굿	-5998
▁개교	-5999
▁변하	-6000
▁특산물	-6001
▁포스트	-6002
ea	-6003
라드	-6004
▁무관	-6005
▁운명	-6006
▁옥천군	-6007
▁섹	-6008
▁군포	-6009
▁발명	-6010
▁황교안	-6011
데이	-6012
머리	-6013
▁양상	-6014
▁업적	-6015
▁참조	-6016
▁돌아와	-6017
▁전기차	-6018
▁철저히	-6019
▁김홍	-6020
▁모금	-6021
▁태어났으며	-6022
▁–	-6023
▁부의	-6024
▁치안	-6025
▁김종민	-6026
▁살아가	-6027
▁와이	-6028
▁임시회	-6029
▁교구	-6030
SA	-6031
노이	-6032
▁가깝	-6033
▁강릉	-6034
러진	-6035
▁시조	-6036
▁내년도	-6037
▁시당	-6038
▁후임	-6039
▁바이어	-6040
▁광주광역시	-6041
▁청문회	-6042
승현	-6043
▁TK	-6044
▁현수	-6045
▁가담	-6046
▁공조	-6047
▁미쓰	-6048
▁그레이	-6049
▁비행기	-6050
▁톰	-6051
▁백만	-6052
▁시나	-6053
▁신자	-6054
▁배터리	-6055
▁횟	-6056
▁구리	-6057
▁평면	-6058
▁크로스	-6059
▁매달	-6060
▁우호	-6061
▁일각	-6062
▁국어	-6063
▁니콜	-6064
▁경찰관	-6065
▁림	-6066
▁감축	-6067
▁마법	-6068
▁세리	-6069
▁순회	-6070
▁위대	-6071
▁박정희	-6072
▁진행할	-6073
너스	-6074
듀서	-6075
▁프로듀서	-6076
▁마늘	-6077
▁후계	-6078
▁할아버지	-6079
▁道	-6080
잡이	-6081
▁기숙	-6082
▁이순	-6083
▁좌석	-6084
▁태권	-6085
▁간격	-6086
▁유인	-6087
▁사라지	-6088
▁간행	-6089
▁유효	-6090
▁헤르	-6091
▁기술원	-6092
▁명문	-6093
▁선착	-6094
▁우정	-6095
▁조현	-6096
▁타율	-6097
▁해리	-6098
▁대성	-6099
▁민관	-6100
▁플라스틱	-6101
욕장	-6102
▁영산	-6103
▁00	-6104
▁견인	-6105
▁갱	-6106
투스	-6107
▁탄핵	-6108
▁가진다	-6109
▁꼼	-6110
▁자국	-6111
▁전적	-6112
▁코로나	-6113
▁특별시	-6114
▁1939	-6115
▁소비에트	-6116
권자	-6117
▁브레	-6118
▁청춘	-6119
▁들어간다	-6120
▁김준	-6121
▁도마	-6122
▁뷰티	-6123
▁잠수	-6124
▁골드	-6125
▁되찾	-6126
▁레오	-6127
▁소독	-6128
▁원산	-6129
▁아이스	-6130
▁내전	-6131
▁대피	-6132
▁사찰	-6133
▁해임	-6134
▁건전	-6135
▁구장	-6136
▁일기	-6137
▁학업	-6138
▁긴밀	-6139
▁노란	-6140
▁임의	-6141
▁177	-6142
▁수도원	-6143
▁국세	-6144
▁일관	-6145
▁그래픽	-6146
더스	-6147
▁공방	-6148
▁로버트	-6149
ap	-6150
▁닿	-6151
▁잦	-6152
▁급속	-6153
▁농기	-6154
▁험	-6155
▁걸음	-6156
▁오키	-6157
▁인쇄	-6158
▁정례	-6159
협회	-6160
▁아빠	-6161
산동	-6162
▁세무	-6163
▁코르	-6164
▁헌신	-6165
▁상당수	-6166
어도	-6167
▁규탄	-6168
▁벌어지	-6169
▁이뤄질	-6170
▁라이온즈	-6171
▁알렉산드	-6172
▁구도	-6173
▁무릎	-6174
▁힘쓰	-6175
▁1958	-6176
▁백작	-6177
▁시계	-6178
▁혈관	-6179
ov	-6180
▁앓	-6181
▁퀸	-6182
▁그루	-6183
▁유역	-6184
▁162	-6185
▁카라	-6186
▁동행	-6187
▁비하	-6188
▁자부	-6189
▁햇	-6190
믹스	-6191
크스	-6192
키퍼	-6193
▁강수	-6194
▁독점	-6195
▁골키퍼	-6196
▁깜	-6197
비치	-6198
▁인형	-6199
▁전방	-6200
니스트	-6201
▁복음	-6202
▁항일	-6203
▁물고기	-6204
▁휩	-6205
▁내내	-6206
▁못할	-6207
▁부가	-6208
▁사범	-6209
▁시드	-6210
▁양궁	-6211
▁표정	-6212
▁기다	-6213
▁메디	-6214
▁진짜	-6215
▁총재	-6216
▁윗	-6217
▁햄	-6218
▁감상	-6219
▁운반	-6220
▁전술	-6221
▁페르시아	-6222
▁맑	-6223
▁바꿔	-6224
▁1941	-6225
TA	-6226
▁밭	-6227
▁이원	-6228
EC	-6229
▁신기	-6230
▁지능	-6231
▁패러	-6232
▁개신교	-6233
▁합창단	-6234
예술	-6235
▁오직	-6236
▁편찬	-6237
▁가요	-6238
▁영지	-6239
셀로나	-6240
▁일요일	-6241
▁바르셀로나	-6242
▁곁	-6243
▁로켓	-6244
▁전송	-6245
▁두드	-6246
▁여섯	-6247
▁재원	-6248
▁과학자	-6249
▁궁금증	-6250
▁마스크	-6251
안전	-6252
▁서대	-6253
▁명나라	-6254
▁솔루션	-6255
▁수면	-6256
▁딜	-6257
▁일본어	-6258
▁곱	-6259
치아	-6260
▁박차	-6261
▁카운티	-6262
▁1956	-6263
▁기념행사	-6264
▁교도	-6265
▁배후	-6266
▁시달	-6267
▁오버	-6268
▁제사	-6269
▁158	-6270
▁엑스포	-6271
▁세르비아	-6272
왜란	-6273
필더	-6274
▁경과	-6275
▁과연	-6276
▁금산	-6277
▁상해	-6278
▁정류장	-6279
▁미드필더	-6280
▁국군	-6281
▁몰려	-6282
▁클리	-6283
▁마이클	-6284
▁임진왜란	-6285
▁다큐	-6286
▁사마	-6287
▁없애	-6288
▁적응	-6289
▁핸드	-6290
▁전두환	-6291
어스	-6292
▁헬스	-6293
▁그럼에도	-6294
ers	-6295
▁던지	-6296
▁우드	-6297
▁증권	-6298
▁학급	-6299
▁벌어진	-6300
▁개원	-6301
▁단행	-6302
▁장남	-6303
▁항쟁	-6304
▁1500	-6305
▁기쁘	-6306
▁두산	-6307
▁옵	-6308
디움	-6309
▁연인	-6310
▁전염	-6311
▁가이드	-6312
▁新	-6313
▁수장	-6314
▁平	-6315
▁왕실	-6316
로이드	-6317
▁낙동강	-6318
▁묘지	-6319
▁밀접	-6320
▁특유	-6321
▁1953	-6322
▁관제	-6323
▁김천	-6324
▁똑같	-6325
▁중견	-6326
▁대사관	-6327
▁도지사	-6328
▁수산물	-6329
둥이	-6330
▁구호	-6331
▁약화	-6332
▁요즘	-6333
▁이강	-6334
▁갈색	-6335
▁여왕	-6336
▁울진	-6337
▁진동	-6338
▁단식	-6339
▁벨트	-6340
▁블라	-6341
▁연봉	-6342
▁열악	-6343
▁홍성군	-6344
▁市	-6345
▁마루	-6346
▁반박	-6347
▁1954	-6348
▁우즈	-6349
사스	-6350
▁옮겼	-6351
▁정통	-6352
▁김구	-6353
▁모토	-6354
▁이철	-6355
면적	-6356
연합	-6357
▁괴산군	-6358
▁보험료	-6359
▁SU	-6360
▁거둔	-6361
▁등재	-6362
▁미분	-6363
▁사양	-6364
▁아메	-6365
▁채소	-6366
▁함락	-6367
▁무단	-6368
▁박수	-6369
▁주석	-6370
▁전시관	-6371
▁졌으며	-6372
▁1947	-6373
10	-6374
나가	-6375
▁액션	-6376
▁이창	-6377
▁국외	-6378
▁제철	-6379
▁수영장	-6380
▁이어져	-6381
▁포스터	-6382
▁각본	-6383
▁온천	-6384
▁여의	-6385
▁DGB	-6386
▁만족도	-6387
▁젤	-6388
ity	-6389
▁경산	-6390
▁생물학	-6391
▁뚫	-6392
위원	-6393
▁AT	-6394
▁무효	-6395
▁부친	-6396
▁루이스	-6397
▁차세대	-6398
방송	-6399
▁고분	-6400
▁권익	-6401
▁입점	-6402
▁이용객	-6403
▁생계	-6404
▁재천	-6405
▁표명	-6406
▁관리자	-6407
▁내셔널	-6408
▁일련	-6409
▁수수료	-6410
임금	-6411
▁IP	-6412
▁발족	-6413
▁아끼	-6414
▁一	-6415
▁비핵	-6416
▁이뤄진	-6417
▁줄어든	-6418
▁울릉	-6419
▁화산	-6420
▁회로	-6421
▁350	-6422
▁된다면	-6423
ab	-6424
▁보인	-6425
▁비핵화	-6426
▁城	-6427
▁문인	-6428
▁반사	-6429
▁한방	-6430
▁련	-6431
▁찌	-6432
개발	-6433
▁수험	-6434
▁우편	-6435
버그	-6436
사이	-6437
▁발음	-6438
▁일선	-6439
▁자고	-6440
▁지중	-6441
▁기업인	-6442
▁구멍	-6443
▁민정	-6444
▁발발	-6445
▁기름	-6446
▁탈퇴	-6447
▁뒷받침	-6448
▁부작용	-6449
▁슬로건	-6450
▁겉	-6451
▁기조	-6452
▁멸종	-6453
▁스러	-6454
▁방정식	-6455
▁해역	-6456
▁판매량	-6457
▁펀드	-6458
▁하원	-6459
▁뮌	-6460
▁귀촌	-6461
▁포켓	-6462
▁맘	-6463
페이	-6464
▁논산	-6465
▁대단	-6466
▁지휘자	-6467
▁프로그래	-6468
▁천사	-6469
▁행사장	-6470
▁흙	-6471
▁니스	-6472
▁불어	-6473
▁지혜	-6474
▁후쿠오카	-6475
▁그간	-6476
▁닛	-6477
▁기분	-6478
▁상수도	-6479
▁시카고	-6480
▁비스	-6481
▁송악	-6482
▁연동	-6483
▁중추	-6484
▁출석	-6485
▁행렬	-6486
▁공감대	-6487
본부	-6488
▁세요	-6489
▁알코	-6490
▁커버	-6491
▁2030	-6492
▁뭉	-6493
▁준우	-6494
아티아	-6495
▁나들목	-6496
▁유니폼	-6497
▁여겨진다	-6498
▁크로아티아	-6499
▁갈수록	-6500
▁개인전	-6501
▁자이언	-6502
▁포항시	-6503
보이	-6504
틀러	-6505
▁높일	-6506
▁시흥	-6507
ob	-6508
▁MC	-6509
▁대왕	-6510
▁저술	-6511
▁풀이	-6512
▁뻗	-6513
▁김명	-6514
▁심한	-6515
▁1959	-6516
포터	-6517
▁셋째	-6518
▁옮기	-6519
▁횟수	-6520
▁노하우	-6521
▁피고인	-6522
▁나타낸다	-6523
레옹	-6524
행위	-6525
▁라스	-6526
▁패턴	-6527
▁하인	-6528
▁현직	-6529
▁1952	-6530
▁대공	-6531
▁시마	-6532
▁펠리	-6533
라이언	-6534
▁112	-6535
▁텍사스	-6536
SI	-6537
▁여름철	-6538
▁성실	-6539
▁포토	-6540
▁나폴레옹	-6541
▁최저임금	-6542
▁턱	-6543
▁납품	-6544
▁면천	-6545
▁박성	-6546
의정	-6547
▁신재	-6548
▁재즈	-6549
40	-6550
▁레알	-6551
▁산정	-6552
▁열매	-6553
▁염색	-6554
▁패스	-6555
▁닝	-6556
지부	-6557
ttp	-6558
▁빨간	-6559
▁안쪽	-6560
▁언덕	-6561
▁신세계	-6562
▁축구단	-6563
▁닮	-6564
▁http	-6565
▁JT	-6566
▁강행	-6567
▁김광	-6568
▁내수	-6569
▁강경	-6570
▁면담	-6571
▁무죄	-6572
▁우울	-6573
▁탄압	-6574
무르	-6575
▁농사	-6576
▁심하	-6577
▁전투기	-6578
▁무력	-6579
▁부재	-6580
▁충실	-6581
▁나뉜다	-6582
▁엽	-6583
▁회화	-6584
▁책임자	-6585
▁휠	-6586
▁양측	-6587
▁정세	-6588
▁렀다	-6589
▁슈팅	-6590
코스	-6591
▁공무	-6592
▁담보	-6593
▁모래	-6594
▁모빌	-6595
▁캄보	-6596
▁뛰어나	-6597
▁토양	-6598
▁원단	-6599
▁퇴직	-6600
▁김영록	-6601
다니	-6602
원군	-6603
출산	-6604
▁고백	-6605
▁다짐	-6606
▁단절	-6607
▁원주민	-6608
나타	-6609
하이	-6610
▁누가	-6611
▁선로	-6612
▁알레	-6613
▁에르	-6614
▁인센	-6615
▁프랑크	-6616
▁고등학생	-6617
▁인센티브	-6618
▁가설	-6619
▁수천	-6620
▁입시	-6621
▁증정	-6622
▁진지	-6623
▁인문학	-6624
▁최소한	-6625
▁테니스	-6626
▁스타디움	-6627
▁걸려	-6628
▁도박	-6629
▁루스	-6630
▁KTX	-6631
▁이룬다	-6632
▁트레이	-6633
프리	-6634
▁절실	-6635
▁유소년	-6636
▁초등학생	-6637
▁SS	-6638
▁연패	-6639
▁평일	-6640
▁부의장	-6641
▁센트럴	-6642
▁영원	-6643
▁이인	-6644
▁일반인	-6645
▁州	-6646
▁챌	-6647
타이	-6648
▁가나	-6649
▁공략	-6650
▁중독	-6651
▁체크	-6652
▁이어진	-6653
▁재판소	-6654
▁동아시아	-6655
▁안전사고	-6656
▁꾀	-6657
▁금연	-6658
▁대조	-6659
▁시트	-6660
▁지분	-6661
▁독일군	-6662
▁비정규	-6663
▁계명	-6664
▁색깔	-6665
▁주역	-6666
▁코트	-6667
▁싫	-6668
메이	-6669
▁수주	-6670
▁최후	-6671
▁친절	-6672
▁명의	-6673
▁파르	-6674
▁일으켜	-6675
▁밀리	-6676
▁스승	-6677
▁영덕	-6678
▁풍성	-6679
▁외국어	-6680
▁부평	-6681
▁이지	-6682
▁준수	-6683
▁평안	-6684
▁우리나라	-6685
BA	-6686
▁턴	-6687
타리	-6688
▁도쿠	-6689
▁시집	-6690
▁채무	-6691
▁1910	-6692
▁교리	-6693
▁서술	-6694
▁여유	-6695
▁오프라인	-6696
▁NC	-6697
▁중복	-6698
▁클레	-6699
▁공기업	-6700
▁준우승	-6701
▁힘입	-6702
▁나주시	-6703
▁나타난	-6704
▁접한다	-6705
이센	-6706
ard	-6707
▁달아	-6708
▁대금	-6709
▁사직	-6710
▁상정	-6711
▁상환	-6712
▁중재	-6713
▁후성	-6714
▁김재정	-6715
▁든지	-6716
▁애초	-6717
▁사각지대	-6718
▁꼴	-6719
▁매진	-6720
▁스펙	-6721
▁알프	-6722
▁다각	-6723
▁등산	-6724
▁콜라	-6725
▁157	-6726
▁이어진다	-6727
▁검거	-6728
▁빠진	-6729
▁원고	-6730
▁디스크	-6731
▁리더십	-6732
시오	-6733
▁권영	-6734
▁문구	-6735
60	-6736
▁늘려	-6737
▁자영	-6738
▁체인	-6739
▁152	-6740
▁라면서	-6741
▁스페셜	-6742
▁사무총장	-6743
DP	-6744
▁#	-6745
날레	-6746
▁생생	-6747
▁키워	-6748
체스터	-6749
▁늘어났	-6750
▁브라운	-6751
▁캄보디아	-6752
니즘	-6753
대부	-6754
어지	-6755
▁In	-6756
▁가난	-6757
▁신중	-6758
▁이목	-6759
▁tvN	-6760
▁힙	-6761
로지	-6762
▁남겨	-6763
▁무등	-6764
▁서경	-6765
동생	-6766
▁VR	-6767
▁관행	-6768
▁신사	-6769
▁흡연	-6770
▁꼽힌다	-6771
▁자회사	-6772
▁타이거즈	-6773
▁다케	-6774
▁분당	-6775
▁영천	-6776
▁특급	-6777
▁사이버	-6778
▁유연	-6779
▁철강	-6780
▁풋	-6781
▁검출	-6782
▁에듀	-6783
▁기념사업	-6784
▁西	-6785
저스	-6786
▁수년	-6787
▁습관	-6788
▁연소	-6789
▁챌린	-6790
▁흰색	-6791
▁1943	-6792
▁사도	-6793
▁장난	-6794
▁제이	-6795
▁투기	-6796
▁비정규직	-6797
▁고사	-6798
▁수색	-6799
▁유한	-6800
▁지검	-6801
▁벌어졌	-6802
▁1955	-6803
구리	-6804
▁당대	-6805
▁마일	-6806
▁시원	-6807
▁임재	-6808
▁특별히	-6809
▁비대	-6810
▁빌리	-6811
▁원로	-6812
▁주축	-6813
▁단체전	-6814
▁데이비드	-6815
올린	-6816
▁농작	-6817
▁러브	-6818
▁방과	-6819
▁색상	-6820
▁경제학	-6821
▁노동부	-6822
▁현수막	-6823
▁갤럭	-6824
▁살려	-6825
▁여인	-6826
▁파란	-6827
▁한강	-6828
▁냄	-6829
규상	-6830
▁농지	-6831
▁새끼	-6832
▁수령	-6833
▁수습	-6834
▁유고	-6835
▁제작진	-6836
▁고성	-6837
▁공용	-6838
▁사관	-6839
▁좌파	-6840
▁천시	-6841
▁음악가	-6842
▁전문학교	-6843
TV	-6844
▁도요	-6845
▁포상	-6846
▁기숙사	-6847
ak	-6848
▁레저	-6849
▁소셜	-6850
▁엔지	-6851
▁165	-6852
바다	-6853
▁얼음	-6854
▁체류	-6855
▁AFC	-6856
▁갤럭시	-6857
▁공격수	-6858
▁알코올	-6859
▁오디션	-6860
▁1942	-6861
▁콘스탄티	-6862
▁가계	-6863
▁고추	-6864
▁누군	-6865
▁동방	-6866
▁심포	-6867
▁통로	-6868
80	-6869
IN	-6870
▁長	-6871
▁랭킹	-6872
▁삼진	-6873
▁제보	-6874
▁카자	-6875
▁수비수	-6876
▁낚	-6877
▁CO	-6878
▁강전	-6879
▁동상	-6880
▁저출산	-6881
세자	-6882
▁수명	-6883
▁중립	-6884
마니아	-6885
▁소재지	-6886
▁유형문화재	-6887
▁뱀	-6888
▁미흡	-6889
▁상자	-6890
▁클린	-6891
▁함유	-6892
▁쇼핑몰	-6893
▁평론가	-6894
▁1957	-6895
▁포착	-6896
▁기업체	-6897
▁재정부	-6898
▁닉	-6899
▁상세	-6900
▁짜리	-6901
▁통학	-6902
▁the	-6903
▁매립지	-6904
▁디자이너	-6905
무소	-6906
▁법학	-6907
▁재임	-6908
▁조류	-6909
▁조용	-6910
▁허락	-6911
▁마르크스	-6912
▁메르	-6913
▁물려	-6914
▁소환	-6915
▁오이	-6916
▁오카	-6917
▁전이	-6918
▁전임	-6919
▁드러냈	-6920
▁양육	-6921
▁추산	-6922
▁흥행	-6923
▁홋카이도	-6924
▁μ	-6925
▁방언	-6926
▁부리	-6927
▁열릴	-6928
▁릴레이	-6929
▁자책점	-6930
▁램	-6931
▁벚	-6932
다란	-6933
▁교량	-6934
▁만성	-6935
▁안토	-6936
베스	-6937
▁판타	-6938
▁챔피언십	-6939
▁校	-6940
▁신생	-6941
▁확진	-6942
▁고속도	-6943
▁조지아	-6944
▁無	-6945
아리	-6946
의회	-6947
▁수거	-6948
▁SM	-6949
▁가전	-6950
▁기점	-6951
▁들려	-6952
▁입상	-6953
▁선착순	-6954
사관	-6955
▁영예	-6956
▁이병	-6957
시스코	-6958
▁161	-6959
▁감자	-6960
▁끈다	-6961
▁산악	-6962
▁업자	-6963
▁인건	-6964
▁추방	-6965
▁패널	-6966
▁겨우	-6967
▁교역	-6968
▁보살	-6969
▁승용	-6970
레이터	-6971
▁돌아갔	-6972
▁우크라이나	-6973
▁갑작	-6974
▁속해	-6975
▁안팎	-6976
▁어두	-6977
▁참사	-6978
▁탐구	-6979
져야	-6980
트롤	-6981
▁놓여	-6982
▁대덕	-6983
▁원조	-6984
▁통영	-6985
▁티베	-6986
▁한미	-6987
▁베토	-6988
▁세로	-6989
▁였을	-6990
▁입대	-6991
▁한우	-6992
▁인건비	-6993
슬러	-6994
이치	-6995
▁DM	-6996
▁계좌	-6997
▁근절	-6998
소연	-6999
▁기차	-7000
▁쓰여	-7001
▁중개	-7002
▁들어선	-7003
▁비서관	-7004
▁에이스	-7005
AR	-7006
센트	-7007
▁오해	-7008
▁수차례	-7009
어진	-7010
▁가중	-7011
▁끼리	-7012
▁미용	-7013
▁소금	-7014
▁열기	-7015
▁드래프트	-7016
▁뤼	-7017
▁밀착	-7018
▁박재	-7019
▁세자	-7020
▁안방	-7021
▁일행	-7022
▁태종	-7023
▁합계	-7024
▁첩	-7025
▁AP	-7026
▁동지	-7027
▁외곽	-7028
▁신한	-7029
▁위로	-7030
▁집필	-7031
▁쿼	-7032
가니	-7033
▁관절	-7034
▁내장	-7035
▁명목	-7036
▁영감	-7037
▁인치	-7038
▁페어	-7039
▁LED	-7040
▁로맨스	-7041
▁상황실	-7042
어트	-7043
▁신평	-7044
▁일컫	-7045
▁지지율	-7046
▁태극기	-7047
▁하여금	-7048
▁곰	-7049
▁압축	-7050
▁부산광역시	-7051
긴다	-7052
▁견학	-7053
▁결산	-7054
▁찰스	-7055
▁추격	-7056
▁교통안전	-7057
▁|	-7058
▁감면	-7059
▁거버	-7060
▁매개	-7061
▁몰리	-7062
▁오세	-7063
▁김일성	-7064
▁지나치	-7065
▁x	-7066
바르	-7067
▁꿈꾸	-7068
▁낮추	-7069
▁당은	-7070
▁분화	-7071
▁수련	-7072
▁사거리	-7073
▁댐	-7074
▁우라	-7075
▁존경	-7076
▁금요일	-7077
▁베토벤	-7078
▁프로이센	-7079
▁관문	-7080
▁느꼈	-7081
▁연승	-7082
▁원료	-7083
▁1951	-7084
▁펑	-7085
에른	-7086
▁지청	-7087
▁시너지	-7088
나마	-7089
▁과수	-7090
▁때로	-7091
▁쉬운	-7092
▁신도	-7093
▁우회	-7094
▁정조	-7095
▁주사	-7096
▁윤규상	-7097
▁일으킨	-7098
▁문예	-7099
▁사명	-7100
▁심해	-7101
▁원도	-7102
▁유배	-7103
▁전무	-7104
▁중고	-7105
▁나타냈	-7106
▁JTBC	-7107
▁엿	-7108
소시	-7109
▁데려	-7110
▁보르	-7111
▁센서	-7112
▁역세	-7113
▁폭격	-7114
▁살아남	-7115
▁의약품	-7116
▁사회단체	-7117
ine	-7118
▁대동	-7119
▁쇠퇴	-7120
▁작위	-7121
▁출하	-7122
▁학력	-7123
▁139	-7124
▁붐	-7125
▁기생	-7126
▁봉화	-7127
▁아예	-7128
▁우대	-7129
▁추기	-7130
▁164	-7131
▁구조물	-7132
▁결코	-7133
▁기각	-7134
▁동인	-7135
▁반전	-7136
▁자사	-7137
▁가르치	-7138
▁1900	-7139
▁UN	-7140
▁가짜	-7141
▁내포	-7142
▁박희	-7143
▁양질	-7144
▁환상	-7145
▁꿀	-7146
▁가와	-7147
▁민심	-7148
▁원천	-7149
▁자재	-7150
▁최악	-7151
배우	-7152
어로	-7153
▁일식	-7154
▁입체	-7155
▁추출	-7156
▁피트	-7157
▁취업자	-7158
IV	-7159
▁당내	-7160
▁예외	-7161
▁탁월	-7162
▁킨	-7163
▁벤치	-7164
▁송정	-7165
▁은데	-7166
▁중력	-7167
▁축적	-7168
▁1938	-7169
▁AR	-7170
▁고르	-7171
▁모인	-7172
▁함양	-7173
▁야구장	-7174
▁자영업	-7175
▁프랑스어	-7176
▁元	-7177
▁당연	-7178
▁투구	-7179
▁직장인	-7180
▁후계자	-7181
▁히어로	-7182
▁딸기	-7183
▁브로	-7184
▁출자	-7185
▁영남대	-7186
리케이션	-7187
▁김선	-7188
▁데스	-7189
▁리드	-7190
▁징수	-7191
▁나간다	-7192
ie	-7193
▁공신	-7194
▁스탈	-7195
▁승려	-7196
▁연애	-7197
▁조조	-7198
▁163	-7199
▁굉	-7200
▁톨	-7201
▁가끔	-7202
▁드물	-7203
▁석방	-7204
▁외치	-7205
▁코파	-7206
▁%)’	-7207
가루	-7208
▁쿠데	-7209
▁펼쳐지	-7210
▁GS	-7211
▁공백	-7212
▁링크	-7213
▁박은	-7214
▁연이	-7215
▁총무	-7216
▁적어도	-7217
▁주니어	-7218
ip	-7219
쿠스	-7220
▁더니	-7221
▁사당	-7222
▁조만	-7223
▁프랜	-7224
▁지방세	-7225
경원	-7226
넌스	-7227
▁낸다	-7228
▁번영	-7229
▁별다른	-7230
▁보이스	-7231
▁희생자	-7232
▁거버넌스	-7233
▁法	-7234
창군	-7235
▁기량	-7236
▁다행	-7237
▁미스	-7238
▁병역	-7239
▁창구	-7240
▁포식	-7241
▁항해	-7242
▁화상	-7243
▁각오	-7244
▁꾸며	-7245
▁서장	-7246
▁토너	-7247
베이스	-7248
▁아테네	-7249
▁국기	-7250
▁기한	-7251
▁측근	-7252
▁문화원	-7253
▁해운대	-7254
▁1936	-7255
▁1937	-7256
av	-7257
기부	-7258
▁견제	-7259
▁배웠	-7260
▁범주	-7261
▁아베	-7262
▁추대	-7263
▁102	-7264
▁게이트	-7265
▁테이블	-7266
▁국공	-7267
▁발병	-7268
▁주주	-7269
수산부	-7270
▁川	-7271
▁젖	-7272
▁녹지	-7273
▁동월	-7274
▁환원	-7275
▁바이에른	-7276
▁실리	-7277
▁풍속	-7278
▁105	-7279
▁com	-7280
▁알고리	-7281
▁추기경	-7282
추어	-7283
▁모시	-7284
▁전승	-7285
▁콜롬	-7286
▁장기간	-7287
▁트레이드	-7288
▁곡선	-7289
▁공문	-7290
▁규격	-7291
▁운수	-7292
▁초록	-7293
▁급격히	-7294
▁노무현	-7295
▁들어갈	-7296
▁세워졌	-7297
퍼니	-7298
▁꼽히	-7299
▁미시	-7300
▁아인	-7301
▁태조	-7302
▁늑	-7303
▁떠난	-7304
▁여지	-7305
▁의류	-7306
▁156	-7307
▁구제역	-7308
▁드래곤	-7309
▁남아프리카	-7310
▁도우	-7311
▁사연	-7312
▁여사	-7313
▁루수	-7314
▁새겨	-7315
▁175	-7316
▁동성애	-7317
▁루마니아	-7318
▁자본주의	-7319
▁해양수산부	-7320
▁서면	-7321
▁한양	-7322
▁중국어	-7323
▁리조	-7324
▁베드	-7325
▁진격	-7326
▁탐색	-7327
▁욕구	-7328
▁176	-7329
▁이스트	-7330
▁대승	-7331
▁숙종	-7332
▁외무	-7333
▁원수	-7334
드라마	-7335
▁머물렀	-7336
▁연구회	-7337
▁연주자	-7338
▁알고리즘	-7339
▁SP	-7340
▁백인	-7341
▁수직	-7342
▁폭넓	-7343
▁145	-7344
▁즐거움	-7345
▁부속	-7346
▁계열사	-7347
▁오리지	-7348
으로	-7349
▁상역	-7350
▁왕비	-7351
▁전도	-7352
▁쿠데타	-7353
▁太	-7354
스팅	-7355
▁레지	-7356
▁서산시	-7357
▁CJ	-7358
▁발판	-7359
▁자마	-7360
▁황후	-7361
▁컴퍼니	-7362
▁버린	-7363
▁장로	-7364
▁정규직	-7365
▁즐거운	-7366
▁대답	-7367
▁무슨	-7368
레나	-7369
진영	-7370
하여	-7371
all	-7372
▁고수	-7373
▁금품	-7374
▁대북	-7375
▁버려	-7376
▁보드	-7377
▁자제	-7378
▁크라	-7379
허가	-7380
▁불거	-7381
▁응모	-7382
▁9000	-7383
▁튼	-7384
▁고인	-7385
▁도립	-7386
▁액체	-7387
▁영혼	-7388
▁해발	-7389
▁봇	-7390
미야	-7391
▁學校	-7392
▁권유	-7393
▁여파	-7394
▁토리	-7395
▁AC	-7396
▁고가	-7397
▁정자	-7398
▁토론토	-7399
ue	-7400
▁다중	-7401
▁뮌헨	-7402
▁굽	-7403
▁Re	-7404
▁채워	-7405
▁누군가	-7406
▁예정자	-7407
▁감리	-7408
▁난다	-7409
▁모의	-7410
▁신비	-7411
▁이렇	-7412
▁대상지	-7413
▁합격자	-7414
공원	-7415
▁PD	-7416
▁빌려	-7417
▁이은	-7418
▁전대	-7419
▁조세	-7420
▁컨트롤	-7421
▁엔지니어	-7422
th	-7423
밀리	-7424
▁불량	-7425
▁빠졌	-7426
▁선행	-7427
▁필름	-7428
▁분명히	-7429
멘트	-7430
▁그날	-7431
▁습격	-7432
▁불가리아	-7433
▁팅	-7434
▁감옥	-7435
▁입당	-7436
▁화가	-7437
▁리조트	-7438
▁리처	-7439
▁본명	-7440
▁부자	-7441
▁어른	-7442
▁여신	-7443
▁왕복	-7444
▁특집	-7445
▁학계	-7446
▁1935	-7447
▁아마추어	-7448
▁동굴	-7449
▁시호	-7450
▁이태	-7451
▁클로	-7452
▁노동당	-7453
▁대책위	-7454
▁장승주	-7455
▁바이올린	-7456
▁해수욕장	-7457
▁교복	-7458
▁기쁨	-7459
▁뒤집	-7460
▁명백	-7461
▁바닷	-7462
▁반성	-7463
▁수반	-7464
▁신동	-7465
▁1914	-7466
▁벤트	-7467
▁복사	-7468
▁암컷	-7469
▁왕후	-7470
▁원은	-7471
▁자진	-7472
▁정교회	-7473
▁오리지널	-7474
▁닷	-7475
성기	-7476
▁궁전	-7477
▁단층	-7478
▁명사	-7479
▁성사	-7480
▁레이스	-7481
▁이어서	-7482
▁플랫폼	-7483
리칸	-7484
▁두루	-7485
▁전진	-7486
ss	-7487
▁北	-7488
▁멈추	-7489
▁전한	-7490
▁지장	-7491
▁첫날	-7492
▁친선	-7493
▁LPG	-7494
▁교향곡	-7495
▁사우스	-7496
악단	-7497
▁선별	-7498
▁종로	-7499
폴리스	-7500
▁SUV	-7501
▁중공업	-7502
석기	-7503
▁리듬	-7504
▁양수	-7505
▁장미	-7506
데이트	-7507
▁보좌관	-7508
▁파키스탄	-7509
▁렉	-7510
▁모듈	-7511
▁수위	-7512
▁영조	-7513
▁포드	-7514
▁서포터	-7515
▁럭	-7516
▁부제	-7517
▁영리	-7518
▁154	-7519
▁문화예술	-7520
▁스테이션	-7521
▁업데이트	-7522
클리	-7523
▁MV	-7524
▁디아	-7525
▁목재	-7526
▁잠정	-7527
▁택지	-7528
▁호조	-7529
▁메트로	-7530
▁연예인	-7531
리학	-7532
▁시체	-7533
▁우산	-7534
레이크	-7535
▁올스타	-7536
▁창업자	-7537
▁훔	-7538
나와	-7539
▁교양	-7540
▁르노	-7541
민주당	-7542
바이트	-7543
▁매출액	-7544
▁히틀러	-7545
▁이뤄지지	-7546
▁틴	-7547
▁급제	-7548
▁남원	-7549
▁야스	-7550
▁제휴	-7551
▁치킨	-7552
▁172	-7553
▁창원시	-7554
▁Al	-7555
▁US	-7556
▁메가	-7557
▁방제	-7558
▁벨라	-7559
▁재미있	-7560
▁자이언츠	-7561
과이	-7562
석준	-7563
▁비엔	-7564
▁성숙	-7565
▁소생	-7566
▁에다	-7567
▁위법	-7568
독부	-7569
ice	-7570
▁부각	-7571
▁부유	-7572
▁중위	-7573
▁획기	-7574
▁개막식	-7575
▁1932	-7576
▁걸렸	-7577
▁구인	-7578
▁연루	-7579
▁이진	-7580
▁남해안	-7581
구치	-7582
▁개칭	-7583
▁반경	-7584
▁유료	-7585
▁필라	-7586
▁메이커	-7587
▁사이클	-7588
▁연구자	-7589
▁캘리포니아주	-7590
▁엇	-7591
▁흩	-7592
▁빅토	-7593
▁사면	-7594
▁수구	-7595
▁앤드	-7596
▁양주	-7597
▁의상	-7598
▁이뤘	-7599
▁정한	-7600
▁칠레	-7601
퍼런스	-7602
▁블로그	-7603
▁빌보드	-7604
OP	-7605
▁IS	-7606
▁고품	-7607
▁동학	-7608
▁지칭	-7609
▁CEO	-7610
러져	-7611
▁메리	-7612
▁부도	-7613
▁중시	-7614
▁처방	-7615
▁칭호	-7616
▁한도	-7617
대식	-7618
▁구사	-7619
▁뱅크	-7620
▁앞선	-7621
▁당나라	-7622
▁1918	-7623
슬링	-7624
▁강소	-7625
▁베리	-7626
▁중장	-7627
▁평년	-7628
슈타인	-7629
▁168	-7630
▁개막전	-7631
▁다지	-7632
▁벚꽃	-7633
▁분담	-7634
▁청송	-7635
▁125	-7636
▁수시로	-7637
▁히로시마	-7638
▁신흥	-7639
▁화합물	-7640
▁끊임없이	-7641
TS	-7642
▁딘	-7643
모니	-7644
인물	-7645
▁개회	-7646
▁납치	-7647
▁라우	-7648
▁발렌	-7649
▁상향	-7650
▁성금	-7651
▁핑크	-7652
멘터리	-7653
▁사이드	-7654
▁인디언	-7655
▁티베트	-7656
▁펠리페	-7657
리그	-7658
▁모노	-7659
▁모음	-7660
▁서정	-7661
▁채권	-7662
▁카스	-7663
▁토트	-7664
드리히	-7665
▁다이빙	-7666
▁커다란	-7667
▁여선	-7668
▁옹호	-7669
▁용산	-7670
▁153	-7671
▁시공사	-7672
▁닐	-7673
▁떠오르	-7674
▁마라톤	-7675
토스	-7676
▁경매	-7677
▁맞대	-7678
▁채취	-7679
관광	-7680
흥민	-7681
▁낭비	-7682
▁도미	-7683
▁킬로	-7684
▁문학상	-7685
▁어워드	-7686
▁크리스마스	-7687
즈니	-7688
▁제네	-7689
▁151	-7690
▁프랑스군	-7691
▁光	-7692
▁비닐	-7693
▁정동	-7694
위원회	-7695
고속도로	-7696
▁에드워드	-7697
미르	-7698
▁전한다	-7699
▁프레임	-7700
어져	-7701
▁or	-7702
▁맞춘	-7703
▁미얀	-7704
▁순찰	-7705
▁토스	-7706
▁행하	-7707
▁협박	-7708
▁경주시	-7709
▁프리드리히	-7710
마르	-7711
▁반지	-7712
▁스님	-7713
▁직선	-7714
▁북서쪽	-7715
▁포켓몬	-7716
▁짙	-7717
ell	-7718
▁경위	-7719
▁경진	-7720
▁다큐멘터리	-7721
티오	-7722
▁게르	-7723
▁누릴	-7724
▁동래	-7725
▁잭슨	-7726
▁포크	-7727
▁회동	-7728
▁응답자	-7729
▁이순신	-7730
▁공청	-7731
▁크림	-7732
▁360	-7733
▁돔	-7734
▁08	-7735
▁여진	-7736
▁불어넣	-7737
테스	-7738
▁공룡	-7739
▁구로	-7740
▁포괄	-7741
▁안타까	-7742
▁맨체스터	-7743
▁스페이스	-7744
▁石	-7745
▁굵	-7746
훈련	-7747
▁남긴	-7748
▁목성	-7749
▁민법	-7750
▁이와	-7751
매매	-7752
▁별개	-7753
▁불꽃	-7754
▁중성	-7755
총독부	-7756
▁조선총독부	-7757
▁논평	-7758
▁무궁	-7759
▁이력	-7760
▁펼칠	-7761
▁활기	-7762
▁미생물	-7763
바키아	-7764
▁손흥민	-7765
▁카자흐	-7766
▁日	-7767
원경	-7768
전력	-7769
▁극심	-7770
▁삭감	-7771
▁인성	-7772
▁출현	-7773
셉트	-7774
▁마인	-7775
▁소극	-7776
▁승지	-7777
▁치과	-7778
▁피터	-7779
▁해변	-7780
▁승무원	-7781
▁연세대	-7782
▁편의점	-7783
▁댓	-7784
▁미칠	-7785
▁사육	-7786
▁쿠바	-7787
▁헤드	-7788
▁부총리	-7789
▁선보일	-7790
▁토너먼트	-7791
▁바우	-7792
▁오인	-7793
▁원시	-7794
▁평범	-7795
▁전동차	-7796
▁간편	-7797
▁곤란	-7798
▁굉장	-7799
▁글씨	-7800
▁즐겁	-7801
▁차종	-7802
▁127	-7803
▁기술력	-7804
▁대전시	-7805
▁正	-7806
유예	-7807
▁데리	-7808
▁수돗	-7809
▁167	-7810
▁성폭력	-7811
일스	-7812
▁강렬	-7813
▁둘레	-7814
▁독일어	-7815
▁상대방	-7816
PS	-7817
if	-7818
베리	-7819
▁경부	-7820
▁번식	-7821
▁부합	-7822
▁상류	-7823
▁수감	-7824
▁이준	-7825
▁일조	-7826
▁입문	-7827
▁자마자	-7828
▁퀘	-7829
▁르네	-7830
▁세균	-7831
▁순조	-7832
▁열사	-7833
▁유신	-7834
▁이장	-7835
▁토로	-7836
▁청양군	-7837
은이	-7838
▁JR	-7839
▁실전	-7840
▁보행자	-7841
▁조속히	-7842
▁1933	-7843
RI	-7844
▁격파	-7845
▁동산	-7846
▁벌인	-7847
▁시술	-7848
▁북동쪽	-7849
▁승용차	-7850
▁지지자	-7851
▁윙	-7852
ong	-7853
▁감수	-7854
▁동점	-7855
▁힙합	-7856
▁155	-7857
▁수돗물	-7858
▁돼지고기	-7859
ne	-7860
▁뻔	-7861
온다	-7862
▁NA	-7863
▁공과	-7864
▁수요자	-7865
▁최우선	-7866
▁장병	-7867
▁주먹	-7868
▁취임식	-7869
사르	-7870
▁레스	-7871
▁음모	-7872
▁증액	-7873
▁연면적	-7874
▁잠수함	-7875
▁사우루스	-7876
제국	-7877
▁강서	-7878
▁공존	-7879
▁미쳤	-7880
▁바퀴	-7881
▁악장	-7882
▁전향	-7883
▁콜로	-7884
▁103	-7885
▁神	-7886
▁템	-7887
▁들이	-7888
▁불화	-7889
▁상설	-7890
▁정문	-7891
▁척추	-7892
▁스탈린	-7893
▁대위	-7894
▁발송	-7895
▁성황	-7896
▁아틀	-7897
▁전교	-7898
▁현존	-7899
▁썬	-7900
▁기종	-7901
▁대호	-7902
▁무형	-7903
▁벡터	-7904
▁산타	-7905
▁정재	-7906
▁게시판	-7907
▁유대인	-7908
▁딴	-7909
▁거제	-7910
▁날짜	-7911
▁대국	-7912
▁트레	-7913
▁135	-7914
▁라틴어	-7915
▁붓	-7916
▁리아	-7917
▁바뀐	-7918
▁박탈	-7919
▁사라졌	-7920
▁취리히	-7921
▁딩	-7922
▁과실	-7923
▁점심	-7924
▁고령화	-7925
▁운동가	-7926
▁村	-7927
▁랄	-7928
높이	-7929
▁고스	-7930
▁수분	-7931
▁갑작스	-7932
▁토트넘	-7933
사전	-7934
▁강등	-7935
▁고고	-7936
▁마그	-7937
▁만료	-7938
▁승차	-7939
베르크	-7940
▁발대식	-7941
▁심리학	-7942
▁院	-7943
느리	-7944
▁De	-7945
▁용이	-7946
소시엄	-7947
▁166	-7948
▁사업소	-7949
▁좋아하	-7950
▁컨소시엄	-7951
▁내주	-7952
▁박장	-7953
▁선형	-7954
▁정관	-7955
▁조업	-7956
▁종자	-7957
▁탐험	-7958
래프트	-7959
▁데이터베이스	-7960
랑이	-7961
▁01	-7962
▁골자	-7963
▁보충	-7964
▁본토	-7965
▁놀이터	-7966
▁바람직	-7967
▁파운드	-7968
▁義	-7969
▁껍	-7970
가시	-7971
널드	-7972
법인	-7973
igh	-7974
▁SW	-7975
▁가칭	-7976
▁공판	-7977
▁교대	-7978
▁일보	-7979
▁탈당	-7980
▁해경	-7981
▁1929	-7982
2,	-7983
▁Ar	-7984
▁가벼	-7985
키스	-7986
▁st	-7987
▁낭만	-7988
▁도매	-7989
▁소원	-7990
▁저조	-7991
▁칠곡	-7992
▁1923	-7993
▁첸	-7994
루미	-7995
외선	-7996
▁몰아	-7997
▁소관	-7998
베이터	-7999
▁가입자	-8000
▁인민군	-8001
▁깜짝	-8002
▁서남	-8003
▁야기	-8004
▁이경	-8005
▁정교	-8006
▁정립	-8007
크리트	-8008
▁프로세스	-8009
▁롬	-8010
▁폭풍	-8011
▁게스트	-8012
ub	-8013
▁洞	-8014
▁田	-8015
▁나쁜	-8016
▁믿음	-8017
▁서적	-8018
▁신혼	-8019
▁주가	-8020
▁함경	-8021
▁요코하마	-8022
▁촛	-8023
▁펌	-8024
▁다름	-8025
▁대여	-8026
▁가맹점	-8027
▁몫	-8028
무늬	-8029
주곡	-8030
▁나아	-8031
▁배열	-8032
▁별로	-8033
▁복선	-8034
▁부딪	-8035
▁아오	-8036
▁연중	-8037
▁웹툰	-8038
▁투스	-8039
▁퍼져	-8040
▁하사	-8041
▁중국인	-8042
▁2025	-8043
결승	-8044
제르	-8045
ill	-8046
▁CP	-8047
▁박쥐	-8048
▁수컷	-8049
▁이즈	-8050
▁입국	-8051
▁더욱이	-8052
▁월요일	-8053
▁郡	-8054
▁이관	-8055
▁이마	-8056
▁황태	-8057
▁수요일	-8058
▁집행부	-8059
▁태안군	-8060
공단	-8061
ant	-8062
▁생일	-8063
▁조수	-8064
▁증후	-8065
▁합법	-8066
▁상승세	-8067
▁임재업	-8068
▁조만간	-8069
▁1928	-8070
▁전해진다	-8071
▁人	-8072
숭이	-8073
▁반납	-8074
▁유수	-8075
▁리처드	-8076
▁베르크	-8077
▁운영비	-8078
▁임대료	-8079
▁강변	-8080
▁경신	-8081
▁누스	-8082
▁마찰	-8083
▁역과	-8084
ive	-8085
▁사막	-8086
▁서방	-8087
▁담당관	-8088
그레이드	-8089
▁대구은행	-8090
이다	-8091
▁정국	-8092
▁공청회	-8093
▁나경원	-8094
▁담양	-8095
▁신년	-8096
▁LNG	-8097
▁클라우드	-8098
▁업그레이드	-8099
ist	-8100
▁그냥	-8101
▁꼼꼼	-8102
▁단점	-8103
▁분배	-8104
▁서인	-8105
▁쓰였	-8106
▁앞당	-8107
시스트	-8108
테이너	-8109
▁교과서	-8110
▁상하이	-8111
▁스티븐	-8112
▁광주은행	-8113
원장	-8114
▁136	-8115
▁149	-8116
▁프레스	-8117
▁얇	-8118
재단	-8119
▁레닌	-8120
▁부두	-8121
▁아닐	-8122
▁조회	-8123
▁친정	-8124
▁해고	-8125
▁펼친다	-8126
▁피의자	-8127
▁수신	-8128
▁어항	-8129
▁증설	-8130
▁건설사	-8131
▁기울여	-8132
▁보건복	-8133
▁항소심	-8134
▁1931	-8135
▁軍	-8136
비히	-8137
▁낚시	-8138
▁도어	-8139
▁레벨	-8140
▁옛날	-8141
▁정계	-8142
▁톡톡	-8143
▁상대식	-8144
▁언제나	-8145
▁증후군	-8146
▁지휘관	-8147
▁판타지	-8148
▁한국전력	-8149
▁水	-8150
산리	-8151
▁렌즈	-8152
▁마땅	-8153
▁북극	-8154
▁스톤	-8155
▁아가	-8156
▁프랭	-8157
▁농작물	-8158
▁아세안	-8159
▁출입구	-8160
EA	-8161
▁툴	-8162
자키	-8163
프란	-8164
▁메탈	-8165
▁보령시	-8166
▁스미스	-8167
구장	-8168
퀘어	-8169
▁북방	-8170
▁사절	-8171
▁상부	-8172
▁애정	-8173
▁외면	-8174
▁초상	-8175
▁음식물	-8176
▁스트라이	-8177
▁프로그래밍	-8178
▁成	-8179
▁고무	-8180
▁아쉽	-8181
▁일곱	-8182
▁통역	-8183
▁확신	-8184
▁上	-8185
▁구직	-8186
▁돌리	-8187
▁익스	-8188
▁입건	-8189
▁보스턴	-8190
▁등장인물	-8191
IA	-8192
▁DJ	-8193
▁개업	-8194
▁뇌물	-8195
▁동경	-8196
▁범인	-8197
▁장단	-8198
▁포수	-8199
▁한성	-8200
베리아	-8201
▁교육장	-8202
▁엘리자	-8203
글스	-8204
으면	-8205
자유	-8206
▁개찰	-8207
▁인플	-8208
▁저널	-8209
▁111	-8210
▁아쉬움	-8211
▁활발히	-8212
▁오키나와	-8213
어내	-8214
▁파울	-8215
▁모른다	-8216
▁미얀마	-8217
▁아프가니	-8218
전지	-8219
▁개그	-8220
▁붙이	-8221
▁증축	-8222
▁블라디	-8223
IST	-8224
▁교정	-8225
▁모이	-8226
▁염증	-8227
▁이브	-8228
▁하버	-8229
▁밀라노	-8230
▁공구	-8231
▁벌여	-8232
▁보리	-8233
▁적립	-8234
▁조경	-8235
▁혈압	-8236
▁입주자	-8237
▁지켜보	-8238
▁그러므로	-8239
▁콘크리트	-8240
ER	-8241
▁갖췄	-8242
▁달빛	-8243
▁범어	-8244
▁성별	-8245
▁104	-8246
▁목포시	-8247
▁부시	-8248
▁우위	-8249
▁초미	-8250
▁회색	-8251
박스	-8252
위대	-8253
▁02	-8254
▁무늬	-8255
▁삽입	-8256
▁인체	-8257
▁장갑	-8258
▁한창	-8259
▁하노이	-8260
▁스트리트	-8261
▁끄	-8262
투아	-8263
▁개명	-8264
▁냄새	-8265
▁로고	-8266
▁면모	-8267
▁볼넷	-8268
▁위키	-8269
▁전념	-8270
▁채우	-8271
리우스	-8272
▁1922	-8273
▁보건복지부	-8274
▁끓	-8275
▁어릴	-8276
▁겨울철	-8277
▁구직자	-8278
▁평택시	-8279
▁아프가니스탄	-8280
▁컷	-8281
▁모험	-8282
▁시모	-8283
▁와중	-8284
▁조문	-8285
▁추후	-8286
▁코어	-8287
▁키스	-8288
▁동일본	-8289
▁폴리스	-8290
▁1925	-8291
▁고마	-8292
▁몰랐	-8293
▁박상	-8294
▁법조	-8295
▁봉기	-8296
▁정작	-8297
▁137	-8298
▁武	-8299
오리	-8300
▁간섭	-8301
▁기탁	-8302
▁로컬	-8303
▁보일	-8304
▁선원	-8305
▁일괄	-8306
▁모터스	-8307
▁미스터	-8308
▁1934	-8309
▁주권	-8310
▁가까워	-8311
▁건축가	-8312
▁부여군	-8313
▁어려울	-8314
▁마스터즈	-8315
▁저소득층	-8316
다고	-8317
레아	-8318
▁각계	-8319
▁다녔	-8320
▁분수	-8321
▁출구	-8322
▁이철우	-8323
▁동사	-8324
▁1921	-8325
부인	-8326
▁관세	-8327
▁벼슬	-8328
▁비극	-8329
▁월간	-8330
▁들어와	-8331
▁성매매	-8332
몬드	-8333
현실	-8334
ter	-8335
▁결실	-8336
▁고립	-8337
▁시외	-8338
베르트	-8339
▁나란히	-8340
▁쌍둥이	-8341
▁1924	-8342
MS	-8343
▁룩	-8344
▁기압	-8345
▁치러진	-8346
▁동남아시아	-8347
워하	-8348
▁일지	-8349
▁피로	-8350
▁주어진	-8351
MF	-8352
▁갓	-8353
기구	-8354
▁냉장	-8355
▁민국	-8356
▁벌써	-8357
▁서서	-8358
▁서재	-8359
▁이모	-8360
▁페루	-8361
▁144	-8362
▁147	-8363
▁권영진	-8364
▁선수촌	-8365
▁애플리케이션	-8366
▁◇	-8367
조건	-8368
타민	-8369
▁나노	-8370
▁시아	-8371
▁정진	-8372
▁174	-8373
▁구미시	-8374
▁모빌리티	-8375
▁테마파크	-8376
nd	-8377
▁각별	-8378
▁고안	-8379
▁구동	-8380
▁김희	-8381
▁답했	-8382
▁메카	-8383
▁유죄	-8384
▁이겨	-8385
▁잔류	-8386
▁좌절	-8387
▁후퇴	-8388
▁128	-8389
▁수목원	-8390
▁전라도	-8391
▁지나가	-8392
IC	-8393
▁세탁	-8394
▁시골	-8395
▁일명	-8396
▁퀴즈	-8397
▁106	-8398
▁남서쪽	-8399
레오	-8400
▁넘기	-8401
▁대입	-8402
▁뒤늦	-8403
▁미션	-8404
▁온실	-8405
▁파주	-8406
▁행태	-8407
라이트	-8408
▁계정	-8409
▁구례	-8410
▁네티	-8411
▁약한	-8412
페이스	-8413
▁에어컨	-8414
▁자유주의	-8415
▁남극	-8416
▁도정	-8417
▁우익	-8418
▁증기	-8419
▁증인	-8420
▁남동쪽	-8421
▁입주민	-8422
▁캐스팅	-8423
티스	-8424
▁대명	-8425
▁모로	-8426
▁봐야	-8427
▁시중	-8428
▁촛불	-8429
▁농기계	-8430
▁진천군	-8431
▁트랜스	-8432
▁플로리	-8433
▁仁	-8434
자원	-8435
▁고생	-8436
▁기용	-8437
▁기적	-8438
▁백운	-8439
▁실버	-8440
▁위축	-8441
▁탄탄	-8442
▁그만큼	-8443
▁샌프란	-8444
▁샌프란시스코	-8445
▁펄	-8446
▁SC	-8447
▁배급	-8448
▁보낼	-8449
▁역설	-8450
▁호르	-8451
▁라이벌	-8452
▁原	-8453
▁地	-8454
▁매칭	-8455
▁성취	-8456
▁플루	-8457
▁아메리칸	-8458
▁아르바이트	-8459
▁솜	-8460
▁Ne	-8461
▁세션	-8462
▁육지	-8463
▁이윤	-8464
▁행안	-8465
▁선교사	-8466
▁손가락	-8467
승부	-8468
정부	-8469
▁교내	-8470
▁맛있	-8471
▁일산	-8472
▁파손	-8473
▁형편	-8474
▁효력	-8475
▁조선인	-8476
▁이루어진다	-8477
▁府	-8478
일으	-8479
▁간판	-8480
▁글리	-8481
▁늑대	-8482
▁상수	-8483
▁지름	-8484
▁활동가	-8485
▁불러일으	-8486
▁씻	-8487
십자	-8488
운서	-8489
▁도당	-8490
▁서북	-8491
▁파장	-8492
▁부산대	-8493
▁그리스어	-8494
우치	-8495
▁원예	-8496
▁그리하여	-8497
▁아나운서	-8498
▁관현	-8499
▁역점	-8500
▁우체	-8501
▁해피	-8502
▁난민	-8503
▁민감	-8504
▁예배	-8505
▁전장	-8506
▁차선	-8507
▁충성	-8508
르기	-8509
▁신탁	-8510
▁중종	-8511
▁직면	-8512
▁레이저	-8513
▁안토니	-8514
▁연평균	-8515
▁장성군	-8516
▁준결승	-8517
se	-8518
▁IB	-8519
▁낭독	-8520
▁수법	-8521
▁142	-8522
▁됐으나	-8523
▁우즈베	-8524
▁시나리오	-8525
▁엘리베이터	-8526
▁구마	-8527
▁무패	-8528
▁배분	-8529
▁비아	-8530
▁이노	-8531
▁정점	-8532
▁증폭	-8533
▁네티즌	-8534
▁다가오	-8535
▁위안부	-8536
▁휴게소	-8537
타운	-8538
▁강구	-8539
▁라트	-8540
▁사신	-8541
▁우루	-8542
▁휘하	-8543
▁배우자	-8544
▁챌린지	-8545
▁주어진다	-8546
▁카자흐스탄	-8547
▁海	-8548
▁룰	-8549
균관	-8550
카르	-8551
▁내걸	-8552
▁사적	-8553
▁요미	-8554
▁지각	-8555
▁청동	-8556
▁하와	-8557
▁컨테이너	-8558
▁닦	-8559
▁가산	-8560
▁구해	-8561
▁단단	-8562
▁뜨겁	-8563
▁마산	-8564
▁위임	-8565
▁탱크	-8566
▁특혜	-8567
▁휘발	-8568
▁MVP	-8569
▁나눌	-8570
▁여가	-8571
▁임채	-8572
▁전복	-8573
▁토착	-8574
▁어려웠	-8575
▁*	-8576
▁노총	-8577
▁대두	-8578
▁버튼	-8579
▁언니	-8580
▁146	-8581
▁Cou	-8582
▁소나무	-8583
▁콜롬비아	-8584
▁근접	-8585
▁내다	-8586
▁디즈니	-8587
▁릭	-8588
▁관통	-8589
▁마비	-8590
▁모순	-8591
▁넘어가	-8592
▁중학생	-8593
▁출판사	-8594
▁도쿠가와	-8595
영향	-8596
▁SR	-8597
▁가려	-8598
▁격렬	-8599
▁몰래	-8600
▁양승	-8601
▁어선	-8602
▁차체	-8603
▁파동	-8604
▁가해자	-8605
▁성명서	-8606
▁해진다	-8607
▁事	-8608
est	-8609
▁부수	-8610
▁사카	-8611
▁서진	-8612
▁토마	-8613
▁220	-8614
▁거짓말	-8615
▁결혼식	-8616
▁장애인	-8617
▁1927	-8618
▁단과	-8619
▁에코	-8620
▁행해	-8621
▁성직자	-8622
IP	-8623
▁푼	-8624
악기	-8625
▁비로	-8626
▁사모	-8627
▁적색	-8628
▁트위	-8629
▁한쪽	-8630
▁그려져	-8631
▁왔으며	-8632
▁회원국	-8633
▁베네치아	-8634
▁09	-8635
▁배드	-8636
▁약탈	-8637
▁창간	-8638
▁책정	-8639
▁칭찬	-8640
▁138	-8641
▁대표단	-8642
▁세워진	-8643
▁의료진	-8644
네이	-8645
드라	-8646
연수	-8647
▁반해	-8648
▁음원	-8649
▁재선	-8650
▁제압	-8651
▁불안감	-8652
▁텔레콤	-8653
ib	-8654
▁착륙	-8655
▁출근	-8656
▁피스	-8657
ge	-8658
ph	-8659
ud	-8660
▁前	-8661
▁댓글	-8662
▁발원	-8663
▁사촌	-8664
▁좌익	-8665
▁지바	-8666
▁타원	-8667
▁페리	-8668
▁홍역	-8669
▁115	-8670
▁감염병	-8671
▁성균관	-8672
▁지중해	-8673
연구	-8674
▁독려	-8675
▁앞세	-8676
▁오빠	-8677
▁외식	-8678
▁이현	-8679
▁자면	-8680
▁보성군	-8681
▁갯	-8682
어리	-8683
▁HD	-8684
▁re	-8685
▁아픔	-8686
▁이토	-8687
▁무더위	-8688
▁DS	-8689
▁무예	-8690
▁이송	-8691
▁1907	-8692
▁07	-8693
▁김형	-8694
▁원서	-8695
▁주유	-8696
▁파생	-8697
▁피난	-8698
▁둘러보	-8699
▁검정	-8700
▁달린	-8701
▁내려가	-8702
▁서서히	-8703
2(	-8704
ae	-8705
▁띤	-8706
밀히	-8707
▁내정	-8708
▁농부	-8709
▁방탄	-8710
▁아크	-8711
▁어제	-8712
▁우유	-8713
▁유포	-8714
▁토벌	-8715
▁나이트	-8716
▁라인업	-8717
▁무거운	-8718
▁다목	-8719
▁로즈	-8720
▁수처	-8721
▁외관	-8722
▁파인	-8723
▁171	-8724
▁국민당	-8725
▁故	-8726
뉴얼	-8727
▁LA	-8728
▁농수	-8729
▁당뇨	-8730
▁실사	-8731
▁양도	-8732
▁진전	-8733
▁해질	-8734
▁현판	-8735
▁리버풀	-8736
▁망원경	-8737
▁광주시장	-8738
▁r	-8739
▁걸린	-8740
▁며칠	-8741
▁상점	-8742
▁최환	-8743
▁페널	-8744
▁폐업	-8745
▁한테	-8746
▁굉장히	-8747
▁기관차	-8748
▁책임지	-8749
야스	-8750
태우	-8751
▁진시	-8752
▁천재	-8753
▁체중	-8754
▁김정은	-8755
화문	-8756
▁규슈	-8757
▁실망	-8758
▁의거	-8759
▁할리	-8760
▁무궁화	-8761
마이	-8762
▁교감	-8763
▁단선	-8764
▁수평	-8765
▁워킹	-8766
▁필립	-8767
▁초미세	-8768
▁1917	-8769
▁왈	-8770
▁민사	-8771
▁안녕	-8772
▁주정	-8773
▁탐지	-8774
▁스피드	-8775
▁집행유예	-8776
RA	-8777
지수	-8778
▁GT	-8779
▁KD	-8780
▁권장	-8781
▁기르	-8782
▁꾸려	-8783
▁보석	-8784
▁풍상	-8785
▁하고	-8786
▁고흥군	-8787
▁일어날	-8788
▁각기	-8789
▁나리	-8790
▁남매	-8791
▁복용	-8792
▁확고	-8793
▁그래프	-8794
▁알아보	-8795
▁케이스	-8796
▁랜드마크	-8797
▁걸어	-8798
▁다다	-8799
▁담회	-8800
▁몰락	-8801
▁손꼽	-8802
▁양호	-8803
▁유키	-8804
▁정전	-8805
▁조형물	-8806
▁승계	-8807
▁싱어	-8808
▁유의	-8809
▁치른	-8810
▁크레	-8811
▁타카	-8812
▁필터	-8813
▁매수	-8814
▁부설	-8815
▁부흥	-8816
▁유교	-8817
▁의병	-8818
▁직결	-8819
▁계획서	-8820
조사	-8821
...	-8822
▁MS	-8823
▁SF	-8824
▁공채	-8825
▁근린	-8826
▁반입	-8827
▁우에	-8828
▁유방	-8829
▁출품	-8830
▁함평	-8831
▁현저	-8832
▁어울림	-8833
▁축산물	-8834
▁콘셉트	-8835
▁韓	-8836
▁물자	-8837
▁불참	-8838
▁여우	-8839
▁결과물	-8840
▁우연히	-8841
▁기수	-8842
▁분량	-8843
▁불명	-8844
▁영세	-8845
▁줄일	-8846
▁물러나	-8847
▁플로리다	-8848
▁옴	-8849
▁마틴	-8850
▁미루	-8851
▁소홀	-8852
▁수동	-8853
▁순차	-8854
▁아르메	-8855
▁최환준	-8856
슬로	-8857
시간	-8858
▁김장	-8859
▁농성	-8860
▁더라	-8861
▁소주	-8862
▁정황	-8863
▁조율	-8864
▁카리	-8865
▁107	-8866
▁트라이	-8867
▁프로토	-8868
느님	-8869
축구	-8870
▁남용	-8871
▁빈번	-8872
▁상사	-8873
▁예보	-8874
▁이리	-8875
▁자택	-8876
▁퇴임	-8877
▁소설가	-8878
▁1908	-8879
▁쥬	-8880
▁칩	-8881
▁시일	-8882
▁하얀	-8883
▁동남아	-8884
▁어두운	-8885
▁유고슬	-8886
▁철학자	-8887
▁유고슬라비아	-8888
MA	-8889
▁끊이	-8890
▁떠올	-8891
▁유비	-8892
▁홍수	-8893
테이션	-8894
▁122	-8895
▁득표율	-8896
▁하느님	-8897
▁아르메니아	-8898
▁기단	-8899
▁버지	-8900
▁소모	-8901
▁오를	-8902
▁정유	-8903
▁HIV	-8904
▁1926	-8905
돌프	-8906
수리	-8907
필드	-8908
▁가이	-8909
▁극동	-8910
▁기병	-8911
▁배움	-8912
▁성종	-8913
▁전작	-8914
▁후자	-8915
▁Sh	-8916
▁구민	-8917
▁상고	-8918
▁웨딩	-8919
▁114	-8920
▁청정기	-8921
▁홈경기	-8922
▁里	-8923
▁칙	-8924
런트	-8925
▁간사	-8926
▁농약	-8927
▁메타	-8928
▁복권	-8929
▁소폭	-8930
▁취미	-8931
테리어	-8932
▁는다면	-8933
▁무승부	-8934
▁아름답	-8935
▁킬로미터	-8936
▁벅	-8937
▁금고	-8938
▁도장	-8939
▁배송	-8940
▁세조	-8941
▁쇼군	-8942
▁식별	-8943
▁원격	-8944
▁침몰	-8945
▁여의도	-8946
▁1912	-8947
▁縣	-8948
식물	-8949
용수	-8950
▁가라	-8951
▁대치	-8952
▁도리	-8953
▁미추	-8954
▁샌드	-8955
▁성원	-8956
▁유격	-8957
▁유예	-8958
▁이색	-8959
▁다이아	-8960
▁덧붙여	-8961
▁인천광역시	-8962
▁얀	-8963
야수	-8964
준영	-8965
▁경감	-8966
▁도호	-8967
▁상한	-8968
▁수중	-8969
▁수혜	-8970
▁예매	-8971
▁일까	-8972
▁타선	-8973
▁테르	-8974
▁개발자	-8975
▁스퀘어	-8976
▁한나라	-8977
▁1905	-8978
▁子	-8979
▁남한	-8980
▁리치	-8981
▁미네	-8982
▁사내	-8983
▁선비	-8984
▁싸웠	-8985
▁아비	-8986
▁재위	-8987
▁저택	-8988
▁108	-8989
▁강력히	-8990
▁기념물	-8991
▁소각장	-8992
▁아름다움	-8993
▁한나라당	-8994
▁북아메리카	-8995
up	-8996
▁小	-8997
▁성지	-8998
▁신하	-8999
▁택배	-9000
▁트램	-9001
▁트윈	-9002
▁109	-9003
▁조석준	-9004
시피	-9005
▁막내	-9006
▁말라	-9007
▁상소	-9008
▁서천	-9009
▁호국	-9010
▁지부장	-9011
▁호기심	-9012
말로	-9013
▁공국	-9014
▁날카	-9015
▁사리	-9016
▁상표	-9017
▁전입	-9018
▁240	-9019
▁매뉴얼	-9020
▁유권자	-9021
▁은행장	-9022
ok	-9023
무관	-9024
▁Th	-9025
▁몬테	-9026
▁미주	-9027
▁밀양	-9028
▁배틀	-9029
▁주부	-9030
▁즐겨	-9031
▁직속	-9032
▁141	-9033
▁언론인	-9034
▁드라이브	-9035
▁랴	-9036
통일	-9037
▁내역	-9038
▁섬세	-9039
▁스터	-9040
▁123	-9041
▁주어지	-9042
▁인테리어	-9043
IS	-9044
▁인회	-9045
▁당연히	-9046
▁스토어	-9047
▁유가족	-9048
▁최상위	-9049
▁화성시	-9050
라리	-9051
▁괴롭	-9052
▁나비	-9053
▁대칭	-9054
▁이끈	-9055
▁희귀	-9056
▁시가지	-9057
자유구역	-9058
▁경제자유구역	-9059
▁거세	-9060
▁공전	-9061
▁관념	-9062
▁기해	-9063
▁명분	-9064
▁의자	-9065
▁장편	-9066
▁질의	-9067
▁최강	-9068
▁최영	-9069
▁포획	-9070
주군	-9071
▁기갑	-9072
▁엇갈	-9073
▁오일	-9074
▁필지	-9075
▁117	-9076
▁고양시	-9077
▁도마뱀	-9078
▁연고지	-9079
▁유니버	-9080
▁입장권	-9081
▁공수	-9082
▁등기	-9083
▁무제	-9084
▁베른	-9085
▁시연	-9086
▁왕가	-9087
▁일손	-9088
▁착한	-9089
▁여동생	-9090
▁원자로	-9091
▁스테이지	-9092
▁전통문화	-9093
데르	-9094
▁구비	-9095
▁급행	-9096
▁당당	-9097
▁서열	-9098
▁잔디	-9099
▁148	-9100
▁자부심	-9101
▁江	-9102
▁Le	-9103
▁설사	-9104
▁주파	-9105
▁169	-9106
▁동호인	-9107
▁정해진	-9108
▁하드웨어	-9109
ert	-9110
▁김인	-9111
▁베타	-9112
▁양현	-9113
▁장안	-9114
▁정종	-9115
▁프로모	-9116
▁해결책	-9117
▁깨닫	-9118
▁디오	-9119
▁발현	-9120
▁양보	-9121
▁예언	-9122
▁이를	-9123
▁저수	-9124
▁宗	-9125
서리	-9126
코프	-9127
ort	-9128
▁KO	-9129
▁구이	-9130
▁대목	-9131
▁도왔	-9132
▁무슬	-9133
▁여권	-9134
▁치아	-9135
▁하부	-9136
▁대의원	-9137
▁박장미	-9138
▁비타민	-9139
▁시행령	-9140
VD	-9141
▁가평	-9142
▁구강	-9143
▁난방	-9144
▁대령	-9145
▁중형	-9146
▁플레	-9147
▁해져	-9148
▁리투아	-9149
▁이산화	-9150
▁리투아니아	-9151
곡리	-9152
▁문법	-9153
▁염원	-9154
▁증평	-9155
▁최재	-9156
▁감사원	-9157
▁틸	-9158
게이	-9159
▁국산	-9160
▁드럼	-9161
▁신상	-9162
▁무슬림	-9163
▁어울리	-9164
▁이명박	-9165
▁지원자	-9166
▁不	-9167
▁땀	-9168
상스	-9169
▁문양	-9170
▁미카	-9171
▁빛나	-9172
▁소행	-9173
▁정산	-9174
▁초연	-9175
▁친척	-9176
▁해법	-9177
▁가벼운	-9178
▁교도소	-9179
무실	-9180
▁거북	-9181
▁결함	-9182
▁루프	-9183
▁박진	-9184
▁일리	-9185
▁정사	-9186
▁패전	-9187
▁황해	-9188
으므로	-9189
▁133	-9190
▁고품질	-9191
▁장거리	-9192
러미	-9193
▁깨달	-9194
▁로렌	-9195
▁매트	-9196
▁서문	-9197
▁칼리	-9198
▁국세청	-9199
어버	-9200
▁가뭄	-9201
▁광학	-9202
▁시뮬	-9203
▁예금	-9204
▁탁구	-9205
▁통근	-9206
▁혼잡	-9207
▁강수량	-9208
▁무조건	-9209
▁明	-9210
▁FM	-9211
▁KA	-9212
▁금성	-9213
▁분지	-9214
▁자생	-9215
▁박희중	-9216
▁방사선	-9217
▁◆	-9218
란트	-9219
▁AM	-9220
▁가볍	-9221
▁강동	-9222
▁바꾼	-9223
▁소아	-9224
▁저명	-9225
▁포용	-9226
▁간호사	-9227
▁들어설	-9228
▁사무국	-9229
▁크리에이	-9230
▁프로세서	-9231
▁귀환	-9232
▁버그	-9233
▁제의	-9234
▁존스	-9235
▁촉매	-9236
▁형법	-9237
▁골프장	-9238
▁배추	-9239
▁불신	-9240
▁성모	-9241
▁143	-9242
▁예술인	-9243
▁인터페이스	-9244
▁얽	-9245
주얼	-9246
▁민영	-9247
▁성전	-9248
▁추상	-9249
▁폭스	-9250
▁서해안	-9251
▁벽화	-9252
▁이광	-9253
▁이어받	-9254
▁하와이	-9255
▁忠	-9256
▁낱	-9257
▁맵	-9258
천동	-9259
▁동창	-9260
▁실체	-9261
▁윤정	-9262
▁전소	-9263
▁편곡	-9264
▁재건축	-9265
▁五	-9266
▁政	-9267
▁욱	-9268
▁나미	-9269
▁바흐	-9270
▁비단	-9271
▁열혈	-9272
▁정했	-9273
▁초빙	-9274
▁해인	-9275
▁멘토링	-9276
▁일어난다	-9277
▁白	-9278
▁과감	-9279
▁비틀	-9280
▁121	-9281
▁버지니아	-9282
▁龍	-9283
▁걸맞	-9284
▁디젤	-9285
▁반격	-9286
▁시에	-9287
▁안경	-9288
▁약칭	-9289
▁우세	-9290
▁후유	-9291
▁유성구	-9292
▁젊은이	-9293
▁크루즈	-9294
▁가톨릭교회	-9295
ck	-9296
▁≫	-9297
미아	-9298
▁〉(	-9299
▁가야	-9300
▁노비	-9301
▁사사	-9302
▁애인	-9303
▁유감	-9304
▁전례	-9305
▁조병	-9306
▁처우	-9307
▁침수	-9308
▁비평가	-9309
때로	-9310
지엄	-9311
▁관하	-9312
▁동국	-9313
▁동등	-9314
▁배운	-9315
▁빈곤	-9316
▁사흘	-9317
▁영문	-9318
▁오월	-9319
▁존슨	-9320
▁치명	-9321
▁파급	-9322
▁스케이	-9323
▁장례식	-9324
▁토마스	-9325
▁문화재청	-9326
▁심포지엄	-9327
텐도	-9328
▁방화	-9329
▁산출	-9330
▁성씨	-9331
▁닌텐도	-9332
▁우즈베키스탄	-9333
트럼	-9334
▁OS	-9335
▁끌려	-9336
▁스톱	-9337
▁전산	-9338
▁나폴리	-9339
▁계수	-9340
▁극본	-9341
▁문단	-9342
▁왕립	-9343
▁제치	-9344
▁113	-9345
▁450	-9346
▁이바지	-9347
▁주의자	-9348
▁치른다	-9349
▁뜰	-9350
▁단종	-9351
▁쓴다	-9352
▁이견	-9353
▁재고	-9354
▁키움	-9355
▁콘스탄티노	-9356
▁뽐	-9357
▁흠	-9358
렉스	-9359
시타	-9360
애나	-9361
카스	-9362
▁곡성	-9363
▁산다	-9364
▁천장	-9365
▁출토	-9366
▁118	-9367
▁직거래	-9368
▁하남시	-9369
▁세계유산	-9370
TO	-9371
▁뷔	-9372
조선	-9373
▁김규	-9374
▁샤를	-9375
▁외모	-9376
▁주방	-9377
럼비아	-9378
▁긴장감	-9379
▁논산시	-9380
▁케이블카	-9381
▁※	-9382
정원	-9383
one	-9384
▁저축	-9385
▁주립	-9386
▁칭하	-9387
▁경영자	-9388
▁다이묘	-9389
▁때때로	-9390
▁오디오	-9391
▁자신감	-9392
▁칼리지	-9393
▁확실히	-9394
▁꽤	-9395
▁Sp	-9396
▁감찰	-9397
▁내지	-9398
▁대인	-9399
▁세입	-9400
▁옵션	-9401
▁이화	-9402
▁정읍	-9403
▁129	-9404
▁들어왔	-9405
▁스펙트럼	-9406
▁옳	-9407
치기	-9408
퇴근	-9409
▁EP	-9410
▁각광	-9411
▁양해	-9412
▁이오	-9413
▁잔치	-9414
▁출처	-9415
▁거듭나	-9416
창기	-9417
커스	-9418
▁개수	-9419
▁김원	-9420
▁양심	-9421
▁역도	-9422
▁조립	-9423
▁질소	-9424
▁화해	-9425
▁거슬러	-9426
▁르네상스	-9427
히로	-9428
▁나열	-9429
▁보람	-9430
▁보트	-9431
▁스릴	-9432
▁커플	-9433
▁태자	-9434
▁포천	-9435
▁헤어	-9436
▁화살	-9437
▁천문학	-9438
▁프랜차	-9439
▁프로모션	-9440
범죄	-9441
일드	-9442
▁BM	-9443
▁내보	-9444
▁동전	-9445
▁이양	-9446
▁토르	-9447
▁프랜차이즈	-9448
▁쉐	-9449
풀이	-9450
▁농경	-9451
▁연내	-9452
▁제명	-9453
▁취항	-9454
▁탈환	-9455
▁한진	-9456
▁웨일스	-9457
▁출퇴근	-9458
▁페널티	-9459
▁1906	-9460
▁요미우리	-9461
▁本	-9462
무네	-9463
▁거쳤	-9464
▁겸임	-9465
▁면세	-9466
▁복제	-9467
▁열대	-9468
▁인격	-9469
▁정미	-9470
▁챙기	-9471
토미	-9472
our	-9473
▁관습	-9474
▁귀중	-9475
▁둥지	-9476
▁망언	-9477
▁민회	-9478
▁배부	-9479
▁쟁점	-9480
▁치즈	-9481
▁포유	-9482
▁교재	-9483
▁나눈	-9484
▁바오	-9485
▁본점	-9486
▁요법	-9487
▁익숙	-9488
▁자손	-9489
▁잡아	-9490
▁쿠르	-9491
▁토목	-9492
▁회피	-9493
▁임채만	-9494
▁민족주의	-9495
▁Count	-9496
ry	-9497
▁생체	-9498
▁임차	-9499
▁첨가	-9500
▁연주회	-9501
▁원산지	-9502
▁협주곡	-9503
▁대한제국	-9504
▁하이닉스	-9505
니까	-9506
로디	-9507
▁부호	-9508
▁제동	-9509
▁청도	-9510
▁찾아볼	-9511
▁해병대	-9512
▁CC	-9513
▁안장	-9514
▁유언	-9515
▁주고	-9516
▁커졌	-9517
▁173	-9518
▁대해선	-9519
▁리이다	-9520
▁히가시	-9521
▁고스란히	-9522
▁家	-9523
▁솟	-9524
곡동	-9525
라트	-9526
▁과잉	-9527
▁기인	-9528
▁김혜	-9529
▁껍질	-9530
▁송산	-9531
▁가르침	-9532
▁가져왔	-9533
▁경기력	-9534
▁국공립	-9535
▁장려금	-9536
민턴	-9537
▁결선	-9538
▁돌연	-9539
▁마스	-9540
▁폭로	-9541
▁할당	-9542
),	-9543
▁뿔	-9544
그룹	-9545
나르	-9546
동물	-9547
▁고원	-9548
▁공복	-9549
▁멋진	-9550
▁복장	-9551
▁살피	-9552
▁의제	-9553
▁정형	-9554
▁퍼시	-9555
▁132	-9556
▁기하학	-9557
▁트위터	-9558
▁켜	-9559
▁박해	-9560
▁원동	-9561
▁원안	-9562
▁종족	-9563
▁호환	-9564
▁보호자	-9565
▁조종사	-9566
▁안드로이드	-9567
▁y	-9568
아르	-9569
암동	-9570
▁목욕	-9571
▁선구	-9572
▁중증	-9573
▁폐수	-9574
▁횡령	-9575
▁뮤지션	-9576
▁생산자	-9577
▁시달리	-9578
▁후보자	-9579
▁도로공사	-9580
지오	-9581
▁과반	-9582
▁누나	-9583
▁던져	-9584
▁두류	-9585
▁정시	-9586
▁직책	-9587
▁토요	-9588
▁회고	-9589
▁DMZ	-9590
▁성남시	-9591
▁전염병	-9592
ian	-9593
▁강호	-9594
▁군산	-9595
▁냉각	-9596
▁너스	-9597
▁용수	-9598
▁장년	-9599
▁출국	-9600
▁204	-9601
▁이사회	-9602
▁삿	-9603
▁옐	-9604
▁中學	-9605
▁되새	-9606
▁서한	-9607
▁오렌	-9608
▁덤	-9609
▁례	-9610
▁de	-9611
▁대강	-9612
도니아	-9613
▁부통령	-9614
▁자세히	-9615
▁빅토리아	-9616
▁남아메리카	-9617
▁뭐	-9618
예산	-9619
▁단가	-9620
▁박경	-9621
▁반기	-9622
▁받침	-9623
▁수량	-9624
▁여대	-9625
▁외계	-9626
▁공주시	-9627
▁기념일	-9628
▁통신부	-9629
시티	-9630
조리	-9631
▁금정	-9632
▁목조	-9633
▁백색	-9634
▁복식	-9635
▁부를	-9636
▁스와	-9637
▁에버	-9638
▁이복	-9639
▁통지	-9640
하르트	-9641
▁해수부	-9642
ff	-9643
클린	-9644
▁가미	-9645
▁내놨	-9646
▁마술	-9647
▁일회	-9648
▁126	-9649
▁검찰청	-9650
▁되돌아	-9651
▁알루미	-9652
▁우체국	-9653
▁≪	-9654
전드	-9655
▁경품	-9656
▁김창	-9657
▁돌보	-9658
▁맛집	-9659
▁묘소	-9660
▁법제	-9661
▁서브	-9662
▁저기	-9663
▁134	-9664
▁늘어날	-9665
▁아사히	-9666
▁행정력	-9667
덩이	-9668
보기	-9669
철수	-9670
팩트	-9671
▁WW	-9672
▁거행	-9673
▁그렸	-9674
▁배신	-9675
▁전격	-9676
▁팽창	-9677
▁소나타	-9678
▁世	-9679
▁헐	-9680
들이	-9681
ast	-9682
▁눈빛	-9683
▁이조	-9684
▁전락	-9685
▁해치	-9686
▁관계없이	-9687
▁都	-9688
도사	-9689
휴일	-9690
▁단의	-9691
▁로비	-9692
▁발길	-9693
▁생전	-9694
▁오다	-9695
▁의의	-9696
소년단	-9697
▁124	-9698
▁기관장	-9699
▁주거지	-9700
▁겨냥	-9701
▁고로	-9702
▁그릇	-9703
▁김윤	-9704
▁낙선	-9705
▁디비	-9706
▁번주	-9707
▁산란	-9708
▁어긋	-9709
▁연쇄	-9710
▁이호	-9711
▁최장	-9712
▁춘천	-9713
▁눈높이	-9714
▁초창기	-9715
▁테이프	-9716
▁루트비히	-9717
▁알바니아	-9718
부사	-9719
▁궁극	-9720
▁극히	-9721
▁급진	-9722
▁바리	-9723
▁세례	-9724
▁유닛	-9725
▁적대	-9726
▁조심	-9727
▁혜성	-9728
▁배드민턴	-9729
레드	-9730
ure	-9731
▁김연	-9732
▁놓치	-9733
▁악마	-9734
▁진리	-9735
▁키즈	-9736
▁토끼	-9737
▁적십자	-9738
루살	-9739
유키	-9740
▁〉,	-9741
▁물결	-9742
▁제로	-9743
▁출원	-9744
▁현충	-9745
▁후문	-9746
▁머무르	-9747
▁시니어	-9748
▁아마도	-9749
▁하이드	-9750
▁눌	-9751
▁쉴	-9752
세스	-9753
▁공지	-9754
▁교전	-9755
▁구급	-9756
▁바지	-9757
▁원상	-9758
▁임산	-9759
▁해협	-9760
▁향교	-9761
루살렘	-9762
▁Mar	-9763
▁선보인	-9764
▁짚	-9765
▁건담	-9766
▁고체	-9767
▁둔화	-9768
▁지킴	-9769
▁생명체	-9770
▁아틀레	-9771
▁판소리	-9772
▁1909	-9773
▁갇	-9774
▁리틀	-9775
▁미친	-9776
▁보류	-9777
▁사르	-9778
▁시세	-9779
▁신발	-9780
▁원가	-9781
▁퍼지	-9782
▁피싱	-9783
▁하트	-9784
▁힌두	-9785
▁뛰어넘	-9786
▁환경청	-9787
▁퍼레이드	-9788
▁과세	-9789
▁아케	-9790
▁공휴일	-9791
▁정례회	-9792
▁엘리자베스	-9793
▁SA	-9794
▁상단	-9795
▁수협	-9796
▁암시	-9797
▁기자단	-9798
▁레전드	-9799
▁주의보	-9800
랑크	-9801
▁갱신	-9802
▁성벽	-9803
▁왼손	-9804
▁임종	-9805
▁전류	-9806
▁정명	-9807
▁엘리트	-9808
▁시외버스	-9809
관계	-9810
▁경인	-9811
▁국수	-9812
▁이식	-9813
▁평창	-9814
▁행적	-9815
ight	-9816
▁김주오	-9817
▁레이블	-9818
▁미추홀	-9819
▁중심부	-9820
▁멧	-9821
둘러	-9822
언스	-9823
▁국책	-9824
▁능동	-9825
▁단말	-9826
▁동백	-9827
▁소실	-9828
▁아즈	-9829
▁열람	-9830
▁인삼	-9831
▁명확히	-9832
▁신안군	-9833
▁증가세	-9834
▁광양제철	-9835
▁County	-9836
▁aT	-9837
▁결핵	-9838
▁라마	-9839
▁맞붙	-9840
▁신념	-9841
▁신전	-9842
▁자존	-9843
▁특보	-9844
▁기장군	-9845
▁납세자	-9846
▁물리치	-9847
▁예천군	-9848
▁비엔날레	-9849
▁美	-9850
▁겁	-9851
관위	-9852
으니	-9853
청사	-9854
▁고취	-9855
▁구형	-9856
▁기성	-9857
▁드로	-9858
▁매사	-9859
▁빈도	-9860
▁신약	-9861
▁에도	-9862
▁요령	-9863
▁거주지	-9864
▁현대제철	-9865
슬리	-9866
일본	-9867
▁놓인	-9868
▁도라	-9869
▁산재	-9870
▁이에	-9871
▁종결	-9872
▁줘야	-9873
▁성황리	-9874
▁아무리	-9875
▁후쿠시마	-9876
▁會	-9877
▁슛	-9878
엘라	-9879
트랙	-9880
▁루타	-9881
▁입소	-9882
▁적당	-9883
▁점프	-9884
▁들어온	-9885
OM	-9886
▁킥	-9887
선거	-9888
▁마오	-9889
▁상식	-9890
▁숙원	-9891
▁언더	-9892
▁인자	-9893
▁쿠폰	-9894
▁네이션	-9895
▁에스파	-9896
▁관광공사	-9897
▁방탄소년단	-9898
▁기습	-9899
▁맥스	-9900
▁소니	-9901
▁제후	-9902
사무소	-9903
▁신청자	-9904
▁알루미늄	-9905
oT	-9906
▁깎	-9907
네마	-9908
포구	-9909
▁구독	-9910
▁김학	-9911
▁니아	-9912
▁담겼	-9913
▁분비	-9914
▁성악	-9915
▁ASF	-9916
▁신속히	-9917
▁국유	-9918
▁드문	-9919
▁머신	-9920
▁박유	-9921
▁발목	-9922
▁쏠리	-9923
▁여덟	-9924
▁읍성	-9925
▁중량	-9926
▁후일	-9927
▁단양군	-9928
▁봉해졌	-9929
▁아리스	-9930
▁안타깝	-9931
▁보호구역	-9932
▁사우디아	-9933
▁가죽	-9934
▁알라	-9935
▁오산	-9936
▁윤치	-9937
▁장벽	-9938
▁점성	-9939
▁하동	-9940
▁강화군	-9941
▁내려오	-9942
▁보여준	-9943
▁오렌지	-9944
▁임산부	-9945
▁주머니	-9946
▁처리장	-9947
해군	-9948
▁리어	-9949
▁우르	-9950
▁일가	-9951
▁일몰	-9952
▁자랐	-9953
▁정경	-9954
▁노란색	-9955
▁모은다	-9956
▁유적지	-9957
▁마케도니아	-9958
▁君	-9959
뜨렸	-9960
▁감추	-9961
▁교단	-9962
▁당과	-9963
▁반부	-9964
▁세일	-9965
▁심정	-9966
▁우지	-9967
▁유쾌	-9968
▁콩고	-9969
▁데이트	-9970
▁목요일	-9971
▁패밀리	-9972
▁예루살렘	-9973
시온	-9974
▁근원	-9975
▁꼬집	-9976
▁문과	-9977
▁배양	-9978
▁비자	-9979
▁시즈	-9980
▁억울	-9981
▁여겼	-9982
▁재심	-9983
▁체조	-9984
▁안산시	-9985
▁휴대폰	-9986
▁1911	-9987
▁개개	-9988
▁결집	-9989
▁과다	-9990
▁도래	-9991
▁서초	-9992
▁도시락	-9993
▁호랑이	-9994
▁그라운드	-9995
▁島	-9996
리나	-9997
마치	-9998
전선	-9999
▁강인	-10000
▁모방	-10001
▁시그	-10002
▁일렉	-10003
▁제트	-10004
▁출제	-10005
▁푸르	-10006
▁찾아오	-10007
▁이뤄지는	-10008
▁넬	-10009
▁가루	-10010
▁국고	-10011
▁대부	-10012
▁독창	-10013
▁리오	-10014
▁하마	-10015
▁아미노	-10016
▁우승자	-10017
▁잠재력	-10018
▁다운로드	-10019
▁聖	-10020
교도	-10021
스테	-10022
ate	-10023
▁레일	-10024
▁묘역	-10025
▁민요	-10026
▁수탁	-10027
▁일화	-10028
▁중년	-10029
▁초월	-10030
▁티저	-10031
▁풀려	-10032
▁하버드	-10033
▁기타리스트	-10034
ran	-10035
▁법규	-10036
▁수변	-10037
▁신조	-10038
▁안치	-10039
▁피렌	-10040
나항공	-10041
▁116	-10042
▁미나미	-10043
▁아시아나항공	-10044
ID	-10045
리에	-10046
▁뜻깊	-10047
▁자칫	-10048
▁터치	-10049
▁미분양	-10050
▁2024	-10051
▁연료전지	-10052
▁히데요시	-10053
무기	-10054
체인	-10055
ain	-10056
▁타석	-10057
▁나타날	-10058
▁두려움	-10059
▁1913	-10060
▁피아니스트	-10061
▁콰	-10062
▁될지	-10063
▁유익	-10064
▁타마	-10065
▁퇴각	-10066
▁호칭	-10067
▁그만두	-10068
▁마운드	-10069
▁선진국	-10070
▁朴	-10071
메인	-10072
▁마블	-10073
▁육체	-10074
▁이규	-10075
▁이메	-10076
라이더	-10077
▁건설업	-10078
▁관리사	-10079
▁드레스	-10080
▁병원장	-10081
▁호흡기	-10082
▁텃	-10083
고사	-10084
바람	-10085
▁구경	-10086
▁그랑	-10087
▁기운	-10088
▁나눴	-10089
▁남궁	-10090
▁농축	-10091
▁사토	-10092
▁시라	-10093
▁실명	-10094
▁아바	-10095
▁캡처	-10096
▁혐오	-10097
▁사라진	-10098
▁트로피	-10099
▁보통학교	-10100
▁主	-10101
▁쳤	-10102
디스	-10103
바닥	-10104
테크	-10105
▁나고	-10106
▁무라	-10107
▁백두	-10108
▁봉쇄	-10109
▁사바	-10110
▁이세	-10111
▁쿠스	-10112
▁편하	-10113
▁하차	-10114
▁로드맵	-10115
▁부담금	-10116
▁외교부	-10117
▁베이스볼	-10118
▁낡	-10119
▁도비	-10120
▁유스	-10121
▁침묵	-10122
▁코레	-10123
▁한마	-10124
▁휴일	-10125
▁무너지	-10126
▁보상금	-10127
▁한동안	-10128
▁벨라루스	-10129
▁불법행위	-10130
▁사우디아라비아	-10131
IT	-10132
라미	-10133
림동	-10134
▁실린	-10135
▁모티브	-10136
iz	-10137
▁古	-10138
▁룡	-10139
▁고래	-10140
▁극한	-10141
▁대포	-10142
▁발트	-10143
▁시어	-10144
▁연꽃	-10145
▁절약	-10146
▁상임위	-10147
▁1896	-10148
▁엮	-10149
연맹	-10150
▁공자	-10151
▁따위	-10152
▁슈트	-10153
▁이월	-10154
▁친왕	-10155
▁북동부	-10156
▁세이브	-10157
▁피렌체	-10158
해져	-10159
▁공표	-10160
▁바티	-10161
▁서사	-10162
▁수박	-10163
▁알릴	-10164
▁유승	-10165
▁책봉	-10166
▁하우	-10167
▁IoT	-10168
▁수익금	-10169
▁司	-10170
눅스	-10171
보살	-10172
▁Se	-10173
▁당황	-10174
▁시속	-10175
▁이례	-10176
▁침투	-10177
▁카시	-10178
▁캐슬	-10179
▁학파	-10180
▁203	-10181
▁Con	-10182
▁부상자	-10183
▁부드러운	-10184
te	-10185
차기	-10186
▁개년	-10187
▁결렬	-10188
▁금남	-10189
▁니까	-10190
▁다발	-10191
▁로프	-10192
▁만일	-10193
▁문신	-10194
▁시게	-10195
▁오송	-10196
▁인산	-10197
▁털어	-10198
▁BBC	-10199
▁그래도	-10200
▁소방관	-10201
▁일찍이	-10202
▁샷	-10203
라브	-10204
▁그늘	-10205
▁김호	-10206
▁달콤	-10207
▁무신	-10208
▁박찬	-10209
▁심상	-10210
▁연일	-10211
▁옥상	-10212
▁적성	-10213
러스트	-10214
▁거래소	-10215
▁리눅스	-10216
▁보증금	-10217
▁전성기	-10218
▁이뤄지고	-10219
▁낯	-10220
▁경희	-10221
▁계엄	-10222
▁내실	-10223
▁맥락	-10224
▁보름	-10225
▁연호	-10226
▁카트	-10227
▁폐차	-10228
▁그나마	-10229
▁성공회	-10230
▁漢	-10231
기지	-10232
다임	-10233
브라	-10234
▁거인	-10235
▁눈치	-10236
▁대본	-10237
▁성수	-10238
▁양극	-10239
▁취해	-10240
▁흘리	-10241
▁대주교	-10242
▁핸드볼	-10243
▁서비스업	-10244
▁패러다임	-10245
병원	-10246
▁등부	-10247
▁복싱	-10248
▁광저우	-10249
▁박은성	-10250
ess	-10251
▁어쩔	-10252
▁자활	-10253
▁정찰	-10254
▁조망	-10255
▁주지	-10256
▁지켰	-10257
▁회상	-10258
▁후대	-10259
▁자치체	-10260
▁1904	-10261
DA	-10262
플러	-10263
하키	-10264
▁EU	-10265
▁간염	-10266
▁견본	-10267
▁고치	-10268
▁김유	-10269
▁되게	-10270
▁상급	-10271
▁저질	-10272
▁저해	-10273
▁침대	-10274
▁힘써	-10275
▁물러났	-10276
▁십자군	-10277
▁토머스	-10278
▁j	-10279
▁德	-10280
릴라	-10281
▁PA	-10282
▁간선	-10283
▁김승	-10284
▁볼리	-10285
▁신원	-10286
▁자민	-10287
▁잔재	-10288
▁처지	-10289
▁관리법	-10290
▁안전망	-10291
LA	-10292
▁性	-10293
리즘	-10294
▁날아	-10295
▁녹화	-10296
▁무지	-10297
▁생길	-10298
▁스태	-10299
▁이이	-10300
▁라오스	-10301
▁색다른	-10302
▁접어들	-10303
▁화요일	-10304
▁김우	-10305
▁아요	-10306
▁위조	-10307
▁유선	-10308
▁총사	-10309
▁하프	-10310
▁가르쳤	-10311
▁계획안	-10312
▁저기압	-10313
▁막판	-10314
▁맞물	-10315
▁배지	-10316
▁비시	-10317
▁안면	-10318
▁앞면	-10319
▁오타	-10320
▁월화	-10321
▁장자	-10322
▁기부금	-10323
▁내세우	-10324
▁뛰어들	-10325
▁방송사	-10326
▁우울증	-10327
▁으려고	-10328
▁자연환경	-10329
▁慶	-10330
쿠르	-10331
▁바치	-10332
▁번뇌	-10333
▁부른	-10334
▁정벌	-10335
▁주름	-10336
▁지류	-10337
▁펼친	-10338
그라드	-10339
▁나고야	-10340
▁에티오	-10341
▁엑스코	-10342
▁영산강	-10343
▁팔레스	-10344
▁FINA	-10345
▁에티오피아	-10346
▁노드	-10347
▁무척	-10348
▁이희	-10349
▁코믹	-10350
▁크다	-10351
▁230	-10352
▁Pro	-10353
▁산책로	-10354
▁할리우드	-10355
마을	-10356
바꿈	-10357
아이	-10358
은색	-10359
▁과시	-10360
▁바나	-10361
▁불매	-10362
▁상습	-10363
▁속성	-10364
▁역명	-10365
▁이낙	-10366
▁정인	-10367
▁한류	-10368
▁관찰사	-10369
io	-10370
▁낫	-10371
천면	-10372
▁문체	-10373
▁소총	-10374
▁암석	-10375
▁이임	-10376
▁강진군	-10377
▁시켜야	-10378
▁우주선	-10379
소스	-10380
▁외래	-10381
▁이룰	-10382
▁특산	-10383
▁DVD	-10384
▁브라우	-10385
▁옌	-10386
기념	-10387
즈키	-10388
▁감탄	-10389
▁리라	-10390
▁민자	-10391
▁바그	-10392
▁생식	-10393
▁숙소	-10394
▁앙상	-10395
▁엄중	-10396
▁평행	-10397
▁줄다리	-10398
크래프트	-10399
▁겔	-10400
▁보은	-10401
▁부응	-10402
▁비잔	-10403
▁빌라	-10404
▁사학	-10405
▁영종	-10406
▁오비	-10407
▁자카	-10408
▁중원	-10409
▁차가	-10410
▁스파이	-10411
▁승강기	-10412
▁이민자	-10413
▁텍스트	-10414
▁샹	-10415
예프	-10416
▁고의	-10417
▁뒷면	-10418
▁마디	-10419
▁비문	-10420
▁성산	-10421
▁장대	-10422
▁축물	-10423
▁김천시	-10424
▁위해선	-10425
▁스케이팅	-10426
▁가꾸	-10427
▁계양	-10428
▁다툼	-10429
▁비유	-10430
▁안무	-10431
▁원심	-10432
▁비행장	-10433
▁사상자	-10434
▁슐	-10435
선언	-10436
▁문하	-10437
▁바쁜	-10438
▁부추	-10439
▁아군	-10440
▁어드	-10441
▁지로	-10442
▁펜싱	-10443
▁건너가	-10444
▁경영학	-10445
▁고구마	-10446
▁양승조	-10447
▁인허가	-10448
로프	-10449
의사	-10450
▁가방	-10451
▁국사	-10452
▁기공	-10453
▁동결	-10454
▁둥근	-10455
▁부끄	-10456
▁입성	-10457
▁정정	-10458
▁한인	-10459
▁향기	-10460
▁호프	-10461
▁일으킬	-10462
▁주어졌	-10463
▁화물차	-10464
자치단체	-10465
▁줄다리기	-10466
대군	-10467
천리	-10468
▁가결	-10469
▁강간	-10470
▁무실	-10471
▁서점	-10472
▁일간	-10473
▁정거	-10474
▁중흥	-10475
▁지소	-10476
▁지체	-10477
▁진해	-10478
▁파도	-10479
▁성범죄	-10480
▁여겨졌	-10481
▁후반기	-10482
▁들어선다	-10483
▁팔레스타인	-10484
ern	-10485
▁상의	-10486
▁슬픔	-10487
▁쓰인	-10488
▁자긍	-10489
▁장마	-10490
▁좌상	-10491
▁체질	-10492
▁표적	-10493
▁노동력	-10494
▁달라지	-10495
▁도우미	-10496
▁수자원	-10497
▁오인근	-10498
▁주정차	-10499
▁鄭	-10500
돼지	-10501
▁경호	-10502
▁습득	-10503
▁의성	-10504
▁재차	-10505
▁하구	-10506
▁학점	-10507
▁회기	-10508
▁후방	-10509
▁끌어들	-10510
▁플래시	-10511
혁명	-10512
▁각도	-10513
▁배울	-10514
▁색채	-10515
▁순례	-10516
▁자바	-10517
▁조장	-10518
▁쫓겨	-10519
▁첼시	-10520
▁타협	-10521
▁헌혈	-10522
▁김영삼	-10523
▁느낀다	-10524
▁보스니아	-10525
qu	-10526
▁괜	-10527
▁넨	-10528
나카	-10529
랑카	-10530
문관	-10531
▁An	-10532
▁군위	-10533
▁난이	-10534
▁남인	-10535
▁사죄	-10536
▁산모	-10537
▁솔직	-10538
▁음향	-10539
▁토니	-10540
▁관련자	-10541
▁알프스	-10542
▁자긍심	-10543
▁블록체인	-10544
▁書	-10545
▁내면	-10546
▁말리	-10547
▁배기	-10548
▁시야	-10549
▁신민	-10550
▁장원	-10551
▁패했	-10552
▁광주대	-10553
▁빨간색	-10554
▁이낙연	-10555
▁주유소	-10556
▁화순군	-10557
▁永	-10558
▁行	-10559
▁갚	-10560
구니	-10561
들여	-10562
▁개학	-10563
▁궁정	-10564
▁당분	-10565
▁살림	-10566
▁청라	-10567
▁총대	-10568
▁에스토	-10569
▁잇따르	-10570
▁장난감	-10571
▁알렉산더	-10572
▁커뮤니케이션	-10573
말라	-10574
▁격투	-10575
▁광대	-10576
▁든든	-10577
▁바꿀	-10578
▁쇼트	-10579
▁오락	-10580
▁조영	-10581
▁패하	-10582
▁포부	-10583
▁남다른	-10584
▁다니엘	-10585
▁발표회	-10586
▁서천군	-10587
▁주파수	-10588
▁펼쳐졌	-10589
▁떨어진다	-10590
▁朝	-10591
▁뢰	-10592
렉션	-10593
▁반감	-10594
▁방패	-10595
▁빨라	-10596
▁색소	-10597
▁씨앗	-10598
▁어스	-10599
▁와카	-10600
▁임하	-10601
▁입수	-10602
▁지우	-10603
▁활주	-10604
델피아	-10605
▁거주자	-10606
▁법률안	-10607
▁선관위	-10608
▁이메일	-10609
▁한국은행	-10610
▁필라델피아	-10611
▁간식	-10612
▁공명	-10613
▁내무	-10614
▁서독	-10615
▁애틀	-10616
▁경상도	-10617
▁성폭행	-10618
▁휘발유	-10619
▁所	-10620
▁감싸	-10621
▁거울	-10622
▁꺼내	-10623
▁상응	-10624
▁수군	-10625
▁품격	-10626
▁하도	-10627
▁원나라	-10628
▁정거장	-10629
▁주지사	-10630
▁금상	-10631
▁루터	-10632
▁만점	-10633
▁비싼	-10634
▁써서	-10635
▁일족	-10636
▁즈음	-10637
▁호스	-10638
▁270	-10639
▁끌어올	-10640
▁너무나	-10641
▁부지사	-10642
▁북서부	-10643
▁에스토니아	-10644
▁KB	-10645
▁산수	-10646
▁약정	-10647
▁에릭	-10648
▁찬반	-10649
▁창문	-10650
▁축협	-10651
▁210	-10652
▁사용자	-10653
▁자유당	-10654
▁찾아내	-10655
▁회의장	-10656
▁교섭단체	-10657
▁다이어트	-10658
▁지냈으며	-10659
▁컬럼비아	-10660
경찰	-10661
현진	-10662
▁김남	-10663
▁박태	-10664
▁펌프	-10665
▁냉장고	-10666
▁물놀이	-10667
▁삼각형	-10668
▁×	-10669
붙이	-10670
▁가람	-10671
▁고부	-10672
▁석탑	-10673
▁어류	-10674
▁외상	-10675
▁욕망	-10676
▁원했	-10677
▁주상	-10678
▁협연	-10679
▁시드니	-10680
▁지난주	-10681
▁통신사	-10682
▁전지훈련	-10683
덕션	-10684
마사	-10685
매장	-10686
▁독거	-10687
▁발산	-10688
▁옥스	-10689
▁플리	-10690
▁휩싸	-10691
▁무안군	-10692
▁사무관	-10693
▁스릴러	-10694
▁전망대	-10695
▁정보원	-10696
▁1800	-10697
숭아	-10698
▁kt	-10699
▁갈비	-10700
▁강풍	-10701
▁동맥	-10702
▁비평	-10703
▁셔틀	-10704
▁신칸	-10705
▁어렸	-10706
▁특권	-10707
리스타	-10708
▁부사장	-10709
▁제철소	-10710
▁투르크	-10711
▁松	-10712
▁섰	-10713
리안	-10714
▁CG	-10715
▁생선	-10716
▁알림	-10717
▁으뜸	-10718
▁징용	-10719
내셔널	-10720
▁김진수	-10721
▁잃어버	-10722
▁탈바꿈	-10723
▁가장자리	-10724
▁크리스티	-10725
▁인터내셔널	-10726
두리	-10727
▁격리	-10728
▁예의	-10729
▁예천	-10730
▁왕족	-10731
▁요르	-10732
▁용병	-10733
▁320	-10734
▁교통망	-10735
▁놀라운	-10736
▁앙상블	-10737
▁진나라	-10738
▁하락세	-10739
Pa	-10740
▁社	-10741
▁동요	-10742
▁샘플	-10743
▁워너	-10744
▁유환	-10745
▁일당	-10746
▁청탁	-10747
다이라	-10748
▁선보여	-10749
▁받아들였	-10750
ES	-10751
▁自	-10752
▁샵	-10753
맞이	-10754
지마	-10755
트니	-10756
▁감당	-10757
▁발자	-10758
▁발해	-10759
▁숭배	-10760
▁융자	-10761
▁죽였	-10762
▁개회식	-10763
▁교부세	-10764
▁돌아보	-10765
▁퍼스트	-10766
▁평의회	-10767
▁아이스하키	-10768
▁땐	-10769
▁담임	-10770
▁사위	-10771
▁아드	-10772
▁양조	-10773
▁요크	-10774
▁함량	-10775
▁별자리	-10776
▁부르크	-10777
▁차이점	-10778
PA	-10779
번에	-10780
처럼	-10781
▁가드	-10782
▁기피	-10783
▁백지	-10784
▁보잉	-10785
▁전보	-10786
▁헌정	-10787
▁현종	-10788
▁280	-10789
▁계약서	-10790
▁뉘	-10791
데시	-10792
▁상록	-10793
▁세라	-10794
▁숨진	-10795
▁스캔	-10796
▁어리	-10797
▁윤종	-10798
▁지선	-10799
▁트래	-10800
▁풍요	-10801
▁개소식	-10802
▁도널드	-10803
▁애틀랜	-10804
▁플라이	-10805
터스	-10806
▁으라	-10807
▁입양	-10808
▁컴백	-10809
▁파스	-10810
▁레슬링	-10811
▁아닌가	-10812
▁주고받	-10813
▁部	-10814
▁陽	-10815
▁DC	-10816
▁앨런	-10817
▁인텔	-10818
▁흔한	-10819
▁비주얼	-10820
▁영주시	-10821
▁지방분	-10822
▁흔들리	-10823
수소	-10824
▁괴물	-10825
▁넓히	-10826
▁마운	-10827
▁발상	-10828
▁별칭	-10829
▁성희	-10830
▁수력	-10831
▁학장	-10832
▁소송법	-10833
▁초상화	-10834
▁使	-10835
▁河	-10836
▁門	-10837
▁싣	-10838
▁쿤	-10839
루엔	-10840
릿수	-10841
벌레	-10842
▁급감	-10843
▁방콕	-10844
▁온갖	-10845
▁원대	-10846
▁신칸센	-10847
▁全	-10848
우회	-10849
▁넷째	-10850
▁사하	-10851
▁승률	-10852
▁싱크	-10853
▁유류	-10854
▁적법	-10855
▁화원	-10856
▁가져오	-10857
▁십자가	-10858
▁이글스	-10859
▁이재명	-10860
▁호르몬	-10861
▁상관없이	-10862
▁다이아몬드	-10863
상부	-10864
▁PM	-10865
▁동탄	-10866
▁동포	-10867
▁생략	-10868
▁안티	-10869
▁억압	-10870
▁이건	-10871
▁직권	-10872
▁초고	-10873
▁터지	-10874
적으로	-10875
▁사회학	-10876
▁인지도	-10877
▁룬	-10878
▁샬	-10879
▁리코	-10880
▁문고	-10881
▁시의	-10882
▁통칭	-10883
▁평야	-10884
▁표방	-10885
▁관해서	-10886
ik	-10887
로우	-10888
마리	-10889
▁개항	-10890
▁규범	-10891
▁레바	-10892
▁말미	-10893
▁사지	-10894
▁산후	-10895
▁청하	-10896
▁태우	-10897
▁통틀	-10898
▁포맷	-10899
▁마리오	-10900
▁방송인	-10901
▁소화기	-10902
타카	-10903
▁결단	-10904
▁다를	-10905
▁라서	-10906
▁명실	-10907
▁유병	-10908
▁윤석	-10909
▁일생	-10910
▁자비	-10911
▁피츠	-10912
▁다룬다	-10913
▁카타르	-10914
▁뒀	-10915
성장	-10916
▁PS	-10917
▁객실	-10918
▁광물	-10919
▁깃발	-10920
▁리뷰	-10921
▁부양	-10922
▁붙였	-10923
▁붙인	-10924
▁사다	-10925
▁온다	-10926
▁요정	-10927
▁촉발	-10928
▁테오	-10929
▁선거제	-10930
▁연수원	-10931
스부르크	-10932
▁발렌시아	-10933
PC	-10934
▁同	-10935
가미	-10936
방울	-10937
산성	-10938
체어	-10939
▁Co	-10940
▁고아	-10941
▁미하	-10942
▁아쿠	-10943
▁오클	-10944
▁잡혀	-10945
▁정제	-10946
▁주점	-10947
▁진군	-10948
▁타수	-10949
▁경산시	-10950
▁디비전	-10951
▁오프닝	-10952
▁우루과이	-10953
▁淸	-10954
스틴	-10955
▁TH	-10956
▁겸하	-10957
▁교외	-10958
▁볼링	-10959
▁분교	-10960
▁유년	-10961
▁튼튼	-10962
▁효능	-10963
▁아우르	-10964
▁오른다	-10965
▁오승현	-10966
▁울진군	-10967
블리	-10968
셀러	-10969
▁강과	-10970
▁국면	-10971
▁무작	-10972
▁아홉	-10973
▁엄정	-10974
▁우파	-10975
▁적혀	-10976
▁제대	-10977
▁차남	-10978
▁청각	-10979
▁키프	-10980
브리드	-10981
▁330	-10982
▁고려대	-10983
▁관심사	-10984
▁버린다	-10985
▁아우구	-10986
▁아이파크	-10987
▁八	-10988
▁靑	-10989
내리	-10990
ood	-10991
▁느라	-10992
▁도발	-10993
▁셔서	-10994
▁짐작	-10995
▁파격	-10996
▁다행히	-10997
▁복숭아	-10998
▁휠체어	-10999
▁1894	-11000
▁하이브리드	-11001
▁信	-11002
▁밍	-11003
다드	-11004
싸움	-11005
▁KE	-11006
▁그저	-11007
▁낙후	-11008
▁등극	-11009
▁미상	-11010
▁박병	-11011
▁손쉽	-11012
▁스텔	-11013
▁자란	-11014
▁지문	-11015
▁광화문	-11016
▁1915	-11017
소통	-11018
▁공적	-11019
▁기세	-11020
▁김은	-11021
▁미뤄	-11022
▁창건	-11023
▁카탈	-11024
▁튀르	-11025
▁폭동	-11026
▁광양항	-11027
▁산림청	-11028
▁서둘러	-11029
▁세계인	-11030
▁民	-11031
츠키	-11032
▁경작	-11033
▁김문	-11034
▁리메	-11035
▁심야	-11036
▁용서	-11037
▁히스	-11038
▁지하수	-11039
▁클라이	-11040
▁의사소통	-11041
▁고을	-11042
▁고쳐	-11043
▁명인	-11044
▁불황	-11045
▁선장	-11046
▁설화	-11047
▁엔딩	-11048
▁여정	-11049
▁정년	-11050
▁지성	-11051
▁지평	-11052
▁후세	-11053
▁GDP	-11054
▁기념비	-11055
▁신생아	-11056
ly	-11057
클럽	-11058
파이	-11059
▁기어	-11060
▁술탄	-11061
▁악단	-11062
▁여전	-11063
▁타르	-11064
▁그림자	-11065
▁영화관	-11066
▁이해찬	-11067
▁활주로	-11068
▁1895	-11069
금속	-11070
포트	-11071
▁MA	-11072
▁갯벌	-11073
▁고충	-11074
▁구와	-11075
▁꾀하	-11076
▁북측	-11077
▁실려	-11078
▁유정	-11079
▁이득	-11080
▁코딩	-11081
▁태그	-11082
▁높인다	-11083
▁항공모	-11084
▁善	-11085
ace	-11086
▁노면	-11087
▁모욕	-11088
▁약하	-11089
▁양대	-11090
▁외출	-11091
▁국제선	-11092
▁민원인	-11093
▁면사무소	-11094
용품	-11095
ust	-11096
▁도르	-11097
▁라파	-11098
▁선종	-11099
▁승자	-11100
▁신보	-11101
▁우측	-11102
▁이남	-11103
▁익산	-11104
▁총액	-11105
▁흔하	-11106
수엘라	-11107
▁대표자	-11108
▁제네바	-11109
▁퍼시픽	-11110
▁후유증	-11111
▁나가사키	-11112
막식	-11113
인명	-11114
▁高等	-11115
▁검단	-11116
▁대군	-11117
▁미달	-11118
▁석가	-11119
▁쓰러	-11120
▁의대	-11121
▁정은	-11122
▁처한	-11123
▁코카	-11124
▁개찰구	-11125
▁여행객	-11126
▁자아냈	-11127
▁1200	-11128
▁1600	-11129
▁の	-11130
▁샀	-11131
하면	-11132
▁간직	-11133
▁국화	-11134
▁달걀	-11135
▁미팅	-11136
▁외과	-11137
▁트루	-11138
▁편견	-11139
▁합당	-11140
수수색	-11141
▁제작자	-11142
▁압수수색	-11143
▁조선일보	-11144
▁베네수엘라	-11145
▁敎	-11146
▁킴	-11147
대교	-11148
열차	-11149
케인	-11150
▁간절	-11151
▁발제	-11152
▁보답	-11153
▁생리	-11154
▁설탕	-11155
▁성추	-11156
▁심혈	-11157
▁쏟아	-11158
▁유라	-11159
▁이드	-11160
▁자정	-11161
▁존속	-11162
▁중상	-11163
▁필기	-11164
▁향수	-11165
레스트	-11166
바이잔	-11167
▁전해져	-11168
▁시뮬레이션	-11169
TC	-11170
▁四	-11171
가타	-11172
▁공민	-11173
▁방대	-11174
▁셰프	-11175
▁소진	-11176
▁천도	-11177
▁컨셉	-11178
▁방사성	-11179
▁아제르	-11180
▁톡톡히	-11181
▁이뤄져야	-11182
▁아제르바이잔	-11183
▁헛	-11184
아웃	-11185
▁다크	-11186
▁대패	-11187
▁선동	-11188
▁세제	-11189
▁신지	-11190
▁에겐	-11191
▁원당	-11192
▁절단	-11193
▁종점	-11194
▁김진식	-11195
▁도메인	-11196
▁완도군	-11197
▁용인시	-11198
▁존재감	-11199
▁부위원장	-11200
개골	-11201
▁가세	-11202
▁금회	-11203
▁김미	-11204
▁냉동	-11205
▁본회	-11206
▁에디	-11207
▁조연	-11208
▁함정	-11209
▁260	-11210
▁결의안	-11211
▁단거리	-11212
▁베어스	-11213
▁영광군	-11214
▁제작사	-11215
▁왓	-11216
▁증강	-11217
▁친분	-11218
▁파산	-11219
▁프렌	-11220
▁피할	-11221
▁토마토	-11222
▁륜	-11223
▁팟	-11224
▁NG	-11225
▁TP	-11226
▁《》	-11227
▁동치	-11228
▁리터	-11229
▁발기	-11230
▁빌헬	-11231
▁여운	-11232
▁이소	-11233
▁직종	-11234
▁참판	-11235
▁텃밭	-11236
▁휩쓸	-11237
루엔자	-11238
▁131	-11239
▁광해군	-11240
▁당분간	-11241
▁리비아	-11242
▁멧돼지	-11243
▁변호인	-11244
▁수용체	-11245
▁시위대	-11246
▁언론사	-11247
▁포도주	-11248
서양	-11249
▁괜찮	-11250
▁낙찰	-11251
▁넓혀	-11252
▁새우	-11253
▁송치	-11254
▁숨지	-11255
▁테스	-11256
▁환기	-11257
▁강서구	-11258
▁다스리	-11259
▁선호도	-11260
▁세계관	-11261
▁소방본부	-11262
▁興	-11263
▁썸	-11264
▁강성	-11265
▁날리	-11266
▁부녀	-11267
▁사계	-11268
▁김해시	-11269
▁대국민	-11270
▁성추행	-11271
▁종로구	-11272
▁인플루엔자	-11273
▁有	-11274
▁팰	-11275
ver	-11276
▁Un	-11277
▁내릴	-11278
▁미르	-11279
▁울리	-11280
▁이긴	-11281
▁제수	-11282
▁향유	-11283
▁형평	-11284
▁친일파	-11285
RT	-11286
▁生	-11287
나리	-11288
하루	-11289
end	-11290
▁Te	-11291
▁골격	-11292
▁금전	-11293
▁미토	-11294
▁보궐	-11295
▁소망	-11296
▁이우	-11297
▁자수	-11298
▁주된	-11299
▁항로	-11300
▁환급	-11301
▁나이지	-11302
▁레이싱	-11303
▁무실점	-11304
▁실험실	-11305
▁나이지리아	-11306
각형	-11307
본다	-11308
▁당정	-11309
▁뒤따	-11310
▁버섯	-11311
▁서신	-11312
▁소사	-11313
▁아랫	-11314
▁정태	-11315
▁증세	-11316
▁창시	-11317
▁토성	-11318
▁부적절	-11319
▁송나라	-11320
▁팩토리	-11321
▁올라간다	-11322
▁마쓰다이라	-11323
▁DI	-11324
▁남미	-11325
▁되살	-11326
▁모기	-11327
▁박남	-11328
▁씨름	-11329
▁운임	-11330
▁증서	-11331
▁투여	-11332
▁폐위	-11333
▁hPa	-11334
▁성희롱	-11335
▁숨겨진	-11336
▁치료제	-11337
▁교향악단	-11338
▁쪼	-11339
▁미아	-11340
▁박용	-11341
▁북경	-11342
▁서예	-11343
▁종영	-11344
▁퇴근	-11345
▁향했	-11346
▁광명시	-11347
▁기념사	-11348
▁저수지	-11349
▁저지른	-11350
▁황태자	-11351
▁무형문화재	-11352
▁相	-11353
수단	-11354
▁감행	-11355
▁강은	-11356
▁대관	-11357
▁독성	-11358
▁동로	-11359
▁명상	-11360
▁믹스	-11361
▁박원	-11362
▁세관	-11363
▁수칙	-11364
▁식도	-11365
▁어민	-11366
▁제곱	-11367
▁종양	-11368
▁진공	-11369
▁호출	-11370
▁두개골	-11371
▁민간인	-11372
▁송악읍	-11373
▁증평군	-11374
▁콩쿠르	-11375
▁펼쳐진	-11376
▁선거관리	-11377
▁항공모함	-11378
▁가이드라인	-11379
▁선거관리위원회	-11380
▁싹	-11381
▁쿄	-11382
다지	-11383
살이	-11384
▁강령	-11385
▁급수	-11386
▁나트	-11387
▁더위	-11388
▁동년	-11389
▁메일	-11390
▁분광	-11391
▁불행	-11392
▁사본	-11393
▁세븐	-11394
▁쌓았	-11395
▁염소	-11396
▁영도	-11397
▁이의	-11398
▁주입	-11399
▁춘추	-11400
▁측량	-11401
▁폭포	-11402
트리올	-11403
▁고령자	-11404
▁다양체	-11405
▁집무실	-11406
▁공공시설	-11407
▁독립선언	-11408
▁몬트리올	-11409
▁대전광역시	-11410
▁時	-11411
▁곡물	-11412
▁과열	-11413
▁대제	-11414
▁동당	-11415
▁동이	-11416
▁리우	-11417
▁모교	-11418
▁묘목	-11419
▁사슬	-11420
▁절정	-11421
▁053	-11422
▁무사히	-11423
▁비대위	-11424
ug	-11425
▁佛	-11426
삼성	-11427
▁김도	-11428
▁대내	-11429
▁대역	-11430
▁윌슨	-11431
▁당첨자	-11432
▁으려는	-11433
▁트윈스	-11434
▁스페인어	-11435
▁크리스토	-11436
사리	-11437
연대	-11438
회계	-11439
▁공법	-11440
▁다자	-11441
▁력사	-11442
▁로열	-11443
▁명종	-11444
▁무술	-11445
▁문항	-11446
▁야쿠	-11447
▁양평	-11448
▁오지	-11449
▁유재	-11450
▁재질	-11451
▁전속	-11452
▁정가	-11453
▁팔리	-11454
▁히라	-11455
▁고려인	-11456
▁남동부	-11457
▁빌헬름	-11458
▁선제골	-11459
▁아리랑	-11460
▁전기금	-11461
ect	-11462
▁려던	-11463
▁세심	-11464
▁싸워	-11465
▁어미	-11466
▁최정	-11467
▁담양군	-11468
▁옥수수	-11469
▁믹	-11470
즈카	-11471
킨스	-11472
폭력	-11473
▁We	-11474
▁개화	-11475
▁국보	-11476
▁벽돌	-11477
▁어둠	-11478
▁요가	-11479
▁유흥	-11480
▁작목	-11481
▁퇴장	-11482
▁WWE	-11483
▁비로소	-11484
▁서일본	-11485
▁여행사	-11486
▁파이널	-11487
▁카이사르	-11488
실록	-11489
▁계몽	-11490
▁동위	-11491
▁불타	-11492
▁이연	-11493
▁이완	-11494
▁좌측	-11495
▁퇴적	-11496
▁풍자	-11497
▁황토	-11498
▁Com	-11499
▁OST	-11500
▁멜로디	-11501
▁후지와	-11502
▁재능기부	-11503
▁중앙아시아	-11504
ys	-11505
곡면	-11506
▁계시	-11507
▁관은	-11508
▁나르	-11509
▁보태	-11510
▁양반	-11511
▁잘라	-11512
▁증원	-11513
▁최경	-11514
▁편익	-11515
기념물	-11516
라이터	-11517
▁김성수	-11518
▁넘어서	-11519
▁수학자	-11520
▁영의정	-11521
운동연합	-11522
▁그렇지만	-11523
▁신한은행	-11524
ON	-11525
▁野	-11526
나드	-11527
현동	-11528
▁갈아	-11529
▁구할	-11530
▁근교	-11531
▁단국	-11532
▁시오	-11533
▁신협	-11534
▁장석	-11535
▁제갈	-11536
▁태생	-11537
▁항체	-11538
▁내세워	-11539
▁다저스	-11540
▁스코어	-11541
▁실리콘	-11542
▁아이디	-11543
▁의성군	-11544
▁프로덕션	-11545
테르부르크	-11546
▁잼	-11547
도시	-11548
방향	-11549
우옌	-11550
자스	-11551
줄기	-11552
ial	-11553
▁SD	-11554
▁그로	-11555
▁달인	-11556
▁박주	-11557
▁연전	-11558
▁영수	-11559
▁전광	-11560
▁가평군	-11561
▁농수산	-11562
▁새겨져	-11563
▁오로지	-11564
▁중개사	-11565
▁파란색	-11566
▁온실가스	-11567
▁町	-11568
▁經	-11569
여행	-11570
▁보해	-11571
▁앙리	-11572
▁약사	-11573
▁유진	-11574
▁치솟	-11575
스토랑	-11576
▁아마존	-11577
▁유로파	-11578
▁레스토랑	-11579
▁승부차기	-11580
길이	-11581
드로	-11582
징금	-11583
▁불출	-11584
▁안중	-11585
▁월급	-11586
▁재검	-11587
▁절벽	-11588
▁캐시	-11589
▁콘테	-11590
주의자	-11591
▁마이너	-11592
▁브레이크	-11593
▁皇	-11594
자와	-11595
화물	-11596
▁ST	-11597
▁남산	-11598
▁박승	-11599
▁배워	-11600
▁서훈	-11601
▁수제	-11602
▁아픈	-11603
▁어학	-11604
▁유원	-11605
▁태수	-11606
▁사절단	-11607
▁생존자	-11608
메르	-11609
▁김세	-11610
▁래퍼	-11611
▁메시	-11612
▁명장	-11613
▁무성	-11614
▁무자	-11615
▁미미	-11616
▁스콧	-11617
▁열띤	-11618
▁워커	-11619
▁원반	-11620
▁육종	-11621
▁취향	-11622
▁피우	-11623
▁용의자	-11624
▁가마쿠라	-11625
▁和	-11626
▁後	-11627
▁기질	-11628
▁신진	-11629
▁올릴	-11630
▁테일	-11631
▁포격	-11632
▁필사	-11633
▁NHK	-11634
▁올린다	-11635
▁르노삼성	-11636
▁제주항공	-11637
정동	-11638
티움	-11639
act	-11640
man	-11641
▁개헌	-11642
▁성체	-11643
▁역동	-11644
▁전함	-11645
▁조부	-11646
▁추증	-11647
▁축조	-11648
▁한중	-11649
▁특산품	-11650
▁후원금	-11651
▁디비시온	-11652
▁천연기념물	-11653
▁樂	-11654
노미	-11655
외과	-11656
▁ro	-11657
▁개미	-11658
▁내비	-11659
▁다졌	-11660
▁무서	-11661
▁스핀	-11662
▁심도	-11663
▁유영	-11664
▁육박	-11665
▁저희	-11666
▁향년	-11667
▁화랑	-11668
▁365	-11669
▁도로는	-11670
▁도호쿠	-11671
▁아무것	-11672
▁앞바다	-11673
▁찾아와	-11674
▁해남군	-11675
인명사전	-11676
▁노부나가	-11677
▁히어로즈	-11678
▁스타크래프트	-11679
▁친일인명사전	-11680
▁탤	-11681
타임	-11682
트릭	-11683
▁가쓰	-11684
▁맡기	-11685
▁무색	-11686
▁배당	-11687
▁보라	-11688
▁수축	-11689
▁안다	-11690
▁왜냐	-11691
▁우연	-11692
▁위쪽	-11693
▁유저	-11694
▁이겼	-11695
▁정선	-11696
▁처해	-11697
▁파문	-11698
▁표했	-11699
▁혈통	-11700
▁LIN	-11701
▁되풀이	-11702
▁1916	-11703
▁컨퍼런스	-11704
▁張	-11705
속기	-11706
활약	-11707
▁고베	-11708
▁구절	-11709
▁넘겼	-11710
▁대축	-11711
▁장지	-11712
▁처하	-11713
▁충당	-11714
▁감사패	-11715
▁넘어섰	-11716
▁사업체	-11717
▁새겨진	-11718
▁스파르타	-11719
▁昌	-11720
걸음	-11721
도리	-11722
선스	-11723
증기	-11724
추세	-11725
테랑	-11726
▁기밀	-11727
▁대접	-11728
▁뒤쪽	-11729
▁미성	-11730
▁살포	-11731
▁양념	-11732
▁재래	-11733
▁집결	-11734
▁공사비	-11735
▁대표작	-11736
▁키워드	-11737
▁리메이크	-11738
▁브라이언	-11739
사기	-11740
올라	-11741
제리	-11742
제프	-11743
준호	-11744
▁가옥	-11745
▁겹치	-11746
▁골문	-11747
▁광년	-11748
▁김순	-11749
▁다치	-11750
▁두꺼	-11751
▁바꿨	-11752
▁봄철	-11753
▁순교	-11754
▁신항	-11755
▁싸이	-11756
▁원본	-11757
▁윤창	-11758
▁저격	-11759
▁정렬	-11760
▁주조	-11761
▁최진	-11762
▁풍력	-11763
▁기념품	-11764
▁시제품	-11765
▁에드가	-11766
▁心	-11767
대기	-11768
▁GM	-11769
▁기저	-11770
▁러닝	-11771
▁모스	-11772
▁바실	-11773
▁비석	-11774
▁수인	-11775
▁이코	-11776
▁파우	-11777
▁흑자	-11778
추세츠	-11779
▁맹활약	-11780
▁수용소	-11781
▁시험장	-11782
▁양산시	-11783
▁전시실	-11784
▁철도망	-11785
▁라이선스	-11786
▁매사추세츠	-11787
돋움	-11788
중국	-11789
토시	-11790
▁ML	-11791
▁답사	-11792
▁보직	-11793
▁블리	-11794
▁지옥	-11795
▁충장	-11796
▁평정	-11797
스코트	-11798
▁공사장	-11799
▁모양새	-11800
▁스리랑카	-11801
갈색	-11802
푸스	-11803
ich	-11804
▁Be	-11805
▁고농	-11806
▁만장	-11807
▁발리	-11808
▁세분	-11809
▁실은	-11810
▁종착	-11811
▁피력	-11812
▁기본법	-11813
▁면세점	-11814
▁발돋움	-11815
▁유기농	-11816
▁중의원	-11817
▁크레인	-11818
▁대한항공	-11819
▁스테이트	-11820
노프	-11821
성면	-11822
수아	-11823
ith	-11824
▁바스	-11825
▁시초	-11826
▁오름	-11827
▁원사	-11828
▁의석	-11829
▁전압	-11830
▁투르	-11831
▁합치	-11832
페스트	-11833
▁길거리	-11834
▁김홍장	-11835
▁부여받	-11836
▁아레나	-11837
▁정준영	-11838
▁총선거	-11839
oh	-11840
▁뜬	-11841
거진	-11842
걸이	-11843
파르	-11844
포드	-11845
▁가즈	-11846
▁강우	-11847
▁도보	-11848
▁성형	-11849
▁스폰	-11850
▁영재	-11851
▁예시	-11852
▁오거	-11853
▁황실	-11854
▁거래량	-11855
▁기술자	-11856
▁김진태	-11857
▁대리인	-11858
▁자기장	-11859
▁장학생	-11860
▁핵무기	-11861
▁날카로운	-11862
▁맏	-11863
▁멍	-11864
▁톈	-11865
노부	-11866
마킹	-11867
▁거처	-11868
▁겸직	-11869
▁그대	-11870
▁너지	-11871
▁노년	-11872
▁브래	-11873
▁산시	-11874
▁신나	-11875
▁원만	-11876
▁자궁	-11877
▁총파	-11878
▁케네	-11879
▁태세	-11880
▁훈훈	-11881
느러미	-11882
▁레이다	-11883
▁방사능	-11884
▁응우옌	-11885
▁전문점	-11886
▁퍼센트	-11887
▁벤치마킹	-11888
촌동	-11889
▁사수	-11890
▁세련	-11891
▁신종	-11892
▁요약	-11893
▁정적	-11894
▁코디	-11895
▁풋볼	-11896
▁인사말	-11897
▁주무관	-11898
▁치료법	-11899
▁동아일보	-11900
ack	-11901
▁MW	-11902
▁강세	-11903
▁고법	-11904
▁고집	-11905
▁다량	-11906
▁동독	-11907
▁동정	-11908
▁속했	-11909
▁염두	-11910
▁영등	-11911
▁유휴	-11912
▁자작	-11913
▁정승	-11914
▁한복	-11915
▁레바논	-11916
▁비틀즈	-11917
▁총파업	-11918
▁라트비아	-11919
▁넉	-11920
ock	-11921
▁Sc	-11922
▁나빠	-11923
▁동조	-11924
▁분단	-11925
▁비료	-11926
▁이선	-11927
▁정현	-11928
▁조광	-11929
▁진급	-11930
▁철폐	-11931
▁테라	-11932
▁편한	-11933
▁하향	-11934
▁한족	-11935
▁거느리	-11936
▁사업가	-11937
▁생겨났	-11938
노리	-11939
니치	-11940
우라	-11941
▁’)	-11942
▁공석	-11943
▁까닭	-11944
▁대주	-11945
▁숙련	-11946
▁신곡	-11947
▁였음	-11948
▁조반	-11949
▁차등	-11950
▁챙겨	-11951
▁취한	-11952
▁휴먼	-11953
▁계룡시	-11954
▁전시장	-11955
▁尹	-11956
▁간소	-11957
▁독주	-11958
▁리프	-11959
▁마츠	-11960
▁부결	-11961
▁부풀	-11962
▁선율	-11963
▁시바	-11964
▁인제	-11965
▁재상	-11966
▁지열	-11967
▁후사	-11968
▁후안	-11969
▁EBS	-11970
▁고분군	-11971
▁몸길이	-11972
▁부드럽	-11973
▁앞세워	-11974
▁폄	-11975
▁CA	-11976
▁결핍	-11977
▁동신	-11978
▁드릴	-11979
▁로이	-11980
▁마하	-11981
▁문철	-11982
▁발라	-11983
▁상서	-11984
▁열전	-11985
▁자선	-11986
▁찬사	-11987
▁케미	-11988
▁단말기	-11989
▁드디어	-11990
▁트로트	-11991
▁엔지니어링	-11992
▁크리에이터	-11993
▁팡	-11994
토모	-11995
▁가덕	-11996
▁명제	-11997
▁모친	-11998
▁불복	-11999
▁이별	-12000
▁입맛	-12001
▁쾌속	-12002
▁생긴다	-12003
▁아카이	-12004
▁외교관	-12005
▁플랜트	-12006
▁얹	-12007
▁대합	-12008
▁미수	-12009
▁바디	-12010
▁약국	-12011
▁염려	-12012
▁직영	-12013
▁책자	-12014
▁친근	-12015
▁두려워	-12016
▁물려받	-12017
▁연수구	-12018
▁이뤄져	-12019
▁트리플	-12020
▁공산주의자	-12021
누리	-12022
▁구슬	-12023
▁국지	-12024
▁그랜	-12025
▁김보	-12026
▁끼치	-12027
▁나름	-12028
▁링컨	-12029
▁불펜	-12030
▁업인	-12031
▁일삼	-12032
▁주임	-12033
▁중생	-12034
▁참배	-12035
▁치세	-12036
▁터보	-12037
▁판촉	-12038
▁OEC	-12039
▁개개인	-12040
▁게르만	-12041
▁고고학	-12042
▁기준치	-12043
▁류현진	-12044
▁마스코트	-12045
▁왜냐하면	-12046
▁일러스트	-12047
▁吉	-12048
벨트	-12049
소수	-12050
ore	-12051
▁ES	-12052
▁그릴	-12053
▁글루	-12054
▁분뇨	-12055
▁상경	-12056
▁셀프	-12057
▁우물	-12058
▁저변	-12059
▁절망	-12060
▁제창	-12061
▁좌표	-12062
▁행운	-12063
▁ACC	-12064
▁한마디	-12065
▁어우러진	-12066
▁하인리히	-12067
OR	-12068
벌이	-12069
빨리	-12070
치오	-12071
▁경색	-12072
▁국문	-12073
▁냉전	-12074
▁다투	-12075
▁떠오	-12076
▁미즈	-12077
▁부다	-12078
▁스런	-12079
▁이춘	-12080
▁제물	-12081
▁조승	-12082
▁쾌거	-12083
▁혈중	-12084
칠리아	-12085
▁동호회	-12086
▁맞대결	-12087
▁설립자	-12088
▁劉	-12089
▁木	-12090
▁싼	-12091
▁co	-12092
▁각색	-12093
▁강정	-12094
▁관상	-12095
▁구두	-12096
▁김석	-12097
▁나루	-12098
▁봉안	-12099
▁섭정	-12100
▁순국	-12101
▁실감	-12102
▁안겨	-12103
▁오창	-12104
▁요동	-12105
▁장이	-12106
슬란드	-12107
▁기다려	-12108
▁만난다	-12109
▁보낸다	-12110
▁에디션	-12111
▁컨디션	-12112
▁휴양림	-12113
▁송라이터	-12114
▁윌리엄스	-12115
▁평화통일	-12116
▁환경운동연합	-12117
▁몹	-12118
▁콕	-12119
▁CF	-12120
▁기요	-12121
▁나우	-12122
▁네스	-12123
▁송출	-12124
▁스톡	-12125
▁연차	-12126
▁호전	-12127
▁남동구	-12128
▁영암군	-12129
▁이랜드	-12130
▁컬렉션	-12131
▁OECD	-12132
▁고속버스	-12133
▁아이슬란드	-12134
▁宮	-12135
▁面	-12136
백산	-12137
▁Me	-12138
▁YG	-12139
▁강해	-12140
▁격퇴	-12141
▁김한	-12142
▁데모	-12143
▁도스	-12144
▁사헌	-12145
▁중산	-12146
▁마인드	-12147
아프리카	-12148
▁슬로바키아	-12149
정리	-12150
▁강대	-12151
▁고맙	-12152
▁남방	-12153
▁선점	-12154
▁순방	-12155
▁승소	-12156
▁엔젤	-12157
▁왕성	-12158
▁우상	-12159
▁윤영	-12160
▁이점	-12161
▁입각	-12162
▁토의	-12163
▁해적	-12164
자치도	-12165
▁강남구	-12166
▁당뇨병	-12167
▁와일드	-12168
▁장려상	-12169
특별자치도	-12170
▁줌	-12171
브르	-12172
운다	-12173
▁기일	-12174
▁여중	-12175
▁유독	-12176
▁자르	-12177
▁중진	-12178
▁지면	-12179
▁천하	-12180
▁타지	-12181
▁한눈	-12182
푸르트	-12183
▁남양주	-12184
▁노태우	-12185
▁블루스	-12186
▁아이오	-12187
▁여학생	-12188
▁우라늄	-12189
▁케네디	-12190
▁포천시	-12191
▁한다며	-12192
▁러시아어	-12193
▁카카오톡	-12194
▁제주특별자치도	-12195
▁之	-12196
▁팍	-12197
어졌	-12198
ick	-12199
▁공소	-12200
▁낱말	-12201
▁다변	-12202
▁당위	-12203
▁석조	-12204
▁오바	-12205
가와현	-12206
▁박지훈	-12207
▁通	-12208
그로	-12209
니카	-12210
▁갈래	-12211
▁누락	-12212
▁메커	-12213
▁법상	-12214
▁신주	-12215
▁아부	-12216
▁염기	-12217
▁지폐	-12218
▁참견	-12219
▁호서	-12220
▁희곡	-12221
▁750	-12222
▁NBA	-12223
▁공영주	-12224
▁독일인	-12225
▁사헌부	-12226
▁의료비	-12227
▁시베리아	-12228
▁kW	-12229
▁고온	-12230
▁구자	-12231
▁까다	-12232
▁내성	-12233
▁대진	-12234
▁벅스	-12235
▁변함	-12236
▁재편	-12237
▁조르	-12238
▁특사	-12239
▁석문면	-12240
▁시네마	-12241
▁신문사	-12242
▁휴스턴	-12243
▁1899	-12244
구나	-12245
모어	-12246
▁공습	-12247
▁미라	-12248
▁상작	-12249
▁야드	-12250
▁조감	-12251
▁표출	-12252
▁호세	-12253
▁교황청	-12254
▁꼼꼼히	-12255
▁브로드	-12256
▁충청도	-12257
▁브라우저	-12258
▁트레이닝	-12259
▁찜	-12260
▁캉	-12261
▁핏	-12262
브스	-12263
타고	-12264
ord	-12265
▁기뻐	-12266
▁나스	-12267
▁세비	-12268
▁신대	-12269
▁양동	-12270
▁왜성	-12271
▁유무	-12272
▁조인	-12273
▁진수	-12274
▁탄도	-12275
▁토기	-12276
▁가로막	-12277
▁동반성	-12278
▁보은군	-12279
▁소득세	-12280
▁칠곡군	-12281
▁코무네	-12282
▁메커니즘	-12283
▁에스파냐	-12284
▁이슬람교	-12285
게임	-12286
슬라	-12287
ass	-12288
ens	-12289
▁구출	-12290
▁낙하	-12291
▁담장	-12292
▁면장	-12293
▁방범	-12294
▁상트	-12295
▁숨기	-12296
▁적힌	-12297
▁지킬	-12298
▁초교	-12299
▁드러난	-12300
▁보험금	-12301
▁부천시	-12302
▁블랙홀	-12303
▁농수산물	-12304
▁侯	-12305
▁룽	-12306
▁셸	-12307
▁당권	-12308
▁때려	-12309
▁마력	-12310
▁통폐	-12311
▁합산	-12312
▁해저	-12313
▁몬스터	-12314
▁베테랑	-12315
▁시간대	-12316
▁증명서	-12317
▁천문학자	-12318
▁썰	-12319
노총	-12320
쟁이	-12321
포츠	-12322
▁ch	-12323
▁송시	-12324
▁시한	-12325
▁재혼	-12326
▁판교	-12327
▁펑크	-12328
▁하단	-12329
▁혼다	-12330
▁후회	-12331
▁휴전	-12332
▁히메	-12333
▁and	-12334
▁공의회	-12335
▁아랍어	-12336
▁유학생	-12337
▁그랑프리	-12338
이익	-12339
▁당도	-12340
▁던졌	-12341
▁도루	-12342
▁독보	-12343
▁변이	-12344
▁석회	-12345
▁어휘	-12346
▁온난	-12347
▁웨어	-12348
▁위니	-12349
▁감소세	-12350
▁등록금	-12351
▁유격수	-12352
▁1890	-12353
▁드라이버	-12354
▁콘테스트	-12355
▁블라디미르	-12356
▁딕	-12357
북면	-12358
포로	-12359
▁내과	-12360
▁마린	-12361
▁밝기	-12362
▁사설	-12363
▁접견	-12364
▁취할	-12365
▁III	-12366
▁분기점	-12367
▁생겨나	-12368
▁중성자	-12369
▁LINC	-12370
▁라이브러리	-12371
▁AD	-12372
▁대영	-12373
▁방한	-12374
▁세속	-12375
▁업주	-12376
▁연한	-12377
▁오만	-12378
▁체르	-12379
▁피에	-12380
▁호위	-12381
▁바로잡	-12382
▁일제히	-12383
▁홈구장	-12384
▁힌두교	-12385
▁1902	-12386
▁물리학자	-12387
▁馬	-12388
▁슨	-12389
▁겹쳐	-12390
▁국한	-12391
▁단호	-12392
▁듀오	-12393
▁버티	-12394
▁살린	-12395
▁삼촌	-12396
▁유혹	-12397
▁진한	-12398
▁한옥	-12399
▁들여다	-12400
▁시멘트	-12401
▁제안서	-12402
▁피에르	-12403
▁브라더스	-12404
▁官	-12405
▁崔	-12406
프레	-12407
▁거머	-12408
▁경도	-12409
▁꼽혔	-12410
▁누이	-12411
▁능선	-12412
▁매직	-12413
▁아폴	-12414
▁예타	-12415
▁추위	-12416
▁패한	-12417
▁폐렴	-12418
▁포티	-12419
▁Int	-12420
▁미래형	-12421
▁보호법	-12422
▁스티브	-12423
▁명실상부	-12424
사태	-12425
▁vs	-12426
▁당주	-12427
▁민설	-12428
▁상기	-12429
▁절제	-12430
▁최하	-12431
▁투옥	-12432
▁팔라	-12433
▁한식	-12434
▁환수	-12435
자치시	-12436
▁면밀히	-12437
▁모로코	-12438
▁상주시	-12439
▁줄여서	-12440
▁컨트리	-12441
▁특별자치시	-12442
TE	-12443
ld	-12444
▁가열	-12445
▁겨루	-12446
▁구릉	-12447
▁도선	-12448
▁만찬	-12449
▁사살	-12450
▁선명	-12451
▁야심	-12452
▁옮긴	-12453
▁운하	-12454
▁일컬	-12455
▁잠실	-12456
▁접한	-12457
▁특가	-12458
▁햇빛	-12459
▁선발전	-12460
▁스트리	-12461
▁울릉도	-12462
▁통폐합	-12463
▁학생회	-12464
▁아인슈타인	-12465
▁史	-12466
ind	-12467
▁Bl	-12468
▁감금	-12469
▁담수	-12470
▁소닉	-12471
▁소자	-12472
▁어원	-12473
▁용사	-12474
▁자갈	-12475
▁제인	-12476
▁질타	-12477
▁창녕	-12478
▁케냐	-12479
▁한상	-12480
▁효성	-12481
▁340	-12482
▁RNA	-12483
▁진주시	-12484
▁파이어	-12485
▁괌	-12486
▁웬	-12487
군다	-12488
글라	-12489
▁군중	-12490
▁극우	-12491
▁노화	-12492
▁사드	-12493
▁우아	-12494
▁주시	-12495
▁퍼스	-12496
▁화기	-12497
▁환호	-12498
▁산업체	-12499
▁상트페	-12500
▁자릿수	-12501
▁프로토콜	-12502
▁상트페테르부르크	-12503
▁九	-12504
▁괄	-12505
▁팸	-12506
투어	-12507
▁거둘	-12508
▁서머	-12509
▁석면	-12510
▁섬진	-12511
▁쌓여	-12512
▁예결	-12513
▁인질	-12514
▁자질	-12515
▁접할	-12516
▁첨부	-12517
▁실종자	-12518
▁女	-12519
▁뱃	-12520
징어	-12521
▁구내	-12522
▁덮여	-12523
▁방류	-12524
▁오라	-12525
▁옹진	-12526
▁추계	-12527
▁포병	-12528
▁BMW	-12529
▁난이도	-12530
▁돋보이	-12531
▁장애물	-12532
▁건네	-12533
▁나간	-12534
▁낙태	-12535
▁벤츠	-12536
▁본국	-12537
▁세정	-12538
▁숙청	-12539
▁처녀	-12540
▁군포시	-12541
▁테일러	-12542
▁이에야스	-12543
sh	-12544
▁럼	-12545
▁뾰	-12546
▁He	-12547
▁’.	-12548
▁고액	-12549
▁드라	-12550
▁미비	-12551
▁박기	-12552
▁부피	-12553
▁실기	-12554
▁심폐	-12555
▁아과	-12556
▁워치	-12557
▁증식	-12558
▁체불	-12559
▁판문	-12560
▁피신	-12561
▁피크	-12562
▁그려진	-12563
▁문화전	-12564
▁방글라	-12565
▁서대문	-12566
▁학술지	-12567
▁희망자	-12568
▁비잔티움	-12569
▁방글라데시	-12570
BM	-12571
▁땄	-12572
국수	-12573
▁갈릴	-12574
▁국채	-12575
▁두께	-12576
▁모호	-12577
▁신차	-12578
▁심근	-12579
▁임관	-12580
▁작센	-12581
▁추이	-12582
▁캠핑	-12583
▁피드	-12584
▁혼동	-12585
▁CPU	-12586
▁그다지	-12587
▁남서부	-12588
▁내려졌	-12589
▁동물원	-12590
▁사법부	-12591
▁새로이	-12592
▁스위치	-12593
▁시티즌	-12594
▁왔으나	-12595
▁요르단	-12596
▁조선소	-12597
▁출연진	-12598
▁꽂	-12599
마루	-12600
분별	-12601
타마	-12602
▁개종	-12603
▁관용	-12604
▁끝났	-12605
▁달랐	-12606
▁동장	-12607
▁무명	-12608
▁소충	-12609
▁숨겨	-12610
▁어찌	-12611
▁회가	-12612
▁획단	-12613
▁다문화	-12614
▁소수자	-12615
▁졸업식	-12616
▁함평군	-12617
▁근린공원	-12618
져서	-12619
▁고산	-12620
▁고심	-12621
▁길러	-12622
▁누렸	-12623
▁닷컴	-12624
▁무언	-12625
▁보탬	-12626
▁예년	-12627
▁이학	-12628
▁장래	-12629
▁청자	-12630
▁커스	-12631
▁팽팽	-12632
▁풍선	-12633
▁650	-12634
▁삿포로	-12635
▁진도군	-12636
▁태양계	-12637
▁통치자	-12638
▁黃	-12639
▁볶	-12640
문트	-12641
에미	-12642
종원	-12643
▁굳이	-12644
▁나마	-12645
▁마카	-12646
▁수필	-12647
▁어지	-12648
▁위계	-12649
▁종식	-12650
▁프론	-12651
▁헤비	-12652
▁게릴라	-12653
▁기업가	-12654
▁대호지	-12655
▁라이너	-12656
▁아울렛	-12657
▁원로원	-12658
▁파이프	-12659
▁제국주의	-12660
▁二	-12661
세기	-12662
체육	-12663
▁BC	-12664
▁각서	-12665
▁머스	-12666
▁무로	-12667
▁문희	-12668
▁발맞	-12669
▁사방	-12670
▁사옥	-12671
▁사탕	-12672
▁연립	-12673
▁원유	-12674
▁위함	-12675
▁유보	-12676
▁잇달	-12677
▁축출	-12678
▁트릭	-12679
▁해독	-12680
▁회생	-12681
▁벌인다	-12682
▁아래쪽	-12683
▁탐사선	-12684
▁미스터리	-12685
▁키프로스	-12686
▁基	-12687
시험	-12688
케이	-12689
▁CN	-12690
▁경정	-12691
▁공황	-12692
▁그쳐	-12693
▁김시	-12694
▁단결	-12695
▁두각	-12696
▁둔다	-12697
▁오크	-12698
▁이석	-12699
▁점거	-12700
▁초음	-12701
▁캐피	-12702
▁메디컬	-12703
▁중추원	-12704
▁파주시	-12705
▁자카르타	-12706
▁記	-12707
어냈	-12708
페르	-12709
하나	-12710
ark	-12711
▁가면	-12712
▁극도	-12713
▁늘렸	-12714
▁머무	-12715
▁목판	-12716
▁시식	-12717
▁아치	-12718
▁오미	-12719
▁첼로	-12720
▁칼럼	-12721
게이머	-12722
레스테	-12723
▁김경수	-12724
▁브리지	-12725
▁아이폰	-12726
▁청년층	-12727
▁프로게이머	-12728
▁內	-12729
▁벵	-12730
▁헥	-12731
지르	-12732
혜원	-12733
▁관동	-12734
▁대마	-12735
▁대세	-12736
▁사체	-12737
▁설교	-12738
▁세네	-12739
▁시킴	-12740
▁이빨	-12741
▁자백	-12742
▁초석	-12743
▁과학관	-12744
▁내다봤	-12745
▁무분별	-12746
▁바깥쪽	-12747
▁벗어난	-12748
▁양현종	-12749
▁연기자	-12750
▁영천시	-12751
▁자치회	-12752
▁지리산	-12753
▁탤런트	-12754
▁1898	-12755
aw	-12756
▁論	-12757
▁퐁	-12758
먼드	-12759
처스	-12760
▁BI	-12761
▁다방	-12762
▁대담	-12763
▁이만	-12764
▁추론	-12765
▁퇴출	-12766
미디어	-12767
▁가라앉	-12768
▁똑같이	-12769
▁명령어	-12770
▁무작위	-12771
▁신기록	-12772
▁프랭크	-12773
▁월화드라마	-12774
▁프랑크푸르트	-12775
ET	-12776
▁權	-12777
둥성	-12778
▁계류	-12779
▁국소	-12780
▁바보	-12781
▁박인	-12782
▁방재	-12783
▁법관	-12784
▁수식	-12785
▁숙주	-12786
▁숭고	-12787
▁울림	-12788
▁정우	-12789
▁지났	-12790
▁청색	-12791
▁광양읍	-12792
▁교육비	-12793
▁나타낼	-12794
▁밝혀진	-12795
▁양키스	-12796
▁쯔	-12797
끼리	-12798
포스	-12799
▁"'	-12800
▁EV	-12801
▁끼쳤	-12802
▁답답	-12803
▁병조	-12804
▁어로	-12805
▁중령	-12806
▁출혈	-12807
▁필두	-12808
플러스	-12809
▁원동력	-12810
▁廣	-12811
▁林	-12812
스기	-12813
▁Op	-12814
▁나인	-12815
▁당기	-12816
▁대산	-12817
▁띤다	-12818
▁매실	-12819
▁백악	-12820
▁병기	-12821
▁안개	-12822
▁엿볼	-12823
▁접대	-12824
▁페미	-12825
▁해냈	-12826
▁행방	-12827
▁결의문	-12828
▁전반기	-12829
▁좀처럼	-12830
▁커리어	-12831
▁학교장	-12832
▁아미노산	-12833
pe	-12834
▁重	-12835
▁고난	-12836
▁군비	-12837
▁궁중	-12838
▁노보	-12839
▁녹두	-12840
▁따랐	-12841
▁미안	-12842
▁북대	-12843
▁비추	-12844
▁손잡	-12845
▁시안	-12846
▁영위	-12847
▁정일	-12848
▁체내	-12849
래스카	-12850
▁예선전	-12851
▁임소연	-12852
CN	-12853
▁꿰	-12854
두르	-12855
러드	-12856
소송	-12857
▁국영	-12858
▁김제	-12859
▁나쁘	-12860
▁라운	-12861
▁램프	-12862
▁롤링	-12863
▁못지	-12864
▁사슴	-12865
▁성단	-12866
▁앞쪽	-12867
▁영제	-12868
▁입금	-12869
▁전처	-12870
▁헤라	-12871
▁화고	-12872
▁후진	-12873
베니아	-12874
▁550	-12875
▁Car	-12876
▁돌아갈	-12877
▁송시열	-12878
▁수출입	-12879
▁어려서	-12880
▁원숭이	-12881
▁카리브	-12882
▁타임스	-12883
▁통틀어	-12884
▁페르난	-12885
▁안전교육	-12886
▁콜레스테	-12887
▁릿	-12888
▁툰	-12889
로이	-12890
▁CS	-12891
▁강희	-12892
▁그럴	-12893
▁돼서	-12894
▁러시	-12895
▁물동	-12896
▁박광	-12897
▁서영	-12898
▁지녔	-12899
▁카디	-12900
▁호투	-12901
▁회차	-12902
▁062	-12903
▁줄거리	-12904
▁슬로베니아	-12905
▁콜레스테롤	-12906
ah	-12907
oy	-12908
▁늙	-12909
▁빔	-12910
▁촘	-12911
공산	-12912
훈장	-12913
▁객체	-12914
▁골라	-12915
▁관구	-12916
▁깔끔	-12917
▁너머	-12918
▁대타	-12919
▁만끽	-12920
▁서리	-12921
▁식재	-12922
▁실재	-12923
▁읍내	-12924
▁제독	-12925
▁카테	-12926
▁화강	-12927
▁여행자	-12928
▁유관순	-12929
▁준다는	-12930
▁진정한	-12931
▁취업률	-12932
▁가상현실	-12933
▁的	-12934
겨운	-12935
모스	-12936
업자	-12937
조부	-12938
▁강국	-12939
▁마중	-12940
▁성대	-12941
▁영유	-12942
▁유희	-12943
▁총기	-12944
▁카니	-12945
▁평상	-12946
대원군	-12947
▁KEB	-12948
▁리우스	-12949
▁스러워	-12950
▁충실히	-12951
▁1903	-12952
▁대구광역시	-12953
▁부다페스트	-12954
▁찔	-12955
▁찢	-12956
버른	-12957
크라	-12958
▁견디	-12959
▁골절	-12960
▁세단	-12961
▁티스	-12962
▁후궁	-12963
▁꼭대기	-12964
▁베이비	-12965
▁부산항	-12966
▁사생활	-12967
▁사용량	-12968
▁손꼽히	-12969
▁수출액	-12970
▁전문의	-12971
▁%)’,	-12972
▁將	-12973
누엘	-12974
셰비	-12975
스케	-12976
업소	-12977
ove	-12978
▁과천	-12979
▁귀속	-12980
▁근간	-12981
▁모를	-12982
▁성운	-12983
▁아종	-12984
▁우강	-12985
▁코코	-12986
▁폐교	-12987
▁무등산	-12988
▁발사체	-12989
▁지방산	-12990
▁삐	-12991
▁씌	-12992
▁펫	-12993
타주	-12994
▁난항	-12995
▁만만	-12996
▁미키	-12997
▁미혼	-12998
▁숨졌	-12999
▁실존	-13000
▁심층	-13001
▁앵글	-13002
▁약해	-13003
▁잡히	-13004
▁전범	-13005
▁정병	-13006
▁커질	-13007
▁케인	-13008
▁코프	-13009
▁포화	-13010
▁히사	-13011
▁대단히	-13012
▁머물러	-13013
▁서경석	-13014
▁시흥시	-13015
▁신학교	-13016
▁정수장	-13017
▁표지판	-13018
▁하도급	-13019
▁볼리비아	-13020
▁国	-13021
▁知	-13022
기니	-13023
하시	-13024
▁뾰족	-13025
▁위력	-13026
▁응하	-13027
▁조계	-13028
▁주저	-13029
▁지극	-13030
▁충원	-13031
▁교통량	-13032
▁번호판	-13033
▁세워져	-13034
▁염색체	-13035
▁플라자	-13036
▁谷	-13037
▁뚝	-13038
▁샐	-13039
마드	-13040
신저	-13041
▁걸릴	-13042
▁경량	-13043
▁그랬	-13044
▁기슭	-13045
▁느리	-13046
▁느린	-13047
▁모국	-13048
▁봉투	-13049
▁수교	-13050
▁수온	-13051
▁암흑	-13052
▁요하	-13053
▁원탁	-13054
타이드	-13055
프라노	-13056
▁따른다	-13057
▁리프트	-13058
▁막바지	-13059
▁멜버른	-13060
▁바티칸	-13061
▁여객선	-13062
▁일부분	-13063
▁전자기	-13064
▁지식인	-13065
▁펼쳐질	-13066
사관학교	-13067
▁시칠리아	-13068
▁定	-13069
▁즘	-13070
박이	-13071
승지	-13072
파리	-13073
▁군데	-13074
▁김부	-13075
▁대문	-13076
▁마가	-13077
▁엄지	-13078
▁이룩	-13079
▁장항	-13080
▁접해	-13081
▁품바	-13082
▁프롤	-13083
▁한시	-13084
▁해요	-13085
▁해전	-13086
▁해지	-13087
▁당한다	-13088
▁스피커	-13089
▁찾아보	-13090
▁데이비스	-13091
▁의료관광	-13092
▁寧	-13093
▁趙	-13094
들리	-13095
부진	-13096
MCA	-13097
▁돋보	-13098
▁따돌	-13099
▁멜론	-13100
▁무겁	-13101
▁박동	-13102
▁밥상	-13103
▁선양	-13104
▁윤상	-13105
▁이대	-13106
▁차상	-13107
▁카타	-13108
▁편향	-13109
▁항원	-13110
▁헌장	-13111
▁흡입	-13112
▁내세웠	-13113
▁동문회	-13114
▁복합체	-13115
▁책임감	-13116
▁협력체	-13117
▁줄기세포	-13118
▁체코슬로	-13119
▁총대주교	-13120
▁체코슬로바키아	-13121
▁띈	-13122
그라	-13123
령관	-13124
번스	-13125
저지	-13126
티지	-13127
▁가솔	-13128
▁관음	-13129
▁군함	-13130
▁문건	-13131
▁미숙	-13132
▁본보	-13133
▁봉건	-13134
▁손길	-13135
▁시종	-13136
▁저주	-13137
▁파열	-13138
▁한꺼	-13139
레이트	-13140
▁넘어갔	-13141
▁들어섰	-13142
▁마카오	-13143
▁이나마	-13144
▁문화방송	-13145
▁한꺼번에	-13146
20	-13147
▁•	-13148
토르	-13149
ire	-13150
ism	-13151
▁GA	-13152
▁각성	-13153
▁빙하	-13154
▁수완	-13155
▁수하	-13156
▁예하	-13157
▁잔여	-13158
▁장상	-13159
▁초콜	-13160
프레스	-13161
▁경희대	-13162
▁그림책	-13163
▁뉴저지	-13164
▁옮겨졌	-13165
▁카리스	-13166
▁코스타	-13167
▁판문점	-13168
▁孝	-13169
▁洪	-13170
▁뫼	-13171
러브	-13172
▁검열	-13173
▁결사	-13174
▁김옥	-13175
▁동강	-13176
▁반하	-13177
▁상회	-13178
▁수심	-13179
▁요충	-13180
▁캡쳐	-13181
▁펜실	-13182
▁다가가	-13183
▁데스크	-13184
▁동시대	-13185
▁신분증	-13186
▁완성도	-13187
베이니아	-13188
▁펜실베이니아	-13189
▁간신	-13190
▁걸림	-13191
▁나흘	-13192
▁미끄	-13193
▁성화	-13194
▁수락	-13195
▁쓰촨	-13196
▁연못	-13197
▁원회	-13198
▁인승	-13199
▁조처	-13200
▁중등	-13201
▁타일	-13202
▁특기	-13203
▁티코	-13204
▁평형	-13205
▁850	-13206
▁cod	-13207
▁개그맨	-13208
▁공학부	-13209
▁아닌지	-13210
▁고등교육	-13211
▁수목드라마	-13212
가정	-13213
닐라	-13214
다르	-13215
투리	-13216
ile	-13217
ond	-13218
▁ID	-13219
▁또래	-13220
▁러스	-13221
▁몰두	-13222
▁분출	-13223
▁사소	-13224
▁식용	-13225
▁열망	-13226
▁워드	-13227
▁정구	-13228
▁진구	-13229
▁진이	-13230
▁출렁	-13231
▁치사	-13232
▁후한	-13233
사이드	-13234
▁농경지	-13235
▁줄무늬	-13236
▁중앙선	-13237
▁오사카부	-13238
▁이해관계	-13239
ach	-13240
▁NO	-13241
▁가락	-13242
▁각급	-13243
▁고압	-13244
▁구가	-13245
▁균열	-13246
▁늘어	-13247
▁니코	-13248
▁단서	-13249
▁들리	-13250
▁리빙	-13251
▁북위	-13252
▁비위	-13253
▁시동	-13254
▁안착	-13255
▁연탄	-13256
▁연희	-13257
▁열연	-13258
▁이아	-13259
▁익명	-13260
▁지르	-13261
▁지반	-13262
▁차명	-13263
▁참관	-13264
▁포구	-13265
▁화자	-13266
시지가	-13267
▁기자재	-13268
▁대나무	-13269
▁아이콘	-13270
▁체인지	-13271
▁1880	-13272
▁공시지가	-13273
로폰	-13274
스레	-13275
호텔	-13276
▁강민	-13277
▁꾸미	-13278
▁노고	-13279
▁상반	-13280
▁시국	-13281
▁욕설	-13282
▁정용	-13283
▁조개	-13284
▁증손	-13285
▁현관	-13286
▁희극	-13287
▁기관지	-13288
▁다면서	-13289
▁로맨틱	-13290
▁마음껏	-13291
▁바오로	-13292
▁스폰서	-13293
에미리트	-13294
▁아랍에미리트	-13295
▁엥	-13296
가치	-13297
라기	-13298
부리	-13299
팡이	-13300
▁가창	-13301
▁네오	-13302
▁닛폰	-13303
▁담아	-13304
▁미들	-13305
▁성찰	-13306
▁아디	-13307
▁안테	-13308
▁영하	-13309
▁종속	-13310
▁죄송	-13311
▁코칭	-13312
▁학군	-13313
▁효자	-13314
테르담	-13315
▁225	-13316
▁기록물	-13317
▁동북아	-13318
▁이동하	-13319
▁동성애자	-13320
▁理	-13321
노소	-13322
조류	-13323
카타	-13324
▁』(	-13325
▁따져	-13326
▁마실	-13327
▁베스	-13328
▁본문	-13329
▁삼척	-13330
▁소품	-13331
▁접전	-13332
▁제반	-13333
▁출고	-13334
▁취했	-13335
▁큐브	-13336
▁해충	-13337
▁고속화	-13338
▁김정일	-13339
▁모서리	-13340
▁무언가	-13341
▁보유자	-13342
▁아미타	-13343
▁재검토	-13344
▁받아들일	-13345
보험	-13346
여객	-13347
▁고독	-13348
▁듀얼	-13349
▁머드	-13350
▁박세	-13351
▁수문	-13352
▁유체	-13353
▁이케	-13354
▁초원	-13355
▁타리	-13356
▁흥선	-13357
이스터	-13358
▁남동생	-13359
▁동유럽	-13360
▁부산진	-13361
▁붙여진	-13362
▁성리학	-13363
▁신학자	-13364
▁제조사	-13365
▁조감도	-13366
▁한성부	-13367
▁1400	-13368
▁2500	-13369
▁끌어올리	-13370
▁허리케인	-13371
▁앰	-13372
바야	-13373
쓰기	-13374
▁가든	-13375
▁갑상	-13376
▁구스	-13377
▁냐고	-13378
▁놓였	-13379
▁대용	-13380
▁드레	-13381
▁번성	-13382
▁선천	-13383
▁송금	-13384
▁스킨	-13385
▁시료	-13386
▁신정	-13387
▁의왕	-13388
▁재계	-13389
▁전학	-13390
▁제니	-13391
▁중마	-13392
▁즉석	-13393
▁청결	-13394
▁카지	-13395
플렉스	-13396
▁금산군	-13397
▁비해서	-13398
▁스태프	-13399
▁쏟아지	-13400
▁정세영	-13401
▁출범식	-13402
▁후원자	-13403
▁驛	-13404
효상	-13405
▁')	-13406
▁Cl	-13407
▁GO	-13408
▁PK	-13409
▁과자	-13410
▁끝날	-13411
▁델타	-13412
▁마천	-13413
▁밀레	-13414
▁변모	-13415
▁봐도	-13416
▁양지	-13417
▁열쇠	-13418
▁욕심	-13419
▁지경	-13420
▁커리	-13421
▁평원	-13422
▁평판	-13423
▁호른	-13424
▁흥덕	-13425
▁가져온	-13426
▁김동수	-13427
▁노동청	-13428
▁맞벌이	-13429
▁실무자	-13430
▁천문대	-13431
▁총독부	-13432
▁흩어져	-13433
▁잃어버린	-13434
미사	-13435
웍스	-13436
황후	-13437
▁가혹	-13438
▁견고	-13439
▁기미	-13440
▁너비	-13441
▁돌격	-13442
▁등용	-13443
▁모였	-13444
▁무주	-13445
▁손녀	-13446
▁이홍	-13447
▁중합	-13448
▁출격	-13449
▁친목	-13450
▁동반자	-13451
▁발전기	-13452
▁성장세	-13453
▁역사관	-13454
▁외야수	-13455
▁주소지	-13456
▁코믹스	-13457
▁어우러져	-13458
▁華	-13459
▁륙	-13460
우트	-13461
재해	-13462
준표	-13463
▁관례	-13464
▁교훈	-13465
▁기침	-13466
▁따지	-13467
▁몰라	-13468
▁비법	-13469
▁시코	-13470
▁오디	-13471
▁외환	-13472
▁워낙	-13473
▁유령	-13474
▁유부	-13475
▁정직	-13476
▁조원	-13477
▁천천	-13478
▁토모	-13479
▁표결	-13480
▁한번	-13481
테리아	-13482
▁가로수	-13483
▁리스크	-13484
▁백악관	-13485
▁키보드	-13486
▁YMCA	-13487
▁뿜	-13488
거지	-13489
ide	-13490
▁강기	-13491
▁공보	-13492
▁더글	-13493
▁마야	-13494
▁머니	-13495
▁발열	-13496
▁브뤼	-13497
▁선상	-13498
▁수매	-13499
▁신시	-13500
▁아담	-13501
▁옹립	-13502
▁요지	-13503
▁칼라	-13504
▁특전	-13505
▁FTA	-13506
▁대내외	-13507
▁입장료	-13508
▁재판관	-13509
▁줄어드	-13510
▁천천히	-13511
▁아리스토	-13512
ax	-13513
▁圖	-13514
버리	-13515
카가	-13516
컨대	-13517
ory	-13518
▁디렉	-13519
▁매화	-13520
▁모나	-13521
▁박한	-13522
▁발각	-13523
▁아로	-13524
▁유능	-13525
▁이길	-13526
▁저온	-13527
▁절친	-13528
▁조롱	-13529
▁퇴치	-13530
브리지	-13531
▁거쳐야	-13532
▁누리꾼	-13533
▁대구대	-13534
▁베네딕	-13535
▁잡아먹	-13536
▁찾아온	-13537
▁자연재해	-13538
▁아카데미상	-13539
EN	-13540
거나	-13541
나스	-13542
바시	-13543
사랑	-13544
ath	-13545
▁공관	-13546
▁교동	-13547
▁부식	-13548
▁소액	-13549
▁소양	-13550
▁스마	-13551
▁어쩌	-13552
▁옆면	-13553
▁자음	-13554
▁적도	-13555
▁정맥	-13556
▁채팅	-13557
▁청량	-13558
타리오	-13559
▁Wor	-13560
▁가솔린	-13561
▁단기간	-13562
▁달아났	-13563
▁떠올랐	-13564
▁로페이	-13565
▁소유주	-13566
▁아리아	-13567
▁합병증	-13568
▁1860	-13569
▁남녀노소	-13570
타로	-13571
▁대경	-13572
▁독감	-13573
▁둥글	-13574
▁로그	-13575
▁반찬	-13576
▁성도	-13577
▁심문	-13578
▁아날	-13579
▁애호	-13580
▁외지	-13581
▁유민	-13582
▁유서	-13583
▁이범	-13584
▁종래	-13585
▁피오	-13586
▁031	-13587
▁나아갈	-13588
▁출입문	-13589
▁컨텐츠	-13590
▁이코노미	-13591
uc	-13592
▁얕	-13593
대신	-13594
샤바	-13595
셔츠	-13596
▁MP	-13597
▁가닥	-13598
▁거창	-13599
▁경합	-13600
▁기니	-13601
▁당사	-13602
▁모차	-13603
▁벨리	-13604
▁별관	-13605
▁보로	-13606
▁본청	-13607
▁불금	-13608
▁쇄신	-13609
▁액수	-13610
▁육회	-13611
▁자회	-13612
▁정변	-13613
▁중공	-13614
▁증여	-13615
▁파출	-13616
▁피지	-13617
▁하행	-13618
▁해밀	-13619
▁헬리	-13620
라이드	-13621
▁유승민	-13622
▁자유형	-13623
▁하모니	-13624
RO	-13625
급식	-13626
분투	-13627
츠크	-13628
▁검역	-13629
▁단정	-13630
▁돌출	-13631
▁미지	-13632
▁발포	-13633
▁벽면	-13634
▁소령	-13635
▁숙성	-13636
▁자형	-13637
▁찬스	-13638
▁총량	-13639
▁평지	-13640
베르토	-13641
▁레이더	-13642
▁모터쇼	-13643
▁부서장	-13644
▁영원히	-13645
▁우루스	-13646
▁이시종	-13647
▁조현우	-13648
▁청년회	-13649
▁케이크	-13650
▁롯데마트	-13651
▁무상급식	-13652
TT	-13653
▁對	-13654
그리	-13655
니지	-13656
양함	-13657
엑스	-13658
올로	-13659
톨레	-13660
▁MB	-13661
▁관악	-13662
▁로우	-13663
▁버드	-13664
▁수녀	-13665
▁심부	-13666
▁오오	-13667
▁윤성	-13668
▁진통	-13669
▁추종	-13670
▁파고	-13671
▁학설	-13672
▁합친	-13673
▁허물	-13674
▁혈세	-13675
▁군산시	-13676
▁야마토	-13677
▁조사단	-13678
ML	-13679
▁됩	-13680
▁맷	-13681
비나	-13682
폴리	-13683
▁mg	-13684
▁계란	-13685
▁누수	-13686
▁매도	-13687
▁보위	-13688
▁양면	-13689
▁원점	-13690
▁잠깐	-13691
▁조교	-13692
▁지오	-13693
▁집적	-13694
▁탈피	-13695
▁해부	-13696
▁호법	-13697
▁메신저	-13698
▁물동량	-13699
▁보수당	-13700
▁삼거리	-13701
▁저질렀	-13702
▁초콜릿	-13703
▁코끼리	-13704
▁터뜨리	-13705
▁1871	-13706
▁교통수단	-13707
▁아시카가	-13708
▁준결승전	-13709
▁므	-13710
▁혀	-13711
결연	-13712
블로	-13713
▁구토	-13714
▁날려	-13715
▁대청	-13716
▁라돈	-13717
▁월미	-13718
▁전구	-13719
▁페인	-13720
▁효고	-13721
셰비키	-13722
▁SRF	-13723
▁개최지	-13724
▁걸림돌	-13725
▁레시피	-13726
▁보일러	-13727
▁북유럽	-13728
▁요양원	-13729
▁지상파	-13730
▁진행자	-13731
▁1901	-13732
▁둘러싸여	-13733
▁자매결연	-13734
▁카를로스	-13735
▁다문화가정	-13736
▁±	-13737
유행	-13738
ont	-13739
▁DA	-13740
▁EC	-13741
▁Gr	-13742
▁구본	-13743
▁발부	-13744
▁별세	-13745
▁산호	-13746
▁어가	-13747
▁잡힌	-13748
▁전전	-13749
▁제왕	-13750
▁찬양	-13751
▁컴파	-13752
▁코오	-13753
▁토시	-13754
▁퍼즐	-13755
▁피자	-13756
ence	-13757
▁POP	-13758
▁김종현	-13759
▁대합실	-13760
▁동대문	-13761
▁맞물려	-13762
▁오토바이	-13763
▁뉴턴	-13764
▁반가	-13765
▁비싸	-13766
▁서자	-13767
▁약점	-13768
▁오찬	-13769
▁이데	-13770
▁참신	-13771
▁카나	-13772
▁카네	-13773
▁IOC	-13774
▁기지시	-13775
▁당선자	-13776
▁매거진	-13777
▁섬진강	-13778
▁어긋나	-13779
▁예술단	-13780
▁지나친	-13781
▁캔자스	-13782
▁통일부	-13783
▁일렉트로	-13784
▁익스프레스	-13785
pp	-13786
▁六	-13787
부상	-13788
안군	-13789
자르	-13790
지기	-13791
▁민경	-13792
▁변해	-13793
▁이단	-13794
▁이회	-13795
▁자행	-13796
▁전래	-13797
▁판례	-13798
▁피리	-13799
▁피치	-13800
▁호반	-13801
▁호재	-13802
▁환율	-13803
▁효종	-13804
베트남	-13805
▁떠올리	-13806
▁삼국지	-13807
▁안철수	-13808
▁울타리	-13809
▁페르디	-13810
▁상업시설	-13811
▁스트라이크	-13812
NK	-13813
▁分	-13814
일치	-13815
지붕	-13816
▁다닐	-13817
▁대웅	-13818
▁산성	-13819
▁역류	-13820
▁이타	-13821
▁일어	-13822
▁일파	-13823
▁전폭	-13824
▁주심	-13825
▁홍익	-13826
▁휘말	-13827
파이어	-13828
▁WHO	-13829
▁You	-13830
▁교수진	-13831
▁니콜라	-13832
▁발걸음	-13833
▁안전성	-13834
MI	-13835
▁守	-13836
▁렐	-13837
▁짠	-13838
절기	-13839
▁달해	-13840
▁대검	-13841
▁박민	-13842
▁베어	-13843
▁본연	-13844
▁승선	-13845
▁신명	-13846
▁심신	-13847
▁양정	-13848
▁익히	-13849
▁조짐	-13850
▁종일	-13851
▁크롬	-13852
▁파병	-13853
▁New	-13854
▁올라왔	-13855
▁이주하	-13856
▁장년층	-13857
▁장흥군	-13858
▁1300	-13859
▁御	-13860
카미	-13861
▁강철	-13862
▁공해	-13863
▁귀여	-13864
▁노바	-13865
▁레온	-13866
▁리본	-13867
▁살균	-13868
▁이봉	-13869
▁추서	-13870
▁친족	-13871
▁한림	-13872
▁항생	-13873
▁달라진	-13874
▁디트로	-13875
▁백종원	-13876
▁악영향	-13877
▁알제리	-13878
▁유전체	-13879
▁전광판	-13880
▁청동기	-13881
▁1700	-13882
▁달라진다	-13883
▁도요토미	-13884
▁옥스퍼드	-13885
▁디트로이트	-13886
▁反	-13887
▁고트	-13888
▁담사	-13889
▁바빌	-13890
▁비산	-13891
▁살라	-13892
▁생육	-13893
▁선봉	-13894
▁압수	-13895
▁앵커	-13896
▁테레	-13897
▁트림	-13898
▁포즈	-13899
▁한울	-13900
▁화사	-13901
▁공통점	-13902
▁그려졌	-13903
▁따라가	-13904
▁선구자	-13905
▁수사관	-13906
▁실업자	-13907
▁아쉬운	-13908
▁에이즈	-13909
▁연대기	-13910
▁오랜만	-13911
▁十	-13912
▁鎭	-13913
▁깡	-13914
▁랍	-13915
▁릉	-13916
백과	-13917
변이	-13918
브레	-13919
▁가신	-13920
▁갑옷	-13921
▁관청	-13922
▁반장	-13923
▁불허	-13924
▁성문	-13925
▁열도	-13926
▁재조	-13927
▁조공	-13928
▁초안	-13929
▁치밀	-13930
▁터져	-13931
▁필하	-13932
▁학관	-13933
ater	-13934
▁IMF	-13935
▁가져다	-13936
▁관리비	-13937
▁대지진	-13938
▁민원실	-13939
▁돌연변이	-13940
▁시켰으며	-13941
▁春	-13942
▁궐	-13943
▁넌	-13944
▁른	-13945
고스	-13946
구르	-13947
레타	-13948
yst	-13949
▁RA	-13950
▁건륭	-13951
▁관사	-13952
▁따왔	-13953
▁모던	-13954
▁보헤	-13955
▁분사	-13956
▁불공	-13957
▁승마	-13958
▁페니	-13959
▁간단히	-13960
▁간호학	-13961
▁뉴욕주	-13962
▁안양시	-13963
▁올라온	-13964
▁직매장	-13965
▁콜라보	-13966
마이오스	-13967
▁1897	-13968
▁애틀랜타	-13969
▁늪	-13970
▁횃	-13971
에스	-13972
평동	-13973
▁간토	-13974
▁기틀	-13975
▁명부	-13976
▁무스	-13977
▁분실	-13978
▁분주	-13979
▁생가	-13980
▁선대	-13981
▁수만	-13982
▁에콰	-13983
▁영진	-13984
▁줄곧	-13985
▁펀딩	-13986
▁포터	-13987
▁힘썼	-13988
스크림	-13989
▁가치관	-13990
▁루이지	-13991
▁법원장	-13992
▁올라오	-13993
▁코오롱	-13994
▁포도당	-13995
▁폭격기	-13996
▁에콰도르	-13997
GA	-13998
▁α	-13999
▁建	-14000
▁펩	-14001
행정	-14002
age	-14003
ite	-14004
▁구석	-14005
▁급변	-14006
▁다듬	-14007
▁레즈	-14008
▁막강	-14009
▁매카	-14010
▁미관	-14011
▁성동	-14012
▁약혼	-14013
▁원더	-14014
▁윤보	-14015
▁윤평	-14016
▁잡혔	-14017
▁장동	-14018
▁주선	-14019
▁직경	-14020
▁포대	-14021
▁한껏	-14022
▁헬륨	-14023
영향평가	-14024
▁소프라노	-14025
▁콘퍼런스	-14026
▁환경영향평가	-14027
▁괘	-14028
고래	-14029
그레	-14030
▁고질	-14031
▁낮춰	-14032
▁수납	-14033
▁왜구	-14034
▁일일	-14035
▁장제	-14036
▁축전	-14037
▁현미	-14038
▁홀리	-14039
립니다	-14040
▁김해일	-14041
▁내려놓	-14042
▁들어올	-14043
▁마우스	-14044
▁사용료	-14045
▁소방대	-14046
▁연합국	-14047
▁1884	-14048
▁돌아다니	-14049
▁라디오스타	-14050
pt	-14051
▁찐	-14052
도스	-14053
메니	-14054
부로	-14055
지스	-14056
홍철	-14057
▁가비	-14058
▁가오	-14059
▁구실	-14060
▁귀추	-14061
▁돌기	-14062
▁따온	-14063
▁리보	-14064
▁만년	-14065
▁맛보	-14066
▁목회	-14067
▁소용	-14068
▁스턴	-14069
▁연정	-14070
▁전단	-14071
▁종말	-14072
▁주이	-14073
▁지미	-14074
▁타구	-14075
▁튜버	-14076
시아드	-14077
▁사쿠라	-14078
▁설치류	-14079
▁순이익	-14080
▁스티커	-14081
▁오거돈	-14082
▁요충지	-14083
▁지방비	-14084
▁치러졌	-14085
공항공사	-14086
▁카리스마	-14087
▁유니버시아드	-14088
개미	-14089
무게	-14090
▁CM	-14091
▁감마	-14092
▁격자	-14093
▁결별	-14094
▁구한	-14095
▁기승	-14096
▁대추	-14097
▁디바	-14098
▁물의	-14099
▁민물	-14100
▁불로	-14101
▁손수	-14102
▁신현	-14103
▁약제	-14104
▁잠복	-14105
▁추운	-14106
▁파기	-14107
▁혈당	-14108
orea	-14109
▁기공식	-14110
▁누리집	-14111
▁대법관	-14112
▁몸무게	-14113
▁사라져	-14114
▁서기관	-14115
▁아스널	-14116
▁양주시	-14117
▁전달식	-14118
▁집중력	-14119
▁차진영	-14120
▁통신망	-14121
▁온타리오	-14122
▁親	-14123
▁렘	-14124
거스	-14125
겹살	-14126
위치	-14127
틱스	-14128
are	-14129
ber	-14130
▁Ph	-14131
▁레논	-14132
▁마차	-14133
▁반주	-14134
▁불린	-14135
▁선우	-14136
▁세밀	-14137
▁송파	-14138
▁열풍	-14139
▁정희	-14140
▁추행	-14141
▁퇴진	-14142
▁풍광	-14143
▁하청	-14144
▁할까	-14145
▁흉기	-14146
▁느냐는	-14147
▁두드러	-14148
▁라이언	-14149
▁삼겹살	-14150
▁나간다는	-14151
▁일리노이	-14152
▁이탈리아어	-14153
▁多	-14154
▁홉	-14155
로움	-14156
쩌둥	-14157
피어	-14158
학습	-14159
▁SE	-14160
▁냉방	-14161
▁당수	-14162
▁마녀	-14163
▁상행	-14164
▁소정	-14165
▁신세	-14166
▁여래	-14167
▁외형	-14168
▁자처	-14169
▁총칭	-14170
▁팔렸	-14171
▁횃불	-14172
▁금강산	-14173
▁기울였	-14174
▁떨어질	-14175
▁미네소	-14176
▁부평구	-14177
▁슬라브	-14178
▁웨스턴	-14179
▁주먹밥	-14180
▁트로이	-14181
▁로봇산업	-14182
▁마오쩌둥	-14183
▁가나가와현	-14184
▁북아프리카	-14185
▁크리스티안	-14186
▁阿	-14187
쿠버	-14188
▁GB	-14189
▁가늠	-14190
▁개동	-14191
▁게끔	-14192
▁내기	-14193
▁병해	-14194
▁수로	-14195
▁시부	-14196
▁용액	-14197
▁워즈	-14198
▁재벌	-14199
▁전위	-14200
▁카롤	-14201
▁케임	-14202
▁판본	-14203
▁한스	-14204
▁걸린다	-14205
▁되새기	-14206
▁미성년	-14207
▁연기력	-14208
▁자외선	-14209
▁적시타	-14210
▁1870	-14211
▁바리스타	-14212
▁사이타마	-14213
▁아날로그	-14214
▁위키백과	-14215
▁아이스크림	-14216
▁흥선대원군	-14217
ational	-14218
▁codice	-14219
▁立	-14220
▁텀	-14221
마켓	-14222
ost	-14223
▁Ad	-14224
▁경청	-14225
▁리뉴	-14226
▁릴리	-14227
▁망치	-14228
▁백일	-14229
▁연체	-14230
▁인계	-14231
▁철새	-14232
▁탄원	-14233
▁가져가	-14234
▁갈리아	-14235
▁공민왕	-14236
▁나트륨	-14237
▁이영민	-14238
▁정착지	-14239
▁모차르트	-14240
▁물놀이장	-14241
▁출렁다리	-14242
칼리	-14243
ung	-14244
▁Am	-14245
▁경질	-14246
▁도사	-14247
▁동선	-14248
▁맡겨	-14249
▁복당	-14250
▁불문	-14251
▁뽐내	-14252
▁섹션	-14253
▁완수	-14254
▁외벽	-14255
▁우림	-14256
▁정장	-14257
▁죽인	-14258
▁즐겼	-14259
▁칼슘	-14260
▁키트	-14261
▁토이	-14262
▁풀리	-14263
▁하류	-14264
▁형조	-14265
▁국산화	-14266
▁그래미	-14267
▁그레고	-14268
▁나타낸	-14269
▁발라드	-14270
▁스케치	-14271
▁딤	-14272
▁푹	-14273
더슨	-14274
우마	-14275
충류	-14276
▁LC	-14277
▁나쁨	-14278
▁당할	-14279
▁로빈	-14280
▁막말	-14281
▁미노	-14282
▁삼림	-14283
▁설렘	-14284
▁원종	-14285
▁으리	-14286
▁카우	-14287
▁태아	-14288
▁포고	-14289
▁한약	-14290
원숭이	-14291
▁380	-14292
▁검색어	-14293
▁됩니다	-14294
▁몰아내	-14295
▁박지원	-14296
▁범죄자	-14297
▁선거인	-14298
▁올리브	-14299
▁파이터	-14300
▁스튜어트	-14301
▁지지부진	-14302
▁프랑수아	-14303
돌이	-14304
딩스	-14305
벤처	-14306
푸르	-14307
▁Ex	-14308
▁NE	-14309
▁궁궐	-14310
▁레미	-14311
▁몰입	-14312
▁사간	-14313
▁산청	-14314
▁실과	-14315
▁차용	-14316
▁촘촘	-14317
▁토종	-14318
▁파헤	-14319
▁계약금	-14320
▁고성군	-14321
▁올라갔	-14322
▁펼쳐져	-14323
▁프톨레	-14324
▁체험학습	-14325
▁프톨레마이오스	-14326
▁方	-14327
▁짱	-14328
▁탔	-14329
나물	-14330
텍스	-14331
ary	-14332
▁PL	-14333
▁난징	-14334
▁상국	-14335
▁서동	-14336
▁스노	-14337
▁시력	-14338
▁시합	-14339
▁은혜	-14340
▁집착	-14341
▁코시	-14342
▁평민	-14343
▁한문	-14344
하우스	-14345
▁고위험	-14346
▁넘어선	-14347
▁도카이	-14348
▁상상력	-14349
▁아키타	-14350
▁이영자	-14351
▁플레이스	-14352
▁합스부르크	-14353
글리	-14354
어붙	-14355
집합	-14356
택시	-14357
히토	-14358
▁거칠	-14359
▁김덕	-14360
▁넉넉	-14361
▁멈춰	-14362
▁무진	-14363
▁본성	-14364
▁산동	-14365
▁살짝	-14366
▁소동	-14367
▁식이	-14368
▁악용	-14369
▁제지	-14370
▁척도	-14371
▁키웠	-14372
▁호모	-14373
▁홍영	-14374
텔레스	-14375
olog	-14376
▁게이지	-14377
▁세이부	-14378
▁오른손	-14379
▁오징어	-14380
▁하수도	-14381
▁시티투어	-14382
▁어드벤처	-14383
▁周	-14384
▁堂	-14385
▁直	-14386
공신	-14387
자동	-14388
▁뇌졸	-14389
▁도교	-14390
▁뜨거	-14391
▁마구	-14392
▁만기	-14393
▁무고	-14394
▁무어	-14395
▁문턱	-14396
▁소대	-14397
▁속주	-14398
▁식전	-14399
▁요트	-14400
▁윤봉	-14401
▁이륜	-14402
▁조이	-14403
▁체스	-14404
▁타로	-14405
▁황색	-14406
▁떠난다	-14407
▁마운트	-14408
▁바이킹	-14409
▁브리튼	-14410
▁온누리	-14411
▁티셔츠	-14412
▁홍준표	-14413
▁’...	-14414
▁시즈오카	-14415
▁안토니오	-14416
▁획기적으로	-14417
인구	-14418
▁경각	-14419
▁고군	-14420
▁내분	-14421
▁농정	-14422
▁로또	-14423
▁비춰	-14424
▁소말	-14425
▁연천	-14426
▁준하	-14427
▁중퇴	-14428
▁카미	-14429
▁투항	-14430
▁흥분	-14431
▁급속히	-14432
▁대서양	-14433
▁발기인	-14434
▁스케일	-14435
▁을수록	-14436
▁장시간	-14437
▁조병옥	-14438
▁할수록	-14439
▁올랐으며	-14440
▁일으킨다	-14441
▁참모총장	-14442
▁포레스트	-14443
90	-14444
▁`	-14445
▁殿	-14446
▁雲	-14447
무스	-14448
틀리	-14449
▁GP	-14450
▁경복	-14451
▁관공	-14452
▁금토	-14453
▁내시	-14454
▁니카	-14455
▁박현	-14456
▁반공	-14457
▁베니	-14458
▁불길	-14459
▁실외	-14460
▁연초	-14461
▁정예	-14462
▁제단	-14463
▁제프	-14464
▁져서	-14465
▁친숙	-14466
▁황선	-14467
▁문학관	-14468
▁사회당	-14469
▁京	-14470
루냐	-14471
▁경시	-14472
▁국교	-14473
▁급히	-14474
▁끝냈	-14475
▁매번	-14476
▁박명	-14477
▁센티	-14478
▁아낌	-14479
▁연달	-14480
▁오정	-14481
▁유람	-14482
▁유림	-14483
▁유세	-14484
▁은폐	-14485
▁자취	-14486
▁정반	-14487
▁주화	-14488
▁차림	-14489
▁퀘벡	-14490
▁한가	-14491
▁기사단	-14492
▁도자기	-14493
▁레이트	-14494
▁미친다	-14495
▁스즈키	-14496
▁왕세자	-14497
▁일일이	-14498
▁하워드	-14499
▁가정폭력	-14500
▁스케이트	-14501
▁아리스토텔레스	-14502
▁SO	-14503
▁대의	-14504
▁더러	-14505
▁드루	-14506
▁복직	-14507
▁블로	-14508
▁예우	-14509
▁유상	-14510
▁탈취	-14511
▁폄훼	-14512
▁퓨전	-14513
클레스	-14514
▁경전선	-14515
▁뇌졸중	-14516
▁목적지	-14517
▁이성계	-14518
▁차가운	-14519
▁크레이	-14520
방송공사	-14521
▁안타까운	-14522
▁파라과이	-14523
▁https	-14524
디나	-14525
마쓰	-14526
반구	-14527
▁낯선	-14528
▁물놀	-14529
▁발진	-14530
▁사서	-14531
▁상선	-14532
▁스윙	-14533
▁에우	-14534
▁여도	-14535
▁월세	-14536
▁점진	-14537
▁정월	-14538
▁직행	-14539
▁차차	-14540
▁차출	-14541
▁호쿠	-14542
라이어	-14543
▁205	-14544
▁강효상	-14545
▁미하일	-14546
▁바닷물	-14547
▁박남춘	-14548
▁사유지	-14549
▁제막식	-14550
▁주택가	-14551
▁1868	-14552
▁1885	-14553
▁였으므로	-14554
▁z	-14555
▁利	-14556
▁곶	-14557
나갔	-14558
리크	-14559
링턴	-14560
▁LP	-14561
▁My	-14562
▁더비	-14563
▁따내	-14564
▁예조	-14565
▁용암	-14566
▁우두	-14567
▁위크	-14568
▁임정	-14569
▁재회	-14570
▁켈리	-14571
▁항암	-14572
디에이	-14573
▁봉화군	-14574
▁불공정	-14575
▁선언문	-14576
▁쏠린다	-14577
▁안중근	-14578
▁영국인	-14579
▁윤치호	-14580
▁클리닉	-14581
▁패러디	-14582
▁민간단체	-14583
Hz	-14584
그래	-14585
난성	-14586
하늘	-14587
▁En	-14588
▁가했	-14589
▁감기	-14590
▁검도	-14591
▁겐지	-14592
▁라미	-14593
▁문정	-14594
▁발동	-14595
▁비장	-14596
▁손목	-14597
▁실책	-14598
▁연제	-14599
▁오노	-14600
▁울프	-14601
▁장덕	-14602
▁전과	-14603
▁천지	-14604
▁총체	-14605
▁측은	-14606
▁탄약	-14607
▁한라	-14608
▁화답	-14609
▁"()	-14610
▁메이크	-14611
▁파나마	-14612
▁프린터	-14613
▁만장일치	-14614
▁베스트셀러	-14615
de	-14616
▁퉁	-14617
내기	-14618
뿌리	-14619
시즘	-14620
▁관서	-14621
▁구금	-14622
▁권총	-14623
▁내구	-14624
▁다뤄	-14625
▁로움	-14626
▁명하	-14627
▁벌레	-14628
▁변론	-14629
▁상병	-14630
▁소명	-14631
▁야권	-14632
▁이거	-14633
▁집정	-14634
▁표류	-14635
▁호의	-14636
신세계	-14637
▁256	-14638
▁대리점	-14639
▁면역력	-14640
▁불출마	-14641
▁아니하	-14642
▁음악원	-14643
▁정치가	-14644
▁삼국사기	-14645
▁광주신세계	-14646
▁케임브리지	-14647
▁뭔	-14648
어야	-14649
▁Br	-14650
▁라기	-14651
▁모모	-14652
▁애완	-14653
▁엔드	-14654
▁오로	-14655
▁원룸	-14656
▁유자	-14657
▁청계	-14658
▁출루	-14659
▁투약	-14660
▁평했	-14661
▁하의	-14662
▁내려와	-14663
▁내린다	-14664
▁다시금	-14665
▁담아내	-14666
▁무용단	-14667
▁발맞춰	-14668
▁버클리	-14669
▁파출소	-14670
▁해안가	-14671
▁건국훈장	-14672
▁마이스터	-14673
▁바르샤바	-14674
▁행정소송	-14675
DS	-14676
▁잣	-14677
ome	-14678
▁거꾸	-14679
▁공리	-14680
▁남하	-14681
▁돌풍	-14682
▁떠날	-14683
▁띈다	-14684
▁루카	-14685
▁모셔	-14686
▁목장	-14687
▁속초	-14688
▁애칭	-14689
▁야수	-14690
▁치우	-14691
▁투병	-14692
▁피겨	-14693
▁드러머	-14694
▁바우처	-14695
▁신호등	-14696
▁업무상	-14697
▁이주민	-14698
▁구마모토	-14699
▁야마구치	-14700
▁마르크스주의	-14701
▁化	-14702
▁萬	-14703
대사	-14704
동자	-14705
밸리	-14706
봉사	-14707
▁고토	-14708
▁농공	-14709
▁때리	-14710
▁림프	-14711
▁방조	-14712
▁분장	-14713
▁브릿	-14714
▁사가	-14715
▁사비	-14716
▁삽화	-14717
▁줄였	-14718
▁추리	-14719
▁퇴역	-14720
▁페로	-14721
▁김상수	-14722
▁내세운	-14723
▁사계절	-14724
▁아돌프	-14725
▁영양군	-14726
▁월평균	-14727
▁유대교	-14728
▁행정관	-14729
▁初	-14730
▁藤	-14731
▁썩	-14732
감치	-14733
해서	-14734
▁고요	-14735
▁굳건	-14736
▁달구	-14737
▁몸통	-14738
▁스로	-14739
▁안과	-14740
▁월성	-14741
▁인칭	-14742
▁지참	-14743
▁최민	-14744
▁캐리	-14745
▁토미	-14746
▁토사	-14747
세데스	-14748
찌감치	-14749
▁CBS	-14750
▁다름없	-14751
▁더구나	-14752
▁바로크	-14753
▁사적지	-14754
▁여행지	-14755
▁파일럿	-14756
▁홍보물	-14757
▁관현악단	-14758
▁메르세데스	-14759
다운	-14760
동원	-14761
ies	-14762
▁Wh	-14763
▁루키	-14764
▁메라	-14765
▁비뉴	-14766
▁샤프	-14767
▁애덤	-14768
▁애리	-14769
▁에프	-14770
▁유시	-14771
▁정액	-14772
▁징병	-14773
▁친밀	-14774
▁함선	-14775
연구원	-14776
▁거머쥐	-14777
▁경성부	-14778
▁덩어리	-14779
▁붙잡혔	-14780
▁최하위	-14781
▁네이션스	-14782
▁아라비아	-14783
▁트라우마	-14784
▁스트라이커	-14785
프로	-14786
▁동두	-14787
▁부울	-14788
▁스칼	-14789
▁열흘	-14790
▁용객	-14791
▁우뚝	-14792
▁자서	-14793
▁재량	-14794
▁주성	-14795
▁주안	-14796
▁천국	-14797
▁초보	-14798
▁치를	-14799
▁칠성	-14800
▁침범	-14801
▁카바	-14802
▁커브	-14803
▁타파	-14804
▁텍스	-14805
▁420	-14806
▁거꾸로	-14807
▁검은색	-14808
▁서유럽	-14809
▁옹진군	-14810
나들	-14811
난방	-14812
▁강단	-14813
▁공설	-14814
▁녹차	-14815
▁눈부	-14816
▁맥도	-14817
▁실물	-14818
▁실상	-14819
▁심훈	-14820
▁야행	-14821
▁윤곽	-14822
▁이한	-14823
▁자오	-14824
▁접경	-14825
▁초신	-14826
▁총격	-14827
▁탄산	-14828
▁파행	-14829
▁하리	-14830
▁화약	-14831
ment	-14832
▁경전철	-14833
▁극장판	-14834
▁사이즈	-14835
▁사이토	-14836
▁프란츠	-14837
▁휴가철	-14838
▁와이번스	-14839
▁쑨	-14840
▁쾰	-14841
기사	-14842
▁강습	-14843
▁겸비	-14844
▁구부	-14845
▁박준	-14846
▁세키	-14847
▁스가	-14848
▁아연	-14849
▁안주	-14850
▁예찰	-14851
▁임업	-14852
▁자칭	-14853
▁청룡	-14854
▁한신	-14855
▁206	-14856
▁390	-14857
▁공용어	-14858
▁대대로	-14859
▁업로드	-14860
▁예수회	-14861
▁요금제	-14862
▁울릉군	-14863
▁졌으나	-14864
▁콤팩트	-14865
▁특별회계	-14866
▁井	-14867
걸리	-14868
나오	-14869
득점	-14870
러그	-14871
▁%·	-14872
▁갈리	-14873
▁계량	-14874
▁관철	-14875
▁마신	-14876
▁미학	-14877
▁얼룩	-14878
▁재외	-14879
▁정량	-14880
▁정영	-14881
▁폭파	-14882
노미야	-14883
▁370	-14884
▁Col	-14885
▁노후화	-14886
▁맞이해	-14887
▁법정동	-14888
▁소방차	-14889
▁축구팀	-14890
▁카운트	-14891
▁그레이트	-14892
▁영화배우	-14893
▁홈플러스	-14894
▁英	-14895
▁詩	-14896
▁開	-14897
▁굶	-14898
▁딥	-14899
금리	-14900
도록	-14901
▁to	-14902
▁난임	-14903
▁대천	-14904
▁룩셈	-14905
▁베일	-14906
▁산물	-14907
▁위스	-14908
▁풍물	-14909
▁하키	-14910
ical	-14911
▁강아지	-14912
▁계엄군	-14913
▁바나나	-14914
▁신뢰도	-14915
▁연장전	-14916
▁룩셈부르크	-14917
ii	-14918
▁가늘	-14919
▁구정	-14920
▁더샵	-14921
▁두부	-14922
▁밀란	-14923
▁반군	-14924
▁배차	-14925
▁뽑혔	-14926
▁소울	-14927
▁송이	-14928
▁수양	-14929
▁아님	-14930
▁오차	-14931
▁윤동	-14932
▁전매	-14933
▁중남	-14934
▁칙령	-14935
▁클릭	-14936
▁타결	-14937
▁타우	-14938
▁폐암	-14939
▁건축사	-14940
▁골목길	-14941
▁막걸리	-14942
▁며느리	-14943
▁수여식	-14944
▁앞당겨	-14945
▁애리조	-14946
▁예컨대	-14947
▁이재민	-14948
▁피드백	-14949
▁그리스인	-14950
▁代	-14951
▁뽀	-14952
무장	-14953
▁UA	-14954
▁가곡	-14955
▁거동	-14956
▁구약	-14957
▁극찬	-14958
▁급등	-14959
▁나날	-14960
▁도울	-14961
▁루시	-14962
▁리베	-14963
▁리카	-14964
▁부영	-14965
▁성급	-14966
▁실화	-14967
▁아소	-14968
▁위헌	-14969
▁책상	-14970
▁체고	-14971
▁치하	-14972
▁가르쳐	-14973
▁간신히	-14974
▁국정원	-14975
▁노트북	-14976
▁병해충	-14977
▁생태계	-14978
▁스케줄	-14979
▁연예계	-14980
▁올라와	-14981
▁인테르	-14982
▁컴퓨팅	-14983
▁프란치	-14984
▁알레르기	-14985
▁연구개발	-14986
▁적십자사	-14987
▁下	-14988
중독	-14989
che	-14990
▁놓이	-14991
▁눈앞	-14992
▁대소	-14993
▁델라	-14994
▁돌렸	-14995
▁리튬	-14996
▁맡겼	-14997
▁맹세	-14998
▁보단	-14999
▁산자	-15000
▁위즈	-15001
▁적재	-15002
▁지친	-15003
▁차르	-15004
▁총영	-15005
▁최형	-15006
▁커서	-15007
▁평평	-15008
▁한종	-15009
▁호족	-15010
▁홀몸	-15011
▁후작	-15012
▁건의안	-15013
▁내보내	-15014
▁다케다	-15015
▁이인영	-15016
▁중앙당	-15017
▁대법원장	-15018
▁眞	-15019
▁集	-15020
▁놈	-15021
일기	-15022
▁거둬	-15023
▁날렸	-15024
▁달렸	-15025
▁대니	-15026
▁대면	-15027
▁마에	-15028
▁망고	-15029
▁웍스	-15030
▁유머	-15031
▁저마	-15032
▁진원	-15033
▁초소	-15034
▁키울	-15035
▁경각심	-15036
▁김정원	-15037
▁끊임없	-15038
▁목격자	-15039
▁식중독	-15040
▁아이즈	-15041
▁안내문	-15042
▁안테나	-15043
▁연구실	-15044
▁장인철	-15045
▁준공식	-15046
▁항생제	-15047
▁헤일리	-15048
▁가로지르	-15049
▁남양주시	-15050
암리	-15051
해튼	-15052
ann	-15053
▁개강	-15054
▁말년	-15055
▁맥과	-15056
▁변혁	-15057
▁뿌듯	-15058
▁성군	-15059
▁수다	-15060
▁수유	-15061
▁시크	-15062
▁재밌	-15063
▁조동	-15064
▁진사	-15065
▁최병	-15066
▁치가	-15067
▁혹시	-15068
▁화훼	-15069
리카락	-15070
▁감사관	-15071
▁사교육	-15072
▁유닉스	-15073
▁입소문	-15074
▁자존심	-15075
▁청송군	-15076
▁체납자	-15077
▁홀딩스	-15078
▁1100	-15079
▁러시아군	-15080
▁머리카락	-15081
▁일찌감치	-15082
▁자아낸다	-15083
▁재단법인	-15084
▁뜯	-15085
▁랙	-15086
맥스	-15087
이자	-15088
int	-15089
▁게리	-15090
▁격상	-15091
▁구획	-15092
▁달래	-15093
▁마키	-15094
▁맞닿	-15095
▁무함	-15096
▁볼프	-15097
▁세울	-15098
▁악보	-15099
▁연임	-15100
▁인위	-15101
▁자결	-15102
▁장외	-15103
▁주경	-15104
▁중수	-15105
▁참의	-15106
▁천정	-15107
▁케빈	-15108
▁한빛	-15109
▁Sch	-15110
▁기관총	-15111
▁살아온	-15112
▁안성시	-15113
▁히로시	-15114
▁체육공원	-15115
▁울산광역시	-15116
▁↑	-15117
▁福	-15118
▁順	-15119
▁덱	-15120
▁쟈	-15121
바오	-15122
블릿	-15123
타나	-15124
타니	-15125
▁데카	-15126
▁려다	-15127
▁목상	-15128
▁사생	-15129
▁송가	-15130
▁시애	-15131
▁야시	-15132
▁이응	-15133
▁입출	-15134
▁절도	-15135
▁책무	-15136
▁첩보	-15137
▁터트	-15138
▁풍기	-15139
웨이트	-15140
▁ACL	-15141
▁노인회	-15142
▁반지름	-15143
▁보너스	-15144
▁전교조	-15145
▁홍문관	-15146
▁두드러지	-15147
▁복원사업	-15148
▁유니버설	-15149
RC	-15150
▁柳	-15151
▁앗	-15152
도바	-15153
▁국물	-15154
▁균일	-15155
▁급기	-15156
▁리비	-15157
▁모하	-15158
▁미식	-15159
▁번갈	-15160
▁불분	-15161
▁수월	-15162
▁우치	-15163
▁이게	-15164
▁전량	-15165
▁직계	-15166
▁총감	-15167
▁최성	-15168
▁테너	-15169
▁황진	-15170
감정원	-15171
▁THE	-15172
▁개구리	-15173
▁교통국	-15174
▁돌려주	-15175
▁부총장	-15176
▁사업주	-15177
▁예비군	-15178
▁지켜야	-15179
▁한국감정원	-15180
ult	-15181
▁Pr	-15182
▁Tr	-15183
▁구나	-15184
▁단면	-15185
▁도자	-15186
▁부교	-15187
▁상어	-15188
▁알맞	-15189
▁알선	-15190
▁연회	-15191
▁재수	-15192
▁출가	-15193
▁커널	-15194
▁콜린	-15195
▁하야	-15196
▁Gre	-15197
▁구스타	-15198
▁김포시	-15199
▁손잡이	-15200
▁시애틀	-15201
▁여배우	-15202
▁연산군	-15203
▁이동해	-15204
▁청렴도	-15205
▁클레이	-15206
▁털어놓	-15207
▁해밀턴	-15208
▁마을버스	-15209
▁사이언스	-15210
▁어시스트	-15211
▁유라시아	-15212
▁쿠웨이트	-15213
▁愛	-15214
고쿠	-15215
들어	-15216
▁다룰	-15217
▁데르	-15218
▁리바	-15219
▁리히	-15220
▁바비	-15221
▁반역	-15222
▁볼트	-15223
▁봉선	-15224
▁송신	-15225
▁얼리	-15226
▁우량	-15227
▁적금	-15228
▁투게	-15229
▁학창	-15230
▁호리	-15231
▁황소	-15232
▁가야금	-15233
▁관현악	-15234
▁국제법	-15235
▁마사지	-15236
▁부적합	-15237
▁살펴볼	-15238
▁아나키	-15239
▁오세훈	-15240
▁이월드	-15241
▁필리프	-15242
▁포켓몬스터	-15243
▁唐	-15244
뜨린	-15245
려서	-15246
호영	-15247
▁강북	-15248
▁개점	-15249
▁거미	-15250
▁납득	-15251
▁닉스	-15252
▁방울	-15253
▁섞여	-15254
▁쓰일	-15255
▁약품	-15256
▁원통	-15257
▁천왕	-15258
▁총생	-15259
▁춘계	-15260
▁태왕	-15261
▁국내선	-15262
▁베이커	-15263
▁이춘희	-15264
▁재조명	-15265
▁저지대	-15266
▁정부군	-15267
▁창시자	-15268
▁초음파	-15269
▁후속작	-15270
▁사이타마현	-15271
70	-15272
▁保	-15273
▁功	-15274
콥터	-15275
플릿	-15276
학규	-15277
▁노론	-15278
▁발칸	-15279
▁비늘	-15280
▁섹스	-15281
▁유목	-15282
▁조남	-15283
▁체증	-15284
▁충무	-15285
▁칼뱅	-15286
▁파벌	-15287
▁황도	-15288
ound	-15289
▁IBM	-15290
▁벌금형	-15291
▁손학규	-15292
▁스캔들	-15293
▁아폴로	-15294
▁핀테크	-15295
▁마이너스	-15296
▁스카우트	-15297
뛰기	-15298
위성	-15299
자재	-15300
홀름	-15301
히코	-15302
▁개표	-15303
▁구명	-15304
▁대손	-15305
▁던진	-15306
▁레몬	-15307
▁마한	-15308
▁미륵	-15309
▁받들	-15310
▁비르	-15311
▁사역	-15312
▁세간	-15313
▁은상	-15314
▁재가	-15315
▁중서	-15316
▁컬링	-15317
▁합천	-15318
▁황룡	-15319
대표제	-15320
▁228	-15321
▁기차역	-15322
▁다녀왔	-15323
▁대덕구	-15324
▁대장정	-15325
▁브레이	-15326
▁알렉스	-15327
▁양성자	-15328
▁오리콘	-15329
▁유방암	-15330
▁찾아왔	-15331
▁카를로	-15332
롤라이나	-15333
▁러시아인	-15334
▁스타리그	-15335
▁안드레아	-15336
▁함경남도	-15337
▁콘스탄티노폴리스	-15338
CO	-15339
벨라	-15340
불교	-15341
▁;(	-15342
▁GN	-15343
▁병무	-15344
▁성령	-15345
▁원아	-15346
▁위암	-15347
▁이언	-15348
▁일깨	-15349
▁자가	-15350
▁초당	-15351
▁커져	-15352
▁팔레	-15353
▁폭락	-15354
▁하치	-15355
▁ABC	-15356
▁라운지	-15357
▁미군정	-15358
▁보호관	-15359
▁복음서	-15360
▁비밀리	-15361
▁오리온	-15362
▁전년도	-15363
▁지바현	-15364
▁충전기	-15365
▁투게더	-15366
▁폼페이	-15367
▁1848	-15368
▁볼셰비키	-15369
▁총사령관	-15370
▁파트너십	-15371
▁左	-15372
▁浦	-15373
▁샴	-15374
고시	-15375
멘스	-15376
워서	-15377
▁CT	-15378
▁다항	-15379
▁동종	-15380
▁변질	-15381
▁복부	-15382
▁시찰	-15383
▁식단	-15384
▁신작	-15385
▁어종	-15386
▁적분	-15387
▁접합	-15388
▁주세	-15389
▁직통	-15390
▁타케	-15391
공산당	-15392
▁430	-15393
▁구축함	-15394
▁독립군	-15395
▁라이더	-15396
▁마중물	-15397
▁방어선	-15398
▁서재필	-15399
▁조반니	-15400
▁포상금	-15401
▁현저히	-15402
라이언트	-15403
▁클라이언트	-15404
▁源	-15405
▁펭	-15406
푸아	-15407
ase	-15408
orm	-15409
▁곽근	-15410
▁김서	-15411
▁넘긴	-15412
▁노이	-15413
▁묻혀	-15414
▁버마	-15415
▁봉산	-15416
▁주스	-15417
▁쿠니	-15418
▁특검	-15419
▁화분	-15420
▁공정위	-15421
▁마르코	-15422
▁맨해튼	-15423
▁산화물	-15424
▁인천항	-15425
▁화강암	-15426
▁禮	-15427
▁見	-15428
▁섀	-15429
꿈치	-15430
나기	-15431
태평	-15432
▁객원	-15433
▁고찰	-15434
▁교권	-15435
▁구니	-15436
▁나사	-15437
▁녀석	-15438
▁무능	-15439
▁무수	-15440
▁밀러	-15441
▁비누	-15442
▁수복	-15443
▁영호	-15444
▁오메	-15445
▁유모	-15446
▁터전	-15447
▁퇴사	-15448
▁해온	-15449
▁헬싱	-15450
▁호박	-15451
▁GTX	-15452
▁거듭날	-15453
▁관리원	-15454
▁달아나	-15455
▁더해져	-15456
▁미주리	-15457
▁불분명	-15458
▁역사가	-15459
▁이바라	-15460
▁점성술	-15461
▁표기법	-15462
▁드래곤즈	-15463
▁아케이드	-15464
▁外	-15465
▁宣	-15466
▁렛	-15467
만금	-15468
번뇌	-15469
증권	-15470
ish	-15471
▁Bo	-15472
▁La	-15473
▁간첩	-15474
▁공안	-15475
▁덮개	-15476
▁러셀	-15477
▁매듭	-15478
▁무화	-15479
▁배아	-15480
▁북상	-15481
▁빙상	-15482
▁순종	-15483
▁양재	-15484
▁오수	-15485
▁올드	-15486
▁이북	-15487
▁최원	-15488
▁파파	-15489
▁건의문	-15490
▁데일리	-15491
▁응급실	-15492
▁정치학	-15493
▁클린턴	-15494
▁프란체	-15495
▁프리즈	-15496
▁흔들림	-15497
▁玉	-15498
▁花	-15499
▁벙	-15500
▁엎	-15501
▁젓	-15502
가르	-15503
애미	-15504
캐슬	-15505
타케	-15506
▁간혹	-15507
▁다산	-15508
▁당면	-15509
▁러서	-15510
▁메스	-15511
▁박헌	-15512
▁북항	-15513
▁불사	-15514
▁순식	-15515
▁양돈	-15516
▁인척	-15517
▁탄자	-15518
▁패럴	-15519
▁휴직	-15520
▁CGV	-15521
▁광양만	-15522
▁뉴캐슬	-15523
▁대웅전	-15524
▁만주국	-15525
▁상거래	-15526
▁체납액	-15527
▁토리노	-15528
▁마이애미	-15529
리시	-15530
▁광안	-15531
▁권오	-15532
▁농악	-15533
▁마니	-15534
▁모세	-15535
▁벌일	-15536
▁선서	-15537
▁수염	-15538
▁여타	-15539
▁왕정	-15540
▁우월	-15541
▁입히	-15542
▁종업	-15543
▁합하	-15544
▁회귀	-15545
▁고기압	-15546
▁기생충	-15547
▁내야수	-15548
▁대명사	-15549
▁무너졌	-15550
▁방문단	-15551
▁새만금	-15552
▁푸에르	-15553
▁1882	-15554
▁1889	-15555
▁이루어질	-15556
▁KAIST	-15557
▁省	-15558
▁팁	-15559
다오	-15560
리니	-15561
아키	-15562
정역	-15563
티노	-15564
▁곡인	-15565
▁도둑	-15566
▁동급	-15567
▁련관	-15568
▁민화	-15569
▁봉인	-15570
▁소박	-15571
▁시화	-15572
▁은현	-15573
▁인먼	-15574
▁체하	-15575
▁현명	-15576
▁흑백	-15577
▁209	-15578
▁대행업	-15579
▁동맹국	-15580
▁마닐라	-15581
▁문경시	-15582
▁효고현	-15583
▁슈퍼마켓	-15584
▁독립선언서	-15585
▁멀티미디어	-15586
▁한국전력공사	-15587
▁先	-15588
▁끔	-15589
▁퀄	-15590
국적	-15591
역학	-15592
저트	-15593
코르	-15594
크로	-15595
테일	-15596
▁가부	-15597
▁객차	-15598
▁거장	-15599
▁경종	-15600
▁광도	-15601
▁국철	-15602
▁대각	-15603
▁등단	-15604
▁마셨	-15605
▁무과	-15606
▁서현	-15607
▁수배	-15608
▁실크	-15609
▁심재	-15610
▁아데	-15611
▁어뢰	-15612
▁온화	-15613
▁장경	-15614
▁재결	-15615
▁지요	-15616
▁카사	-15617
▁퍼졌	-15618
▁풀어	-15619
▁환산	-15620
로그램	-15621
▁강의실	-15622
▁경계선	-15623
▁과반수	-15624
▁대응책	-15625
▁성주군	-15626
▁안드레	-15627
▁카스티	-15628
▁카탈루냐	-15629
▁臺	-15630
▁뺀	-15631
보고	-15632
심원	-15633
질러	-15634
▁IF	-15635
▁TC	-15636
▁가가	-15637
▁강자	-15638
▁계주	-15639
▁귀신	-15640
▁라니	-15641
▁러프	-15642
▁바트	-15643
▁서귀	-15644
▁수아	-15645
▁약서	-15646
▁은지	-15647
▁인출	-15648
▁재앙	-15649
▁져야	-15650
▁코팅	-15651
▁파편	-15652
▁풍수	-15653
▁가져올	-15654
▁언어학	-15655
▁오리엔	-15656
▁일본식	-15657
▁저마다	-15658
NC	-15659
▁兵	-15660
▁月	-15661
드르	-15662
플로	-15663
히트	-15664
ium	-15665
▁EX	-15666
▁가두	-15667
▁가역	-15668
▁금천	-15669
▁나뭇	-15670
▁라오	-15671
▁매운	-15672
▁무르	-15673
▁박자	-15674
▁부조	-15675
▁분원	-15676
▁불쾌	-15677
▁상법	-15678
▁습도	-15679
▁시는	-15680
▁어벤	-15681
▁잔인	-15682
▁접점	-15683
▁직관	-15684
▁초선	-15685
▁출사	-15686
▁출항	-15687
▁타스	-15688
▁포진	-15689
▁허정	-15690
▁회부	-15691
▁관공서	-15692
▁대주주	-15693
▁레이크	-15694
▁신평면	-15695
▁연극제	-15696
▁예정지	-15697
▁일수록	-15698
▁진흥회	-15699
▁태권도	-15700
▁파충류	-15701
▁해안선	-15702
▁무함마드	-15703
▁샌드위치	-15704
▁시킨다는	-15705
▁비례대표제	-15706
▁한국방송공사	-15707
▁쌈	-15708
▁츄	-15709
보도	-15710
정지	-15711
텍처	-15712
▁구치	-15713
▁김철	-15714
▁동형	-15715
▁막스	-15716
▁뭉쳐	-15717
▁민방	-15718
▁빗물	-15719
▁석권	-15720
▁선인	-15721
▁순창	-15722
▁업장	-15723
▁오쿠	-15724
▁진항	-15725
▁카프	-15726
▁카피	-15727
▁팀원	-15728
▁펜스	-15729
▁화두	-15730
스탄불	-15731
▁ATP	-15732
▁기다렸	-15733
▁말미암	-15734
▁순식간	-15735
▁스트로	-15736
▁시켜서	-15737
▁실수요	-15738
▁윤봉길	-15739
▁지구대	-15740
▁축구장	-15741
▁트레일	-15742
▁아키텍처	-15743
▁이스탄불	-15744
▁알렉산드리아	-15745
RE	-15746
ai	-15747
▁實	-15748
▁냥	-15749
람쥐	-15750
럴드	-15751
▁넥센	-15752
▁다우	-15753
▁럭비	-15754
▁매스	-15755
▁밸브	-15756
▁보금	-15757
▁설레	-15758
▁세습	-15759
▁온대	-15760
▁완만	-15761
▁위배	-15762
▁좌장	-15763
▁차츰	-15764
▁코퍼	-15765
▁콘솔	-15766
▁쾰른	-15767
▁틈새	-15768
▁해태	-15769
▁호크	-15770
▁서초구	-15771
▁세네갈	-15772
▁양수산	-15773
▁이치현	-15774
▁자서전	-15775
▁자아내	-15776
▁재조사	-15777
▁저지르	-15778
▁중금속	-15779
▁중앙부	-15780
▁총생산	-15781
▁충북선	-15782
▁케이프	-15783
▁편집자	-15784
▁플랑크	-15785
▁보금자리	-15786
▁오클랜드	-15787
둘기	-15788
▁강판	-15789
▁교인	-15790
▁내신	-15791
▁누설	-15792
▁데크	-15793
▁문해	-15794
▁병장	-15795
▁세수	-15796
▁수계	-15797
▁정령	-15798
▁정오	-15799
▁현복	-15800
▁형질	-15801
▁후예	-15802
르기스	-15803
▁기병대	-15804
▁김규식	-15805
▁내무부	-15806
▁단행본	-15807
▁스탠드	-15808
▁자연수	-15809
▁국민은행	-15810
▁그레고리	-15811
▁스톡홀름	-15812
▁인디애나	-15813
▁자유민주당	-15814
망이	-15815
자루	-15816
합성	-15817
▁기류	-15818
▁뒤덮	-15819
▁배관	-15820
▁보임	-15821
▁부전	-15822
▁사외	-15823
▁사은	-15824
▁속보	-15825
▁순항	-15826
▁요절	-15827
▁이국	-15828
▁제리	-15829
▁착취	-15830
▁하르	-15831
▁해킹	-15832
▁훌쩍	-15833
▁흐리	-15834
▁043	-15835
▁310	-15836
▁SPO	-15837
▁》(,	-15838
▁사단장	-15839
▁전문대	-15840
▁프라하	-15841
▁현행법	-15842
▁갑작스럽	-15843
▁미시시피	-15844
▁애국지사	-15845
▁올림피아	-15846
▁페르디난	-15847
▁헬리콥터	-15848
co	-15849
▁寶	-15850
▁엣	-15851
▁찻	-15852
▁강탈	-15853
▁내빈	-15854
▁로라	-15855
▁루머	-15856
▁리서	-15857
▁반짝	-15858
▁배속	-15859
▁백업	-15860
▁보미	-15861
▁셀레	-15862
▁종파	-15863
▁혜자	-15864
▁흥청	-15865
야마현	-15866
▁Joh	-15867
▁군부대	-15868
▁대성전	-15869
▁미야기	-15870
▁보이콧	-15871
▁산티아	-15872
▁스크립	-15873
▁양평군	-15874
▁움직일	-15875
▁인천대	-15876
▁적외선	-15877
▁카메룬	-15878
▁미성년자	-15879
af	-15880
버섯	-15881
사상	-15882
센스	-15883
ier	-15884
▁가명	-15885
▁공평	-15886
▁규약	-15887
▁노숙	-15888
▁메릴	-15889
▁명곡	-15890
▁목동	-15891
▁분경	-15892
▁브랜	-15893
▁산문	-15894
▁실록	-15895
▁아지	-15896
▁영월	-15897
▁이천	-15898
▁자락	-15899
▁천마	-15900
▁통용	-15901
▁해왔	-15902
블랜드	-15903
▁교육자	-15904
▁반란군	-15905
▁서귀포	-15906
▁수출상	-15907
▁이창준	-15908
▁자란다	-15909
▁다이노스	-15910
▁키르기스	-15911
▁클리블랜드	-15912
네시	-15913
메스	-15914
짓점	-15915
태현	-15916
티넘	-15917
할시	-15918
헤이	-15919
혜진	-15920
und	-15921
▁Or	-15922
▁SL	-15923
▁고국	-15924
▁공양	-15925
▁그물	-15926
▁그야	-15927
▁남작	-15928
▁내란	-15929
▁내림	-15930
▁대파	-15931
▁맞췄	-15932
▁복리	-15933
▁서스	-15934
▁섞인	-15935
▁술집	-15936
▁스텝	-15937
▁에미	-15938
▁완충	-15939
▁유구	-15940
▁잔혹	-15941
▁적군	-15942
▁질주	-15943
▁차분	-15944
▁천변	-15945
▁한참	-15946
▁KDI	-15947
▁거창군	-15948
▁꼭짓점	-15949
▁다나카	-15950
▁독수리	-15951
▁동대구	-15952
▁상담소	-15953
▁스테인	-15954
▁아이언	-15955
▁야구단	-15956
▁익산시	-15957
▁조달청	-15958
▁터뜨렸	-15959
▁호스트	-15960
관리본부	-15961
▁야쿠르트	-15962
▁타이베이	-15963
▁플래티넘	-15964
▁알렉산드르	-15965
▁館	-15966
▁돗	-15967
봉산	-15968
부대	-15969
원수	-15970
특위	-15971
▁AG	-15972
▁No	-15973
▁TE	-15974
▁가출	-15975
▁내줬	-15976
▁도피	-15977
▁사치	-15978
▁성북	-15979
▁세액	-15980
▁수의	-15981
▁양형	-15982
▁어기	-15983
▁열강	-15984
▁월등	-15985
▁정청	-15986
▁총통	-15987
▁축복	-15988
▁페트	-15989
▁하중	-15990
▁허태	-15991
▁후면	-15992
학생회	-15993
▁BSI	-15994
▁기획사	-15995
▁더욱더	-15996
▁불거진	-15997
▁붙여졌	-15998
▁사다리	-15999
▁소행성	-16000
▁안드로	-16001
▁피라미	-16002
▁현대인	-16003
▁3500	-16004
▁스틸러스	-16005
▁이시카와	-16006
▁총학생회	-16007
▁크리스토퍼	-16008
▁尙	-16009
▁셜	-16010
그림	-16011
남동	-16012
러움	-16013
▁AK	-16014
▁HA	-16015
▁br	-16016
▁놀랐	-16017
▁대좌	-16018
▁만지	-16019
▁무소	-16020
▁솜씨	-16021
▁장신	-16022
▁제련	-16023
▁진위	-16024
▁찰리	-16025
▁통찰	-16026
▁211	-16027
▁440	-16028
▁480	-16029
▁VIP	-16030
▁격투기	-16031
▁과거사	-16032
▁구매자	-16033
▁김상만	-16034
▁박원순	-16035
▁세무서	-16036
▁안동시	-16037
▁오산시	-16038
▁재판장	-16039
▁종업원	-16040
▁지하도	-16041
▁평상시	-16042
▁프라임	-16043
▁프리킥	-16044
▁흐른다	-16045
▁프란치스코	-16046
▁思	-16047
나우	-16048
바흐	-16049
테면	-16050
▁CH	-16051
▁검장	-16052
▁공손	-16053
▁광교	-16054
▁구룡	-16055
▁근래	-16056
▁기와	-16057
▁김관	-16058
▁높인	-16059
▁막시	-16060
▁밝힐	-16061
▁서약	-16062
▁시노	-16063
▁알린	-16064
▁연행	-16065
▁오감	-16066
▁온양	-16067
▁원화	-16068
▁자명	-16069
▁장정	-16070
▁전석	-16071
▁채색	-16072
▁콤비	-16073
▁폐사	-16074
태평양	-16075
▁건국대	-16076
▁면서도	-16077
▁어서다	-16078
▁이호창	-16079
▁입학식	-16080
▁훈련장	-16081
▁1592	-16082
▁둘러싸인	-16083
▁制	-16084
▁吳	-16085
▁弘	-16086
나미	-16087
정보	-16088
플랜	-16089
▁간장	-16090
▁갖출	-16091
▁거액	-16092
▁경지	-16093
▁굴절	-16094
▁균등	-16095
▁마모	-16096
▁맞섰	-16097
▁스몰	-16098
▁젠더	-16099
▁지탱	-16100
▁치맥	-16101
랍니다	-16102
▁광주역	-16103
▁농민군	-16104
▁둘레길	-16105
▁상세히	-16106
▁영덕군	-16107
▁조건부	-16108
▁케플러	-16109
▁프레이	-16110
▁행정학	-16111
▁1866	-16112
▁그야말로	-16113
▁리얼미터	-16114
▁이를테면	-16115
▁질병관리본부	-16116
IM	-16117
ps	-16118
▁如	-16119
▁戰	-16120
과학	-16121
상가	-16122
▁%→	-16123
▁ON	-16124
▁건대	-16125
▁내재	-16126
▁넓혔	-16127
▁뉴클	-16128
▁단조	-16129
▁라벨	-16130
▁문무	-16131
▁반점	-16132
▁분말	-16133
▁분파	-16134
▁비방	-16135
▁서거	-16136
▁성기	-16137
▁실권	-16138
▁직구	-16139
▁차려	-16140
▁홍주	-16141
▁황산	-16142
스트로	-16143
▁가산점	-16144
▁곡성군	-16145
▁마그네	-16146
▁미스트	-16147
▁백두산	-16148
▁분류군	-16149
▁쇠고기	-16150
▁양방향	-16151
▁농업용수	-16152
▁바랍니다	-16153
▁산티아고	-16154
▁후지와라노	-16155
▁貞	-16156
독립	-16157
천년	-16158
ram	-16159
▁BA	-16160
▁고쿠	-16161
▁귀어	-16162
▁극작	-16163
▁꽃길	-16164
▁두터	-16165
▁매끄	-16166
▁목공	-16167
▁배역	-16168
▁수기	-16169
▁실형	-16170
▁쌍용	-16171
▁여순	-16172
▁올레	-16173
▁인대	-16174
▁주범	-16175
▁줄리	-16176
▁처치	-16177
▁캐서	-16178
▁콜레	-16179
▁탑신	-16180
▁폐회	-16181
▁한파	-16182
▁해선	-16183
▁형벌	-16184
▁희소	-16185
▁MLB	-16186
▁기간제	-16187
▁무허가	-16188
▁사각형	-16189
▁새천년	-16190
▁생리학	-16191
▁이동식	-16192
▁플러그	-16193
▁대행업체	-16194
▁두려워하	-16195
▁그레고리오	-16196
▁마스터플랜	-16197
ec	-16198
▁○	-16199
▁景	-16200
디언	-16201
면체	-16202
융합	-16203
의성	-16204
▁개각	-16205
▁납세	-16206
▁닐슨	-16207
▁명맥	-16208
▁문성	-16209
▁속편	-16210
▁수역	-16211
▁시구	-16212
▁전야	-16213
▁지쿠	-16214
▁천일	-16215
▁치환	-16216
▁패해	-16217
▁히타	-16218
▁고령군	-16219
▁광복절	-16220
▁끝난다	-16221
▁보안법	-16222
▁오바마	-16223
▁으리라	-16224
▁토착종	-16225
▁핵융합	-16226
▁아카이브	-16227
SC	-16228
▁比	-16229
▁泰	-16230
▁良	-16231
아나	-16232
▁간략	-16233
▁고모	-16234
▁넘쳐	-16235
▁메틸	-16236
▁반고	-16237
▁방수	-16238
▁사민	-16239
▁상연	-16240
▁상이	-16241
▁섬기	-16242
▁수달	-16243
▁수청	-16244
▁아브	-16245
▁안재	-16246
▁억지	-16247
▁역행	-16248
▁연어	-16249
▁열렬	-16250
▁예명	-16251
▁자판	-16252
▁죽여	-16253
▁카레	-16254
▁타현	-16255
▁패소	-16256
▁하순	-16257
▁해시	-16258
▁황폐	-16259
▁루돌프	-16260
▁모리스	-16261
▁자치주	-16262
▁집정관	-16263
▁체육계	-16264
▁테라스	-16265
▁특별상	-16266
▁한국사	-16267
▁광주일보	-16268
▁천연가스	-16269
▁탄자니아	-16270
▁피츠버그	-16271
▁孫	-16272
▁옻	-16273
니시	-16274
처치	-16275
티시	-16276
화학	-16277
▁노원	-16278
▁농단	-16279
▁뚜껑	-16280
▁블레	-16281
▁비결	-16282
▁사림	-16283
▁속출	-16284
▁신예	-16285
▁쌓이	-16286
▁열세	-16287
▁이터	-16288
▁재물	-16289
▁중학	-16290
▁총애	-16291
▁학명	-16292
▁국립대	-16293
▁금정구	-16294
▁자본금	-16295
▁플라톤	-16296
▁회고록	-16297
▁1883	-16298
▁DIMF	-16299
▁왼손잡이	-16300
▁알렉산드로스	-16301
▁士	-16302
▁쑤	-16303
국사	-16304
▁리마	-16305
▁리만	-16306
▁비야	-16307
▁빌미	-16308
▁안상	-16309
▁웃돌	-16310
▁유골	-16311
▁의기	-16312
▁재일	-16313
▁재팬	-16314
▁정답	-16315
▁제노	-16316
▁착각	-16317
▁청중	-16318
▁체급	-16319
▁카즈	-16320
▁쿼터	-16321
▁필연	-16322
▁흉노	-16323
도르프	-16324
▁243	-16325
▁겉보기	-16326
▁경쟁자	-16327
▁광복군	-16328
▁구독자	-16329
▁되돌려	-16330
▁본예산	-16331
▁유아기	-16332
▁이유로	-16333
▁청사진	-16334
▁친위대	-16335
▁코스닥	-16336
▁페트로	-16337
▁기초자치단체	-16338
▁쾨	-16339
루아	-16340
촌리	-16341
▁골대	-16342
▁다테	-16343
▁문종	-16344
▁산국	-16345
▁삼계	-16346
▁생동	-16347
▁선체	-16348
▁신봉	-16349
▁적료	-16350
▁제방	-16351
▁치카	-16352
▁카툰	-16353
▁튜브	-16354
▁헤로	-16355
▁현은	-16356
▁226	-16357
▁고인돌	-16358
▁교구장	-16359
▁대장군	-16360
▁디저트	-16361
▁면허증	-16362
▁수백만	-16363
▁쓰여진	-16364
▁은현탁	-16365
▁해상도	-16366
▁허태정	-16367
▁보헤미아	-16368
캐롤라이나	-16369
마귀	-16370
영장	-16371
장치	-16372
전트	-16373
창호	-16374
코딩	-16375
▁HU	-16376
▁니즈	-16377
▁다져	-16378
▁단풍	-16379
▁로망	-16380
▁반죽	-16381
▁보루	-16382
▁비빔	-16383
▁세출	-16384
▁소량	-16385
▁소소	-16386
▁송전	-16387
▁압류	-16388
▁연하	-16389
▁이문	-16390
▁지기	-16391
▁칭송	-16392
▁화백	-16393
▁물려주	-16394
▁빌리지	-16395
▁영화상	-16396
▁인구수	-16397
▁자부담	-16398
▁튀니지	-16399
▁경제학자	-16400
▁신용카드	-16401
▁전략산업	-16402
▁프랑스령	-16403
비오	-16404
삭스	-16405
ool	-16406
▁LO	-16407
▁강타	-16408
▁니혼	-16409
▁돌발	-16410
▁라그	-16411
▁번개	-16412
▁별장	-16413
▁비준	-16414
▁성토	-16415
▁수족	-16416
▁스칸	-16417
▁스텐	-16418
▁언젠	-16419
▁연해	-16420
▁오존	-16421
▁요격	-16422
▁원문	-16423
▁이형	-16424
▁쪼개	-16425
▁천명	-16426
▁청과	-16427
▁현감	-16428
▁휴무	-16429
▁207	-16430
▁감독원	-16431
▁긴밀히	-16432
▁남원시	-16433
▁다가온	-16434
▁리서치	-16435
▁민영화	-16436
▁박영선	-16437
▁수산업	-16438
▁아티스	-16439
▁안내판	-16440
▁지켜봐	-16441
▁항공편	-16442
▁1888	-16443
▁니콜라이	-16444
▁피라미드	-16445
▁프로그래머	-16446
▁副	-16447
바리	-16448
에고	-16449
체고	-16450
▁""	-16451
▁OB	-16452
▁개축	-16453
▁내게	-16454
▁노릇	-16455
▁라자	-16456
▁롤러	-16457
▁반포	-16458
▁병자	-16459
▁뿌려	-16460
▁시진	-16461
▁았었	-16462
▁영일	-16463
▁예식	-16464
▁웅천	-16465
▁전업	-16466
▁주산	-16467
▁학비	-16468
드리아	-16469
▁글로브	-16470
▁도르트	-16471
▁로타리	-16472
▁윤보선	-16473
▁일부러	-16474
▁정해져	-16475
▁조수연	-16476
▁튀르크	-16477
체고비나	-16478
▁타이거스	-16479
▁宋	-16480
넘기	-16481
워했	-16482
큘럼	-16483
퉁이	-16484
net	-16485
▁관건	-16486
▁관로	-16487
▁광무	-16488
▁다윈	-16489
▁로페	-16490
▁몽고	-16491
▁세바	-16492
▁숲길	-16493
▁왕궁	-16494
▁유착	-16495
▁이방	-16496
▁일주	-16497
▁장구	-16498
▁적격	-16499
▁정순	-16500
▁준주	-16501
▁징후	-16502
▁착안	-16503
▁천수	-16504
▁콜드	-16505
▁포석	-16506
▁학도	-16507
▁ISO	-16508
▁경영진	-16509
▁모델링	-16510
▁아나톨	-16511
▁용산구	-16512
▁체육인	-16513
▁코엑스	-16514
▁태블릿	-16515
▁해준다	-16516
▁더글러스	-16517
▁스트리밍	-16518
▁실수요자	-16519
▁커리큘럼	-16520
▁프랭클린	-16521
▁횡단보도	-16522
▁도마뱀붙이	-16523
▁헤르체고비나	-16524
YP	-16525
ix	-16526
▁쿡	-16527
각층	-16528
테쓰	-16529
퍼슨	-16530
ear	-16531
old	-16532
▁가고	-16533
▁극락	-16534
▁남짓	-16535
▁넥슨	-16536
▁루체	-16537
▁묻혔	-16538
▁사천	-16539
▁셔츠	-16540
▁수첩	-16541
▁시문	-16542
▁신병	-16543
▁아토	-16544
▁야전	-16545
▁연륙	-16546
▁왕권	-16547
▁외쳤	-16548
▁정박	-16549
▁집사	-16550
▁차역	-16551
▁청풍	-16552
▁캐치	-16553
▁호우	-16554
▁감지기	-16555
▁경영난	-16556
▁기념회	-16557
▁내려갔	-16558
▁박헌영	-16559
▁서바이	-16560
▁세군다	-16561
▁각계각층	-16562
▁소말리아	-16563
▁이바라키	-16564
▁한국노총	-16565
▁스포츠센터	-16566
▁津	-16567
▁非	-16568
니티	-16569
데기	-16570
제이	-16571
her	-16572
iss	-16573
▁거시	-16574
▁계파	-16575
▁고층	-16576
▁관성	-16577
▁노렸	-16578
▁대미	-16579
▁대일	-16580
▁등등	-16581
▁랴오	-16582
▁메소	-16583
▁빛깔	-16584
▁성곽	-16585
▁쇼크	-16586
▁숙제	-16587
▁악의	-16588
▁어획	-16589
▁영정	-16590
▁와라	-16591
▁우왕	-16592
▁장서	-16593
▁최순	-16594
▁텐트	-16595
▁퇴계	-16596
▁표절	-16597
루이스	-16598
스트리	-16599
▁235	-16600
▁One	-16601
▁괴롭힘	-16602
▁근무자	-16603
▁불거지	-16604
▁살아갈	-16605
▁시코쿠	-16606
▁앞장섰	-16607
▁조선왕	-16608
▁키예프	-16609
▁통행료	-16610
▁후쿠오카현	-16611
az	-16612
▁節	-16613
▁럽	-16614
▁MD	-16615
▁UC	-16616
▁두뇌	-16617
▁면민	-16618
▁바젤	-16619
▁성행	-16620
▁써야	-16621
▁용접	-16622
▁유충	-16623
▁이공	-16624
▁임지	-16625
▁전권	-16626
▁직류	-16627
▁진흙	-16628
▁헌납	-16629
▁231	-16630
▁대성당	-16631
▁미지수	-16632
▁범유행	-16633
▁비스타	-16634
▁알파벳	-16635
▁제우스	-16636
▁지닌다	-16637
▁징역형	-16638
▁프레드	-16639
▁국제기구	-16640
▁뉴클레오	-16641
▁맥과이어	-16642
▁프랑스인	-16643
▁하나하나	-16644
▁해운대구	-16645
▁불러일으키	-16646
▁겟	-16647
▁댈	-16648
▁얄	-16649
▁쿵	-16650
부르	-16651
LED	-16652
per	-16653
▁On	-16654
▁각인	-16655
▁거침	-16656
▁고창	-16657
▁골고	-16658
▁교제	-16659
▁글래	-16660
▁기전	-16661
▁나기	-16662
▁넘버	-16663
▁노골	-16664
▁다마	-16665
▁담론	-16666
▁마우	-16667
▁말린	-16668
▁면밀	-16669
▁비축	-16670
▁사주	-16671
▁선방	-16672
▁송영	-16673
▁송환	-16674
▁수개	-16675
▁슬하	-16676
▁쌓인	-16677
▁암모	-16678
▁양립	-16679
▁요직	-16680
▁위태	-16681
▁유식	-16682
▁유실	-16683
▁의용	-16684
▁이황	-16685
▁일축	-16686
▁켈트	-16687
▁킬러	-16688
▁파나	-16689
▁회식	-16690
▁회유	-16691
▁획정	-16692
▁후견	-16693
파니아	-16694
▁208	-16695
▁로마인	-16696
▁바이트	-16697
▁반대편	-16698
▁비서실	-16699
▁색소폰	-16700
▁설득력	-16701
▁윗부분	-16702
▁유망주	-16703
▁유원지	-16704
▁한종수	-16705
▁1876	-16706
▁라이온스	-16707
▁셔틀버스	-16708
▁안타까움	-16709
OD	-16710
▁碑	-16711
동면	-16712
les	-16713
oll	-16714
▁귀가	-16715
▁김소	-16716
▁내항	-16717
▁노령	-16718
▁레트	-16719
▁바뀔	-16720
▁브란	-16721
▁애착	-16722
▁이반	-16723
▁자상	-16724
▁잔존	-16725
▁정개	-16726
▁조제	-16727
▁주계	-16728
▁페라	-16729
▁헬레	-16730
▁232	-16731
▁강화도	-16732
▁급기야	-16733
▁다국적	-16734
▁달려가	-16735
▁밀가루	-16736
▁부르고	-16737
▁위구르	-16738
▁출산율	-16739
▁활기찬	-16740
▁와이파이	-16741
▁한국가스	-16742
▁함부르크	-16743
LL	-16744
bo	-16745
▁夫	-16746
▁畵	-16747
▁뺏	-16748
▁콧	-16749
월동	-16750
▁Qu	-16751
▁TA	-16752
▁공실	-16753
▁구했	-16754
▁기이	-16755
▁기행	-16756
▁리즈	-16757
▁만두	-16758
▁명동	-16759
▁묶여	-16760
▁미인	-16761
▁발톱	-16762
▁스탬	-16763
▁씨족	-16764
▁어부	-16765
▁어의	-16766
▁음색	-16767
▁종군	-16768
▁진작	-16769
▁친수	-16770
바라기	-16771
▁720	-16772
▁Man	-16773
▁과징금	-16774
▁다카라	-16775
▁백악기	-16776
▁스테이	-16777
▁야시장	-16778
▁전환점	-16779
▁축산업	-16780
▁코스트	-16781
▁팔꿈치	-16782
▁편집장	-16783
▁해조류	-16784
▁1864	-16785
▁NASA	-16786
▁어우러지	-16787
▁연극배우	-16788
▁베이시스트	-16789
▁둬	-16790
▁촐	-16791
블러	-16792
식성	-16793
익스	-16794
ica	-16795
ime	-16796
▁거란	-16797
▁건널	-16798
▁경화	-16799
▁급하	-16800
▁기내	-16801
▁몰렸	-16802
▁바쳤	-16803
▁배척	-16804
▁뱅킹	-16805
▁버터	-16806
▁소시	-16807
▁슬램	-16808
▁식구	-16809
▁왕건	-16810
▁주보	-16811
▁주치	-16812
▁준장	-16813
▁직렬	-16814
▁천상	-16815
▁철쭉	-16816
▁특공	-16817
▁푸틴	-16818
▁항우	-16819
▁301	-16820
▁가로등	-16821
▁구석기	-16822
▁성수기	-16823
▁성악가	-16824
▁웨이브	-16825
▁으려면	-16826
▁중고차	-16827
▁프렌즈	-16828
▁히브리	-16829
ction	-16830
ystem	-16831
▁동대구역	-16832
▁마이크로	-16833
▁선거인단	-16834
▁북아일랜드	-16835
▁실리콘밸리	-16836
MP	-16837
▁侍	-16838
보리	-16839
erv	-16840
ign	-16841
▁AA	-16842
▁ET	-16843
▁ml	-16844
▁간대	-16845
▁결말	-16846
▁관전	-16847
▁국감	-16848
▁권선	-16849
▁기고	-16850
▁내국	-16851
▁도면	-16852
▁마른	-16853
▁말소	-16854
▁맹점	-16855
▁무도	-16856
▁베풀	-16857
▁분향	-16858
▁분홍	-16859
▁새기	-16860
▁아와	-16861
▁악당	-16862
▁으러	-16863
▁제너	-16864
▁제빵	-16865
▁철종	-16866
▁펭귄	-16867
▁행장	-16868
▁황족	-16869
보증기	-16870
▁215	-16871
▁264	-16872
▁공고히	-16873
▁대사헌	-16874
▁미토콘	-16875
▁사이다	-16876
▁소백산	-16877
▁소비량	-16878
▁슈타인	-16879
▁쓰시마	-16880
▁지배자	-16881
▁클라크	-16882
보증기금	-16883
▁미야자키	-16884
▁부가가치	-16885
▁스테이크	-16886
▁율리우스	-16887
▁플로리다주	-16888
▁미토콘드리아	-16889
of	-16890
도어	-16891
모닉	-16892
열대	-16893
▁가토	-16894
▁구애	-16895
▁남측	-16896
▁눌러	-16897
▁드미	-16898
▁딱딱	-16899
▁막혀	-16900
▁맛볼	-16901
▁발광	-16902
▁부류	-16903
▁사와	-16904
▁산신	-16905
▁샤워	-16906
▁성비	-16907
▁울음	-16908
▁웅장	-16909
▁위그	-16910
▁윤재	-16911
▁자구	-16912
▁적폐	-16913
▁정쟁	-16914
▁지날	-16915
▁집약	-16916
▁착오	-16917
▁코펜	-16918
▁피서	-16919
▁하노	-16920
▁헬로	-16921
▁훔쳐	-16922
▁흘려	-16923
빌라이	-16924
▁660	-16925
▁갔으며	-16926
▁경복궁	-16927
▁골고루	-16928
▁교육학	-16929
▁교통비	-16930
▁구도심	-16931
▁긴테쓰	-16932
▁못지않	-16933
▁언젠가	-16934
▁원활히	-16935
▁최재기	-16936
▁해리슨	-16937
▁감정평가	-16938
▁부르고뉴	-16939
▁스크립트	-16940
▁친선경기	-16941
▁World	-16942
ey	-16943
▁帝	-16944
▁承	-16945
공주	-16946
유사	-16947
▁ex	-16948
▁과격	-16949
▁교의	-16950
▁구심	-16951
▁국과	-16952
▁꾸몄	-16953
▁끔찍	-16954
▁능숙	-16955
▁라흐	-16956
▁발암	-16957
▁복역	-16958
▁부름	-16959
▁브룩	-16960
▁솔라	-16961
▁신천	-16962
▁암스	-16963
▁에요	-16964
▁용자	-16965
▁유화	-16966
▁종묘	-16967
▁채굴	-16968
▁천거	-16969
▁촉식	-16970
▁투신	-16971
▁티아	-16972
▁판명	-16973
▁화엄	-16974
하이머	-16975
하이오	-16976
▁대용량	-16977
▁동해안	-16978
▁무지개	-16979
▁아니면	-16980
▁연장선	-16981
▁울주군	-16982
▁유명세	-16983
▁전주시	-16984
▁조용히	-16985
▁1886	-16986
▁오하이오	-16987
▁이야말로	-16988
▁텍사스주	-16989
▁SPOTV	-16990
▁테크노폴리스	-16991
FF	-16992
▁老	-16993
▁캅	-16994
들였	-16995
▁PP	-16996
▁도화	-16997
▁막히	-16998
▁메모	-16999
▁모라	-17000
▁백혈	-17001
▁번창	-17002
▁삼중	-17003
▁약학	-17004
▁영사	-17005
▁예견	-17006
▁자크	-17007
▁친한	-17008
▁피카	-17009
▁활자	-17010
▁041	-17011
▁게시물	-17012
▁떠오른	-17013
▁무더기	-17014
▁부사관	-17015
▁생겨난	-17016
▁연산자	-17017
▁온전히	-17018
▁적절히	-17019
▁출발점	-17020
▁가전제품	-17021
▁드립니다	-17022
▁안전시설	-17023
▁해바라기	-17024
▁인플레이션	-17025
▁工	-17026
▁梁	-17027
▁觀	-17028
▁陳	-17029
▁體	-17030
▁쑥	-17031
거름	-17032
레시	-17033
로쿠	-17034
진흥	-17035
테인	-17036
att	-17037
lay	-17038
▁IN	-17039
▁가파	-17040
▁거문	-17041
▁경미	-17042
▁계장	-17043
▁다닌	-17044
▁단군	-17045
▁단수	-17046
▁대종	-17047
▁대차	-17048
▁동거	-17049
▁류큐	-17050
▁방호	-17051
▁사칭	-17052
▁숙부	-17053
▁안겼	-17054
▁연명	-17055
▁염주	-17056
▁임박	-17057
▁자의	-17058
▁전곡	-17059
▁조재	-17060
▁종별	-17061
▁파랑	-17062
▁패권	-17063
▁함성	-17064
▁화전	-17065
▁황사	-17066
레슬링	-17067
▁540	-17068
▁고속철	-17069
▁대원군	-17070
▁버려진	-17071
▁요제프	-17072
▁모노레일	-17073
▁스파이더	-17074
▁필하모닉	-17075
EP	-17076
▁羅	-17077
▁꽉	-17078
미트	-17079
지아	-17080
축제	-17081
회원	-17082
ron	-17083
▁Ed	-17084
▁Ge	-17085
▁Go	-17086
▁가우	-17087
▁결여	-17088
▁고는	-17089
▁고졸	-17090
▁공병	-17091
▁내밀	-17092
▁대권	-17093
▁도네	-17094
▁동고	-17095
▁라카	-17096
▁레버	-17097
▁리퍼	-17098
▁미처	-17099
▁북군	-17100
▁서임	-17101
▁서태	-17102
▁세손	-17103
▁송구	-17104
▁실렸	-17105
▁여관	-17106
▁오승	-17107
▁완주	-17108
▁최승	-17109
▁타도	-17110
▁할로	-17111
바야시	-17112
▁건조기	-17113
▁공교육	-17114
▁아트홀	-17115
▁원한다	-17116
▁장석웅	-17117
▁합성어	-17118
▁고군분투	-17119
▁쿠빌라이	-17120
▁평안북도	-17121
▁다카라즈카	-17122
▁도르트문트	-17123
EM	-17124
난히	-17125
산역	-17126
튿날	-17127
ree	-17128
▁IA	-17129
▁강유	-17130
▁경마	-17131
▁관원	-17132
▁근사	-17133
▁남중	-17134
▁농담	-17135
▁당호	-17136
▁대도	-17137
▁모용	-17138
▁반동	-17139
▁불릴	-17140
▁생후	-17141
▁수조	-17142
▁식기	-17143
▁안락	-17144
▁앙골	-17145
▁어둡	-17146
▁영체	-17147
▁옥외	-17148
▁온전	-17149
▁자성	-17150
▁장재	-17151
▁재기	-17152
▁재추	-17153
▁전봉	-17154
▁정연	-17155
▁종가	-17156
▁판도	-17157
▁피사	-17158
▁한결	-17159
▁가져야	-17160
▁교부금	-17161
▁귀여운	-17162
▁달라질	-17163
▁등록증	-17164
▁뛰어났	-17165
▁라파엘	-17166
▁선수상	-17167
▁셰익스	-17168
▁요시다	-17169
▁유람선	-17170
▁이튿날	-17171
▁가졌으며	-17172
▁나카무라	-17173
▁박테리아	-17174
▁프로리그	-17175
▁해외여행	-17176
▁셰익스피어	-17177
▁하이라이트	-17178
▁七	-17179
▁숀	-17180
망디	-17181
보내	-17182
세종	-17183
소니	-17184
하겐	-17185
▁大夫	-17186
▁가네	-17187
▁간척	-17188
▁결장	-17189
▁단련	-17190
▁루크	-17191
▁본작	-17192
▁봉황	-17193
▁새긴	-17194
▁수려	-17195
▁아다	-17196
▁약관	-17197
▁에밀	-17198
▁예쁜	-17199
▁원생	-17200
▁장타	-17201
▁최현	-17202
▁침례	-17203
▁타시	-17204
▁톱니	-17205
▁펠트	-17206
▁하시	-17207
▁항거	-17208
▁흡사	-17209
네이루	-17210
부인과	-17211
ance	-17212
▁460	-17213
▁걸쳐서	-17214
▁광산업	-17215
▁금지법	-17216
▁세입자	-17217
▁센고쿠	-17218
▁솔로몬	-17219
▁하수관	-17220
▁가고시마	-17221
▁마다가스	-17222
▁코스타리카	-17223
▁광역자치단체	-17224
▁켐	-17225
메다	-17226
▁將軍	-17227
▁가할	-17228
▁금왕	-17229
▁기강	-17230
▁기판	-17231
▁농산	-17232
▁당직	-17233
▁대당	-17234
▁면치	-17235
▁묘비	-17236
▁사부	-17237
▁송충	-17238
▁아벨	-17239
▁압둘	-17240
▁예종	-17241
▁왼발	-17242
▁이카	-17243
▁입술	-17244
▁정몽	-17245
▁제각	-17246
▁제과	-17247
▁죽전	-17248
▁중엽	-17249
▁증빙	-17250
▁참패	-17251
▁천혜	-17252
▁체리	-17253
▁촌은	-17254
▁취수	-17255
▁쿠퍼	-17256
▁태백	-17257
▁태워	-17258
▁톈진	-17259
▁폭언	-17260
▁핑계	-17261
▁하비	-17262
▁김대원	-17263
▁농어민	-17264
▁매립장	-17265
▁밝혀져	-17266
▁방위군	-17267
▁브릿지	-17268
▁세비야	-17269
▁아브라	-17270
▁윤석열	-17271
▁작품상	-17272
▁합덕읍	-17273
▁센티미터	-17274
▁유럽연합	-17275
▁이끌어냈	-17276
▁경부고속도로	-17277
▁뛴	-17278
▁쏜	-17279
경정	-17280
ata	-17281
▁거지	-17282
▁관목	-17283
▁귀향	-17284
▁기경	-17285
▁넓이	-17286
▁넷플	-17287
▁단합	-17288
▁리브	-17289
▁명지	-17290
▁속속	-17291
▁슈테	-17292
▁스틱	-17293
▁연평	-17294
▁의례	-17295
▁장쑤	-17296
▁적시	-17297
▁즉흥	-17298
▁증오	-17299
▁케라	-17300
▁코소	-17301
▁쿠키	-17302
▁타락	-17303
▁패치	-17304
▁호치	-17305
▁홍하	-17306
ream	-17307
▁217	-17308
▁pro	-17309
▁남승현	-17310
▁대교구	-17311
▁생활비	-17312
▁스테파	-17313
▁아쿠아	-17314
▁예비역	-17315
▁좌의정	-17316
▁하소연	-17317
▁넷플릭스	-17318
▁산림조합	-17319
▁함경북도	-17320
▁憲	-17321
▁즙	-17322
다발	-17323
시대	-17324
함수	-17325
▁가점	-17326
▁공성	-17327
▁급성	-17328
▁노브	-17329
▁로버	-17330
▁리옹	-17331
▁리콜	-17332
▁무네	-17333
▁문수	-17334
▁미러	-17335
▁뱅커	-17336
▁산요	-17337
▁셀러	-17338
▁수고	-17339
▁스쿼	-17340
▁야망	-17341
▁어군	-17342
▁왕래	-17343
▁우표	-17344
▁이혜	-17345
▁자급	-17346
▁잔액	-17347
▁종신	-17348
▁콜럼	-17349
▁해트	-17350
거래위	-17351
메이카	-17352
▁214	-17353
▁API	-17354
▁급속도	-17355
▁드러낸	-17356
▁마르틴	-17357
▁민병대	-17358
▁상점가	-17359
▁손혜원	-17360
▁원거리	-17361
▁초신성	-17362
▁캐서린	-17363
▁토스카	-17364
▁1872	-17365
▁매카트니	-17366
▁빠져나가	-17367
▁자메이카	-17368
▁코펜하겐	-17369
▁페널티킥	-17370
▁공정거래위	-17371
▁師	-17372
▁百	-17373
러워	-17374
불명	-17375
치히	-17376
커녕	-17377
▁거센	-17378
▁교가	-17379
▁김신	-17380
▁도가	-17381
▁도제	-17382
▁변명	-17383
▁봉수	-17384
▁비비	-17385
▁설날	-17386
▁소공	-17387
▁수은	-17388
▁야산	-17389
▁원어	-17390
▁임야	-17391
▁전일	-17392
▁접착	-17393
▁조서	-17394
▁채집	-17395
▁테리	-17396
▁폐막	-17397
▁풍습	-17398
▁하급	-17399
▁한큐	-17400
▁활짝	-17401
브리아	-17402
▁갈라져	-17403
▁내다보	-17404
▁내실화	-17405
▁들려주	-17406
▁밴쿠버	-17407
▁비닐봉	-17408
▁실생활	-17409
▁아키라	-17410
▁원정대	-17411
▁잇따른	-17412
▁판매장	-17413
경정예산	-17414
디나비아	-17415
▁치러진다	-17416
▁스칸디나비아	-17417
▁추가경정예산	-17418
▁出	-17419
▁奉	-17420
▁씬	-17421
림픽	-17422
볶이	-17423
석탑	-17424
클레	-17425
패스	-17426
ink	-17427
▁大學	-17428
▁가단	-17429
▁각료	-17430
▁경건	-17431
▁고루	-17432
▁느슨	-17433
▁달력	-17434
▁뒤편	-17435
▁라가	-17436
▁모어	-17437
▁문집	-17438
▁방공	-17439
▁보정	-17440
▁볼로	-17441
▁불의	-17442
▁소라	-17443
▁신의	-17444
▁이설	-17445
▁임해	-17446
▁장어	-17447
▁출세	-17448
▁취직	-17449
▁톰슨	-17450
▁허드	-17451
▁홈즈	-17452
올로기	-17453
추부사	-17454
층석탑	-17455
▁253	-17456
▁가브리	-17457
▁갖춰져	-17458
▁그런가	-17459
▁더한다	-17460
▁바닷가	-17461
▁예술제	-17462
▁우승컵	-17463
▁중거리	-17464
▁쳐들어	-17465
▁테무르	-17466
▁브루클린	-17467
▁산부인과	-17468
▁평안남도	-17469
▁이데올로기	-17470
▁프란체스코	-17471
yn	-17472
▁現	-17473
▁路	-17474
대장	-17475
서스	-17476
ork	-17477
▁Sm	-17478
▁al	-17479
▁교명	-17480
▁논하	-17481
▁니켈	-17482
▁데미	-17483
▁레크	-17484
▁마취	-17485
▁매몰	-17486
▁면직	-17487
▁바울	-17488
▁보문	-17489
▁부화	-17490
▁붕어	-17491
▁식수	-17492
▁안식	-17493
▁용해	-17494
▁위시	-17495
▁이금	-17496
▁이븐	-17497
▁장영	-17498
▁찌르	-17499
▁카세	-17500
▁티오	-17501
▁평탄	-17502
▁협소	-17503
백화점	-17504
▁212	-17505
▁290	-17506
▁705	-17507
▁돌파구	-17508
▁두꺼운	-17509
▁바뀐다	-17510
▁야구부	-17511
▁역사학	-17512
▁인형극	-17513
▁정읍시	-17514
▁지지층	-17515
▁측정기	-17516
▁카지노	-17517
▁페인트	-17518
▁후원회	-17519
▁돌아간다	-17520
▁정개특위	-17521
▁후쿠시마현	-17522
▁☏	-17523
▁智	-17524
비엔	-17525
임자	-17526
지역	-17527
태영	-17528
▁고작	-17529
▁과테	-17530
▁될까	-17531
▁뭔가	-17532
▁반월	-17533
▁불씨	-17534
▁브이	-17535
▁승화	-17536
▁압록	-17537
▁오아	-17538
▁우기	-17539
▁우제	-17540
▁장녀	-17541
▁조력	-17542
▁족장	-17543
▁처사	-17544
▁카터	-17545
▁폭우	-17546
▁하강	-17547
▁합숙	-17548
▁후드	-17549
▁221	-17550
▁223	-17551
▁다녀온	-17552
▁막아내	-17553
▁바스크	-17554
▁사카이	-17555
▁소학교	-17556
▁앨리스	-17557
▁연출가	-17558
▁영업자	-17559
▁올라갈	-17560
▁작업장	-17561
▁정해졌	-17562
▁챌린저	-17563
▁크라이	-17564
▁플라워	-17565
▁해리스	-17566
▁1893	-17567
▁과테말라	-17568
▁코퍼레이션	-17569
BI	-17570
HD	-17571
II	-17572
▁朱	-17573
▁流	-17574
광주	-17575
ICE	-17576
▁갇혀	-17577
▁과업	-17578
▁교란	-17579
▁대림	-17580
▁도주	-17581
▁루비	-17582
▁박선	-17583
▁발화	-17584
▁백승	-17585
▁복도	-17586
▁스킬	-17587
▁시발	-17588
▁여럿	-17589
▁영령	-17590
▁예절	-17591
▁유생	-17592
▁육수	-17593
▁으론	-17594
▁정육	-17595
▁정중	-17596
▁제위	-17597
▁체장	-17598
▁칸국	-17599
▁통감	-17600
▁편차	-17601
▁핑장	-17602
▁행군	-17603
모비스	-17604
▁222	-17605
▁경부선	-17606
▁그리드	-17607
▁넘겨졌	-17608
▁떡볶이	-17609
▁양림동	-17610
▁와이즈	-17611
▁제자리	-17612
▁조각가	-17613
▁마르쿠스	-17614
▁현대모비스	-17615
▁마다가스카르	-17616
ju	-17617
▁禪	-17618
▁뇨	-17619
▁쵸	-17620
들인	-17621
사지	-17622
짜기	-17623
son	-17624
▁KL	-17625
▁계보	-17626
▁광업	-17627
▁깊숙	-17628
▁꼬마	-17629
▁꾸민	-17630
▁끼친	-17631
▁날로	-17632
▁남군	-17633
▁노라	-17634
▁대광	-17635
▁동적	-17636
▁모신	-17637
▁버거	-17638
▁버블	-17639
▁본체	-17640
▁부득	-17641
▁상층	-17642
▁악어	-17643
▁역외	-17644
▁연작	-17645
▁왕좌	-17646
▁용적	-17647
▁원금	-17648
▁위문	-17649
▁인파	-17650
▁촉각	-17651
▁퇴위	-17652
▁페스	-17653
▁폭주	-17654
▁피켓	-17655
▁현악	-17656
▁UAE	-17657
▁다방면	-17658
▁다이어	-17659
▁돌아간	-17660
▁동래구	-17661
▁문화제	-17662
▁브뤼셀	-17663
▁사용법	-17664
▁앤드루	-17665
▁중소형	-17666
▁지극히	-17667
▁최지수	-17668
▁트리오	-17669
▁해부학	-17670
▁육군사관학교	-17671
yl	-17672
▁加	-17673
▁밋	-17674
▁켓	-17675
▁콥	-17676
▁텅	-17677
교차	-17678
란토	-17679
이현	-17680
코토	-17681
▁AV	-17682
▁개요	-17683
▁경대	-17684
▁고딕	-17685
▁구워	-17686
▁그게	-17687
▁도적	-17688
▁매리	-17689
▁모피	-17690
▁변천	-17691
▁복종	-17692
▁사교	-17693
▁산적	-17694
▁속력	-17695
▁손동	-17696
▁시시	-17697
▁인방	-17698
▁인피	-17699
▁잡음	-17700
▁정려	-17701
▁젤리	-17702
▁죄수	-17703
▁지층	-17704
▁집어	-17705
▁청연	-17706
▁춘향	-17707
▁치중	-17708
▁코인	-17709
▁페더	-17710
▁화단	-17711
▁010	-17712
▁공화정	-17713
▁녹색당	-17714
▁마리나	-17715
▁스위트	-17716
▁이용료	-17717
▁늘어난다	-17718
▁도미니카	-17719
▁체크카드	-17720
▁하루빨리	-17721
▁延	-17722
▁甲	-17723
뜨려	-17724
산맥	-17725
정사	-17726
트르	-17727
▁As	-17728
▁OK	-17729
▁간결	-17730
▁결속	-17731
▁고증	-17732
▁고쳤	-17733
▁교직	-17734
▁국인	-17735
▁기형	-17736
▁닛산	-17737
▁다정	-17738
▁디딤	-17739
▁본능	-17740
▁빅뱅	-17741
▁상동	-17742
▁소신	-17743
▁소파	-17744
▁송기	-17745
▁심뇌	-17746
▁앞뒤	-17747
▁염화	-17748
▁오도	-17749
▁완비	-17750
▁원한	-17751
▁이보	-17752
▁일설	-17753
▁조소	-17754
▁청호	-17755
▁하임	-17756
▁홍삼	-17757
▁환불	-17758
▁252	-17759
▁공예품	-17760
▁노미야	-17761
▁문희상	-17762
▁박재일	-17763
▁빌바오	-17764
▁소방청	-17765
▁연습장	-17766
▁제퍼슨	-17767
▁초록색	-17768
▁출장소	-17769
▁항아리	-17770
▁1861	-17771
▁1892	-17772
▁가로질러	-17773
▁마스터스	-17774
▁매트리스	-17775
▁상하수도	-17776
▁康	-17777
▁쐐	-17778
갈비	-17779
농사	-17780
텔링	-17781
orn	-17782
▁거룩	-17783
▁걸작	-17784
▁고운	-17785
▁늦춰	-17786
▁대흥	-17787
▁두레	-17788
▁맞은	-17789
▁묵묵	-17790
▁버트	-17791
▁병상	-17792
▁불변	-17793
▁악곡	-17794
▁영아	-17795
▁울려	-17796
▁원구	-17797
▁이젠	-17798
▁족보	-17799
▁직급	-17800
▁처했	-17801
▁최남	-17802
▁침착	-17803
▁캡틴	-17804
▁터너	-17805
▁판독	-17806
▁함흥	-17807
▁216	-17808
▁근거지	-17809
▁끌려가	-17810
▁다스렸	-17811
▁물러난	-17812
▁소피아	-17813
▁시공간	-17814
▁킨텍스	-17815
▁턱없이	-17816
▁테크놀	-17817
▁가와사키	-17818
▁보수주의	-17819
▁콤플렉스	-17820
▁패럴림픽	-17821
▁스토리텔링	-17822
▁프로레슬링	-17823
DI	-17824
▁諸	-17825
레반	-17826
비크	-17827
▁격화	-17828
▁고노	-17829
▁교두	-17830
▁란스	-17831
▁명창	-17832
▁미묘	-17833
▁빠짐	-17834
▁쇼팽	-17835
▁싸울	-17836
▁안영	-17837
▁약초	-17838
▁외손	-17839
▁우시	-17840
▁위급	-17841
▁정글	-17842
▁텐데	-17843
▁통기	-17844
▁특설	-17845
▁한산	-17846
▁화정	-17847
▁BTS	-17848
▁가속기	-17849
▁가요제	-17850
▁과학고	-17851
▁대항전	-17852
▁돌아올	-17853
▁맞은편	-17854
▁봉우리	-17855
▁서스펜	-17856
▁유전학	-17857
▁판결문	-17858
▁헤이안	-17859
▁현충원	-17860
▁홍영표	-17861
ivers	-17862
▁노르망디	-17863
▁알래스카	-17864
▁、	-17865
▁土	-17866
영화	-17867
▁감량	-17868
▁근만	-17869
▁김두	-17870
▁도의	-17871
▁레프	-17872
▁만물	-17873
▁무공	-17874
▁배트	-17875
▁생도	-17876
▁서주	-17877
▁스루	-17878
▁심기	-17879
▁쐐기	-17880
▁애도	-17881
▁양당	-17882
▁어라	-17883
▁우동	-17884
▁음란	-17885
▁일진	-17886
▁자폐	-17887
▁장도	-17888
▁접시	-17889
▁조그	-17890
▁천식	-17891
▁첫해	-17892
▁추념	-17893
▁편도	-17894
▁픽셀	-17895
▁공로패	-17896
▁목욕탕	-17897
▁방문자	-17898
▁이강인	-17899
▁저스틴	-17900
▁주니치	-17901
▁진료소	-17902
▁1873	-17903
▁Cent	-17904
▁메이크업	-17905
▁이뤄지도록	-17906
▁한국가스공사	-17907
▁―	-17908
▁岩	-17909
▁玄	-17910
▁豊	-17911
▁렴	-17912
평리	-17913
호란	-17914
▁IM	-17915
▁VS	-17916
▁그란	-17917
▁늘릴	-17918
▁달할	-17919
▁대첩	-17920
▁라즈	-17921
▁로얄	-17922
▁배임	-17923
▁범람	-17924
▁변종	-17925
▁보탰	-17926
▁분만	-17927
▁샤이	-17928
▁숙명	-17929
▁승하	-17930
▁었었	-17931
▁에로	-17932
▁여호	-17933
▁영풍	-17934
▁잊혀	-17935
▁장직	-17936
▁좁혀	-17937
▁주춤	-17938
▁줘서	-17939
▁지치	-17940
▁짜릿	-17941
▁차리	-17942
▁총수	-17943
▁향연	-17944
▁229	-17945
▁SKY	-17946
▁군사력	-17947
▁로렌스	-17948
▁무서운	-17949
▁밑거름	-17950
▁사무처	-17951
▁산스크	-17952
▁윤성환	-17953
▁참의원	-17954
▁탈리아	-17955
▁평화상	-17956
▁행정동	-17957
▁1865	-17958
▁1887	-17959
▁문화축제	-17960
▁사회봉사	-17961
▁인공위성	-17962
▁사회민주당	-17963
▁산스크리트	-17964
▁암스테르담	-17965
▁修	-17966
▁運	-17967
▁녕	-17968
▁뮐	-17969
▁가변	-17970
▁객석	-17971
▁광천	-17972
▁군복	-17973
▁덴쇼	-17974
▁도성	-17975
▁러일	-17976
▁로워	-17977
▁맞선	-17978
▁몰수	-17979
▁반출	-17980
▁베트	-17981
▁사쿠	-17982
▁산전	-17983
▁역습	-17984
▁옥타	-17985
▁용감	-17986
▁장부	-17987
▁주공	-17988
▁질투	-17989
▁천리	-17990
▁팝업	-17991
▁포츠	-17992
▁해왕	-17993
이글스	-17994
▁Art	-17995
▁Day	-17996
▁LTE	-17997
▁MTV	-17998
▁구례군	-17999
▁김동일	-18000
▁눈부신	-18001
▁독립성	-18002
▁롬바르	-18003
▁마포구	-18004
▁바그너	-18005
▁이대로	-18006
▁정진욱	-18007
▁참으로	-18008
▁프린팅	-18009
▁확고히	-18010
▁1850	-18011
▁메릴랜드	-18012
▁미네소타	-18013
▁브루나이	-18014
▁열렸으며	-18015
ep	-18016
▁者	-18017
▁낀	-18018
▁훙	-18019
바나	-18020
형제	-18021
ero	-18022
▁강압	-18023
▁고영	-18024
▁고택	-18025
▁기득	-18026
▁도상	-18027
▁동자	-18028
▁세차	-18029
▁스모	-18030
▁스팀	-18031
▁식스	-18032
▁신창	-18033
▁아편	-18034
▁안마	-18035
▁여종	-18036
▁온열	-18037
▁위패	-18038
▁유틸	-18039
▁직물	-18040
▁충렬	-18041
▁태림	-18042
▁화소	-18043
변속기	-18044
▁TBS	-18045
▁간사이	-18046
▁개체군	-18047
▁고창군	-18048
▁기록관	-18049
▁끌어내	-18050
▁손바닥	-18051
▁송전선	-18052
▁스터디	-18053
▁위나라	-18054
▁정확도	-18055
▁지리학	-18056
▁최적지	-18057
▁페이퍼	-18058
▁플루트	-18059
▁행진곡	-18060
▁유틸리티	-18061
▁名	-18062
▁숍	-18063
갈이	-18064
미스	-18065
여래	-18066
호우	-18067
▁가만	-18068
▁경실	-18069
▁경의	-18070
▁금년	-18071
▁누비	-18072
▁대박	-18073
▁등교	-18074
▁란트	-18075
▁메우	-18076
▁바쳐	-18077
▁생사	-18078
▁성품	-18079
▁세레	-18080
▁송종	-18081
▁수작	-18082
▁순성	-18083
▁아츠	-18084
▁알로	-18085
▁온몸	-18086
▁완결	-18087
▁음절	-18088
▁챙긴	-18089
린다는	-18090
몰로지	-18091
▁공식전	-18092
▁기뻐하	-18093
▁도로변	-18094
▁소장품	-18095
▁오메가	-18096
▁완벽히	-18097
▁포식자	-18098
▁광역철도	-18099
▁레드삭스	-18100
▁슬라이드	-18101
▁집중호우	-18102
FL	-18103
렐라	-18104
리코	-18105
정호	-18106
PGA	-18107
out	-18108
▁강했	-18109
▁견지	-18110
▁됐었	-18111
▁백과	-18112
▁봉해	-18113
▁새싹	-18114
▁습윤	-18115
▁암초	-18116
▁오션	-18117
▁이차	-18118
▁입안	-18119
▁조봉	-18120
▁존엄	-18121
▁중용	-18122
▁차인	-18123
▁쿼크	-18124
▁편중	-18125
▁혼혈	-18126
마르크	-18127
▁219	-18128
▁560	-18129
▁게임즈	-18130
▁골든벨	-18131
▁마법사	-18132
▁산사태	-18133
▁소고기	-18134
▁습니까	-18135
▁쓰러져	-18136
▁알아내	-18137
▁엉덩이	-18138
▁이륜차	-18139
▁평안도	-18140
▁후반전	-18141
▁John	-18142
▁고속철도	-18143
▁제네시스	-18144
▁증강현실	-18145
▁카스티야	-18146
▁Korea	-18147
11	-18148
▁伊	-18149
▁秀	-18150
▁靈	-18151
▁꽁	-18152
▁캣	-18153
연료	-18154
위안	-18155
타입	-18156
히드	-18157
ail	-18158
ake	-18159
▁IV	-18160
▁고비	-18161
▁국력	-18162
▁군벌	-18163
▁더운	-18164
▁득실	-18165
▁로트	-18166
▁방음	-18167
▁불태	-18168
▁안나	-18169
▁안도	-18170
▁진척	-18171
▁채운	-18172
▁탄성	-18173
▁페오	-18174
▁한숨	-18175
▁호시	-18176
스토크	-18177
체육회	-18178
티모어	-18179
▁강대국	-18180
▁거제시	-18181
▁고분자	-18182
▁기울일	-18183
▁동창회	-18184
▁모자라	-18185
▁부르주	-18186
▁앙골라	-18187
▁일회용	-18188
▁하노버	-18189
▁부산진구	-18190
▁대한체육회	-18191
▁β	-18192
▁科	-18193
▁鄕	-18194
▁쫄	-18195
데라	-18196
사우	-18197
은희	-18198
학년	-18199
ife	-18200
▁CR	-18201
▁격돌	-18202
▁경이	-18203
▁내진	-18204
▁닉슨	-18205
▁모건	-18206
▁미신	-18207
▁비지	-18208
▁사극	-18209
▁싫어	-18210
▁악역	-18211
▁조우	-18212
▁지용	-18213
▁침식	-18214
▁피셔	-18215
▁하로	-18216
▁항문	-18217
▁헤더	-18218
▁휴업	-18219
▁325	-18220
▁BRT	-18221
▁CIA	-18222
▁건너편	-18223
▁글러브	-18224
▁기록원	-18225
▁김종국	-18226
▁발자국	-18227
▁빅토르	-18228
▁외무부	-18229
▁이라도	-18230
▁클라리	-18231
▁표창장	-18232
덴부르크	-18233
▁1891	-18234
▁레인저스	-18235
▁컨트롤러	-18236
▁어린이재단	-18237
▁歌	-18238
히사	-18239
▁RC	-18240
▁거스	-18241
▁경무	-18242
▁교착	-18243
▁귀한	-18244
▁금동	-18245
▁도저	-18246
▁매표	-18247
▁반문	-18248
▁반일	-18249
▁병영	-18250
▁부엌	-18251
▁소변	-18252
▁쇄도	-18253
▁수표	-18254
▁식음	-18255
▁안구	-18256
▁어치	-18257
▁오대	-18258
▁우여	-18259
▁원군	-18260
▁이니	-18261
▁이덕	-18262
▁잉크	-18263
▁장시	-18264
▁장전	-18265
▁전열	-18266
▁차액	-18267
▁토프	-18268
▁황당	-18269
▁근거리	-18270
▁발레단	-18271
▁비둘기	-18272
▁세라믹	-18273
▁인해서	-18274
▁주계열	-18275
▁준다고	-18276
▁클라우	-18277
▁삼국유사	-18278
▁자유민주	-18279
곡절	-18280
료품	-18281
미즈	-18282
바퀴	-18283
비츠	-18284
서기	-18285
인드	-18286
징계	-18287
▁'.	-18288
▁강석	-18289
▁고관	-18290
▁김나	-18291
▁낙양	-18292
▁네모	-18293
▁노현	-18294
▁대열	-18295
▁대유	-18296
▁땅볼	-18297
▁리트	-18298
▁마타	-18299
▁마테	-18300
▁말단	-18301
▁망설	-18302
▁미약	-18303
▁백범	-18304
▁버러	-18305
▁벙커	-18306
▁보우	-18307
▁서지	-18308
▁승상	-18309
▁시몬	-18310
▁애로	-18311
▁저력	-18312
▁좁히	-18313
▁진달	-18314
▁청신	-18315
▁추궁	-18316
▁허성	-18317
▁헌병	-18318
▁형용	-18319
▁노조원	-18320
▁밸런스	-18321
▁송파구	-18322
▁수개월	-18323
▁에스페	-18324
▁였음을	-18325
▁오슬로	-18326
▁정재훈	-18327
▁제갈량	-18328
▁지구촌	-18329
▁하이다	-18330
▁1881	-18331
▁LPGA	-18332
▁두드러진	-18333
▁장례식장	-18334
▁불러일으켰	-18335
▁세인트루이스	-18336
82	-18337
▁꿇	-18338
드기	-18339
쓰마	-18340
erg	-18341
▁Pl	-18342
▁가도	-18343
▁과속	-18344
▁곽상	-18345
▁교로	-18346
▁구르	-18347
▁누출	-18348
▁동관	-18349
▁랭크	-18350
▁새겼	-18351
▁수선	-18352
▁어장	-18353
▁월동	-18354
▁잔해	-18355
▁최충	-18356
▁화법	-18357
▁520	-18358
▁검사장	-18359
▁경실련	-18360
▁공방전	-18361
▁그랜트	-18362
▁급부상	-18363
▁데이브	-18364
▁박종대	-18365
▁발자취	-18366
▁세탁기	-18367
▁심포니	-18368
▁지사장	-18369
▁테두리	-18370
▁끌어들이	-18371
▁들여다보	-18372
▁우여곡절	-18373
▁카르타고	-18374
EE	-18375
▁楊	-18376
▁遺	-18377
▁췌	-18378
박사	-18379
카리	-18380
iel	-18381
▁귀순	-18382
▁금관	-18383
▁들였	-18384
▁미로	-18385
▁법화	-18386
▁비만	-18387
▁선풍	-18388
▁성년	-18389
▁열광	-18390
▁온건	-18391
▁월남	-18392
▁유장	-18393
▁응력	-18394
▁의인	-18395
▁주창	-18396
▁지갑	-18397
▁지아	-18398
▁칭기	-18399
▁타깃	-18400
▁황새	-18401
▁히토	-18402
▁고마움	-18403
▁김부겸	-18404
▁다이쇼	-18405
▁루체른	-18406
▁마이어	-18407
▁면천면	-18408
▁무너져	-18409
▁복지부	-18410
▁수사대	-18411
▁식생활	-18412
▁앤더슨	-18413
▁영도구	-18414
▁영수증	-18415
▁윤동주	-18416
▁프라자	-18417
▁핵연료	-18418
▁키르기스스탄	-18419
▁右	-18420
▁鐵	-18421
렁이	-18422
브로	-18423
삼수	-18424
수스	-18425
ics	-18426
▁값진	-18427
▁격추	-18428
▁관망	-18429
▁동진	-18430
▁뜻밖	-18431
▁라리	-18432
▁매킨	-18433
▁부록	-18434
▁불려	-18435
▁불발	-18436
▁불우	-18437
▁빅스	-18438
▁수레	-18439
▁애매	-18440
▁에픽	-18441
▁연화	-18442
▁엿보	-18443
▁오치	-18444
▁은거	-18445
▁을사	-18446
▁인적	-18447
▁입헌	-18448
▁전법	-18449
▁체온	-18450
▁초전	-18451
▁최수	-18452
▁키운	-18453
▁평준	-18454
▁프루	-18455
▁학예	-18456
▁한서	-18457
▁허술	-18458
▁All	-18459
▁갑상선	-18460
▁부원군	-18461
▁사우디	-18462
▁상여금	-18463
▁송충원	-18464
▁지질학	-18465
▁튀어나	-18466
▁파시즘	-18467
▁현판식	-18468
▁대승불교	-18469
▁삼층석탑	-18470
▁해양경찰	-18471
단위	-18472
라니	-18473
매기	-18474
저씨	-18475
진보	-18476
클로	-18477
탄올	-18478
필품	-18479
ank	-18480
▁가급	-18481
▁감액	-18482
▁그친	-18483
▁깃털	-18484
▁내건	-18485
▁냉정	-18486
▁농심	-18487
▁누워	-18488
▁로로	-18489
▁리포	-18490
▁모태	-18491
▁무가	-18492
▁부파	-18493
▁성자	-18494
▁신영	-18495
▁외할	-18496
▁일신	-18497
▁장바	-18498
▁제비	-18499
▁줄지	-18500
▁증발	-18501
▁템플	-18502
▁투하	-18503
▁풍미	-18504
▁해내	-18505
▁245	-18506
▁감독관	-18507
▁교두보	-18508
▁내비쳤	-18509
▁라이스	-18510
▁사대부	-18511
▁생필품	-18512
▁소지자	-18513
▁소홀히	-18514
▁송산면	-18515
▁스러웠	-18516
▁아저씨	-18517
▁어벤져	-18518
▁영상물	-18519
▁자료실	-18520
▁종목별	-18521
▁최경환	-18522
▁테네시	-18523
▁파푸아	-18524
▁필립스	-18525
▁하얀색	-18526
▁휴식기	-18527
▁Love	-18528
▁미나모토	-18529
▁오스트리	-18530
▁포스코건설	-18531
**	-18532
US	-18533
▁傳	-18534
▁壽	-18535
꼬리	-18536
대성	-18537
분자	-18538
상어	-18539
엽수	-18540
펙트	-18541
프턴	-18542
▁구기	-18543
▁금방	-18544
▁남이	-18545
▁도산	-18546
▁레퍼	-18547
▁만류	-18548
▁모유	-18549
▁버디	-18550
▁부기	-18551
▁북면	-18552
▁비어	-18553
▁선적	-18554
▁세연	-18555
▁소란	-18556
▁어는	-18557
▁오보	-18558
▁전가	-18559
▁접어	-18560
▁정약	-18561
▁제르	-18562
▁종량	-18563
▁직사	-18564
▁짐승	-18565
▁체가	-18566
▁출소	-18567
▁코리	-18568
▁투사	-18569
▁호감	-18570
▁후생	-18571
▁힘쓸	-18572
ress	-18573
▁213	-18574
▁255	-18575
▁갈라지	-18576
▁선데이	-18577
▁시달렸	-18578
▁운동부	-18579
▁총동원	-18580
▁최의성	-18581
▁출연금	-18582
▁하이퍼	-18583
축구협회	-18584
▁1878	-18585
▁갑작스런	-18586
▁낭만주의	-18587
▁루이지애나	-18588
▁대한축구협회	-18589
네트	-18590
막이	-18591
회전	-18592
ina	-18593
ton	-18594
▁El	-18595
▁WA	-18596
▁군내	-18597
▁굴뚝	-18598
▁난지	-18599
▁대양	-18600
▁도대	-18601
▁들러	-18602
▁섭외	-18603
▁손질	-18604
▁신변	-18605
▁영회	-18606
▁충동	-18607
▁캐롤	-18608
▁품평	-18609
▁합금	-18610
▁345	-18611
▁NGO	-18612
▁까마귀	-18613
▁내려진	-18614
▁달린다	-18615
▁마누엘	-18616
▁본거지	-18617
▁슈퍼맨	-18618
▁연천군	-18619
▁이승윤	-18620
▁조승우	-18621
▁총감독	-18622
▁치료비	-18623
ology	-18624
▁레퍼토리	-18625
▁응급처치	-18626
▁派	-18627
▁申	-18628
▁숯	-18629
▁개보	-18630
▁김건	-18631
▁끼워	-18632
▁라시	-18633
▁로리	-18634
▁메드	-18635
▁배영	-18636
▁수진	-18637
▁슬럼	-18638
▁오신	-18639
▁입담	-18640
▁전리	-18641
▁줄줄	-18642
▁차수	-18643
▁쿨링	-18644
▁타고	-18645
▁팔린	-18646
▁Mus	-18647
▁갖춰야	-18648
▁그늘막	-18649
▁로마자	-18650
▁반대파	-18651
▁볼로냐	-18652
▁부스터	-18653
▁성실히	-18654
▁스러움	-18655
▁어촌계	-18656
▁여객기	-18657
▁우의정	-18658
▁재산세	-18659
▁조직원	-18660
▁중생대	-18661
▁코소보	-18662
▁피닉스	-18663
▁한양대	-18664
▁해산물	-18665
▁황해도	-18666
▁1862	-18667
▁1875	-18668
▁가까스로	-18669
▁기념사진	-18670
▁복음주의	-18671
▁포르투갈어	-18672
▁교통안전공단	-18673
날두	-18674
덕왕	-18675
순환	-18676
슈타	-18677
진우	-18678
▁Gl	-18679
▁HT	-18680
▁관위	-18681
▁끈질	-18682
▁나요	-18683
▁녹조	-18684
▁단골	-18685
▁라바	-18686
▁모란	-18687
▁문관	-18688
▁살릴	-18689
▁세척	-18690
▁승패	-18691
▁시제	-18692
▁아유	-18693
▁어파	-18694
▁월트	-18695
▁유우	-18696
▁의외	-18697
▁익혀	-18698
▁자막	-18699
▁중랑	-18700
▁카마	-18701
▁코사	-18702
▁파사	-18703
▁하코	-18704
▁환관	-18705
▁회도	-18706
▁KDN	-18707
▁구단주	-18708
▁국무부	-18709
▁닭고기	-18710
▁비무장	-18711
▁사령탑	-18712
▁산학연	-18713
▁서사시	-18714
▁수혜자	-18715
▁신고자	-18716
▁의견서	-18717
▁이회창	-18718
▁제보자	-18719
▁조나라	-18720
▁프린스	-18721
▁항공대	-18722
▁호날두	-18723
▁1869	-18724
▁명성황후	-18725
▁아틀레틱	-18726
▁포메이션	-18727
▁프라이즈	-18728
▁나타났으며	-18729
SS	-18730
▁車	-18731
금고	-18732
나파	-18733
남면	-18734
론자	-18735
브웨	-18736
음식	-18737
▁SB	-18738
▁主義	-18739
▁가령	-18740
▁건지	-18741
▁결재	-18742
▁관아	-18743
▁광선	-18744
▁군관	-18745
▁낙관	-18746
▁된장	-18747
▁떠돌	-18748
▁몰린	-18749
▁미투	-18750
▁백조	-18751
▁변했	-18752
▁산조	-18753
▁승전	-18754
▁아랑	-18755
▁악명	-18756
▁애틋	-18757
▁유례	-18758
▁유이	-18759
▁음운	-18760
▁임성	-18761
▁재연	-18762
▁전서	-18763
▁조슈	-18764
▁존치	-18765
▁죽임	-18766
▁철원	-18767
▁최교	-18768
▁태후	-18769
▁튀김	-18770
▁파탄	-18771
▁포그	-18772
▁하회	-18773
▁핸들	-18774
▁헤일	-18775
idae	-18776
▁233	-18777
▁234	-18778
▁239	-18779
▁가공품	-18780
▁가파른	-18781
▁극작가	-18782
▁생성물	-18783
▁아세틸	-18784
▁여진족	-18785
▁영호남	-18786
▁중기청	-18787
▁최연수	-18788
▁토론자	-18789
베이거스	-18790
▁꾸며진다	-18791
▁무궁화호	-18792
▁산업은행	-18793
▁조선왕조	-18794
▁카테고리	-18795
▁라스베이거스	-18796
▁佐	-18797
선열	-18798
이나	-18799
자랑	-18800
참찬	-18801
▁MM	-18802
▁구문	-18803
▁긴키	-18804
▁낙점	-18805
▁동초	-18806
▁동편	-18807
▁리사	-18808
▁몰타	-18809
▁봉하	-18810
▁부왕	-18811
▁빨강	-18812
▁삽교	-18813
▁서핑	-18814
▁성시	-18815
▁앤디	-18816
▁양일	-18817
▁원청	-18818
▁은밀	-18819
▁이근	-18820
▁입선	-18821
▁전할	-18822
▁조림	-18823
▁코마	-18824
▁탄수	-18825
▁평점	-18826
▁훔친	-18827
네그로	-18828
▁238	-18829
▁GPS	-18830
▁무너진	-18831
▁부득이	-18832
▁소매점	-18833
▁식물원	-18834
▁신주쿠	-18835
▁예산제	-18836
▁올바르	-18837
▁유년기	-18838
▁의존도	-18839
▁입법부	-18840
▁총면적	-18841
▁함부로	-18842
▁허베이	-18843
▁검정고시	-18844
▁남베트남	-18845
▁남한산성	-18846
▁마을금고	-18847
▁무로마치	-18848
▁베르나르	-18849
▁서바이벌	-18850
▁요리토모	-18851
▁보컬리스트	-18852
▁墓	-18853
▁맬	-18854
알라	-18855
클러	-18856
폭탄	-18857
ene	-18858
▁RO	-18859
▁거성	-18860
▁곡면	-18861
▁군세	-18862
▁기스	-18863
▁노아	-18864
▁대자	-18865
▁도원	-18866
▁두통	-18867
▁로저	-18868
▁마칠	-18869
▁매회	-18870
▁몹시	-18871
▁백정	-18872
▁번복	-18873
▁병동	-18874
▁병마	-18875
▁병설	-18876
▁보합	-18877
▁복안	-18878
▁소하	-18879
▁송재	-18880
▁아델	-18881
▁유다	-18882
▁자루	-18883
▁전극	-18884
▁주중	-18885
▁코뮌	-18886
▁타개	-18887
▁패드	-18888
▁폭소	-18889
▁학당	-18890
▁화승	-18891
사이클	-18892
▁USB	-18893
▁다항식	-18894
▁도망치	-18895
▁레오폴	-18896
▁반정부	-18897
▁상속인	-18898
▁시트콤	-18899
▁안티오	-18900
▁에스컬	-18901
▁지역상	-18902
▁창의력	-18903
▁칭기즈	-18904
▁1863	-18905
▁4500	-18906
▁무너뜨리	-18907
▁프린스턴	-18908
▁에스컬레이터	-18909
LE	-18910
▁線	-18911
▁딛	-18912
▁싯	-18913
갱이	-18914
누마	-18915
보우	-18916
쇼프	-18917
▁CU	-18918
▁EM	-18919
▁거사	-18920
[...]
